[UNK]	0
[PAD]	0
[SOS]	0
[STOP]	0
[USER]	0
[BOT]	0
[SYSTEM]	0
▁የ	-0
▁በ	-1
▁እ	-2
▁አ	-3
▁መ	-4
▁።	-5
▁ከ	-6
▁ተ	-7
▁እና	-8
▁ለ	-9
▁፣	-10
ዎች	-11
▁እን	-12
▁ው	-13
▁ነ	-14
▁ይ	-15
▁ወ	-16
▁ስ	-17
ላይ	-18
▁ማ	-19
▁ያ	-20
▁ውስ	-21
▁ውስጥ	-22
▁ላይ	-23
▁የተ	-24
▁ም	-25
▁1	-26
ቸው	-27
ነት	-28
ቶች	-29
▁የሚ	-30
▁ግ	-31
▁እንደ	-32
▁ብ	-33
ንድ	-34
▁በመ	-35
▁ሰ	-36
▁ሲ	-37
ሪያ	-38
በር	-39
▁ባ	-40
▁ክ	-41
▁የመ	-42
▁ጥ	-43
▁ት	-44
▁ነው	-45
▁(	-46
▁2	-47
▁የአ	-48
ስት	-49
ውን	-50
ስተ	-51
ንግ	-52
▁ደ	-53
ዋል	-54
▁በአ	-55
▁ቀ	-56
▁ወደ	-57
▁ጋ	-58
▁በተ	-59
▁ሀ	-60
▁ሁ	-61
ጊዜ	-62
▁ለመ	-63
▁ቤ	-64
ለው	-65
ተኛ	-66
ሆን	-67
▁ድ	-68
▁19	-69
▁ጋር	-70
ችን	-71
▁እንዲ	-72
▁ዘ	-73
▁ጊዜ	-74
▁"	-75
▁ካ	-76
▁20	-77
▁ል	-78
ሆነ	-79
ጀመ	-80
▁ህ	-81
▁ታ	-82
▁ሊ	-83
▁ነበር	-84
▁ገ	-85
▁ይህ	-86
ዚህ	-87
▁ለማ	-88
ርት	-89
ኋላ	-90
▁ግን	-91
በት	-92
▁አስ	-93
ል።	-94
ያን	-95
ዎችን	-96
▁በኋላ	-97
ረጃ	-98
ደር	-99
▁ኮ	-100
ለት	-101
▁አመ	-102
ሳይ	-103
ሎች	-104
▁ሚ	-105
▁ፍ	-106
ሆኑ	-107
ጀመሪያ	-108
ንያ	-109
▁በማ	-110
ለም	-111
▁ኢ	-112
ደረ	-113
ንስ	-114
▁ኤ	-115
ኛው	-116
ይም	-117
መን	-118
▁አይ	-119
በረ	-120
▁ጉ	-121
▁አን	-122
ሮች	-123
▁ቢ	-124
ራዊ	-125
ገር	-126
▁ሲሆን	-127
ረት	-128
▁ጠ	-129
ላል	-130
ሪካ	-131
▁ክፍ	-132
ማሪ	-133
ድር	-134
▁ዋ	-135
▁ቅ	-136
ካከ	-137
▁ምክ	-138
▁እስ	-139
ትን	-140
▁አንድ	-141
▁አል	-142
▁ከተ	-143
▁ሆ	-144
ራት	-145
▁የማ	-146
▁ፕ	-147
ንት	-148
▁የእ	-149
ቷል	-150
00	-151
ንም	-152
▁አካ	-153
▁ና	-154
▁ሞ	-155
▁ቤት	-156
ቸውን	-157
ተር	-158
ርድ	-159
▁ጨ	-160
▁ስለ	-161
▁ወይም	-162
ዎቹ	-163
▁መስ	-164
▁ሙ	-165
ሚያ	-166
ገና	-167
▁ቦ	-168
▁ቀን	-169
▁ኦ	-170
▁ቡ	-171
ርስ	-172
▁ሌ	-173
ፍተኛ	-174
ምህ	-175
▁ን	-176
▁ደረጃ	-177
መር	-178
▁ባለ	-179
ድን	-180
▁ፈ	-181
▁ፓ	-182
መለ	-183
▁ስር	-184
ገድ	-185
▁በእ	-186
▁ዳ	-187
▁ዝ	-188
▁በሚ	-189
ጣም	-190
▁201	-191
ሪክ	-192
▁መን	-193
▁ምክንያ	-194
ታል	-195
ቢያ	-196
▁ሳ	-197
▁ቁ	-198
ፊት	-199
ኞች	-200
▁መካከ	-201
ቶችን	-202
▁ዲ	-203
ላቸው	-204
▁አው	-205
ስታ	-206
▁የሚያ	-207
▁እስከ	-208
▁ሴ	-209
ረስ	-210
ዚያ	-211
ክስ	-212
ቦች	-213
▁የመጀመሪያ	-214
ኖች	-215
▁ብዙ	-216
ገል	-217
ሰብ	-218
▁ሀይ	-219
▁በጣም	-220
▁ተከ	-221
ቱን	-222
ባቢ	-223
..	-224
ኔታ	-225
ራል	-226
የር	-227
▁ያለው	-228
▁እየ	-229
ባት	-230
ናት	-231
ሜሪካ	-232
▁ስራ	-233
▁ሜ	-234
ላት	-235
▁ሁኔታ	-236
▁የስ	-237
▁መካከል	-238
▁አስተ	-239
▁ምር	-240
ምህርት	-241
▁የህ	-242
በሩ	-243
ጨማሪ	-244
▁ጉዳ	-245
▁መጠ	-246
ለያ	-247
▁ጎ	-248
ድረ	-249
ጥር	-250
ጦር	-251
▁ተመ	-252
ብር	-253
▁3	-254
ዶች	-255
ይት	-256
▁ይች	-257
ቅም	-258
ርክ	-259
ዋታ	-260
ፊል	-261
ቅር	-262
▁ከፍተኛ	-263
▁አለ	-264
▁እንዳ	-265
ንግስት	-266
ታዊ	-267
ጠቃ	-268
▁እንደሚ	-269
ምር	-270
ታት	-271
ሰን	-272
ሽን	-273
ለች	-274
▁ነው።	-275
ዋል።	-276
ገኘ	-277
ጨረ	-278
ምሮ	-279
ናል	-280
▁የው	-281
ግራ	-282
▁ከመ	-283
ዲስ	-284
▁ያለ	-285
▁ከአ	-286
ጠቀ	-287
ክት	-288
▁ናቸው	-289
▁200	-290
▁ፖ	-291
ግር	-292
ደም	-293
ባል	-294
▁የበ	-295
▁አቀ	-296
▁ውጤ	-297
▁ነገር	-298
▁ሰዎች	-299
ሁን	-300
ቀት	-301
ከተ	-302
▁የባ	-303
▁ዋና	-304
ቨር	-305
▁ች	-306
▁ይህም	-307
ተን	-308
ደረገ	-309
ጠና	-310
▁ሪ	-311
ነዚህ	-312
▁ሶ	-313
▁ሆኖ	-314
ጨረሻ	-315
▁ዩ	-316
▁ፕሮ	-317
ሰራ	-318
▁እንዲሁ	-319
▁ወቅ	-320
▁ጀ	-321
ሞች	-322
ማት	-323
▁ቦታ	-324
▁የወ	-325
▁ያሉ	-326
▁ዘመን	-327
▁ፅ	-328
▁ራ	-329
ታይ	-330
▁በዚህ	-331
▁ብቻ	-332
ዳን	-333
ልጣ	-334
ሉም	-335
ሰረ	-336
▁ጨዋታ	-337
▁አመት	-338
የት	-339
▁ተጫ	-340
▁ትምህርት	-341
▁የግ	-342
▁18	-343
ለተኛ	-344
▁ባህ	-345
ላንድ	-346
un	-347
▁ሳይ	-348
▁ያል	-349
ሳት	-350
ግባ	-351
ግሞ	-352
▁ሆነ	-353
▁ምክንያት	-354
ርካ	-355
አት	-356
ሪዎች	-357
▁ላ	-358
▁ድረስ	-359
▁የም	-360
▁የነ	-361
ዮን	-362
ስራ	-363
ረጋ	-364
▁በላይ	-365
ረው	-366
19	-367
▁ሁለት	-368
▁መር	-369
▁ወቅት	-370
ገኙ	-371
ገባ	-372
ራን	-373
ዝብ	-374
▁ሽ	-375
▁ክፍል	-376
ከላ	-377
▁ማእ	-378
ርቲ	-379
▁ኩ	-380
▁4	-381
▁ቴ	-382
▁ቤተ	-383
▁ዶ	-384
▁አም	-385
ገለ	-386
▁አብ	-387
▁የቀ	-388
ለያዩ	-389
▁ሮ	-390
▁ድር	-391
▁፡	-392
ቱም	-393
unk	-394
▁ምንም	-395
▁በፊት	-396
ሊያ	-397
ወት	-398
ትዮ	-399
▁የሀ	-400
▁በተጨማሪ	-401
▁-	-402
ላሉ	-403
▁ዴ	-404
ኒው	-405
ኩል	-406
▁በቀ	-407
▁አድር	-408
▁እድ	-409
▁እር	-410
ሏል	-411
▁ደግሞ	-412
ማን	-413
▁መንገድ	-414
▁<	-415
ልቅ	-416
ክል	-417
ታወ	-418
▁ማህ	-419
▁5	-420
ትዮጵ	-421
ድረግ	-422
▁ጆ	-423
▁የሆነ	-424
ጣት	-425
▁ኢን	-426
▁ተጫዋ	-427
ገን	-428
▁ሂ	-429
ጠር	-430
▁ቡድን	-431
▁ጣ	-432
▁የተመ	-433
▁ጥቅም	-434
▁እንዲሁም	-435
▁የሰ	-436
▁የኢ	-437
ፈል	-438
▁ስም	-439
ተው	-440
ዘጋ	-441
▁ተወ	-442
ከራ	-443
ተዋል	-444
ትስ	-445
ይን	-446
ለጠ	-447
▁ለአ	-448
ዮች	-449
▁የካ	-450
ገልግ	-451
▁በግ	-452
▁ፊል	-453
ረብ	-454
ወሰ	-455
▁እናም	-456
ባቸው	-457
ትዮጵያ	-458
ደን	-459
ውያን	-460
ሬት	-461
ሳብ	-462
▁ሰው	-463
ፍት	-464
▁ተቀ	-465
ርዝ	-466
▁199	-467
▁ያስ	-468
▁ሌሎች	-469
▁በሰ	-470
▁ኪ	-471
▁አካባቢ	-472
ያዎች	-473
▁በስ	-474
ሎጂ	-475
▁ልዩ	-476
ቾች	-477
▁ከዚያ	-478
ቃል	-479
▁ውድ	-480
ዛት	-481
▁በሁ	-482
▁የታ	-483
▁ይችላል	-484
▁ረ	-485
▁አስፈ	-486
ደት	-487
ለን	-488
ልስ	-489
ቀር	-490
ምና	-491
ላማ	-492
ችል	-493
ገኝ	-494
▁መጠን	-495
▁መንግስት	-496
▁የኮ	-497
ምፒ	-498
▁፤	-499
ቋቋ	-500
ናይት	-501
ሄራዊ	-502
▁ሀይል	-503
▁ተብ	-504
ሲቲ	-505
ደው	-506
▁በተጨማሪም	-507
▁ጦር	-508
ረን	-509
ቤት	-510
ብስ	-511
▁አማ	-512
▁ወረ	-513
ጠቃላይ	-514
▁አባ	-515
▁ነበር።	-516
▁የት	-517
▁የሙ	-518
ጠራ	-519
▁ነበሩ	-520
ሳሳይ	-521
▁ይመ	-522
▁ጄ	-523
▁ስቴ	-524
▁አገልግ	-525
ደጋ	-526
▁ወን	-527
ቲክ	-528
ኖር	-529
ጠቀም	-530
▁መሰ	-531
▁መሆኑ	-532
ፖርት	-533
ከት	-534
ኳን	-535
▁ከተማ	-536
ከል	-537
ኒቨር	-538
ሉት	-539
▁አመታት	-540
▁መረጃ	-541
▁እነዚህ	-542
ዳንድ	-543
▁ሄ	-544
ላዊ	-545
▁ቆ	-546
ናይትድ	-547
ኒቨርሲቲ	-548
ሳሪያ	-549
ቃት	-550
ለኛ	-551
▁ፋ	-552
▁ምን	-553
▁ኳ	-554
መራ	-555
ንን	-556
20	-557
ልክ	-558
ቡብ	-559
ሜን	-560
እራ	-561
▁እንደገና	-562
▁የብ	-563
▁አዲስ	-564
ቲካ	-565
▁ተፅ	-566
▁6	-567
▁በታ	-568
እኖ	-569
▁ማስ	-570
▁ተፅእኖ	-571
▁ቅር	-572
ገኘው	-573
ምት	-574
ስተኛ	-575
ምን	-576
▁የበለጠ	-577
ጀር	-578
▁እሱ	-579
ላን	-580
▁ያላቸው	-581
ኒያ	-582
ካት	-583
▁ወር	-584
▁ግንኙ	-585
▁አሸ	-586
ገኛ	-587
ርካታ	-588
ዘር	-589
▁እንኳን	-590
ሻሻ	-591
ኝነት	-592
ፅሀ	-593
▁አለም	-594
ለዋል	-595
ታደ	-596
ኘት	-597
ሯል	-598
▁S	-599
▁በህ	-600
ድሞ	-601
ህር	-602
▁እው	-603
▁ተና	-604
▁መሳሪያ	-605
▁ታሪክ	-606
ንሰ	-607
▁ትን	-608
ጆች	-609
er	-610
ባንያ	-611
▁ሻ	-612
▁ነገ	-613
ላጊ	-614
በረው	-615
▁በሀ	-616
▁ቡድ	-617
ከር	-618
▁ር	-619
ታታይ	-620
ሎት	-621
▁ክል	-622
ብረ	-623
ይወት	-624
ቂያ	-625
▁ተሰ	-626
▁ከእ	-627
▁በርካታ	-628
▁ጭ	-629
▁የፖ	-630
▁ሚኒ	-631
▁198	-632
▁የአሜሪካ	-633
ግለ	-634
ቅስ	-635
▁በወ	-636
ታቸው	-637
▁C	-638
ደበ	-639
▁ዩኒቨርሲቲ	-640
ነቱ	-641
ኤል	-642
ኤስ	-643
▁ኛው	-644
▁በጥ	-645
▁ፀ	-646
ተኞች	-647
ያው	-648
▁መል	-649
▁በሙ	-650
ፋት	-651
ታማ	-652
▁በኩል	-653
ሊን	-654
▁መሆኑን	-655
▁አር	-656
ታው	-657
▁ዘዴ	-658
ዲዮ	-659
ጠበ	-660
ከሰ	-661
ሊዝ	-662
▁አቅ	-663
▁በተለ	-664
▁ሁለተኛ	-665
▁7	-666
▁ኳስ	-667
ያል	-668
▁አሳ	-669
ቃሴ	-670
▁ሲል	-671
ቅስቃሴ	-672
ይና	-673
ትር	-674
▁ጀምሮ	-675
ልድ	-676
▁ሁሉ	-677
▁አስፈላጊ	-678
▁ተለ	-679
ንፃ	-680
ገነ	-681
▁ፒ	-682
▁በብ	-683
▁በካ	-684
ርስቲ	-685
▁ከሚ	-686
ፃፀ	-687
ናዊ	-688
▁ቶ	-689
ንካ	-690
▁ይሰ	-691
▁ዊ	-692
ይል	-693
▁አንዱ	-694
ሮችን	-695
▁መሰረት	-696
▁የተለያዩ	-697
ነሳ	-698
▁ስርአት	-699
ዘብ	-700
ሶች	-701
▁ያሳ	-702
▁የኦ	-703
ዳደር	-704
▁ማጣ	-705
▁I	-706
ላለ	-707
▁አንዳንድ	-708
ስተር	-709
▁አሰ	-710
▁ሸ	-711
▁ፕሬ	-712
ያዊ	-713
ሊዮን	-714
▁የተመሰረ	-715
ሊስ	-716
▁እየተ	-717
ሻዎች	-718
ረም	-719
▁ተብሎ	-720
▁ኩባንያ	-721
▁እንቅስቃሴ	-722
ዋና	-723
▁ዙ	-724
ሱን	-725
▁ተጫዋቾች	-726
▁ኬ	-727
▁በከ	-728
▁ሬ	-729
▁አግ	-730
▁ማን	-731
▁197	-732
▁የኤ	-733
▁ዜ	-734
ዩናይትድ	-735
ሞክ	-736
▁ስቴትስ	-737
የም	-738
ለቲካ	-739
▁እያ	-740
ክምና	-741
▁አቀፍ	-742
ንግድ	-743
▁ፎ	-744
▁ገል	-745
▁ስነ	-746
▁አጋ	-747
▁ሰራ	-748
ካል	-749
ፈር	-750
▁8	-751
▁አካል	-752
▁ብሄራዊ	-753
ካሄ	-754
ስቲ	-755
▁ጨምሮ	-756
▁መብ	-757
▁ወታደ	-758
ፈጥ	-759
▁ለው	-760
▁እንጂ	-761
▁ዘመ	-762
▁ቁጥር	-763
▁በመጠቀም	-764
▁ፅሁ	-765
ስራቅ	-766
ሚዎች	-767
ቆጣ	-768
▁ተስ	-769
in	-770
ዳት	-771
▁ትር	-772
▁እንደሚያ	-773
▁ሙሉ	-774
▁ብሎ	-775
ቋል	-776
▁ምስ	-777
▁አይደ	-778
ዷል	-779
▁የተሰ	-780
ደቡብ	-781
ቀው	-782
▁መለ	-783
ብረት	-784
▁የክ	-785
ደረጉ	-786
▁ቻ	-787
ግብ	-788
▁ክፍለ	-789
ላር	-790
▁አገ	-791
▁በት	-792
▁ተደር	-793
ጥነት	-794
ቀነ	-795
ሳሌ	-796
▁ጉዳይ	-797
ዳና	-798
ጣል	-799
▁10	-800
ላው	-801
ነቶች	-802
መረ	-803
ካይ	-804
▁ጥናት	-805
ጠው	-806
▁አይነት	-807
ጥጥር	-808
ም።	-809
▁የባህር	-810
000	-811
ራቸው	-812
▁ተጨማሪ	-813
ቦት	-814
▁በኢ	-815
on	-816
ሳስ	-817
ቀመ	-818
▁ተናግ	-819
▁ባለው	-820
▁አዳ	-821
ኮች	-822
▁ያልተ	-823
▁ሱ	-824
▁አድ	-825
▁ተግባ	-826
ባዊ	-827
▁ተመሳሳይ	-828
ገብ	-829
▁እንደሆነ	-830
ለል	-831
▁ሶስት	-832
ሉ።	-833
ናገ	-834
▁ዮ	-835
▁ይሁን	-836
ክተር	-837
ምፅ	-838
▁A	-839
ንቲ	-840
▁9	-841
▁የአለም	-842
ግኘት	-843
ጠቅ	-844
▁ማለት	-845
▁ቋ	-846
▁ዎቹ	-847
▁ጃ	-848
▁196	-849
ዚቃ	-850
▁ቀደም	-851
▁ቪ	-852
ስትራ	-853
▁መጀመሪያ	-854
ያንዳን	-855
ንጋ	-856
▁አሁን	-857
▁ድርጅ	-858
ከና	-859
▁ኮሚ	-860
ሁኑ	-861
▁አሜሪካ	-862
▁ሞዴ	-863
▁ጣቢያ	-864
▁ስት	-865
▁በም	-866
▁ከባ	-867
▁ተቋ	-868
▁ጂ	-869
▁ቴክ	-870
▁በኮ	-871
ፍሪካ	-872
ሳተ	-873
ፈው	-874
ህን	-875
ቦችን	-876
ማር	-877
ነሱ	-878
▁የጦር	-879
▁መርከ	-880
መው	-881
ያቄ	-882
▁ህግ	-883
ሪስ	-884
▁ግንኙነት	-885
ኮኖ	-886
▁ሩ	-887
▁አግኝ	-888
▁ይችላሉ	-889
▁ኛ	-890
▁ሊያ	-891
▁ተከታታይ	-892
ጠት	-893
▁በአንድ	-894
▁የቴ	-895
ኒክ	-896
▁ሁለ	-897
ሌሎች	-898
መት	-899
ውሮ	-900
ሀን	-901
▁ምርጫ	-902
▁ልጅ	-903
ላቀ	-904
▁እንዲያ	-905
ምነት	-906
▁ተቃ	-907
ማሪዎች	-908
ከተማ	-909
▁የማይ	-910
ለመ	-911
▁በመጨረሻ	-912
ሎችን	-913
▁ትራ	-914
▁ጦርነት	-915
▁ስርአ	-916
▁ፍላ	-917
ጓል	-918
▁እንደተ	-919
▁M	-920
ዋቂ	-921
▁ሌላ	-922
ያዝ	-923
ሌክት	-924
ህል	-925
▁በባ	-926
ንክ	-927
▁በኤ	-928
▁የፍ	-929
ቹን	-930
▁ቲ	-931
▁ማጣቀ	-932
ላፊ	-933
▁በፍ	-934
ገደ	-935
ጠናቀ	-936
ጅም	-937
ድድር	-938
▁ጥያቄ	-939
ወስ	-940
▁የሞ	-941
ቀጥ	-942
▁የህዝብ	-943
ጠረ	-944
▁ፓርቲ	-945
ጤና	-946
▁ጎዳና	-947
18	-948
▁194	-949
▁/	-950
ጋቢ	-951
▁አልተ	-952
▁ለተ	-953
▁ምክር	-954
▁ከፍ	-955
▁በነ	-956
ንዳ	-957
▁N	-958
▁ሙከራ	-959
ሰው	-960
▁አባላት	-961
▁ሚኒስት	-962
ሸነ	-963
▁ምእራ	-964
▁ፊ	-965
▁የፈ	-966
▁ሁሉም	-967
▁ቤቶች	-968
ምገ	-969
▁የሆኑ	-970
ጎት	-971
ረጋገ	-972
▁የውድድር	-973
ቅድ	-974
▁ክልል	-975
ቻቸው	-976
▁ግዛት	-977
በል	-978
▁የፓ	-979
ፎች	-980
ታዎች	-981
ልፍ	-982
▁ቫ	-983
▁አደጋ	-984
▁ካር	-985
ክሲ	-986
በራዊ	-987
ዋን	-988
▁'	-989
▁ሎ	-990
▁በስተ	-991
ሆና	-992
▁የራ	-993
ንቋ	-994
▁ነፃ	-995
ጠሩ	-996
▁ምክንያቱም	-997
ማሽ	-998
በው	-999
ደረገው	-1000
ረዋል	-1001
ወጣ	-1002
ኖሩ	-1003
▁አጠቃላይ	-1004
ወለ	-1005
ችሉ	-1006
ቀሳ	-1007
ቅተኛ	-1008
ደራ	-1009
ስቱ	-1010
▁በመጀመሪያ	-1011
▁ዳር	-1012
ከላከ	-1013
ሪን	-1014
ልፅ	-1015
▁አፈ	-1016
ለር	-1017
▁ፌ	-1018
ነር	-1019
ዴት	-1020
ጧል	-1021
ሷል	-1022
ቀም	-1023
ቤተ	-1024
▁ህንፃ	-1025
ለሁ	-1026
▁P	-1027
▁T	-1028
ዳንት	-1029
ዳል	-1030
▁በሆነ	-1031
▁በኦ	-1032
▁ሰር	-1033
ደበኛ	-1034
▁የመጨረሻ	-1035
ብራ	-1036
ስር	-1037
▁በመስ	-1038
ጋፍ	-1039
▁ነጥ	-1040
ኬት	-1041
ፊያ	-1042
,000	-1043
an	-1044
ምፕ	-1045
▁ያለውን	-1046
ልማት	-1047
▁አጥ	-1048
ምስ	-1049
▁ፕሮግራ	-1050
መድ	-1051
ባይ	-1052
▁ሲያ	-1053
▁17	-1054
ቧል	-1055
ናን	-1056
▁የጥ	-1057
ዳጅ	-1058
▁የተባ	-1059
▁ማጣቀሻዎች	-1060
ገው	-1061
ንጫ	-1062
ቸዋል	-1063
▁ጠቅ	-1064
ሴቶች	-1065
ጀት	-1066
▁ጫ	-1067
▁15	-1068
ብስብ	-1069
▁የፕ	-1070
ስልጣ	-1071
ጋት	-1072
▁ዝርዝ	-1073
ያንዳንዱ	-1074
ሜት	-1075
ረንሳይ	-1076
ከናወ	-1077
ሶስት	-1078
▁ዛ	-1079
▁ውጤት	-1080
▁በሙሉ	-1081
ንግሊዝ	-1082
ደኛ	-1083
at	-1084
▁አቅር	-1085
▁አብዛ	-1086
ገት	-1087
ጀመረ	-1088
ያዘ	-1089
▁አይደለም	-1090
▁ፅሁፍ	-1091
▁ፍርድ	-1092
ምጃ	-1093
▁ስለሆነ	-1094
ላሽ	-1095
▁የተመሰረተ	-1096
ፊዎች	-1097
ጋራ	-1098
ቡር	-1099
ስን	-1100
▁ከዚህ	-1101
ሰባ	-1102
▁ግብ	-1103
ፐር	-1104
▁ትልቅ	-1105
▁አውሮ	-1106
es	-1107
ንዲ	-1108
▁ፊልሞች	-1109
▁መፅሀ	-1110
ሳኔ	-1111
▁195	-1112
▁ባል	-1113
▁አበ	-1114
ዥን	-1115
▁ለማስ	-1116
▁አለመ	-1117
▁R	-1118
▁ሚሊዮን	-1119
ሪታ	-1120
▁ጥቃት	-1121
ታቸውን	-1122
▁ትእ	-1123
ሟል	-1124
▁ልማት	-1125
en	-1126
▁ሴት	-1127
▁ሜዳ	-1128
▁ርእ	-1129
▁ችግር	-1130
ሁለት	-1131
▁በየ	-1132
▁ብር	-1133
▁እንዴት	-1134
▁ዶላር	-1135
ነትን	-1136
ዋወ	-1137
▁ህዝብ	-1138
ረጥ	-1139
ነው	-1140
ጠን	-1141
▁ቢሆን	-1142
▁እግር	-1143
▁ደር	-1144
ሰቡ	-1145
▁የድ	-1146
▁(19	-1147
ንታ	-1148
▁አባል	-1149
ርስቲያን	-1150
▁ጨዋታዎች	-1151
ቲት	-1152
ስኮ	-1153
በብ	-1154
ባቢው	-1155
▁የአየር	-1156
▁መግለ	-1157
ክሮ	-1158
▁ጥሩ	-1159
▁12	-1160
▁ሚና	-1161
ሄድ	-1162
▁እርምጃ	-1163
ተት	-1164
መስ	-1165
ሰር	-1166
▁ክፍሎች	-1167
ከላከያ	-1168
▁አነ	-1169
▁ፈቃ	-1170
ፈለ	-1171
ጭት	-1172
▁ከጊዜ	-1173
▁ድጋፍ	-1174
▁የሚል	-1175
ትል	-1176
▁ሀሳብ	-1177
ጦች	-1178
▁ይገኛ	-1179
ራሲ	-1180
▁የሚያስ	-1181
▁መዝ	-1182
▁ብዙውን	-1183
▁አገልግሎት	-1184
▁መዋ	-1185
▁ጉዳዮች	-1186
ጀል	-1187
ሁንም	-1188
ar	-1189
▁ቤቱ	-1190
▁የጎ	-1191
ማይ	-1192
ዋዋ	-1193
▁ወንድ	-1194
▁ማስተ	-1195
▁በሽ	-1196
▁መሪ	-1197
ቪዥን	-1198
ሰቦች	-1199
ላስ	-1200
▁ማድረግ	-1201
▁ገን	-1202
ቀረ	-1203
▁የመጀመሪያው	-1204
▁አላማ	-1205
▁ፀሀ	-1206
▁ሉ	-1207
▁የቀድሞ	-1208
▁ስታ	-1209
ውስ	-1210
በቃ	-1211
▁ዳርቻ	-1212
▁ሀላፊ	-1213
▁ሻምፒ	-1214
ጮች	-1215
ሲያ	-1216
▁16	-1217
ኪያ	-1218
ፖር	-1219
ንደ	-1220
▁ሆነው	-1221
▁ግራ	-1222
▁ሊግ	-1223
ጫዊ	-1224
▁ኢትዮጵያ	-1225
ደግ	-1226
ርን	-1227
ግዳ	-1228
▁በከፍተኛ	-1229
ቋቋም	-1230
▁ዮርክ	-1231
ገዋል	-1232
ጫወ	-1233
ጥታ	-1234
ታል።	-1235
▁ቃ	-1236
▁ያደር	-1237
▁አሁንም	-1238
▁አራት	-1239
ንካራ	-1240
▁ገፅ	-1241
ተና	-1242
▁ስል	-1243
ውንቲ	-1244
▁ምርመራ	-1245
ሴት	-1246
▁ግድ	-1247
ዲያ	-1248
ሩን	-1249
ሌቪዥን	-1250
ስቴ	-1251
ቶቹ	-1252
▁ዱ	-1253
▁በተለይም	-1254
▁ቃል	-1255
▁ይጠ	-1256
ሪታንያ	-1257
ቷል።	-1258
ከቱ	-1259
ክክ	-1260
ጎች	-1261
▁ኒው	-1262
▁አለው	-1263
ሮን	-1264
ፎር	-1265
▁በክ	-1266
▁ውጭ	-1267
▁ዌ	-1268
ውል	-1269
ደገ	-1270
▁አየር	-1271
▁F	-1272
ሊክ	-1273
▁L	-1274
▁ጆን	-1275
▁ዳይ	-1276
▁ውሳኔ	-1277
▁መስመር	-1278
ቻል	-1279
▁መንግ	-1280
ብዛ	-1281
▁ክለ	-1282
▁ኮን	-1283
▁አያ	-1284
ችው	-1285
ራይ	-1286
ሪት	-1287
▁ክስተ	-1288
▁ፔ	-1289
▁B	-1290
▁አሉ	-1291
ed	-1292
▁ታዋቂ	-1293
ንሲ	-1294
ውሮፓ	-1295
ሩት	-1296
▁ውጤቶች	-1297
▁ባለስልጣ	-1298
▁ማይ	-1299
ጋል	-1300
▁193	-1301
▁አስተዳደር	-1302
ሳን	-1303
▁ለእ	-1304
ዳር	-1305
ራቢያ	-1306
▁ምላሽ	-1307
መለከተ	-1308
▁ዝቅተኛ	-1309
▁ስብ	-1310
▁ችግ	-1311
ኖሎጂ	-1312
▁መግለጫ	-1313
ስታወ	-1314
▁ፖሊ	-1315
▁የውጭ	-1316
ኔት	-1317
▁ልብ	-1318
▁ጥና	-1319
ተኮ	-1320
ጨዋታ	-1321
ስትራሊያ	-1322
ካዊ	-1323
ኑን	-1324
▁ቡድኖች	-1325
▁ቋንቋ	-1326
ይታ	-1327
ረጋግ	-1328
የተ	-1329
▁ለማድረግ	-1330
▁11	-1331
▁ዝግ	-1332
▁ሆኖም	-1333
ገንዘብ	-1334
ቂት	-1335
▁ኮር	-1336
▁ዝር	-1337
▁ውጤታማ	-1338
በያ	-1339
▁ሰራተኞች	-1340
▁ግንባ	-1341
▁ከባድ	-1342
▁ምስራቅ	-1343
▁ሺ	-1344
ዱስ	-1345
▁“	-1346
ከረም	-1347
▁ባሉ	-1348
▁የን	-1349
ስትሪ	-1350
▁ውጫዊ	-1351
ታተ	-1352
▁እዚያ	-1353
መጣ	-1354
▁ተስፋ	-1355
ላም	-1356
▁በአጠቃላይ	-1357
▁ሀገ	-1358
▁የዩ	-1359
▁የምር	-1360
▁ዝርዝር	-1361
▁መመ	-1362
▁ሴቶች	-1363
ፃፀም	-1364
ሪቱ	-1365
▁በአለም	-1366
▁የተወሰ	-1367
▁ጓ	-1368
▁ግጥ	-1369
ጭር	-1370
▁ውድድር	-1371
ማል	-1372
▁የፀ	-1373
▁ልም	-1374
ዳሚ	-1375
ምሌ	-1376
ለውን	-1377
▁ለሚ	-1378
▁ልጆች	-1379
▁ሚኒስትር	-1380
ቀጣ	-1381
▁ቀናት	-1382
▁እንዳለ	-1383
ናዳ	-1384
or	-1385
▁ማክ	-1386
ሌጅ	-1387
▁ጉዳት	-1388
ዮና	-1389
▁አቶ	-1390
ፓን	-1391
ፕሬ	-1392
▁አክ	-1393
ድስት	-1394
ኤን	-1395
▁ኡ	-1396
▁የል	-1397
▁እንዲህ	-1398
▁ህይወት	-1399
▁ዘፈ	-1400
ምገማ	-1401
▁የፖለቲካ	-1402
ባው	-1403
▁መንገ	-1404
▁ማእከል	-1405
al	-1406
ምበር	-1407
ቅቱ	-1408
▁0	-1409
ጀርመን	-1410
ንዱ	-1411
-1	-1412
ሳል	-1413
▁ለውጥ	-1414
▁የቡ	-1415
▁አገና	-1416
▁በመሆን	-1417
▁ስለሆነም	-1418
▁ሀብ	-1419
ቪል	-1420
ሰል	-1421
▁ደን	-1422
▁አስተዋ	-1423
▁ይህንን	-1424
▁ተለዋዋ	-1425
ኮኖሚ	-1426
ገቡ	-1427
▁ያህል	-1428
▁መጨረሻ	-1429
▁ተመራ	-1430
ጋቢት	-1431
▁አነስተኛ	-1432
▁ያካት	-1433
▁W	-1434
▁ማር	-1435
▁ምል	-1436
ነበረ	-1437
▁ትኩ	-1438
▁ለመጀመሪያ	-1439
▁ብለው	-1440
ብኝ	-1441
ኪና	-1442
▁ዋጋ	-1443
ኛውም	-1444
ንቅ	-1445
ለች።	-1446
ሀሴ	-1447
▁አበባ	-1448
▁14	-1449
▁ከማ	-1450
▁የውሀ	-1451
ላል።	-1452
▁ፕሬዝ	-1453
ላቸውን	-1454
ኖችን	-1455
ፕሪ	-1456
ኗል	-1457
መለስ	-1458
▁ችሎ	-1459
▁ቢሆንም	-1460
ብዙ	-1461
ሳዊ	-1462
መለክ	-1463
ሽከ	-1464
ቅርብ	-1465
▁መደበኛ	-1466
ንዶች	-1467
...	-1468
ቀነስ	-1469
▁13	-1470
ቁር	-1471
ሏል።	-1472
▁ካውንቲ	-1473
▁ቁጥጥር	-1474
▁ያሉት	-1475
▁ድምፅ	-1476
ባበ	-1477
▁ጠንካራ	-1478
▁ገብ	-1479
ፈፀ	-1480
▁አውሮፕ	-1481
ምንት	-1482
ዝግ	-1483
▁የመሬት	-1484
▁ሂደት	-1485
▁ይታወ	-1486
▁ወለ	-1487
▁ኖ	-1488
▁የንግድ	-1489
▁ፍላጎት	-1490
ለተኛው	-1491
ደባ	-1492
▁ተገኝ	-1493
ዛዝ	-1494
▁ቱ	-1495
▁የቅ	-1496
▁ገልፀ	-1497
ኤም	-1498
▁ተሰጥ	-1499
ማኖ	-1500
ማማ	-1501
▁ምርምር	-1502
ቧን	-1503
የው	-1504
▁አግኝቷል	-1505
▁ሞዴል	-1506
▁ይታ	-1507
▁የሌ	-1508
▁አሸና	-1509
▁መጥ	-1510
▁ሊሆን	-1511
ህንነት	-1512
ስቶች	-1513
▁ማህበረ	-1514
▁ፊልም	-1515
ቻይና	-1516
▁ህዝ	-1517
ወር	-1518
ስተኛው	-1519
▁ብራ	-1520
ሰት	-1521
ገኙት	-1522
▁የተቀ	-1523
ላክ	-1524
▁በተመ	-1525
▁በዩናይትድ	-1526
ታሉ	-1527
▁የቦ	-1528
ዘመ	-1529
▁መሰረ	-1530
▁ከግ	-1531
▁ፕሮጀ	-1532
ንቀሳ	-1533
▁ሳይሆን	-1534
ቂዎች	-1535
ራሽ	-1536
ከላዊ	-1537
ራሉ	-1538
▁ገደ	-1539
▁እጅ	-1540
▁ህክምና	-1541
▁ለም	-1542
▁ይመስ	-1543
ይድ	-1544
ነተኛ	-1545
ያዙ	-1546
▁በራ	-1547
▁የሮ	-1548
▁,	-1549
ቻቸውን	-1550
▁ተማሪዎች	-1551
▁ባለሙ	-1552
▁የስራ	-1553
ፈረ	-1554
ፈት	-1555
▁ወረዳ	-1556
▁D	-1557
▁በፓ	-1558
▁ዙሪያ	-1559
▁የመንግስት	-1560
▁በመቶ	-1561
ጋሚ	-1562
▁ዳይሬ	-1563
▁በተለያዩ	-1564
▁አት	-1565
ኖሪያ	-1566
ic	-1567
▁ሪፖርት	-1568
▁በኒው	-1569
ንታዊ	-1570
ሪው	-1571
ልጣን	-1572
▁ጋዜ	-1573
በርግ	-1574
▁G	-1575
▁ግምገማ	-1576
ከላከል	-1577
▁ንጉ	-1578
ሊያን	-1579
▁ብለዋል	-1580
▁በማለት	-1581
ጠል	-1582
ድሀ	-1583
▁አላ	-1584
▁ለመስ	-1585
ስፒ	-1586
▁በው	-1587
▁ቦታዎች	-1588
▁አስታው	-1589
▁ለማግኘት	-1590
ዛመ	-1591
ጨት	-1592
ታረ	-1593
ንግተን	-1594
▁ጊ	-1595
አይ	-1596
ልማ	-1597
▁የህግ	-1598
▁ዲዛ	-1599
ጠላ	-1600
ጡት	-1601
ቅና	-1602
ሆኑት	-1603
▁በር	-1604
ካታ	-1605
▁የጉ	-1606
ክክለኛ	-1607
▁የሆነው	-1608
ጥረ	-1609
▁E	-1610
▁ነበረ	-1611
▁ጀር	-1612
ከፋ	-1613
ስተን	-1614
▁በመመር	-1615
ጀም	-1616
▁ቀር	-1617
▁አካላት	-1618
ጊያ	-1619
▁የአካ	-1620
ግል	-1621
▁H	-1622
▁እሷ	-1623
▁ሞት	-1624
▁በሞ	-1625
መል	-1626
▁በአሜሪካ	-1627
▁የሲ	-1628
▁ጁ	-1629
▁የሁ	-1630
▁ተሸ	-1631
▁አልበ	-1632
ጋን	-1633
▁የትምህርት	-1634
▁ታካ	-1635
▁የሶ	-1636
▁ነዋ	-1637
▁ማህበራዊ	-1638
ለቀ	-1639
▁አፈፃፀም	-1640
ዘጋጅ	-1641
ዳዳ	-1642
▁ምእራብ	-1643
ዝም	-1644
▁ሽልማት	-1645
200	-1646
▁አገናኞች	-1647
ባህ	-1648
ቂቃ	-1649
ፈጥሮ	-1650
▁ማህበር	-1651
▁ይልቅ	-1652
ከብ	-1653
▁ሰአት	-1654
ምብ	-1655
ኮን	-1656
ሬን	-1657
▁ስምምነት	-1658
ስክ	-1659
▁ፍራን	-1660
ታን	-1661
st	-1662
▁በዚያ	-1663
▁ሜትር	-1664
▁አፍሪካ	-1665
ተዋል።	-1666
ኞቹ	-1667
ፉት	-1668
▁21	-1669
▁ምርት	-1670
ባሪ	-1671
▁ተከተ	-1672
ወደ	-1673
ጣጥ	-1674
ኛዎቹ	-1675
▁ግልፅ	-1676
ኮት	-1677
▁የገ	-1678
ሌት	-1679
▁ጀመረ	-1680
ባብ	-1681
▁አቀራ	-1682
▁መግ	-1683
▁የደ	-1684
▁ትክክለኛ	-1685
▁በተመሳሳይ	-1686
▁30	-1687
▁ብዙም	-1688
▁የቀረ	-1689
▁(1	-1690
ፌዴ	-1691
ዲሱ	-1692
▁አጠቃ	-1693
ፍራ	-1694
ፍጠር	-1695
▁ተለዋዋጭ	-1696
▁የስነ	-1697
▁የግል	-1698
▁ግለ	-1699
▁በሜ	-1700
▁የባቡር	-1701
▁አካባቢዎች	-1702
▁ብቸ	-1703
▁ንግ	-1704
▁ወታደራዊ	-1705
▁ኒ	-1706
▁ለማሳ	-1707
▁በአሁኑ	-1708
ሉን	-1709
▁በወቅቱ	-1710
ራጭ	-1711
▁ልዩነት	-1712
▁ቀጥ	-1713
▁መሆን	-1714
ለኛው	-1715
ሙን	-1716
▁ተጫዋች	-1717
▁የከተማ	-1718
▁አውራ	-1719
he	-1720
▁ማስታወ	-1721
▁ነፋ	-1722
ወጥ	-1723
ጫወት	-1724
▁እንዳይ	-1725
ሯል።	-1726
ሪካዊ	-1727
▁ፕሬዝዳንት	-1728
▁ጠቅላይ	-1729
▁ደቂቃ	-1730
ፎርድ	-1731
▁በማስ	-1732
▁ጌ	-1733
▁ዋንጫ	-1734
ንዶ	-1735
▁እድሜ	-1736
ረዳ	-1737
ቆይ	-1738
▁የኢትዮጵያ	-1739
ካተ	-1740
▁የዋ	-1741
ደረግ	-1742
▁ይህን	-1743
▁202	-1744
ለዋል።	-1745
▁መንግስታ	-1746
▁ሻምፒዮና	-1747
▁አቋ	-1748
▁አሳይ	-1749
ቲን	-1750
▁ፅንሰ	-1751
▁ንድ	-1752
ሰሩ	-1753
ካሂ	-1754
▁ማሳ	-1755
ካን	-1756
▁የሀይል	-1757
▁ውሀ	-1758
ሳሽ	-1759
▁በመባል	-1760
▁ስለዚህ	-1761
በርት	-1762
ኮዝ	-1763
▁መስመ	-1764
▁ተሳት	-1765
▁እድል	-1766
ዩት	-1767
▁በሌ	-1768
201	-1769
▁አዛ	-1770
▁ምርጥ	-1771
▁በደ	-1772
▁መብት	-1773
▁ነጠላ	-1774
ውው	-1775
▁ድርጅት	-1776
ውሰ	-1777
▁በድ	-1778
▁የጠ	-1779
▁እንግ	-1780
▁የተገነ	-1781
▁አምስት	-1782
▁ዙር	-1783
▁መሬት	-1784
ውጣት	-1785
▁የነበረ	-1786
▁25	-1787
ድሀኒ	-1788
▁በደቡብ	-1789
ክብ	-1790
ህሳስ	-1791
ልቁ	-1792
▁መም	-1793
▁ሰራዊ	-1794
▁በሶ	-1795
ምረት	-1796
በሩት	-1797
▁አለበት	-1798
በርካታ	-1799
ሽከርካ	-1800
▁ቅርፅ	-1801
▁የግን	-1802
▁በሚያ	-1803
መጥ	-1804
▁ተጠ	-1805
▁በበ	-1806
ነፃፀ	-1807
▁ነበረው	-1808
መንት	-1809
ቧንቧ	-1810
ዛቤ	-1811
▁ፈጣ	-1812
ፅኦ	-1813
▁በመመርኮዝ	-1814
ደርግ	-1815
ቅረብ	-1816
▁ትርኢ	-1817
ረታ	-1818
▁ድን	-1819
▁አሰልጣ	-1820
ሲስ	-1821
▁ገንዘብ	-1822
".	-1823
▁192	-1824
▁በታች	-1825
ጋሪ	-1826
ንሰር	-1827
▁በይ	-1828
it	-1829
▁ፍጥነት	-1830
ልህ	-1831
▁በሚገኘው	-1832
▁ከቀ	-1833
ዶችን	-1834
▁ከሰ	-1835
▁2010	-1836
ቋቋመ	-1837
▁ወጪ	-1838
▁ዘር	-1839
ተሮች	-1840
ቀስ	-1841
ፍል	-1842
▁ፕሮግራም	-1843
ኒካዊ	-1844
▁በተመለከተ	-1845
▁ቀጣ	-1846
ይስ	-1847
ውስትራሊያ	-1848
▁ሁለቱም	-1849
▁አስተያ	-1850
▁ማሻሻ	-1851
ቁጥጥር	-1852
የስ	-1853
▁የሙዚቃ	-1854
▁ፊት	-1855
▁በሁለት	-1856
ያሉ	-1857
▁ቢሮ	-1858
ro	-1859
ይቷል	-1860
ገሪቱ	-1861
▁መፅሀፍ	-1862
▁ወዲ	-1863
▁አማካይ	-1864
ደረሰ	-1865
ጠበቅ	-1866
▁ተጋ	-1867
▁ገፀ	-1868
▁ሰሜን	-1869
▁በአብዛ	-1870
▁ኮሌጅ	-1871
▁ተዋና	-1872
▁ናቸው።	-1873
▁ይወ	-1874
በዋል	-1875
▁ያልሆነ	-1876
ስታን	-1877
▁እድገት	-1878
ሬው	-1879
ሬሽን	-1880
▁ተጓ	-1881
▁ስራዎች	-1882
ዎቹን	-1883
▁ስብስብ	-1884
ወረ	-1885
▁ይገ	-1886
▁የሂ	-1887
▁አድርጓል	-1888
▁አደረገ	-1889
ነገ	-1890
ፊክ	-1891
▁አራ	-1892
በስ	-1893
ሙና	-1894
▁ታላ	-1895
▁አማካ	-1896
ኤፍ	-1897
▁መሳሪያዎች	-1898
▁ደረጃዎች	-1899
▁ነጥብ	-1900
ረጅም	-1901
ሳቁ	-1902
▁የብሪታንያ	-1903
▁ተገ	-1904
▁በእው	-1905
ሌክትሪክ	-1906
ችሁ	-1907
▁አቅም	-1908
▁2012	-1909
ሸነፍ	-1910
▁በቀጣ	-1911
▁ምልክ	-1912
ቶን	-1913
ይዛ	-1914
▁አገልግሎ	-1915
▁ጆር	-1916
▁ይዘ	-1917
▁በሽታ	-1918
በትን	-1919
▁ተል	-1920
▁ኤም	-1921
ሳካ	-1922
ደርስ	-1923
▁ነሀሴ	-1924
▁ሀይሎች	-1925
▁ለምሳሌ	-1926
▁አገር	-1927
▁ተመል	-1928
ኞችን	-1929
▁የዚህ	-1930
▁መተ	-1931
▁ወታደሮች	-1932
▁ወጣ	-1933
▁ተዛ	-1934
አዊ	-1935
ውሞ	-1936
▁የዩናይትድ	-1937
▁ጥቃ	-1938
▁ከዚያም	-1939
▁ተከት	-1940
ሻለ	-1941
▁በቦ	-1942
ጨመር	-1943
▁ስእ	-1944
▁በመም	-1945
▁ኮሚቴ	-1946
▁191	-1947
▁አውታረ	-1948
▁ተፈ	-1949
▁ስብሰባ	-1950
▁አቅራቢያ	-1951
▁ሸቀጣ	-1952
▁ሁኔታዎች	-1953
ራኒ	-1954
▁የበረ	-1955
▁አዳዲስ	-1956
▁ድብ	-1957
▁የህክምና	-1958
▁ታሪካዊ	-1959
ዝና	-1960
▁ይሰጣል	-1961
▁አመለ	-1962
▁በቅ	-1963
▁የቴሌቪዥን	-1964
ሰጥ	-1965
ሌክትሮ	-1966
▁ስርአቶች	-1967
ሄር	-1968
▁መድረ	-1969
▁ቅድ	-1970
ዝማ	-1971
▁ተጫው	-1972
▁የእር	-1973
▁ኦር	-1974
▁ሰፊ	-1975
ክልል	-1976
ስተካከ	-1977
▁ብዛት	-1978
▁ፖሊስ	-1979
▁ንብረት	-1980
ነቱን	-1981
▁የቤት	-1982
▁ዘይ	-1983
▁ቬ	-1984
▁ካል	-1985
▁ትኩረት	-1986
ጋይ	-1987
ለቅ	-1988
▁እንደነ	-1989
ገለፁ	-1990
▁በፖ	-1991
ጀመር	-1992
▁የሚገኘው	-1993
▁ጥናቶች	-1994
▁ምሽ	-1995
ጥረት	-1996
ፐብ	-1997
ሳቸው	-1998
▁ቴክኖሎጂ	-1999
▁በሰሜን	-2000
▁እኩል	-2001
▁አስተዋፅኦ	-2002
▁የሰው	-2003
መቱ	-2004
ደርጉ	-2005
▁አመለካከ	-2006
▁መከላከያ	-2007
▁ጉዞ	-2008
መዋል	-2009
▁በዋ	-2010
▁የገንዘብ	-2011
▁ባህሪ	-2012
▁ዝግጅ	-2013
▁ባለቤት	-2014
▁ከሆነ	-2015
ጃፓን	-2016
ማው	-2017
ፋን	-2018
ማስ	-2019
▁ከስ	-2020
▁ሀሳ	-2021
ባር	-2022
▁ደብ	-2023
▁በሲ	-2024
▁አሸነ	-2025
▁ወንዝ	-2026
▁ህብረት	-2027
▁የሊ	-2028
▁ምልክት	-2029
ቃወ	-2030
ፃሜ	-2031
▁አቅጣ	-2032
ሌይ	-2033
ውሰድ	-2034
▁በፍጥነት	-2035
ትሮ	-2036
▁መቶ	-2037
▁አጠና	-2038
▁እዚያም	-2039
▁ሁለተኛው	-2040
ቪድ	-2041
▁የጭ	-2042
ገናኛ	-2043
ካሄደው	-2044
▁ተደርጓል	-2045
▁ክላ	-2046
▁የዳ	-2047
as	-2048
▁የእንግሊዝ	-2049
▁ቧንቧ	-2050
ሞችን	-2051
ይወ	-2052
▁የሚጠ	-2053
ምፒክ	-2054
▁ዳይሬክተር	-2055
▁ተቋማት	-2056
▁የኪ	-2057
▁ሙዚቃ	-2058
▁በሁለ	-2059
▁ሊቀ	-2060
▁ነገሮች	-2061
▁ፀሀፊ	-2062
ዌይ	-2063
▁2011	-2064
▁ክብ	-2065
▁ግዛ	-2066
▁p	-2067
▁ፖሊሲ	-2068
▁አብዛኛዎቹ	-2069
ክርስቲያን	-2070
▁ጎን	-2071
ጣሉ	-2072
▁ተከተል	-2073
▁ድንጋ	-2074
▁የፋ	-2075
▁ቡድኑ	-2076
ችት	-2077
▁ሳምንት	-2078
▁ችሎታ	-2079
▁የነበረው	-2080
መለሰ	-2081
▁ተስማ	-2082
▁በፈ	-2083
▁ተተ	-2084
▁ሙዚ	-2085
ከታተ	-2086
▁ተወላ	-2087
▁ለመለ	-2088
▁ጥገና	-2089
ድሞው	-2090
▁ሀዲ	-2091
▁ባለመ	-2092
ሸራ	-2093
▁ህገ	-2094
የን	-2095
▁ጉድ	-2096
▁ባይ	-2097
▁እቃ	-2098
▁በዋና	-2099
ፋል	-2100
የአ	-2101
▁ያሳያል	-2102
▁ትንሽ	-2103
ፕሮ	-2104
▁ዲዛይን	-2105
▁የዲ	-2106
ቱት	-2107
▁በቴ	-2108
▁የፊ	-2109
▁በቂ	-2110
▁እኔ	-2111
ዘን	-2112
ቡን	-2113
ወገድ	-2114
▁የጋራ	-2115
ሊንግ	-2116
▁ጥራት	-2117
ገለፀ	-2118
▁ሂደ	-2119
▁ሰኔ	-2120
ቆራ	-2121
▁ተራ	-2122
▁ቁሳቁ	-2123
▁ዘይቤ	-2124
▁ወስ	-2125
▁የተፈ	-2126
▁ቀላል	-2127
▁አወ	-2128
▁ተዋ	-2129
▁ጥቁር	-2130
▁ስትራ	-2131
ናልባት	-2132
▁24	-2133
-19	-2134
▁2013	-2135
▁ያነ	-2136
ምህር	-2137
is	-2138
ቆም	-2139
ክር	-2140
▁የተለመ	-2141
▁እራ	-2142
ሪያዎች	-2143
በአ	-2144
ርላማ	-2145
▁ሁሉንም	-2146
ቀላቀ	-2147
▁የተለ	-2148
በታል	-2149
ካር	-2150
▁ኤል	-2151
▁የጤና	-2152
▁ምክንያቶች	-2153
▁ከሀ	-2154
▁የአንድ	-2155
▁ያላቸውን	-2156
ፆች	-2157
▁ጥበቃ	-2158
▁እንድ	-2159
▁የደም	-2160
ለምዶ	-2161
ቆጥ	-2162
▁የቆ	-2163
ማዊ	-2164
ስል	-2165
ጠኛ	-2166
▁በአል	-2167
▁ይይዛ	-2168
▁የቤተ	-2169
ብቅ	-2170
▁ደቡብ	-2171
▁እየጨ	-2172
▁ክሪ	-2173
▁ይገኛል	-2174
▁አቅጣጫ	-2175
▁ቮ	-2176
▁የሜ	-2177
▁አድርጎ	-2178
,5	-2179
▁በአካ	-2180
▁የሚችል	-2181
▁ዞ	-2182
▁ቀለም	-2183
ዋት	-2184
▁የቤ	-2185
▁በረ	-2186
▁ተቀባይ	-2187
▁በማድረግ	-2188
▁[	-2189
▁ዘመቻ	-2190
▁ሜዳሊያ	-2191
▁ተሳ	-2192
▁ከሌሎች	-2193
ፊልም	-2194
▁አቀራረብ	-2195
▁እቅድ	-2196
▁በተቃ	-2197
▁በመጨረሻም	-2198
▁ኢንዱ	-2199
▁ዛሬ	-2200
▁በሳ	-2201
▁መርከቦች	-2202
ዳታ	-2203
▁ያልሆኑ	-2204
ዘገ	-2205
▁ጄኔ	-2206
▁ችግሮች	-2207
▁መሀ	-2208
▁እጩ	-2209
ሀት	-2210
ርስቲያ	-2211
ጀርባ	-2212
▁አልፎ	-2213
▁ነበ	-2214
ቀዋል	-2215
ረጋገጥ	-2216
ኖስ	-2217
▁ማረ	-2218
ሊፎር	-2219
▁በሁለተኛው	-2220
▁2008	-2221
▁አሸነፈ	-2222
ሸፈ	-2223
▁የአል	-2224
▁እነሱ	-2225
ከለ	-2226
▁የሚችሉ	-2227
ሀሳብ	-2228
ደና	-2229
ፈዋል	-2230
ፔን	-2231
▁በግን	-2232
▁የመጀመሪያውን	-2233
▁ርእሰ	-2234
▁d	-2235
ከታታይ	-2236
ቆጣጠር	-2237
ኔል	-2238
▁በሌሎች	-2239
በላ	-2240
ዳቸው	-2241
▁መልሶ	-2242
ሾች	-2243
▁የኒው	-2244
ጠዋል	-2245
▁ታካሚዎች	-2246
▁በመሆኑ	-2247
ሻሻል	-2248
▁አርቲ	-2249
ሊፎርኒያ	-2250
▁ምሁ	-2251
▁ግጥሚያ	-2252
▁ስለሚ	-2253
እራብ	-2254
ድሩ	-2255
▁ግንባታ	-2256
ሰበ	-2257
▁በአን	-2258
▁ምግብ	-2259
▁የፕሮ	-2260
▁ጥቂት	-2261
ጂን	-2262
▁ባለስልጣናት	-2263
▁አጠቃቀም	-2264
▁ከአንድ	-2265
ሽነት	-2266
ፍትሄ	-2267
ሀም	-2268
መንጃ	-2269
▁ለስ	-2270
ሰስ	-2271
ደጋጋሚ	-2272
ሩሲያ	-2273
ምድ	-2274
ፈልጋ	-2275
ፃሚ	-2276
ፅሄ	-2277
ቅረ	-2278
▁ይመል	-2279
▁እንደሆኑ	-2280
▁የሽ	-2281
▁በዩ	-2282
▁አጋማሽ	-2283
▁2014	-2284
ምስት	-2285
▁2009	-2286
▁ሁለቱ	-2287
▁ፓርክ	-2288
▁የሆ	-2289
▁የተዛመ	-2290
),	-2291
▁ምክትል	-2292
▁ፍፃሜ	-2293
▁በተለይ	-2294
▁የሚታወ	-2295
▁መሆና	-2296
ion	-2297
የመ	-2298
▁ስርጭት	-2299
▁ወረቀት	-2300
▁ምሳሌ	-2301
▁ጡ	-2302
▁ባህሪዎች	-2303
▁ምናልባት	-2304
ኡስ	-2305
▁በቀጥታ	-2306
ወቅ	-2307
▁ክሊ	-2308
ችንን	-2309
ራማ	-2310
▁ቤተሰብ	-2311
▁በተለምዶ	-2312
▁ትራንስ	-2313
▁በመተ	-2314
ታኔ	-2315
አር	-2316
▁የመን	-2317
▁ስሜ	-2318
▁የመስ	-2319
▁ዩናይትድ	-2320
ክቶ	-2321
▁ተደርጎ	-2322
ግለፅ	-2323
50	-2324
ጣዊ	-2325
ች።	-2326
▁ተከትሎ	-2327
ባቂ	-2328
▁ጤና	-2329
▁በን	-2330
▁ቀይ	-2331
▁ስኬ	-2332
ገንባት	-2333
ሮስ	-2334
ደብ	-2335
▁መጋቢት	-2336
▁ማስረጃ	-2337
ይቅ	-2338
▁ድም	-2339
▁የእን	-2340
ረድ	-2341
ለስ	-2342
▁ተጠቅ	-2343
▁አውሎ	-2344
▁ፕሮፌ	-2345
▁190	-2346
ሚን	-2347
▁ሲነፃፀ	-2348
ራር	-2349
ኛውን	-2350
ረዋል።	-2351
ፅሁ	-2352
▁ውይ	-2353
▁ንጥረ	-2354
▁ጉብኝ	-2355
▁100	-2356
ሊት	-2357
▁ድርጊ	-2358
ያንስ	-2359
ሳኝ	-2360
ሬድ	-2361
ፕሪል	-2362
▁በአብዛኛው	-2363
▁ፈቃደኛ	-2364
▁የአሁኑ	-2365
▁ወጥ	-2366
▁በል	-2367
▁ኪንግ	-2368
ግራፊ	-2369
ምፓ	-2370
▁ውጊያ	-2371
▁ባር	-2372
▁ውስብስብ	-2373
▁ዘዴዎች	-2374
ሰራር	-2375
▁ማህበረሰብ	-2376
▁ሾ	-2377
ማቸው	-2378
▁ግንዛቤ	-2379
▁አሸናፊ	-2380
▁ተባ	-2381
ሳቸውን	-2382
re	-2383
▁ተግባራዊ	-2384
ጥፋት	-2385
ካቤ	-2386
ስፒታል	-2387
ርግ	-2388
▁የሳ	-2389
▁ሚኒስቴ	-2390
▁ካፒ	-2391
▁እየጨመረ	-2392
ሞን	-2393
▁2015	-2394
▁መታ	-2395
ቀበ	-2396
▁ደህንነት	-2397
▁ወራት	-2398
ዳደ	-2399
ከባቢው	-2400
ግዚ	-2401
▁በሴ	-2402
▁ድል	-2403
▁ሀገር	-2404
▁ከእነዚህ	-2405
▁ስድስት	-2406
ስና	-2407
ቴጂ	-2408
▁ሰአ	-2409
▁በቡ	-2410
▁ታሪ	-2411
▁አመቱ	-2412
▁ቺ	-2413
▁በኖ	-2414
▁መስክ	-2415
▁እያንዳንዱ	-2416
ሀድ	-2417
ዴል	-2418
ጠቀሙ	-2419
▁በጥር	-2420
ሎስ	-2421
▁ጥረት	-2422
le	-2423
▁የሙቀት	-2424
▁ይሆ	-2425
ወሰን	-2426
▁የድን	-2427
ሎምፒክ	-2428
▁መነ	-2429
▁አቀማ	-2430
ትና	-2431
ቀል	-2432
▁c	-2433
?.	-2434
▁2007	-2435
▁ደጋ	-2436
▁ይመልከቱ	-2437
▁ትእዛዝ	-2438
ገልፃ	-2439
▁2016	-2440
▁ዘመናዊ	-2441
▁ለህ	-2442
▁እንደሚችል	-2443
▁እንደማይ	-2444
▁ገለል	-2445
ስቶ	-2446
▁ወንዶች	-2447
ሊዮ	-2448
▁ይሆናል	-2449
▁ተቃውሞ	-2450
▁አገኘ	-2451
▁የዘ	-2452
ቴን	-2453
▁ጅ	-2454
▁የሰራ	-2455
▁መኪና	-2456
ቢሲ	-2457
▁ያገለ	-2458
▁የሚሆኑት	-2459
ጉም	-2460
▁አዛዥ	-2461
ሁሉም	-2462
ሚኒ	-2463
▁ተግባር	-2464
▁ሳይቆይ	-2465
ሰዋል	-2466
▁ትልቁ	-2467
▁አላቸው	-2468
▁ድርጅቶች	-2469
▁ፕሬዚ	-2470
ንፍ	-2471
▁የሚገኙ	-2472
▁መፅሄ	-2473
▁የመጣ	-2474
ክላ	-2475
ጠየ	-2476
▁የሆኑት	-2477
▁ገዥ	-2478
▁መረ	-2479
▁22	-2480
▁በዲ	-2481
ቆች	-2482
▁መሰረታዊ	-2483
ጠበቀ	-2484
ጣጣ	-2485
▁ወለድ	-2486
ታር	-2487
▁ንግድ	-2488
▁ለመስጠት	-2489
▁የኩ	-2490
▁የቪ	-2491
ሪዮ	-2492
▁ወሰ	-2493
▁ተልእ	-2494
▁ወሳኝ	-2495
▁ኩባንያዎች	-2496
ቶታል	-2497
▁ቤተመ	-2498
▁ደራሲ	-2499
ጀመረው	-2500
▁ቼ	-2501
▁K	-2502
▁እውቅና	-2503
ሽኖች	-2504
▁እንስ	-2505
ዘግ	-2506
ራክ	-2507
▁ኤን	-2508
ሪያን	-2509
▁U	-2510
▁ቢያንስ	-2511
▁ብሩ	-2512
ልት	-2513
ለማ	-2514
▁የጀርመን	-2515
▁የአውሮፓ	-2516
▁የለም	-2517
ጠለ	-2518
▁ገለልተኛ	-2519
▁ስልጣን	-2520
▁መፍትሄ	-2521
▁የከ	-2522
▁ስሜት	-2523
▁ዊሊያ	-2524
▁ተነሳ	-2525
▁የሚመ	-2526
እምሮ	-2527
ረግ	-2528
▁መንግስታት	-2529
▁ለዚህ	-2530
▁50	-2531
ሁድ	-2532
ደል	-2533
ያት	-2534
▁ሰዎችን	-2535
ቅምት	-2536
ዞች	-2537
ብርና	-2538
2)	-2539
ጀመሩ	-2540
▁የጋ	-2541
ዛን	-2542
ተኛው	-2543
▁በሮ	-2544
ዮችን	-2545
ረሰ	-2546
▁ክለብ	-2547
▁ማእከላዊ	-2548
ri	-2549
ሬይ	-2550
▁ርዝ	-2551
▁ፎቶ	-2552
▁ጥቅ	-2553
▁ሰጥ	-2554
▁ዘግ	-2555
ኮኖሚያ	-2556
▁በታህሳስ	-2557
▁ትንተና	-2558
ብሪካ	-2559
ol	-2560
ሶችን	-2561
ፌዴራል	-2562
ተገ	-2563
▁መኖሪያ	-2564
▁23	-2565
▁አንፃ	-2566
▁ተጠቃ	-2567
▁የሙከራ	-2568
▁ሚኒስቴር	-2569
▁መድሀኒ	-2570
ድኑ	-2571
ጨም	-2572
ቴል	-2573
▁ባዮ	-2574
▁ግንቦት	-2575
ኪን	-2576
ቀደ	-2577
▁w	-2578
▁እንዳል	-2579
ግሪ	-2580
ጎን	-2581
▁እጅግ	-2582
▁ተልእኮ	-2583
▁ቁር	-2584
▁እንክብ	-2585
▁ሲቲ	-2586
ንተር	-2587
ሀይ	-2588
▁የሚያሳ	-2589
ኮኖሚያዊ	-2590
▁በጭ	-2591
ኖረው	-2592
▁189	-2593
▁የሆነውን	-2594
ቀበል	-2595
ዳቤ	-2596
▁ጉልህ	-2597
▁ዝርያ	-2598
መም	-2599
▁እንክብካቤ	-2600
▁ቤተክርስቲያን	-2601
▁የጊዜ	-2602
ልቃ	-2603
▁አድርገው	-2604
ርቅ	-2605
▁በህይወት	-2606
ጫዎች	-2607
ከማ	-2608
▁ሳይንስ	-2609
▁ካሉ	-2610
▁መካከለኛ	-2611
▁ነዋሪዎች	-2612
ቆጠሩ	-2613
▁ኦፊ	-2614
▁ናሙና	-2615
▁ቢያ	-2616
ቲቭ	-2617
ጎል	-2618
▁ሳን	-2619
▁አዎ	-2620
▁2006	-2621
▁ሳምን	-2622
ፈልግ	-2623
ሽንግተን	-2624
▁አና	-2625
▁በመጀመሪያው	-2626
▁ክስ	-2627
▁የካቲት	-2628
ዌል	-2629
▁የሴቶች	-2630
▁ሰጠ	-2631
▁ስፍራ	-2632
▁ቅድመ	-2633
ብረተ	-2634
▁መዋቅ	-2635
▁እንደሚያሳ	-2636
▁2000	-2637
ዚያን	-2638
▁በሊ	-2639
▁ባህሪያ	-2640
▁አለባቸው	-2641
▁ያቀ	-2642
▁የቀድሞው	-2643
▁ምት	-2644
▁2017	-2645
ሞክራሲ	-2646
▁ተጫውቷል	-2647
▁V	-2648
▁እምነት	-2649
▁ንኡስ	-2650
ባበር	-2651
ሌዳ	-2652
ቷን	-2653
ነቶችን	-2654
ሰጡ	-2655
▁ጳ	-2656
▁‹	-2657
▁ለማስተ	-2658
▁መንገዶች	-2659
▁ባህል	-2660
▁2018	-2661
▁የሸ	-2662
▁ውድቅ	-2663
▁ከታ	-2664
▁ቻር	-2665
▁t	-2666
▁በተከታታይ	-2667
▁ስትራቴጂ	-2668
▁ከወ	-2669
▁የህይወት	-2670
▁አሸን	-2671
▁ሀዲድ	-2672
▁የበላይ	-2673
ናገር	-2674
▁የወደ	-2675
▁ነጭ	-2676
▁የፈረንሳይ	-2677
▁አሌ	-2678
▁ሺህ	-2679
▁ወጣት	-2680
ቦል	-2681
om	-2682
ሎን	-2683
▁ስላ	-2684
ዲን	-2685
▁ትንታኔ	-2686
ያትር	-2687
30	-2688
ፕስ	-2689
▁የድምፅ	-2690
ገራ	-2691
▁ጥቅምት	-2692
▁2020	-2693
▁ሶስተኛ	-2694
▁ባህላዊ	-2695
▁ሰብ	-2696
ላለፍ	-2697
▁ከህ	-2698
▁ገፅታ	-2699
ርሽ	-2700
ቬምበር	-2701
ትም	-2702
▁መረጃዎች	-2703
▁አቀማመጥ	-2704
ጠናቀቀ	-2705
▁ልውው	-2706
ናሽ	-2707
▁ውህ	-2708
▁በቅር	-2709
ኖራቸው	-2710
ጣሚ	-2711
▁መስከረም	-2712
መለሱ	-2713
▁የመረጃ	-2714
▁ኔ	-2715
▁እውነተኛ	-2716
▁ተማሪ	-2717
▁ሽልማ	-2718
ጣሊያን	-2719
▁አውሮፕላን	-2720
▁በሚል	-2721
▁የሚከተ	-2722
▁መመሪያ	-2723
ያያዘ	-2724
ቅደ	-2725
▁ቁልፍ	-2726
ኒስ	-2727
ፈስ	-2728
▁በሆ	-2729
▁ያስተ	-2730
ዘም	-2731
▁እዚህ	-2732
▁የተቆራ	-2733
▁ማይክሮ	-2734
በረታ	-2735
▁ግማሽ	-2736
ac	-2737
▁ብለዋል።	-2738
▁የሳይ	-2739
▁ክስተት	-2740
ዳይ	-2741
ጠቅላ	-2742
▁የደቡብ	-2743
▁የወን	-2744
▁እርዳታ	-2745
ራሪ	-2746
ጥበ	-2747
ዘጋጀት	-2748
▁ፈጣን	-2749
▁ያደረገ	-2750
ልም	-2751
▁ተካሂ	-2752
▁ማግ	-2753
ራንስ	-2754
▁እሱም	-2755
10	-2756
▁ኢኮኖሚ	-2757
▁ክርክ	-2758
▁በሶስት	-2759
▁?	-2760
ስሊ	-2761
▁ገበ	-2762
▁ታይ	-2763
▁ተቀባይነት	-2764
▁ሰራዊት	-2765
▁እነዚህን	-2766
▁አስኪያ	-2767
▁እኛ	-2768
▁2019	-2769
▁ተዋናይ	-2770
ራች	-2771
ቲክስ	-2772
ወለደው	-2773
▁ስልጠና	-2774
ጋዊ	-2775
▁ሰሌዳ	-2776
▁መዝገብ	-2777
▁ዝርያዎች	-2778
ርማ	-2779
▁ከሞ	-2780
ደገፍ	-2781
ጄኔ	-2782
በተ	-2783
▁ገቢ	-2784
ing	-2785
▁ሚስ	-2786
ክሲኮ	-2787
ከባቢ	-2788
ላልቅ	-2789
▁ፕሮጀክት	-2790
▁ርቀት	-2791
▁ጓደ	-2792
ቀቅ	-2793
▁ከሁለት	-2794
▁ከተሞች	-2795
ሙት	-2796
▁ይመለ	-2797
▁ያካትታል	-2798
▁አስቸ	-2799
▁መለኪ	-2800
ቶስ	-2801
▁ተን	-2802
▁የአን	-2803
ይዘ	-2804
▁መልእ	-2805
ፈተ	-2806
ሎቹ	-2807
▁ርዝመት	-2808
▁ውድድ	-2809
▁የፊልም	-2810
ቫል	-2811
▁ፖለቲካ	-2812
▁ሲነፃፀር	-2813
ገለፁት	-2814
▁ማራ	-2815
▁እርስ	-2816
▁የሚለው	-2817
▁አስፈፃሚ	-2818
▁አስተያየት	-2819
▁የሬ	-2820
▁28	-2821
▁ክርስቲያን	-2822
ገባት	-2823
ጠራው	-2824
▁ያስከት	-2825
▁ብሏል	-2826
▁ኢንተር	-2827
ክልሉ	-2828
▁ይናገ	-2829
▁የተወሰነ	-2830
ማኖት	-2831
▁ቃለ	-2832
us	-2833
▁ያቀር	-2834
▁ይገልፃ	-2835
▁ኤፍ	-2836
et	-2837
▁ጥር	-2838
ማራ	-2839
▁አጭር	-2840
▁የና	-2841
▁ባለቤ	-2842
▁በኢትዮጵያ	-2843
▁ህፃ	-2844
▁27	-2845
▁የለ	-2846
▁የምት	-2847
ዋርድ	-2848
ካም	-2849
ስፋ	-2850
ፏል	-2851
▁ዶክተር	-2852
▁ምድ	-2853
▁የተቀመ	-2854
▁በዚያው	-2855
ፆታ	-2856
ድስ	-2857
▁ስኬት	-2858
▁አልነ	-2859
▁ይመስላል	-2860
▁የቢ	-2861
ነታ	-2862
el	-2863
▁አደ	-2864
▁በሌላ	-2865
ጠነ	-2866
▁በግንቦት	-2867
ገባደ	-2868
▁በእንግሊዝ	-2869
▁26	-2870
▁ለመግ	-2871
▁የሚገኝ	-2872
ገናኝ	-2873
▁አውራጃ	-2874
ሏቸው	-2875
▁ቀጣይ	-2876
ካዮች	-2877
▁በሁሉም	-2878
▁የቻይና	-2879
▁ፕሪ	-2880
▁የአት	-2881
መርመር	-2882
▁ስህ	-2883
▁ደብዳቤ	-2884
▁መለኪያዎች	-2885
ረኛ	-2886
▁የበረዶ	-2887
▁የተደረገ	-2888
▁አልነበረ	-2889
ይናንስ	-2890
ረጠ	-2891
▁ያስች	-2892
▁ሲሉ	-2893
ሴላዊ	-2894
▁መርሀ	-2895
ቫይ	-2896
ወጡ	-2897
▁ሀምሌ	-2898
▁ከነ	-2899
ወሰነ	-2900
▁ፈቃድ	-2901
ኢትዮጵያ	-2902
▁የጨዋታ	-2903
▁በቤ	-2904
ከሰቱ	-2905
ዘጋጀ	-2906
▁ሊሆኑ	-2907
▁ሪፐብ	-2908
ገናኘ	-2909
ለፍ	-2910
▁ቀረ	-2911
ገባደጃ	-2912
▁ክም	-2913
▁ማሀ	-2914
ሲን	-2915
▁ተስማሚ	-2916
ሳው	-2917
▁ተናግሯል።	-2918
▁ማሻሻያ	-2919
▁ባንክ	-2920
▁በጥቅምት	-2921
▁መገባደጃ	-2922
ሎም	-2923
▁ተቆጣ	-2924
▁በስተቀር	-2925
▁የክልል	-2926
ጣሪ	-2927
▁የኬ	-2928
▁ካለው	-2929
▁ያነሰ	-2930
ዮቹ	-2931
ነግ	-2932
▁ህይወ	-2933
ሮቹ	-2934
▁በመስከረም	-2935
▁ጥንካ	-2936
▁ልውውጥ	-2937
ካማ	-2938
ረሱ	-2939
ሳራ	-2940
▁ጠመንጃ	-2941
▁??	-2942
▁ምልክቶች	-2943
▁ሙከራዎች	-2944
▁ማግኘት	-2945
ላትን	-2946
▁አውሮፕላ	-2947
▁ተወዳጅ	-2948
▁የተባለ	-2949
ረር	-2950
ፊው	-2951
▁መቀመ	-2952
ዊስ	-2953
▁ሪኮ	-2954
ውድ	-2955
▁በትን	-2956
▁በቀጣዩ	-2957
መሩ	-2958
ቸዋል።	-2959
▁ግኝ	-2960
▁ምንጭ	-2961
▁ቅን	-2962
▁ያመለክ	-2963
▁አዎንታዊ	-2964
▁በበርካታ	-2965
▁ፉ	-2966
▁በከተማ	-2967
▁አልቻ	-2968
▁ተናግረዋል	-2969
መረብ	-2970
▁አመለካከት	-2971
ለቆ	-2972
ቋረጥ	-2973
▁ተመር	-2974
▁ባለፈው	-2975
▁መወለ	-2976
ቫን	-2977
1)	-2978
▁ግዛቶች	-2979
▁ኢኮኖሚያዊ	-2980
ሽኑ	-2981
▁188	-2982
ሰቢያ	-2983
▁ጄኔራል	-2984
ዌር	-2985
እና	-2986
▁አሰልጣኝ	-2987
▁አልባ	-2988
▁ዜጎች	-2989
▁ኋላ	-2990
5)	-2991
ጉሰ	-2992
▁የእግር	-2993
▁በእነዚህ	-2994
▁አስር	-2995
▁ባለሙያ	-2996
ፈልጉ	-2997
ባቢያ	-2998
▁ያካትታሉ	-2999
▁በጦር	-3000
▁ፋብሪካ	-3001
ፈራ	-3002
▁የህንድ	-3003
ሸነፈ	-3004
▁ሰነ	-3005
3)	-3006
▁1990	-3007
▁ክት	-3008
ቅድመ	-3009
ግና	-3010
ይዝ	-3011
ባኤ	-3012
▁የተዛመዱ	-3013
ቦና	-3014
ገናኙ	-3015
▁በእርስ	-3016
ድረስ	-3017
▁ይችላል።	-3018
▁ናት	-3019
ደረጉት	-3020
▁ስደ	-3021
▁ነፋስ	-3022
ብን	-3023
ንቀት	-3024
▁ተር	-3025
ጠረው	-3026
▁እነ	-3027
▁ቅደም	-3028
ፅሀፍት	-3029
▁አስራ	-3030
▁ዲቪ	-3031
▁የአካል	-3032
▁ጣልቃ	-3033
▁የበጋ	-3034
▁ገልፀዋል	-3035
▁186	-3036
▁ቅዱስ	-3037
▁ተከላ	-3038
▁ውስጣዊ	-3039
▁ድግ	-3040
▁ረገድ	-3041
▁በይፋ	-3042
ኒየር	-3043
▁ለን	-3044
ለጥ	-3045
▁ጆርጅ	-3046
▁አድና	-3047
▁አዘጋጅ	-3048
ቸር	-3049
▁የእሱ	-3050
▁ኮንግ	-3051
▁የዘር	-3052
▁በግልፅ	-3053
▁ግፊት	-3054
▁በሀምሌ	-3055
▁በቀላሉ	-3056
ቀን	-3057
▁አዋ	-3058
ዱን	-3059
▁የመጡ	-3060
▁ክስተቶች	-3061
▁አስከ	-3062
ውልድ	-3063
▁40	-3064
ልባ	-3065
▁አህ	-3066
▁ለመከላከል	-3067
▁ይጠቀ	-3068
ጓዴ	-3069
▁በኖቬምበር	-3070
▁ባህር	-3071
▁ተሽከርካ	-3072
▁ተገኝቷል	-3073
ካሄድ	-3074
▁በዝ	-3075
▁s	-3076
▁0,	-3077
▁ፍላጎ	-3078
ቡት	-3079
ጋዴ	-3080
ይህ	-3081
ሞክራ	-3082
▁ዘገባ	-3083
ጀንሲ	-3084
▁ኢንስ	-3085
ሻየር	-3086
▁ይው	-3087
▁ከጥ	-3088
ኛል	-3089
▁1,	-3090
ሌር	-3091
▁II	-3092
ሚዝ	-3093
▁መሆናቸውን	-3094
▁ወለል	-3095
▁ዳግ	-3096
ረንጓዴ	-3097
ገረ	-3098
▁በቢ	-3099
▁ከኮ	-3100
ግባር	-3101
▁ኤስ	-3102
▁ሽፋን	-3103
▁አሳይቷል	-3104
▁ልጆ	-3105
ገምገ	-3106
ባታ	-3107
▁ማብ	-3108
▁መስተ	-3109
▁ይሄ	-3110
▁ተመለሰ	-3111
▁አሰጣጥ	-3112
▁መለያ	-3113
▁ፕሮጀክ	-3114
ክክል	-3115
ክሪ	-3116
▁ቦርድ	-3117
▁የተለየ	-3118
ፅሁፍ	-3119
▁ማው	-3120
▁የቅርብ	-3121
▁ተወስ	-3122
▁ህንፃዎች	-3123
▁በድን	-3124
ቡባዊ	-3125
▁ኢንዱስትሪ	-3126
ጠኝ	-3127
▁ተወላጅ	-3128
▁ጠየ	-3129
▁ዲግሪ	-3130
▁ይቻ	-3131
▁በግምት	-3132
ሺያ	-3133
▁2004	-3134
▁ከኦ	-3135
▁ስኬታማ	-3136
ሞር	-3137
▁2005	-3138
ሪያው	-3139
▁የተገ	-3140
ግራፍ	-3141
ዱት	-3142
▁የተመሰረቱ	-3143
ሚክ	-3144
ሆኑም	-3145
▁ምሽት	-3146
ዋሚ	-3147
▁ኦፊሴላዊ	-3148
▁ደርሷል	-3149
ጥበባት	-3150
▁ሆስፒታል	-3151
▁በነበረ	-3152
ንዱስትሪ	-3153
▁ግጭት	-3154
▁በሁለቱም	-3155
▁እይታ	-3156
ሰማ	-3157
▁ከመጠን	-3158
ደናቂ	-3159
ch	-3160
▁ድልድ	-3161
▁የምግብ	-3162
▁መጨመር	-3163
17	-3164
ስትና	-3165
▁ስፔ	-3166
▁በኩ	-3167
ልቀት	-3168
▁አፍ	-3169
▁እንቅስቃሴዎች	-3170
ገምገም	-3171
ካካ	-3172
▁ለውጦች	-3173
am	-3174
ምሯል	-3175
ማሉ	-3176
ቂኝ	-3177
▁የምርምር	-3178
▁ኤድ	-3179
▁ጉብኝት	-3180
▁አማራጭ	-3181
▁ተቋም	-3182
▁የመጀመሪያዎቹ	-3183
▁በሆነው	-3184
-2	-3185
▁ማረፊያ	-3186
▁በጉ	-3187
ነስ	-3188
▁አረጋግ	-3189
ርፍ	-3190
▁ተናግረዋል።	-3191
▁የነበሩ	-3192
ላሳ	-3193
ካተተ	-3194
▁ስብስ	-3195
ገነዘ	-3196
ኙነት	-3197
ነቃ	-3198
ኮል	-3199
ፍታት	-3200
▁ተከታ	-3201
▁የድር	-3202
ዘርላንድ	-3203
▁የአይ	-3204
▁የጂ	-3205
▁እንግሊዝ	-3206
ur	-3207
▁የአካባቢ	-3208
ዳረ	-3209
▁ክፍት	-3210
▁የሴ	-3211
ሰብአዊ	-3212
▁በመስጠት	-3213
ቁም	-3214
▁ሼ	-3215
ጠቅላላው	-3216
▁የአር	-3217
ቸት	-3218
▁እንድት	-3219
▁ሞተ	-3220
ሻሽ	-3221
15	-3222
ዊን	-3223
ጓዝ	-3224
▁የለው	-3225
▁ይታወቃል	-3226
▁ተሳትፎ	-3227
▁ጣቢያዎች	-3228
▁ወዲያው	-3229
16	-3230
▁ዊል	-3231
▁ትስ	-3232
▁ተጨ	-3233
ፎችን	-3234
ባሉ	-3235
▁ተካሂዷል	-3236
▁ሀላፊነት	-3237
▁የዱ	-3238
ረጡ	-3239
-0	-3240
▁ይጠይ	-3241
▁ምንጮች	-3242
il	-3243
ፊቱ	-3244
ቻችን	-3245
▁ብቃት	-3246
▁ከግምት	-3247
ጣቸው	-3248
ታወቀ	-3249
ስያ	-3250
▁ወደሚ	-3251
▁ተዛወረ	-3252
▁1980	-3253
ልተን	-3254
▁አሉት	-3255
▁ሊቀመን	-3256
▁ይተ	-3257
▁ክርስቲያ	-3258
ኮችን	-3259
▁ቫይ	-3260
▁ጳጳ	-3261
▁ፍሰት	-3262
▁የቴክ	-3263
▁ከብ	-3264
▁በጎ	-3265
▁ኦፕሬ	-3266
ዚዮን	-3267
ሪንግ	-3268
ቻርድ	-3269
ህበረ	-3270
ኤች	-3271
ንቃ	-3272
ታለች	-3273
ኒን	-3274
▁ምናልባትም	-3275
▁ስምንት	-3276
▁ረቂ	-3277
ባድ	-3278
▁29	-3279
▁ተቀላቀ	-3280
▁ሀገሮች	-3281
▁የፒ	-3282
ሌን	-3283
ፃፍ	-3284
ራጮች	-3285
ናንሽ	-3286
ዩን	-3287
ተኮር	-3288
▁ፕሮፌሰር	-3289
▁እህ	-3290
▁በጆ	-3291
ከናወን	-3292
▁አድርገዋል	-3293
▁ነፃነት	-3294
▁የተዋ	-3295
▁ክብደት	-3296
ፅሀፍ	-3297
▁የሰሜን	-3298
▁ኮሚሽን	-3299
ክን	-3300
▁የካናዳ	-3301
▁የአፍሪካ	-3302
▁ስሪት	-3303
▁መደም	-3304
ቃወም	-3305
ብብር	-3306
ሪጅ	-3307
▁የምርጫ	-3308
▁የሚለውን	-3309
▁የመከላከያ	-3310
▁አገልግሎቶች	-3311
▁ደካማ	-3312
▁ስጋት	-3313
ሮው	-3314
በራ	-3315
ውንድ	-3316
ቃሉ	-3317
▁አንፃር	-3318
▁ሆና	-3319
ያሜ	-3320
▁ተገል	-3321
▁ጥንካሬ	-3322
ሉትን	-3323
▁O	-3324
ቆየት	-3325
▁ንድፍ	-3326
▁ምስል	-3327
▁በማን	-3328
▁ለብ	-3329
ሻል	-3330
▁መብቶች	-3331
▁ነጥቦች	-3332
ቋል።	-3333
ፊልድ	-3334
▁ማለትም	-3335
▁ያልተለመ	-3336
አን	-3337
▁ሹ	-3338
▁የዴ	-3339
▁ሰባት	-3340
ጠብ	-3341
ቀጠል	-3342
ሆናቸው	-3343
▁ትምህር	-3344
ፕላ	-3345
ሸራተ	-3346
ማውያን	-3347
▁የብረት	-3348
ሜናዊ	-3349
4)	-3350
▁ረጅም	-3351
▁ባንድ	-3352
ዘጋጃ	-3353
ያቂ	-3354
ደሚያ	-3355
▁ያተኮ	-3356
▁የተሻለ	-3357
▁ብቸኛው	-3358
▁የቡድን	-3359
▁ጥሪ	-3360
▁ዜና	-3361
▁ግለሰቦች	-3362
▁የተሳ	-3363
▁ስቴት	-3364
▁ያደርገዋል	-3365
ቀፍ	-3366
▁በቁጥጥር	-3367
▁ጄምስ	-3368
▁ትናንሽ	-3369
▁ለመለየት	-3370
▁ሊቀመንበር	-3371
ጦችን	-3372
▁ወረራ	-3373
ከሰት	-3374
ቅን	-3375
ጠፋ	-3376
ፈለግ	-3377
▁ንግግር	-3378
▁መርከብ	-3379
በልጥ	-3380
▁በተደጋጋሚ	-3381
ጣቱ	-3382
▁እግ	-3383
▁አካዳሚ	-3384
▁ባለሙያዎች	-3385
ርቭ	-3386
ዶቹ	-3387
▁አስቸጋሪ	-3388
▁ጠቃ	-3389
▁ያስከትላል	-3390
▁ትስስር	-3391
ክሽን	-3392
▁እጥረት	-3393
▁ቪዲዮ	-3394
▁ምህ	-3395
▁ንቁ	-3396
▁እቃዎች	-3397
▁በጋራ	-3398
ላቅ	-3399
▁መኮን	-3400
▁ጠቃሚ	-3401
▁በእውነቱ	-3402
▁ወዲያውኑ	-3403
▁ለመቀነስ	-3404
▁ባለብዙ	-3405
▁የሀይ	-3406
▁ሆኗል	-3407
▁m	-3408
▁ግንኙነቶች	-3409
ቁት	-3410
▁አዲሱ	-3411
▁እስካ	-3412
ሪያል	-3413
▁ክምችት	-3414
ሳቢ	-3415
ይዞ	-3416
ቴክ	-3417
ቶሪ	-3418
▁እርግ	-3419
ንሪ	-3420
▁በከፊል	-3421
ቪዬ	-3422
▁እንደሌ	-3423
ዳሉ	-3424
▁ቋሚ	-3425
▁ብቸኛ	-3426
▁ግድግዳ	-3427
▁ረድ	-3428
▁ትሪ	-3429
▁መሪዎች	-3430
እንደ	-3431
ማዎች	-3432
ባቢያዊ	-3433
▁ጥምረት	-3434
▁አዳራሽ	-3435
ርባ	-3436
▁በብዙ	-3437
▁ኑ	-3438
መፅሀፍት	-3439
▁ከክ	-3440
▁ይቆ	-3441
▁ኮርፖ	-3442
▁ወላ	-3443
▁የአውስትራሊያ	-3444
ሮጌ	-3445
▁የሄ	-3446
ቲከ	-3447
ገጃ	-3448
▁በምስራቅ	-3449
▁(18	-3450
ናቸው	-3451
ጫው	-3452
ችልም	-3453
▁በቤተ	-3454
▁ማጥ	-3455
▁የቲ	-3456
▁ብሏል።	-3457
▁ተገቢ	-3458
▁ያሉትን	-3459
▁መው	-3460
▁187	-3461
▁ሳምንታት	-3462
ከረ	-3463
ዎቻቸው	-3464
መስረት	-3465
▁የመል	-3466
▁አስከት	-3467
▁ደሴት	-3468
ቱዲዮ	-3469
▁መፅሄት	-3470
▁ገለ	-3471
ዘመናዊ	-3472
▁መደምደሚያ	-3473
▁በእያንዳንዱ	-3474
▁አሀ	-3475
▁ብላ	-3476
እከላዊ	-3477
ቆጣጠ	-3478
▁የሁለት	-3479
▁ልጃ	-3480
▁መቀነስ	-3481
ራው	-3482
መቻ	-3483
▁የቅዱስ	-3484
▁የቻ	-3485
ጉን	-3486
▁በአውሮፓ	-3487
ገናኘት	-3488
▁አንዳን	-3489
ላማዊ	-3490
▁ቁጥ	-3491
ባቸውን	-3492
▁የአገ	-3493
▁ይዞ	-3494
▁ቀለ	-3495
▁ወኪ	-3496
ዳጊ	-3497
▁ጠፍ	-3498
▁.	-3499
▁ሀኪ	-3500
▁አድራ	-3501
ክፈ	-3502
▁ጓደኛ	-3503
▁እንስሳት	-3504
▁ካሮ	-3505
▁የዶ	-3506
▁በዘ	-3507
▁ክብር	-3508
ቢን	-3509
▁አትሌ	-3510
▁እስኪ	-3511
▁የሪ	-3512
▁በገ	-3513
ሳተፉ	-3514
ናጋ	-3515
▁መስጠት	-3516
ሬስ	-3517
▁1970	-3518
ይንት	-3519
▁ከበ	-3520
ለቲከ	-3521
▁ክፍያ	-3522
ጀመሪያው	-3523
መለከቱ	-3524
▁ቨር	-3525
▁የዜ	-3526
▁የሙያ	-3527
አንድ	-3528
▁ንጉስ	-3529
▁መወለዶች	-3530
▁ውይይት	-3531
▁ሰጪ	-3532
▁ዎ	-3533
ቋቋሙ	-3534
▁ዴቪድ	-3535
▁ፍት	-3536
▁ኤጀንሲ	-3537
ዥያ	-3538
▁ክልሎች	-3539
▁ፀሀፊዎች	-3540
▁በቅርቡ	-3541
▁ንድፈ	-3542
▁የካር	-3543
▁ተነሳሽነት	-3544
▁2021	-3545
▁አሉታዊ	-3546
▁የተሞ	-3547
ሀዊ	-3548
▁የቱ	-3549
▁ገበያ	-3550
40	-3551
▁ጠባቂ	-3552
▁ያቀፈ	-3553
▁ትርጉም	-3554
▁ኪንግደም	-3555
▁አውቶ	-3556
▁የሚቆጠሩ	-3557
▁የተወሰኑ	-3558
▁ተመራቂዎች	-3559
▁በእርግ	-3560
▁ተገን	-3561
▁ውሏል	-3562
▁ተለው	-3563
▁ግዙ	-3564
ከታተል	-3565
▁የራስ	-3566
▁ከኤ	-3567
▁በደን	-3568
▁በተያያዘ	-3569
▁እንዳለው	-3570
በላሸ	-3571
▁ድብልቅ	-3572
▁ከዚህም	-3573
ወያ	-3574
መሰ	-3575
▁የግንኙነት	-3576
ሎሪ	-3577
ቀድ	-3578
▁አልበም	-3579
12	-3580
ቀርብ	-3581
ግራይ	-3582
ኳይ	-3583
ከሰተው	-3584
▁የተሰራ	-3585
ad	-3586
▁ሚሊ	-3587
▁ነገሮችን	-3588
▁ወንጀል	-3589
▁ሀር	-3590
▁ሪፖር	-3591
▁የቁ	-3592
▁በእጅ	-3593
▁ነገስቱ	-3594
▁ቢሊዮን	-3595
ፅን	-3596
አብ	-3597
▁ዘፈን	-3598
ማረ	-3599
▁ጠቁ	-3600
▁የተከ	-3601
▁ዝና	-3602
▁በሂ	-3603
▁አረ	-3604
ፍና	-3605
ፁም	-3606
ያስ	-3607
ላለፊያ	-3608
በለ	-3609
▁ጡረታ	-3610
▁አምባ	-3611
ባህሪያ	-3612
▁ማቋቋም	-3613
ህረ	-3614
▁የመጨረሻው	-3615
▁ህዳር	-3616
ዲት	-3617
ግን	-3618
መና	-3619
ያም	-3620
▁ዘንድ	-3621
▁የኪነ	-3622
ጠናቀቅ	-3623
▁መስመሮች	-3624
▁መዋቅር	-3625
››	-3626
▁እንደሚያመለክ	-3627
▁አስኪያጅ	-3628
▁ብዙሀን	-3629
ነጋ	-3630
▁የሱ	-3631
▁ተስተ	-3632
ሂብ	-3633
ድሜ	-3634
በታ	-3635
መራው	-3636
▁ፀረ	-3637
ጫት	-3638
ሀብ	-3639
ዋወቅ	-3640
▁በጋ	-3641
▁ርእስ	-3642
▁የተፃ	-3643
ሳይድ	-3644
▁ተሳታ	-3645
▁ግብር	-3646
▁ዊሊያም	-3647
በኞች	-3648
ራል።	-3649
▁የፈጠራ	-3650
▁ህጋዊ	-3651
▁ድንበር	-3652
ፈረንስ	-3653
ሮና	-3654
▁የፀረ	-3655
ሳሰብ	-3656
▁የጆ	-3657
▁ከሌ	-3658
▁መጠይቅ	-3659
ወሀት	-3660
▁የታሪክ	-3661
▁የኤሌክትሪክ	-3662
▁ለመጠበቅ	-3663
ጨዋታው	-3664
▁አሸናፊዎች	-3665
▁አጠናቋል	-3666
▁እም	-3667
▁ያቀርባል	-3668
▁ቅርንጫ	-3669
ብቻ	-3670
▁መድረክ	-3671
ይቶ	-3672
▁ማእረግ	-3673
ልን	-3674
▁በራስ	-3675
ዳኝ	-3676
▁ጃክ	-3677
▁ቤተሰቦች	-3678
▁የላ	-3679
▁አይነቶች	-3680
ተመ	-3681
ትሪ	-3682
▁ኢንስቲት	-3683
ርቶ	-3684
ጂያ	-3685
▁ዲቪዚዮን	-3686
ሄዱ	-3687
▁ደርሶ	-3688
▁ይይዛል	-3689
▁በባህር	-3690
▁ከካ	-3691
▁ግብረ	-3692
▁ሰማ	-3693
ተኩ	-3694
ረጋጋት	-3695
▁ይቻላል	-3696
ent	-3697
▁አስቂኝ	-3698
▁ሊያስ	-3699
▁ክሬ	-3700
▁ድግግሞ	-3701
ስቲክስ	-3702
ቦን	-3703
▁ባልደረ	-3704
ካከለኛው	-3705
▁አቃ	-3706
▁በአካባቢው	-3707
ለቱ	-3708
▁2003	-3709
▁ካን	-3710
▁መላ	-3711
▁እቅ	-3712
ጠኝነት	-3713
ሻን	-3714
▁ገልፀዋል።	-3715
▁ቤዝ	-3716
ሰጠው	-3717
ካክ	-3718
▁ባለፉት	-3719
▁የድንጋይ	-3720
ላቂ	-3721
ዛሬ	-3722
▁ነጋዴ	-3723
▁ኢላማ	-3724
▁የኋላ	-3725
▁አሰራር	-3726
▁ለማረጋገጥ	-3727
▁ዝግጅት	-3728
▁ድራማ	-3729
▁መግቢያ	-3730
▁ለማሻሻል	-3731
▁በመንግስት	-3732
▁ጠብ	-3733
▁ከም	-3734
▁ነበሩ።	-3735
▁በኋላም	-3736
▁ኪሳራ	-3737
▁ጎል	-3738
▁በዋናነት	-3739
▁ሰአታት	-3740
ጿል።	-3741
ቶኒ	-3742
ፉን	-3743
▁ኦሎምፒክ	-3744
▁ፖለቲከ	-3745
▁አገልግሏል	-3746
▁ለምን	-3747
▁ተባባሪ	-3748
▁በነበረበት	-3749
▁አስመ	-3750
▁ይገኙ	-3751
▁ረዳት	-3752
▁መኮ	-3753
▁አንጀ	-3754
▁ተንቀሳ	-3755
▁ሁል	-3756
▁የሚወስ	-3757
▁ሮበርት	-3758
▁ምሁራን	-3759
▁አስታውቋል	-3760
▁በመጥ	-3761
▁መስሪያ	-3762
te	-3763
▁ስሜታዊ	-3764
▁ክሪስ	-3765
▁ፍቅር	-3766
▁ፕላ	-3767
ዳዳሪ	-3768
▁እውነት	-3769
▁እንቁ	-3770
ኮትላንድ	-3771
ለሁ።	-3772
▁ሙዚየም	-3773
▁ኤክስ	-3774
▁መጋ	-3775
ዘጋጁ	-3776
▁በምት	-3777
ጂታል	-3778
▁ዳን	-3779
▁ቻይና	-3780
ራቢ	-3781
ቨን	-3782
▁ረቂቅ	-3783
ቪያ	-3784
▁የላይ	-3785
▁አቅርቧል	-3786
▁ሩጫ	-3787
▁ምድር	-3788
▁ሽን	-3789
▁በጠ	-3790
▁መልክ	-3791
▁ግዙፍ	-3792
▁ልኡ	-3793
▁በምእራብ	-3794
▁ህመም	-3795
▁ተዘጋጅ	-3796
▁መገለ	-3797
አዴ	-3798
ስቸ	-3799
ሻው	-3800
ቃብር	-3801
▁ቴክኒ	-3802
▁ከፍተኛው	-3803
ረበ	-3804
▁ሀውል	-3805
iv	-3806
▁የግብ	-3807
6)	-3808
ቧል።	-3809
ንጀ	-3810
▁አድርጓ	-3811
▁መፈ	-3812
▁ጥግ	-3813
▁የሳይንስ	-3814
ራዎች	-3815
▁አስቆጥ	-3816
ግግር	-3817
ተናል	-3818
▁የምርት	-3819
▁ይፋ	-3820
▁መሳሪያዎችን	-3821
▁በአንዳንድ	-3822
▁ኤች	-3823
▁የፊት	-3824
▁ይሆና	-3825
▁ኤር	-3826
▁ልዩነቶች	-3827
▁ወንጀ	-3828
ሬዎች	-3829
▁በጭራሽ	-3830
ሳተፍ	-3831
በርን	-3832
▁በመግ	-3833
ቪን	-3834
▁በብሄራዊ	-3835
▁ሚዲያ	-3836
▁ፌስቲ	-3837
ቀላቀል	-3838
▁የቅር	-3839
ሮም	-3840
ቭስ	-3841
▁ለመፍጠር	-3842
ዲየም	-3843
▁በአየር	-3844
▁ወጣቶች	-3845
ሜሽን	-3846
▁ተጠያቂ	-3847
ሩም	-3848
▁እፅ	-3849
ፁህ	-3850
▁በዚህም	-3851
ሳሰ	-3852
▁ቶማስ	-3853
▁በዴ	-3854
ነዋል	-3855
ርስቶስ	-3856
▁እስካሁን	-3857
ቲስ	-3858
▁መልኩ	-3859
▁ቲያትር	-3860
%)	-3861
ዮሽ	-3862
ከን	-3863
ረጋጋ	-3864
ጥበብ	-3865
▁አብዮ	-3866
ቶሊክ	-3867
▁በፈረንሳይ	-3868
ገለፀው	-3869
▁ስልጣ	-3870
▁ሞተር	-3871
▁የጃፓን	-3872
▁ስቲ	-3873
ባማ	-3874
ጠቁ	-3875
▁የፎ	-3876
▁ጨዋታዎችን	-3877
ፕሎ	-3878
ተኝነት	-3879
▁አጋር	-3880
▁በኬ	-3881
▁ስልተ	-3882
▁በሰፊው	-3883
▁የተቆራኘ	-3884
▁ፈተና	-3885
ዮሎጂ	-3886
▁የሚታ	-3887
ሾመ	-3888
▁የፌ	-3889
▁2002	-3890
▁የፌዴራል	-3891
ቀርቡ	-3892
▁ይገባል	-3893
ጥፍ	-3894
▁በኪ	-3895
ሁዳ	-3896
▁መጥፎ	-3897
▁ሲሆኑ	-3898
አሜሪካ	-3899
▁የመፅሀፍ	-3900
ቃሽ	-3901
▁ከሁ	-3902
ኦት	-3903
▁እውቀት	-3904
ጨምር	-3905
▁ትርኢት	-3906
▁በአንፃ	-3907
▁እንደነበር	-3908
▁ውጤታማነት	-3909
▁ቡና	-3910
ትሪክ	-3911
7)	-3912
ፖሊ	-3913
ቤል	-3914
▁ሉዊስ	-3915
▁ያገለግ	-3916
▁በሰው	-3917
▁ይወሰ	-3918
▁እሱን	-3919
▁የብር	-3920
▁የኑ	-3921
▁ውስን	-3922
▁እንደሚችሉ	-3923
▁የወንጀል	-3924
▁ወዲህ	-3925
ንቃቄ	-3926
▁ነበራቸው	-3927
▁የተጀመረው	-3928
▁መኮንን	-3929
▁=	-3930
▁ዳኛ	-3931
▁ለፊት	-3932
▁ሰን	-3933
▁የሚያስችል	-3934
▁ተደራ	-3935
▁ያሳያሉ	-3936
ጅምላ	-3937
▁ማም	-3938
ሞክሮ	-3939
ከሰተ	-3940
▁ማርቲ	-3941
▁ሸለቆ	-3942
▁2001	-3943
▁ጉባኤ	-3944
ራስ	-3945
ላጭ	-3946
▁ጥያቄዎች	-3947
ካው	-3948
ተኞችን	-3949
60	-3950
▁ጠይ	-3951
ፍን	-3952
▁ታች	-3953
▁በማይ	-3954
▁ባን	-3955
▁መስራት	-3956
▁በአማ	-3957
ers	-3958
▁ቀስ	-3959
ሮድ	-3960
▁ግምት	-3961
ቀነባበ	-3962
ወግ	-3963
▁ገደማ	-3964
ላቁ	-3965
▁ፒተር	-3966
▁1960	-3967
▁ተጎ	-3968
▁ወረርሽ	-3969
ዶን	-3970
▁እንዳለበት	-3971
ቀቂያ	-3972
ህበራዊ	-3973
ራዊነት	-3974
▁አውስትራሊያ	-3975
▁አመታዊ	-3976
▁የተገኙ	-3977
▁በተካሄደው	-3978
▁በትክክል	-3979
ሪድ	-3980
ቦቹ	-3981
ደርሱ	-3982
▁ዞን	-3983
▁አረንጓዴ	-3984
▁ሽልማቶች	-3985
ላቱ	-3986
ቪስ	-3987
▁ያቀረ	-3988
▁መረጃዎችን	-3989
▁ፕሬዚዳንት	-3990
▁ይፈጥ	-3991
▁ይጨም	-3992
▁አውጥ	-3993
▁ተሰጥቶታል	-3994
▁የሁለተኛ	-3995
ረዳት	-3996
ስማ	-3997
▁አባት	-3998
▁በመጋቢት	-3999
ታም	-4000
ራም	-4001
▁ኢንስቲትዩት	-4002
▁ፌዴ	-4003
ut	-4004
▁31	-4005
▁ሴንት	-4006
ፃነት	-4007
▁በደንብ	-4008
ልኮ	-4009
▁እለት	-4010
▁ያደረገው	-4011
▁ጉዳዮችን	-4012
▁ራሱ	-4013
ታወቁ	-4014
▁የተገኘ	-4015
ሳች	-4016
ቅራቢያ	-4017
▁በጥሩ	-4018
ቤቱ	-4019
▁ራሱን	-4020
▁ለመሆን	-4021
▁ተተክ	-4022
▁ቀረፃ	-4023
ካቲት	-4024
▁ቤይ	-4025
▁ኮንፈረንስ	-4026
▁አውታረመረብ	-4027
▁መጣ	-4028
▁ተጠና	-4029
ባለ	-4030
ራቅ	-4031
▁በምር	-4032
ጅት	-4033
▁ውጤቶችን	-4034
▁ይለ	-4035
ክልት	-4036
▁የሩሲያ	-4037
▁አሜሪካውያን	-4038
ከፍተኛ	-4039
▁ሞዴሎች	-4040
▁ይበልጥ	-4041
▁ብርሀን	-4042
ጂኒያ	-4043
▁ተዋጊ	-4044
▁አገዛዝ	-4045
▁ከው	-4046
▁ሀብት	-4047
▁የአስተ	-4048
▁የኢኮኖሚ	-4049
▁ፊልሙ	-4050
▁ትላልቅ	-4051
ታች	-4052
ውም	-4053
▁የምን	-4054
▁ኤፕሪል	-4055
▁ወግ	-4056
▁አሜሪካዊ	-4057
▁የነርቭ	-4058
ከፍ	-4059
ሰጠ	-4060
ቋሚ	-4061
ጓዙ	-4062
▁የመንገድ	-4063
▁ፍሬ	-4064
▁አማካኝነት	-4065
▁60	-4066
▁ሀይማኖ	-4067
▁ደረጃን	-4068
▁ዘርፍ	-4069
▁የፖሊስ	-4070
▁ልምምድ	-4071
▁ጨዋታውን	-4072
▁‹‹	-4073
ለጋ	-4074
9)	-4075
▁in	-4076
▁ድግግሞሽ	-4077
ቋር	-4078
ረምት	-4079
ከፈ	-4080
▁ተፈጥ	-4081
▁አልነበረም	-4082
▁ደቂቃዎች	-4083
▁በተቃራኒ	-4084
▁ያገኛ	-4085
ቨስት	-4086
▁የቀረበ	-4087
ፕላን	-4088
▁ለንደን	-4089
▁የሰራተኛ	-4090
▁የአው	-4091
ባህሪ	-4092
ሯዊ	-4093
▁ዩኒ	-4094
▁አይደሉም	-4095
ንቴ	-4096
▁ዚ	-4097
ውሉ	-4098
▁ቅጣት	-4099
▁ጫፍ	-4100
▁አገራት	-4101
ወዳደር	-4102
▁ቀጣይነት	-4103
ሰሳ	-4104
ናቱ	-4105
▁ለመም	-4106
ሟላ	-4107
▁ሪፐብሊክ	-4108
▁ስራው	-4109
ቻሉ	-4110
▁በትምህርት	-4111
▁ማድረ	-4112
▁ክህ	-4113
ካጎ	-4114
▁በመላው	-4115
▁የማስ	-4116
8)	-4117
▁ብዬ	-4118
▁መኮንኖች	-4119
ሯቸው	-4120
CA	-4121
▁ተብለው	-4122
▁ሶስተኛው	-4123
ተም	-4124
ባጭ	-4125
▁ነዋሪ	-4126
▁የተገነባው	-4127
▁ማረጋገ	-4128
▁መኖር	-4129
▁በዛ	-4130
▁የወርቅ	-4131
▁ሰላም	-4132
▁ዋል	-4133
ንግስ	-4134
▁ወገ	-4135
▁የበላይነት	-4136
ናገሩት	-4137
▁ቀጥተኛ	-4138
▁አውሮፓ	-4139
▁አማካሪ	-4140
ዳድ	-4141
ul	-4142
▁ከኢ	-4143
ቀዝ	-4144
ታችን	-4145
▁ያርድ	-4146
▁አቅርቦት	-4147
▁መጠቀም	-4148
▁እስር	-4149
▁አዝማ	-4150
▁ለት	-4151
11	-4152
ገልግሎት	-4153
▁የያዘ	-4154
▁የወንዶች	-4155
ዳረሻ	-4156
▁ተቀብ	-4157
▁(200	-4158
▁ታማ	-4159
▁ቅዱ	-4160
▁የሚተ	-4161
ረፍት	-4162
▁የእጅ	-4163
▁የላይኛው	-4164
▁የማስተ	-4165
▁በጀርመን	-4166
▁ያካተተ	-4167
▁ኦፍ	-4168
ጥብ	-4169
▁የይ	-4170
ብል	-4171
▁ይገኛሉ	-4172
▁ህንድ	-4173
ኋለኛው	-4174
▁X	-4175
ሊና	-4176
▁ለሁ	-4177
ግራም	-4178
▁አንጀለስ	-4179
ነታቸው	-4180
▁ስጋ	-4181
▁እንደመ	-4182
▁ፖል	-4183
▁በዊ	-4184
▁ጀርመን	-4185
ኪው	-4186
ፈፀም	-4187
▁ማለ	-4188
▁የሂሳብ	-4189
▁በመግለፅ	-4190
▁ሴል	-4191
ሰብሰብ	-4192
ማጅ	-4193
▁ስቱዲዮ	-4194
▁ቃላት	-4195
▁ታው	-4196
▁ተሰይ	-4197
▁ለመገንባት	-4198
ጋጠ	-4199
▁የተሸፈ	-4200
▁ለማስወገድ	-4201
ጠቅላይ	-4202
▁በሰኔ	-4203
ካሄደ	-4204
ሜታ	-4205
▁በአቅራቢያ	-4206
ሜዲ	-4207
▁ባለቤትነት	-4208
ምህራን	-4209
ዳም	-4210
▁የፔ	-4211
▁የዩኤስ	-4212
ካተት	-4213
▁አራተኛ	-4214
ነኛ	-4215
▁ንብር	-4216
▁እንዲፈ	-4217
ሷን	-4218
▁2022	-4219
▁ጀልባ	-4220
ጠባበ	-4221
ቲቪ	-4222
▁የተራ	-4223
▁ደህን	-4224
▁ቤን	-4225
ክፈቻ	-4226
▁o	-4227
▁አስደናቂ	-4228
ሆኗ	-4229
▁መሀል	-4230
▁ፑ	-4231
ስትሮ	-4232
▁ተጠር	-4233
▁ስፋት	-4234
▁በፊ	-4235
ፊልሙ	-4236
▁ውድድሮች	-4237
▁ሴሎች	-4238
▁የተፈጥሮ	-4239
ፈቀደ	-4240
▁ወሰነ	-4241
▁ያደርጋ	-4242
▁የተደረጉ	-4243
▁ፈረንሳይ	-4244
▁ሬጅ	-4245
▁ኮሎ	-4246
▁ተናግሯል	-4247
ዳሜ	-4248
▁እትም	-4249
▁ሪኮርድ	-4250
▁(2	-4251
ዘዘ	-4252
▁አዝማሚያ	-4253
ፎካካ	-4254
ኖርም	-4255
መልከት	-4256
ውና	-4257
▁ፓር	-4258
ወድ	-4259
▁ስያሜ	-4260
ከም	-4261
▁ይዘት	-4262
ርዳት	-4263
ረጋገጠ	-4264
▁ክርክር	-4265
▁ማቆ	-4266
ስራኤል	-4267
ሎሪዳ	-4268
ጎችን	-4269
ኔን	-4270
▁ተክ	-4271
ጣቶች	-4272
▁ኪሎ	-4273
ጣቢያ	-4274
▁መምሪያ	-4275
▁ሄደ	-4276
▁ተኩ	-4277
▁በስተጀርባ	-4278
ጁን	-4279
▁የማያ	-4280
ኮስ	-4281
▁ግሪ	-4282
ንቅላት	-4283
▁ተረጋግ	-4284
▁ዋናው	-4285
▁ሙቀት	-4286
▁አብዛኛው	-4287
▁ይገልፃል	-4288
▁በና	-4289
▁መስፈር	-4290
▁ውድቀት	-4291
ላለች	-4292
▁ገና	-4293
▁አሲ	-4294
▁ተሞክሮ	-4295
ኖቹ	-4296
ሊስት	-4297
▁የተሰጠው	-4298
▁ሀሳቦች	-4299
▁አርቲስቶች	-4300
▁ቀድሞው	-4301
▁አካላዊ	-4302
ቬን	-4303
▁በቶ	-4304
▁የሰብአዊ	-4305
ካሚ	-4306
ምባ	-4307
ra	-4308
▁ከት	-4309
▁ስፖርት	-4310
▁በቅደም	-4311
ሱት	-4312
▁ሞር	-4313
▁ከሶስት	-4314
▁ባለስልጣን	-4315
▁ይታያል	-4316
▁አስከትሏል	-4317
▁ለማቅረብ	-4318
ጅቱ	-4319
▁ይደግ	-4320
▁ልክ	-4321
▁ትግል	-4322
በመ	-4323
▁ጥንታዊ	-4324
▁ግም	-4325
▁በቆ	-4326
▁ጠር	-4327
▁ፓውንድ	-4328
▁በቪ	-4329
▁ትራንስፖርት	-4330
▁በማሳ	-4331
▁ግዴ	-4332
▁በቤት	-4333
▁ተጠቃሚ	-4334
የእ	-4335
ሊካን	-4336
▁በስራ	-4337
ሴፍ	-4338
▁ስሚዝ	-4339
▁የላቀ	-4340
ዝገብ	-4341
▁ሪቻርድ	-4342
▁አገሮች	-4343
▁የእሳት	-4344
▁በህዝብ	-4345
ሲብ	-4346
▁ዘፋ	-4347
ኦሎጂ	-4348
ያጭ	-4349
ኖራ	-4350
▁ብል	-4351
▁መንደር	-4352
14	-4353
▁ግድያ	-4354
▁መቆጣጠ	-4355
▁ብቁ	-4356
ሽናል	-4357
▁ይጀም	-4358
በራቸው	-4359
ታይን	-4360
ሻገር	-4361
▁ዘፈኖች	-4362
መለከት	-4363
▁ሞክ	-4364
ኒክስ	-4365
ሞት	-4366
▁ስራዎችን	-4367
ያዣ	-4368
ሮት	-4369
▁1999	-4370
▁ማመን	-4371
ኘው	-4372
ነኝነት	-4373
ታውን	-4374
▁አኒ	-4375
▁የባለ	-4376
ዋስ	-4377
▁ማእከ	-4378
▁ጭብ	-4379
▁ጥላ	-4380
▁ፕሮግራሞች	-4381
ለን።	-4382
▁አመራር	-4383
ፓር	-4384
▁በቁ	-4385
▁እናት	-4386
ህአዴ	-4387
ልበት	-4388
▁የረጅም	-4389
▁የሚች	-4390
ጫወቱ	-4391
ዋር	-4392
▁በሪ	-4393
▁በዋነኝነት	-4394
▁አስደ	-4395
▁ስእል	-4396
▁ደጋፊ	-4397
▁በመደበኛ	-4398
▁የቅርጫት	-4399
▁ህዝቦች	-4400
▁በድር	-4401
ያንዳንዳቸው	-4402
▁በሚቀጥ	-4403
ከናወኑ	-4404
▁ዉ	-4405
ወዝ	-4406
▁የተረ	-4407
▁በማሸነፍ	-4408
▁የመኖሪያ	-4409
▁በቻይና	-4410
▁ተጓዳኝ	-4411
ደቅ	-4412
▁ካፒቴን	-4413
በቅ	-4414
▁ኮንት	-4415
▁ጁኒየር	-4416
ዘረ	-4417
▁የመር	-4418
▁በሄ	-4419
▁እንዲሆን	-4420
▁ገዝ	-4421
▁ተወካዮች	-4422
ቀቁ	-4423
▁ጋዜጣ	-4424
id	-4425
▁ማስተካከ	-4426
▁ቅኝ	-4427
ዳደሩ	-4428
▁ያስፈል	-4429
▁ንብረ	-4430
▁ለመፍታት	-4431
ችውን	-4432
ማመን	-4433
▁የቪዲዮ	-4434
ወሰኑ	-4435
▁የስፖርት	-4436
▁የሩ	-4437
▁በአውስትራሊያ	-4438
ግበር	-4439
ለንደን	-4440
▁ግሬ	-4441
▁ጥበብ	-4442
▁በህንድ	-4443
▁በሬ	-4444
ስትሪክ	-4445
ዳው	-4446
▁ስደተኞች	-4447
▁ስርአቱ	-4448
ስተካከለ	-4449
▁የደን	-4450
▁ውህደት	-4451
▁የሌለው	-4452
▁ማቀነባበ	-4453
ንሳዊ	-4454
ሸጥ	-4455
▁የቤተሰብ	-4456
▁ብሪ	-4457
▁ማንኛውም	-4458
13	-4459
▁ታይም	-4460
▁የተሻሻ	-4461
▁ባህሪያትን	-4462
▁ተመልክ	-4463
ሎምቢያ	-4464
▁የነዳጅ	-4465
▁ይጠቁ	-4466
▁የኢን	-4467
ta	-4468
ንስሳት	-4469
▁1998	-4470
ናግ	-4471
▁በሩ	-4472
▁ከላይ	-4473
▁ቀጠለ	-4474
▁በአዲስ	-4475
▁ዘላቂ	-4476
▁ተጀም	-4477
▁መዝገ	-4478
▁የኤሌክትሮ	-4479
ዎቻቸውን	-4480
▁ማያ	-4481
▁ምርቶች	-4482
ዳበር	-4483
▁መስተጋ	-4484
80	-4485
ቶቹን	-4486
እድን	-4487
▁በየአ	-4488
ወይም	-4489
▁ለመጠቀም	-4490
▁አቋም	-4491
▁ይፈ	-4492
▁መረብ	-4493
ማሩ	-4494
▁ስፖር	-4495
▁ስራውን	-4496
▁ይውላል	-4497
▁ጠየቀ	-4498
ያቸው	-4499
▁ተቀላቀለ	-4500
▁ተመዝግ	-4501
▁ለሀ	-4502
ቃል።	-4503
▁ትውልድ	-4504
ጠየቅ	-4505
ግዚአብ	-4506
▁በከተማው	-4507
▁መልእክት	-4508
▁የደህንነት	-4509
▁ጊዜያዊ	-4510
▁ሄንሪ	-4511
▁የመለ	-4512
▁መፍ	-4513
ይድሮ	-4514
▁መቀመጫ	-4515
▁አርት	-4516
ጋጥ	-4517
▁እንግዳ	-4518
ስቸኳይ	-4519
ረቶች	-4520
▁የሚጠጉ	-4521
▁ቀደምት	-4522
ቋንቋ	-4523
▁ቀሪ	-4524
ስቲን	-4525
ቀቶች	-4526
▁ፈረሰ	-4527
ባን	-4528
▁በፀ	-4529
▁ህያው	-4530
▁ሚስተር	-4531
ገመ	-4532
ክሌር	-4533
▁ሚኒስትሩ	-4534
▁ተቺ	-4535
▁መሬ	-4536
▁የንጉሰ	-4537
ጋቸው	-4538
▁በመጨረሻው	-4539
መቻቸት	-4540
▁ስለተ	-4541
ሸራተቻ	-4542
▁በመለ	-4543
ጊዜው	-4544
▁ፓርቲዎች	-4545
▁ኩባንያው	-4546
▁እሁድ	-4547
▁ተጋላጭ	-4548
▁ስምም	-4549
▁ለአንድ	-4550
ኳር	-4551
ፍትህ	-4552
ኪስታን	-4553
▁መማር	-4554
በራት	-4555
▁የሚኖሩ	-4556
ዛል	-4557
ig	-4558
▁ተሸን	-4559
▁ኮከብ	-4560
ሳሉ	-4561
▁አውጭ	-4562
ጉር	-4563
በራል	-4564
ቆጠር	-4565
▁ተፈጥሮ	-4566
▁የአትክልት	-4567
▁አያያዝ	-4568
በኛ	-4569
▁ቀድሞውኑ	-4570
▁ይገኙበታል	-4571
በጣም	-4572
ደሰ	-4573
▁ይወስ	-4574
▁ጨዋታው	-4575
▁ጠቀ	-4576
▁የጃ	-4577
▁ሂደቶች	-4578
▁ሀገራት	-4579
ቀሚያ	-4580
▁ይገመ	-4581
ስማማ	-4582
▁ከመጀመሪያው	-4583
▁ጫና	-4584
▁ተገንብ	-4585
ኛውንም	-4586
▁ሰል	-4587
▁ወስዷል	-4588
▁ቀንሷል	-4589
ቦራ	-4590
▁ከሜ	-4591
▁ተዘግ	-4592
▁አልቻለም	-4593
በእ	-4594
▁ከንቲ	-4595
ገም	-4596
ክተ	-4597
▁ደም	-4598
ዚሁ	-4599
▁ነገስት	-4600
▁ይቀጥ	-4601
▁የተባበሩት	-4602
▁ያደርጋል	-4603
▁ከሚያ	-4604
መጡ	-4605
▁The	-4606
▁አመፅ	-4607
▁የሶስት	-4608
▁ይለያ	-4609
▁የስር	-4610
▁ጥልቀት	-4611
▁አሏቸው	-4612
▁በመን	-4613
▁ፌስቲቫል	-4614
▁ድርጊት	-4615
▁በእሱ	-4616
▁በመተባበር	-4617
▁በአራት	-4618
▁አስፈላጊነት	-4619
▁በማስገባት	-4620
▁የሎ	-4621
ፋሉ	-4622
▁ክሮ	-4623
▁በአቅራቢያው	-4624
▁ተያ	-4625
▁የኢንዱስትሪ	-4626
▁የግብርና	-4627
▁የልማት	-4628
▁ያን	-4629
▁መንሸራተቻ	-4630
▁ይመለከ	-4631
um	-4632
▁የጨ	-4633
▁አወቃ	-4634
▁ቻርልስ	-4635
ለቡ	-4636
▁ድልድይ	-4637
▁ሰላ	-4638
▁ደንብ	-4639
▁የሚገል	-4640
ጋና	-4641
▁የተለመዱ	-4642
▁የተቃ	-4643
▁ፈሳሽ	-4644
▁አይነቱ	-4645
▁ካሜ	-4646
ፋር	-4647
▁አፕ	-4648
ዘገበ	-4649
ልቬ	-4650
▁የባህል	-4651
▁የሚታወቀው	-4652
▁ምእራፍ	-4653
▁አጣ	-4654
▁ውጤቶቹ	-4655
▁ሜሪ	-4656
▁ጥልቅ	-4657
▁ጫማ	-4658
▁ፋይ	-4659
▁በተሻለ	-4660
▁ይሸ	-4661
ኒስት	-4662
▁ህፃናት	-4663
ሲሲ	-4664
ሆንም	-4665
▁የቀረበው	-4666
▁ማብቂያ	-4667
▁ጀመሩ	-4668
▁ታላቅ	-4669
▁ዘጠኝ	-4670
ከማቻ	-4671
ብረተሰብ	-4672
▁አስተያየ	-4673
▁አቃቤ	-4674
ህበረሰብ	-4675
ዊድን	-4676
▁መቀ	-4677
ቀሱ	-4678
▁የራሱን	-4679
▁ሰፋ	-4680
▁ተሰብ	-4681
▁የሀሳብ	-4682
▁አብረው	-4683
▁ነበረች	-4684
▁አሳል	-4685
▁ቀመር	-4686
ኒንግ	-4687
▁ድንጋይ	-4688
ቻለ	-4689
▁1996	-4690
▁በአስራ	-4691
▁ነፍ	-4692
▁ይጠይቃል	-4693
▁ካሮላይ	-4694
▁በአር	-4695
▁ፊሊ	-4696
▁በላ	-4697
ቋቋመው	-4698
▁ተግባራት	-4699
ፀባር	-4700
▁ኮሪያ	-4701
▁የዊ	-4702
▁ግንባር	-4703
▁አስተሳሰብ	-4704
ግዚቢ	-4705
▁ለመወሰን	-4706
▁ፈር	-4707
▁ወቅታዊ	-4708
70	-4709
▁ማረጋገጫ	-4710
▁አሮጌ	-4711
▁ቁሳቁስ	-4712
አስ	-4713
▁በመሰረ	-4714
▁ቫን	-4715
▁ይሰጣሉ	-4716
▁ያመለክታል	-4717
▁ይላል	-4718
ሴን	-4719
ዚል	-4720
ቃታማ	-4721
▁ስብስቦች	-4722
▁ክላሲ	-4723
ዶር	-4724
▁በአይ	-4725
▁በጠቅላላው	-4726
▁ደመ	-4727
ዜሽን	-4728
▁ፓርላማ	-4729
ኩት	-4730
ከሩ	-4731
ትራ	-4732
ግባባት	-4733
▁በፒ	-4734
▁ፕሬስ	-4735
ህና	-4736
▁የፋይናንስ	-4737
ኖይ	-4738
ቻለው	-4739
▁ሊን	-4740
ሷል።	-4741
ቲስቲክስ	-4742
ክሪፕ	-4743
▁ክሊኒካዊ	-4744
▁ክንፍ	-4745
ሽታ	-4746
▁የደረ	-4747
▁ለወ	-4748
ፋስ	-4749
▁በማስተ	-4750
▁በተደረገው	-4751
,3	-4752
ሊዛ	-4753
ቅያ	-4754
▁ጥራ	-4755
▁ከቅርብ	-4756
▁v	-4757
▁የተጠቀ	-4758
ot	-4759
▁ታየ	-4760
ጠራቀሚያ	-4761
▁ተጨባጭ	-4762
ባች	-4763
ገመት	-4764
▁መዘ	-4765
ስቡ	-4766
▁ሚያዝ	-4767
▁መንስ	-4768
▁ለብዙ	-4769
▁ሚያዝያ	-4770
▁ብራውን	-4771
▁ለመመርመር	-4772
▁መልስ	-4773
▁ሱፐር	-4774
ያኔ	-4775
▁የፍርድ	-4776
▁እያንዳንዳቸው	-4777
ቆት	-4778
ጡን	-4779
▁ካለ	-4780
▁ቅፅ	-4781
ሊድ	-4782
▁የእነዚህ	-4783
▁ብዙዎቹ	-4784
▁ንጉሰ	-4785
▁እንደገለፁት	-4786
ጋር	-4787
▁እንዳላቸው	-4788
ዝቃ	-4789
▁መፅሀፍት	-4790
ይቶች	-4791
▁1997	-4792
ዌስት	-4793
ካተቱ	-4794
ቲንግ	-4795
ክሬን	-4796
▁በውጭ	-4797
መሰል	-4798
ጠናቀቁ	-4799
▁አይደለም።	-4800
▁በፕሮ	-4801
▁ቁርጥ	-4802
25	-4803
▁ባላቸው	-4804
ኮር	-4805
▁እንደምት	-4806
መተ	-4807
▁ያተኮረ	-4808
▁ወረርሽኝ	-4809
▁ያልተለመደ	-4810
▁ታላቁ	-4811
▁ታይቷል	-4812
ጮችን	-4813
▁ለመተ	-4814
▁የተሰጠ	-4815
ቀመጥ	-4816
ገልገ	-4817
ይተዋል	-4818
በታተን	-4819
▁የሬዲዮ	-4820
ጋገብ	-4821
▁የወደፊት	-4822
▁ዌስት	-4823
▁ለመደገፍ	-4824
▁በመያዝ	-4825
▁የክብር	-4826
▁ቤተመቅደ	-4827
▁የነበረውን	-4828
▁ፍንዳ	-4829
▁መንስኤ	-4830
ፏል።	-4831
ኖን	-4832
ረኞች	-4833
▁እርሻ	-4834
▁ጥፋ	-4835
ረመ	-4836
▁አስደሳች	-4837
▁1950	-4838
▁ጉድጓ	-4839
▁በሱ	-4840
▁ግጭ	-4841
ካከለኛ	-4842
▁ተገኝተዋል	-4843
ህፈት	-4844
▁ጊዜያት	-4845
▁የሚገኙት	-4846
▁ቀዶ	-4847
▁ይጠበ	-4848
▁ይሰራል	-4849
ፋፋት	-4850
▁የተጠበቀ	-4851
,6	-4852
ከፋፈ	-4853
▁በሆኑ	-4854
▁ሰንሰ	-4855
▁በውስ	-4856
▁ተለውጧል	-4857
▁J	-4858
ቾችን	-4859
▁ልብስ	-4860
▁የፓርላማ	-4861
ህአዴግ	-4862
▁ይቀን	-4863
▁ስህተት	-4864
ቪች	-4865
ገዱ	-4866
▁ለመቆጣጠር	-4867
ንደኛው	-4868
▁ይግባ	-4869
ችሉም	-4870
▁የተነ	-4871
90	-4872
ጓሜ	-4873
▁ጠቀሜታ	-4874
▁ከሆኑት	-4875
▁ተሰይሟል	-4876
▁አግኝተዋል	-4877
ሌክ	-4878
ሞክራሲያዊ	-4879
▁የተወለደው	-4880
▁መዋቅሮች	-4881
ated	-4882
▁የተቀረ	-4883
▁ለስላሳ	-4884
▁ነበረበት	-4885
and	-4886
ስፊክ	-4887
ሩክ	-4888
ናልድ	-4889
ግበ	-4890
▁ሰማያዊ	-4891
▁ተቃራኒ	-4892
,4	-4893
,7	-4894
ሞክራቲክ	-4895
ሬታ	-4896
▁ሚስት	-4897
▁ሀይለኛ	-4898
ባህሪያት	-4899
ገውን	-4900
▁የመስመር	-4901
ክተሮች	-4902
ጠይ	-4903
▁ማጠራቀሚያ	-4904
▁ያሳድ	-4905
▁በፔ	-4906
▁የጄ	-4907
በሳ	-4908
▁ተራራ	-4909
ጭበር	-4910
ዮር	-4911
▁ተስተካክ	-4912
▁በአከባቢው	-4913
ድሮ	-4914
▁ተመራማሪዎች	-4915
▁ኤሌክትሮ	-4916
▁እንደሚያስ	-4917
ታወቅ	-4918
▁እንደሚያመለክቱት	-4919
▁ማንኛውንም	-4920
▁የምስራቅ	-4921
▁ተቀም	-4922
▁ብሄር	-4923
▁በምትኩ	-4924
▁ማይል	-4925
▁እርግጠኛ	-4926
▁የጎን	-4927
▁ተደርገዋል	-4928
▁ትእይንት	-4929
ረቅ	-4930
መንድ	-4931
▁የግድ	-4932
▁ኮርፖሬሽን	-4933
▁የሻ	-4934
ግባብ	-4935
▁ይቅር	-4936
▁ለመስራት	-4937
▁በተሰ	-4938
▁ስድ	-4939
▁የቶ	-4940
▁80	-4941
▁ለረጅም	-4942
▁የአገሬው	-4943
ድል	-4944
▁ለታ	-4945
▁አውሮፕላኖች	-4946
▁ማስታወሻዎች	-4947
ስተዋ	-4948
▁ተቃዋሚ	-4949
▁ትርጓሜ	-4950
▁የተደረገው	-4951
▁በአገሪቱ	-4952
ክሳይድ	-4953
▁አቋቋመ	-4954
▁ዴል	-4955
▁ከፍታ	-4956
▁በበኩ	-4957
▁በቱ	-4958
▁ኖር	-4959
ቀለኛ	-4960
▁ቁሳቁሶች	-4961
▁ካሳ	-4962
▁የውሂብ	-4963
ረዱ	-4964
▁ወይ	-4965
ኬሽን	-4966
▁የኔ	-4967
ዷል።	-4968
▁ማጣሪያ	-4969
▁ቦይ	-4970
▁የአእምሮ	-4971
▁ታይምስ	-4972
▁ምድብ	-4973
▁ክትትል	-4974
▁የጣሊያን	-4975
ውሮፕላን	-4976
▁ሲሄድ	-4977
▁ሰሜናዊ	-4978
▁1992	-4979
▁አመራ	-4980
▁መቆ	-4981
ጥም	-4982
▁የብሄራዊ	-4983
▁--	-4984
▁ማይክል	-4985
▁የሞት	-4986
ስፋፋ	-4987
ልቀቅ	-4988
▁ይጫወ	-4989
▁እገ	-4990
▁በሁለቱ	-4991
▁ሌላኛው	-4992
▁አካሂ	-4993
የሙ	-4994
▁የቁጥጥር	-4995
ግብር	-4996
op	-4997
ንነት	-4998
os	-4999
ቀቀ	-5000
▁ጂኦ	-5001
▁አመልክ	-5002
▁ተከታታ	-5003
ዋሪ	-5004
▁በፋ	-5005
ማቸውን	-5006
ሮዎች	-5007
▁ቅርብ	-5008
ራኒው	-5009
▁በዱ	-5010
▁የዳሰሳ	-5011
▁አንድነት	-5012
▁ቅዳሜ	-5013
ፖሊስ	-5014
▁ቀርቧል	-5015
▁ደሴቶች	-5016
▁በኔ	-5017
ation	-5018
ሰቃ	-5019
▁አለመሆኑ	-5020
▁ቢሆኑም	-5021
ፓርት	-5022
▁የዱር	-5023
▁መስራች	-5024
▁ህት	-5025
▁አስተናጋ	-5026
ስተካከል	-5027
▁1995	-5028
ልስፍና	-5029
▁(201	-5030
▁በካናዳ	-5031
▁ቅርንጫፍ	-5032
▁ሚዛን	-5033
▁ለመርዳት	-5034
▁ከፓ	-5035
▁ሻምፒዮን	-5036
ከናወነው	-5037
ግት	-5038
ገሩ	-5039
ምፒተር	-5040
መነ	-5041
▁ያገኘ	-5042
▁ካሮላይና	-5043
▁ተፎካካ	-5044
▁ደቡባዊ	-5045
▁የእንጨት	-5046
▁የሚከተሉትን	-5047
▁ምእራባዊ	-5048
▁ሰርቷል	-5049
▁አጠ	-5050
ወደፊቱ	-5051
ቺካጎ	-5052
▁ውጥረት	-5053
▁f	-5054
▁ጎሳ	-5055
▁ስርጭ	-5056
▁የለውም	-5057
ሞከር	-5058
▁1994	-5059
ግዚአብሄር	-5060
▁የእንግሊዝኛ	-5061
▁የተሞላ	-5062
ኩን	-5063
▁አወቃቀር	-5064
▁የእው	-5065
▁ለመግለፅ	-5066
▁እድገ	-5067
▁ትክክለኛነት	-5068
▁ፈጠራ	-5069
▁የሚፈ	-5070
▁185	-5071
▁ሂል	-5072
▁የሀይማኖት	-5073
▁ካም	-5074
▁ማእቀፍ	-5075
▁ማርክ	-5076
▁የአሳ	-5077
▁ማሽ	-5078
▁በአንፃራዊነት	-5079
▁የግንባታ	-5080
▁የተጋ	-5081
▁በፎ	-5082
ደባባይ	-5083
▁ባልተ	-5084
ፍትዌር	-5085
ሀንስ	-5086
▁ባሻገር	-5087
▁በበር	-5088
ፕሎማ	-5089
▁ቴሌቪዥን	-5090
▁ኡደት	-5091
ለያየ	-5092
▁የሰላም	-5093
▁ቤተመንግስት	-5094
▁የሳን	-5095
▁በዙ	-5096
▁በትንሽ	-5097
▁ለመገምገም	-5098
,8	-5099
ስትሪያ	-5100
▁በቀስ	-5101
▁ማስታወሻ	-5102
▁አይሁዳ	-5103
▁35	-5104
▁ለነ	-5105
▁ማቀነባበሪያ	-5106
ክፈል	-5107
-3	-5108
▁ለሁለት	-5109
▁የተገደ	-5110
▁ከጥቂት	-5111
ጠቃለያ	-5112
▁በካር	-5113
▁ምደባ	-5114
▁ቅሪ	-5115
▁ተፋ	-5116
ሀል	-5117
አሁን	-5118
▁h	-5119
▁ፎቅ	-5120
ረቃ	-5121
▁ማስታወቂያ	-5122
ራንስፖርት	-5123
▁ፍፁም	-5124
▁አስች	-5125
▁ተገድ	-5126
ዘተ	-5127
▁ምግባር	-5128
▁የሚሰራ	-5129
▁ቀዳዳ	-5130
ሚካል	-5131
▁ካሊፎርኒያ	-5132
▁ሄር	-5133
▁በዳ	-5134
esc	-5135
▁ሬዲዮ	-5136
▁ስን	-5137
▁የቅድመ	-5138
▁ሰዶ	-5139
▁ተች	-5140
▁70	-5141
▁በየካቲት	-5142
▁እንደነበረ	-5143
,2	-5144
▁ከንቲባ	-5145
▁ካናዳ	-5146
▁ለማሳየት	-5147
▁ምርጫዎች	-5148
▁የተያዙ	-5149
ሞክር	-5150
▁ፍራንክ	-5151
▁ከቡ	-5152
ሀሳ	-5153
▁ጠበቃ	-5154
ድም	-5155
▁ትግ	-5156
▁ወደብ	-5157
▁ክለቦች	-5158
▁በጃፓን	-5159
ቀዋል።	-5160
▁መና	-5161
▁መገኘ	-5162
▁ነኝ	-5163
▁በየአመቱ	-5164
▁በቲ	-5165
▁በተወሰነ	-5166
▁ሀብቶች	-5167
▁ለሁሉም	-5168
▁መለኪያ	-5169
ዛዥ	-5170
ንዲህ	-5171
ጄሪያ	-5172
▁የሚወ	-5173
▁ፈለ	-5174
▁የቦታ	-5175
▁እንደሚያሳዩት	-5176
▁ማህበረሰቦች	-5177
▁የደረሰ	-5178
▁በመሆናቸው	-5179
ፃፈው	-5180
▁ፓራ	-5181
ፕን	-5182
▁በሎ	-5183
▁ከሶ	-5184
▁ፅሁፎች	-5185
ታዩ	-5186
▁ትብብር	-5187
▁ብሄ	-5188
▁ራስን	-5189
▁ሰራተኛ	-5190
ሙያ	-5191
መልስ	-5192
▁አንስ	-5193
▁የመግ	-5194
ቂያዎች	-5195
▁በክልሉ	-5196
▁ገደብ	-5197
▁ጭንቀት	-5198
ማግ	-5199
▁ሳጥ	-5200
ላቸዋል	-5201
ውንት	-5202
▁አስቆጥሯል	-5203
ሮሞ	-5204
▁ሊያስከት	-5205
ፈን	-5206
ሮሚያ	-5207
ሸር	-5208
▁በቴክ	-5209
▁ወገኖች	-5210
▁ቤቶችን	-5211
▁ህጎች	-5212
▁ለመያዝ	-5213
▁ተሾመ	-5214
ቁረጥ	-5215
▁ጳጳስ	-5216
ብረተሰቡ	-5217
▁ካርታ	-5218
▁ሞቃታማ	-5219
▁እውነታ	-5220
▁of	-5221
▁እርምጃዎች	-5222
▁አሊ	-5223
▁አቅርበዋል	-5224
art	-5225
▁ማብራ	-5226
ow	-5227
▁ሀይቅ	-5228
▁ዜማ	-5229
▁ያው	-5230
ለትም	-5231
ርትራ	-5232
▁ከጉ	-5233
▁የተለመደ	-5234
ፅፅ	-5235
ለኪው	-5236
▁አስተማማ	-5237
ዲንግ	-5238
ነታቸውን	-5239
ፍረት	-5240
▁ወዘተ	-5241
▁የተመረ	-5242
▁አንዳንዶቹ	-5243
ቢዎች	-5244
ዘገቡ	-5245
▁በጄ	-5246
ፈፀመ	-5247
▁ቆሻሻ	-5248
▁የሚለ	-5249
ዳዩ	-5250
ሟላት	-5251
▁ጭነት	-5252
▁የተያዘ	-5253
▁አከባቢ	-5254
▁የወጣ	-5255
")	-5256
ጠናከር	-5257
▁ማእድን	-5258
▁እብ	-5259
▁አህመድ	-5260
▁ለክ	-5261
▁ቦታዎችን	-5262
▁ጥገኛ	-5263
ጠኞች	-5264
▁ላለ	-5265
▁የመጣው	-5266
ጥል	-5267
የተወለደው	-5268
▁ባሉት	-5269
▁በቅርብ	-5270
▁ትእይን	-5271
▁ብረት	-5272
ናው	-5273
▁ማየት	-5274
▁ምስሎች	-5275
ከርድ	-5276
▁መስተጋብር	-5277
ፕሬዚ	-5278
▁እራሱን	-5279
▁አሌክ	-5280
▁መድሀኒት	-5281
ዊት	-5282
▁አርቲስት	-5283
▁የተደገ	-5284
ስካ	-5285
rib	-5286
▁ችሏል	-5287
▁ጀርባ	-5288
ተንተን	-5289
▁ተነ	-5290
▁ይላሉ	-5291
ፅንኦት	-5292
▁አቋር	-5293
▁ወገን	-5294
▁ስለነ	-5295
▁ዋሽንግተን	-5296
▁አንቀ	-5297
ዳሴ	-5298
▁1991	-5299
▁ፍር	-5300
▁አገል	-5301
▁ይገባ	-5302
▁በአዲሱ	-5303
▁ስእሎች	-5304
▁ዲዛይ	-5305
▁ተወካይ	-5306
ሆነው	-5307
ዝቃዛ	-5308
▁ካንሰር	-5309
ዳሚክ	-5310
▁(199	-5311
▁ሜካ	-5312
▁ቆይቷል	-5313
ሚት	-5314
▁የአመ	-5315
▁በተቃራኒው	-5316
▁ሆኑ	-5317
▁በጃ	-5318
ዎን	-5319
ራለች	-5320
▁ማርቲን	-5321
▁ሰለ	-5322
ንቀሳቀስ	-5323
ቀነሰ	-5324
▁ይጠቀማል	-5325
ፈልገው	-5326
ውንዴ	-5327
▁ማውጫ	-5328
▁1993	-5329
ቃዊ	-5330
▁ሴራ	-5331
ሰራጭ	-5332
▁ለግ	-5333
ag	-5334
▁ብለን	-5335
ይለር	-5336
▁የተነሳ	-5337
▁አቀረበ	-5338
▁ቀጠ	-5339
ከናወነ	-5340
ድሀኒት	-5341
▁የመስክ	-5342
▁መመለስ	-5343
ማርክ	-5344
▁አይችልም	-5345
▁ድምፆች	-5346
ከተል	-5347
ጋኒ	-5348
▁ግሪን	-5349
ቀጥል	-5350
ቿን	-5351
▁ድርብ	-5352
▁ሜታ	-5353
ቷቸዋል	-5354
▁ትራክ	-5355
▁በጊዜ	-5356
ኪንግ	-5357
▁አስተዋው	-5358
▁ጨምሯል	-5359
▁ብሬ	-5360
▁ኮሚሽ	-5361
▁ገለፃ	-5362
▁በሳን	-5363
ፒንስ	-5364
ለምሳሌ	-5365
▁እያለ	-5366
ካሄዱ	-5367
▁ታውን	-5368
ወጣው	-5369
ሴል	-5370
▁ሰባ	-5371
▁ተከላካይ	-5372
▁ለማም	-5373
▁በዝቅተኛ	-5374
▁መርሀግብር	-5375
▁የተደራ	-5376
▁ትንበያ	-5377
▁መዛ	-5378
▁አምባሳ	-5379
ጨና	-5380
▁ከሲ	-5381
▁የመነ	-5382
▁አስተማሪ	-5383
▁እንቅ	-5384
▁እንኳ	-5385
▁በሀይ	-5386
▁በጀት	-5387
▁የነበሩት	-5388
ጀምር	-5389
▁መንግስታዊ	-5390
▁አንደ	-5391
▁ከሚገኙት	-5392
▁ይይዛሉ	-5393
▁የወሰ	-5394
▁ህዝባዊ	-5395
▁የጭነት	-5396
ፃህ	-5397
▁አቅራቢ	-5398
ሪቱን	-5399
ሙስ	-5400
▁ገባ	-5401
▁የአገር	-5402
▁ልምዶች	-5403
ካኤል	-5404
▁በህግ	-5405
▁ሩብ	-5406
▁ቦር	-5407
ፆችን	-5408
▁ገልጿል።	-5409
▁ዲሲ	-5410
ሪዝም	-5411
▁ጋዜጠኛ	-5412
ታኢ	-5413
▁ስቶ	-5414
▁አማካይነት	-5415
ጓጓ	-5416
▁ታሪኮች	-5417
ፋለች	-5418
ክቶሪያ	-5419
የሱ	-5420
▁ከሳ	-5421
ራቾች	-5422
▁በተሳካ	-5423
ip	-5424
ቢያን	-5425
ዳዳሪዎች	-5426
▁ጃን	-5427
ter	-5428
▁("	-5429
ይዙ	-5430
ያያዙ	-5431
▁ልደት	-5432
▁በሸ	-5433
▁የሉ	-5434
ደሮች	-5435
▁በአም	-5436
▁ገብነት	-5437
ንድስና	-5438
▁ግቦች	-5439
▁አሀዶች	-5440
ባይል	-5441
▁ፅህፈት	-5442
▁አሳይተዋል	-5443
▁የፓርቲ	-5444
ጣጌ	-5445
ፅዋት	-5446
▁ማሪ	-5447
▁ሆኪ	-5448
ባለው	-5449
ፋፋ	-5450
ለቱም	-5451
▁የተገነባ	-5452
ሚንግ	-5453
▁ማቆሚያ	-5454
▁አቻ	-5455
▁ሬይ	-5456
▁ከእሱ	-5457
▁መቆጣጠሪያ	-5458
▁ቅጂ	-5459
▁የተጎ	-5460
▁በግራ	-5461
▁የተቀመጡ	-5462
ወሩ	-5463
▁መገለጫ	-5464
▁በቻ	-5465
ስጥ	-5466
▁አፅንኦት	-5467
ልቬንያ	-5468
ስታወስ	-5469
▁ኤድዋርድ	-5470
▁ለጥ	-5471
ማንኛውም	-5472
,0	-5473
▁ስታዲየም	-5474
▁ለምር	-5475
▁በጂ	-5476
ሚየር	-5477
ay	-5478
▁ማስወ	-5479
▁ልቦና	-5480
ስራቃዊ	-5481
▁የመተ	-5482
▁የቴክኖሎጂ	-5483
▁90	-5484
▁መምህራን	-5485
▁..	-5486
▁ለሰ	-5487
▁...	-5488
ጠበቁ	-5489
▁ቫይረስ	-5490
ማሪያ	-5491
▁ኤግዚቢ	-5492
ገሉ	-5493
▁ከጦር	-5494
▁ድርሻ	-5495
▁ቢል	-5496
▁ሽግግር	-5497
▁የአም	-5498
▁የጀርባ	-5499
▁አቅርቦ	-5500
▁በፌ	-5501
▁ትርኢቶች	-5502
▁እንዲሰ	-5503
ከፋፈል	-5504
▁ያንን	-5505
▁ቢኖሩ	-5506
ረንስ	-5507
▁አዲ	-5508
▁ዝግጁ	-5509
▁ተዋናዮች	-5510
ያና	-5511
ጣፋ	-5512
ec	-5513
ተቶች	-5514
ካቾች	-5515
በታል።	-5516
▁ለመውሰድ	-5517
ቫይረስ	-5518
▁ካምፕ	-5519
ከስ	-5520
▁የፍቅር	-5521
▁በመውሰድ	-5522
ቪዬት	-5523
ዋሀድ	-5524
▁ውል	-5525
▁ግቦችን	-5526
▁የሚያደርጉ	-5527
▁መረጃን	-5528
▁በፖለቲካ	-5529
▁ጋዝ	-5530
▁መፍጠር	-5531
▁ጥቃቶች	-5532
▁con	-5533
ጄኔቲክ	-5534
▁በዶ	-5535
▁የፀሀይ	-5536
▁Y	-5537
ዋወጥ	-5538
ቨስትመንት	-5539
ወለደ	-5540
em	-5541
▁በማንኛውም	-5542
▁የአከባቢ	-5543
▁አዋጅ	-5544
▁ተላል	-5545
▁ፍለጋ	-5546
▁የኖ	-5547
▁ሰከ	-5548
▁ይችላሉ።	-5549
▁500	-5550
▁ገፅታዎች	-5551
▁ግለሰብ	-5552
▁ተጓዘ	-5553
ቲሽ	-5554
▁አጠቃቀ	-5555
▁ተመራማሪ	-5556
▁አካባቢያዊ	-5557
ርጅ	-5558
ሳል።	-5559
▁ሰንጠረ	-5560
▁desc	-5561
▁በመሬት	-5562
ጫወተ	-5563
▁ተረጋግጧል	-5564
▁ይጨምራል	-5565
▁የልብ	-5566
▁ሽንፈት	-5567
▁የድህረ	-5568
▁አልነበሩ	-5569
▁describ	-5570
▁በሉ	-5571
ቅያኖስ	-5572
ኩልቲ	-5573
ሺፕ	-5574
▁በካሊፎርኒያ	-5575
▁አድርጓል።	-5576
▁ዋስትና	-5577
▁ሪከርድ	-5578
▁የማእድን	-5579
▁ሙስሊ	-5580
▁ለማሳደግ	-5581
▁መንቀጥ	-5582
ማቲክ	-5583
ለበት	-5584
▁ቀበ	-5585
ገራሚ	-5586
▁ተፈራ	-5587
▁ለፍ	-5588
▁ከዩ	-5589
▁ቢኖርም	-5590
▁ይኖ	-5591
▁ፕሮጀክቶች	-5592
▁የቡድኑ	-5593
▁ኢትዮጵያዊ	-5594
▁በእጅጉ	-5595
▁described	-5596
ሊዝም	-5597
▁ምስጢ	-5598
▁አንድን	-5599
በሉ	-5600
ለህ	-5601
▁ለማን	-5602
▁ማንነት	-5603
▁እሴቶች	-5604
▁ተገደ	-5605
▁እጥፍ	-5606
▁ተመድ	-5607
▁በአፍሪካ	-5608
ገባው	-5609
ቪየት	-5610
ዚላንድ	-5611
ገዋል።	-5612
▁ለመረዳት	-5613
ውዝ	-5614
ትዮጵያን	-5615
▁በሁለተኛ	-5616
▁የሚያሳይ	-5617
ጊት	-5618
ዘርላንድስ	-5619
▁በግል	-5620
ላይት	-5621
ከበር	-5622
▁በተና	-5623
▁በአስ	-5624
▁መዳረሻ	-5625
▁ስፖ	-5626
▁የሚቻል	-5627
▁እኩልነት	-5628
▁መከላከል	-5629
ዳንቱ	-5630
ሚኒስት	-5631
▁የሲቪል	-5632
▁ጥምር	-5633
▁እንደነበሩ	-5634
▁እሳት	-5635
▁ይጠራ	-5636
▁ፋውንዴ	-5637
▁ወኪል	-5638
,9	-5639
ቲካል	-5640
▁ሀይማኖታዊ	-5641
ገነባ	-5642
▁በሶስተኛው	-5643
▁ንፁህ	-5644
ትናም	-5645
▁ጥቃቅን	-5646
▁ክፍሎችን	-5647
▁መሀን	-5648
▁ታዳጊ	-5649
ወስድ	-5650
ጆቹ	-5651
▁ቀውስ	-5652
▁አሳድ	-5653
ላላ	-5654
ንሲልቬንያ	-5655
ጌል	-5656
▁ለህዝብ	-5657
ቤን	-5658
▁ልጁ	-5659
ቴት	-5660
ዥም	-5661
▁ህዋ	-5662
ልጠና	-5663
ደርገው	-5664
▁".	-5665
▁በእንዲህ	-5666
▁በሺ	-5667
ይተው	-5668
▁በራሱ	-5669
▁ተሳታፊዎች	-5670
▁የተካሄደው	-5671
▁ማጠቃለያ	-5672
ንግል	-5673
▁አለቃ	-5674
ድኒ	-5675
▁እነሱም	-5676
▁ይሰራ	-5677
ፈርት	-5678
▁በስነ	-5679
ደንዛዥ	-5680
▁ጥግግት	-5681
ዚክስ	-5682
▁የግራ	-5683
▁ሙዚቀ	-5684
▁ባንዲ	-5685
▁ሚዛ	-5686
▁እሴት	-5687
▁1940	-5688
▁መስኮች	-5689
▁ተግዳ	-5690
ናገድ	-5691
▁ሰብአዊ	-5692
▁ወረዳዎች	-5693
▁ፈጣሪ	-5694
▁32	-5695
ገባኛል	-5696
▁ፖለቲከኞች	-5697
ህነት	-5698
▁ፕሮቶ	-5699
▁አርታኢ	-5700
▁ቤዝቦል	-5701
▁የአዲስ	-5702
ለቀቀ	-5703
ንደር	-5704
▁የተወ	-5705
▁ሚሜ	-5706
▁የተተ	-5707
ir	-5708
▁ጆንስ	-5709
▁ሮክ	-5710
ሀዮ	-5711
▁ለወደፊቱ	-5712
▁ዘጋቢ	-5713
▁ክለቡ	-5714
ብሮች	-5715
▁በማእከላዊ	-5716
▁የገበያ	-5717
ቆል	-5718
▁ባታ	-5719
ስትሪክት	-5720
ታደራዊ	-5721
▁መሀመድ	-5722
▁የኮር	-5723
▁ማከማቻ	-5724
▁የሌላቸው	-5725
▁አስረድ	-5726
▁አስገራሚ	-5727
▁ጥብቅ	-5728
▁ራስ	-5729
▁በጨዋታው	-5730
im	-5731
▁184	-5732
▁መቋቋም	-5733
▁ተጠቃሚዎች	-5734
▁ሆል	-5735
▁ለሙ	-5736
▁አጥብ	-5737
▁በመቃወም	-5738
▁In	-5739
▁የች	-5740
▁ከዋ	-5741
▁ችላ	-5742
ችበት	-5743
▁1989	-5744
▁ሁኔታዎችን	-5745
ዝን	-5746
ውውር	-5747
▁ሰልፍ	-5748
▁ጭማሪ	-5749
ልቦና	-5750
▁መንግስቱ	-5751
▁ቤል	-5752
-18	-5753
ቶሎጂ	-5754
ሺጋን	-5755
ስታው	-5756
ከሉ	-5757
ጠቃል	-5758
▁የኒ	-5759
ንድፈ	-5760
▁የመኪና	-5761
▁ጣቢያው	-5762
ሳንደር	-5763
▁ተወላጆች	-5764
▁ስፒ	-5765
▁እንደዚህ	-5766
▁ግጥም	-5767
▁የኮን	-5768
▁በጥብቅ	-5769
ቀና	-5770
▁ዳኞች	-5771
▁ከቤት	-5772
ሲስኮ	-5773
ሚል	-5774
ናይ	-5775
▁በድጋሚ	-5776
ሳቱ	-5777
▁ተሽከርካሪ	-5778
▁ዘዴዎችን	-5779
▁የመም	-5780
▁ቤቱን	-5781
ውያንን	-5782
መቶች	-5783
▁ቅዱስን	-5784
ለሰብ	-5785
▁የጅምላ	-5786
▁አቀራረ	-5787
ዋሚዎች	-5788
ቀንስ	-5789
ጠንቀቂያ	-5790
▁ሆቴል	-5791
▁የሚሰ	-5792
▁•	-5793
▁ባለቤቶች	-5794
ባቂዎች	-5795
▁የአሰራር	-5796
▁በሽታዎች	-5797
▁ክፍተት	-5798
ዘገበው	-5799
▁በኤፕሪል	-5800
ጫዋ	-5801
▁ታካሚ	-5802
▁1988	-5803
▁ትችት	-5804
▁አስቀ	-5805
ሟል።	-5806
ናኛ	-5807
ፋሪ	-5808
▁በውሀ	-5809
▁1930	-5810
ያተ	-5811
▁ዲጂታል	-5812
▁ከዚያን	-5813
▁የተነደ	-5814
▁ተሽከርካሪዎች	-5815
▁ትርፍ	-5816
▁ፍላጎቶች	-5817
ባሪዎች	-5818
▁አውድ	-5819
▁ማሰ	-5820
▁ተለዋዋጭነት	-5821
▁አንቶኒ	-5822
ድገት	-5823
ደራል	-5824
ጠጥ	-5825
▁ከተለያዩ	-5826
▁n	-5827
ia	-5828
▁ሆነዋል	-5829
ቦራቶሪ	-5830
▁የይገባኛል	-5831
▁የሚሆኑ	-5832
▁ጎጆ	-5833
▁ለኮ	-5834
▁ተጀምሯል	-5835
▁አለመሆኑን	-5836
ከታ	-5837
▁ኮከ	-5838
▁ጆንሰን	-5839
ቀየር	-5840
▁በስፋት	-5841
አል	-5842
▁ሀሪ	-5843
▁ልኡል	-5844
ኗል።	-5845
▁እየሰራ	-5846
▁አጠገብ	-5847
▁ለመመለስ	-5848
ንቀሳቀሱ	-5849
▁ኮድ	-5850
▁ከተማዋ	-5851
ሜትር	-5852
▁ግሎ	-5853
▁ነጥቦችን	-5854
▁የእርስ	-5855
▁ናሙናዎች	-5856
▁እሷም	-5857
▁ለኢ	-5858
▁ይከተ	-5859
ቸስተር	-5860
ዋናው	-5861
ቡስ	-5862
▁ፖር	-5863
▁በዘመናዊ	-5864
▁ኤፒ	-5865
▁የእርሱ	-5866
ከባ	-5867
▁ድብደባ	-5868
▁አምላክ	-5869
ተስ	-5870
▁ከጎ	-5871
▁ቅርስ	-5872
▁ተደም	-5873
▁ፎቶግራፍ	-5874
▁የስፔን	-5875
▁ፍንዳታ	-5876
▁ኮንግረስ	-5877
▁ለማሳካት	-5878
▁ቴሌ	-5879
▁መሪነት	-5880
▁ሳይንሳዊ	-5881
ናገሩ	-5882
ደደ	-5883
▁ሴና	-5884
▁የአየርላንድ	-5885
▁ገም	-5886
▁ቆጠራ	-5887
ins	-5888
▁አርክ	-5889
▁በባህ	-5890
▁የበረራ	-5891
ናሽናል	-5892
ከናው	-5893
▁አናት	-5894
▁ተደጋጋሚ	-5895
መንግስት	-5896
▁በዝግ	-5897
▁ግኝቶች	-5898
▁ከክርስቶስ	-5899
▁ሬጅመንት	-5900
ልክት	-5901
▁–	-5902
▁ለማሸነፍ	-5903
▁ለኦ	-5904
▁የመገናኛ	-5905
▁ጥናቱ	-5906
▁ማውጣት	-5907
▁ትረ	-5908
ፖች	-5909
▁ቤተሰ	-5910
▁መስመራዊ	-5911
▁በእውነተኛ	-5912
እም	-5913
ደይ	-5914
▁አምራች	-5915
▁ደጋፊዎች	-5916
ሜል	-5917
▁የቼ	-5918
▁የወሲብ	-5919
▁በተፈጥሮ	-5920
▁ከሙ	-5921
▁መስቀል	-5922
ለፈ	-5923
ዱል	-5924
▁ንብርብር	-5925
ቢኔ	-5926
▁በሚቀጥለው	-5927
▁ዘዴን	-5928
▁ተበ	-5929
▁ጋብቻ	-5930
▁በንግድ	-5931
መስል	-5932
ሀበራዊ	-5933
▁የሮማ	-5934
ገስ	-5935
▁ሚስቱ	-5936
▁መውሰድ	-5937
ቶቻቸውን	-5938
በዋል።	-5939
ደርጋ	-5940
ቶቻቸው	-5941
▁ፍራንሲስኮ	-5942
ምንቱ	-5943
መዋል።	-5944
▁በአማካይ	-5945
ላችን	-5946
▁አዘጋጅቷል	-5947
ረፍ	-5948
21	-5949
▁የሚያስተ	-5950
ዘጋጀው	-5951
▁ታስ	-5952
ተገባ	-5953
▁የእንስሳት	-5954
▁መገናኛ	-5955
▁ረዘም	-5956
▁ስፔክት	-5957
▁የመቃብር	-5958
▁ሌላው	-5959
▁በስተደቡብ	-5960
▁ስላል	-5961
▁የአካባቢው	-5962
▁መልእክ	-5963
ቃለች	-5964
▁ካሬ	-5965
▁መስፈርት	-5966
ለቅለቅ	-5967
▁ጥፋት	-5968
ክራ	-5969
በዚህ	-5970
▁ያለፈ	-5971
▁ህል	-5972
ናል።	-5973
▁ዲስትሪክት	-5974
▁አሰልጣኞች	-5975
▁ለጋ	-5976
▁ማቅረብ	-5977
▁የፆታ	-5978
▁ነበሩት	-5979
ጩኸ	-5980
▁አስገድ	-5981
▁በአስተ	-5982
▁የተቋቋመው	-5983
ሴትስ	-5984
ናገረው	-5985
▁ሰነድ	-5986
▁ተተክቷል	-5987
▁የፅሁፍ	-5988
▁ባዮሎጂ	-5989
▁በመፍጠር	-5990
▁የተመሰረተው	-5991
▁ያረጋግ	-5992
ናትን	-5993
!.	-5994
▁የጠፈር	-5995
▁በመጥቀስ	-5996
▁አጥቂ	-5997
▁ዲያ	-5998
▁ይወሰዳል	-5999
ፊን	-6000
▁መገልገ	-6001
ሊሲ	-6002
▁የዜና	-6003
▁+	-6004
▁ይወክ	-6005
▁ተቀባ	-6006
▁ፎር	-6007
▁መተግበ	-6008
ታኝ	-6009
ምረዋል	-6010
ስብ	-6011
ሊንስ	-6012
ቆዩ	-6013
▁ሆነ።	-6014
▁አላማዎች	-6015
በሪ	-6016
▁መታሰቢያ	-6017
▁ኦሊ	-6018
▁ማእዘን	-6019
▁አብዮት	-6020
ልጋ	-6021
▁ያደረጉ	-6022
▁ዌልስ	-6023
▁ኤሌክትሪክ	-6024
ቋርጥ	-6025
▁ከን	-6026
▁ታን	-6027
መለከተው	-6028
ኪንስ	-6029
▁ወሰን	-6030
ቢት	-6031
ሴቲ	-6032
▁ተመጣጣ	-6033
▁ሙያ	-6034
ቹሴትስ	-6035
▁ክበብ	-6036
ሾችን	-6037
ዝገባ	-6038
▁ጥን	-6039
▁ሀውስ	-6040
ሚር	-6041
▁ጠዋት	-6042
▁መጫወት	-6043
ሾሙ	-6044
ቢው	-6045
▁ደንቦች	-6046
▁የአገልግሎት	-6047
▁ለቅ	-6048
ሀስ	-6049
▁ተፈጥሯዊ	-6050
ላዊነት	-6051
▁ምስራቃዊ	-6052
▁ፋውንዴሽን	-6053
ባንያው	-6054
▁የኋለኛው	-6055
▁የጨረ	-6056
▁ዝናብ	-6057
▁ጠርዝ	-6058
ሊካ	-6059
▁ተሟ	-6060
▁እስያ	-6061
ባስ	-6062
ያል።	-6063
▁45	-6064
ግሉ	-6065
▁ወንድም	-6066
▁ምላ	-6067
▁በረራ	-6068
▁ከል	-6069
▁ምትክ	-6070
▁ታህሳስ	-6071
▁ድርድር	-6072
ሊኖይ	-6073
▁መፃህ	-6074
ፃናት	-6075
ሎው	-6076
ብት	-6077
▁1920	-6078
▁ሆን	-6079
▁ቢኖሩም	-6080
▁ዘይት	-6081
▁ታክ	-6082
▁ማእከላት	-6083
▁የተገኘው	-6084
▁ያለመ	-6085
▁ወድ	-6086
▁ይመለከታል	-6087
▁መለየት	-6088
▁ተዛማጅ	-6089
▁ይቀንሳል	-6090
▁ቆይታ	-6091
▁የፍትህ	-6092
▁ያጠቃል	-6093
▁ሆነች	-6094
ሰራጨት	-6095
▁በአራ	-6096
ለፀ	-6097
ፋዊ	-6098
ሮክ	-6099
▁ተፅእኖዎች	-6100
▁ማፅ	-6101
-4	-6102
▁አድራጎት	-6103
▁የተሻ	-6104
ክርስቲያ	-6105
ናንት	-6106
ዞን	-6107
▁የተፈጠረ	-6108
▁ተዘጋጅቷል	-6109
▁ተሰብስ	-6110
▁እንዳሉት	-6111
▁አጋጣሚ	-6112
በሰ	-6113
ዝቡ	-6114
▁አርብ	-6115
▁ቡድኑን	-6116
▁መለወጥ	-6117
ዛኝ	-6118
▁ተቆጣጣሪ	-6119
ጀልባ	-6120
ኔዥያ	-6121
▁አብያተ	-6122
ንጋሪ	-6123
▁ፋኩልቲ	-6124
▁1987	-6125
▁ጀርሲ	-6126
▁ለቆ	-6127
▁አደጋዎች	-6128
ደሩ	-6129
ላቸውም	-6130
▁1986	-6131
ፔራ	-6132
ዶክስ	-6133
▁ተይዞ	-6134
ገተኛ	-6135
ዛወር	-6136
AC	-6137
▁የሀገር	-6138
▁የእስያ	-6139
▁የትራንስፖርት	-6140
▁ልማ	-6141
▁መልካም	-6142
▁ቅርፆች	-6143
▁የአስተዳደር	-6144
▁ለሌ	-6145
▁መረቦች	-6146
▁አንስቶ	-6147
▁ልጃገረ	-6148
▁ማጉ	-6149
ጋንዳ	-6150
▁የራሳቸውን	-6151
▁ከሴ	-6152
ጋጣሚ	-6153
▁አብሮ	-6154
▁ይጀምራል	-6155
▁ከቦ	-6156
▁በአት	-6157
▁ለሌሎች	-6158
▁መቅደ	-6159
▁እንደሚሆን	-6160
ዞር	-6161
ነቅ	-6162
▁ዘመኑ	-6163
ባረ	-6164
▁አንደኛው	-6165
▁ለካ	-6166
ድረክ	-6167
▁ቶም	-6168
▁የማህበረሰብ	-6169
oc	-6170
▁ሰራተኞችን	-6171
ላንቲክ	-6172
▁ቀጣዩ	-6173
▁እጣ	-6174
▁ሀም	-6175
▁ተጠናቀቀ	-6176
."	-6177
ኖርዌይ	-6178
▁ሴንቲ	-6179
▁በነበረው	-6180
▁በመግባት	-6181
ግሩ	-6182
▁አረጋግጧል	-6183
▁በሚገኙ	-6184
▁Q	-6185
▁መመርመር	-6186
▁የስልጣን	-6187
▁ማስወገጃ	-6188
▁ሳንቲ	-6189
▁ኒኮ	-6190
▁ግድብ	-6191
▁ከሰል	-6192
ቸዉ	-6193
▁የማጣ	-6194
ክልና	-6195
▁አትሌቶች	-6196
▁ማንም	-6197
ጋገር	-6198
▁በሳይ	-6199
▁ሳያ	-6200
ሪሽ	-6201
▁ሀያ	-6202
▁የተሳሳተ	-6203
▁የጌ	-6204
ርዝር	-6205
▁መስቀለኛ	-6206
▁ዩኤስ	-6207
▁ከፈ	-6208
ክቴ	-6209
▁1984	-6210
▁ምክንያታዊ	-6211
▁ባህረ	-6212
▁የመታ	-6213
▁ቄ	-6214
ቆመ	-6215
▁ይግባኝ	-6216
▁ማዳ	-6217
ራትን	-6218
▁ካት	-6219
ኬቶች	-6220
ዛይን	-6221
▁ቋንቋዎች	-6222
▁ተመጣጣኝ	-6223
▁በሚያስ	-6224
FL	-6225
▁ሰራሽ	-6226
▁ክሩ	-6227
▁ተወግ	-6228
ደረጃ	-6229
▁የጦርነት	-6230
▁b	-6231
ግነት	-6232
▁የዝግ	-6233
ለኝ	-6234
ዳዲስ	-6235
▁ሀውልት	-6236
▁አገሪቱ	-6237
▁ይቅርታ	-6238
ናቸውን	-6239
ጭን	-6240
▁ከሁሉም	-6241
ባቱ	-6242
▁ማሽን	-6243
▁ተንቀሳቃሽ	-6244
ጅን	-6245
▁የመድሀኒት	-6246
ሳትን	-6247
▁ምና	-6248
ንኮ	-6249
ዝናኛ	-6250
ou	-6251
▁በቦታው	-6252
ቀይ	-6253
▁ከሚገኘው	-6254
ጧል።	-6255
ንባ	-6256
▁ለውጦችን	-6257
▁የፀጥታ	-6258
▁እንግሊዛ	-6259
▁የሚመራው	-6260
ቶት	-6261
▁የዝ	-6262
▁ፈፅ	-6263
▁ግዴታ	-6264
▁የር	-6265
▁ፍትሀዊ	-6266
▁ለመመስረት	-6267
▁ልምድ	-6268
▁የልጅ	-6269
▁በመር	-6270
▁እንዳልሆነ	-6271
▁ውጪ	-6272
ፈፃፀም	-6273
▁እንዲሆኑ	-6274
ንማርክ	-6275
ጣሚዎች	-6276
▁ጎዳናዎች	-6277
▁የተገኙት	-6278
▁አይችሉም	-6279
▁አካሂዷል	-6280
75	-6281
▁ብቅ	-6282
▁ሜትሮ	-6283
▁በአምስት	-6284
▁የሚቻለው	-6285
▁ይጓ	-6286
ከው	-6287
▁ወደፊት	-6288
ምፒዩ	-6289
▁አንቀፅ	-6290
▁ግጥሚያዎች	-6291
▁ሚስጥ	-6292
35	-6293
▁ብሉ	-6294
▁በዘር	-6295
▁ትእዛ	-6296
ጎብ	-6297
▁መንቀጥቀጥ	-6298
AS	-6299
▁ሜጀር	-6300
▁በዚያን	-6301
▁ድራይ	-6302
▁ፐር	-6303
ሽከረ	-6304
ጓጓዣ	-6305
▁1985	-6306
▁ራይ	-6307
▁ማወ	-6308
ሸንፍ	-6309
▁አማራ	-6310
ቀዝቀ	-6311
▁በአገር	-6312
ራፍ	-6313
▁የተቀና	-6314
ከተለው	-6315
▁ባደረገው	-6316
▁ዊሊያምስ	-6317
▁መዝናኛ	-6318
▁የአፍ	-6319
▁ለገ	-6320
▁በገንዘብ	-6321
rote	-6322
ቸል	-6323
▁ህብረ	-6324
ክቸ	-6325
ጀልባው	-6326
▁የበጎ	-6327
ርሞ	-6328
ፕል	-6329
▁አልነበሩም	-6330
▁ግራንድ	-6331
▁እስራ	-6332
▁ያለበት	-6333
ቀዝቀዣ	-6334
▁ፈጥ	-6335
▁የሚሸ	-6336
▁የተቋቋመ	-6337
ደራጀት	-6338
▁በሩሲያ	-6339
ab	-6340
▁ሰንሰለት	-6341
▁የምርመራ	-6342
▁የመሳሰ	-6343
▁ማስተካከያ	-6344
▁ያስፈልጋል	-6345
▁ዱካ	-6346
▁ቶን	-6347
▁ከኒው	-6348
ፋቸው	-6349
▁እጩዎች	-6350
ነገር	-6351
▁ኢትዮጵያውያን	-6352
▁የእኛ	-6353
▁ኮል	-6354
▁ክፍሉ	-6355
ገራችን	-6356
ሜትሪክ	-6357
▁ደህንነቱ	-6358
ግስ	-6359
ሳሰል	-6360
ክሰን	-6361
▁ናይ	-6362
▁ስኮት	-6363
ዝሀ	-6364
ጊስ	-6365
▁ለማወቅ	-6366
▁ተወስዷል	-6367
▁በአጭር	-6368
▁መያዝ	-6369
▁ይፈጥራል	-6370
ራሉ።	-6371
▁ሞገድ	-6372
ሰኞ	-6373
▁የታተመ	-6374
ረቻ	-6375
የሁ	-6376
▁ከሮ	-6377
▁ይበ	-6378
▁በዛሬው	-6379
ለቶች	-6380
▁ደመወዝ	-6381
ፌር	-6382
ሸን	-6383
▁በሚገኝ	-6384
▁ነጋዴዎች	-6385
▁ስሞች	-6386
▁መስፈርቶች	-6387
▁መጣጥ	-6388
ፅፅር	-6389
▁ፈጠረ	-6390
24	-6391
▁ሳል	-6392
ንግግር	-6393
▁በቡድን	-6394
ላስቲክ	-6395
▁ኬሚ	-6396
▁የሚቻልበት	-6397
▁ቅርፀ	-6398
ሬል	-6399
▁የተሸፈነ	-6400
ዋጋት	-6401
▁ተሟጋ	-6402
ጋኒክ	-6403
ገለግል	-6404
▁የተባለው	-6405
ጠመ	-6406
▁ተገናኝ	-6407
በስበስ	-6408
▁ኮሜዲ	-6409
▁እረፍት	-6410
▁ግንኙነቶችን	-6411
▁ማጥፋት	-6412
▁ሚካኤል	-6413
ላይን	-6414
▁የመመ	-6415
▁የጀመረው	-6416
ዞና	-6417
▁ተዘር	-6418
▁ኢንተርናሽናል	-6419
▁ተጣ	-6420
▁ለማጥ	-6421
▁በርስ	-6422
▁አድናቆት	-6423
▁የቬ	-6424
▁የቋንቋ	-6425
▁ውለዋል	-6426
▁የሀይድሮ	-6427
ዲና	-6428
▁ባት	-6429
ክስፎርድ	-6430
od	-6431
▁በነሀሴ	-6432
ቃላት	-6433
▁ባዶ	-6434
▁በመምራት	-6435
▁በለንደን	-6436
▁ፕራ	-6437
▁መንገዱ	-6438
ግቢ	-6439
▁ቤተመቅደስ	-6440
▁ማብራሪያ	-6441
ቄት	-6442
45	-6443
▁ቦምብ	-6444
▁አወጣ	-6445
▁ስፓ	-6446
▁ሰንጠረዥ	-6447
ጠባበቂያ	-6448
▁ተስማም	-6449
▁33	-6450
ዋይ	-6451
22	-6452
▁ከድ	-6453
▁አሽከርካ	-6454
▁ሩሲያ	-6455
▁በጣሊያን	-6456
▁ውስጥም	-6457
▁ያለማ	-6458
ርኩ	-6459
▁ተደምስ	-6460
▁የተዋሀ	-6461
▁ከብዙ	-6462
▁መድሀኒቶች	-6463
▁የበር	-6464
ስኮፒ	-6465
▁የኮሌጅ	-6466
▁ፅፏል	-6467
▁መሰና	-6468
▁ከውጭ	-6469
▁ሳይንቲ	-6470
▁እንዳያ	-6471
ሳሾች	-6472
▁የበለፀ	-6473
ሰባሰብ	-6474
▁ፖለቲካዊ	-6475
▁የተስተካከለ	-6476
▁ሊፈ	-6477
ጀንቲ	-6478
ሰሶ	-6479
▁ይደረ	-6480
▁conta	-6481
▁አመጣጥ	-6482
▁መኪ	-6483
▁በድንገት	-6484
ፈለገ	-6485
▁አቀና	-6486
▁የአከባቢው	-6487
▁ቴክኒክ	-6488
▁የዋጋ	-6489
▁የልጆች	-6490
▁ጨረር	-6491
▁ዋይት	-6492
▁የተማሪ	-6493
▁ዳርቻዎች	-6494
▁1945	-6495
ሞቱ	-6496
▁ሰፈ	-6497
▁ይታያሉ	-6498
▁የተከሰተው	-6499
▁የፕሬ	-6500
▁ተመልሶ	-6501
▁1972	-6502
ከቻ	-6503
ጴዛ	-6504
ክብት	-6505
▁በማግኘት	-6506
ሞተ	-6507
▁ከስራ	-6508
▁መሆኗ	-6509
ሲንግ	-6510
▁ፍሎ	-6511
▁አጋጥ	-6512
መለክት	-6513
▁ይቀጥላል	-6514
▁የትራ	-6515
▁በቬ	-6516
▁ኮረብ	-6517
og	-6518
ፈለጉ	-6519
▁ይገኛል።	-6520
▁1983	-6521
▁ችግሮችን	-6522
▁ከመስ	-6523
▁በሻ	-6524
▁ባልና	-6525
ላለፈ	-6526
▁ተናግራ	-6527
▁በትንሹ	-6528
▁ከአራት	-6529
▁የመሰ	-6530
▁ዋት	-6531
▁አመቷ	-6532
▁የሸክላ	-6533
▁wrote	-6534
▁የማን	-6535
▁አልበሙ	-6536
▁ይናገራል	-6537
ሊፒንስ	-6538
▁ቅንጣቶች	-6539
ጌድ	-6540
▁ቨርጂኒያ	-6541
▁ቀጥሏል	-6542
▁ያሸነፈ	-6543
199	-6544
ላችሁ	-6545
▁ማሳያ	-6546
▁የኑክሌር	-6547
▁የክፍል	-6548
▁ይኖር	-6549
▁ተጠቅሟል	-6550
▁ክርስቲያናት	-6551
▁የተሟላ	-6552
▁ዘፋኝ	-6553
▁በቋሚ	-6554
▁ማስተላለፍ	-6555
ቀኑ	-6556
▁ዮሀንስ	-6557
▁ሰላማዊ	-6558
▁የተቀመጠ	-6559
ጋው	-6560
መጣው	-6561
▁አስተናጋጅ	-6562
▁l	-6563
▁የሁሉም	-6564
▁በች	-6565
▁አገልግሎቶችን	-6566
▁ኮሎኔል	-6567
ታሪ	-6568
▁36	-6569
▁የተሰሩ	-6570
▁መንፈስ	-6571
ፈጠረ	-6572
ሲል	-6573
▁ጅምር	-6574
ገዛ	-6575
ልበ	-6576
▁ካምፓ	-6577
ቀትን	-6578
▁ነው፤	-6579
▁1982	-6580
ክሲዮን	-6581
▁በተደረገ	-6582
ዮኖች	-6583
▁በወን	-6584
▁እንደሚያሳየው	-6585
ቅናቄ	-6586
▁ደስታ	-6587
▁ምሳሌዎች	-6588
▁ማህበራት	-6589
የሩ	-6590
▁በጦርነቱ	-6591
▁በማጣ	-6592
ሳተፈ	-6593
▁ጆሴፍ	-6594
▁ይጠበቃል	-6595
▁በዋሽንግተን	-6596
▁የእነሱ	-6597
▁ስለመ	-6598
▁ግሩ	-6599
ቱጋል	-6600
ጫን	-6601
▁ይሞክ	-6602
▁በህገ	-6603
▁አምባሳደር	-6604
▁st	-6605
ጣጠ	-6606
▁ብድር	-6607
▁ለኤ	-6608
ዋቂዎች	-6609
▁ቀለል	-6610
▁ለራ	-6611
▁እስረኞች	-6612
▁ኪሜ	-6613
qu	-6614
AR	-6615
▁ማዘጋጃ	-6616
▁ባለሀብ	-6617
ግራፊያዊ	-6618
ፓርትመንት	-6619
▁ያጠቃልላል	-6620
ኛዎች	-6621
▁መያዣ	-6622
ሬሽኑ	-6623
▁ባቡ	-6624
ወሰድ	-6625
▁እህት	-6626
▁ስላለው	-6627
▁ተለቋል	-6628
▁አተገባ	-6629
ፋሎት	-6630
▁ለጎን	-6631
▁ክፍፍል	-6632
▁ላሉት	-6633
▁አድማ	-6634
▁ተወዳዳሪ	-6635
▁አደገኛ	-6636
ላላፊ	-6637
▁ለመጀመር	-6638
ራዶ	-6639
▁ከቤተ	-6640
▁ጂን	-6641
▁በተሰኘው	-6642
ሞቹ	-6643
▁ሀኪም	-6644
▁የራሱ	-6645
▁የሚደረግ	-6646
በበ	-6647
▁ነበሯቸው	-6648
ኞቹን	-6649
ራኩ	-6650
▁ላይም	-6651
▁ገደቦች	-6652
▁ለመልቀቅ	-6653
▁ምሰሶ	-6654
▁ኮሌ	-6655
ሸነፉ	-6656
▁የምእራብ	-6657
▁የሚደግ	-6658
▁ለሶ	-6659
ቲያ	-6660
▁አምራቾች	-6661
▁(3	-6662
▁1979	-6663
▁ከሄ	-6664
▁180	-6665
እት	-6666
▁ቮል	-6667
▁ሮዝ	-6668
▁ብክ	-6669
ኒየም	-6670
▁አባቱ	-6671
ቴጅ	-6672
ርቫ	-6673
▁ሰጠው	-6674
▁ጉዳዩን	-6675
▁ተቺዎች	-6676
▁ሊቃ	-6677
ወጠ	-6678
▁ስታቲስቲክስ	-6679
▁ተብሏል	-6680
▁ተይዘ	-6681
▁ኢንጂ	-6682
▁ኢንፌ	-6683
▁ክልላዊ	-6684
▁አስተዳደ	-6685
▁ያመ	-6686
▁አሉ።	-6687
▁መምህር	-6688
ብሮ	-6689
በትም	-6690
ub	-6691
ጭበርበር	-6692
▁የሰውነት	-6693
ቅረፅ	-6694
ንጂ	-6695
ስማሙ	-6696
ኒማ	-6697
▁ያስችለዋል	-6698
▁ቅድሚያ	-6699
▁የሴት	-6700
▁በከባድ	-6701
ክሎ	-6702
▁ከሞተ	-6703
▁ከቀድሞው	-6704
▁ዲፕሎማ	-6705
▁ስኮ	-6706
▁the	-6707
▁ደረጃዎችን	-6708
▁ነበር፤	-6709
ቀሳቀስ	-6710
.0	-6711
▁አሳት	-6712
▁በሴቶች	-6713
▁contains	-6714
▁የስኮትላንድ	-6715
▁የመጨረሻውን	-6716
▁ጉድለት	-6717
ጩኸት	-6718
▁አሲድ	-6719
▁ጥፋተኛ	-6720
▁መግባት	-6721
ጉስ	-6722
ዝናብ	-6723
ድጓ	-6724
▁ነዳጅ	-6725
ቴድ	-6726
▁አሳሳቢ	-6727
▁አገልግለዋል	-6728
▁የባህ	-6729
▁የተገነቡ	-6730
▁የአማራ	-6731
▁ደስተኛ	-6732
ቀሰ	-6733
▁አመራሮች	-6734
▁መውጣት	-6735
▁የአይሁድ	-6736
▁አልሆነ	-6737
ሰረተ	-6738
ሩስ	-6739
ፖል	-6740
▁ማጣት	-6741
▁ክን	-6742
▁የጎደ	-6743
ግሮ	-6744
ዳብ	-6745
ፀደ	-6746
▁አንዱን	-6747
▁አስመዝግ	-6748
▁በቼ	-6749
▁ካፕ	-6750
▁ባቡር	-6751
▁የመክፈቻ	-6752
▁1968	-6753
▁እሷን	-6754
ቲካዊ	-6755
▁ለማዘጋጀት	-6756
▁ካርድ	-6757
ንድራ	-6758
ወለዱ	-6759
▁የታጠቁ	-6760
▁ያገለግላል	-6761
▁መስፋፋት	-6762
▁ሞኖ	-6763
ቃቸው	-6764
▁ካልተ	-6765
▁ተፈራረመ	-6766
▁የተደገፈ	-6767
ሮጥ	-6768
▁አየርላንድ	-6769
▁ህዝቡ	-6770
▁የኦሎምፒክ	-6771
▁አቢ	-6772
▁ያገኛል	-6773
ሳቤ	-6774
ጠቢያ	-6775
▁እንዳለባቸው	-6776
ሞንት	-6777
ሲያን	-6778
ደቶች	-6779
ጨው	-6780
▁መረጋጋት	-6781
▁ዣ	-6782
▁የመርከብ	-6783
▁በብራ	-6784
▁የገጠር	-6785
▁1976	-6786
▁ማስጠንቀቂያ	-6787
▁አደባባይ	-6788
▁በመምታት	-6789
▁300	-6790
▁ይጠራል	-6791
▁ተቀበለ	-6792
▁ሮያል	-6793
ራቶች	-6794
▁ከአምስት	-6795
▁ዳራ	-6796
▁1981	-6797
▁ዝግጅቶች	-6798
▁ለመድረስ	-6799
▁ጠባቂዎች	-6800
▁ክሪክ	-6801
▁ባንዲራ	-6802
ዊዘርላንድ	-6803
▁መዘግ	-6804
▁ባስ	-6805
▁ወጪዎች	-6806
ሚና	-6807
የህ	-6808
ጂየም	-6809
▁አያስ	-6810
▁ክሎ	-6811
ዲያን	-6812
ፐብሊካን	-6813
▁በጦርነት	-6814
▁ፍሬድ	-6815
▁የዩኒቨርሲቲ	-6816
▁ልእ	-6817
▁ምስረታ	-6818
ክተሩ	-6819
▁የእድሜ	-6820
እለት	-6821
▁ትራምፕ	-6822
ፋፍ	-6823
▁መነሻ	-6824
▁(198	-6825
ያኖ	-6826
ጠቃሚ	-6827
▁የሚጠራው	-6828
▁የመልሶ	-6829
▁ተዘ	-6830
ዳማ	-6831
ክርክ	-6832
▁ይዘው	-6833
▁ስሪ	-6834
▁የተማረ	-6835
ካች	-6836
▁መበታተን	-6837
▁ጭብጥ	-6838
ዊው	-6839
ፈሳዊ	-6840
23	-6841
▁አፈፃፀ	-6842
ዲህ	-6843
▁ባደረጉት	-6844
▁34	-6845
▁አድርጋ	-6846
▁ማሪያ	-6847
▁ለመጫወት	-6848
ዳንታዊ	-6849
ክፈት	-6850
▁ተተኪ	-6851
▁ምስጋና	-6852
▁አስተዋውቋል	-6853
▁አሳዛኝ	-6854
▁ተያይዞ	-6855
▁የነፃነት	-6856
ቭስኪ	-6857
▁ከጆ	-6858
▁መደ	-6859
▁ለእያንዳንዱ	-6860
▁#	-6861
▁ብልህ	-6862
▁ጤ	-6863
▁ነው፣	-6864
▁ተግዳሮ	-6865
▁ለመግባት	-6866
▁በዌ	-6867
ከፋፈሉ	-6868
▁የተረጋጋ	-6869
▁ወንበ	-6870
▁አለ።	-6871
ፈሻ	-6872
▁1974	-6873
▁የግሪክ	-6874
ሴይ	-6875
▁የተጣ	-6876
▁ታላላቅ	-6877
▁ቢጫ	-6878
▁ኢንዱስት	-6879
▁እየቀነሰ	-6880
▁ነፋሱ	-6881
▁በዋናው	-6882
▁መሰረተ	-6883
ቃይ	-6884
የቱ	-6885
ድና	-6886
ሊየን	-6887
▁ሽያጭ	-6888
▁ለሁለተኛ	-6889
▁አግባብ	-6890
▁ብስክ	-6891
▁ሊያስከትል	-6892
ጀክ	-6893
IS	-6894
▁ቀኝ	-6895
▁ትች	-6896
▁ቴክኒካዊ	-6897
▁ምሁር	-6898
ደውን	-6899
▁ጭንቅላት	-6900
የሚ	-6901
▁ሁኔታን	-6902
መታት	-6903
▁የዌ	-6904
▁የሚሰሩ	-6905
▁ይጠቁማል	-6906
▁ጊዜው	-6907
▁የፎቶ	-6908
▁ሱዳን	-6909
▁ጎር	-6910
ምንም	-6911
ንደዚህ	-6912
▁ማጣቀሻ	-6913
▁ስክሪፕ	-6914
አቱ	-6915
▁ሞለኪው	-6916
ክሊ	-6917
▁ምልክቶችን	-6918
▁ባልደረባ	-6919
▁የሚመራ	-6920
ለላ	-6921
▁ዘው	-6922
▁ለሶስት	-6923
▁እነሱን	-6924
▁ተእለት	-6925
▁እንደመሆኑ	-6926
▁ከዲ	-6927
▁ውክልና	-6928
ባቸዋል	-6929
▁ክህሎ	-6930
ፕቲካል	-6931
ደረሰበት	-6932
ምፔ	-6933
▁ተዘርግ	-6934
▁ንቅናቄ	-6935
▁በማህበራዊ	-6936
▁ጠመንጃዎች	-6937
▁የጂኦ	-6938
ኮም	-6939
ጎዳ	-6940
መልከቻ	-6941
▁ክሪኬት	-6942
▁ከራ	-6943
ሶን	-6944
ችኛው	-6945
▁ይረ	-6946
▁በመሰረቱ	-6947
መናል	-6948
ዛማ	-6949
ክበር	-6950
ንቅላቱ	-6951
▁በመምጣቱ	-6952
ጃን	-6953
▁የአደጋ	-6954
▁ተቃዋሚዎች	-6955
ጎራ	-6956
ሆንበት	-6957
ስቱን	-6958
▁ለቀጣ	-6959
▁ዳንኤል	-6960
.5	-6961
▁ገዳይ	-6962
▁የፕላ	-6963
ቅዶ	-6964
II	-6965
▁ተጭ	-6966
▁እንደተናገሩት	-6967
▁ድንጋጌ	-6968
▁ታግ	-6969
▁የመካከለኛው	-6970
▁የታይ	-6971
ደች	-6972
▁አሻ	-6973
▁ተፎካካሪ	-6974
▁በአመት	-6975
▁በመስመር	-6976
▁እመ	-6977
▁መዋቅራዊ	-6978
▁በታሪክ	-6979
▁ማረጋገጥ	-6980
▁ቅርፃ	-6981
▁1975	-6982
▁ብሪታንያ	-6983
ኪኦሎጂ	-6984
▁ገንዘ	-6985
▁በቀን	-6986
▁ራእ	-6987
ስክር	-6988
▁1944	-6989
▁ንባብ	-6990
ፈፀሙ	-6991
▁የሚያካት	-6992
▁መዝገቦች	-6993
ሎግ	-6994
▁ላላቸው	-6995
ፋው	-6996
▁ገድ	-6997
▁ሰጡ	-6998
ቀዱ	-6999
▁ቅሬታ	-7000
መሮች	-7001
▁ጃክሰን	-7002
ዮርክ	-7003
ኒኬሽን	-7004
▁ፆታ	-7005
▁አባላትን	-7006
▁ጣሊያን	-7007
▁አስቀም	-7008
▁ይሆናሉ	-7009
▁°	-7010
▁አምስተኛ	-7011
▁አንቲ	-7012
▁መፅሀፉ	-7013
▁የእርሻ	-7014
▁ለቢ	-7015
▁አቀባይ	-7016
ቆር	-7017
▁ሰኞ	-7018
▁ማገጃ	-7019
ጋኒስታን	-7020
▁ሀኪሞች	-7021
th	-7022
▁ፍትህ	-7023
▁ሶስቱ	-7024
▁1978	-7025
▁ምዝገባ	-7026
▁ቴክኒኮች	-7027
▁የቀጥታ	-7028
▁ፍሪ	-7029
▁ኦባማ	-7030
com	-7031
▁የበሽታ	-7032
▁ምህዳ	-7033
▁183	-7034
ሱም	-7035
▁የዛ	-7036
ሌዥያ	-7037
▁ቦታን	-7038
▁1971	-7039
▁1973	-7040
▁መጠይ	-7041
▁የተሰኘ	-7042
ሌም	-7043
▁በማቅረብ	-7044
▁ያለማቋረጥ	-7045
▁ምኞ	-7046
▁St	-7047
ፀው	-7048
▁ህገወጥ	-7049
ዳክ	-7050
ዛጋቢ	-7051
▁ሳም	-7052
▁የእድገት	-7053
ነቀ	-7054
▁የተረጋገጠ	-7055
▁‘	-7056
ንሰርት	-7057
▁እንደማ	-7058
▁ዳንስ	-7059
▁አእምሮ	-7060
▁ወቅቶች	-7061
▁ሜክሲኮ	-7062
▁ለል	-7063
▁ካቶሊክ	-7064
▁ታት	-7065
▁በዎ	-7066
ሲባዊ	-7067
▁መርሆ	-7068
▁የሚያደርግ	-7069
▁የአመቱ	-7070
▁በስታ	-7071
▁ምግ	-7072
▁አለማ	-7073
▁ትሮ	-7074
▁e	-7075
ንሳስ	-7076
▁ጠፍጣፋ	-7077
▁ለመቀበል	-7078
ዊክ	-7079
▁አዘዘ	-7080
የሰ	-7081
▁ጃፓን	-7082
▁ከደቡብ	-7083
በባ	-7084
ኬስትራ	-7085
▁እንዲያው	-7086
▁የክልሉ	-7087
ፎን	-7088
ዊንስ	-7089
ሶታ	-7090
ደቱ	-7091
ተርስ	-7092
ራቱ	-7093
ላለፉ	-7094
ጫወተው	-7095
▁የከፍተኛ	-7096
▁ወንድማማ	-7097
▁አደረጉ	-7098
ፓል	-7099
▁ማክሰኞ	-7100
▁ስርአቶችን	-7101
▁ሌሎቹ	-7102
▁ቆስ	-7103
መረጡ	-7104
ጀንቲና	-7105
▁የሚከሰቱ	-7106
ጋጭ	-7107
▁ህዋሳት	-7108
▁የፖላንድ	-7109
ላዎች	-7110
▁የቫ	-7111
ላኩ	-7112
ov	-7113
ለጡ	-7114
▁በአብዛኛዎቹ	-7115
ለሪ	-7116
▁ተማሪዎችን	-7117
▁የምክር	-7118
▁ሰራዊቱ	-7119
▁በመጫወት	-7120
▁38	-7121
▁የተቋቋሙ	-7122
▁ማስተላለፊያ	-7123
▁ለማምረት	-7124
ንጆ	-7125
▁ስፕሪ	-7126
▁ተሰር	-7127
▁ከጦርነቱ	-7128
▁ለማጥፋት	-7129
▁የታሰበ	-7130
ሮንቶ	-7131
▁ያካሂ	-7132
▁የተገደበ	-7133
ኒካ	-7134
▁Z	-7135
▁ኤሚ	-7136
▁ትሬ	-7137
ሪቲሽ	-7138
▁አሌክሳንደር	-7139
▁ምስክር	-7140
ዊተር	-7141
▁በምእራ	-7142
▁ዳግም	-7143
▁በሀይል	-7144
▁ተቋቋመ	-7145
▁ጥቅሞች	-7146
ችም	-7147
▁ዝርዝሮች	-7148
▁መሰል	-7149
▁መንገዶችን	-7150
ውጣ	-7151
ርጂያ	-7152
▁ያምና	-7153
ፎቹ	-7154
▁እንደሚገባ	-7155
▁ጥንቃቄ	-7156
▁እርምጃዎችን	-7157
ቦር	-7158
ለብ	-7159
▁ለቀ	-7160
▁መደብ	-7161
እኔ	-7162
▁አውጪ	-7163
▁ያስፈልጋ	-7164
▁ተጎድ	-7165
ነዳ	-7166
▁ወፍ	-7167
▁ይመረም	-7168
ጉል	-7169
▁ወላጆች	-7170
▁በእርግጥ	-7171
▁ካስ	-7172
ap	-7173
▁ማዘጋጀት	-7174
▁ፌዴሬሽን	-7175
▁ቆይ	-7176
▁CO	-7177
ኪስ	-7178
▁የምስክር	-7179
▁|	-7180
▁ተለዋዋጮች	-7181
▁ወታደሮችን	-7182
ie	-7183
ፍስ	-7184
▁ግለሰ	-7185
▁አለው።	-7186
ሎክ	-7187
▁የማር	-7188
▁የአገሪቱ	-7189
ኔስ	-7190
▁የቀዶ	-7191
▁ዴሞክራሲያዊ	-7192
ዳሚው	-7193
▁የተን	-7194
▁ከወጣ	-7195
▁ሲታይ	-7196
▁ከጠ	-7197
▁ለማቋቋም	-7198
▁እግረኛ	-7199
▁ቀርበዋል	-7200
▁ለማየት	-7201
ጉት	-7202
▁የቁጥር	-7203
▁የተፈጠረው	-7204
ሽት	-7205
▁ቅጠ	-7206
▁was	-7207
▁እገዳ	-7208
ስቡክ	-7209
▁ተብሏል።	-7210
▁ማራዘ	-7211
▁ይሆናል።	-7212
▁አስቀድሞ	-7213
▁ውጊ	-7214
▁ባህሪያት	-7215
ስለ	-7216
▁አብዛኛውን	-7217
▁1977	-7218
ነሪንግ	-7219
▁ትል	-7220
▁መግለጫዎች	-7221
▁በግብ	-7222
▁ገብቷል	-7223
ጣሬ	-7224
ትንሽ	-7225
▁ይሰማ	-7226
▁ጥያቄዎችን	-7227
▁መስጠ	-7228
ቀቱ	-7229
▁ታዋቂው	-7230
▁ጥምርታ	-7231
▁ወደሚገኘው	-7232
▁የሚያስከት	-7233
▁መቶኛ	-7234
▁በባለ	-7235
▁አጥንት	-7236
▁ለባ	-7237
▁በዝርዝር	-7238
ምፒዩተር	-7239
▁ሬድ	-7240
▁ሻምፒዮናዎች	-7241
ኩም	-7242
ፅና	-7243
▁ትው	-7244
ራቸውን	-7245
▁የተጨ	-7246
▁ድራይቭ	-7247
ፈረደ	-7248
ሰልጣ	-7249
▁በክልል	-7250
ቀሩ	-7251
▁ታዳ	-7252
▁ጉዳዩ	-7253
▁ዜጋ	-7254
▁ከፍተኛውን	-7255
ኪዮ	-7256
ንሰን	-7257
▁75	-7258
ዘው	-7259
▁ካታ	-7260
ፖለቲካ	-7261
▁ማቲ	-7262
▁ከሊ	-7263
▁ጠበ	-7264
▁ቅነሳ	-7265
▁ለአጭር	-7266
ፃፈ	-7267
▁ዝውውር	-7268
▁ቾ	-7269
ፍረስ	-7270
▁ጉዳቶች	-7271
▁ዴቪስ	-7272
▁የሚከተሉት	-7273
ቀደው	-7274
▁ፈንድ	-7275
▁መኖሩ	-7276
▁1942	-7277
▁አሞ	-7278
ግባራዊ	-7279
▁የሚያሳድረ	-7280
ፅም	-7281
ሀድሶ	-7282
▁የአስቸኳይ	-7283
ገቢያ	-7284
▁1967	-7285
▁ሰለባ	-7286
▁የተሻሻለ	-7287
▁1969	-7288
▁የማድረግ	-7289
▁ሚዛናዊ	-7290
▁ስፖርተኞች	-7291
ዘረዘ	-7292
▁ከማንኛውም	-7293
▁ህብረተሰብ	-7294
▁በየቀኑ	-7295
▁ለማዳበር	-7296
▁ሳውዝ	-7297
▁ቮን	-7298
ደኝነት	-7299
▁CN	-7300
▁ፍሰ	-7301
መዝገብ	-7302
▁የመማር	-7303
▁ተራሮች	-7304
▁ያም	-7305
-5	-7306
▁አፕሊ	-7307
▁ጤናማ	-7308
▁ስርወ	-7309
ሙር	-7310
ፋሪዎች	-7311
▁ሳር	-7312
▁እራሳቸውን	-7313
ልሲ	-7314
▁ተሻሽ	-7315
▁ማሻሻያዎች	-7316
▁እዳ	-7317
▁መገንባት	-7318
ኝ።	-7319
▁እንደሚቻል	-7320
▁ለማስተዋወቅ	-7321
▁መጠኖች	-7322
▁ቴክሳስ	-7323
ሜትሪ	-7324
▁ቁጥሮች	-7325
▁ለተለያዩ	-7326
▁በመቀጠል	-7327
▁ሚስጥራዊ	-7328
ከሪያ	-7329
▁ለበርካታ	-7330
▁ይቀበ	-7331
▁ፍፃሜው	-7332
▁ትዝ	-7333
▁የእፅዋት	-7334
ጀርስ	-7335
▁ፋይናንስ	-7336
▁ኮርፕስ	-7337
ፑር	-7338
▁የአካዳሚክ	-7339
▁አይሁዳውያን	-7340
▁በሴንት	-7341
ያንፀባር	-7342
▁የእይታ	-7343
▁ወርቅ	-7344
▁ተሳታፊ	-7345
ንዶን	-7346
ሰዋል።	-7347
▁የእስራኤል	-7348
ጣው	-7349
▁የተቀናጀ	-7350
ቤክ	-7351
በይ	-7352
▁በአው	-7353
▁አልተሳካ	-7354
▁አክቲቪ	-7355
ፍሉ	-7356
አዲስ	-7357
▁ጥንቅር	-7358
▁ፈረሰኞች	-7359
▁ፈል	-7360
▁የድንበር	-7361
▁ጥረቶች	-7362
▁የአሁኑን	-7363
▁ኤንድ	-7364
▁በበረ	-7365
▁ሽፋ	-7366
ባራ	-7367
ወሰዱ	-7368
ht	-7369
▁ሀይልን	-7370
▁ተሰጥቷቸዋል	-7371
▁ቀጭን	-7372
ልስጤ	-7373
▁ቤተሰቡ	-7374
▁ተደ	-7375
▁ሱቅ	-7376
▁ተጥ	-7377
▁መጠለያ	-7378
ነጋገር	-7379
▁የተዛመደ	-7380
ጣጌጥ	-7381
▁ሚን	-7382
ሬዝ	-7383
▁የግብር	-7384
▁ጌታ	-7385
▁መቆጣጠር	-7386
▁ተፋሰስ	-7387
▁አስተማማኝ	-7388
▁በፍርድ	-7389
▁ማይክ	-7390
▁ይጠቀማሉ	-7391
ፒን	-7392
▁ድርጊቶች	-7393
ተገበር	-7394
▁ከሆ	-7395
▁በዘመ	-7396
ንሲን	-7397
▁መወሰን	-7398
▁ሮድ	-7399
▁ሳጥን	-7400
▁ያብራ	-7401
▁ጠላት	-7402
▁III	-7403
▁ስብሰባዎች	-7404
▁አጥባቂ	-7405
▁ጠባብ	-7406
ኒያን	-7407
▁የተባሉ	-7408
▁አሳድሯል	-7409
▁የመግቢያ	-7410
▁ተናጋሪ	-7411
ከመ	-7412
▁አብይ	-7413
ቦርድ	-7414
▁ማራኪ	-7415
▁አራተኛው	-7416
▁1941	-7417
▁የነሀስ	-7418
▁ሰዶማውያን	-7419
ርዶ	-7420
▁ጥይት	-7421
▁ንጣ	-7422
▁ፍሎሪዳ	-7423
▁በሚለው	-7424
ጎም	-7425
▁ክላሲካል	-7426
▁ንግስት	-7427
SA	-7428
▁ራሳቸውን	-7429
ጎልበት	-7430
▁ፖርት	-7431
▁አቋቁ	-7432
ገጣጠ	-7433
▁ብዙዎች	-7434
.)	-7435
▁ማረፊ	-7436
ባልደረ	-7437
▁የስልጠና	-7438
ስካር	-7439
▁ምቹ	-7440
ቨርጂኒያ	-7441
▁ክላርክ	-7442
▁ፍራንሲስ	-7443
▁አገኘች	-7444
▁ብሮድ	-7445
▁መጠበቅ	-7446
27	-7447
ደድ	-7448
ሪክስ	-7449
▁ማታ	-7450
▁የቆየ	-7451
ካኔ	-7452
▁እያደረገ	-7453
▁በአንደኛው	-7454
▁ተመዝግቧል	-7455
ገለግሉ	-7456
▁መሆናቸው	-7457
▁37	-7458
▁ሰጥቷል	-7459
▁ያለባቸው	-7460
▁ዩኒቨርሲቲዎች	-7461
▁በደቡባዊ	-7462
▁በሜክሲኮ	-7463
ጣሪዎች	-7464
▁ደግ	-7465
ኑት	-7466
▁ረድቷል	-7467
▁ፍጆ	-7468
▁አገላለ	-7469
ብሪ	-7470
▁ነን	-7471
▁ማድ	-7472
▁በመካከለኛው	-7473
▁የከተማው	-7474
▁ድራ	-7475
▁የመዋ	-7476
▁ቅሪተ	-7477
▁መድ	-7478
ባለን	-7479
▁በጥንቃቄ	-7480
ጦታ	-7481
ሊው	-7482
▁ከአሜሪካ	-7483
▁አስከፊ	-7484
ደርሰን	-7485
▁ስራን	-7486
ቼን	-7487
▁በልዩ	-7488
ገደብ	-7489
▁የሚሆነው	-7490
ሻሊስት	-7491
▁ታወ	-7492
▁1964	-7493
▁ፈታኝ	-7494
▁በበኩላቸው	-7495
▁የጉዞ	-7496
▁የያዙ	-7497
▁ያደረጉት	-7498
▁ፓን	-7499
BA	-7500
▁መሆኗን	-7501
▁ቆር	-7502
ኩስ	-7503
▁ሀይማኖት	-7504
▁የሳንባ	-7505
▁የታወቀ	-7506
▁ተቀባዮች	-7507
▁ፕሪሚየር	-7508
▁አተገባበር	-7509
▁ግጭቶች	-7510
▁አስታወቀ	-7511
▁ፈንታ	-7512
ገሰ	-7513
▁ያስችላቸዋል	-7514
▁እንቅስቃሴዎችን	-7515
▁አወዛጋቢ	-7516
ጠቀሰው	-7517
ዝግብ	-7518
▁ማሸነፍ	-7519
ቪክ	-7520
ዩም	-7521
ወርክ	-7522
▁ጉድጓድ	-7523
ክታር	-7524
▁አንዷ	-7525
▁ታማኝ	-7526
▁ያጋጠ	-7527
▁ይጫወታል	-7528
▁ይከራ	-7529
▁ያላ	-7530
▁ነፋሶች	-7531
የሱስ	-7532
▁የቀረቡ	-7533
▁ዊልሰን	-7534
ኸር	-7535
▁ከኬ	-7536
ቀረበ	-7537
▁በዙሪያው	-7538
▁ናኖ	-7539
▁ተንታ	-7540
65	-7541
▁ማራዘሚያ	-7542
▁የተፈጠሩ	-7543
▁ከሁለተኛው	-7544
ይዩ	-7545
▁መረዳት	-7546
▁የኮሮና	-7547
ታደር	-7548
▁ደስ	-7549
▁ውቅያኖስ	-7550
▁ክሶች	-7551
ዛይ	-7552
▁ያልተለመዱ	-7553
ባሲ	-7554
ፈጠሩ	-7555
ተኞቹ	-7556
▁የስኳር	-7557
▁የተለመደው	-7558
ሊያም	-7559
▁የሞተር	-7560
ላሊት	-7561
▁በግማሽ	-7562
,1	-7563
▁የብራ	-7564
▁እስራት	-7565
ወያየት	-7566
▁ለመቋቋም	-7567
▁ኮሚሽነር	-7568
ሁት	-7569
▁በተለየ	-7570
▁ተወግዷል	-7571
ቦቻቸው	-7572
▁በስፔን	-7573
ሰንዘር	-7574
▁ቡድኖችን	-7575
ክርክሪት	-7576
▁ይሰጣ	-7577
▁በመሄድ	-7578
ብሰባ	-7579
ጣጣፊ	-7580
▁ኦክ	-7581
ዋወቂያ	-7582
▁አዛዥነት	-7583
▁ሆስፒ	-7584
▁የህፃናት	-7585
▁የክረምት	-7586
ከፋፈለ	-7587
▁ያሳድራል	-7588
▁ሀብታም	-7589
▁ነበረባቸው	-7590
▁አኒሜሽን	-7591
▁በኒ	-7592
▁ያንግ	-7593
ሜትሮ	-7594
ተኮስ	-7595
▁ዝም	-7596
▁ከከተማ	-7597
ራፒ	-7598
▁አስታውቋል።	-7599
▁ታጣ	-7600
▁አልቻሉም	-7601
ጠናቅ	-7602
▁በተገ	-7603
▁ያደርጋሉ	-7604
▁1943	-7605
▁ፖስት	-7606
▁የውስጥ	-7607
ሮቹን	-7608
▁ደረቅ	-7609
▁በሙከራ	-7610
▁በጨዋታ	-7611
ዳጅነት	-7612
▁ማስረጃዎች	-7613
▁በአንዱ	-7614
ሶቹ	-7615
▁መራ	-7616
▁የታተ	-7617
▁የአስ	-7618
ሪፍ	-7619
ምፕሰን	-7620
▁ፍልስፍና	-7621
▁ብሎክ	-7622
ከርከር	-7623
ቀላቀሉ	-7624
ቶል	-7625
▁ሲስተ	-7626
ep	-7627
ናስ	-7628
▁ገመድ	-7629
ጠነኛው	-7630
▁ሚል	-7631
ፖሊታን	-7632
ሙላት	-7633
▁1965	-7634
▁ጀግና	-7635
▁ካፒታል	-7636
ካስ	-7637
▁ማመቻቸት	-7638
▁አቤቱ	-7639
ገነዘበ	-7640
▁ስለሚያ	-7641
▁ግኝት	-7642
▁በቀጣዮቹ	-7643
▁ሊያሳ	-7644
ቆሙ	-7645
ሰሜን	-7646
▁የትግራይ	-7647
ጥቅ	-7648
▁ሪፖርቶች	-7649
▁ይመስላል።	-7650
ሴቲቱ	-7651
ዋእት	-7652
ገልገል	-7653
▁ልቀት	-7654
▁አጀ	-7655
▁400	-7656
ጿል	-7657
ዬን	-7658
▁ሰጪዎች	-7659
▁በአፍ	-7660
▁ለሲ	-7661
ገነቡ	-7662
ሳያ	-7663
▁1966	-7664
ሊቲ	-7665
ምፒው	-7666
ኔትወርክ	-7667
▁ጎረ	-7668
ረቡ	-7669
▁የመሳሪያ	-7670
▁የተመረጡ	-7671
ess	-7672
▁አገባ	-7673
▁በራሳቸው	-7674
est	-7675
▁ከፋ	-7676
▁የቴሌ	-7677
▁አላስ	-7678
▁በጤና	-7679
▁ተኩስ	-7680
▁አቀባ	-7681
ፕሬዚዳንት	-7682
▁በዚሁ	-7683
▁በመነ	-7684
▁ህወሀት	-7685
▁ጓደኞች	-7686
ኔዲ	-7687
ዉድ	-7688
▁መመዘ	-7689
ፕቲ	-7690
ak	-7691
▁ድንበ	-7692
ፎርሜሽን	-7693
▁በመፍ	-7694
▁አሀድ	-7695
28	-7696
▁ሪከርድስ	-7697
ስልምና	-7698
▁ተገንብቷል	-7699
95	-7700
▁ከባለ	-7701
▁ውጤቱ	-7702
▁ፓስ	-7703
ጭሩ	-7704
▁መርዛማ	-7705
▁መጠጥ	-7706
ናማ	-7707
▁መሸ	-7708
▁ከእነሱ	-7709
ንጎ	-7710
ፕራይ	-7711
ይሊ	-7712
ክሉ	-7713
▁ግምገማዎች	-7714
▁ሞዴሊንግ	-7715
▁g	-7716
▁ሁልጊዜ	-7717
ተርን	-7718
▁ኤግዚቢሽን	-7719
ቀውን	-7720
▁እስከሚ	-7721
ምፎ	-7722
▁ከሰአት	-7723
▁ለጉ	-7724
ቨርስ	-7725
▁ለመከታተል	-7726
▁የጄኔቲክ	-7727
▁መፃፍ	-7728
ምቦ	-7729
26	-7730
ባክ	-7731
▁ይመር	-7732
▁የተገናኘ	-7733
▁150	-7734
▁በመጨመር	-7735
▁ይወያ	-7736
ዴሽ	-7737
▁ልጃገረዶች	-7738
ዚን	-7739
መንዌል	-7740
ታሪክ	-7741
ችለው	-7742
▁ንግግ	-7743
▁ሚሺጋን	-7744
▁ጋዜጠኞች	-7745
▁የመነሻ	-7746
ግባቡ	-7747
▁መስኮ	-7748
ሰነ	-7749
▁እስራኤል	-7750
▁የመሆን	-7751
ታወቅም	-7752
▁የሚመረ	-7753
ጠሉ	-7754
▁ማእረ	-7755
ጎበ	-7756
▁የተፃፈ	-7757
▁የተያያዙ	-7758
ቫይረሱ	-7759
▁ስልክ	-7760
ምፕተን	-7761
▁የባንክ	-7762
▁ትራፊክ	-7763
▁በጥይት	-7764
▁ባንዱ	-7765
▁ተከራክ	-7766
ኦን	-7767
▁የታችኛው	-7768
▁ድንገተኛ	-7769
all	-7770
▁ካልሆነ	-7771
ሙኤል	-7772
▁ግቢ	-7773
▁አስታውቀዋል	-7774
▁እንዲሰጥ	-7775
▁የስታ	-7776
▁መብራት	-7777
ታይፕ	-7778
▁ድረ	-7779
▁ችሎት	-7780
ቀበሉ	-7781
▁የመዝናኛ	-7782
▁ኮከቦች	-7783
▁አካባቢው	-7784
ጎራባች	-7785
▁ግራም	-7786
▁ቦታው	-7787
▁ሊለ	-7788
▁ብላክ	-7789
▁የለም።	-7790
መንዌልዝ	-7791
▁በመሆኑም	-7792
▁ፓነ	-7793
▁የእግ	-7794
▁ሰላጤ	-7795
▁እንደሌለው	-7796
▁የመጀመሪያዋ	-7797
▁ይጥ	-7798
▁የኡ	-7799
▁ዝንባ	-7800
ጠዋል።	-7801
▁ሰብሳቢ	-7802
▁አቡ	-7803
▁እንዲኖር	-7804
▁አይን	-7805
ant	-7806
▁የአጥ	-7807
ዥረት	-7808
▁የአፈፃፀም	-7809
▁ከሱ	-7810
▁የአመጋገብ	-7811
NA	-7812
▁ገልፀው	-7813
▁ሪኮርድን	-7814
▁1.	-7815
▁ሀሳቦችን	-7816
▁ከሰሜን	-7817
▁አጋጣሚዎች	-7818
▁አስፈሪ	-7819
ውር	-7820
▁ቅፅል	-7821
ይነ	-7822
▁ማስወገድ	-7823
▁አውደ	-7824
ላለን	-7825
▁ወያኔ	-7826
▁ተመሳሳይነት	-7827
ሊኮ	-7828
ሌዎች	-7829
ሳር	-7830
▁(197	-7831
ቷርት	-7832
▁ተጣጣፊ	-7833
▁ተጫዋቹ	-7834
▁አድናቂዎች	-7835
▁ማመንጫ	-7836
ተረ	-7837
▁ሰርጥ	-7838
▁መሻሻል	-7839
EC	-7840
▁ዛፍ	-7841
▁በቫ	-7842
ጌት	-7843
▁ከስድስት	-7844
▁ብራያን	-7845
▁ሰከንዶች	-7846
▁አፕሊኬ	-7847
▁መጠየ	-7848
▁በውስጡ	-7849
▁ዘሮች	-7850
▁በጥልቀት	-7851
▁የኤሌክትሮኒክ	-7852
ንዴ	-7853
▁ብት	-7854
▁ኖሮ	-7855
▁በሚሆንበት	-7856
ባውያን	-7857
▁አስተዳዳሪ	-7858
▁ማወቅ	-7859
ምህንድስና	-7860
▁አሽ	-7861
▁የሚጀም	-7862
▁አልበሞች	-7863
▁በፊልሙ	-7864
▁ቆየ	-7865
በላሸት	-7866
▁የአንጎል	-7867
▁ከቆ	-7868
ጓደ	-7869
▁ሎስ	-7870
▁በሰራ	-7871
▁በፕ	-7872
▁ከኢትዮጵያ	-7873
▁ስለነበረ	-7874
▁የወለል	-7875
▁ፕሮፌሽናል	-7876
ፈዋል።	-7877
▁ሀብረት	-7878
ዋንያን	-7879
ኑስ	-7880
ውሮፕላ	-7881
ናሉ	-7882
▁ለመዋጋት	-7883
▁ጣሪያ	-7884
▁ይመረምራል	-7885
ዞችን	-7886
ፈተሽ	-7887
▁እንቅስቃሴን	-7888
ንክሪት	-7889
▁ለማምጣት	-7890
የትኛውም	-7891
▁ብዝሀ	-7892
▁አውጥቷል	-7893
ሪዞና	-7894
▁ተሰም	-7895
▁በታላቁ	-7896
▁የተዋቀረ	-7897
▁በመደገፍ	-7898
▁የሚታወቅ	-7899
▁ጠመ	-7900
▁ጣፋ	-7901
▁በእድሜ	-7902
▁ባለመቻሉ	-7903
▁ወርቃ	-7904
▁አውራጃዎች	-7905
▁አይነ	-7906
▁ካሪ	-7907
▁ከዴ	-7908
▁ፕሮግራሞችን	-7909
ጣኝ	-7910
▁ብሄረ	-7911
▁ለማዳን	-7912
▁ዘፈኑ	-7913
▁ደረሰ	-7914
▁ሰፈር	-7915
ወከል	-7916
▁ኦል	-7917
▁ስፍራዎች	-7918
▁ተሰራጭ	-7919
▁የተገናኙ	-7920
▁ገልፃ	-7921
ግሬሽን	-7922
ማለትም	-7923
ምሩ	-7924
▁ከተማው	-7925
▁አቀፋዊ	-7926
▁ግምቶች	-7927
▁በስድስት	-7928
ወል	-7929
ያንግ	-7930
▁መላው	-7931
▁የኮምፒተር	-7932
▁ኦርቶ	-7933
▁አሸንፈዋል	-7934
▁የሰር	-7935
▁(4	-7936
ፈጥሩ	-7937
▁ተጫዋቾችን	-7938
ምብል	-7939
ኔቲክ	-7940
▁አሳስ	-7941
ለመደው	-7942
መዘገበ	-7943
▁በአጋጣሚ	-7944
▁ተደራሽ	-7945
▁መኪኖች	-7946
▁አስተባ	-7947
▁48	-7948
▁ምስሎችን	-7949
▁አያው	-7950
▁ረዥም	-7951
▁ያተኩ	-7952
▁ፖሊሲዎች	-7953
▁ይከሰ	-7954
▁የሆኑትን	-7955
▁ዳሳሽ	-7956
▁እንዲያስ	-7957
▁ቀዝቃዛ	-7958
ውለው	-7959
▁ዋር	-7960
▁ተጠብ	-7961
▁ስብእና	-7962
▁ድምፃ	-7963
▁አነሳ	-7964
ም፣	-7965
▁ትይዩ	-7966
▁በቴሌቪዥን	-7967
▁ለቡ	-7968
▁a	-7969
▁ሀሙስ	-7970
ጎብኘት	-7971
▁በማሰብ	-7972
▁ከአለም	-7973
ሚስ	-7974
▁አንዲት	-7975
▁ተከፍ	-7976
▁አብዛኞቹ	-7977
ኔዝ	-7978
ግሬ	-7979
▁ይውላሉ	-7980
ምብሪጅ	-7981
▁የጭንቀት	-7982
ate	-7983
ሌቲክስ	-7984
▁መርህ	-7985
ለቀቁ	-7986
ዙን	-7987
▁ይረዳ	-7988
ዝማዛ	-7989
▁ቴይለር	-7990
ጠናቀቀው	-7991
ስታት	-7992
▁ይረዳል	-7993
▁።በ	-7994
▁ሮቢን	-7995
▁ቧንቧዎች	-7996
▁ከገ	-7997
▁ማት	-7998
▁ማስተር	-7999
▁የሚመነ	-8000
▁አለብን	-8001
▁ማነቃ	-8002
▁ለዚህም	-8003
▁በእስር	-8004
▁ፎቶግራ	-8005
▁ያገለግላሉ	-8006
ከዚህ	-8007
▁በጨ	-8008
▁በኡ	-8009
▁ተሸካሚ	-8010
ሹራንስ	-8011
▁ተስተካክሏል	-8012
▁ውዝግብ	-8013
▁ይፈልጋ	-8014
▁በማያ	-8015
ዲክ	-8016
▁ማእቀ	-8017
▁ጥላቻ	-8018
▁ለቤተ	-8019
▁አስተዳዳሪዎች	-8020
).	-8021
▁አለን	-8022
▁ዝግመተ	-8023
ቀመጠ	-8024
ባበሩት	-8025
▁የጉልበት	-8026
ነርጂ	-8027
▁በመጀመሪያዎቹ	-8028
▁ጅማ	-8029
▁ጠቅሷል	-8030
RA	-8031
ቴና	-8032
▁ለዘ	-8033
▁ይደግፋል	-8034
ዌን	-8035
▁1939	-8036
▁የዋለው	-8037
▁የዘመ	-8038
ራለን	-8039
ታወቀው	-8040
አክ	-8041
ተንበይ	-8042
ወድቅ	-8043
ተገበሩ	-8044
▁ገንዳ	-8045
ኤንኤን	-8046
▁k	-8047
▁ጠመዝማዛ	-8048
ካራ	-8049
▁ጀብ	-8050
▁መርከቦችን	-8051
▁ሰይ	-8052
ትመት	-8053
▁በኢኮኖሚ	-8054
▁የጎርፍ	-8055
▁በፓሪስ	-8056
▁ጄፍ	-8057
▁ቻናል	-8058
▁ቁርጠኝነት	-8059
▁ዘረ	-8060
ቁን	-8061
▁ጃንዋሪ	-8062
▁የተሸ	-8063
▁ጥንድ	-8064
▁አመለካከቶች	-8065
▁ምርመራዎች	-8066
▁ሊውል	-8067
▁ጊል	-8068
ንላንድ	-8069
▁ሁለተኛውን	-8070
▁አስርተ	-8071
▁ተሸል	-8072
▁የሚገባ	-8073
ዳል።	-8074
ሰናል	-8075
▁ለፓ	-8076
▁ለአለም	-8077
▁ስሙ	-8078
ስኮንሲን	-8079
29	-8080
መሳሰል	-8081
▁ድርጅቱ	-8082
▁ትውስታ	-8083
▁ኦፕሬሽን	-8084
▁ደርሶበታል	-8085
▁ለማቆየት	-8086
▁ይደር	-8087
ገደሉ	-8088
▁ክሪስቲ	-8089
▁ከፒ	-8090
up	-8091
ይቱ	-8092
▁የወይን	-8093
ዘዝ	-8094
ሸፈን	-8095
▁ተከፈተ	-8096
ነጢ	-8097
▁ሶፍትዌር	-8098
▁አሰራ	-8099
ታተነ	-8100
▁በመደበኛነት	-8101
▁ሙር	-8102
▁ዝቅ	-8103
▁የተበ	-8104
▁በብሪታንያ	-8105
▁ባንኮች	-8106
ነጢሳዊ	-8107
▁የሚሰጥ	-8108
▁የመጠባበቂያ	-8109
ሌክስ	-8110
▁በሺዎች	-8111
▁ቁርጥራጮች	-8112
▁ትናንት	-8113
▁de	-8114
▁ልጆችን	-8115
▁ከዋናው	-8116
▁የወንድ	-8117
ቶማን	-8118
▁በህክምና	-8119
ክርስቲያኑ	-8120
ዎርዝ	-8121
▁የተለያየ	-8122
▁በተግባር	-8123
▁የጉዳይ	-8124
▁ምረቃ	-8125
▁ካላቸው	-8126
▁በመጠ	-8127
▁ምንድ	-8128
▁አቀራረቦች	-8129
▁የሚያመለክ	-8130
ክሰ	-8131
▁መተማመን	-8132
uc	-8133
ሸት	-8134
198	-8135
▁በአስር	-8136
▁ክር	-8137
▁ጎራ	-8138
77	-8139
▁ኋ	-8140
▁በይነ	-8141
ፈጠረው	-8142
▁ማገ	-8143
ባረር	-8144
▁ሲደርስ	-8145
▁ህጉ	-8146
ሽታው	-8147
▁ሂደቱ	-8148
ልማሳ	-8149
▁የግብረ	-8150
▁የተቀረፁ	-8151
▁ገንብ	-8152
▁አደረገው	-8153
▁የብዙ	-8154
▁ምናባዊ	-8155
ላንታ	-8156
▁ልኬት	-8157
▁ራግቢ	-8158
ቃጠል	-8159
▁ሀረግ	-8160
▁1962	-8161
▁መጥለቅለቅ	-8162
▁በመቀነስ	-8163
ማሊያ	-8164
ክክር	-8165
▁መርማሪ	-8166
▁የሮያል	-8167
▁የቀን	-8168
▁ማምረት	-8169
▁የልደት	-8170
ደስ	-8171
▁ለማከናወን	-8172
▁ዘንግ	-8173
▁ሲያስ	-8174
▁የፕሬዚ	-8175
▁ሚድ	-8176
▁ያገለገሉ	-8177
▁እንዳሉ	-8178
33	-8179
▁ይባ	-8180
▁በመው	-8181
▁አሽከርካሪዎች	-8182
ist	-8183
▁የቀለም	-8184
▁ተካት	-8185
▁በተወሰኑ	-8186
▁ቀልጣ	-8187
▁የሰጠ	-8188
▁በእሳት	-8189
▁በአግባቡ	-8190
▁በማግ	-8191
▁ሊዮ	-8192
▁ጊዮር	-8193
ሰጣቸው	-8194
▁ኦፔራ	-8195
▁ውፍረት	-8196
▁ክራ	-8197
ሪገን	-8198
▁የተለዩ	-8199
▁አድርገዋል።	-8200
▁ወል	-8201
2012	-8202
▁ለመግደል	-8203
▁በነፃ	-8204
▁ጊዜን	-8205
▁ጋለሪ	-8206
▁መግነጢሳዊ	-8207
ሮይ	-8208
▁በይነገ	-8209
የመው	-8210
▁ቆንጆ	-8211
ዛመድ	-8212
▁ለጊዜው	-8213
64	-8214
▁1963	-8215
▁የተደራጀ	-8216
▁ዱቄት	-8217
ጦት	-8218
▁ይነ	-8219
▁ያሰ	-8220
▁የማያቋርጥ	-8221
ሜራ	-8222
▁የኬሚካል	-8223
▁ይዛመ	-8224
▁ይገለ	-8225
▁አልጋ	-8226
▁44	-8227
▁ሜዳዎች	-8228
ክትሬት	-8229
▁በመታ	-8230
▁የባለሙያ	-8231
ብዛም	-8232
ዝቦል	-8233
▁በሎስ	-8234
ፈልጋቸው	-8235
▁አስተዳደራዊ	-8236
▁በማር	-8237
▁ብክለት	-8238
▁ተመልክቷል	-8239
▁ታናሽ	-8240
▁መጠነኛ	-8241
ኳል	-8242
▁የቡድ	-8243
▁መቻ	-8244
ኬል	-8245
▁ጣፋጭ	-8246
▁እንግሊዝኛ	-8247
ቆጣጠሩ	-8248
▁ተገልጿል።	-8249
ቶክ	-8250
ቀች	-8251
▁ትልልቅ	-8252
▁ዳግማዊ	-8253
▁ንጉሳዊ	-8254
▁ዳርቻው	-8255
ይዘሮ	-8256
▁ከቢ	-8257
ገኘም	-8258
▁እንቁራሪ	-8259
▁የቆዳ	-8260
▁የሜክሲኮ	-8261
▁ህንፃው	-8262
ማኒያ	-8263
▁እድሎችን	-8264
▁ድጋ	-8265
▁ቀልጣፋ	-8266
▁የህወሀት	-8267
ንጋፖር	-8268
▁ፕሮቲ	-8269
▁ፊሊፕ	-8270
▁ይን	-8271
▁አትሌቲክስ	-8272
▁አክብ	-8273
▁ጥቅል	-8274
▁አቀፉ	-8275
ዘዙ	-8276
ንታሪዮ	-8277
▁ጫካ	-8278
▁ኤሪክ	-8279
▁1918	-8280
▁ኢንች	-8281
▁ለሆኑ	-8282
▁መዛባት	-8283
▁ውበት	-8284
▁(20	-8285
ማኒ	-8286
▁ይነገ	-8287
▁ጎብኝ	-8288
ጥሩ	-8289
▁ሉዊ	-8290
▁ዋሻ	-8291
ድድሩ	-8292
▁ትኩስ	-8293
▁ይወክላል	-8294
▁አውቶማቲክ	-8295
▁ተረ	-8296
▁ኢትዮጵያን	-8297
ሊውድ	-8298
▁ከሰው	-8299
ዳቸውን	-8300
▁በእን	-8301
▁ለማሟላት	-8302
▁ሙዚቀኞች	-8303
ኳስ	-8304
▁ሌን	-8305
▁የፅ	-8306
ሀር	-8307
▁የአይን	-8308
AA	-8309
ማቾች	-8310
▁ከኩ	-8311
▁ሊኖረው	-8312
78	-8313
▁የድጋፍ	-8314
ሴምበር	-8315
ንቅላ	-8316
▁65	-8317
▁ላቦራቶሪ	-8318
▁ብርሀ	-8319
▁ማሻሻል	-8320
▁ኮንቬን	-8321
▁በፈቃ	-8322
▁ናይት	-8323
▁ተዘርዝ	-8324
▁ይጋ	-8325
▁ጠቁመዋል	-8326
ያቸውን	-8327
▁በተራ	-8328
▁ኒውስ	-8329
▁ያቀረበ	-8330
ኝታ	-8331
ዛመዱ	-8332
▁ራእይ	-8333
▁የሚችለው	-8334
▁ከምር	-8335
▁ለማውጣት	-8336
▁የሚጠቀሙ	-8337
▁ሰማይ	-8338
▁ተወያ	-8339
ጠለጠ	-8340
▁አደራ	-8341
ጆችን	-8342
if	-8343
▁የተቀበ	-8344
ኖረውም	-8345
▁እምብዛም	-8346
ነሲ	-8347
▁የመቋቋም	-8348
ታሎች	-8349
▁አንድሪው	-8350
▁49	-8351
▁የአውሮፕላን	-8352
▁የቺ	-8353
▁ሲፈ	-8354
▁ወሲባዊ	-8355
አም	-8356
ሚክስ	-8357
ፈረን	-8358
▁ድንቅ	-8359
▁በፌዴራል	-8360
▁ውሳኔዎች	-8361
ጥበት	-8362
▁የተዛ	-8363
▁ጋላ	-8364
▁ከቤ	-8365
ፍጨ	-8366
ኒሽ	-8367
ዙሪ	-8368
▁1948	-8369
▁መርቷል	-8370
ቢክ	-8371
ዋክብት	-8372
▁የተሰጡ	-8373
ገለጠ	-8374
▁አይነቱን	-8375
▁የሚከናወነው	-8376
▁ዘርፎች	-8377
▁ማቅረ	-8378
▁እቅዶች	-8379
ፍያ	-8380
▁መቼ	-8381
ሌስ	-8382
▁እቃዎችን	-8383
▁ካሊ	-8384
▁1946	-8385
▁ማክስ	-8386
▁በእርግጠኝነት	-8387
▁55	-8388
▁የብርሀን	-8389
▁ገበያዎች	-8390
▁ሀላፊዎች	-8391
▁ከነበረው	-8392
ዎት	-8393
▁የገለፁት	-8394
▁ለመግዛት	-8395
ጣን	-8396
▁ወንበር	-8397
▁ወንበዴ	-8398
▁ዩሮ	-8399
▁አስተያየቶች	-8400
▁39	-8401
ጀክቱ	-8402
ናቃ	-8403
ቬስት	-8404
▁በህይወ	-8405
▁ኮርስ	-8406
▁በክፍል	-8407
▁እናቀር	-8408
▁ትምህርቶች	-8409
ID	-8410
▁እንች	-8411
ቦሮ	-8412
ce	-8413
▁ጨርቅ	-8414
▁መሄድ	-8415
▁መቁ	-8416
▁የቱርክ	-8417
▁ቶር	-8418
▁የካቶሊክ	-8419
▁ሽክርክሪት	-8420
መለከ	-8421
▁አሳታ	-8422
▁ቡናማ	-8423
▁ግር	-8424
▁ተነግ	-8425
▁ይጠብ	-8426
▁ቤታቸው	-8427
ያውቅ	-8428
▁ሄክታር	-8429
▁አፈር	-8430
ነዚያ	-8431
▁ዴሞክራቲክ	-8432
ረረ	-8433
የርስ	-8434
▁ሳራ	-8435
▁ፅሁፉ	-8436
▁በታይ	-8437
▁ማምረቻ	-8438
▁ቅርፀት	-8439
▁ባለመሆኑ	-8440
▁በኤሌክትሮ	-8441
▁ምሽግ	-8442
▁በቁጥር	-8443
▁ተለያ	-8444
▁ነባር	-8445
ሹን	-8446
ዊች	-8447
▁ጂም	-8448
▁ቦታውን	-8449
▁የስለላ	-8450
ንዶኔዥያ	-8451
▁ከዘ	-8452
▁ሚሊየን	-8453
ቢኤስ	-8454
ወሰደ	-8455
▁የጎደለው	-8456
▁ቀድ	-8457
ጠፉ	-8458
▁የኦር	-8459
▁ተጋላጭነት	-8460
ንቻ	-8461
ደዱ	-8462
▁መንፈሳዊ	-8463
ኑፋ	-8464
▁ግብረመልስ	-8465
▁ድርጣቢያ	-8466
▁ተጋብ	-8467
▁በመባልም	-8468
▁በተሳ	-8469
▁ያወ	-8470
ተነ	-8471
▁በጊ	-8472
▁ዘል	-8473
ፅህና	-8474
ውነተኛ	-8475
▁ክፉ	-8476
▁ተመርጧል	-8477
ሌቶች	-8478
▁በቀለ	-8479
▁የእንፋሎት	-8480
▁ዛፎች	-8481
▁አጀንዳ	-8482
37	-8483
ቀመጡ	-8484
▁ኩርባ	-8485
▁ወዳ	-8486
▁የተከለ	-8487
▁ካርል	-8488
ኮቭ	-8489
▁ያደረ	-8490
▁የትብብር	-8491
▁የዲዛይን	-8492
ደቡ	-8493
▁ሻር	-8494
ማውዝ	-8495
▁የባህሪ	-8496
▁1961	-8497
▁ጥርጣሬ	-8498
▁ስምን	-8499
▁ይልቁ	-8500
▁ባይሆንም	-8501
▁ላንካ	-8502
▁ከተደረገ	-8503
ገፅ	-8504
▁የከተማዋ	-8505
▁የከፋ	-8506
▁ቄስ	-8507
▁በሀገሪቱ	-8508
66	-8509
▁ያስታው	-8510
▁ማሀበር	-8511
▁እንደሌለ	-8512
ወጣት	-8513
▁ለኢትዮጵያ	-8514
▁ፖለቲከኛ	-8515
▁አርሶ	-8516
ኖርበት	-8517
ንና	-8518
▁ተግባራትን	-8519
▁አንደኛ	-8520
▁ይሞክራል	-8521
ስፓ	-8522
ጋዮች	-8523
▁ተዋጊዎች	-8524
▁ሂሳብ	-8525
▁እርካታ	-8526
▁ሙከራዎችን	-8527
▁የአባ	-8528
▁ወረቀቶች	-8529
▁ቴክኒኮችን	-8530
▁ለሚያ	-8531
ለወጠ	-8532
▁ደርሰዋል	-8533
▁ኢንጂነሪንግ	-8534
▁ምርቶችን	-8535
▁ጋሪ	-8536
ሸራታች	-8537
▁ከበርካታ	-8538
▁በቀኝ	-8539
▁(5	-8540
MS	-8541
▁ፊልሙን	-8542
▁ከተመ	-8543
▁በአጭሩ	-8544
▁መጠባበ	-8545
ስታወቂያ	-8546
▁በስር	-8547
▁አጫ	-8548
▁ማወቂያ	-8549
▁ገዳ	-8550
▁ኢንዱስትሪዎች	-8551
ጉሳዊ	-8552
▁ላው	-8553
ታየው	-8554
▁መዘግየት	-8555
▁ሌተናል	-8556
▁የአሜሪካን	-8557
▁ተኳ	-8558
▁ቆዳ	-8559
▁ትእይንቶች	-8560
ምቤ	-8561
▁ይከተላል	-8562
ቡእ	-8563
ኑፋክቸ	-8564
▁ጥራዝ	-8565
ስቲንግ	-8566
▁ጨለማ	-8567
▁የሊግ	-8568
ጣቱን	-8569
▁ከአን	-8570
ወስዱ	-8571
▁በሰጡት	-8572
▁ተመልሷል	-8573
ገኘውን	-8574
▁የፖሊሲ	-8575
▁ጠበቆች	-8576
ሚልተን	-8577
▁ፍጆታ	-8578
የቀ	-8579
▁ጄን	-8580
▁አገላለፅ	-8581
ከቡ	-8582
ጠይቅ	-8583
ጀርባው	-8584
▁በእግር	-8585
▁ስታን	-8586
▁ተገናኘ	-8587
▁1956	-8588
ሚኖ	-8589
ንተርኔት	-8590
▁ተጣብ	-8591
ፈልገውን	-8592
ካሚዎች	-8593
ሌሽን	-8594
▁አመፀ	-8595
▁በወታደራዊ	-8596
▁ሴናተር	-8597
▁መናገር	-8598
ም፤	-8599
▁አጋሮች	-8600
▁የሚጠራ	-8601
▁ስድስተኛ	-8602
ውጣጡ	-8603
ዋሳ	-8604
▁መቃብር	-8605
ast	-8606
▁ማግኘ	-8607
ሟሉ	-8608
BC	-8609
▁ከመን	-8610
▁ማመልከቻ	-8611
▁የሶቪዬት	-8612
▁ብጥብ	-8613
▁አንባቢ	-8614
▁የፌደራል	-8615
▁ወጥቶ	-8616
▁የምና	-8617
▁መንደሮች	-8618
▁1947	-8619
▁ኦርኬስትራ	-8620
▁እንደማይችል	-8621
▁በሙዚቃ	-8622
▁እሴ	-8623
▁ጥረ	-8624
ES	-8625
▁በቺካጎ	-8626
68	-8627
▁ዘግቧል።	-8628
▁የንግግር	-8629
ስልጣን	-8630
▁በተቻለ	-8631
ጫወቻ	-8632
▁ጠላ	-8633
ብራራት	-8634
ራጃ	-8635
▁የንፋስ	-8636
ቃተ	-8637
▁ስቷርት	-8638
ማኝ	-8639
ሴክስ	-8640
▁ስትል	-8641
▁1958	-8642
▁ድንጋዮች	-8643
▁የትራፊክ	-8644
▁ሜይ	-8645
▁ደብሊው	-8646
▁ከተመረ	-8647
▁ጠፍቷል	-8648
▁የምስል	-8649
▁ነዉ	-8650
▁ስርአቱን	-8651
▁እየተደረገ	-8652
ክንዮ	-8653
▁በፖሊስ	-8654
▁የጊ	-8655
ሊፕ	-8656
▁(1)	-8657
ረዳው	-8658
▁ማስገባት	-8659
▁መስዋእት	-8660
▁የሽብር	-8661
▁ሸቀ	-8662
▁የንድፈ	-8663
ጂንግ	-8664
▁ቀለበት	-8665
▁ማለፍ	-8666
ፍራም	-8667
▁በደረ	-8668
ስተዋል	-8669
▁የቀረበውን	-8670
▁ኦርጋኒክ	-8671
▁ሰነዶች	-8672
▁ያደ	-8673
▁በመስራት	-8674
▁ሊሚት	-8675
▁ተጨም	-8676
ደንጋጭ	-8677
ቻችንን	-8678
▁የገቢ	-8679
▁ዲስ	-8680
▁እድሎች	-8681
▁ቫል	-8682
ዘዋዋ	-8683
▁ሂዩ	-8684
▁የሚውሉ	-8685
ላጅ	-8686
ነትና	-8687
▁የድርጊት	-8688
▁አንፃራዊ	-8689
▁አየ	-8690
ጄኔራል	-8691
ኖራቸውን	-8692
▁መፅሄቶች	-8693
▁የካሊፎርኒያ	-8694
▁የሚደርሱ	-8695
ነቁ	-8696
ኑፋክቸሪንግ	-8697
▁ቁመት	-8698
▁የአፈር	-8699
▁በድምፅ	-8700
ቃን	-8701
▁በቅድመ	-8702
▁ዲፓርትመንት	-8703
ጠበቀው	-8704
▁ዲን	-8705
▁የምህንድስና	-8706
ፖሎጂ	-8707
▁ነር	-8708
▁የካርቦን	-8709
▁ተንት	-8710
▁በደረጃ	-8711
▁እንመ	-8712
▁ታውቋል	-8713
ፖሬት	-8714
▁ከጋ	-8715
ፕሊን	-8716
▁ኮሎምቢያ	-8717
▁ችለዋል	-8718
ፌዴሬሽን	-8719
ገነዘቡ	-8720
ዳለች	-8721
▁ከሩ	-8722
▁ተከታታዮቹ	-8723
▁ተለይቷል	-8724
ቃቂ	-8725
▁)	-8726
▁መመሪያዎች	-8727
▁ተቆጣጠረ	-8728
▁ካቢኔ	-8729
▁ፊርማ	-8730
▁ወኪሎች	-8731
▁ተናግራለች።	-8732
▁በመቶዎች	-8733
▁።የ	-8734
▁ኦፕን	-8735
▁ኢህአዴግ	-8736
▁አረብ	-8737
▁በሰሜናዊ	-8738
▁ዝንጀ	-8739
ጣቢያው	-8740
▁ጳጳሳት	-8741
▁42	-8742
▁የተሸፈኑ	-8743
▁አክራሪ	-8744
▁ሁለቱንም	-8745
▁ሊሚትድ	-8746
▁ተዋህ	-8747
ናር	-8748
ቾቹ	-8749
▁ግብፅ	-8750
▁አይመስ	-8751
▁የፍሳሽ	-8752
ብራት	-8753
▁ታማኝነት	-8754
▁በቡድኑ	-8755
▁ተዋንያን	-8756
▁ካራ	-8757
በሙ	-8758
▁የሚያሳዩ	-8759
▁የግንዛቤ	-8760
የሞች	-8761
▁አገልጋይ	-8762
▁የዎ	-8763
▁ያነሳ	-8764
▁ማቀዝቀዣ	-8765
▁Ch	-8766
▁በዘመናዊው	-8767
▁የጀመረ	-8768
▁ሞክሯል	-8769
artic	-8770
▁የግለሰብ	-8771
ታስ	-8772
▁የሚገልፅ	-8773
ውቅ	-8774
▁ከአስር	-8775
▁ቱቦ	-8776
▁ሀይድሮ	-8777
79	-8778
ፍትሀዊ	-8779
ሳቤጥ	-8780
ሊንግተን	-8781
▁ማጠና	-8782
▁ስቲቭ	-8783
▁ሯ	-8784
▁ህዳሴ	-8785
▁ስህተቶች	-8786
▁ተሳትፈዋል	-8787
▁*	-8788
ትሪክስ	-8789
▁ይገለፃ	-8790
▁ገፆች	-8791
ቪዬሽን	-8792
▁ፕሮቲን	-8793
▁ዉድ	-8794
ላዴል	-8795
▁ስትራቴጂካዊ	-8796
▁ሆፕ	-8797
▁አምባገነ	-8798
▁ይበልጣ	-8799
እሱ	-8800
ሎቹን	-8801
ስቴት	-8802
ላከ	-8803
▁መጠቀ	-8804
▁ድጎ	-8805
ክስጅን	-8806
▁ላለው	-8807
▁እናቀርባለን	-8808
▁ቱር	-8809
ሸዋ	-8810
▁ግሩፕ	-8811
▁ግሮ	-8812
ity	-8813
▁የተጫወተ	-8814
▁እንደነዚህ	-8815
▁ኢንዴ	-8816
▁ሲኒማ	-8817
▁አንድም	-8818
▁እንዲያገኙ	-8819
አሜሪካውያን	-8820
▁የምልክት	-8821
▁ሰብስ	-8822
▁ተለይተው	-8823
▁የተዘጋጁ	-8824
▁የተሳተፉ	-8825
▁ጀመረ።	-8826
▁አፕሊኬሽኖች	-8827
ሲኖ	-8828
▁የሚከሰተው	-8829
ቲስቲካዊ	-8830
▁የተደበ	-8831
ጪው	-8832
▁የእውቀት	-8833
PS	-8834
▁የካፒ	-8835
▁የመታሰቢያ	-8836
▁በእንግሊዝኛ	-8837
ሚድ	-8838
▁አብራር	-8839
▁ያተኮሩ	-8840
100	-8841
▁ሚለር	-8842
ዩብ	-8843
▁ወንጀሎች	-8844
ምፖ	-8845
▁1959	-8846
▁ውድድሩ	-8847
ang	-8848
ዋሀ	-8849
▁ምልከታ	-8850
▁ለአካ	-8851
▁ተለቀቀ	-8852
▁ከዛ	-8853
▁ኒክ	-8854
av	-8855
ጣለች	-8856
ቶቻችን	-8857
▁መተላለፊያ	-8858
▁አስመዝግቧል	-8859
▁የተስፋፋ	-8860
ሎና	-8861
መደብ	-8862
▁ማግኛ	-8863
▁ለማጥናት	-8864
ርቃ	-8865
▁የደረጃ	-8866
▁ለእሱ	-8867
▁የሚፈልጉ	-8868
67	-8869
▁ለማጠናከር	-8870
▁የላቸውም	-8871
▁ቀበቶ	-8872
ከበ	-8873
ባለች	-8874
▁CNN	-8875
▁ቁሳቁሶችን	-8876
▁ለመምራት	-8877
ሞታል	-8878
▁አንደርሰን	-8879
ive	-8880
ሚናል	-8881
ላዴልፊያ	-8882
ስተሮች	-8883
▁የተካተቱ	-8884
▁የሰዎች	-8885
ነሰ	-8886
▁ሰአሊ	-8887
▁ከቅ	-8888
ራዊቱ	-8889
ናቀ	-8890
እስ	-8891
▁ማል	-8892
▁ህልውና	-8893
▁ሜካኒካዊ	-8894
CC	-8895
▁እንደሚገኝ	-8896
▁በዩኒቨርሲቲ	-8897
▁አምድ	-8898
▁መገኘት	-8899
▁መወሰ	-8900
▁ኢንተርፕራይ	-8901
▁አረቢያ	-8902
▁የጥበቃ	-8903
▁ኤዲ	-8904
▁ስጦታ	-8905
▁ላለመ	-8906
ንፃው	-8907
ዮዋ	-8908
ሎታል	-8909
▁ሰሪ	-8910
▁አደጋን	-8911
ትርፍ	-8912
ለኞች	-8913
▁ሻምፒዮ	-8914
▁ለመፈለግ	-8915
▁ለመለካት	-8916
▁ደንበኞች	-8917
ሊንተን	-8918
▁ይከራከራ	-8919
ዦች	-8920
▁የሆድ	-8921
▁95	-8922
ኬሚ	-8923
ንስታ	-8924
ረጋገጡ	-8925
▁ኮንሰር	-8926
ዳደረ	-8927
▁ኤምባሲ	-8928
▁ይታወሳል።	-8929
▁ማጉያ	-8930
▁የተባለውን	-8931
▁የሚባል	-8932
ልዎ	-8933
▁ለመለወጥ	-8934
ሲሲፒ	-8935
▁በደም	-8936
ይሮ	-8937
▁የፈለ	-8938
▁የተውጣጡ	-8939
▁ስምምነቶች	-8940
▁መገምገም	-8941
▁ሳለ	-8942
ጠባ	-8943
▁ለድ	-8944
ጭነት	-8945
ll	-8946
ከርስ	-8947
▁ቅናሽ	-8948
▁ተግዳሮቶች	-8949
በካ	-8950
ካኝ	-8951
ሰተኛ	-8952
▁ካላ	-8953
und	-8954
▁ወስዶ	-8955
▁ለመሄድ	-8956
መንግ	-8957
▁እንቅፋት	-8958
ፕቶ	-8959
▁ግድግዳዎች	-8960
▁የወረ	-8961
ከልከል	-8962
▁ለድር	-8963
ዝያ	-8964
▁ለስራ	-8965
▁መቀመጫዎች	-8966
የውን	-8967
▁ዶናልድ	-8968
▁ተቋር	-8969
▁ይሸፍ	-8970
▁ኮንሰርት	-8971
▁ባለሀብቶች	-8972
▁ለማስተናገድ	-8973
ሆማ	-8974
ነሳሳት	-8975
▁ወለዶች	-8976
በተለ	-8977
▁ወይዘሮ	-8978
▁መጥፋት	-8979
ine	-8980
▁እርጥብ	-8981
▁ተክሎች	-8982
▁ሴቶችን	-8983
▁ወንድሙ	-8984
63	-8985
ንታኪ	-8986
▁ነበር፣	-8987
▁ጠረ	-8988
▁ሌሊት	-8989
▁ፈለገ	-8990
▁ተቃው	-8991
ፈፀመው	-8992
▁አለበት።	-8993
ሞራ	-8994
▁ረቡእ	-8995
▁የባዮ	-8996
ell	-8997
▁ክትባት	-8998
▁ማቆም	-8999
▁መመለ	-9000
▁የጎሳ	-9001
▁የሞቱ	-9002
▁ቴክኖሎጂዎች	-9003
▁ቁራጭ	-9004
ራልድ	-9005
▁179	-9006
▁ይጓዛል	-9007
▁እጢ	-9008
▁አርማ	-9009
▁እየታ	-9010
-8	-9011
ሽከርካሪ	-9012
ላይዜሽን	-9013
▁ይከናወ	-9014
▁በቀጣይ	-9015
▁በልጅ	-9016
ማለን	-9017
▁የሚስማማ	-9018
ቆጠረ	-9019
▁ፀጉር	-9020
48	-9021
▁አመክንዮ	-9022
▁ተቆጥ	-9023
▁መሬቶች	-9024
▁የእለት	-9025
▁ለማክበር	-9026
▁ይልቁንም	-9027
▁ህትመቶች	-9028
PA	-9029
ክቴሪያ	-9030
▁ሲነፃፀሩ	-9031
▁የተከፋፈሉ	-9032
▁43	-9033
▁ከዳ	-9034
ፓርታማ	-9035
▁ለመቀጠል	-9036
▁ስፖንሰር	-9037
ass	-9038
▁ተከታዮች	-9039
▁ከቶ	-9040
▁የአውታረ	-9041
▁የጋዜ	-9042
ቤቶች	-9043
▁partic	-9044
▁ዣን	-9045
▁አጥብቆ	-9046
▁አደረገች	-9047
ፅሀፉ	-9048
69	-9049
▁የጭንቅላት	-9050
▁ሁኔታው	-9051
▁ሀይሉ	-9052
▁በዜ	-9053
CAA	-9054
▁ዘፈኖችን	-9055
▁አድናቂ	-9056
▁መፈለግ	-9057
▁ፍል	-9058
▁ሀይለ	-9059
ER	-9060
▁አግድም	-9061
ልጋሪያ	-9062
▁መንግስትን	-9063
▁particip	-9064
▁አገናኝ	-9065
▁በቋሚነት	-9066
ሰበው	-9067
-200	-9068
ጠናከረ	-9069
ዋው	-9070
▁ይቀ	-9071
▁በቀድሞው	-9072
▁$	-9073
▁አይታወቅም	-9074
▁መሞ	-9075
ዝቅተኛ	-9076
ቨርስቲ	-9077
▁የዋሉ	-9078
▁ኦዲ	-9079
▁ፍቃ	-9080
ፍር	-9081
ዘዋወ	-9082
▁አሸናፊነት	-9083
▁ለአን	-9084
▁ፈረ	-9085
▁አቀራረብን	-9086
ይቶችን	-9087
▁participated	-9088
▁1952	-9089
▁የእግረኛ	-9090
▁ማማ	-9091
-9	-9092
▁የጥርስ	-9093
▁እንደሚያመለክተው	-9094
▁ተሻ	-9095
ክላሆማ	-9096
▁ብሩህ	-9097
▁ለማጠናቀቅ	-9098
▁ለመተካት	-9099
▁የመማሪያ	-9100
▁ትረካ	-9101
▁የዝናብ	-9102
ud	-9103
ልበርን	-9104
▁ልዩነቶችን	-9105
▁አብራሪ	-9106
ርቻ	-9107
▁ዝንባሌ	-9108
▁አይቻል	-9109
▁ጓደኛው	-9110
▁ትግበራ	-9111
ተናንት	-9112
▁የሚሉት	-9113
ገለል	-9114
▁ለመሰብሰብ	-9115
በረታታት	-9116
▁ይታሰ	-9117
▁ለመገናኘት	-9118
▁ገብተዋል	-9119
▁ሲባል	-9120
▁እንዲያደርጉ	-9121
▁ከፊት	-9122
ላለሁ	-9123
▁ሊኖር	-9124
▁የጨረር	-9125
▁አስማ	-9126
ጎዱ	-9127
....	-9128
▁አደሮች	-9129
▁ማኒ	-9130
▁ጦርነቶች	-9131
▁የገባ	-9132
ሎቫ	-9133
ill	-9134
▁አጠቃቀምን	-9135
▁በአራተኛው	-9136
▁የነበሩትን	-9137
መጃ	-9138
▁መለስ	-9139
▁ይኖሩ	-9140
▁ንስ	-9141
▁በእነሱ	-9142
▁መቀበል	-9143
▁ሙያዊ	-9144
▁ይጠቅ	-9145
▁ከዩናይትድ	-9146
▁የኦሮሞ	-9147
The	-9148
▁ፖፕ	-9149
ክፍል	-9150
ገጥ	-9151
▁ለመጨመር	-9152
▁ይሆን	-9153
▁መብቶችን	-9154
ከሰቱት	-9155
ነፃፀር	-9156
▁ለመውጣት	-9157
ንግረሱ	-9158
ደተኞች	-9159
ባቸዋል።	-9160
▁የአረብ	-9161
▁ብሪጌድ	-9162
ህተት	-9163
ናውያን	-9164
▁ተወዳጅነት	-9165
▁1949	-9166
▁ወታደር	-9167
ፀደቀ	-9168
▁ጠጅ	-9169
▁ቦብ	-9170
ነስተኛ	-9171
▁ካምፓስ	-9172
▁ተመድቧል	-9173
▁ያነሱ	-9174
ለድ	-9175
ጠባበቅ	-9176
▁የግብፅ	-9177
▁ተሰጥኦ	-9178
▁1957	-9179
▁ዘግቧል	-9180
▁ገብረ	-9181
▁በተናጥል	-9182
▁ስሜታዊነት	-9183
▁አቀባበል	-9184
▁ሲቪል	-9185
TV	-9186
ዳፊ	-9187
▁አቤቱታ	-9188
▁ሜዲ	-9189
▁ሊኖራቸው	-9190
▁ለሴቶች	-9191
▁ምስጢራዊ	-9192
ፈሩ	-9193
▁ሲዲ	-9194
▁የሚመለከቱ	-9195
ሪስት	-9196
▁(2)	-9197
▁ካሜራ	-9198
▁የማግኘት	-9199
▁የሚሄድ	-9200
ጡንቻ	-9201
▁የዘፈቀደ	-9202
ቬል	-9203
▁የሚገኙትን	-9204
▁ተከፋፍ	-9205
▁ይታሰባል	-9206
▁stated	-9207
▁በአመ	-9208
ዬት	-9209
▁ሏ	-9210
▁ለሪ	-9211
▁ኢቫ	-9212
▁እየሞ	-9213
▁ቦል	-9214
ጠራሉ	-9215
ከሙ	-9216
▁1955	-9217
ኮሞ	-9218
ሀውስ	-9219
▁የቦምብ	-9220
▁ከሪ	-9221
▁በቃ	-9222
▁የተከፋፈለ	-9223
▁ፋብሪካዎች	-9224
ከባድ	-9225
▁የመከላከል	-9226
ታሉ።	-9227
▁ጊታር	-9228
▁ታዳሚዎች	-9229
▁ጥሬ	-9230
ትረፍ	-9231
▁የሽግግር	-9232
▁የሚነ	-9233
ሞል	-9234
ዚዮሎጂ	-9235
▁ሳሙኤል	-9236
ህበረሰቡ	-9237
▁ማርሻል	-9238
ኮራኩ	-9239
▁አመላ	-9240
▁ጀመረች	-9241
▁እነዚህም	-9242
▁በሮች	-9243
▁የሪፐብሊካን	-9244
▁ገልጧል	-9245
▁የሚገልፁ	-9246
▁የተሰራው	-9247
▁አክብሮት	-9248
ous	-9249
▁በኮን	-9250
▁በመል	-9251
▁ግራጫ	-9252
▁ለምርጥ	-9253
▁ኮንቬንሽን	-9254
▁ባልሆኑ	-9255
▁በመላ	-9256
▁ገልፆ	-9257
▁ከእሷ	-9258
እል	-9259
ንግዳ	-9260
▁ያገኛሉ	-9261
ገኙም	-9262
▁ከአሁን	-9263
▁እግዚአብሄር	-9264
▁ፍሳሽ	-9265
▁የህዝ	-9266
▁ትቶ	-9267
▁ሌሎችም	-9268
▁ታሪኩ	-9269
▁ኢንግ	-9270
▁ገፁ	-9271
▁ኤጀንሲዎች	-9272
▁በቅርበት	-9273
▁አካባቢን	-9274
ስተርን	-9275
▁ከተጠናቀቀ	-9276
በዝ	-9277
▁መላምት	-9278
▁ወላጅ	-9279
ኗኗ	-9280
▁የሚያንፀባር	-9281
▁አላማው	-9282
▁የተበላሸ	-9283
▁አረጋ	-9284
ኬን	-9285
▁SR	-9286
ፕሲ	-9287
▁ይወስዳል	-9288
▁1953	-9289
አለም	-9290
▁ፎርት	-9291
ፈላጊ	-9292
▁ህግን	-9293
ክስን	-9294
▁በትላልቅ	-9295
▁እያንዳንዱን	-9296
▁ከሆኑ	-9297
▁ፓስፊክ	-9298
▁ዜግነት	-9299
ጨረሻው	-9300
ልስጤም	-9301
▁ርእዮ	-9302
▁የስርአት	-9303
▁የስልክ	-9304
ላህ	-9305
▁በወጣት	-9306
ንቶ	-9307
ጋግ	-9308
▁የቅን	-9309
▁የእያንዳንዱ	-9310
ንግላ	-9311
ገረድ	-9312
▁ተመርጠዋል	-9313
▁መርፌ	-9314
▁ተገነዘበ	-9315
▁የተቃውሞ	-9316
▁የሺ	-9317
76	-9318
▁ምህዳራዊ	-9319
▁መቅ	-9320
▁ሁነታ	-9321
▁አዲሱን	-9322
▁ማሰብ	-9323
ዋጋ	-9324
▁የመካከለኛ	-9325
▁ተሸልሟል	-9326
ቾት	-9327
▁ፍርሀት	-9328
ይጄሪያ	-9329
ይክ	-9330
▁በደል	-9331
▁ለከፍተኛ	-9332
▁ጥይቶች	-9333
መራር	-9334
▁የሚሉ	-9335
▁1919	-9336
ኤሺያ	-9337
▁ኢንቬስት	-9338
▁የአደንዛዥ	-9339
OS	-9340
በርክ	-9341
▁መሀንዲስ	-9342
▁ከኖ	-9343
▁ተሟጋች	-9344
ቮን	-9345
▁አልነበረው	-9346
ሞክሩ	-9347
ሙኒኬሽን	-9348
ዝነስ	-9349
▁የሀሰት	-9350
▁ማሳየት	-9351
▁1951	-9352
▁የተሰበ	-9353
ማርት	-9354
▁ወፎች	-9355
▁ጉድለቶች	-9356
▁አዝ	-9357
▁መከታተል	-9358
▁የመጀመሪያዎቹን	-9359
34	-9360
▁መሀንዲ	-9361
▁መስኮት	-9362
ውሎስ	-9363
▁ጊዮርጊስ	-9364
▁ልጃገረድ	-9365
▁ኢንቨስትመንት	-9366
ሀው	-9367
▁ለመክፈል	-9368
▁ስቲቨን	-9369
ት።	-9370
▁አሳትሟል	-9371
▁የተያያዘ	-9372
ጋስ	-9373
74	-9374
▁ይገነዘ	-9375
▁የሞባይል	-9376
▁አልነበረም።	-9377
▁ባትሪ	-9378
▁ከመንግስት	-9379
▁ሞዴሎችን	-9380
ረናል	-9381
▁ከተመለሰ	-9382
▁ተወስኗል	-9383
▁ደንቦችን	-9384
ርሊ	-9385
ቲከት	-9386
▁በተናጠል	-9387
▁የቀብር	-9388
▁የአቶ	-9389
▁በዘፈቀደ	-9390
:-	-9391
▁ሲንድ	-9392
ውሮፕላኑ	-9393
ዘዣ	-9394
▁ተዘርግቷል	-9395
▁ወንድማማቾች	-9396
▁ቡሽ	-9397
▁ሆኗል።	-9398
ዶስ	-9399
▁ገዢ	-9400
▁ውይይቶች	-9401
▁ካደረገ	-9402
▁እየተካሄደ	-9403
▁1938	-9404
▁ስካ	-9405
ሜኒያ	-9406
▁ብስክሌት	-9407
ሰራው	-9408
ጂናል	-9409
▁በስኮትላንድ	-9410
▁ንብረቶች	-9411
ነታዎች	-9412
▁በብሪቲሽ	-9413
▁ከመጀመሩ	-9414
ባባ	-9415
ight	-9416
▁የጠቅላይ	-9417
LA	-9418
▁ኦርቶዶክስ	-9419
ልጂየም	-9420
▁የተፃፉ	-9421
ራዘም	-9422
▁በቅዱስ	-9423
▁የእኔ	-9424
▁እንዳልተ	-9425
ard	-9426
▁ጡንቻ	-9427
▁ተሀድሶ	-9428
▁መገልገያዎች	-9429
▁ስርአትን	-9430
መታ	-9431
▁ተሰየመ	-9432
ዲያና	-9433
▁ትክክል	-9434
▁የሚደረጉ	-9435
ቋረ	-9436
ነገረ	-9437
▁ቀለሞች	-9438
▁የትን	-9439
▁አደረጃ	-9440
▁ተሽ	-9441
▁ቹ	-9442
▁ይናገራሉ።	-9443
▁ተጎጂ	-9444
▁መበስበስ	-9445
▁ይታወቅ	-9446
TC	-9447
▁የጣ	-9448
▁መዘጋ	-9449
ወን	-9450
▁በአስራዎቹ	-9451
▁መለካት	-9452
▁ከመሆኑ	-9453
▁ብራን	-9454
ላሪ	-9455
▁ለመን	-9456
ph	-9457
ንግዲህ	-9458
▁ፓርቲው	-9459
ፍታ	-9460
▁በመዝ	-9461
ኮታዊ	-9462
▁ሲታ	-9463
▁ባሳ	-9464
▁ያረጋግጣል	-9465
▁ከእነዚህም	-9466
▁ይገናኛ	-9467
ነሮች	-9468
ካከላቸው	-9469
▁ላከ	-9470
▁ውስብስብነት	-9471
▁ያላት	-9472
▁የሀገሪቱ	-9473
▁የተፃፈው	-9474
▁ኢንፌክሽን	-9475
ብሩ	-9476
▁ፀሀይ	-9477
▁በጆን	-9478
▁ኬን	-9479
▁የውሳኔ	-9480
ያኑ	-9481
▁ሰም	-9482
▁ቅጠሎች	-9483
▁መሰናክ	-9484
▁እርሻዎች	-9485
▁ከጄ	-9486
▁i	-9487
ሳም	-9488
po	-9489
▁አብራ	-9490
ቡል	-9491
ቭላንድ	-9492
▁ያገኙ	-9493
▁መካ	-9494
ስተናገ	-9495
▁ለዲ	-9496
▁የመንፈስ	-9497
ቃቱ	-9498
▁ወርቃማ	-9499
▁አፋ	-9500
ለኞቹ	-9501
▁ፍቅረ	-9502
▁ውድድሩን	-9503
ኩረት	-9504
▁የሚያመለክት	-9505
ታወቂያ	-9506
▁1917	-9507
▁የታወቁ	-9508
▁የተነደፈ	-9509
▁የቃላት	-9510
▁መነሳት	-9511
▁ተከሰ	-9512
▁ከበሮ	-9513
▁ቀልድ	-9514
▁ዴሞክራሲ	-9515
▁ያለም	-9516
ስተካከሉ	-9517
▁ወፍራም	-9518
▁በማሳየት	-9519
ጓጓዝ	-9520
▁ይገኛሉ።	-9521
ይይት	-9522
▁ዱክ	-9523
ዚያና	-9524
▁ከመሬት	-9525
መንቶች	-9526
▁ለተወሰነ	-9527
▁አረጋግጠዋል	-9528
▁የስሜት	-9529
▁የሚያሳድሩ	-9530
እነዚህ	-9531
▁የተወለዱ	-9532
▁ይመስለኛ	-9533
▁መራጮች	-9534
▁ባላ	-9535
ስቱም	-9536
▁በመረጃ	-9537
▁ማዶ	-9538
▁ጊዜዎች	-9539
▁አናሳ	-9540
ሊዮኖች	-9541
▁ለቀው	-9542
▁ገዥዎች	-9543
ንግን	-9544
▁መደረጉ	-9545
▁የፓን	-9546
▁ይገድ	-9547
▁የኤክስ	-9548
ክራል	-9549
▁መርሆዎች	-9550
▁በመገንባት	-9551
▁በመኪና	-9552
ሚራል	-9553
▁41	-9554
▁ቅጦች	-9555
▁እንደተናገረው	-9556
▁የተዘረዘ	-9557
ኖም	-9558
▁ጭምር	-9559
▁የጋዝ	-9560
▁ሰሌዳዎች	-9561
▁ጤንነት	-9562
▁የተቀየሰ	-9563
መደው	-9564
▁ከባህር	-9565
▁ብሮ	-9566
ብርሀን	-9567
▁ያብራራል	-9568
▁ድምፆችን	-9569
▁እንደም	-9570
ሲዮ	-9571
▁አማራጮች	-9572
ቴክት	-9573
▁በጫ	-9574
38	-9575
ሞላ	-9576
ሳለች	-9577
32	-9578
ድራ	-9579
▁ይናገራሉ	-9580
▁ምግባራዊ	-9581
▁ለመተግበር	-9582
ገለፅ	-9583
ቀቶችን	-9584
ዘዋል	-9585
ጭመ	-9586
▁ጠረጴዛ	-9587
▁ብስ	-9588
▁ውሂብ	-9589
ገልፅ	-9590
ለቁ	-9591
▁የመሳሰሉ	-9592
▁2.	-9593
▁ከኪ	-9594
▁የፕሮግራም	-9595
ገዝ	-9596
ባንድ	-9597
▁ከከፍተኛ	-9598
▁1936	-9599
▁የሚጀምረው	-9600
ጀምሩ	-9601
▁ተልኳል	-9602
▁ተናጋ	-9603
▁መሆኑንም	-9604
EM	-9605
ንከር	-9606
▁ዥረት	-9607
ዬጎ	-9608
▁ስታር	-9609
▁ግብይት	-9610
▁ክርክሮች	-9611
62	-9612
ብሬ	-9613
▁ማስመሰል	-9614
▁ኮንትራት	-9615
ኑም	-9616
▁የሚገኘውን	-9617
ዬል	-9618
▁ጊዜውን	-9619
▁ወጥነት	-9620
▁ዶን	-9621
▁የማእከላዊ	-9622
▁ለመተንተን	-9623
▁የሁለተኛው	-9624
▁1954	-9625
▁ዘመናት	-9626
▁እያደገ	-9627
▁የሚንቀሳቀሱ	-9628
▁ኦክሳይድ	-9629
▁ይሸፍናል	-9630
▁የክት	-9631
▁ጎልቶ	-9632
▁አስገድዶ	-9633
▁የተደ	-9634
,500	-9635
▁ፓት	-9636
▁ስህተ	-9637
▁እኩ	-9638
▁የማይቻል	-9639
▁እራሷን	-9640
▁ስትራቴጂዎች	-9641
ዘዋዋሪ	-9642
ደንት	-9643
▁ምስክ	-9644
▁በጨረ	-9645
▁መድረኮች	-9646
▁በባህላዊ	-9647
▁በስልጣን	-9648
▁እየሆነ	-9649
▁አስተላላፊ	-9650
▁መድረስ	-9651
▁ይፈጥራሉ	-9652
▁NCAA	-9653
▁ሞገ	-9654
▁()	-9655
▁ትርኢቱ	-9656
▁የበለፀገ	-9657
ተሚያ	-9658
ጎር	-9659
▁የጁ	-9660
▁የተመራ	-9661
ቆችን	-9662
▁እንዲጨምር	-9663
▁አድልዎ	-9664
▁ኮሚቴው	-9665
▁ቶኒ	-9666
▁በድንጋይ	-9667
▁ኤርል	-9668
▁አጥን	-9669
▁ጠቅላላ	-9670
▁አጋርነት	-9671
▁ቀርፋፋ	-9672
▁ባሪ	-9673
▁ጨም	-9674
▁የአምስት	-9675
ዛክ	-9676
▁አርተር	-9677
ወርወር	-9678
▁ፈረስ	-9679
▁ብዝሀነት	-9680
▁የተመዘገቡ	-9681
▁ባቡሮች	-9682
▁የወሊድ	-9683
SC	-9684
▁በፈቃደኝነት	-9685
ኝም	-9686
ne	-9687
▁እንደሚከተለው	-9688
ሮይድ	-9689
ሶር	-9690
▁የሚታየው	-9691
ግም	-9692
▁ቮልቴጅ	-9693
▁በደስታ	-9694
▁በመተካት	-9695
▁በሰላም	-9696
ቮል	-9697
▁የሞር	-9698
▁ስፔን	-9699
▁የኢራን	-9700
▁መጨ	-9701
ነቷ	-9702
▁የኤል	-9703
▁ሌክ	-9704
▁መኖራቸውን	-9705
▁አስተባባሪ	-9706
▁በቴክሳስ	-9707
▁ክፍተቶች	-9708
ራፍሬ	-9709
▁ፍርስ	-9710
▁ሴኔት	-9711
ናገረ	-9712
▁ሽብር	-9713
ናርድ	-9714
39	-9715
▁አደረገ።	-9716
▁የጡ	-9717
ኖልድ	-9718
ቲሞር	-9719
የማ	-9720
▁ለፍርድ	-9721
▁0,0	-9722
▁የዩክሬን	-9723
▁ለመመልከት	-9724
▁64	-9725
ራዊት	-9726
▁ምርታማ	-9727
▁ዘጠነኛው	-9728
▁ወጪዎችን	-9729
▁ብራድ	-9730
▁እያሉ	-9731
ላለች።	-9732
ገጣጠሚያ	-9733
ውዲ	-9734
IC	-9735
▁ስለማይ	-9736
▁ጥበ	-9737
▁ቢሊ	-9738
▁ሙስሊም	-9739
ጓል።	-9740
▁ገዥው	-9741
▁ጀልባዎች	-9742
HL	-9743
ፒክ	-9744
▁1910	-9745
▁በጉዳዩ	-9746
▁እንዲያውም	-9747
▁የአክሲዮን	-9748
▁ማህደረ	-9749
▁ለማጣ	-9750
▁ኤልሳቤጥ	-9751
ሀራ	-9752
ባዮ	-9753
▁መጀመር	-9754
▁ፕሮጀክቱ	-9755
▁ደመና	-9756
ጤት	-9757
▁ተሳፋሪ	-9758
▁የለውጥ	-9759
▁እንዲተ	-9760
▁የምእራ	-9761
▁ለሌላ	-9762
▁ከአካ	-9763
▁ፍሬድሪክ	-9764
▁በብዛት	-9765
▁እንዲወጡ	-9766
▁ሀርት	-9767
ሽቅድ	-9768
▁ለመጠየቅ	-9769
▁ይታወቃሉ	-9770
▁አሜሪካን	-9771
▁ከጠቅላላው	-9772
▁መቁረጥ	-9773
▁ተለይተዋል	-9774
ዳድር	-9775
▁ሄዱ	-9776
ስኮት	-9777
▁ድሬ	-9778
ያዋን	-9779
ተናዊ	-9780
ዛሉ	-9781
▁ንጣፍ	-9782
ባቶች	-9783
▁ይሳተ	-9784
▁ጩኸት	-9785
ራሾች	-9786
▁አንዳቸው	-9787
▁መፃህፍት	-9788
▁በማጥ	-9789
▁1937	-9790
▁ሚኒስትሮች	-9791
end	-9792
ጠየቁ	-9793
ምድም	-9794
ኗኗር	-9795
ገዙ	-9796
ራመድ	-9797
▁እንዲሰጡ	-9798
ፃፅ	-9799
ቻይዝ	-9800
ለታል	-9801
▁አስመልክ	-9802
▁የኤች	-9803
▁አካቷል	-9804
iz	-9805
ኒዝም	-9806
▁ያምናሉ	-9807
-10	-9808
▁ኦሀዮ	-9809
▁ማባ	-9810
▁ያደረገውን	-9811
▁ራይት	-9812
▁ኪም	-9813
▁ሊቃውንት	-9814
ገኝም	-9815
▁ይቆጥ	-9816
▁r	-9817
▁ሆር	-9818
▁ትርጉ	-9819
ህራ	-9820
ቃወሙ	-9821
▁ተቋማ	-9822
ዋወጫ	-9823
▁አልነበራቸው	-9824
▁በአየርላንድ	-9825
▁ብሮድካ	-9826
▁የተጎዱ	-9827
ብሊን	-9828
▁ታችኛው	-9829
▁በጥቂት	-9830
);	-9831
▁ማጥመጃ	-9832
▁ሳምንታዊ	-9833
▁መሰብሰብ	-9834
▁ልጆቹ	-9835
▁ለበ	-9836
▁ጨረታ	-9837
▁የሰራተኞች	-9838
▁ቡድንን	-9839
▁ቋት	-9840
ለንተናዊ	-9841
▁ሁለገብ	-9842
▁አስወግ	-9843
ዲናል	-9844
ሪል	-9845
ስቲክ	-9846
ens	-9847
ላችንም	-9848
▁አጫጭር	-9849
▁ሰፈሮች	-9850
▁አቅራቢዎች	-9851
▁1900	-9852
ኤምኤስ	-9853
▁የተከሰተ	-9854
▁ምድቦች	-9855
▁የመምረጥ	-9856
ሳንድ	-9857
▁ሆቴ	-9858
ሰልጠን	-9859
▁አለምን	-9860
▁አይጦች	-9861
ሳሌም	-9862
ቺን	-9863
▁ጎልድ	-9864
ሽና	-9865
195	-9866
ረገ	-9867
ሊኮፕ	-9868
▁ግጥሞች	-9869
ንትሮ	-9870
▁ሎርድ	-9871
▁በመንገድ	-9872
▁ጆርጂያ	-9873
ባኖስ	-9874
ፈልግም	-9875
ማሌ	-9876
▁ሳይንቲስቶች	-9877
▁ማካ	-9878
▁ምግቦች	-9879
ድጓድ	-9880
▁ተለይቶ	-9881
▁በየጊዜው	-9882
▁እያሳ	-9883
ግራሙ	-9884
▁መስፈርቶችን	-9885
▁ጫጫ	-9886
▁ባለቤቱ	-9887
ቢል	-9888
▁እፅዋት	-9889
ዝላ	-9890
▁ጎሳዎች	-9891
▁ይተገ	-9892
▁የተጣራ	-9893
▁አብር	-9894
ንስኪ	-9895
▁በጌ	-9896
▁ሜጋ	-9897
▁ክሌ	-9898
36	-9899
TA	-9900
▁ተጠቅመዋል	-9901
▁ከመው	-9902
▁በንጉሰ	-9903
▁ኢሊኖይ	-9904
▁ዲያሜ	-9905
▁ብሩክ	-9906
ፋኑ	-9907
▁ጫፎች	-9908
ሽቅድምድም	-9909
▁ታሪክን	-9910
ዘምራን	-9911
▁የተረፉ	-9912
▁የቅኝ	-9913
▁ስሙን	-9914
▁ርእዮተ	-9915
▁ዲያሜትር	-9916
▁በአማራ	-9917
ጂዮ	-9918
ሪኩ	-9919
▁ተመልካቾች	-9920
ምፓየር	-9921
▁በመመርመር	-9922
▁ህጎችን	-9923
▁ሀብቶችን	-9924
▁እንዳስ	-9925
▁የገቡ	-9926
▁የኤፍ	-9927
ሲያዊ	-9928
▁ተገድለዋል	-9929
▁ሀይሎችን	-9930
▁የአልኮል	-9931
ራችን	-9932
▁የሚሰጡ	-9933
▁ንፅፅር	-9934
▁ሲመለስ	-9935
▁ችግሩ	-9936
▁ዘመኑን	-9937
▁በመካከለኛ	-9938
▁መጠንን	-9939
▁ከቡድኑ	-9940
47	-9941
ዳሰስ	-9942
ቻው	-9943
▁የስዊድን	-9944
▁የፀደይ	-9945
▁ተሻሽሏል	-9946
▁ለማስተካከል	-9947
▁ባዮሎጂያዊ	-9948
ርቫርድ	-9949
ችልም።	-9950
▁ተይዘዋል	-9951
መረጥ	-9952
ፕራ	-9953
▁ህትመት	-9954
ቨንስ	-9955
▁መመል	-9956
▁ሄዶ	-9957
▁ሁከት	-9958
▁አግባብነት	-9959
▁ሁለቱን	-9960
▁1914	-9961
▁ዶር	-9962
ንደሩ	-9963
▁Sh	-9964
ዛወሩ	-9965
▁ቢሮዎች	-9966
ለውም	-9967
ሞክራቶች	-9968
ነስቷል	-9969
ደንቅ	-9970
▁ለቢቢሲ	-9971
▁እድላቸው	-9972
▁ገጣሚ	-9973
▁ድምር	-9974
▁ማእበል	-9975
እክት	-9976
▁የአማ	-9977
▁ይታወቃል።	-9978
▁በዌስት	-9979
▁እድልን	-9980
▁አከናው	-9981
▁ተንቀሳቅ	-9982
▁የመያዝ	-9983
ጋለጥ	-9984
▁ቀዳሚ	-9985
▁ጭፍጨ	-9986
▁በማዘጋጀት	-9987
ኒል	-9988
▁ሊከሰት	-9989
ደባለቀ	-9990
▁አብዮታዊ	-9991
▁ዲዬጎ	-9992
85	-9993
▁ኳሱን	-9994
▁ይገመታል	-9995
▁የተጠቃሚ	-9996
ሬም	-9997
▁የሆነችው	-9998
SP	-9999
▁ሲመጣ	-10000
ጀክት	-10001
▁ከረ	-10002
▁ሩቅ	-10003
ተሩ	-10004
▁ባወጣው	-10005
▁የሮክ	-10006
ቀረው	-10007
▁ይታመናል	-10008
▁ክፍልን	-10009
▁በነፃነት	-10010
▁በተለያየ	-10011
▁ታሪኮችን	-10012
▁እንድን	-10013
▁ትንታኔዎች	-10014
ቃጠ	-10015
ቅቀዋል	-10016
▁የጥንት	-10017
ack	-10018
ያለሁ	-10019
▁አድራጊ	-10020
▁ይስ	-10021
▁የሰጠው	-10022
ዴይ	-10023
▁ሽልማቶችን	-10024
▁አልሆነም	-10025
▁መንኮራኩ	-10026
▁ኢንክ	-10027
ሮቻቸው	-10028
▁ለመምረጥ	-10029
▁ይፈል	-10030
▁ሮይ	-10031
ፎሎጂ	-10032
▁አምስተኛው	-10033
▁መግባባት	-10034
ስታወት	-10035
▁ባህሪን	-10036
▁መሀንዲሶች	-10037
▁የተገለፀ	-10038
▁ሊጉ	-10039
ቶር	-10040
▁£	-10041
ፕቴ	-10042
44	-10043
▁የአጥንት	-10044
▁ለማብራራት	-10045
▁ለማካሄድ	-10046
▁በአመቱ	-10047
▁የማሀበራዊ	-10048
ላጎት	-10049
▁ድንበሮች	-10050
▁ክሪስቶ	-10051
▁ያተኩራል	-10052
▁ተገለጠ	-10053
▁የአራት	-10054
▁የጠበቀ	-10055
▁ጥናቶችን	-10056
61	-10057
▁ጎልማሳ	-10058
ጋገ	-10059
▁በምርጫ	-10060
ለቀቅ	-10061
▁ምላሾች	-10062
▁ዜማዎች	-10063
ርሻ	-10064
▁እኮ	-10065
ቮች	-10066
▁ኮረብታ	-10067
▁ከዶ	-10068
▁ኢንቨስት	-10069
▁በመምረጥ	-10070
▁ከፕሮ	-10071
▁በመከተል	-10072
ቦቹን	-10073
▁ግሪክ	-10074
▁በኔዘርላንድስ	-10075
▁በሚጠራው	-10076
የና	-10077
ሻንጉ	-10078
ጉሱ	-10079
ርቻሮ	-10080
ጥረው	-10081
▁ማካተት	-10082
31	-10083
▁ጀርመ	-10084
▁ተገም	-10085
▁ተሳፋሪዎች	-10086
▁ፎርድ	-10087
▁የሚመጡ	-10088
▁ካቴድ	-10089
▁ሞል	-10090
▁የወደፊቱ	-10091
ፕረስ	-10092
▁ጥሰት	-10093
▁በንቃት	-10094
ክቶር	-10095
መጣጠነ	-10096
▁ማጭበርበር	-10097
▁ጠቋሚ	-10098
ans	-10099
ፋሎ	-10100
▁አመስ	-10101
ሪም	-10102
ሰውን	-10103
▁ይላሉ።	-10104
▁የንብረት	-10105
▁መግባ	-10106
ናችን	-10107
▁(195	-10108
ብላ	-10109
ኤኤ	-10110
72	-10111
▁አዳም	-10112
▁መስኮቶች	-10113
▁ተርሚናል	-10114
ማል።	-10115
▁በኮሎ	-10116
▁በመጠየቅ	-10117
ካሉ	-10118
▁የሁለትዮሽ	-10119
▁በማሀበራዊ	-10120
▁አስደንጋጭ	-10121
▁መርሀግብ	-10122
▁የሁለቱ	-10123
▁ማሻሻያዎችን	-10124
▁መጠባበቂያ	-10125
▁ቀመሮች	-10126
▁ሂደቶችን	-10127
▁ሚው	-10128
▁በማስተዋወቅ	-10129
ማርያም	-10130
▁መተግበሪያ	-10131
ፌት	-10132
▁መፃህፍ	-10133
▁አስታውቀዋል።	-10134
▁በወንዶች	-10135
▁ቁፋ	-10136
ርካንሳስ	-10137
ተርጎም	-10138
▁ከሂ	-10139
▁ከብሄራዊ	-10140
▁አለመረጋጋት	-10141
▁ይወድ	-10142
▁ባንዶች	-10143
▁ከእስር	-10144
▁እንዲመለሱ	-10145
▁ለሚገኙ	-10146
▁መኖሩን	-10147
▁እስኪያ	-10148
▁ከቀድሞ	-10149
▁ለመሳተፍ	-10150
▁የተሳተፈ	-10151
ሀሳቦች	-10152
▁የኒውዚላንድ	-10153
▁መስመሮችን	-10154
▁የሰደደ	-10155
ትስበርግ	-10156
▁ያለምንም	-10157
▁የሚን	-10158
ቸዋ	-10159
▁የመዳረሻ	-10160
▁የወጣት	-10161
▁ብቻውን	-10162
▁በበረዶ	-10163
ዞሪያ	-10164
▁የፍጥነት	-10165
ኋለኞቹ	-10166
▁በሀገር	-10167
▁ሲሆን፣	-10168
▁በመዋ	-10169
▁በእንደዚህ	-10170
ሀመድ	-10171
ላለም	-10172
▁መፍሰስ	-10173
▁ካው	-10174
▁በምን	-10175
▁በገጠር	-10176
▁ተጀመረ	-10177
▁ይደረጋል	-10178
▁በቺ	-10179
▁እንዲኖራቸው	-10180
▁ነገስታት	-10181
▁እመቤት	-10182
▁ቴዎ	-10183
▁እናደርጋ	-10184
▁ማስተዋወቂያ	-10185
▁የግብይት	-10186
▁የእሷ	-10187
▁መፍትሄዎች	-10188
ቆና	-10189
ቆራረጥ	-10190
ቻለሁ	-10191
▁የቤዝቦል	-10192
ሞስ	-10193
▁NFL	-10194
▁ኬንያ	-10195
ፋኖስ	-10196
ድረጉ	-10197
▁አፓርታማ	-10198
▁ያገኘው	-10199
▁ምእ	-10200
ዎቻችን	-10201
ሊኒ	-10202
▁በግድ	-10203
▁እርጥበት	-10204
ያዘው	-10205
ተሪ	-10206
▁የሚሆን	-10207
▁ሞን	-10208
▁አላት	-10209
▁መምጣት	-10210
▁መገናኘት	-10211
▁በትግራይ	-10212
▁የቴክሳስ	-10213
ፈታ	-10214
▁ማትሪክስ	-10215
ማቅ	-10216
▁እንችላለን	-10217
▁በይነገፅ	-10218
▁ተፈት	-10219
▁አቅዷል	-10220
ኢን	-10221
▁ለመኖር	-10222
▁ድሎች	-10223
▁ፈፅሞ	-10224
▁ደራሲው	-10225
▁ሩዝ	-10226
▁ከደ	-10227
▁ቦው	-10228
▁የሚያሳድረው	-10229
ነብ	-10230
▁ግርማ	-10231
▁በጁ	-10232
▁እንቁራሪቶች	-10233
▁አስባ	-10234
▁ፋይበር	-10235
▁ይፈልጋል	-10236
▁ከቴ	-10237
ስታር	-10238
▁ስልጣኑን	-10239
በተጨማሪ	-10240
▁የካውንቲ	-10241
▁የሚያስች	-10242
▁ከትምህርት	-10243
▁ቱርክ	-10244
▁የእስር	-10245
▁ክላው	-10246
▁ይመስል	-10247
ፋይ	-10248
▁ዊን	-10249
▁120	-10250
▁ኢንዶ	-10251
▁ከግን	-10252
▁ያልፋል	-10253
▁ሂደቱን	-10254
▁የዳንስ	-10255
MA	-10256
ፈለገው	-10257
▁ለአሜሪካ	-10258
▁አንቶኒዮ	-10259
▁በኢንዱስትሪ	-10260
ኤስኤ	-10261
▁ለማመቻቸት	-10262
▁3.	-10263
▁52	-10264
ug	-10265
▁የተሻሉ	-10266
▁ከማይ	-10267
▁የሚጓዙ	-10268
▁ትውል	-10269
▁FC	-10270
▁ዘግይቶ	-10271
▁መናፍ	-10272
▁ያሳያል።	-10273
▁ከፀ	-10274
▁ሲገባ	-10275
▁የሚገቡ	-10276
▁ይቆያል	-10277
▁በእስራኤል	-10278
ድርሻ	-10279
▁እንዳሳ	-10280
ጎዝላ	-10281
▁በኮር	-10282
▁የአትሌቲክስ	-10283
▁ረጅ	-10284
▁ለዩ	-10285
▁ታዛ	-10286
ቅለ	-10287
▁ችሎታዎች	-10288
▁ማሽቆል	-10289
ፑል	-10290
▁47	-10291
▁የጠፋ	-10292
▁የሚጠይ	-10293
▁የኦፕቲካል	-10294
ላንት	-10295
▁ከከተማው	-10296
▁ለሰው	-10297
▁የማሳ	-10298
ወገዱ	-10299
▁ጎማ	-10300
▁እናቱ	-10301
ችው።	-10302
ሾቹ	-10303
ቀራ	-10304
የረ	-10305
▁አከ	-10306
▁ተገዢ	-10307
▁አይላንድ	-10308
▁በተገቢው	-10309
▁ብጥብጥ	-10310
▁እውን	-10311
▁ሲሄዱ	-10312
ክሩ	-10313
ያማ	-10314
ከአ	-10315
ቋረጠ	-10316
▁ማዛ	-10317
ዋቱ	-10318
ጫል	-10319
▁የሮማውያን	-10320
▁ህፃን	-10321
ላዋ	-10322
▁ያጋጥ	-10323
▁ገልፃለች	-10324
▁250	-10325
▁ደንበ	-10326
▁ከተማዋን	-10327
▁ለማስተዳደር	-10328
መች	-10329
▁ማከናወን	-10330
▁ከዊ	-10331
▁ጫጫታ	-10332
▁ወሰኑ	-10333
▁እንዲሰራ	-10334
▁በልጆች	-10335
ላሚ	-10336
▁ተደብ	-10337
▁ትኩረ	-10338
▁የሚጠይቅ	-10339
▁የስም	-10340
▁ኦስ	-10341
TS	-10342
▁ለማካተት	-10343
▁ይታወሳል	-10344
ዉን	-10345
▁ስሪቶች	-10346
ዋጭ	-10347
▁እንዲመለስ	-10348
▁ኤክ	-10349
▁ተደረገ	-10350
▁ከቻይና	-10351
:00	-10352
▁እንዲወጣ	-10353
▁አፈታሪክ	-10354
ጀንት	-10355
ሪዎቹ	-10356
▁ሳተ	-10357
ቆሮ	-10358
▁ይችል	-10359
▁አርክቴክ	-10360
▁በረዶ	-10361
▁ለእነዚህ	-10362
▁ተሰጥቶት	-10363
▁ሌተናንት	-10364
▁ወይስ	-10365
▁ሩጫዎች	-10366
▁ከፈረንሳይ	-10367
ራባት	-10368
▁ትናገ	-10369
▁ለመቀላቀል	-10370
▁ቀለበ	-10371
▁በመለየት	-10372
▁በአሳ	-10373
▁በመጀመር	-10374
▁በፖላንድ	-10375
▁የመጠቀም	-10376
▁በረጅም	-10377
▁ቀጥሎ	-10378
49	-10379
▁ይፈቅ	-10380
▁ፓትሪክ	-10381
▁በግለሰብ	-10382
ሮጂን	-10383
▁and	-10384
▁የታተሙ	-10385
▁ለመቅ	-10386
▁አምል	-10387
▁ታሪክ፦	-10388
▁እንግሊዛውያን	-10389
▁የጥናት	-10390
▁የተሞሉ	-10391
-20	-10392
በላሹ	-10393
▁መታየት	-10394
▁ፕሮግራሙ	-10395
▁ቀጠሮ	-10396
በረታቻ	-10397
▁እንዲፈጠር	-10398
▁በምድር	-10399
▁ልምዶችን	-10400
▁የአምልኮ	-10401
▁የዶክትሬት	-10402
▁ሀው	-10403
▁ቁጣ	-10404
▁በኤሌክትሪክ	-10405
▁በማጥፋት	-10406
ደርግም	-10407
▁ኤርትራ	-10408
▁ቀሪዎቹ	-10409
▁ያበ	-10410
▁ሁለንተናዊ	-10411
ዝረት	-10412
▁ሞተሮች	-10413
▁ተቀብሏል	-10414
▁አቆመ	-10415
▁ጠይቀዋል	-10416
▁በወረ	-10417
▁የኮሪያ	-10418
ሲክ	-10419
▁መመስረት	-10420
▁የፖስታ	-10421
▁የሚወስደው	-10422
▁ታወጀ	-10423
▁መርከቧ	-10424
▁የተጠ	-10425
▁1933	-10426
▁የርቀት	-10427
ኬቶችን	-10428
ሳይቲ	-10429
▁በተሳሳተ	-10430
▁አታ	-10431
▁በጥቁር	-10432
▁እንዲሰሩ	-10433
▁ግንብ	-10434
▁የካንሰር	-10435
ድብ	-10436
ሟቸው	-10437
▁አስረድተዋል።	-10438
▁ፊልሞችን	-10439
▁በሙያው	-10440
▁ፊደ	-10441
▁ስለሌ	-10442
▁ክላሲክ	-10443
▁የጀልባ	-10444
▁አባልነት	-10445
▁ቡል	-10446
ጠብቁ	-10447
ገባም	-10448
▁የእንቅስቃሴ	-10449
▁ማሀበረ	-10450
ኔልሰን	-10451
▁አስገ	-10452
▁የሰለጠ	-10453
▁ሞሪስ	-10454
▁በመመስረት	-10455
▁በአካል	-10456
▁ኮምፒው	-10457
▁የፍራን	-10458
▁አውቶቡስ	-10459
▁ዊት	-10460
ሲካ	-10461
▁ማተሚያ	-10462
▁ባሮ	-10463
▁እድገትን	-10464
▁በተለመደው	-10465
ጫኑ	-10466
ጦርነት	-10467
▁ዳኒ	-10468
▁የቀጠለ	-10469
▁ቢራ	-10470
▁ይከፈ	-10471
▁ሲንግ	-10472
ሯን	-10473
ቦርን	-10474
▁ማሞ	-10475
▁አስቆ	-10476
ጢፋኖስ	-10477
▁ካገኘ	-10478
▁ቢግ	-10479
▁ከፖ	-10480
▁ይሄዳል	-10481
▁የዚህን	-10482
▁ጠቁመዋል።	-10483
▁ሊታ	-10484
▁ሞዱል	-10485
▁1935	-10486
▁ፎክስ	-10487
ፎርም	-10488
ፀዳ	-10489
ንቅለ	-10490
ውሎ	-10491
▁አክሊ	-10492
▁ፅፈዋል	-10493
ሙላ	-10494
▁አስከሬ	-10495
▁ከመድረ	-10496
▁በአስቸኳይ	-10497
-201	-10498
ገደለ	-10499
▁ተጨዋ	-10500
▁ይከራከራሉ	-10501
▁ስኪ	-10502
▁ውጊያዎች	-10503
ደበቅ	-10504
▁ልት	-10505
▁አለመግባባት	-10506
ሽከርከር	-10507
ቶታል።	-10508
ok	-10509
ዋቂው	-10510
▁ምህንድስና	-10511
ነውን	-10512
▁ፓሪስ	-10513
▁ከላ	-10514
ታለች።	-10515
ከተለ	-10516
ቻላቸው	-10517
▁እንዲደረግ	-10518
▁ዜጎችን	-10519
ct	-10520
▁ተጠርጣሪ	-10521
▁የመጀመር	-10522
ጎዝላቪያ	-10523
▁የመድረክ	-10524
▁1915	-10525
▁የእርሱን	-10526
▁1916	-10527
▁አላቸው።	-10528
▁ወንድሞች	-10529
▁ስክሪፕት	-10530
ልፅግና	-10531
▁ይናገራል።	-10532
▁ጠብቋል	-10533
▁ሲያደርግ	-10534
▁ከጭ	-10535
በተጨማሪም	-10536
▁የሚመስ	-10537
▁ዋነኛ	-10538
ስቷል	-10539
▁ከአውሮፓ	-10540
▁አሳልፎ	-10541
▁ክሪስታል	-10542
በዛ	-10543
ናታን	-10544
▁ስብከት	-10545
ጋሬት	-10546
▁እንደሚሉት	-10547
▁በትዊተር	-10548
▁አለባቸው።	-10549
ማለች	-10550
▁የኮርፖሬት	-10551
▁መከራ	-10552
▁ሂሳ	-10553
▁ስቱዲዮዎች	-10554
▁ችሏል።	-10555
▁ሽጉ	-10556
▁ሆስፒታሎች	-10557
▁ያለች	-10558
▁ኢራን	-10559
ፅፍ	-10560
▁በጋዜ	-10561
ሮኮ	-10562
▁የጥራት	-10563
▁ሳህ	-10564
▁በፕላ	-10565
ያዎችን	-10566
▁ሪፖርተር	-10567
▁ከተለመደው	-10568
ደረሱ	-10569
ሏት	-10570
▁በኋለኛው	-10571
ርካሽ	-10572
▁የተመረጠ	-10573
▁ክዋ	-10574
ድግ	-10575
▁ሰዶማዊ	-10576
▁መጠየቅ	-10577
▁ከኋላ	-10578
▁ሊውሉ	-10579
▁የፕሬስ	-10580
▁የህትመት	-10581
ፍለ	-10582
▁የብድር	-10583
▁አመልክቷል	-10584
nd	-10585
▁ለሽ	-10586
▁መንት	-10587
▁እስከዛሬ	-10588
▁በሊጉ	-10589
ንታና	-10590
▁ስታቲስቲካዊ	-10591
▁እርባታ	-10592
ርዱ	-10593
▁በፕሪ	-10594
▁አርባ	-10595
▁የክለቡ	-10596
▁54	-10597
ቀዘ	-10598
▁ዝርያዎችን	-10599
▁ቅጂዎች	-10600
▁ሮም	-10601
ሚዮ	-10602
ባበስ	-10603
▁ይከፍ	-10604
▁የኖርዌይ	-10605
ሰማው	-10606
▁ከግማሽ	-10607
ካሪ	-10608
ኮታ	-10609
▁ባለአ	-10610
▁በግብርና	-10611
▁ትምህርትን	-10612
▁አካላትን	-10613
ኔዎች	-10614
ደርጉት	-10615
መንጨት	-10616
ክታ	-10617
ላይድ	-10618
ንዲያና	-10619
▁መለያየት	-10620
▁1929	-10621
ትዝ	-10622
▁በፖር	-10623
▁ወንዞች	-10624
▁በማጣመር	-10625
▁የደች	-10626
▁ህዝብን	-10627
▁ድካም	-10628
ሳኤ	-10629
▁ሰባተኛ	-10630
▁ጳውሎስ	-10631
ሲካል	-10632
ኔቱ	-10633
▁ካትሪን	-10634
▁አንበ	-10635
▁አበረታ	-10636
▁ግንኙነትን	-10637
ረጋግጥ	-10638
▁መውጫ	-10639
ፋቱ	-10640
ዌላ	-10641
▁ፖሊሶች	-10642
▁ከድር	-10643
▁የሚያስፈልጉ	-10644
▁መደምደሚያዎች	-10645
▁ማርያም	-10646
▁ያንፀባር	-10647
ሼል	-10648
▁እንዲያገኝ	-10649
▁ዲግ	-10650
▁ድጎማ	-10651
our	-10652
▁ተሰጥቷል	-10653
▁ማነቃቂያ	-10654
▁ሞተ።	-10655
▁ዘፋኞች	-10656
▁Th	-10657
▁ጭንቅላ	-10658
▁ሪች	-10659
▁51	-10660
▁ቢቢሲ	-10661
▁ስርጭትን	-10662
▁ዋልተር	-10663
▁መጀመሪያው	-10664
ፔክት	-10665
▁የሚደርስ	-10666
▁1)	-10667
ሪላንድ	-10668
▁ህዝቡን	-10669
▁የእስልምና	-10670
▁በባር	-10671
▁ሞንት	-10672
▁ምኞት	-10673
▁የኮሚ	-10674
ED	-10675
▁ህብረተሰቡ	-10676
▁ሊገኝ	-10677
ኖቹን	-10678
▁ለፈ	-10679
▁አስርት	-10680
ቤትነት	-10681
ሊየስ	-10682
▁ለዴ	-10683
▁የተማሩ	-10684
▁በሚቀጥሉት	-10685
በን	-10686
▁ባለማ	-10687
▁ከእንግዲህ	-10688
▁አለች	-10689
▁የተደራጁ	-10690
▁እስጢፋኖስ	-10691
ጋታ	-10692
▁ዛሬም	-10693
▁አስተላል	-10694
▁ተቃር	-10695
▁በምእራባዊ	-10696
▁መፃህፍትን	-10697
▁ኢንዲያና	-10698
ጠቀሱት	-10699
▁የተቆራኙ	-10700
▁ይለያያል	-10701
▁አርክቴክት	-10702
ፈቱ	-10703
▁ሾው	-10704
▁ጣእም	-10705
▁1928	-10706
▁አሰቃቂ	-10707
99	-10708
▁46	-10709
▁ለማቆም	-10710
▁ሲሞክር	-10711
ታተኑ	-10712
▁መምረጥ	-10713
▁ጉዞዎች	-10714
▁ይላል።	-10715
▁አስችሎታል	-10716
▁በኤል	-10717
▁1922	-10718
▁ውህዶች	-10719
▁አስተማማኝነት	-10720
▁ስቃይ	-10721
ባችን	-10722
▁የኢንቨስትመንት	-10723
ትለር	-10724
ታዋ	-10725
▁በባል	-10726
▁1934	-10727
▁በኦሮሚያ	-10728
▁ሲን	-10729
▁ተካ	-10730
▁ልጁን	-10731
▁ሰጥተዋል	-10732
▁የሚታዩ	-10733
▁ጥቃቱ	-10734
▁ቢች	-10735
▁በግሪክ	-10736
▁የአበባ	-10737
ዮቹን	-10738
▁ለአራት	-10739
▁መጠይቆች	-10740
▁ልን	-10741
▁አድጓል	-10742
▁85	-10743
▁ላለፉት	-10744
▁በተመሳሳይም	-10745
▁ተመራጭ	-10746
▁አቀናባሪ	-10747
▁ዋይ	-10748
▁ጥቃቶችን	-10749
▁መቅደሱ	-10750
ጓጉ	-10751
ሰንን	-10752
▁ተፈፃሚ	-10753
▁ያድር	-10754
▁ሳንቲም	-10755
ብረቱ	-10756
▁ሀን	-10757
ይነመረብ	-10758
ዌኒያ	-10759
▁ጭፍጨፋ	-10760
ኔቶች	-10761
▁ስኩ	-10762
▁ጀምሯል	-10763
▁ያሳለፈ	-10764
ሰቡን	-10765
ነቷን	-10766
▁ሙስሊሞች	-10767
▁ተጓዙ	-10768
▁ቀይሮ	-10769
ኤስኤስ	-10770
▁መቃ	-10771
▁በአገ	-10772
▁አንግል	-10773
▁የመጣውን	-10774
▁ከፔ	-10775
▁የሩጫ	-10776
ጎተት	-10777
▁አህጉ	-10778
▁የሶፍትዌር	-10779
▁ክሮስ	-10780
▁አስከባሪ	-10781
▁ከህዝብ	-10782
በትና	-10783
▁ችግሩን	-10784
▁ከፊ	-10785
▁ስርአተ	-10786
▁የማህ	-10787
AF	-10788
▁የፊሊፒንስ	-10789
▁ኮም	-10790
▁ኤሊ	-10791
▁ሲደርሱ	-10792
ኩ።	-10793
▁አስከሬን	-10794
ቅረፍ	-10795
▁እንዲኖረው	-10796
▁በቪዲዮ	-10797
▁ያመለክታሉ	-10798
▁ክስተቶችን	-10799
▁የፓኪስታን	-10800
▁ክብረ	-10801
▁ሶሳይቲ	-10802
▁ከረጅም	-10803
ሬና	-10804
▁ኬሊ	-10805
ኛል።	-10806
ሾም	-10807
▁178	-10808
ዊንስላንድ	-10809
▁ተኩል	-10810
ንግላዴሽ	-10811
ቀሻ	-10812
▁ግንድ	-10813
ገደድ	-10814
▁ክሊንተን	-10815
▁ጋዜጦች	-10816
42	-10817
▁እንደሚለው	-10818
▁በአእምሮ	-10819
ፒንግ	-10820
▁2)	-10821
▁ተገቢውን	-10822
ራቱን	-10823
ገነዘብ	-10824
▁በመከላከል	-10825
ኒዮ	-10826
▁ንብርብሮች	-10827
▁ይቀበላል	-10828
▁አሸነፈች	-10829
ዟል	-10830
▁በብቃት	-10831
▁የተቃዋሚ	-10832
ቀኝ	-10833
ry	-10834
ራይድ	-10835
▁ሄይ	-10836
▁የሚውል	-10837
ሊምፒክ	-10838
ገኘት	-10839
ev	-10840
▁የታመ	-10841
▁ቢኖረውም	-10842
ነህ	-10843
ሪጂናል	-10844
▁አሰል	-10845
▁ሚዙሪ	-10846
▁እንጨት	-10847
▁በፆታ	-10848
▁ዚላንድ	-10849
▁የጥበብ	-10850
▁ሲጀምር	-10851
▁ደራሲዎች	-10852
▁ስቶን	-10853
▁ተንሸራታች	-10854
▁x	-10855
▁በሬዲዮ	-10856
▁የምታ	-10857
73	-10858
▁ግብአት	-10859
▁1932	-10860
▁ሲንድሮም	-10861
▁ይገመገ	-10862
▁ሱሰ	-10863
▁ደራሲዎቹ	-10864
▁በመሞከር	-10865
▁ጓደኞ	-10866
▁1921	-10867
▁ጨረ	-10868
▁አባቶች	-10869
▁አስተናግ	-10870
▁ህሊና	-10871
▁ተሾሙ	-10872
▁መቆራረጥ	-10873
▁የመልቀቂያ	-10874
▁ፊደል	-10875
ታይም	-10876
▁አስታወቀ።	-10877
▁የፓርቲው	-10878
▁ሚንስት	-10879
▁ሚናዎች	-10880
▁መግለጫው	-10881
▁ነበረች።	-10882
▁ተቀር	-10883
ost	-10884
ገፋ	-10885
▁የምስ	-10886
ራድ	-10887
▁ህመምተኞች	-10888
▁ኮሌጆች	-10889
ዳይና	-10890
▁የመለኪያ	-10891
▁አንዳንዶች	-10892
▁አቅጣጫዎች	-10893
▁ባታሊየን	-10894
▁ለትርፍ	-10895
▁ስዊ	-10896
▁የቲያትር	-10897
ቲል	-10898
▁የሚያካትት	-10899
▁የሚመጣ	-10900
▁ግዛቱ	-10901
▁አሮጌው	-10902
▁ያስቀም	-10903
▁ባቀረ	-10904
▁ስለነበሩ	-10905
አው	-10906
ለፉ	-10907
ርሶ	-10908
ET	-10909
▁ራያን	-10910
▁ሁሌም	-10911
▁መበ	-10912
▁ተባረረ	-10913
▁ተከላካዮች	-10914
ከርሰ	-10915
▁ዋነ	-10916
▁ሀገረ	-10917
▁ለመፈተሽ	-10918
ጠራል	-10919
▁ማሽኖች	-10920
▁በጓ	-10921
▁የሚደረገው	-10922
▁ማቋረጥ	-10923
▁ይካሄ	-10924
▁በተባበሩት	-10925
▁ለትምህርት	-10926
▁ህያዋን	-10927
▁ማድረጉን	-10928
▁የምድር	-10929
▁አያት	-10930
ምቢ	-10931
▁ከመሆኑም	-10932
▁ታንክ	-10933
▁የውጊያ	-10934
መለከታቸው	-10935
ርቲው	-10936
▁ካይ	-10937
▁የአና	-10938
▁ዌይ	-10939
ክሬ	-10940
▁ሎንግ	-10941
ቀጥሉ	-10942
▁ከነዚህ	-10943
▁አሸንፎ	-10944
▁ጆርናል	-10945
ሚንግሀም	-10946
ሰረታዊ	-10947
▁የሚሰጠው	-10948
▁አስመልክቶ	-10949
▁ግምታዊ	-10950
▁የፈፀ	-10951
መለከቱት	-10952
▁መቀጠል	-10953
▁የኮመንዌልዝ	-10954
▁ተወዳድ	-10955
▁ተማረ	-10956
▁ተገደደ	-10957
ቴስ	-10958
▁የተሰኘውን	-10959
▁ያካሂዳል	-10960
▁የአውቶ	-10961
▁መጠኑ	-10962
▁ክህሎቶች	-10963
ሟን	-10964
▁አምጥ	-10965
▁አወድ	-10966
▁የኩባንያው	-10967
▁አላሳ	-10968
▁ምቾት	-10969
▁ርእሶች	-10970
ገደል	-10971
aw	-10972
▁ለማፅ	-10973
ዲዩ	-10974
▁ለውጥን	-10975
▁በግብፅ	-10976
▁ከና	-10977
▁መበላሸት	-10978
የንስ	-10979
▁በጠንካራ	-10980
▁ነበረው።	-10981
▁በየትኛውም	-10982
▁በመጣ	-10983
ጠብቅ	-10984
▁ለመቅረፅ	-10985
መንቱ	-10986
ጭቆ	-10987
ፀን	-10988
▁መርጧል	-10989
▁ማስመሰ	-10990
▁የሚደግፉ	-10991
▁ፓይ	-10992
▁ሆሴ	-10993
ስኪ	-10994
ደረሰባቸው	-10995
▁በሚያዝያ	-10996
ያሉ።	-10997
በኋላ	-10998
▁መብራቶች	-10999
ron	-11000
ግዛ	-11001
▁ሪድ	-11002
ክክለኛው	-11003
▁የማይን	-11004
▁ያጠና	-11005
▁መታወቂያ	-11006
ድልዎ	-11007
▁ኢንዲ	-11008
▁አራቱ	-11009
አንዳንድ	-11010
ዎችና	-11011
▁ሀሪስ	-11012
ኖክ	-11013
ፅናፈ	-11014
ቶሊ	-11015
▁ሰበካ	-11016
▁ካሸነፈ	-11017
የካቲት	-11018
▁የተከናወነው	-11019
ቅል	-11020
▁ህይወቱ	-11021
ቅዷል	-11022
▁የኮሎ	-11023
▁የተጫዋ	-11024
ክላንድ	-11025
▁ራም	-11026
ስተው	-11027
▁ኤፍሲ	-11028
ኤክስ	-11029
ST	-11030
▁58	-11031
መዘገቡ	-11032
▁የተጋለጡ	-11033
▁ዲስክ	-11034
ፈረም	-11035
▁የጥቃት	-11036
▁600	-11037
▁ቅርንጫፎች	-11038
▁ሊዮን	-11039
ርያ	-11040
▁መጓዝ	-11041
ሪና	-11042
▁ሞለኪውላዊ	-11043
ውቁ	-11044
▁ዳይሬክተሮች	-11045
▁ተህ	-11046
▁ሆናለች	-11047
▁ፕላን	-11048
▁መክፈቻ	-11049
▁መተግበሪያዎች	-11050
ሚግሬሽን	-11051
ቲኖ	-11052
▁ግምገማዎችን	-11053
▁ኪዳን	-11054
▁ርቆ	-11055
ገልፁ	-11056
▁won	-11057
▁የመው	-11058
▁ዳግላስ	-11059
▁ከአል	-11060
▁የሉም	-11061
▁ማና	-11062
▁ባለፈ	-11063
▁ወፍጮ	-11064
▁ዋናውን	-11065
▁አይቀር	-11066
▁እየተን	-11067
ff	-11068
▁ንቃተ	-11069
▁ግሬይ	-11070
▁አደረጃጀት	-11071
▁አሻሽ	-11072
▁ተደርገው	-11073
▁ዜሮ	-11074
▁ቅሪቶች	-11075
ዳዋ	-11076
ፁን	-11077
▁ትምህርቱን	-11078
ዳስ	-11079
▁በቱርክ	-11080
ዛር	-11081
▁ማረፊያው	-11082
▁መመዘኛዎች	-11083
▁ንግዶች	-11084
▁ከጀርመን	-11085
ኒቲ	-11086
▁በተዘዋዋሪ	-11087
▁ኢሳት	-11088
▁ይለው	-11089
▁ሱቆች	-11090
▁መፍታት	-11091
▁ጀግ	-11092
▁ለማምለጥ	-11093
▁በበኩሉ	-11094
▁በማተኮር	-11095
ጠኛው	-11096
▁በኪነ	-11097
▁በጀልባው	-11098
▁ተደራሽነት	-11099
▁እንዲገባ	-11100
ሻሻለ	-11101
▁በፅ	-11102
▁የተጫወተው	-11103
በርታ	-11104
▁የሶቪየት	-11105
▁እንደገለፀው	-11106
▁መጣጥፎች	-11107
▁ስትሆን	-11108
ልማን	-11109
▁የኑሮ	-11110
▁ለሞ	-11111
▁ያበረታ	-11112
ጎስ	-11113
▁አለመኖር	-11114
▁አቢይ	-11115
ik	-11116
ስሊም	-11117
▁1924	-11118
▁ለመቆየት	-11119
▁በመተግበር	-11120
▁ያዘጋጃ	-11121
▁አስፈላጊውን	-11122
▁በከተማዋ	-11123
▁ለማለት	-11124
▁በውድድሩ	-11125
43	-11126
▁ፈረሰኛ	-11127
▁ለፕሮ	-11128
በጥ	-11129
eg	-11130
▁በእጥፍ	-11131
▁ተደምስሷል	-11132
▁ትክክለኛውን	-11133
▁ኒኮላስ	-11134
▁ብርቱ	-11135
ድረዋል	-11136
ric	-11137
▁በቀይ	-11138
▁የገና	-11139
▁እንድታ	-11140
▁ቃላትን	-11141
ber	-11142
የራ	-11143
▁ባለመኖሩ	-11144
▁ማክዶ	-11145
▁የአጭር	-11146
ጡ።	-11147
ly	-11148
ሱር	-11149
ከታተሉ	-11150
▁የቺካጎ	-11151
▁1000	-11152
▁አመል	-11153
ከናውን	-11154
▁ሁኔታውን	-11155
▁የተገለፀው	-11156
▁ከጃ	-11157
▁ተጫውተዋል	-11158
ማች	-11159
▁የሚከ	-11160
▁ጮ	-11161
▁መግለፅ	-11162
▁ባልሆነ	-11163
▁ከተሰ	-11164
▁ፀሀፊው	-11165
▁ማስተዋወቅ	-11166
,5%	-11167
▁አመቱን	-11168
ህራሄ	-11169
▁ኪራይ	-11170
▁የሚመጣው	-11171
▁ልምም	-11172
71	-11173
ላይነት	-11174
▁ለአመታት	-11175
▁ተንሳ	-11176
ፕሬሽን	-11177
▁ይመረ	-11178
▁ሊታይ	-11179
ከለክ	-11180
▁ሀውልቶች	-11181
▁እፈልጋ	-11182
▁1927	-11183
▁ሰከንድ	-11184
ድት	-11185
▁አለመኖሩ	-11186
ቀመጠው	-11187
▁ስውር	-11188
▁ይጠቁማሉ	-11189
▁አካሄድ	-11190
▁ከተማን	-11191
▁ተለዋጭ	-11192
▁ይመስላሉ	-11193
ጭመቂያ	-11194
ማክ	-11195
ላንዳ	-11196
▁አምና	-11197
▁የተቀላቀ	-11198
▁ሀዋርድ	-11199
▁ምርትን	-11200
ርና	-11201
▁አያውቅም	-11202
▁ከሽ	-11203
በሪያ	-11204
ሞኑን	-11205
iver	-11206
ተውታል	-11207
▁ከሚያስ	-11208
ሰበሰቡ	-11209
ዙዌላ	-11210
ከራል	-11211
ሶም	-11212
▁የሚያደር	-11213
▁sp	-11214
▁የጡት	-11215
▁ሽቦ	-11216
▁የኢትዮጵያን	-11217
▁አይፈ	-11218
▁ሲወጣ	-11219
▁በጅምላ	-11220
▁ሊበራል	-11221
▁መድፈር	-11222
ጣል።	-11223
ያዛ	-11224
▁የሚታይ	-11225
▁ተገንዝ	-11226
▁መጨረሻው	-11227
▁እንቅልፍ	-11228
▁የማይችል	-11229
▁ተመለሱ	-11230
▁የአርኪኦሎጂ	-11231
▁የፖር	-11232
▁ዊልያም	-11233
ኬድ	-11234
ኘቱ	-11235
▁መሳሪያው	-11236
▁በመጠበቅ	-11237
▁የአድ	-11238
▁ነበራት	-11239
▁እብጠት	-11240
የኢ	-11241
▁ክረምት	-11242
▁ውሳኔው	-11243
▁መስመሩ	-11244
▁ምልከ	-11245
▁አውሮፕላኖችን	-11246
2011	-11247
▁የፉ	-11248
▁የተማሪዎች	-11249
▁በቃል	-11250
ቴራፒ	-11251
ራጅ	-11252
በተለይም	-11253
ቅዱ	-11254
▁ሽማግ	-11255
▁የተገለፁ	-11256
▁ተመረጠ	-11257
ስበርግ	-11258
ነበ	-11259
▁እስላማዊ	-11260
▁ቭ	-11261
▁ተዘግቷል	-11262
▁የታካሚ	-11263
▁ፖይንት	-11264
▁ሊያደርግ	-11265
▁አስቸኳይ	-11266
▁ከስልጣን	-11267
▁ትዝታ	-11268
▁ለመተንበይ	-11269
▁ንጉሱ	-11270
▁ኬኔዲ	-11271
▁በካፒ	-11272
ስኮፕ	-11273
▁ከሌላ	-11274
▁የስቴ	-11275
▁የህዋስ	-11276
▁እንደዘገበው	-11277
▁ቸር	-11278
ይዘው	-11279
▁ለመጨረሻ	-11280
▁1926	-11281
▁የትውልድ	-11282
አሜሪካዊ	-11283
▁ሙዚቃን	-11284
-6	-11285
▁ጎኖች	-11286
▁ይጫወታሉ	-11287
▁መጀመ	-11288
▁ይጠበቃል።	-11289
ሲቭ	-11290
▁እንዲያደርግ	-11291
▁በክሊ	-11292
▁የተሰበሰቡ	-11293
▁የተንጠለጠ	-11294
▁ተቀምጧል	-11295
ወስደው	-11296
▁1912	-11297
▁ቅስት	-11298
▁ደፋር	-11299
▁ያቀረበው	-11300
ተንፈሻ	-11301
▁ፅሁፎችን	-11302
▁ፉክክር	-11303
ማቶ	-11304
▁በሞት	-11305
ደራጀ	-11306
▁ፍጥረ	-11307
ቀደም	-11308
▁ስልጣናቸውን	-11309
▁ስትሪት	-11310
▁እንደነበረው	-11311
▁1931	-11312
▁የእንግዳ	-11313
▁የፓራ	-11314
▁በፍሎሪዳ	-11315
▁እናሳያ	-11316
▁በቢል	-11317
ሶል	-11318
▁ቢን	-11319
ለውጥ	-11320
▁ፅንስ	-11321
▁የቦርድ	-11322
▁የወጡ	-11323
▁የፊዚክስ	-11324
ቱዌኒያ	-11325
FA	-11326
▁ጥቂ	-11327
▁1890	-11328
▁ፊን	-11329
▁ምርጫው	-11330
ፖርቱ	-11331
ናቲ	-11332
▁ክፍተ	-11333
▁ይሰራሉ	-11334
▁በክረምት	-11335
ስታዊ	-11336
ፀድ	-11337
ቃለን	-11338
▁የተሞላበት	-11339
ተሻ	-11340
መውን	-11341
▁በስተሰሜን	-11342
41	-11343
ብዛኞቹ	-11344
▁ትራኮች	-11345
▁ቀዳዳዎች	-11346
ንትሪ	-11347
▁የአንግ	-11348
▁እንዲቆይ	-11349
▁ትሩ	-11350
▁በሰባት	-11351
ፋቸውን	-11352
▁ጓደኞቹ	-11353
▁ግብርና	-11354
▁የመዝገብ	-11355
▁ዞኖች	-11356
ማኑ	-11357
▁ዳይሬክተሩ	-11358
▁ሾፌር	-11359
▁ገበታ	-11360
▁ፒት	-11361
▁ማሳቹሴትስ	-11362
ምፕሻየር	-11363
▁ንክ	-11364
ሊካኖች	-11365
▁ስሌት	-11366
ect	-11367
▁የተደረገባቸው	-11368
▁በኢን	-11369
▁ለአምስት	-11370
▁ሌሎችን	-11371
▁ለመሸጥ	-11372
▁ስራቸውን	-11373
▁በትእ	-11374
▁በስልክ	-11375
▁የተባለች	-11376
▁ይገልፃሉ	-11377
▁ካቴድራል	-11378
▁ቅዱሳን	-11379
ገደኞች	-11380
ቋረጡ	-11381
ላድ	-11382
ጋፈጥ	-11383
▁ውር	-11384
ርዲ	-11385
▁አድርጓቸዋል	-11386
▁አጠራ	-11387
▁ላል	-11388
▁የበይነመረብ	-11389
▁ይከሰታል	-11390
▁ግብዣ	-11391
አይኤ	-11392
ቶሚ	-11393
▁አቅምን	-11394
ተገበረ	-11395
▁የተከናወኑ	-11396
▁ነግ	-11397
▁ገዳም	-11398
ጣጣሙ	-11399
ማላ	-11400
መወዝ	-11401
ራሎች	-11402
ጠፍ	-11403
▁እንደሚገኙ	-11404
▁ነፍሰ	-11405
▁ዘፈኑን	-11406
▁የቀረቡት	-11407
ነሳው	-11408
▁ቅዳሜና	-11409
▁ወዳጅነት	-11410
▁ራሳቸው	-11411
▁ተአ	-11412
▁አቋርጦ	-11413
▁ወደሚገኝ	-11414
▁ለማስተላለፍ	-11415
ያንን	-11416
▁እስቴት	-11417
▁ገሞራ	-11418
▁ለመገመት	-11419
▁በድብቅ	-11420
ors	-11421
ብሎ	-11422
▁ቀድሞ	-11423
▁ልእልት	-11424
▁ማሽቆልቆል	-11425
▁10,000	-11426
▁ለመክፈት	-11427
▁ለመዝ	-11428
▁ሲሆን፤	-11429
▁ከቪ	-11430
▁ማንሳት	-11431
▁እየሰሩ	-11432
ለፊያ	-11433
▁ዋንጫን	-11434
▁ብሮድካስቲንግ	-11435
▁ውጤቱን	-11436
▁አብዱል	-11437
GB	-11438
▁ሚዲ	-11439
▁ስልታዊ	-11440
▁ቪክቶሪያ	-11441
ስተላል	-11442
▁በህጋዊ	-11443
▁አገኘ።	-11444
▁የአኗኗር	-11445
▁ምንድን	-11446
OC	-11447
46	-11448
ተለ	-11449
▁የሚያስፈልገውን	-11450
▁ጊዜም	-11451
▁ፕሮፖ	-11452
▁የጠፉ	-11453
ii	-11454
▁የቀይ	-11455
ቲዩብ	-11456
▁ጀመሩ።	-11457
▁እንዲገቡ	-11458
ርማን	-11459
እምሯዊ	-11460
▁ቀንድ	-11461
▁አላው	-11462
ሪነት	-11463
▁ይመራል	-11464
ገግ	-11465
▁አዶ	-11466
▁በመላክ	-11467
ሉስ	-11468
▁በቤተሰብ	-11469
▁ጎጂ	-11470
▁የጠላት	-11471
ነገረው	-11472
▁ፓል	-11473
ዟል።	-11474
▁የተዋሀደ	-11475
▁ስኮትላንድ	-11476
▁ደብዳቤዎች	-11477
▁አሰላለፍ	-11478
▁የክርስቲያን	-11479
ጆቻቸው	-11480
▁የቃል	-11481
▁ያስወግ	-11482
▁ተቋማዊ	-11483
▁ያልተመጣጠነ	-11484
ፋፊ	-11485
▁የሾ	-11486
▁ለማከም	-11487
▁በመገናኛ	-11488
▁ቪላ	-11489
▁ቀርቦ	-11490
▁እንቁላ	-11491
▁ሰፈራ	-11492
▁ለመናገር	-11493
ወጣሉ	-11494
▁የተጠበቁ	-11495
▁የቅጣት	-11496
▁የተገደሉ	-11497
▁የኦሮሚያ	-11498
▁በክለቡ	-11499
▁ሙስና	-11500
▁ይዛመዳል	-11501
▁የሚችለውን	-11502
▁ይፈልጋሉ	-11503
▁ኤክስፕረስ	-11504
▁በእስያ	-11505
▁ማዳን	-11506
▁ሩጫዎችን	-11507
▁የተለቀቀ	-11508
▁አስፈላጊው	-11509
▁ዘገባዎች	-11510
▁ለሮ	-11511
▁ስሜቶች	-11512
▁ተገንብተዋል	-11513
▁በመግለ	-11514
▁ስለነበር	-11515
▁ይለያያሉ	-11516
▁የበቀል	-11517
▁1925	-11518
▁በመቀላቀል	-11519
ial	-11520
▁ጀም	-11521
▁የፃፈው	-11522
▁አሳማኝ	-11523
SS	-11524
▁አልበርት	-11525
▁የማስመሰል	-11526
▁መናፍስት	-11527
▁ኦን	-11528
▁የወቅቱ	-11529
ትራክ	-11530
▁ዲዛይኖች	-11531
ኔጅ	-11532
▁ተስፋዬ	-11533
ሸሽ	-11534
ወርድ	-11535
▁ያምን	-11536
▁የታላቁ	-11537
▁ተባብ	-11538
ጠቅላላ	-11539
▁ታውንሺፕ	-11540
ልፉ	-11541
▁አመጋገብ	-11542
▁የማጥፋት	-11543
▁አንተ	-11544
▁ለባለ	-11545
▁የተናገሩት	-11546
▁የጎንዮሽ	-11547
▁በተደረጉ	-11548
▁እስረ	-11549
▁ለንግድ	-11550
ግለል	-11551
ኒሶታ	-11552
▁የባር	-11553
ከባከብ	-11554
▁በስም	-11555
▁አከባቢዎች	-11556
▁ሲስተም	-11557
▁እሴቶችን	-11558
▁ተቀናቃ	-11559
▁በኦር	-11560
▁ሞርጋን	-11561
▁አሌክስ	-11562
▁አመጣ	-11563
▁በባቡር	-11564
▁ከቲ	-11565
▁በቫይረሱ	-11566
▁በፊልም	-11567
▁በኑ	-11568
▁መከ	-11569
▁እንዲቀጥል	-11570
ቱር	-11571
▁1,000	-11572
ሚንቶ	-11573
▁ሙሉውን	-11574
ፅሙ	-11575
እኛ	-11576
▁በብራዚል	-11577
▁1923	-11578
▁ቱሪዝም	-11579
▁ሞክረዋል	-11580
▁እየተሰራ	-11581
▁ሚውቴ	-11582
▁ተመስ	-11583
ዲሰን	-11584
ለወጥ	-11585
ፈረደበት	-11586
▁ስፕሪንግ	-11587
▁ባለቤቷ	-11588
▁ገብቶ	-11589
ለርስ	-11590
▁አልነበረውም	-11591
▁እናቶች	-11592
ጆን	-11593
▁በብረት	-11594
ሌላ	-11595
▁የመስታወት	-11596
▁ትረስት	-11597
▁አይሆንም	-11598
ካሄዱት	-11599
▁የተካሄደ	-11600
55	-11601
ኤንኤ	-11602
▁ለማንኛውም	-11603
▁ውሳኔዎችን	-11604
▁ተቀማ	-11605
▁እድሳት	-11606
▁ተመዝግበዋል	-11607
▁ህንፃዎችን	-11608
▁ሜት	-11609
▁መጓጓዣ	-11610
▁ካና	-11611
▁እናሳያለን	-11612
▁በስዊድን	-11613
▁አስገዳጅ	-11614
▁በበላይነት	-11615
own	-11616
▁ናት።	-11617
▁እንቁላል	-11618
ፋጠን	-11619
ንግረስ	-11620
▁ይተላለ	-11621
▁ስለማ	-11622
▁እናደርጋለን	-11623
▁ሞሪ	-11624
ቅርቦት	-11625
የቱን	-11626
▁አንዲ	-11627
▁አጥቢ	-11628
▁የጎዳና	-11629
▁ኬይ	-11630
▁ሴንተር	-11631
▁ያመለክታል።	-11632
▁የተዋሀዱ	-11633
▁የማስታወቂያ	-11634
▁የክሮ	-11635
▁ቢት	-11636
▁ከታች	-11637
▁የተቀረፀ	-11638
▁ሀሚልተን	-11639
▁ተክል	-11640
ግሟል	-11641
ብደት	-11642
▁ጄኒ	-11643
▁የተሻሻሉ	-11644
▁በቀላል	-11645
ቴስታ	-11646
▁ከመም	-11647
ኖራቸውም	-11648
ለያይ	-11649
▁የድሮ	-11650
▁ዎከር	-11651
▁አቋቋሙ	-11652
▁አስቆራጭ	-11653
ጀመሪያዎቹ	-11654
▁የተካ	-11655
▁ፔንሲልቬንያ	-11656
▁አምልኮ	-11657
ለትን	-11658
▁መዘጋት	-11659
ሆች	-11660
▁መዋጮ	-11661
▁ወዳድ	-11662
▁ሰራተኞቹ	-11663
▁የተኩስ	-11664
▁ጦርነቱ	-11665
▁ፊዚክስ	-11666
ማኖታዊ	-11667
ሸራተት	-11668
ዴዝ	-11669
▁ጥርስ	-11670
▁ጨረቃ	-11671
▁ከአዲስ	-11672
ኳንተም	-11673
▁Sp	-11674
▁ስፔክትሮ	-11675
ዶቹን	-11676
▁ማጥናት	-11677
▁ካህ	-11678
▁የሚወሰ	-11679
▁ተፅእኖን	-11680
ልሰን	-11681
▁አውሮፕላኑ	-11682
ፓቲ	-11683
▁በሀያ	-11684
▁ስምንተኛ	-11685
▁የተቆ	-11686
መዱ	-11687
▁ልደቶች	-11688
▁ህልም	-11689
▁በነበሩ	-11690
▁ጉልበት	-11691
▁±	-11692
▁መጠና	-11693
▁መገጣጠሚያ	-11694
▁አዋቂዎች	-11695
ከማቸት	-11696
▁ዴቭ	-11697
ሞንድ	-11698
▁ለማስቆም	-11699
ንስታይን	-11700
▁ህይወታቸውን	-11701
▁የልጅነት	-11702
ቡቲ	-11703
▁የነበራቸው	-11704
በልጡ	-11705
▁ህክምናዎች	-11706
መላ	-11707
▁መስፍን	-11708
▁ግራን	-11709
▁ተረት	-11710
ዛው	-11711
▁በመመ	-11712
ሯት	-11713
▁ትልቁን	-11714
▁መስማት	-11715
▁እንዲቀንስ	-11716
▁ይሞ	-11717
▁ጥሰ	-11718
▁አባቷ	-11719
▁ቴክኖሎጂን	-11720
▁ማንበብ	-11721
ies	-11722
▁የተጠናቀቁ	-11723
ረጎ	-11724
▁ፍቅረኛ	-11725
▁ይመጣል	-11726
▁የአውራጃ	-11727
▁ተሰራጭቷል	-11728
▁እያደረጉ	-11729
▁ሰጠች	-11730
▁ሲሰ	-11731
ኖል	-11732
ፕቲክ	-11733
▁አስችሏ	-11734
ሊክስ	-11735
▁የመጠጥ	-11736
ጳጳ	-11737
ኩር	-11738
▁ማሟ	-11739
▁ሰሚ	-11740
▁የሚዘ	-11741
▁ነጋ	-11742
▁በአደጋ	-11743
ጠይቁ	-11744
▁የክሪ	-11745
▁ይል	-11746
▁በሰር	-11747
ንቅልፍ	-11748
▁የተፈረ	-11749
▁አጨ	-11750
ወቀ	-11751
▁የደረሰው	-11752
▁ይገባል።	-11753
▁በፍራን	-11754
▁ትግራይ	-11755
▁ከጨዋታው	-11756
▁ህይወቱን	-11757
▁ሁሉን	-11758
ህዝብ	-11759
▁ቁጥራቸው	-11760
ge	-11761
▁የኤፒ	-11762
▁ተይ	-11763
▁ጅራት	-11764
▁ቡር	-11765
ፖርተር	-11766
▁ሞንቴ	-11767
ግዛት	-11768
▁ተደርጓል።	-11769
ጋቸውን	-11770
▁ተለውጠዋል	-11771
ጎቱ	-11772
ብስክ	-11773
▁ፋሽን	-11774
▁መንሸራተቻዎች	-11775
▁56	-11776
▁ለመቃወም	-11777
▁ለሙሉ	-11778
ሀሳስ	-11779
▁ሄደ።	-11780
▁ኢንዴክስ	-11781
▁በፍቅር	-11782
▁ከአከባቢው	-11783
▁በመሰንዘር	-11784
▁የአመራር	-11785
▁ያስተላል	-11786
▁ከሉ	-11787
▁በሳምንቱ	-11788
▁ሮስ	-11789
▁ማበረታቻ	-11790
▁ተናጋሪዎች	-11791
▁ጥቅሞችን	-11792
ሀተን	-11793
▁የሽያጭ	-11794
▁በአምስተኛው	-11795
▁59	-11796
▁አባላቱ	-11797
▁ታውቋል።	-11798
▁ለመወዳደር	-11799
▁ማዋሀድ	-11800
▁ገፃ	-11801
ንትራት	-11802
ላቋ	-11803
▁በወንጀል	-11804
ቀርበው	-11805
ጠቀሙበት	-11806
▁ችሎታን	-11807
▁እህቶች	-11808
ሰጥም	-11809
▁ለመቅረፍ	-11810
ሳችን	-11811
ታችንን	-11812
▁እያስ	-11813
▁ግንዛቤን	-11814
▁እፎ	-11815
▁ኮርፖሬ	-11816
▁ሀርድ	-11817
ኤፍኤ	-11818
▁መከፋፈል	-11819
ጦሽ	-11820
▁ይመለከቱ	-11821
▁ምሰሶዎች	-11822
▁የሱፐር	-11823
▁ዘይቤዎች	-11824
bo	-11825
ኡዲ	-11826
▁ሊኖሩ	-11827
▁በህዝ	-11828
▁ለጋዜ	-11829
▁ተቆር	-11830
ዳደረው	-11831
▁አትሌት	-11832
▁ሽያ	-11833
ድሰን	-11834
ቫና	-11835
▁ለማስፋት	-11836
▁አድርጋለች	-11837
▁ተነስቶ	-11838
▁ሎኮሞ	-11839
▁ርካሽ	-11840
▁ዋነኛው	-11841
▁አዴ	-11842
ሌና	-11843
▁ያሻሽ	-11844
▁በሰጠው	-11845
▁ማፅዳት	-11846
ቦይ	-11847
ድሮስ	-11848
▁53	-11849
▁የተገኘውን	-11850
▁ማስተማር	-11851
▁ተካትቷል	-11852
▁የጡንቻ	-11853
▁ይቀር	-11854
▁መስጊ	-11855
ዊነት	-11856
▁የቀድሞውን	-11857
▁ፕሮጄ	-11858
▁የባል	-11859
▁ምልከታዎች	-11860
▁ከካር	-11861
▁በተፈጠረው	-11862
▁ደህና	-11863
▁በጠቅላይ	-11864
ዥው	-11865
የአሜሪካ	-11866
ደኞች	-11867
ፌዴሬሽኑ	-11868
▁ወረቀቱ	-11869
▁ቲም	-11870
▁ለመሳብ	-11871
ክሶ	-11872
▁ለደ	-11873
▁ትራን	-11874
▁ሲሊን	-11875
▁ትእዛዞች	-11876
▁በሽታዎችን	-11877
▁ካሉት	-11878
ያውቁ	-11879
ኤፍሲ	-11880
▁ገደቦችን	-11881
▁አንሺ	-11882
ቢአይ	-11883
▁ይወያያሉ	-11884
▁ተልእኮዎች	-11885
ሊስቶች	-11886
▁ስኳር	-11887
▁አክሲ	-11888
ሞክርም	-11889
ቤሪያ	-11890
▁ተቋማትን	-11891
▁ሞዴሉ	-11892
CO	-11893
▁በቦስተን	-11894
▁ቻርተር	-11895
▁በቻር	-11896
▁የኩላሊት	-11897
ሽኖችን	-11898
▁ሲናገር	-11899
▁አስተማሪዎች	-11900
ሬክ	-11901
▁እብድ	-11902
ኦክሳይድ	-11903
▁ከጠዋቱ	-11904
ምፔሪያል	-11905
se	-11906
ታይድ	-11907
▁ግል	-11908
ሩትን	-11909
▁የኢራቅ	-11910
▁መድልዎ	-11911
▁ይደግፋሉ	-11912
▁ሰጭ	-11913
▁የተዘ	-11914
▁የማጣሪያ	-11915
▁በመካከላቸው	-11916
▁መስጫ	-11917
ገናል	-11918
▁በጆርጅ	-11919
▁ተችቷል	-11920
▁በሶስተኛ	-11921
የተወለደ	-11922
ሰሰ	-11923
▁ህይወታቸው	-11924
▁በሚገባ	-11925
▁የሚወስደውን	-11926
▁የለበትም	-11927
ታና	-11928
▁ፅፏል።	-11929
▁መዝሙር	-11930
ዋቀር	-11931
ከታተያ	-11932
የሩሳሌም	-11933
ነቲከት	-11934
▁መልሰው	-11935
▁ዋንግ	-11936
▁የመዝ	-11937
▁ሲድኒ	-11938
ፈርሰን	-11939
▁ፆ	-11940
ጉላት	-11941
▁ራዲ	-11942
ላቸዋል።	-11943
▁የሚታወቁ	-11944
▁በእውነት	-11945
ቮይ	-11946
▁የኩባንያ	-11947
ፓጋንዳ	-11948
▁ኮማን	-11949
ጣቸውን	-11950
▁ከሚገኙ	-11951
▁ተስማማ	-11952
▁በማም	-11953
ሰማራት	-11954
▁ይመለሳል	-11955
EA	-11956
▁1913	-11957
ርሰን	-11958
▁ተርፎ	-11959
▁በተባለው	-11960
-15	-11961
▁የዴንማርክ	-11962
▁«	-11963
▁ገንቢ	-11964
▁አገልጋዮች	-11965
▁ስኬቶች	-11966
▁የሚረዱ	-11967
ን፣	-11968
▁ሊተ	-11969
▁ቀሪውን	-11970
▁በፅሁፍ	-11971
▁በሚያስደንቅ	-11972
▁ለስድስት	-11973
ሴሎና	-11974
ክንያ	-11975
▁የሞገድ	-11976
▁ፈረን	-11977
▁(10	-11978
ኖቭ	-11979
▁ማጠናከሪያ	-11980
▁እንዲታ	-11981
▁ከቁጥጥር	-11982
ሰለ	-11983
▁ወደዚያ	-11984
▁ከወደ	-11985
▁ቁርጥራ	-11986
▁በቨርጂኒያ	-11987
▁ውሻ	-11988
ort	-11989
▁እት	-11990
▁የአገሪቱን	-11991
▁ተነሳሽ	-11992
▁የኮምፒዩተር	-11993
ሌው	-11994
▁ሞገስ	-11995
▁ዝቅተኛው	-11996
ማቲ	-11997
▁ሊሰጥ	-11998
▁ተዋፅኦ	-11999
▁ጉድጓዶች	-12000
▁ሲያሸንፍ	-12001
▁በአውሮፕላን	-12002
▁በኤች	-12003
▁ለእኔ	-12004
▁የሚውለው	-12005
▁አሌን	-12006
ሏን	-12007
▁መላውን	-12008
▁ተዘጋጅተዋል	-12009
▁(3)	-12010
ጓራ	-12011
ክም	-12012
▁ተዘርዝሯል	-12013
ፈፍ	-12014
▁በፓርላማ	-12015
ሜታዊ	-12016
▁በሜዳው	-12017
ጓዘ	-12018
ግኒ	-12019
▁የቆዩ	-12020
▁ተሸንፏል	-12021
▁ሊሰ	-12022
ፊያዎች	-12023
▁ሜታቦ	-12024
ቁጠር	-12025
▁ታዲያ	-12026
▁ተዳ	-12027
ዎል	-12028
ህሊና	-12029
ሳተላይት	-12030
ዝል	-12031
ከፍል	-12032
▁አትላንቲክ	-12033
▁በማስቆጠር	-12034
▁ይበልጣል	-12035
▁በኖርዌይ	-12036
▁ራስል	-12037
▁ችግርን	-12038
▁ኢነርጂ	-12039
▁ግራንት	-12040
ወዳ	-12041
▁የፊልሙ	-12042
▁የሞተ	-12043
▁ከአስራ	-12044
ሮጌው	-12045
▁ደህንነትን	-12046
▁PA	-12047
▁የስደተኞች	-12048
▁አደራጅ	-12049
▁በሳይንስ	-12050
▁1911	-12051
▁ለመሸፈን	-12052
ንስን	-12053
▁ኮሚኒስት	-12054
▁በአካባቢያዊ	-12055
vol	-12056
ብሰን	-12057
▁ያመጣ	-12058
▁በማይክሮ	-12059
▁ያድ	-12060
▁የነፃ	-12061
ዘመን	-12062
▁የሚያደርገው	-12063
▁ብርሀኑ	-12064
▁የአጎት	-12065
▁ብሎኮች	-12066
▁በእነዚያ	-12067
▁የላቲን	-12068
ኙን	-12069
ጠረጴዛ	-12070
ፍሮ	-12071
▁ፕሮቶኮል	-12072
▁ገጥ	-12073
▁ፕሮቲኖች	-12074
▁መሳ	-12075
▁አይቻልም	-12076
▁ለመፃፍ	-12077
ንቲን	-12078
▁ለኒው	-12079
▁እለ	-12080
ደራደር	-12081
▁ሲምፎ	-12082
ረስት	-12083
▁ኪት	-12084
▁ሚያ	-12085
▁ምስክሮች	-12086
▁ማጎልበት	-12087
▁ፕሬዚዳንታዊ	-12088
▁ይነግ	-12089
▁ፔሪ	-12090
▁ሰሞኑን	-12091
▁በኮሮና	-12092
▁የክፍያ	-12093
pool	-12094
▁ተሰጥቷ	-12095
▁ጠቅሰዋል	-12096
▁በፎቶ	-12097
▁×	-12098
▁መለሰ	-12099
▁ፓነል	-12100
▁በማነፃፀር	-12101
▁(0	-12102
▁ድክ	-12103
▁ህመ	-12104
▁አልነበራቸውም	-12105
▁ከተጀመረ	-12106
▁ዬ	-12107
ርሱ	-12108
ጅቶች	-12109
▁ባለበት	-12110
▁ድልድዮች	-12111
▁አዳምስ	-12112
ጊቱ	-12113
▁በመልቀቅ	-12114
ገነባው	-12115
▁ብሄረሰቦች	-12116
▁መርከቡ	-12117
▁ይነሳ	-12118
ሲው	-12119
▁ሀሰተኛ	-12120
▁ከማን	-12121
▁የተራቀቁ	-12122
▁መጠነ	-12123
ሰረቱ	-12124
▁ሻን	-12125
▁ማክሮ	-12126
▁አስረድተዋል	-12127
▁re	-12128
ተገናኝ	-12129
▁ኢንሹራንስ	-12130
▁የእርዳታ	-12131
▁ጋዜጣዊ	-12132
▁የጉበት	-12133
▁በእሷ	-12134
ልዩ	-12135
በረከተ	-12136
▁ቆጣ	-12137
▁ጎብ	-12138
ሆል	-12139
ፈጠር	-12140
ባቸውም	-12141
▁በሚያሳ	-12142
▁የሚያጋጥ	-12143
▁የራሷን	-12144
▁እጩነት	-12145
ወቅት	-12146
ዜን	-12147
▁ሀሳቡን	-12148
▁4.	-12149
▁ሰርጦች	-12150
▁የተሰጠውን	-12151
▁በመፈለግ	-12152
▁ከዋና	-12153
▁ይቃወ	-12154
▁መለቀቅ	-12155
ቶም	-12156
ሎቫኪያ	-12157
▁ያዳ	-12158
▁ፌዴራል	-12159
▁ፒኤች	-12160
▁ተፈቅዶ	-12161
ህዴ	-12162
▁ፒያኖ	-12163
▁ሞገዶች	-12164
▁አስጠን	-12165
ኩራ	-12166
▁እንመረም	-12167
▁ዴን	-12168
መረው	-12169
▁ሎው	-12170
▁የሟ	-12171
▁ብን	-12172
▁ለመወያየት	-12173
▁የሚያገለግል	-12174
▁ወንጀለኞች	-12175
▁ቀርቶ	-12176
▁ያቀርባሉ	-12177
▁አሻንጉ	-12178
▁ማድሪድ	-12179
ዮስ	-12180
ሜር	-12181
ሪስቶች	-12182
▁ክምች	-12183
▁ዘዴው	-12184
▁መረጃው	-12185
ያልፍ	-12186
ፀያ	-12187
▁አካባቢውን	-12188
ነፃ	-12189
▁በተዘጋጀው	-12190
ሰቦችን	-12191
▁የተሰኘው	-12192
በሱ	-12193
የች	-12194
ጃሚን	-12195
▁የሶሪያ	-12196
▁የዌስት	-12197
ቢስ	-12198
▁ማሰሪያ	-12199
BS	-12200
act	-12201
▁ወሽ	-12202
ገኛለች	-12203
▁የፖሊ	-12204
▁ቀና	-12205
▁ከተከሰተ	-12206
▁Liver	-12207
IT	-12208
▁የእውነተኛ	-12209
PC	-12210
ስትራክሽን	-12211
▁ምስክርነት	-12212
▁72	-12213
ንጋል	-12214
▁ተዋግ	-12215
ዲንበርግ	-12216
▁ቅርፆችን	-12217
ሮቭ	-12218
▁ሚኔ	-12219
▁ክፍያዎች	-12220
▁በምግብ	-12221
▁ባክ	-12222
▁ክንድ	-12223
▁የኦስትሪያ	-12224
ዛሪ	-12225
▁ለማስቻል	-12226
▁በአዳዲስ	-12227
▁ኦርሊንስ	-12228
▁የተወለደ	-12229
▁ማንቸስተር	-12230
ኮክ	-12231
▁ጭብጦች	-12232
▁Liverpool	-12233
▁በአድ	-12234
▁ይወጣል	-12235
▁የሰርቢያ	-12236
▁ቅሬ	-12237
▁ለብሄራዊ	-12238
▁ይመራ	-12239
▁የሀገ	-12240
▁የሚጋ	-12241
ኪም	-12242
▁ይደርሳል	-12243
▁1908	-12244
▁አላውቅም	-12245
ልምና	-12246
ለማችን	-12247
2013	-12248
▁ዴኒስ	-12249
▁አፀደቀ	-12250
▁ጌጣጌ	-12251
▁ለች	-12252
▁ስደተኛ	-12253
▁ማርጋሬት	-12254
ib	-12255
ሚኒየም	-12256
ዚዮ	-12257
▁ንግግሮች	-12258
▁የታቀደ	-12259
▁እንደሚሰራ	-12260
▁ደሳ	-12261
▁ሮጀር	-12262
▁:	-12263
▁ፕሌይ	-12264
▁እንስሳ	-12265
▁መድሀኒቶችን	-12266
▁1,5	-12267
▁ግዢ	-12268
▁ከነበሩት	-12269
▁የናሙና	-12270
ዝድ	-12271
▁በመጨ	-12272
ዎቿ	-12273
ሁም	-12274
ዛማጅ	-12275
▁ግስ	-12276
▁68	-12277
▁በማስወገድ	-12278
▁የሀንጋሪ	-12279
▁የተቀበለ	-12280
▁ማድረጉ	-12281
▁ቆይተዋል	-12282
ላሴ	-12283
▁ሰርተዋል	-12284
▁ለዩናይትድ	-12285
▁መርከበኞች	-12286
IA	-12287
▁ሽፋኖች	-12288
▁የረ	-12289
▁ይከላከ	-12290
▁ወሰደ	-12291
▁ርህራሄ	-12292
▁በጀ	-12293
ጠቀመ	-12294
▁አክሏል	-12295
▁1880	-12296
▁ሲሰራ	-12297
▁ወሽመጥ	-12298
ቴስታንት	-12299
▁ብራዚል	-12300
ጎው	-12301
▁አለኝ	-12302
ሳምንቱ	-12303
▁እፎይታ	-12304
▁ዳኛው	-12305
▁ስጋቶች	-12306
▁ተሸንፈዋል	-12307
▁ቦም	-12308
▁ቃጠ	-12309
▁የሚቆይ	-12310
ቁላል	-12311
ሳሰሉ	-12312
▁ለእነሱ	-12313
▁ነፍስ	-12314
▁ከተለ	-12315
አስደናቂ	-12316
▁ኬሚካ	-12317
▁ፎቶግራፎች	-12318
▁ማእዘ	-12319
▁መስህ	-12320
▁ፅን	-12321
▁በሚችሉ	-12322
▁ከቻ	-12323
▁የመለየት	-12324
ሲየስ	-12325
▁ፋርማ	-12326
▁ታጣቂዎች	-12327
ሊየር	-12328
ብሰባው	-12329
▁ሳንታ	-12330
▁በመከላከያ	-12331
▁የቪክቶሪያ	-12332
▁ቬን	-12333
ቤሪ	-12334
▁ተላልፈዋል	-12335
ፎልክ	-12336
▁የሚችሉት	-12337
ፋማ	-12338
▁በደር	-12339
▁በአሉ	-12340
▁ገልጿል	-12341
ver	-12342
▁ዘውግ	-12343
▁በተገኙ	-12344
▁(8	-12345
የኢትዮጵያ	-12346
▁የተሰየመ	-12347
▁800	-12348
▁ይቻላል።	-12349
▁አፖ	-12350
▁የመጨረሻዎቹ	-12351
▁ያቋር	-12352
▁በማውጣት	-12353
▁የጋብቻ	-12354
ፀያፊ	-12355
▁ኋን	-12356
▁መስታ	-12357
ናቀል	-12358
▁ነዋሪዎችን	-12359
▁የንባብ	-12360
▁ሰጥተዋል።	-12361
▁በይነተገናኝ	-12362
ፍሰስ	-12363
▁ሲሞን	-12364
▁በመመልከት	-12365
ጣታቸው	-12366
▁የፕሪ	-12367
▁ያመነ	-12368
▁መክፈል	-12369
▁እስልምና	-12370
▁ግግር	-12371
▁57	-12372
▁የመብራት	-12373
▁የመመገቢያ	-12374
▁ፀጉ	-12375
▁አንዳቸውም	-12376
▁ቢላዋ	-12377
▁ዌል	-12378
▁በመነሳት	-12379
▁እንስሳትን	-12380
▁መኪናው	-12381
ኖረ	-12382
ኩርት	-12383
▁ጠርቶታል	-12384
▁ማእከሉ	-12385
▁ቴሪ	-12386
▁ጌታቸው	-12387
ፕቴምበር	-12388
ሳሉ።	-12389
ግረ	-12390
ቅቋል	-12391
ፍሬ	-12392
ግሬድ	-12393
▁አቋቁሟል	-12394
▁ክርስቶስ	-12395
PR	-12396
▁ስኮላር	-12397
ልኝ	-12398
▁ቅርሶች	-12399
▁ከሎ	-12400
▁ኑሮ	-12401
▁ረጅሙ	-12402
▁በሚችል	-12403
▁ባህሎች	-12404
▁ያሳድራሉ	-12405
▁ቁጥጥርን	-12406
▁የተጠቀሰው	-12407
-7	-12408
▁በፕሬዚዳንት	-12409
▁በኮሎምቢያ	-12410
▁ከገባ	-12411
▁መኸር	-12412
▁ጉን	-12413
▁አክቲቪስቶች	-12414
▁ጭምብል	-12415
DS	-12416
ጋባ	-12417
▁ግማ	-12418
▁ቺካጎ	-12419
▁መስታወት	-12420
▁ሳንድ	-12421
▁ክሪስታ	-12422
▁ጠቁሟል	-12423
ከተሉት	-12424
ዚየም	-12425
▁ኖርዝ	-12426
ቆመው	-12427
ለ።	-12428
ከተሞች	-12429
ቫዳ	-12430
ሊቲክ	-12431
ውቀው	-12432
ian	-12433
▁እንደፃፈው	-12434
▁ባለሙያዎችን	-12435
▁ሪፐብሊካን	-12436
▁ሪፖርቱ	-12437
IR	-12438
▁ከሬ	-12439
▁የግጥም	-12440
▁መት	-12441
ይህም	-12442
▁ከአም	-12443
ላሹ	-12444
▁ታትሟል	-12445
▁አንዴ	-12446
▁ጉዳቶችን	-12447
▁አስቀምጧል	-12448
▁ወለሎች	-12449
▁እንግዶች	-12450
ጠንካራ	-12451
▁መቋረጥ	-12452
▁ማጠናቀ	-12453
ድጉ	-12454
▁ትምህርቶችን	-12455
▁ለማገልገል	-12456
▁ደሳለኝ	-12457
ችነት	-12458
▁በተያያዙ	-12459
▁ካርተር	-12460
ዲፈ	-12461
--	-12462
▁የጥገና	-12463
▁ሰጥቷል።	-12464
▁ሊያስከትሉ	-12465
▁ከሚለው	-12466
▁ደማቅ	-12467
▁ዶክ	-12468
ሩስያ	-12469
▁ኒዮ	-12470
▁ጥንታዊው	-12471
▁ሆት	-12472
▁ፍልሰት	-12473
ሟሟ	-12474
▁ይገለፃል	-12475
▁ተመለሰች	-12476
▁ያደርጋል።	-12477
ራሹ	-12478
▁78	-12479
▁ያደርጉ	-12480
▁ያሸን	-12481
ለችም	-12482
▁ፍጥረታት	-12483
ቀበለ	-12484
ust	-12485
▁የተከበረ	-12486
ሙም	-12487
ጴጥ	-12488
▁ሰረገ	-12489
▁አደረ	-12490
▁ማቆየት	-12491
▁የውጤት	-12492
▁99	-12493
ማም	-12494
▁ተቀላቅ	-12495
▁ወታደሮቹ	-12496
▁ግዴታዎች	-12497
▁ማሰባሰብ	-12498
▁ቀረፃዎች	-12499
▁ይለያል	-12500
▁ሲቪ	-12501
▁የዲሲ	-12502
▁Pl	-12503
▁ለሴ	-12504
▁ለመማር	-12505
▁በጥናቱ	-12506
▁ሲያደርጉ	-12507
▁አደጋዎችን	-12508
▁የብራዚል	-12509
▁የዳይ	-12510
▁ስምምነቱ	-12511
ሰብሰቢያ	-12512
▁መመሪያዎችን	-12513
▁ይተገበራል	-12514
▁የእነ	-12515
▁የእና	-12516
ራይዜሽን	-12517
▁የተደባለቀ	-12518
▁ቶምፕሰን	-12519
▁አደን	-12520
▁የጥቁር	-12521
▁የከርሰ	-12522
▁አክለውም	-12523
▁ማስወረ	-12524
▁ቻንስ	-12525
▁ከእንግሊዝ	-12526
▁የተጠናቀቀ	-12527
▁ያስችላል	-12528
▁ሜትሮፖሊታን	-12529
▁የእነዚህን	-12530
ዩስተን	-12531
በርትስ	-12532
▁ሀሳብን	-12533
▁ክልሉ	-12534
▁ዋናዎቹ	-12535
▁የተፈፀመ	-12536
ቃሽነት	-12537
▁ስእሎችን	-12538
▁የጨዋታው	-12539
▁እግሮች	-12540
ስኒያ	-12541
▁የተሾመ	-12542
▁ለሁለቱም	-12543
▁ቦውል	-12544
LC	-12545
▁ግለሰባዊ	-12546
ጨምሩ	-12547
▁አይኖች	-12548
▁ኮሪ	-12549
ቀረት	-12550
ሄደ	-12551
▁አንጎል	-12552
-12	-12553
ኪዎች	-12554
▁የአሸዋ	-12555
▁ጠየቁ	-12556
▁ብሌ	-12557
▁የዛሬ	-12558
▁ስብስቦችን	-12559
▁ጠንከር	-12560
ሲያትል	-12561
▁አመስግ	-12562
▁አግኝቶ	-12563
▁ቢስ	-12564
▁በጂኦ	-12565
▁ኢየሱስ	-12566
▁በዲጂታል	-12567
▁የበለፀጉ	-12568
▁ኩባ	-12569
▁የቅንጦት	-12570
▁ከቀዳሚው	-12571
ጠች	-12572
▁በደረሰበት	-12573
▁ተጋድ	-12574
▁የሚያካትቱ	-12575
▁ከአር	-12576
ኪንሰን	-12577
መጣጣኝ	-12578
▁የቤተክርስቲያን	-12579
▁መስዋእትነት	-12580
▁ብሩስ	-12581
▁በቴክኖሎጂ	-12582
▁ያድርጉ	-12583
▁ቢኖር	-12584
ደሰት	-12585
▁ቤከር	-12586
ፃሚዎች	-12587
▁ተቀበሉ	-12588
ኤምኤ	-12589
▁አንጋ	-12590
▁የቀኝ	-12591
▁ፍላጎቶችን	-12592
▁መሰናክሎች	-12593
▁mg	-12594
▁ተከሳ	-12595
▁ተቀላቀሉ	-12596
▁መወለድ	-12597
▁ላን	-12598
▁ሲኖ	-12599
▁የራሳቸው	-12600
▁ይከናወናል	-12601
ጊን	-12602
▁የፕሮቲን	-12603
▁አበርክ	-12604
▁ለመጠ	-12605
▁የጠመንጃ	-12606
ምየር	-12607
ራና	-12608
▁ቁም	-12609
▁አንገት	-12610
▁ሮቢንሰን	-12611
▁ሲጠናቀቅ	-12612
▁የጨዋታውን	-12613
ቄዶ	-12614
▁የሀር	-12615
ቃሉ።	-12616
ሽከረከር	-12617
▁ጄይ	-12618
▁ለማስገባት	-12619
▁በፓኪስታን	-12620
▁ሴሚና	-12621
▁ዩኒቨርስቲ	-12622
ላይታ	-12623
▁የኢህአዴግ	-12624
▁የሚመለከት	-12625
▁አፍንጫ	-12626
▁ታደሰ	-12627
▁ስርጭቶች	-12628
▁አስተዳደሩ	-12629
▁ዎል	-12630
▁ጠይቋል	-12631
▁መገመት	-12632
ሴስ	-12633
▁በሆስፒታል	-12634
▁66	-12635
▁ቫይረሱ	-12636
▁መግዛት	-12637
▁ከመሆን	-12638
▁በመተንተን	-12639
▁እንመረምራለን	-12640
ላቭ	-12641
▁ያስወግዳል	-12642
SR	-12643
▁ግሌን	-12644
ፒኤስ	-12645
ለናል	-12646
▁ያዘ	-12647
▁እንደሚያደርግ	-12648
▁ጣቢያዎችን	-12649
አቶ	-12650
▁አልማ	-12651
▁ፈልጎ	-12652
ሊየም	-12653
▁ትርፋማ	-12654
▁እንደዚያ	-12655
▁አንጓ	-12656
ዲፈቻ	-12657
በእው	-12658
▁ግለሰቦችን	-12659
▁መቅደስ	-12660
▁ተጠቅሞ	-12661
▁ተደራጅ	-12662
ወቁ	-12663
ላሉ።	-12664
ሬንጅ	-12665
▁ተወዳዳሪዎች	-12666
▁ዝርዝሮችን	-12667
ጠብጣ	-12668
▁በመቀበል	-12669
▁እንዳደረገ	-12670
ኒየስ	-12671
▁የማይንቀሳቀስ	-12672
▁የዌልስ	-12673
▁መጨና	-12674
▁የግምገማ	-12675
ወያዩ	-12676
▁በጀርባው	-12677
▁ሊንከን	-12678
▁ተከስቷል	-12679
▁የመጓጓዣ	-12680
ኮሎጂ	-12681
▁ሊገኙ	-12682
▁የከዋክብት	-12683
▁ለኪ	-12684
▁ኢር	-12685
▁የዚ	-12686
▁በመፃፍ	-12687
▁ህዝበ	-12688
FC	-12689
ብረር	-12690
▁ሳቢያ	-12691
▁የዲስ	-12692
▁ወይንም	-12693
ስርአት	-12694
ሀምፕተን	-12695
▁በመቀየር	-12696
ፒዶ	-12697
▁ይጠናቀ	-12698
ሰልጣኝ	-12699
▁የለሽ	-12700
▁ሶስተኛውን	-12701
▁ከባህ	-12702
ላዊው	-12703
ሊኮን	-12704
▁ተከታት	-12705
▁ያበቃል	-12706
▁የተራራ	-12707
▁የታቀደው	-12708
▁የተጠናከረ	-12709
▁ማሟላት	-12710
ቀይር	-12711
-198	-12712
በም	-12713
ካሂዱ	-12714
▁ወጣቱ	-12715
▁ከወንድ	-12716
▁ሁላችንም	-12717
▁ግልፅነት	-12718
ሽንስ	-12719
ይህን	-12720
▁በክላ	-12721
▁የሚጠቀም	-12722
▁የችርቻሮ	-12723
ስትን	-12724
▁የመሰረት	-12725
▁መተው	-12726
▁በኢራን	-12727
▁ጎረቤት	-12728
▁የሚያንፀባርቅ	-12729
▁የሚያመለክተው	-12730
▁ቢሞክርም	-12731
▁መሞከር	-12732
▁የበጀት	-12733
የሀ	-12734
ቬልት	-12735
▁ተሰማር	-12736
መርጡ	-12737
ርክቲክ	-12738
▁የተፈጠረውን	-12739
ደርደ	-12740
▁ኢኮኖሚክስ	-12741
▁ፍን	-12742
▁ውሳኔውን	-12743
▁ነጠብጣ	-12744
▁ተቀበ	-12745
▁በመተኮስ	-12746
▁ሄል	-12747
▁ኔልሰን	-12748
▁ጎርደን	-12749
▁ከግብ	-12750
▁160	-12751
▁ያላትን	-12752
ዜማ	-12753
▁ተሞል	-12754
▁ለራሱ	-12755
▁መደረግ	-12756
▁ፕሮዲዩ	-12757
▁አርትስ	-12758
▁የጆን	-12759
▁ኔትወርክ	-12760
▁አስገኝ	-12761
▁ተንትነዋል	-12762
ሮንግ	-12763
▁የተመዘገበ	-12764
MP	-12765
▁የኦቶማን	-12766
ሮል	-12767
▁ሊወሰድ	-12768
ለፈው	-12769
▁ያጠ	-12770
▁ይከላከላል	-12771
▁የታቀዱ	-12772
ክትል	-12773
▁የቴክኒክ	-12774
▁ሌላውን	-12775
ብስክሌት	-12776
▁የገፉ	-12777
ሺዮሎጂ	-12778
ቪየር	-12779
ሩ።	-12780
▁ለጥቂት	-12781
▁የተከለከለ	-12782
ፌን	-12783
ደግፍ	-12784
ባህሪው	-12785
▁አብርሀም	-12786
በያዎች	-12787
▁የተራዘመ	-12788
▁ፈላስ	-12789
▁በፖርት	-12790
▁ልቀቶች	-12791
ace	-12792
▁መነቃ	-12793
▁የሚተዳደር	-12794
▁ገበታዎች	-12795
▁በማድ	-12796
ፍሬድ	-12797
▁ስካው	-12798
▁የመተንፈሻ	-12799
ጠሩት	-12800
▁ክሪስቶፈር	-12801
ቆስ	-12802
ላውያን	-12803
▁ከአይ	-12804
ጨስ	-12805
▁የወያኔ	-12806
ራንያን	-12807
▁የሰውን	-12808
▁በተቀ	-12809
▁በሂሳብ	-12810
▁የሙሉ	-12811
▁ቅጠል	-12812
▁ዘገባው	-12813
▁ቆጣቢ	-12814
▁የሚደግፍ	-12815
▁አስማት	-12816
መዘ	-12817
▁ያህ	-12818
▁የክር	-12819
ላቻ	-12820
▁ሀዲዶች	-12821
▁ተገለፀ	-12822
▁ተገልጿል	-12823
ራለች።	-12824
ትሮይት	-12825
▁ተም	-12826
▁በምላሹ	-12827
ሂል	-12828
ሎቱ	-12829
ሸነፈው	-12830
▁በሰዎች	-12831
ንም።	-12832
▁ልኬቶች	-12833
▁ባለድርሻ	-12834
▁ለኩ	-12835
▁ተፈር	-12836
▁እኔም	-12837
▁0.	-12838
▁በፊሊፒንስ	-12839
ንድሮ	-12840
▁ውብ	-12841
▁CR	-12842
▁ታር	-12843
ግድ	-12844
▁ለአዲሱ	-12845
ሜሪ	-12846
ማንቲክ	-12847
ነስት	-12848
▁ድግስ	-12849
▁መክ	-12850
▁በእኩል	-12851
▁መፈጠር	-12852
ኦር	-12853
▁ብላለች	-12854
ግራቸው	-12855
ፀብራ	-12856
▁ፕሪክስ	-12857
▁አስማታዊ	-12858
▁መቆየት	-12859
▁በረከት	-12860
▁የመተማመን	-12861
▁የህንፃ	-12862
▁በመሆኗ	-12863
ላለፈው	-12864
▁ጎዳናው	-12865
▁ከፎ	-12866
▁ገለፁ	-12867
▁ጌጣጌጥ	-12868
▁አጥነት	-12869
▁ዲፕሎማሲያዊ	-12870
▁አማልክት	-12871
▁ምርኮ	-12872
▁የኮሎምቢያ	-12873
ዘርባ	-12874
▁ጠንቋ	-12875
▁ፕሬዚዳን	-12876
ትርያ	-12877
▁ጀብዱ	-12878
▁ጥንዶች	-12879
▁መውደቅ	-12880
▁በመመለስ	-12881
ፈኑ	-12882
▁መከሰት	-12883
ሳዎች	-12884
ድዋርድ	-12885
ባኤው	-12886
▁ከሀይ	-12887
▁ጂሚ	-12888
▁ኢንግላንድ	-12889
▁1905	-12890
▁ያወጣ	-12891
▁የቅጂ	-12892
▁ፌስቲቫ	-12893
ያሚ	-12894
ምንጭ	-12895
ጋራት	-12896
▁ለመጓዝ	-12897
▁በዩኤስ	-12898
▁ማሀበራዊ	-12899
▁ቀል	-12900
▁የዩኒ	-12901
▁በአጎራባች	-12902
▁ረድፍ	-12903
ለት።	-12904
ሉላር	-12905
▁ሴሎችን	-12906
ለሽ	-12907
▁በኢራቅ	-12908
▁ተንታኞች	-12909
▁የቱሪስት	-12910
▁ከዩኤስ	-12911
▁ቅጥ	-12912
ure	-12913
▁አሻራ	-12914
▁ታይቶ	-12915
▁ጃኮ	-12916
▁በዝግታ	-12917
▁ሙስ	-12918
▁ግሽ	-12919
የል	-12920
ደረገም	-12921
▁ሪጅ	-12922
▁የወተት	-12923
ምፒዮና	-12924
▁በቁጣ	-12925
▁ይጠራሉ	-12926
ለያየት	-12927
▁ቦንድ	-12928
▁ኔት	-12929
ኒካል	-12930
▁በንድፈ	-12931
▁ዴይ	-12932
▁የተዛባ	-12933
▁በበቂ	-12934
▁አሳታሚ	-12935
▁የፍልስፍና	-12936
▁በመተው	-12937
▁ማስረጃዎችን	-12938
▁ሰላሳ	-12939
▁የመሰረተ	-12940
▁እድገቶች	-12941
▁መንጋ	-12942
▁ካርዲናል	-12943
▁ማዳበር	-12944
▁ጣይ	-12945
▁የፓስፊክ	-12946
ነም	-12947
▁ሪክ	-12948
▁ቪክቶር	-12949
▁ተፎካካሪዎች	-12950
▁ዝግጅቶችን	-12951
▁ፊደላት	-12952
▁ሸቀጦች	-12953
▁ታይተዋል	-12954
▁ስና	-12955
▁በበለጠ	-12956
▁የተወካዮች	-12957
▁ቀጠሉ	-12958
▁መያዙ	-12959
▁ድንጋጤ	-12960
ከፈተ	-12961
▁እድሉ	-12962
ዲሲ	-12963
ዮንግ	-12964
▁ይገኙበታል።	-12965
▁ሮቦ	-12966
ሂም	-12967
▁አገሪቱን	-12968
▁የተጨና	-12969
▁አቅርበዋል።	-12970
▁ዴሞክራቶች	-12971
▁ጨዋ	-12972
OR	-12973
▁ይኸ	-12974
▁የተካተተ	-12975
▁ለማሰራጨት	-12976
▁2023	-12977
▁50%	-12978
▁አብዱ	-12979
▁ሙን	-12980
▁በሽታን	-12981
▁ሀምፕሻየር	-12982
▁ከሀምሌ	-12983
ሎር	-12984
▁ተንታኝ	-12985
▁በተጨ	-12986
▁ሎረንስ	-12987
▁የማስተማር	-12988
AP	-12989
▁አድሚራል	-12990
ኩቨር	-12991
▁ተጓዥ	-12992
ቫርድ	-12993
▁ከኔ	-12994
የመጀመሪያው	-12995
▁የማም	-12996
▁አመላካች	-12997
ቡላ	-12998
▁በጀልባ	-12999
ዛንታይን	-13000
▁ሜይን	-13001
▁መኪናዎች	-13002
▁በማምረት	-13003
ከተሉ	-13004
ቀናጀት	-13005
▁(196	-13006
በአሁኑ	-13007
▁በደሴቲቱ	-13008
ላላቅ	-13009
▁አድራሻ	-13010
▁በኖር	-13011
▁የግለ	-13012
▁ሚዲያዎች	-13013
ዲኤ	-13014
▁አንቴና	-13015
▁አንትሮ	-13016
ላንድስ	-13017
▁ለሊ	-13018
▁ያህል፣	-13019
▁ገፅታዎችን	-13020
▁ኢቫን	-13021
▁ከምስራቅ	-13022
▁የወጣው	-13023
ተናል።	-13024
▁ያስባሉ	-13025
▁አበባ፣	-13026
▁ገበሬዎች	-13027
▁ጂኖች	-13028
▁ቅርፊት	-13029
▁ነፀብራ	-13030
▁ክርስቲያኖች	-13031
▁በጆርጂያ	-13032
▁ኮርሶች	-13033
▁አልቻለም።	-13034
ላባማ	-13035
▁አዛዦች	-13036
▁ትርኢቶችን	-13037
ፏፏ	-13038
▁የተዘጋ	-13039
▁ጭካኔ	-13040
ግንነት	-13041
▁ወተት	-13042
▁የተሳካ	-13043
▁የመጥ	-13044
▁ይታያል።	-13045
▁ባሮን	-13046
ሸጡ	-13047
ጌታ	-13048
▁የጫ	-13049
▁የክላ	-13050
▁አምኗል	-13051
▁ከረጢ	-13052
▁አላን	-13053
ዘመናዊው	-13054
▁የጂን	-13055
▁ለመዳሰስ	-13056
▁ዶሮ	-13057
▁ግዥ	-13058
▁የመኖር	-13059
▁የሚሰራው	-13060
▁የወረቀት	-13061
▁ማእድ	-13062
ምፓስ	-13063
ነካ	-13064
IN	-13065
▁በማደግ	-13066
ጎሪ	-13067
ሲስት	-13068
▁አቀናባሪዎች	-13069
▁ለሳ	-13070
▁ለቡድኑ	-13071
▁ሊቀንስ	-13072
ርቲን	-13073
▁ካምቤል	-13074
▁ፓርኮች	-13075
ባህሪያትን	-13076
St	-13077
▁ለመላክ	-13078
▁ለመጥ	-13079
▁አማራጮችን	-13080
▁ተመርቋል	-13081
ገለልተኛ	-13082
▁ቆይቷል።	-13083
መኑ	-13084
▁አርትኦት	-13085
▁ዋጋዎች	-13086
▁መገደ	-13087
▁አፍሪካዊ	-13088
▁ሸሽ	-13089
▁ፕሮጀክቶችን	-13090
▁አርበኞች	-13091
▁ታዳጊዎች	-13092
▁ይፈቅዳል	-13093
▁የሚያስችሉ	-13094
▁እናቷ	-13095
▁ይደ	-13096
▁ይገነዘባል	-13097
▁የኮሚኒስት	-13098
▁1909	-13099
▁ሚሲሲፒ	-13100
▁ፎስ	-13101
▁ሟ	-13102
▁ታጣቂ	-13103
▁1906	-13104
▁የሚኖር	-13105
▁ፍራንክሊን	-13106
የታቸው	-13107
▁ሀሰን	-13108
▁ተቀበረ	-13109
▁በክሮ	-13110
▁ባሪያ	-13111
▁በመሰብሰብ	-13112
▁ያገለገ	-13113
▁ከዱ	-13114
▁አልፋ	-13115
▁170	-13116
▁ወራሪ	-13117
▁አጋጥሞታል	-13118
ፀረ	-13119
▁ሰልፎች	-13120
▁በኮቪድ	-13121
▁ሲሰጥ	-13122
▁የእረፍት	-13123
▁ቬትናም	-13124
ግባት	-13125
▁ከመጀመሪያዎቹ	-13126
▁ፌር	-13127
▁አጥር	-13128
▁ከሌላው	-13129
ved	-13130
ue	-13131
▁የኮቪድ	-13132
ሻር	-13133
በህ	-13134
▁ተሸነፈ	-13135
▁የሆንግ	-13136
LS	-13137
▁ድህነት	-13138
▁የጀልባው	-13139
▁በቁም	-13140
▁እንዲቆዩ	-13141
▁ሜዲካል	-13142
▁ኢንፌክ	-13143
ብላት	-13144
▁ዳውን	-13145
▁የትር	-13146
ኖው	-13147
▁የኖር	-13148
ሌክትሮን	-13149
▁ተንሳፋፊ	-13150
▁ውድድሮችን	-13151
▁ዌይን	-13152
▁የግድግዳ	-13153
▁ይጠይቃሉ	-13154
▁ሜር	-13155
▁ሲናገሩ	-13156
ቪንግ	-13157
እቆ	-13158
ዋለች	-13159
▁62	-13160
▁ከሰራ	-13161
▁የታየ	-13162
▁ሲኒየር	-13163
ባል።	-13164
▁መዘዞች	-13165
▁ከግራ	-13166
▁ግንባታው	-13167
ሰረዝ	-13168
▁የሮማኒያ	-13169
▁63	-13170
▁ዳንሰ	-13171
▁ሀላፊው	-13172
▁ገዝቷል	-13173
▁ሄሊኮፕ	-13174
▁ያደገው	-13175
▁De	-13176
▁በሰላማዊ	-13177
▁ሳይንቲስት	-13178
መንግስታዊ	-13179
▁ዘመቻዎች	-13180
▁የሜዳ	-13181
▁ጃፓ	-13182
▁ለአዲስ	-13183
▁መሀላ	-13184
ጣኔ	-13185
▁በሀላ	-13186
▁የፖፕ	-13187
▁እንድትሆን	-13188
▁ሳት	-13189
▁የሱዳን	-13190
▁መረቡ	-13191
▁አግኝቷል።	-13192
ገሚያ	-13193
▁የተነደፉ	-13194
▁የስቴት	-13195
በቱ	-13196
ዳኖስ	-13197
ሪያት	-13198
በሳጭ	-13199
▁በመጓዝ	-13200
▁አስገብ	-13201
▁ክርስቲያኑ	-13202
▁አገልግላለች	-13203
▁ክንፎች	-13204
▁ራን	-13205
▁ከተለቀቀ	-13206
▁ወጎች	-13207
▁የዘለቀ	-13208
እን	-13209
▁የሀብት	-13210
▁ለገበያ	-13211
▁እስረኛ	-13212
ዴስ	-13213
▁በረን	-13214
▁አይችልም።	-13215
▁እስከሞተ	-13216
▁ያመጣል	-13217
▁ጄሪ	-13218
▁መዘዝ	-13219
▁ለመንግስት	-13220
▁ከደረሰ	-13221
▁ቀሪው	-13222
መጣም	-13223
ፊቱን	-13224
▁ተጠናቋል	-13225
▁በህገወጥ	-13226
ire	-13227
▁ቃጠሎ	-13228
ጉዳት	-13229
▁ይጠበቅ	-13230
▁የተሳሳቱ	-13231
▁ፋንታ	-13232
‹‹	-13233
▁በሲድኒ	-13234
▁69	-13235
▁ማምጣት	-13236
ዝር	-13237
ጃቸው	-13238
▁ታሀሳስ	-13239
▁ተመልሰው	-13240
▁የማስታወስ	-13241
▁ጄሰን	-13242
▁እኩልታዎች	-13243
ቀለ	-13244
▁የተደረገውን	-13245
):	-13246
ገኛለን	-13247
▁ለማስተማር	-13248
▁ስፔክትረም	-13249
▁ሀይቆች	-13250
ከረው	-13251
▁ለመሙላት	-13252
▁አስተዳደርን	-13253
sh	-13254
▁ሀል	-13255
▁ኢስት	-13256
ሎታ	-13257
▁ከሌሎቹ	-13258
▁ጀርመኖች	-13259
▁በመግደል	-13260
▁ላሉ	-13261
▁ያስመዘገበ	-13262
▁እየሞከረ	-13263
ተሮችን	-13264
▁የሚያገለግሉ	-13265
ob	-13266
▁መንቀሳቀስ	-13267
ጎበኙ	-13268
▁ካርታዎች	-13269
▁የኮንክሪት	-13270
▁ያልታወቀ	-13271
▁ለሰራ	-13272
▁ኦቶ	-13273
▁ኬሚስትሪ	-13274
▁88	-13275
▁ባነሰ	-13276
መኛ	-13277
▁እንግሊዛዊ	-13278
▁ፍጥነትን	-13279
▁ኢሳ	-13280
ግማ	-13281
ካኒካዊ	-13282
ሊዮት	-13283
▁ይሄን	-13284
▁አዝማሚያዎች	-13285
▁የማሽን	-13286
▁ማስተካከል	-13287
▁ታቅዶ	-13288
erm	-13289
ነሪ	-13290
ነታችን	-13291
▁የሰጡ	-13292
▁ተጠያቂነት	-13293
▁ሂው	-13294
▁የተመረጠው	-13295
▁ከመግባ	-13296
▁ካምፖች	-13297
ስፒታሉ	-13298
ፏፏቴ	-13299
▁ጋይ	-13300
▁መተግበር	-13301
▁ለመው	-13302
▁ወሬ	-13303
▁የዋሽንግተን	-13304
▁ቁፋሮ	-13305
ለቀቀው	-13306
▁የመፍጠር	-13307
▁የጠየ	-13308
▁ጋሻ	-13309
▁ዳዊት	-13310
ቃለል	-13311
▁ፋር	-13312
▁የሚከሰት	-13313
▁ሮጀርስ	-13314
ቧራ	-13315
ኖቻቸው	-13316
▁ለመቀየር	-13317
▁የአንድነት	-13318
▁መመልከት	-13319
▁ቁስ	-13320
▁ተርፎም	-13321
▁መሳተፍ	-13322
▁የወረዳ	-13323
ሚያን	-13324
▁ተጉ	-13325
▁ፖላንድ	-13326
▁ከጥር	-13327
▁ፖሊሲዎችን	-13328
ግሊ	-13329
ፈራራት	-13330
▁የማይችሉ	-13331
በቂያ	-13332
▁ጎንደር	-13333
▁ያለፈውን	-13334
▁ጉዳተኞች	-13335
ላፊነት	-13336
▁ሽጉጥ	-13337
▁በሂደት	-13338
▁የተወሰደ	-13339
▁ኩን	-13340
▁ገለፀ	-13341
▁ደርሷል።	-13342
▁አሰባስ	-13343
▁Le	-13344
▁መሰረቶች	-13345
ባሉት	-13346
ቄዶንያ	-13347
▁የተገጠመ	-13348
▁ነች	-13349
▁እንደሚሰጥ	-13350
ደግፉ	-13351
ጊል	-13352
ደናቅ	-13353
▁ግሉ	-13354
ደናቀፍ	-13355
▁ስትራቴጂዎችን	-13356
▁ጥርጥር	-13357
ባትን	-13358
ኤሌክትሪክ	-13359
▁ጨምረዋል	-13360
▁ሊትር	-13361
▁አለመግባ	-13362
ወርቅ	-13363
▁ጊኒ	-13364
▁ተሰብስበዋል	-13365
▁ፕሌ	-13366
▁በማቋቋም	-13367
▁ድንጋጌዎች	-13368
▁ለማድረስ	-13369
▁እንዲደርስ	-13370
▁ዳው	-13371
▁ታሪኩን	-13372
▁አደጋው	-13373
▁ዲሴምበር	-13374
ልኬት	-13375
ድስተኛው	-13376
▁ተመልሰዋል	-13377
▁የተወሰዱ	-13378
ለቱን	-13379
▁ሻምፒዮናን	-13380
ወጣል	-13381
▁ለነበረው	-13382
▁በዩክሬን	-13383
ባልደረባ	-13384
▁ከጀመረ	-13385
▁ፍሬም	-13386
▁ፈረሶች	-13387
▁የሆነበት	-13388
ስኩ	-13389
:30	-13390
▁ጀምረዋል	-13391
ማይካ	-13392
▁ተበታተነ	-13393
▁ተቆጣጣሪዎች	-13394
▁ፍሪድ	-13395
▁ለመታ	-13396
▁አጣዳፊ	-13397
ህጉ	-13398
▁በሳምንት	-13399
▁አስቆጣ	-13400
DP	-13401
▁ውጊያው	-13402
▁የሎስ	-13403
▁በመሸጥ	-13404
▁ለዳ	-13405
▁የማይታ	-13406
▁ምርጫን	-13407
▁ይኖራል	-13408
▁ዘላቂነት	-13409
ንጅ	-13410
ሉበት	-13411
ሊቶች	-13412
▁እንዲውል	-13413
▁በቀል	-13414
▁እድሜያቸው	-13415
▁በክፍለ	-13416
▁የደመወዝ	-13417
▁በቋንቋ	-13418
▁ተመስር	-13419
▁ታተመ	-13420
▁(190	-13421
▁ሜል	-13422
ናታ	-13423
▁ያስረዳ	-13424
▁ተሰማው	-13425
▁የሚሆነ	-13426
▁በሚታወቀው	-13427
ሜንት	-13428
ንዳል	-13429
ለቃ	-13430
▁ፍሰቶች	-13431
▁በሙቀት	-13432
▁ሙዚቀኛ	-13433
▁ወንበዴዎች	-13434
▁በመቆጣጠር	-13435
▁ሰንዝ	-13436
ፅሁፉ	-13437
ሲዎች	-13438
▁1902	-13439
▁ሶፍት	-13440
ማንን	-13441
ቴንስ	-13442
ጎጂ	-13443
yp	-13444
▁ሪፐብሊካኖች	-13445
▁ያስቆጠረ	-13446
ብሩክ	-13447
▁ውጥረ	-13448
ME	-13449
ከብር	-13450
▁በሌሊት	-13451
▁አጥብቀው	-13452
▁በማለፍ	-13453
ሀንነት	-13454
ዋስው	-13455
▁ex	-13456
▁ይገልፃል።	-13457
▁ከመደበኛ	-13458
▁ማደ	-13459
▁ተፅእኖዎችን	-13460
▁ስዊድን	-13461
ዲስት	-13462
▁ጎልፍ	-13463
▁ስፖርቶች	-13464
▁ምርመራው	-13465
ካትት	-13466
▁መመር	-13467
ላሰል	-13468
AN	-13469
▁ፒክ	-13470
▁ማቅረቢያ	-13471
ዛም	-13472
▁ተችሏል	-13473
▁መነቃቃት	-13474
ስትሪክቱ	-13475
▁እንዳላት	-13476
▁ቴነሲ	-13477
▁1870	-13478
▁ምህረት	-13479
▁የሰጡት	-13480
▁ጂኦግራፊ	-13481
▁ሲምፎኒ	-13482
▁በሶሪያ	-13483
▁የሚወስድ	-13484
▁ቢዝነስ	-13485
▁ጀግኖች	-13486
▁አይነቶችን	-13487
▁ክህደት	-13488
▁ተከልክ	-13489
▁የተገኙትን	-13490
▁IS	-13491
ጴጥሮስ	-13492
▁ተስፋዎች	-13493
ገሙ	-13494
▁ፍሌ	-13495
▁ተጭኗል	-13496
ጋጤ	-13497
ቤቷ	-13498
ነቃቃት	-13499
ዚት	-13500
▁የማህበራዊ	-13501
ምሩክ	-13502
▁በኦስትሪያ	-13503
▁ከሳን	-13504
▁ተቀማጭ	-13505
▁የመዋኛ	-13506
▁እንዲጠቀሙ	-13507
▁ቫዮ	-13508
ዘዋወር	-13509
▁ወርሀዊ	-13510
▁ያስተዋው	-13511
▁በበርሊን	-13512
▁በሲቪል	-13513
ኞቻቸው	-13514
▁አጥፊ	-13515
▁የመቀ	-13516
ገደበ	-13517
▁ፈለክ	-13518
▁ኢትዮ	-13519
▁የካፒታል	-13520
▁ሶስቱም	-13521
▁ስደት	-13522
▁ወደቦች	-13523
▁አከናውኗል	-13524
▁1907	-13525
EE	-13526
▁የለውም።	-13527
▁61	-13528
ፕቲስት	-13529
▁ታካሚዎችን	-13530
ኮላ	-13531
▁ማረፊያዎች	-13532
▁በፍፁም	-13533
▁ወደቀ	-13534
▁ህክምናን	-13535
▁የዘፈን	-13536
ath	-13537
▁አፍሪካውያን	-13538
▁ባህርይ	-13539
▁አስተናግዷል	-13540
በሩን	-13541
ኖት	-13542
ሪስቶል	-13543
▁አሰባ	-13544
▁(15	-13545
▁በኢንተርኔት	-13546
▁ፓኪስታን	-13547
volved	-13548
▁ማላ	-13549
▁ያጣ	-13550
▁&	-13551
▁አፅናፈ	-13552
▁ላም	-13553
▁እንዷ	-13554
ፍቀድ	-13555
▁ከጂ	-13556
▁አነጋገር	-13557
▁ተሟጋቾች	-13558
ላንካ	-13559
▁ተከታታዮች	-13560
▁አውቶቡ	-13561
▁1904	-13562
▁የተከበበ	-13563
▁መቻቻል	-13564
ሪፕ	-13565
▁ለቪ	-13566
▁እንደምን	-13567
▁ሊያገለግል	-13568
▁ደርሶባቸዋል	-13569
▁ስማርት	-13570
ጫኛ	-13571
▁መሳብ	-13572
▁የአከባቢውን	-13573
ቃለሁ	-13574
▁ድምፃዊ	-13575
▁ምክሮች	-13576
▁የማይታወቅ	-13577
ጠናቅቅ	-13578
▁ቻርሊ	-13579
▁እንደሆነም	-13580
▁አካባቢዎችን	-13581
▁የሜትሮ	-13582
▁ውሾች	-13583
▁ጠባቂው	-13584
ማሉ።	-13585
እንዲ	-13586
ችሁን	-13587
▁ከቱ	-13588
▁የድርጅት	-13589
▁ነገረ	-13590
▁ኮንፈረን	-13591
ነርሱ	-13592
▁አቪዬሽን	-13593
▁ከር	-13594
▁ቅፅበት	-13595
▁ትንበያዎች	-13596
▁በእኛ	-13597
▁እርስዎ	-13598
▁በወንድ	-13599
ቴክኖሎጂ	-13600
▁ነበራቸው።	-13601
▁በበሽታው	-13602
▁ይተነት	-13603
▁ክላስተር	-13604
ፍትሀዊነት	-13605
▁ኮሚሽኑ	-13606
ምበርግ	-13607
ሸጋገር	-13608
ናቀሉ	-13609
ሲሊ	-13610
ጓይ	-13611
ቼውም	-13612
▁ለዘላለም	-13613
▁እንደሚፈልግ	-13614
age	-13615
▁ጉል	-13616
▁involved	-13617
ብህ	-13618
▁ባልደረቦች	-13619
ሰና	-13620
▁የዮ	-13621
▁ቤር	-13622
▁አልተገኘም	-13623
የወ	-13624
▁ይጀምራሉ	-13625
▁ያካተቱ	-13626
▁ማምለጥ	-13627
▁አኳ	-13628
▁ያስፈልገዋል	-13629
▁እንደሆነች	-13630
▁ከቁ	-13631
▁ተሸክ	-13632
▁በየሳምንቱ	-13633
ስፋፉ	-13634
▁የዝግመተ	-13635
▁በነጭ	-13636
▁ከእያንዳንዱ	-13637
▁ፀጋ	-13638
▁ወጪን	-13639
▁ለሆ	-13640
ፖሊዮን	-13641
▁ፋይል	-13642
ሱትን	-13643
▁በኮሪያ	-13644
▁ማሟያ	-13645
▁ኮምፕ	-13646
ጋለጡ	-13647
ቬንዙዌላ	-13648
▁ላንግ	-13649
▁ከህንድ	-13650
▁ታድ	-13651
▁ብልሹ	-13652
▁ደረጃውን	-13653
▁Be	-13654
▁የማዘጋጃ	-13655
▁ማቆያ	-13656
▁የትግል	-13657
ወርወ	-13658
▁ስኮላርሺፕ	-13659
ቲዝም	-13660
ዊዚያና	-13661
▁በጀርባ	-13662
▁የስድስት	-13663
ፕሬስ	-13664
▁ታዳሚ	-13665
ድትራንያን	-13666
▁በፔንሲልቬንያ	-13667
▁ተጠይ	-13668
▁የፕላዝማ	-13669
▁ገንብቷል	-13670
▁ፈን	-13671
ርካሪ	-13672
▁ወስኗል	-13673
▁NBA	-13674
▁ተቀብሎ	-13675
AT	-13676
ሰብል	-13677
▁ግሩም	-13678
▁ለመፈፀም	-13679
▁መነሳ	-13680
▁ይነገራል	-13681
ሻሽል	-13682
▁ለዚያ	-13683
▁አዘ	-13684
▁ማያያዣ	-13685
በአንድ	-13686
▁አጠፋ	-13687
▁በመለወጥ	-13688
የኮ	-13689
▁(9	-13690
ኚዎች	-13691
▁ነፀብራቅ	-13692
▁ዋርድ	-13693
ጀራ	-13694
▁ኬቪን	-13695
▁የመራባት	-13696
▁አድርጎታል	-13697
▁ተመልካ	-13698
ቸውም	-13699
▁በእር	-13700
▁ይቆጠራሉ	-13701
▁ተሸካሚዎች	-13702
▁ክሩዝ	-13703
ae	-13704
▁Ar	-13705
▁አርቴ	-13706
▁ቋንቋን	-13707
ካስት	-13708
▁ኦንታሪዮ	-13709
▁ጠንክ	-13710
▁የወንዝ	-13711
▁አላገኘም	-13712
▁ጡር	-13713
▁ጨር	-13714
ብራራ	-13715
በቡ	-13716
ከፍሉ	-13717
▁ኮስት	-13718
▁የአያት	-13719
▁ድሀ	-13720
▁ማስተዳደር	-13721
▁ፓራሊምፒክ	-13722
-17	-13723
▁የጆርጂያ	-13724
ንጋይ	-13725
▁የቦስተን	-13726
one	-13727
▁ይባላል	-13728
▁ይዞታ	-13729
ናዊው	-13730
▁መንገዱን	-13731
▁ለማመንጨት	-13732
▁ፍፃሜዎች	-13733
▁የሶስተኛ	-13734
▁ይገመግ	-13735
▁ሙዚየሞች	-13736
▁ከድን	-13737
ችኋ	-13738
▁በማሳቹሴትስ	-13739
▁5.	-13740
▁አዝና	-13741
እቆብ	-13742
▁የክትትል	-13743
▁መጋባት	-13744
▁ታየች	-13745
▁ፈንጂ	-13746
ታደል	-13747
▁ረዳ	-13748
▁የሌሎች	-13749
▁የጂኦሎጂ	-13750
ፍሪ	-13751
▁ካደረጉ	-13752
የብ	-13753
ውሉት	-13754
▁አሚ	-13755
▁Me	-13756
ዛይም	-13757
▁ሳያስ	-13758
▁ጦ	-13759
ንደፍ	-13760
▁የብሮድ	-13761
▁የዝግጅት	-13762
ትሬ	-13763
ላስካ	-13764
ስም	-13765
▁በሆንግ	-13766
▁የተጀመረ	-13767
▁ባለሙያው	-13768
ማግኔቲክ	-13769
▁በዳን	-13770
▁ከመድረሱ	-13771
▁ይኖራ	-13772
▁ሀዘን	-13773
ፅአት	-13774
▁በአና	-13775
▁ማሰራ	-13776
▁የፕላስቲክ	-13777
CR	-13778
ፀዳጃ	-13779
▁ህጉን	-13780
▁እለታዊ	-13781
ዎች፣	-13782
▁እል	-13783
▁ጨካኝ	-13784
▁የተሰየመው	-13785
▁ሻህ	-13786
▁76	-13787
▁መዝገበ	-13788
▁ድጋፍን	-13789
▁ጆኒ	-13790
▁ካርዶች	-13791
▁እንዲይዝ	-13792
ቀጥለው	-13793
▁እምቅ	-13794
▁የማክ	-13795
▁ሰሪዎች	-13796
መሰረት	-13797
▁የገለፀው	-13798
ከፈት	-13799
ርስን	-13800
▁እንደነበረች	-13801
▁እቅዱ	-13802
▁ጥይቶችን	-13803
▁በመገምገም	-13804
▁ልሂ	-13805
ቫር	-13806
▁ስለሚችል	-13807
▁ፈቃደኞች	-13808
les	-13809
▁ተጋድሎ	-13810
▁ኩፐር	-13811
▁አስፈፃሚዎች	-13812
▁ሰልፈ	-13813
▁ገብተው	-13814
▁ነቀር	-13815
▁የቻለ	-13816
ኬይን	-13817
▁ቤትን	-13818
▁ወክ	-13819
▁98	-13820
▁መምጣቱን	-13821
▁በቢልቦርድ	-13822
▁ኮረብታዎች	-13823
▁ተቃውሞዎች	-13824
▁እንደሌላቸው	-13825
▁የህብረተሰብ	-13826
▁በኤፒ	-13827
አልባ	-13828
▁ካህናት	-13829
▁የቦክስ	-13830
▁የኳ	-13831
▁ጉልበ	-13832
▁በቤቱ	-13833
▁የፖርቱጋል	-13834
▁በሞንት	-13835
▁2-1	-13836
▁አስባለሁ	-13837
▁ፕሬዚዳንቱ	-13838
▁ጉዳተኛ	-13839
▁ጎድ	-13840
▁ይቀመ	-13841
▁ኢንተርፕራይዞች	-13842
▁በሴት	-13843
▁ንዝረት	-13844
▁በሚደረገው	-13845
▁ጭስ	-13846
ስትራቴጂ	-13847
▁ቅንብር	-13848
መረመሩ	-13849
▁ኩራት	-13850
▁1901	-13851
▁ሽንኩርት	-13852
▁ተጠቅሷል	-13853
▁67	-13854
▁የሆስፒታል	-13855
ላውን	-13856
▁ኳሶች	-13857
ሄን	-13858
▁የተከሰ	-13859
▁የሚያደርጉት	-13860
ys	-13861
▁የአዲሱ	-13862
ኒስቶች	-13863
▁የሚጠይቁ	-13864
ንሲናቲ	-13865
▁አድን	-13866
▁ያልተሳካ	-13867
ጫሉ	-13868
▁አቅርቦቶች	-13869
▁ስፍራው	-13870
▁ይኖረዋል	-13871
▁ማስወረድ	-13872
ያችን	-13873
▁በቬትናም	-13874
▁በቆር	-13875
▁ቦስተን	-13876
▁ይለወጣል	-13877
ቲዮ	-13878
ረቱ	-13879
▁ተገናኙ	-13880
መሪ	-13881
▁በወር	-13882
▁ቴኒስ	-13883
▁የጨው	-13884
▁ጠበኛ	-13885
▁ይወክላሉ	-13886
▁ተጎድቷል	-13887
ቪያን	-13888
▁ትናገራለች	-13889
▁ጠይቀዋል።	-13890
▁የማጣቀሻ	-13891
▁በሸለቆ	-13892
▁መስተዳድር	-13893
ቪው	-13894
▁ጠየቀ።	-13895
▁ማመንጨት	-13896
▁የተፈቀደ	-13897
▁ትራንስፎርሜሽን	-13898
▁መዳረ	-13899
ሲዲ	-13900
ሞሎጂ	-13901
▁የማኑፋክቸሪንግ	-13902
▁በሚኖሩ	-13903
ቲና	-13904
▁የሚደር	-13905
▁የተቀመጠው	-13906
▁ከጓደ	-13907
▁ለከተማ	-13908
▁አፈፃፀምን	-13909
▁በመድረክ	-13910
ወዳደሩ	-13911
ከሻ	-13912
▁በማስታወስ	-13913
ፕሬዚዳንቱ	-13914
▁ያስተናግ	-13915
ጓጅ	-13916
▁አውጥቶ	-13917
▁ስድስተኛው	-13918
ሳይት	-13919
ኮስቲክ	-13920
▁የትርጉም	-13921
▁ግላ	-13922
▁175	-13923
▁የሚገባው	-13924
▁የመዳብ	-13925
▁ማጠራቀሚያዎች	-13926
ዳድሩ	-13927
ሊሲስ	-13928
▁ተመን	-13929
▁ነገረው	-13930
▁በአረብ	-13931
▁ማመሳሰል	-13932
▁ሂልስ	-13933
▁አክሊል	-13934
▁ሲመለሱ	-13935
የባ	-13936
ንሰንት	-13937
ፃፉ	-13938
▁አሸዋ	-13939
እውነተኛ	-13940
ሮልድ	-13941
▁የከተማዋን	-13942
▁እንዲወስድ	-13943
▁እድሜው	-13944
▁ተመራቂ	-13945
▁ኢቫንስ	-13946
▁100,000	-13947
▁በምርጫው	-13948
▁ባለስልጣናቱ	-13949
▁የቢሮ	-13950
▁መካከለኛው	-13951
▁ይመስለኛል	-13952
ፈረደባቸው	-13953
CS	-13954
▁ከአየር	-13955
ደገፉ	-13956
▁ተንኮ	-13957
▁ሹመት	-13958
በዙ	-13959
▁የላቦራቶሪ	-13960
▁ያቀፉ	-13961
▁እክል	-13962
▁ተስተካክለዋል	-13963
▁የክል	-13964
▁ሊቃነ	-13965
▁ትንሹ	-13966
▁አምዶች	-13967
BI	-13968
▁የጥናቱ	-13969
ሳይንስ	-13970
▁ፓርከር	-13971
tt	-13972
ረቤት	-13973
▁ብርጭቆ	-13974
ይይቱ	-13975
▁ግንዛቤዎች	-13976
▁ክሌር	-13977
▁ሶሻሊስት	-13978
ቶፕ	-13979
▁ዴይሊ	-13980
▁ህፃናትን	-13981
▁ፈርናን	-13982
ሜይ	-13983
▁ተዳምሮ	-13984
▁የኤስ	-13985
▁ተጠብቆ	-13986
ሎንግ	-13987
▁የአቅርቦት	-13988
መጣጠን	-13989
▁አሰፋ	-13990
▁ፕሮዲዩሰር	-13991
▁ሳይኖር	-13992
▁ካርሎስ	-13993
▁ዳሳሾች	-13994
▁ጂምና	-13995
▁ሮበርትስ	-13996
▁መደብር	-13997
▁ተቋርጧል	-13998
▁ግስጋ	-13999
▁የሚስማሙ	-14000
▁የፕሮጀክት	-14001
▁ቡሌ	-14002
ፈጥር	-14003
ቆቅል	-14004
▁ካሮል	-14005
▁የሁለቱም	-14006
▁ቁል	-14007
▁ሰርጓጅ	-14008
▁በዌልስ	-14009
▁ጠብቆ	-14010
ዳሉ።	-14011
▁ደሞ	-14012
▁ለቀጣዩ	-14013
እስከ	-14014
▁የምሽት	-14015
CT	-14016
▁በሚተ	-14017
▁ያሳደረ	-14018
▁ሰለባዎች	-14019
▁ጥቃቱን	-14020
▁ያቀረቡ	-14021
▁ግሬም	-14022
ነን	-14023
ብዛኛው	-14024
▁ላስ	-14025
መለከታ	-14026
▁ያሻሽላል	-14027
▁የተላለፈ	-14028
ሺን	-14029
እድ	-14030
▁ልጃቸው	-14031
▁የሚያሳድረውን	-14032
ፖችን	-14033
▁በኮሌጅ	-14034
▁የስርጭት	-14035
▁ሀገራዊ	-14036
ዴታ	-14037
ለለ	-14038
▁መፈንቅለ	-14039
ድሪ	-14040
ኑዌል	-14041
ress	-14042
ach	-14043
▁የተሰጣቸው	-14044
▁አስተያየቶችን	-14045
ርቲስ	-14046
▁አካት	-14047
▁ተመድበዋል	-14048
▁ከበር	-14049
▁በፃፈው	-14050
▁ሰፋሪዎች	-14051
▁የቻር	-14052
ኔጅመንት	-14053
▁የትርፍ	-14054
▁የተዘረዘሩ	-14055
▁ይገናኛል	-14056
▁ዴላ	-14057
▁ሚሊሺያ	-14058
ፒር	-14059
▁ምድጃ	-14060
▁የሚባለው	-14061
የመን	-14062
▁የምእራባውያን	-14063
▁ተመለሰ።	-14064
▁የሆነችውን	-14065
▁የሚከናወኑ	-14066
ሱል	-14067
▁መፍትሄዎችን	-14068
▁አለመሆን	-14069
▁የደረሰበት	-14070
▁ማሳደግ	-14071
ዷቸው	-14072
▁በጠመንጃ	-14073
▁የሰማ	-14074
▁ቢችልም	-14075
▁በችግር	-14076
▁የንጉሳዊ	-14077
▁ታስቦ	-14078
▁ውጤታማነትን	-14079
▁መልክአ	-14080
▁በፀረ	-14081
▁መለያዎች	-14082
▁ኢያን	-14083
▁ካርቦን	-14084
▁ይቆጠራል	-14085
▁መደገፍ	-14086
▁ሬንጀ	-14087
▁ሻይ	-14088
ባሩ	-14089
በእውነቱ	-14090
2010	-14091
▁ከሄደ	-14092
▁የፊንላንድ	-14093
▁በዝግጅቱ	-14094
ሎጂስቲክስ	-14095
ሪየር	-14096
ጂያን	-14097
▁ተጫውታለች	-14098
▁የዋለ	-14099
▁ሲጀመር	-14100
▁ገመ	-14101
ሪቢያን	-14102
▁ተወዳ	-14103
▁ኤከር	-14104
▁ሲሞ	-14105
▁ዎልፍ	-14106
ገቱ	-14107
ሬትስ	-14108
▁የኮንግረስ	-14109
▁ተጠናክ	-14110
▁አቋርጧል	-14111
ዘርባጃን	-14112
▁በመርከብ	-14113
▁ባርባራ	-14114
▁is	-14115
▁ተህዋስ	-14116
▁መዋል	-14117
▁ተገናኝተው	-14118
▁ቀይሯል	-14119
▁በአላት	-14120
▁AI	-14121
▁ግዜ	-14122
▁ከአፍሪካ	-14123
▁በላቲን	-14124
ቡርግ	-14125
▁ፅፋለች	-14126
▁የሚሆነውን	-14127
▁ኒል	-14128
ለወጡ	-14129
▁የሚወስዱ	-14130
▁የፊፋ	-14131
▁ለወንዶች	-14132
▁በመውጣት	-14133
▁ተከሰተ	-14134
▁ከግንቦት	-14135
▁ፒን	-14136
ባኒያ	-14137
are	-14138
▁ሊቨር	-14139
▁አበበ	-14140
▁በፓስፊክ	-14141
▁አርሰናል	-14142
ማካይ	-14143
ፀዋል	-14144
▁ከባቢ	-14145
▁በአደባባይ	-14146
▁የቆሻሻ	-14147
▁ቀጥለዋል	-14148
▁ተብሎም	-14149
▁የተላ	-14150
ቀላቀለ	-14151
▁በፀሀይ	-14152
በሬ	-14153
▁መርሀግብሮች	-14154
▁1903	-14155
▁ለመምታት	-14156
▁ይከታተ	-14157
▁ማስታወቂያዎች	-14158
ርትዝ	-14159
▁ሆይ	-14160
▁በስዊዘርላንድ	-14161
▁ማባዛት	-14162
▁ክለቡን	-14163
ቴክስ	-14164
▁ይወያያል	-14165
▁ታንኮች	-14166
ተኮሰ	-14167
ሊንከን	-14168
▁ኮሊንስ	-14169
ord	-14170
▁ፅንፈ	-14171
▁አጉል	-14172
▁ተረድ	-14173
▁መወርወ	-14174
▁ዳኮታ	-14175
▁ለማሳመን	-14176
ዎንታዊ	-14177
▁መዋቅሮችን	-14178
▁በመቀጠልም	-14179
▁ቴክኖሎጂዎችን	-14180
ህንፃ	-14181
ጆቿ	-14182
ደሰተ	-14183
▁ሊያሳድር	-14184
▁ብልጭ	-14185
ደረገውን	-14186
ሊቫን	-14187
ጣራ	-14188
▁ለቦ	-14189
▁ከሻ	-14190
▁እራት	-14191
▁በኦክስፎርድ	-14192
ንቀሳቀሳ	-14193
▁የአውቶቡስ	-14194
እሰ	-14195
▁የተረፈ	-14196
GBT	-14197
ፕሬዝ	-14198
ሰልጠኛ	-14199
▁ለዘመ	-14200
▁አልተሳካለትም	-14201
▁ሲቃ	-14202
...]	-14203
▁ማለቂያ	-14204
▁1:	-14205
▁መላክ	-14206
▁መሰናክል	-14207
ኩሪ	-14208
▁በአፍጋኒስታን	-14209
▁ኪር	-14210
ዳይናሚክ	-14211
▁ኬር	-14212
▁ክርስትና	-14213
ርሀት	-14214
▁በፉ	-14215
▁ተመት	-14216
▁ኦሪጅ	-14217
▁መጥቷል	-14218
▁ጊዜዎችን	-14219
▁ኤሮ	-14220
▁የአብ	-14221
ኤአ	-14222
▁ዩኒቨርሲቲው	-14223
ላስጎው	-14224
▁ኦልድ	-14225
▁የሊበራል	-14226
ብራስካ	-14227
▁ለማለፍ	-14228
▁ሲተ	-14229
▁ወደተ	-14230
▁ማካሄድ	-14231
▁የያዘው	-14232
▁ለግል	-14233
ide	-14234
ግባቸው	-14235
ሸንፉ	-14236
ሺያን	-14237
ደረግበት	-14238
▁ከፖለቲካ	-14239
▁ማዛባት	-14240
▁ለቤት	-14241
▁በሴል	-14242
▁የጓ	-14243
▁ምንዛሬ	-14244
▁የትኛው	-14245
▁All	-14246
▁እኩለ	-14247
▁የዞ	-14248
▁ከሩሲያ	-14249
ድረው	-14250
▁ኮስ	-14251
▁ተከራይ	-14252
በዘ	-14253
▁የፍለጋ	-14254
▁ለማስታወስ	-14255
ነራል	-14256
▁IV	-14257
▁ዘልቆ	-14258
▁ሁሴን	-14259
▁የተገደቡ	-14260
▁የወደፊቱን	-14261
▁በመወከል	-14262
▁ግራፊ	-14263
ሶፍት	-14264
▁ጎርፍ	-14265
▁ሚቸል	-14266
▁ወሲብ	-14267
▁ሰላምና	-14268
መጠ	-14269
ነቃቃ	-14270
io	-14271
▁ቅል	-14272
▁(17	-14273
▁አልፏል	-14274
▁ባሉበት	-14275
ድፎርድ	-14276
▁በጎን	-14277
▁ከነበረ	-14278
▁አማተር	-14279
▁ይኼ	-14280
▁በአቶ	-14281
▁እንደማይችሉ	-14282
▁የመምህራን	-14283
▁ግራፍ	-14284
▁የተከሰቱ	-14285
ስቲያን	-14286
▁ማለፊያ	-14287
▁ቤንጃሚን	-14288
▁ተፈፅ	-14289
▁ልማድ	-14290
▁አብራሪዎች	-14291
▁የቡድሂ	-14292
▁ይጠናቀቃል	-14293
▁ቢያስ	-14294
▁ሳተላይት	-14295
▁እንደሚያስፈልግ	-14296
ሙሉ	-14297
ኪል	-14298
ሲየም	-14299
ጠቀሙባቸው	-14300
▁የግድያ	-14301
▁ሀብታ	-14302
▁ለፖሊስ	-14303
ፍተ	-14304
▁ሌይ	-14305
▁ተፈጠረ	-14306
ካስል	-14307
▁በተጠቀሰው	-14308
▁አስወግዷል	-14309
▁ምስላዊ	-14310
▁ወርልድ	-14311
ሾፍ	-14312
▁ሀሳቡ	-14313
▁ሆንግ	-14314
▁ተዋህዷል	-14315
▁ሊደርስ	-14316
▁ሰርታለች	-14317
▁የቧንቧ	-14318
▁ነቀርሳ	-14319
▁ምሳሌያዊ	-14320
▁ተጨምሯል	-14321
ንዶውስ	-14322
▁ብልፅግና	-14323
▁እንዲሄድ	-14324
ock	-14325
▁የጀ	-14326
▁መደብሮች	-14327
▁የሚደረግበት	-14328
▁ያመር	-14329
▁ሀገሪቱ	-14330
▁የተቀበለው	-14331
ፃፃፍ	-14332
▁ኡደቶች	-14333
▁ኤቲ	-14334
▁ዘውድ	-14335
▁ባታሊዮን	-14336
▁የጎማ	-14337
▁በሀይድሮ	-14338
ቤይ	-14339
▁አመፀኛ	-14340
▁ወደዚህ	-14341
ቲያን	-14342
ዳውን	-14343
▁ማስተናገድ	-14344
**	-14345
▁ሞለኪውሎች	-14346
ነች	-14347
ያልተ	-14348
ዘርጋት	-14349
▁ጣሊያ	-14350
▁ከመውጣቱ	-14351
ah	-14352
▁አስኪያጆች	-14353
▁የተገለፁት	-14354
▁የልብስ	-14355
▁ሴሚ	-14356
ያዙት	-14357
ላርድ	-14358
▁በመፅሀፉ	-14359
▁እምነቶች	-14360
▁እቅዶችን	-14361
▁ይንቀሳቀሳ	-14362
▁የፅንስ	-14363
▁በሚመለከት	-14364
እከሉ	-14365
▁ኬንታኪ	-14366
ሸና	-14367
▁ታም	-14368
▁ተካሂዷል።	-14369
▁የከባቢ	-14370
▁እናን	-14371
▁ጠቅሰው	-14372
▁በሚገኙት	-14373
▁መንግስቱን	-14374
▁ሉሲ	-14375
▁የሚመስል	-14376
▁ማግለል	-14377
▁የሆነች	-14378
▁2-0	-14379
▁ወራሽ	-14380
▁ብራንድ	-14381
▁አደርጋ	-14382
▁ፏፏቴ	-14383
▁ይፈስ	-14384
▁ማደራጀት	-14385
▁እራሱ	-14386
▁ቁስል	-14387
▁ሪካ	-14388
▁በበጋ	-14389
▁ከሆነው	-14390
▁ይጨ	-14391
ቅድሚያ	-14392
▁በኦሀዮ	-14393
▁አልበሙን	-14394
▁ይመርጣሉ	-14395
▁ተቋቁ	-14396
▁የኤርትራ	-14397
▁ሊጋ	-14398
ሰቃዩ	-14399
▁ፍጡ	-14400
▁የክብደት	-14401
▁Co	-14402
▁ግሬግ	-14403
▁ያደረጉትን	-14404
ዮናዊ	-14405
▁ቀስቃሽ	-14406
▁71	-14407
▁በምርምር	-14408
▁ተናገረ	-14409
▁እንደታ	-14410
▁የሚረዳ	-14411
▁ይኖራሉ	-14412
▁እውነታዎች	-14413
▁ማውጫዎች	-14414
ያዥ	-14415
▁የጉዳት	-14416
ንስክ	-14417
▁በህዝቡ	-14418
▁ያለባቸውን	-14419
ዎስ	-14420
ሎቬ	-14421
▁የተከናወነ	-14422
▁ተተክተዋል	-14423
▁የጠራው	-14424
190	-14425
▁በመለዋወጥ	-14426
▁700	-14427
▁የተጠረ	-14428
▁ኬሪ	-14429
▁ነፃነትን	-14430
▁በማዳበር	-14431
▁ከሴት	-14432
▁ውፅአት	-14433
ቐለ	-14434
▁ክሬዲት	-14435
▁ከተገኘ	-14436
▁ከአመታት	-14437
▁ፈጥረዋል	-14438
▁ባለስልጣናትን	-14439
ሄም	-14440
ቃቸውን	-14441
▁ቢኖራቸውም	-14442
▁ከፊል	-14443
ክሲን	-14444
▁ቢሊየን	-14445
▁በልብ	-14446
▁የሚወክሉ	-14447
yl	-14448
▁ቤቷ	-14449
▁ሊታዩ	-14450
ይበር	-14451
ምኑ	-14452
ts	-14453
▁ጥቆ	-14454
▁በሶቪየት	-14455
▁አቁ	-14456
ዛኒያ	-14457
ነዱ	-14458
▁አጥፍ	-14459
ደጉ	-14460
▁Un	-14461
▁ዝንጀሮዎች	-14462
▁ልኡክ	-14463
▁ተዘግቧል	-14464
▁ያንፀባርቃል	-14465
▁ከጃፓን	-14466
▁በሸክላ	-14467
ናክ	-14468
▁በመቅ	-14469
ሺህ	-14470
▁ቆንስ	-14471
▁ዩኒየን	-14472
)..	-14473
▁ይነገራል።	-14474
ስእ	-14475
▁አሉት።	-14476
▁በመሰረታዊ	-14477
▁ተከራክሯል	-14478
ore	-14479
▁ተላላፊ	-14480
▁ስደተኞችን	-14481
▁1898	-14482
ቫሪያ	-14483
▁ብሉዝ	-14484
ሰራበት	-14485
▁የተዘጋጀ	-14486
▁ኩክ	-14487
▁ሶሪያ	-14488
▁ጉብኝቶች	-14489
▁መግለጫዎችን	-14490
▁ማስከበር	-14491
▁to	-14492
▁110	-14493
▁በሰራተኛ	-14494
ገገም	-14495
▁ይጎ	-14496
▁አልቻል	-14497
▁ጨው	-14498
▁ተይዘው	-14499
▁እንዴ	-14500
▁ሪቨር	-14501
▁በኤፍ	-14502
▁ተጎታች	-14503
▁ተቀጥ	-14504
▁በጨለማ	-14505
▁ይሰጣል።	-14506
ግሎ	-14507
▁በኩባንያው	-14508
▁ቦርሳ	-14509
አያ	-14510
▁እንግዲህ	-14511
▁መኝታ	-14512
ቀረቡ	-14513
▁ለወጣ	-14514
▁ነበል	-14515
▁የዳን	-14516
▁አስተምህ	-14517
▁ከተቋቋመ	-14518
▁አስረ	-14519
▁ውድድርን	-14520
በለዚያ	-14521
▁እየገሰ	-14522
ፋል።	-14523
ከለው	-14524
▁ካውን	-14525
▁1860	-14526
▁ለፊልሙ	-14527
ኝነትን	-14528
▁ያቋርጣል	-14529
.1	-14530
▁የስፔክት	-14531
▁ተፈታ	-14532
ታትን	-14533
ምባብ	-14534
ንግስቱ	-14535
▁ጎጆዎች	-14536
▁የተሾሙ	-14537
▁ከስምንት	-14538
▁ጂኦግራፊያዊ	-14539
▁መስመርን	-14540
▁በአካባቢ	-14541
አድ	-14542
ኩበት	-14543
▁ናይጄሪያ	-14544
▁መነኮ	-14545
▁የተያዘው	-14546
ኖሚ	-14547
▁ለዶ	-14548
▁74	-14549
▁የፃፈ	-14550
ጭቱ	-14551
▁መቁጠ	-14552
▁ቀው	-14553
▁አክቲቪስት	-14554
▁እናገኛለን	-14555
▁ሱዛን	-14556
▁በመሰ	-14557
▁ዋረን	-14558
▁ፕሪምየር	-14559
▁ሩት	-14560
ind	-14561
▁ገባ።	-14562
ን።	-14563
▁ቅመ	-14564
▁ከማር	-14565
▁በጫካ	-14566
ሌተር	-14567
▁የሽፋኑ	-14568
▁አሰልጣኙ	-14569
ኤምሲ	-14570
▁ሙሬይ	-14571
በመጀመሪያ	-14572
▁ዌብ	-14573
ከማቹ	-14574
▁ይችሉ	-14575
▁ቁርጥራጮችን	-14576
▁130	-14577
▁ማጠቢያ	-14578
▁በአባ	-14579
▁ፍቃድ	-14580
▁ተስማምተዋል	-14581
▁ለማስላት	-14582
ፐርስ	-14583
ብናል	-14584
▁ካቶሊ	-14585
ፖራ	-14586
▁አገዛ	-14587
▁የፊዚዮሎጂ	-14588
▁ቅሌት	-14589
▁የኪራይ	-14590
▁ከሀገር	-14591
▁ሜዳው	-14592
▁እየጨመሩ	-14593
▁መተላለ	-14594
▁ሰበብ	-14595
▁የአንደኛ	-14596
ፌዴሪ	-14597
▁እንደማያ	-14598
▁ለማደስ	-14599
▁ያስከትላሉ	-14600
▁ተጠርጣሪዎች	-14601
▁የአኒ	-14602
▁ራጃ	-14603
▁ሽንፈ	-14604
▁ተጀምረዋል	-14605
▁በህይወቱ	-14606
▁አንባቢዎች	-14607
▁ለመጎብኘት	-14608
▁ናሙናዎችን	-14609
▁በሞስኮ	-14610
▁ኢምፓየር	-14611
▁ኦስቲን	-14612
▁ተከፍቷል	-14613
▁የቁልፍ	-14614
▁ያስተናግዳል	-14615
ዳሪ	-14616
ካናማ	-14617
▁ስህተቶችን	-14618
▁ለፒ	-14619
▁ህንዶች	-14620
▁ተከራክረዋል	-14621
2008	-14622
▁ግስጋሴ	-14623
▁አዛውንት	-14624
-16	-14625
ሽቱ	-14626
▁የሚሸፍን	-14627
▁ቤተክርስቲያኑ	-14628
▁ሰራዊቶች	-14629
ስተናግ	-14630
▁መደረጉን	-14631
▁ሱሪ	-14632
▁ኪል	-14633
▁ንፅህና	-14634
ዋጉ	-14635
▁በዘመኑ	-14636
▁የመሀል	-14637
▁ዊሊ	-14638
▁የናይጄሪያ	-14639
▁ትኩሳት	-14640
ገመግ	-14641
ዘመር	-14642
▁የጨጓራ	-14643
▁በማድረጉ	-14644
88	-14645
ከእ	-14646
93	-14647
ww	-14648
▁የጌጣጌጥ	-14649
ኮንዳ	-14650
▁የተመሩ	-14651
▁ተጠናክሮ	-14652
▁ካንሳስ	-14653
▁ለሜ	-14654
▁ማሰራጨት	-14655
ርኪ	-14656
ደሰቱ	-14657
▁ማተኮር	-14658
▁ለሶስተኛ	-14659
▁በእውቀት	-14660
ጠም	-14661
▁በማሻሻል	-14662
▁77	-14663
▁82	-14664
▁የሚያቀርብ	-14665
ከፈቱ	-14666
▁ካፌ	-14667
▁በተማሪዎች	-14668
ነዋል።	-14669
SD	-14670
ፀባ	-14671
97	-14672
▁መበለት	-14673
▁ለማፍረስ	-14674
ዋለሁ	-14675
▁ማቲው	-14676
▁ሚኔሶታ	-14677
▁ኦፕሬተሮች	-14678
▁WW	-14679
pl	-14680
▁ኒውዚላንድ	-14681
▁አስነስቷል	-14682
▁የተከፈለ	-14683
▁የባለቤትነት	-14684
▁ማርሽ	-14685
ቱስ	-14686
▁እነዚያ	-14687
▁ለቴ	-14688
▁በመጠባበቅ	-14689
▁መፅሀፉን	-14690
ዝግጅቱ	-14691
▁በሰአት	-14692
▁አስችሏቸዋል	-14693
▁አርኪኦሎጂ	-14694
▁ቸል	-14695
▁የልዩ	-14696
▁እሳ	-14697
▁ማጠናከር	-14698
ወደው	-14699
ራዝ	-14700
ሀርት	-14701
▁የእርሷ	-14702
▁በመክፈት	-14703
▁እስከሞተበት	-14704
▁ሄን	-14705
▁የተጫወቱ	-14706
▁ተናግራለች	-14707
▁ተተግብ	-14708
▁ያስገኛ	-14709
▁የሚተዳደሩ	-14710
ችሉት	-14711
ብሎስ	-14712
▁Re	-14713
ወግድ	-14714
▁መጣጥፎችን	-14715
▁ባለመቻላቸው	-14716
▁ምስጢር	-14717
▁ስለም	-14718
ፍሩ	-14719
▁በስፖርት	-14720
ኗን	-14721
▁እፈልጋለሁ	-14722
▁ኦፕሬተር	-14723
▁እንፈልጋ	-14724
▁መዝገቦችን	-14725
▁በርግ	-14726
▁ባለት	-14727
▁የሌሊት	-14728
▁ስታዲ	-14729
▁ማሰልጠኛ	-14730
ጠየቀ	-14731
▁የቬትናም	-14732
ቬይ	-14733
▁የጃዝ	-14734
▁ያዘጋጃል	-14735
▁የሂንዱ	-14736
▁ከሁለቱ	-14737
53	-14738
▁የስብ	-14739
▁በመኖሩ	-14740
▁-1	-14741
▁አመልክተዋል	-14742
▁ያገኘነው	-14743
▁ፈተናዎች	-14744
▁ለአከባቢው	-14745
▁መንገድን	-14746
▁በማህበረሰቡ	-14747
ኡል	-14748
▁ኦብ	-14749
▁በረራዎች	-14750
▁በተከሰተ	-14751
▁በርሊን	-14752
▁ጥራዞች	-14753
▁የሚደረገውን	-14754
▁የኮሮናቫይረስ	-14755
የካ	-14756
▁ሴናተሮች	-14757
▁በአገልግሎት	-14758
ለው።	-14759
▁ቁጠባ	-14760
ነገሩ	-14761
▁ክሪስቲያን	-14762
ፒድ	-14763
▁በዱር	-14764
መረምር	-14765
▁ተሻጋሪ	-14766
▁ሲሞክሩ	-14767
▁Al	-14768
አይኤስ	-14769
ፌሰር	-14770
▁ዝንጀሮ	-14771
▁ድሎችን	-14772
98	-14773
▁በቀዝቃዛ	-14774
▁በድምሩ	-14775
▁ኤሌክትሮኒክስ	-14776
ዳማዊ	-14777
▁ጃዝ	-14778
▁ያስፈልጋል።	-14779
▁ማሀበረሰብ	-14780
▁An	-14781
▁የኳንተም	-14782
▁ሀይፐር	-14783
▁አዘገ	-14784
▁ቬጋስ	-14785
▁ፍራንቻይዝ	-14786
▁ሌዲ	-14787
▁ይመክራል	-14788
▁ኢራቅ	-14789
ጠቀሰ	-14790
ለይ	-14791
▁በምእራባዊው	-14792
▁መኖራቸው	-14793
▁ውቅር	-14794
▁ዝላይ	-14795
▁ነፍሳት	-14796
▁የፈረስ	-14797
▁ድርጅቶችን	-14798
92	-14799
▁መርጠዋል	-14800
▁ኦስትሪያ	-14801
▁መጨናነቅ	-14802
▁ተገኝተው	-14803
▁ሰነዶችን	-14804
▁በቪክቶሪያ	-14805
▁እንዳልሆኑ	-14806
▁LGBT	-14807
▁መመዘኛ	-14808
▁ገበያው	-14809
▁ማጥመድ	-14810
▁የሚሄ	-14811
▁ይቆጣጠ	-14812
▁የክርስትና	-14813
ሂድ	-14814
▁ኖርዌይ	-14815
ረሙ	-14816
▁ፓትርያ	-14817
▁በሮያል	-14818
▁ሱልጣን	-14819
▁ጭቃ	-14820
▁1/	-14821
▁የሚኖረው	-14822
▁የተሽከርካሪ	-14823
▁የፍላጎት	-14824
ጀንስ	-14825
▁ማወዳደር	-14826
▁አስኪያጁ	-14827
▁73	-14828
▁በእርግጥም	-14829
▁ዝውው	-14830
▁ያረጋግጣሉ	-14831
ዋተር	-14832
ከዋል	-14833
ግራፊክ	-14834
▁ይጓዛሉ	-14835
▁He	-14836
ትሱ	-14837
▁ይወዳ	-14838
የርን	-14839
▁ይለብ	-14840
▁ለልጆች	-14841
ቆጠ	-14842
ስተዋል።	-14843
▁የቤልጂየም	-14844
▁ይቆጣጠራል	-14845
▁የአካባቢያዊ	-14846
▁በኳ	-14847
▁የሚያቀርቡ	-14848
ቀነሱ	-14849
▁ቪዲዮው	-14850
▁ለማጓጓዝ	-14851
▁ምርታማነት	-14852
▁እኔን	-14853
▁በብር	-14854
▁የሚያረጋግጥ	-14855
▁በመፍቀድ	-14856
▁በመንገዱ	-14857
ሰጡም	-14858
▁በትራ	-14859
▁የመላ	-14860
ልታ	-14861
▁መጥቶ	-14862
▁1899	-14863
ፈቅድ	-14864
▁የእሽቅድምድም	-14865
ጅና	-14866
ፍማን	-14867
▁ይከለክ	-14868
86	-14869
ሳዩ	-14870
▁አጥንቶች	-14871
▁ተከታይ	-14872
▁መርምሯል	-14873
ርታ	-14874
▁የቀረቡትን	-14875
▁የድርጅቱ	-14876
ወቅቱ	-14877
▁”	-14878
▁1-0	-14879
ክሳ	-14880
ኒዝ	-14881
▁አለመታደል	-14882
▁ካሜሮን	-14883
▁አውጭው	-14884
ሄል	-14885
ቢቲ	-14886
▁የባን	-14887
▁በዩኒቨርሲቲው	-14888
▁አይጥ	-14889
▁ያስደ	-14890
▁ሊዮና	-14891
ራልፍ	-14892
▁ብሪጅ	-14893
VID	-14894
▁በባዮ	-14895
▁ንፅፅ	-14896
▁ቻምበር	-14897
ሁል	-14898
▁የአስተሳሰብ	-14899
ከብት	-14900
ክሰስ	-14901
ገኘቱ	-14902
▁96	-14903
ቶሪዎች	-14904
▁ከወንዶች	-14905
▁የኦሪጂናል	-14906
ሻገ	-14907
▁አዋጁ	-14908
▁ከበደ	-14909
▁ካባ	-14910
▁ይሳተፋሉ	-14911
▁በቶሮንቶ	-14912
▁አካዳሚክ	-14913
▁የአንጀት	-14914
▁የመሳሰሉት	-14915
▁መከታተያ	-14916
▁የያ	-14917
▁ከቆየ	-14918
▁የአንደኛው	-14919
ዘጋጁት	-14920
▁ፈቅዷል	-14921
▁በማህበረሰብ	-14922
▁ወረዳው	-14923
▁ሆቴሎች	-14924
▁በመጪው	-14925
▁የቡድኑን	-14926
▁NHL	-14927
▁ባራክ	-14928
▁የመጀመርያ	-14929
2009	-14930
▁ቫይረ	-14931
▁ቻንስለር	-14932
ጣሪው	-14933
▁ሾን	-14934
▁በመቁረጥ	-14935
ሴንት	-14936
▁ኮሙ	-14937
▁ለጋዜጠኞች	-14938
▁ጴጥሮስ	-14939
▁ቆሞ	-14940
▁በጠላት	-14941
▁የደንበ	-14942
▁የፔንሲልቬንያ	-14943
▁የናይት	-14944
ኦል	-14945
ሬቶች	-14946
ቀነባበር	-14947
▁Bl	-14948
▁ከቡድን	-14949
▁ለህክምና	-14950
▁አላስፈላጊ	-14951
▁ተከሳሾች	-14952
▁የመንገደኞች	-14953
▁መዋኘት	-14954
▁ማይክሮስኮፒ	-14955
▁ቆመ	-14956
▁ጠርዞች	-14957
ሀና	-14958
▁ስካይ	-14959
▁ጥረቶችን	-14960
ቃለች።	-14961
▁የብሄር	-14962
▁ቀበሌ	-14963
ላደል	-14964
▁የጀመሩ	-14965
▁የሼ	-14966
ቴሪያን	-14967
▁የፎቶግራፍ	-14968
▁ህዋስ	-14969
▁በካውንቲ	-14970
▁ማፅደቅ	-14971
ደራጁ	-14972
ስታውን	-14973
▁ከማድረግ	-14974
▁ፓርቲን	-14975
ጅታዊ	-14976
ሀሳቦችን	-14977
▁በኬንያ	-14978
ራይስ	-14979
ስቶችን	-14980
▁ሳሊ	-14981
ኮሳ	-14982
ሸፈኛ	-14983
▁ኦፊሰር	-14984
▁ጥያቄውን	-14985
,3%	-14986
▁ፒየር	-14987
GA	-14988
▁ወጥተው	-14989
▁ሚሼል	-14990
▁ጋራ	-14991
▁የፍሎሪዳ	-14992
▁በእንስሳት	-14993
▁ፖሊሲን	-14994
NC	-14995
▁ገበሬ	-14996
ቀራረብ	-14997
▁Ne	-14998
ነጣ	-14999
▁መከተል	-15000
▁ክህሎቶችን	-15001
ሀርድ	-15002
▁ኢንስፔ	-15003
ምባብዌ	-15004
▁መልእክቶች	-15005
ራሚ	-15006
▁የህገ	-15007
▁ለተወሰኑ	-15008
▁ፈገግ	-15009
▁ቢሆንም፣	-15010
▁ወጥቷል	-15011
▁ቀንሰዋል	-15012
▁ሰራተ	-15013
▁ሀሪሰን	-15014
▁ይሮ	-15015
ቡ።	-15016
▁10%	-15017
▁ስላሉ	-15018
▁ይካሄዳል	-15019
▁የመጠን	-15020
የፍ	-15021
▁በተወ	-15022
▁ለማስቀመጥ	-15023
ቀርቡት	-15024
ጫወቱት	-15025
▁ደንበኛ	-15026
ፁሀን	-15027
▁እንዲሳተፉ	-15028
▁ፓው	-15029
▁አድማስ	-15030
ዌት	-15031
▁ተቋሙ	-15032
▁እኛም	-15033
▁የዴሞክራቲክ	-15034
ፀባረቅ	-15035
▁ነበረበት።	-15036
▁ያልተቋቋመ	-15037
▁(6	-15038
▁ለማቋረጥ	-15039
▁μ	-15040
▁አቀረቡ	-15041
▁ከመቼውም	-15042
▁ልምድን	-15043
▁አሶች	-15044
▁ሞተች	-15045
▁ኢላማዎች	-15046
▁የተላከ	-15047
▁እንደቀ	-15048
▁አህጉራዊ	-15049
▁ማጠናቀቅ	-15050
▁ሲጫወት	-15051
▁አገራቸው	-15052
ገርስ	-15053
▁በመወሰን	-15054
▁ለቀጣዮቹ	-15055
▁ሪኮር	-15056
▁በአጥ	-15057
▁አሳይቷል።	-15058
▁የማዳን	-15059
.2	-15060
ቀጦች	-15061
ዋሀዱ	-15062
▁ኢስ	-15063
▁ሲጀምሩ	-15064
▁ዘረፋ	-15065
▁ቶሎ	-15066
▁ቅጂዎችን	-15067
▁በባህል	-15068
ባረሩ	-15069
▁እኤአ	-15070
▁በመሳሪያ	-15071
▁እንቅስቃሴው	-15072
▁ያለን	-15073
▁የትኩረት	-15074
▁የደረት	-15075
▁ህይወትን	-15076
▁ተተግብሯል	-15077
▁በመጥራት	-15078
ምነቱ	-15079
▁የሽንት	-15080
▁ተከላካ	-15081
▁አውጪዎች	-15082
▁አጠናክሮ	-15083
▁ሰጥቶ	-15084
▁በአካዳሚክ	-15085
▁ሰለሞን	-15086
▁ከፌ	-15087
▁አብዛኞቹን	-15088
▁የቮ	-15089
ሳችንን	-15090
▁እንዳገኘ	-15091
▁ለሱ	-15092
▁ማክበር	-15093
▁ሊሰራ	-15094
▁በፎርት	-15095
▁ማጠናቀቂያ	-15096
▁መገለጫዎች	-15097
▁ለክለቡ	-15098
▁ይመለከታሉ	-15099
▁ሎክ	-15100
▁ፍጥ	-15101
ስለዚህ	-15102
▁በኮምፒተር	-15103
▁ተኝ	-15104
▁ኦሮሞ	-15105
▁አፍቃ	-15106
▁ላሪ	-15107
▁ተኳሀ	-15108
▁ከስር	-15109
▁በአንደኛ	-15110
ቫኒ	-15111
▁አለማዊ	-15112
▁ሲገቡ	-15113
ኒኮች	-15114
ልበሙ	-15115
▁ተሸፍ	-15116
▁ዱካዎች	-15117
▁ስለሆኑ	-15118
▁ንብረቶችን	-15119
▁ፀጥታ	-15120
ሩክሊን	-15121
▁ደሴ	-15122
▁ሞርፎሎጂ	-15123
▁ቅይ	-15124
▁ስፕሪንግስ	-15125
au	-15126
▁ዲክ	-15127
ጠቃሚዎች	-15128
▁ብሪቲሽ	-15129
▁የቱሪዝም	-15130
ሰቃቂ	-15131
▁የወጣቶች	-15132
1,	-15133
▁አይደሉም።	-15134
ደገኛ	-15135
▁ገንዘቡን	-15136
▁ንክኪ	-15137
▁አረፋ	-15138
▁በረንዳ	-15139
▁ኢትዮጵያዊያን	-15140
▁ዘንድሮ	-15141
▁ጠላቶች	-15142
,6%	-15143
▁2,	-15144
በረታታ	-15145
out	-15146
ፔዝ	-15147
▁ተክቷል	-15148
▁ፕሬዝዳንቱ	-15149
!!	-15150
▁ሮድሪ	-15151
▁ተወዳድሯል	-15152
▁አንዳ	-15153
▁ምእራፎች	-15154
▁ጆሮ	-15155
▁ሀይለማርያም	-15156
ለዩ	-15157
ሞግራፊ	-15158
▁ትውልዶች	-15159
ሰጠም	-15160
▁ወረቀቶችን	-15161
ካተቱት	-15162
▁የተረጋገጡ	-15163
▁በጎዳና	-15164
▁[...]	-15165
▁ከዋክብት	-15166
▁ልእለ	-15167
▁ተንቀሳቃሽነት	-15168
▁ባልደረቦቹ	-15169
▁ለመወከል	-15170
ቃቤ	-15171
▁ከሰባት	-15172
ፍኑ	-15173
▁እንዲመ	-15174
▁አረፍተ	-15175
▁ጭቆና	-15176
▁የሚያመለክቱ	-15177
▁ቂ	-15178
▁በሌለው	-15179
በማ	-15180
▁ተቀብለዋል	-15181
▁ሸክም	-15182
መሮችን	-15183
▁ተጠቁ	-15184
▁ትርጓሜዎች	-15185
ሪተ	-15186
▁ወንጀለኛ	-15187
ቴው	-15188
▁የኮሌ	-15189
▁ላለማ	-15190
ኮንድ	-15191
ውንም	-15192
▁የኢንዶኔዥያ	-15193
▁ያለፉ	-15194
ተወ	-15195
▁እዚያው	-15196
▁እች	-15197
▁በማካተት	-15198
ኤፍኤል	-15199
በቀ	-15200
▁የማሰብ	-15201
ያለን	-15202
▁የመንግስትን	-15203
▁Com	-15204
▁በንግ	-15205
▁ጠርቶ	-15206
ሎቭ	-15207
▁የግሪን	-15208
ብራይስ	-15209
የማይ	-15210
▁ቁርጠኛ	-15211
▁በመግለጫው	-15212
▁የመጫወቻ	-15213
▁ጥያቄው	-15214
▁ይጠቀሙ	-15215
▁ማእዘኖች	-15216
▁ተመራማሪው	-15217
▁የኮንትራት	-15218
▁በማስተካከል	-15219
EP	-15220
ፕሊ	-15221
▁መግደል	-15222
▁ቪዲዮዎች	-15223
ነርስ	-15224
▁ቴራፒ	-15225
▁በናይጄሪያ	-15226
96	-15227
,7%	-15228
ሲድ	-15229
▁የካል	-15230
ሳይል	-15231
▁አንበሳ	-15232
ቀሳቃሽ	-15233
ፀባራ	-15234
▁ክህሎት	-15235
▁ባደረገ	-15236
▁የተሰማሩ	-15237
በዚህም	-15238
ግረሲቭ	-15239
▁ስዊዘርላንድ	-15240
▁ባይደን	-15241
▁አሳው	-15242
org	-15243
▁አንድሬ	-15244
▁ሊጎች	-15245
ጠቀምበት	-15246
▁ቅርበት	-15247
▁በሎንዶን	-15248
▁ግብአ	-15249
ሮቻቸውን	-15250
▁የእርግ	-15251
ድሊ	-15252
ክስፒር	-15253
▁ክቡር	-15254
▁በፀደይ	-15255
▁የእምነት	-15256
▁ኬት	-15257
▁እህል	-15258
▁ብልህነት	-15259
▁ይማ	-15260
▁አላግባብ	-15261
▁ጥገናው	-15262
ቀንሱ	-15263
▁በቅኝ	-15264
ረጅ	-15265
▁የጆርጅ	-15266
▁በቤልጂየም	-15267
▁በሜትሮ	-15268
▁ማገገም	-15269
▁ያስታወ	-15270
ጧቸው	-15271
▁በመቁጠር	-15272
ቀዝቀዝ	-15273
▁በወንዙ	-15274
▁ኮከቦችን	-15275
▁የታየው	-15276
ንሀ	-15277
▁የሚይዝ	-15278
▁2,000	-15279
▁ፕሮፖዛል	-15280
▁ሀጢ	-15281
ros	-15282
▁ስራቸው	-15283
▁አሸነፉ	-15284
▁የማስፋ	-15285
▁አቤ	-15286
▁ከንግድ	-15287
ፌልድ	-15288
▁ጉባኤው	-15289
ፈረንሳይ	-15290
▁ከህግ	-15291
ain	-15292
▁አቡነ	-15293
ርቶዶክስ	-15294
▁ቁልቁ	-15295
▁በሶቪዬት	-15296
ብረዋል	-15297
▁በሰን	-15298
▁ብቃ	-15299
ምቤላ	-15300
▁ለአስር	-15301
▁ሸማቾች	-15302
▁አስተባብ	-15303
▁በአንፃራዊ	-15304
ፍሎች	-15305
ኢኮኖሚያዊ	-15306
▁ክሊቭላንድ	-15307
▁ዴልታ	-15308
▁እየሰ	-15309
▁ትንታኔያዊ	-15310
AD	-15311
▁እስረኞችን	-15312
▁ማእድናት	-15313
ሳይቶች	-15314
isc	-15315
ናና	-15316
ርስቶ	-15317
▁1896	-15318
ጋጠመው	-15319
▁አለመቻ	-15320
▁የውይይት	-15321
▁በሞተር	-15322
ዲዎች	-15323
▁መሸጥ	-15324
▁አጋጥሟ	-15325
▁ማእከለ	-15326
▁ያስገድ	-15327
HS	-15328
▁ማጥቃት	-15329
ባበሩ	-15330
▁የነበረች	-15331
▁መድረሱን	-15332
▁Con	-15333
▁ዉስጥ	-15334
▁አርጀንቲና	-15335
▁ለአደጋ	-15336
▁አግኝተው	-15337
▁ከስቴ	-15338
▁ሊተገበር	-15339
▁ትጥቅ	-15340
,4%	-15341
▁አጠራጣሪ	-15342
▁ምርቱ	-15343
▁ሶክስ	-15344
ደረሰው	-15345
▁1864	-15346
▁ፓኬ	-15347
▁ለብሶ	-15348
▁በኢንዶኔዥያ	-15349
ሰሱ	-15350
ሳውንድ	-15351
ith	-15352
▁ከትንሽ	-15353
▁የስበት	-15354
▁የስህተት	-15355
▁የተደበቀ	-15356
▁ስልጣኔ	-15357
▁ነበልባል	-15358
ቶሪያል	-15359
▁ራዳር	-15360
ሞቹን	-15361
▁ደብዛ	-15362
▁የመንደሩ	-15363
አሉ	-15364
▁ተከራ	-15365
▁በመኖራቸው	-15366
▁ለእሷ	-15367
ሪየስ	-15368
ሻሻሉ	-15369
▁ይቀላቀ	-15370
▁ከቀዶ	-15371
▁ሊከሰቱ	-15372
▁እየተከናወነ	-15373
▁በጣ	-15374
▁ባድ	-15375
▁በኋላ፣	-15376
▁ውሀዎች	-15377
▁ST	-15378
▁ከቀድሞዎቹ	-15379
▁ሚንስትር	-15380
▁የድል	-15381
▁ከፈተ	-15382
▁በስልጠና	-15383
▁1862	-15384
ሪኮ	-15385
▁የፍልስጤም	-15386
▁ሴንቲሜትር	-15387
▁የኢሚግሬሽን	-15388
NS	-15389
▁የሚወሰነው	-15390
''	-15391
ለቶችን	-15392
▁<0	-15393
▁ሰውነት	-15394
ps	-15395
ራጥ	-15396
ሀትን	-15397
▁ሰጠ።	-15398
▁Sc	-15399
▁ከጨረ	-15400
ጩት	-15401
ጫነ	-15402
▁ካለፈው	-15403
ቴሮ	-15404
▁ገንቢዎች	-15405
ሎቻቸው	-15406
▁ይወር	-15407
▁ፈጣሪዎች	-15408
ሆር	-15409
▁ተመለከተ	-15410
▁ዲዛይነር	-15411
▁አሊስ	-15412
▁አተኩ	-15413
▁ኦሊቨር	-15414
▁የህዳሴ	-15415
▁ተሰብስበው	-15416
ጋርድ	-15417
▁መሰረዝ	-15418
▁በቦታ	-15419
▁በመፍራት	-15420
▁ዘግይቷል	-15421
ለማው	-15422
▁መሪነቱን	-15423
ቆሙት	-15424
ነዝ	-15425
▁የዳይሬ	-15426
▁ስሜትን	-15427
ሸከም	-15428
▁አንትሮፖሎጂ	-15429
▁እንዳት	-15430
ጀመሩት	-15431
ቃድ	-15432
▁ለፊ	-15433
▁ክሬግ	-15434
▁አሪዞና	-15435
ወለድ	-15436
▁ከአስተ	-15437
▁ተርነር	-15438
▁በግንባታ	-15439
መለኮት	-15440
ብራይስጥ	-15441
▁የሚታወስ	-15442
▁ከብሪታንያ	-15443
ፋክስ	-15444
ደረስ	-15445
▁በካል	-15446
▁መብትን	-15447
▁የቨርጂኒያ	-15448
▁የአመፅ	-15449
ሚየም	-15450
በቁ	-15451
▁ዘመንን	-15452
▁ከሸ	-15453
▁ለይቶ	-15454
▁ከመስከረም	-15455
▁የተከሰተውን	-15456
ደቁ	-15457
▁አገራዊ	-15458
▁ለሞት	-15459
▁ማሸ	-15460
AM	-15461
▁ሰአሊዎች	-15462
▁ሙከራው	-15463
▁ከአዲሱ	-15464
▁የሚመሩ	-15465
▁አብዛኛዎቹን	-15466
ላለህ	-15467
ራላ	-15468
▁ከብራ	-15469
ሊቦል	-15470
ርኩሪ	-15471
▁ለአንዳንድ	-15472
▁በሀይማኖት	-15473
ood	-15474
▁የጡብ	-15475
▁በእለት	-15476
▁የሚስብ	-15477
▁ትተው	-15478
ረፈ	-15479
ሳይክሎ	-15480
▁ሌዘር	-15481
▁በመርዳት	-15482
▁ሎይድ	-15483
▁ኦሪገን	-15484
▁ch	-15485
▁አሰበ	-15486
ታሪስት	-15487
▁ብሮን	-15488
▁ባሪያዎች	-15489
▁በሚታ	-15490
▁ኦክስፎርድ	-15491
▁እጩዎችን	-15492
▁COVID	-15493
▁ማራቶን	-15494
▁እንዳላ	-15495
▁በጊዜያዊ	-15496
▁የኬንያ	-15497
▁ገብነቶች	-15498
▁ችለዋል።	-15499
▁ያስባል	-15500
▁ፍራፍሬ	-15501
▁በስምንት	-15502
▁የእርግዝና	-15503
▁ለየት	-15504
ክሊዮ	-15505
▁97	-15506
▁እድሉን	-15507
▁3)	-15508
▁ሮዛ	-15509
▁ናታ	-15510
▁የጨርቃ	-15511
▁አመድ	-15512
▁እንደተገለፀው	-15513
▁ግድያዎች	-15514
▁መንትዮች	-15515
ዜአ	-15516
▁መርም	-15517
ላደልፊያ	-15518
▁ተገናኝቶ	-15519
▁ያስፈልጋሉ	-15520
▁በፌስቡክ	-15521
▁እትሞች	-15522
▁አቅርቧል።	-15523
▁በቴሌ	-15524
ary	-15525
▁ከሞት	-15526
▁y	-15527
▁ሞባይል	-15528
▁ኮሚቴዎች	-15529
ፊስ	-15530
▁የተፈፀመው	-15531
▁አላባማ	-15532
መጣት	-15533
ሎምበስ	-15534
▁በሰውነት	-15535
▁ምክሮችን	-15536
▁ግላዊነት	-15537
ምናልባት	-15538
▁ለማበረታታት	-15539
▁ማቋረ	-15540
▁ኤሊዮት	-15541
▁ግሎባል	-15542
▁ሬን	-15543
▁ፔን	-15544
▁የሚወክል	-15545
▁በንፁህ	-15546
▁ለመዝጋት	-15547
▁ተለቀቁ	-15548
▁ይሰሩ	-15549
ደራሉ	-15550
▁ተጋባ	-15551
▁ስቶክ	-15552
ft	-15553
IP	-15554
ሌዝ	-15555
▁በተሰጠው	-15556
▁የሚቃ	-15557
▁ብሎም	-15558
▁ልጆቻቸው	-15559
▁አቁም	-15560
▁እይ	-15561
▁እንጅ	-15562
▁የመበስበስ	-15563
▁የቢቢሲ	-15564
▁በአሮጌው	-15565
▁ምንዛሪ	-15566
ኬይ	-15567
መሳሳይ	-15568
▁አስተዋውቀዋል	-15569
ve	-15570
▁ኔዘርላንድስ	-15571
መሪያ	-15572
ቼስተር	-15573
,8%	-15574
▁ኖቫ	-15575
ገስት	-15576
▁ኩባንያዎችን	-15577
▁የቁሳቁ	-15578
▁የቡና	-15579
▁የታሰቡ	-15580
ህይወት	-15581
lic	-15582
▁በዚ	-15583
▁ክሊኒክ	-15584
▁በሙያ	-15585
▁ቶሮንቶ	-15586
▁Tr	-15587
▁SC	-15588
ፍጣ	-15589
▁ከየት	-15590
▁በዩኬ	-15591
▁የመስቀል	-15592
▁140	-15593
▁አሸባሪ	-15594
▁አኒሜ	-15595
▁የናዚ	-15596
ጠቃቀም	-15597
▁የቤን	-15598
▁በተመጣጣኝ	-15599
▁አላገኘ	-15600
▁ይከ	-15601
ረጠው	-15602
▁በሚወስደው	-15603
▁ፕሮፓጋንዳ	-15604
ሜኑ	-15605
ነሱት	-15606
▁ቦቢ	-15607
▁አልፍሬድ	-15608
ፒሲ	-15609
▁ከመጥ	-15610
ህማን	-15611
▁የመሰብሰቢያ	-15612
▁ካፒቴ	-15613
▁እውነቱን	-15614
ሰቦቻቸው	-15615
▁አጥጋቢ	-15616
▁ሪዮ	-15617
ሎፕ	-15618
ld	-15619
▁ተሰማ	-15620
▁1895	-15621
በያው	-15622
▁ለፋ	-15623
▁ሚናዎችን	-15624
▁አርክቴክቶች	-15625
▁በመገናኘት	-15626
ቀናጀ	-15627
▁መፈክር	-15628
▁እንደማት	-15629
▁የውቅያኖስ	-15630
▁ፀጥ	-15631
▁እንደሆነና	-15632
▁ተጭነዋል	-15633
▁2,5	-15634
▁ዘመቻው	-15635
tr	-15636
ስፓኒክ	-15637
ሪቷ	-15638
▁ላክ	-15639
▁ቆስለዋል	-15640
▁ከባለቤቱ	-15641
ወዛ	-15642
▁ተስማምቷል	-15643
▁መቻል	-15644
▁የእንቁላል	-15645
▁ማእቀብ	-15646
ግሮች	-15647
ሀሳብን	-15648
▁ከሁለቱም	-15649
▁ሂደትን	-15650
▁ፊሊፕስ	-15651
▁የሚጠራውን	-15652
▁በቤል	-15653
▁የሌዘር	-15654
ጄን	-15655
▁ግሽበት	-15656
▁በታሪካዊ	-15657
▁ሪባ	-15658
▁ጀመር	-15659
▁በፖሊ	-15660
▁መዝሙ	-15661
▁ለማሰባሰብ	-15662
ብሊክ	-15663
▁መከልከል	-15664
▁ተከተለ	-15665
▁መባ	-15666
▁ባያ	-15667
▁ኖርማን	-15668
▁አማር	-15669
▁በመወርወር	-15670
▁ተቃወ	-15671
▁ጊታ	-15672
▁አይገባም	-15673
▁መፈፀ	-15674
▁አመለካከቶችን	-15675
▁ቀስት	-15676
▁በአትላንቲክ	-15677
ሻም	-15678
አስተ	-15679
▁ልኡካን	-15680
▁ሊጨምር	-15681
▁የፕሬዚዳንት	-15682
▁አይመስለኝ	-15683
▁የመብት	-15684
ብሪጅ	-15685
▁ኦሪ	-15686
▁ቀርበው	-15687
▁ይጠሩ	-15688
▁የሚመነጨው	-15689
ግርግ	-15690
▁ክብደ	-15691
▁በተመረ	-15692
▁ተገኝተዋል።	-15693
▁ኮሎራዶ	-15694
▁ነርሶች	-15695
ብኝት	-15696
▁ያልተስተካከለ	-15697
94	-15698
▁የንፅህና	-15699
▁ተዋህዶ	-15700
▁በጠባብ	-15701
▁ሮቦት	-15702
ሪያስ	-15703
▁ለቀጣይ	-15704
ሻንጉል	-15705
▁የስቱዲዮ	-15706
▁ከስነ	-15707
ኮቪች	-15708
▁ለደን	-15709
▁ስማቸው	-15710
▁በሩቅ	-15711
▁ተጨምረዋል	-15712
▁መቀመጫዎችን	-15713
▁ማሽከርከር	-15714
▁ተደምስሰዋል	-15715
ዶልፍ	-15716
▁ኤድዋርድስ	-15717
▁ሽታ	-15718
▁በሰባ	-15719
▁ልብሶችን	-15720
ቬት	-15721
▁ፕሮቶኮ	-15722
RT	-15723
መለኮታዊ	-15724
ክሊን	-15725
▁1863	-15726
▁የሚወጣው	-15727
ሰጡት	-15728
▁የንፅፅር	-15729
▁በዴንማርክ	-15730
▁ይጨምራሉ	-15731
,2%	-15732
▁እናው	-15733
▁አቀራረቦችን	-15734
▁ፋብሪካው	-15735
▁ኬፕ	-15736
▁ያውቅ	-15737
▁ስክ	-15738
ገለሉ	-15739
▁ኢብራ	-15740
▁ሚናውን	-15741
ባሪው	-15742
▁የሚያስፈልገው	-15743
▁ያስተላልፋል	-15744
▁መርዳት	-15745
▁ማእረጉን	-15746
ኝን	-15747
ዩ።	-15748
▁ለተማሪዎች	-15749
▁ለጎ	-15750
▁125	-15751
ዝምታ	-15752
▁ፕሮዳክ	-15753
▁ለማደራጀት	-15754
▁ዴስ	-15755
▁ስፓይ	-15756
▁ለመግታት	-15757
▁ቤታ	-15758
▁92	-15759
▁መለኮታዊ	-15760
ካሂድ	-15761
▁አይሆን	-15762
ቆጠረው	-15763
▁ኦሪጅናል	-15764
▁ምላሾችን	-15765
ቦቻቸውን	-15766
▁ለሀገር	-15767
▁የሚበልጡ	-15768
▁እንሽ	-15769
ቻር	-15770
▁ቫሊ	-15771
▁ያኔ	-15772
▁አውጭዎች	-15773
▁ስቱ	-15774
▁በሚኖርበት	-15775
ዋወጡ	-15776
▁ለማጥቃት	-15777
▁ይመርጣል	-15778
▁ከማስ	-15779
▁ሳንቲሞች	-15780
▁የሴራ	-15781
▁Se	-15782
▁መቆለፊያ	-15783
▁የሚቆጠር	-15784
▁ሲደረግ	-15785
▁ሬአ	-15786
▁ከእኛ	-15787
ረጫ	-15788
ወራ	-15789
rom	-15790
▁ሰርቢያ	-15791
ቻን	-15792
ይንቱ	-15793
▁የጭንቅላቱ	-15794
ኳቸው	-15795
ase	-15796
▁ሲሉም	-15797
▁ከውስ	-15798
▁የነጭ	-15799
▁የሚከተለው	-15800
ጎላ	-15801
▁የሚካሄዱ	-15802
ካካሻ	-15803
▁ይለካል	-15804
▁በተመረጡ	-15805
▁ባርኔ	-15806
▁የመስቀለኛ	-15807
ላቸውም።	-15808
▁የአርሜኒያ	-15809
መለሻ	-15810
▁ከወረ	-15811
ኔሽን	-15812
▁SP	-15813
▁በኤሌክትሮኒክ	-15814
▁አንግ	-15815
ጥቁር	-15816
▁አውጥተዋል	-15817
ስታቲክ	-15818
▁ጆናታን	-15819
ፀባራቂ	-15820
▁ለማስታ	-15821
▁ሬንጀርስ	-15822
ነድ	-15823
▁ዘይቤን	-15824
▁ሩዝቬልት	-15825
▁ብርጌድ	-15826
▁ለአዳዲስ	-15827
▁የህዝቡን	-15828
▁87	-15829
▁በአነስተኛ	-15830
▁እርግዝና	-15831
▁መምራት	-15832
▁ነገርግን	-15833
▁ቅስ	-15834
▁ወቅቱ	-15835
▁ቬክተር	-15836
▁ሚስቱን	-15837
▁ያምናል	-15838
▁ይተነትናል	-15839
▁ፕላኔት	-15840
ንቱ	-15841
▁ይቀጥላሉ	-15842
.3	-15843
▁ለሂ	-15844
▁አቀማመ	-15845
▁ተጓዘች	-15846
▁ሊዩ	-15847
ቀበለው	-15848
ጣሉ።	-15849
▁የኦክስጅን	-15850
ቫቶሪ	-15851
▁ጉጉት	-15852
▁በርካ	-15853
▁ፍቅ	-15854
▁የእነሱን	-15855
ke	-15856
▁ጮክ	-15857
▁መንስኤዎች	-15858
▁አገልግሎቱን	-15859
▁በነበሩበት	-15860
ሌድ	-15861
▁አዘጋ	-15862
▁ካድ	-15863
▁ለመሰንዘር	-15864
▁ኮክ	-15865
▁መስጊድ	-15866
▁ሚላን	-15867
▁አፃፃፍ	-15868
▁ኤግዚቢሽኖች	-15869
▁የፑ	-15870
▁ሪያል	-15871
▁En	-15872
▁ስለሚችሉ	-15873
HA	-15874
▁ሸጠ	-15875
▁ሬጂ	-15876
ፍራሬድ	-15877
rit	-15878
▁ይጠብቃል	-15879
▁ዩክሬን	-15880
ተህ	-15881
▁ስእላዊ	-15882
ጋሉ	-15883
ቀሰው	-15884
በዚያን	-15885
ከራከር	-15886
WA	-15887
▁1865	-15888
▁ጂኦሜትሪ	-15889
▁መለዋወጫ	-15890
▁ጄኔራሎች	-15891
▁ተማሪዎቹ	-15892
▁ቢችሉም	-15893
▁በመቆ	-15894
▁ለማስቀረት	-15895
▁የማሽከርከር	-15896
ኖና	-15897
▁ዳቦ	-15898
▁ናሽናል	-15899
▁በሂደቱ	-15900
ኒዚያ	-15901
▁የመፍትሄ	-15902
▁ፍተሻ	-15903
ቢኤ	-15904
▁የተቀረፀው	-15905
▁ፕሬዚዳንቶች	-15906
▁ሊባል	-15907
▁በቨር	-15908
የኦ	-15909
▁በቢቢሲ	-15910
▁መርማሪዎች	-15911
▁ማክዶናልድ	-15912
▁ለማዳ	-15913
▁ስቲቨንስ	-15914
▁የእሳተ	-15915
▁ለሪፖርተር	-15916
▁ይዋ	-15917
▁በልማት	-15918
ላኖ	-15919
▁ሜን	-15920
▁አንዳር	-15921
▁እውነተኛው	-15922
▁ዝግጅቱ	-15923
▁ካውንስል	-15924
▁81	-15925
▁ከመቶ	-15926
▁1897	-15927
▁5,000	-15928
▁ሏላዊነት	-15929
▁የዘረ	-15930
▁ጆርዳን	-15931
▁ሰንሰለቶች	-15932
▁ፀሎት	-15933
▁ይዛ	-15934
▁በመሀል	-15935
▁ቫሌ	-15936
▁የአካባቢውን	-15937
▁በሽታው	-15938
89	-15939
ውያኑ	-15940
▁አሰልቺ	-15941
ሳድ	-15942
▁84	-15943
▁የሙስና	-15944
▁ሌሊ	-15945
▁በመጣስ	-15946
ጣቶችን	-15947
▁እንደሚያደርጉ	-15948
52	-15949
▁የሚቀርቡ	-15950
▁አድርገናል	-15951
▁ተመረጡ	-15952
▁የተደገፉ	-15953
▁እችላለሁ	-15954
▁ራማ	-15955
ጋቡ	-15956
▁በነበረችበት	-15957
▁ማንጋ	-15958
▁ለማጣራት	-15959
▁ሀና	-15960
▁ዲዮ	-15961
▁ምንጣ	-15962
▁መመገብ	-15963
▁እንዳለባት	-15964
▁በአውቶ	-15965
▁ስላለ	-15966
ሙትን	-15967
▁የውጪ	-15968
▁al	-15969
?”	-15970
ዊድ	-15971
▁ምርምርን	-15972
▁መንደሩ	-15973
▁th	-15974
▁ለመጀመሪያው	-15975
▁የተስተካከሉ	-15976
ix	-15977
▁በመደ	-15978
▁ተህዋስያን	-15979
▁የዝንጀ	-15980
▁የኖረ	-15981
▁ሊያመለክት	-15982
▁አንብ	-15983
▁ሂትለር	-15984
▁ስታንሊ	-15985
ኒኮ	-15986
▁ሀዋሳ	-15987
▁የተማሪዎችን	-15988
▁የማቀዝቀዣ	-15989
ቪና	-15990
▁እጢዎች	-15991
▁መላም	-15992
▁እነዚያን	-15993
አና	-15994
▁ድራማዎች	-15995
▁ትንታኔን	-15996
▁መቅረ	-15997
▁ስታድ	-15998
የዋ	-15999
▁ይመለሳሉ	-16000
RI	-16001
▁ግርጌ	-16002
▁ያስተዋውቃል	-16003
83	-16004
RS	-16005
ዋኪ	-16006
▁የሚናገሩ	-16007
orm	-16008
▁ተቀላቀለች	-16009
▁እንዳስታወ	-16010
ከላካይ	-16011
▁ፍርስራሾች	-16012
▁ታትመዋል	-16013
ong	-16014
▁ኮት	-16015
▁ጄት	-16016
▁ፈጥሯል	-16017
▁ተግዳሮት	-16018
ሾፕ	-16019
▁በእኔ	-16020
▁ሮማ	-16021
▁በቫን	-16022
▁ከተፈጥሮ	-16023
▁የሚጠብ	-16024
▁ብሄረሰብ	-16025
▁ሞስኮ	-16026
▁ዴቪ	-16027
ብርኤል	-16028
▁ጂኖ	-16029
▁ሏላዊ	-16030
▁መከላከ	-16031
▁ሳይሆኑ	-16032
▁የተገነዘ	-16033
▁CI	-16034
▁ቢሮው	-16035
▁የሲኤንኤን	-16036
▁ያካሂዳሉ	-16037
▁ኮምፒተር	-16038
▁የፕሮጀክቱ	-16039
▁ስላላቸው	-16040
▁ማዳበሪያ	-16041
▁አዘገጃ	-16042
▁እንዲወስዱ	-16043
?"	-16044
▁የቆየው	-16045
▁ልሂቃን	-16046
▁አቅርቦቶችን	-16047
▁የመጡት	-16048
▁ያደረግ	-16049
ዶክ	-16050
መናን	-16051
▁መለወ	-16052
▁አስቀያሚ	-16053
▁መናገ	-16054
ኒት	-16055
ፋኤል	-16056
▁79	-16057
ለጫ	-16058
▁የኒዮ	-16059
ደገፈ	-16060
በሀ	-16061
▁ቢያደርግም	-16062
▁ይቆያሉ	-16063
▁ያሸነፈው	-16064
▁ትታ	-16065
▁በምስ	-16066
▁መለዋወጥ	-16067
▁ማስቀመጥ	-16068
▁የተሰረ	-16069
▁በህንፃው	-16070
▁ተው	-16071
▁ቪንሰንት	-16072
ጎሪያ	-16073
▁በስርአት	-16074
ንቨር	-16075
ሪያቸውን	-16076
ምቢያ	-16077
▁በተን	-16078
▁በመከታተል	-16079
ፐስ	-16080
▁(193	-16081
▁በቡድ	-16082
▁1850	-16083
▁ከሀያ	-16084
ጠልጥ	-16085
▁በሜልበርን	-16086
▁እንባ	-16087
▁የተደረገበት	-16088
ሲፒ	-16089
▁ፖስታ	-16090
ካና	-16091
▁ያበረታታል	-16092
▁አፕል	-16093
ላጆች	-16094
ለኪውላዊ	-16095
▁አሰራጭ	-16096
▁የተመለሱ	-16097
ገራቸው	-16098
▁መተንተን	-16099
▁እንዲይዙ	-16100
ጥሉ	-16101
▁የተመረተ	-16102
▁ስልት	-16103
▁አህጉር	-16104
ለመደ	-16105
▁ወሰነ።	-16106
▁ተንቀሳቅሷል	-16107
▁ፓምፕ	-16108
▁ይራ	-16109
ሆልም	-16110
▁የዘይት	-16111
LB	-16112
ax	-16113
ግስት	-16114
▁ተርጓ	-16115
▁በሚኒሶታ	-16116
▁ቤክ	-16117
ነታው	-16118
▁የሚጫወቱ	-16119
መርስ	-16120
▁ነውና	-16121
ሞቶ	-16122
▁1888	-16123
▁መታጠቢያ	-16124
▁ላንድ	-16125
ione	-16126
▁ትላንት	-16127
▁ደብረ	-16128
▁ወጣ።	-16129
▁የመቀነስ	-16130
▁ሸለቆዎች	-16131
▁የመዘምራን	-16132
▁የሚገ	-16133
ሬሽ	-16134
▁ስምምነትን	-16135
▁ሜሪላንድ	-16136
▁መርከቧን	-16137
ሰቃየት	-16138
▁የተጠናቀቀው	-16139
▁ተከሳሽ	-16140
▁የሳይበር	-16141
ጎመሪ	-16142
▁ሊትል	-16143
▁መጀመሩን	-16144
▁በማው	-16145
▁ፈጠራዎች	-16146
ዋልድ	-16147
ተንን	-16148
▁የሚሳተፉ	-16149
ጥን	-16150
ፓስ	-16151
▁ስምሪት	-16152
ስቲቱ	-16153
▁የሊጉ	-16154
▁ናሽ	-16155
ጄኔሲስ	-16156
▁ተወለ	-16157
ነት፣	-16158
ዳክሽን	-16159
በሻ	-16160
ባህላዊ	-16161
▁የተሻለው	-16162
MC	-16163
▁ጁሊያ	-16164
▁በመድረ	-16165
▁በሚከሰት	-16166
▁በቲያትር	-16167
▁በኤም	-16168
▁የሚገር	-16169
ዶም	-16170
▁የዚያ	-16171
ለታል።	-16172
ጮቹ	-16173
▁የከባድ	-16174
ሌክሳንደር	-16175
▁መልቀቅ	-16176
▁በካንሰር	-16177
የሰው	-16178
▁የሚገድ	-16179
▁ቲቪ	-16180
▁ፊሸር	-16181
ፎሊዮ	-16182
▁ድርድ	-16183
▁በመጎብኘት	-16184
▁ሄለን	-16185
ናጋጅ	-16186
ወስን	-16187
▁የገባው	-16188
ame	-16189
ዋለ	-16190
በግ	-16191
▁20%	-16192
▁ጓደኛዋ	-16193
▁በሌለበት	-16194
▁የሽልማት	-16195
▁ሮን	-16196
▁መነፅ	-16197
▁በምክር	-16198
ንትራ	-16199
▁ኦክስጅን	-16200
▁እገዛ	-16201
▁በግለ	-16202
ታደግ	-16203
ings	-16204
▁የሳተላይት	-16205
▁ኪሳራዎች	-16206
▁የለበሰ	-16207
▁በማሌዥያ	-16208
ብራል	-16209
▁በሲንጋፖር	-16210
ሽራ	-16211
ስኮትላንድ	-16212
▁ለማራዘም	-16213
56	-16214
▁የሀርድ	-16215
▁የቀረው	-16216
▁ውህድ	-16217
▁አይሁዳዊ	-16218
▁ከግድ	-16219
▁የመስጠት	-16220
ካድ	-16221
▁የሞዴል	-16222
▁ጨዋታን	-16223
▁ለመመዝገብ	-16224
▁ካፒታ	-16225
ክሪፕት	-16226
▁ለግን	-16227
▁ምህዳር	-16228
,9%	-16229
▁ሞተዋል	-16230
ነሩ	-16231
▁የሚችሉትን	-16232
▁ስታይ	-16233
▁ብላን	-16234
▁ጄፍሪ	-16235
ፎቶ	-16236
▁የመትረፍ	-16237
▁የመፅሀፍት	-16238
ፋኒ	-16239
54	-16240
▁ቀሚስ	-16241
▁ፍሮ	-16242
▁የማሀ	-16243
ሙዝ	-16244
▁ሲሰሩ	-16245
ወድቁ	-16246
▁የተሸጠ	-16247
ኒቨርሳል	-16248
▁በመጫን	-16249
▁ምክክር	-16250
▁ይደረግ	-16251
▁በማእድን	-16252
▁የሩዝ	-16253
▁ለጆ	-16254
▁ይገመግማል	-16255
ሉንም	-16256
ለዋወጥ	-16257
▁~	-16258
▁86	-16259
▁ዲስኮ	-16260
▁ተከተሎች	-16261
▁1889	-16262
▁ወለሉ	-16263
▁ሰባተኛው	-16264
ስታውስ	-16265
▁ያገናኛ	-16266
▁በዊሊያም	-16267
ሎሞን	-16268
▁ምሁሩ	-16269
ሰዎች	-16270
▁ተመላሽ	-16271
▁ምልመላ	-16272
▁ግለሰቡ	-16273
▁ሰይፍ	-16274
▁አመፅን	-16275
ረሳ	-16276
▁ሺን	-16277
▁ማስቆጠር	-16278
▁ሊከናወን	-16279
▁በመቅረፅ	-16280
▁አዘጋጅተዋል	-16281
▁ዲሲፕሊን	-16282
▁ከህዝቡ	-16283
▁ቅስቀሳ	-16284
ገናኘው	-16285
▁በመኖሪያ	-16286
ፃፉት	-16287
▁ተዛወሩ	-16288
▁ክበ	-16289
▁እስከመ	-16290
▁ኤርነስት	-16291
▁የኋ	-16292
▁ስተር	-16293
▁በዙሪያ	-16294
ብዳቤ	-16295
ፈርስ	-16296
▁ዊስኮንሲን	-16297
▁ከየካቲት	-16298
ሎይ	-16299
ዋቸው	-16300
▁ቀጣዩን	-16301
▁ተወስዶ	-16302
▁ይተላለፋል	-16303
ጣጣም	-16304
▁በማምጣት	-16305
ለየ	-16306
▁ሚር	-16307
▁እርግጥ	-16308
▁የአስራ	-16309
▁ላለባቸው	-16310
▁ይጥላል	-16311
▁ያስታውሳል	-16312
▁በመናገር	-16313
ሎኮ	-16314
በአጠቃላይ	-16315
▁የሚወጣ	-16316
▁ስሮች	-16317
▁ነህ	-16318
▁በሜሪላንድ	-16319
▁አዝናኝ	-16320
ሺማ	-16321
▁ተጠናቅቋል	-16322
▁ተከሷል	-16323
▁ይገመገማሉ	-16324
ረሩ	-16325
ፈጥሯዊ	-16326
▁1892	-16327
▁ላቦራ	-16328
▁በያ	-16329
▁አባባል	-16330
▁ያቀረበውን	-16331
▁ማሪዮ	-16332
ቤርቶ	-16333
▁ሮብ	-16334
ከናውኑ	-16335
▁በቆሻሻ	-16336
መለሰው	-16337
▁በጎርፍ	-16338
▁83	-16339
▁ተዛወረች	-16340
▁አይስ	-16341
▁ስራዎቹ	-16342
▁ባክቴሪያ	-16343
▁መስጠቱን	-16344
▁መቁጠሪያ	-16345
▁በጅ	-16346
▁ማስመሰያዎች	-16347
▁ለቀቁ	-16348
▁አለበለዚያ	-16349
▁በጠፈር	-16350
▁በታችኛው	-16351
▁89	-16352
▁የሚጠበቅ	-16353
▁ይቀበላሉ	-16354
▁በጄኔራል	-16355
ሮብ	-16356
,1%	-16357
▁በስቴ	-16358
▁አሸናፊው	-16359
▁ማቃጠል	-16360
▁የዝግጅቱ	-16361
asy	-16362
ፖን	-16363
▁ብረቶች	-16364
ክቴሪያዎች	-16365
የመጀመሪያ	-16366
▁የተተረጎ	-16367
▁ከከባድ	-16368
▁0,5	-16369
▁የማንነት	-16370
▁ድርቅ	-16371
▁የሽፋን	-16372
ስቸጋሪ	-16373
▁መንደ	-16374
▁ተያያዥ	-16375
▁በክፍሉ	-16376
▁ያቀረቡት	-16377
▁ማኔጅመንት	-16378
ምርጥ	-16379
▁ከራሱ	-16380
▁በተያዘው	-16381
▁ጥያቄን	-16382
▁በነዳጅ	-16383
ቃጠያ	-16384
▁ነገሩ	-16385
▁የህይወ	-16386
▁ቦርዱ	-16387
ዋዋጭ	-16388
▁ምርጫዎችን	-16389
▁ተከትሏል	-16390
59	-16391
▁ያልተጠበቀ	-16392
▁ከዌ	-16393
▁ባፕቲስት	-16394
▁የስታቲስቲክስ	-16395
ሬተር	-16396
▁ከውድ	-16397
ተማመን	-16398
▁ማይልስ	-16399
▁የመበታተን	-16400
▁ለዘመናት	-16401
▁የሚዛመዱ	-16402
▁ተጣም	-16403
ier	-16404
▁የአልትራ	-16405
▁የአውሮፕላኑ	-16406
▁የክለብ	-16407
ረጋውያን	-16408
▁በአዮዋ	-16409
▁የሚያሳየው	-16410
▁ጌቶች	-16411
▁እንዲችሉ	-16412
▁ሊያሳድሩ	-16413
▁የተለጠ	-16414
▁ይህንኑ	-16415
▁ተካትተዋል	-16416
መርጥ	-16417
▁93	-16418
▁የጋዜጣ	-16419
▁ይሰጣቸዋል	-16420
▁ጥቅማ	-16421
▁ሁነታዎች	-16422
ሎቬኒያ	-16423
ንድሮው	-16424
ላድሚር	-16425
ፖፕ	-16426
ግዛቱ	-16427
▁ስብሰባው	-16428
▁የሀገሪቱን	-16429
RC	-16430
ከትል	-16431
▁ባቀረበው	-16432
▁NY	-16433
እነሱ	-16434
▁ፖርቱጋል	-16435
አክቲቭ	-16436
▁ማሞቂያ	-16437
▁አልኮል	-16438
ሉዝ	-16439
▁የፋና	-16440
▁ለመሞከር	-16441
▁ቤኔት	-16442
▁ፒተርስበርግ	-16443
▁1,0	-16444
▁ማስተርስ	-16445
▁ኪዳ	-16446
▁ይጨምራል።	-16447
▁ለሁለተኛው	-16448
84	-16449
▁ዶል	-16450
ዬቭ	-16451
▁ሊታወቅ	-16452
▁ኩር	-16453
▁ክሱ	-16454
▁ካርሎ	-16455
▁በሱፐር	-16456
ሞኑ	-16457
▁የወላጅ	-16458
▁ኢምፔሪያል	-16459
▁ድርጊቱ	-16460
▁ተአማኒ	-16461
▁ሳይቀር	-16462
ጵሮስ	-16463
▁በርክ	-16464
SW	-16465
▁ሰየመው	-16466
▁ይገደ	-16467
ኖራት	-16468
▁ወሰነች	-16469
ann	-16470
ቦሊክ	-16471
▁ሊረዳ	-16472
ሪታኒያ	-16473
ቶዲስት	-16474
▁አራተኛውን	-16475
ዶል	-16476
▁አስተምህሮ	-16477
▁ባህልን	-16478
▁መያዛ	-16479
▁የሎንዶን	-16480
▁በሜታ	-16481
▁ርቀው	-16482
ung	-16483
▁1891	-16484
ገኝነት	-16485
▁የሚናገሩት	-16486
ማንድ	-16487
▁ሳላ	-16488
▁ይከተላሉ	-16489
▁1861	-16490
▁አቪ	-16491
ቅለጥ	-16492
▁ብሄርተኝነት	-16493
▁በውጤ	-16494
▁የማስፋፊያ	-16495
▁ያጠፋ	-16496
▁ቁሳዊ	-16497
ለአ	-16498
▁ፕሬዝዳንትነት	-16499
▁አሪ	-16500
▁አንበሶች	-16501
ሚኒካን	-16502
▁ፓላ	-16503
▁ኬንት	-16504
▁ለመፍቀድ	-16505
▁ያጎ	-16506
▁ይህንንም	-16507
▁ደብዛዛ	-16508
ስቲዮ	-16509
Hz	-16510
▁ነኝ።	-16511
▁ሺዎች	-16512
▁እንጠቀ	-16513
▁ታዛቢዎች	-16514
▁የሚመስሉ	-16515
▁ተገኝቶ	-16516
▁አገልግሎቱ	-16517
▁የማጥ	-16518
▁የለንደን	-16519
▁ፊላዴልፊያ	-16520
ዋወቁ	-16521
▁ሲመ	-16522
▁ይሁንና	-16523
▁አንፀባራቂ	-16524
▁በእንጨት	-16525
ቀይሩ	-16526
▁ቡክ	-16527
ሰራም	-16528
▁የኖራ	-16529
▁ተነጋ	-16530
ፋፊያ	-16531
▁አፅ	-16532
ዱር	-16533
▁በሙስና	-16534
ቶቿ	-16535
ተገበረው	-16536
▁ለመመደብ	-16537
▁ሀረ	-16538
▁የሰብል	-16539
ከላከሉ	-16540
▁ሳሎን	-16541
▁የጨረቃ	-16542
▁ያገኙት	-16543
▁ስልጣንን	-16544
ካርድ	-16545
▁ጀብድ	-16546
▁እንመለከታ	-16547
ከዚያ	-16548
▁በርን	-16549
▁አዳኝ	-16550
▁ሀላፊነቱን	-16551
▁ደወል	-16552
▁ክፉኛ	-16553
▁በማጠናቀቅ	-16554
▁መወገድ	-16555
▁የችግር	-16556
▁በከተሞች	-16557
ዋይት	-16558
▁አዋቂ	-16559
ቸዉን	-16560
▁አሏቸው።	-16561
ከፈል	-16562
ርስዎ	-16563
▁ይወስናል	-16564
በረከቱ	-16565
57	-16566
▁አጎ	-16567
▁እስክ	-16568
▁ግሪጎሪ	-16569
▁በሚሺጋን	-16570
ገቡት	-16571
▁ጅረቶች	-16572
▁ግሬስ	-16573
▁የመስኖ	-16574
▁የሚበ	-16575
ርክር	-16576
▁ዶት	-16577
▁ኢንቬስትሜንት	-16578
▁መጋራት	-16579
▁የዲያ	-16580
▁አሳም	-16581
▁ከአንደኛው	-16582
▁ያሸ	-16583
▁የእንቅልፍ	-16584
▁ጠፍተዋል	-16585
▁ድሩ	-16586
▁ፕራዴሽ	-16587
82	-16588
▁ግብረመል	-16589
▁ምንጮችን	-16590
▁ማማዎች	-16591
▁የሚይዙ	-16592
▁ጥገኛነት	-16593
ማከር	-16594
▁የተበላሹ	-16595
▁አይሆንም።	-16596
▁ከዝቅተኛ	-16597
ጌዝ	-16598
▁ሳልቫ	-16599
▁ሸቀጦችን	-16600
▁ገዝቶ	-16601
▁ብርቱካናማ	-16602
▁ለማመልከት	-16603
▁ወጣቶችን	-16604
ስእላት	-16605
▁ቁጥሩ	-16606
▁ገር	-16607
▁ቅና	-16608
▁ሀምሳ	-16609
▁ሆኑ።	-16610
▁አደንዛዥ	-16611
▁የተሻሻለው	-16612
▁የጭስ	-16613
▁የቴኒስ	-16614
▁መቀላቀል	-16615
▁መገልገያዎችን	-16616
ካራነት	-16617
▁ጄሲ	-16618
▁አንቶ	-16619
▁ሞራ	-16620
▁በመከፋፈል	-16621
▁ሻው	-16622
MI	-16623
▁አሮን	-16624
yn	-16625
▁ከእን	-16626
▁የቤቶች	-16627
ሳሰበ	-16628
▁ባንኩ	-16629
▁ልብሶች	-16630
ፋለች።	-16631
▁በፓርኩ	-16632
▁ውርስ	-16633
▁ቴሬ	-16634
DA	-16635
▁ስራዋ	-16636
▁ታክሲ	-16637
▁የህዝብን	-16638
ዋህ	-16639
▁አማካሪዎች	-16640
▁የሚባሉ	-16641
▁ሽግ	-16642
2007	-16643
ሱሊን	-16644
▁በማመን	-16645
▁እስከተ	-16646
▁አሳፋሪ	-16647
▁እውቀትን	-16648
▁ዜናዎችን	-16649
▁በታዋቂው	-16650
ሙድ	-16651
ዋሉ	-16652
▁የመስማት	-16653
▁የሙስሊም	-16654
▁ክሌይ	-16655
▁የአክ	-16656
ደረግባቸው	-16657
▁የተባሉት	-16658
▁ተብላ	-16659
ሰጣ	-16660
▁ከአስ	-16661
▁ለሴት	-16662
▁ላቲን	-16663
▁በሆነበት	-16664
ስተርዳም	-16665
▁የክሮኤሺያ	-16666
▁ማደን	-16667
▁ሲወጡ	-16668
▁ሮቢ	-16669
▁ዘና	-16670
ተርሰን	-16671
▁የሚፈልግ	-16672
▁ጐ	-16673
▁የተመለሰ	-16674
▁በመክፈቻ	-16675
▁የሶስትዮሽ	-16676
ብሪድ	-16677
▁የጡረታ	-16678
▁አውግ	-16679
▁የመቁረጥ	-16680
▁ከህክምና	-16681
▁በስደት	-16682
▁ከቀኑ	-16683
▁አስከትለዋል	-16684
▁ነገስቱን	-16685
ጂኦ	-16686
▁ሳይቶ	-16687
▁የአርጀንቲና	-16688
ዝቢያን	-16689
ያንቀሳ	-16690
▁ሰዋስው	-16691
▁ጎልተው	-16692
▁ተሳትፎን	-16693
▁ቺፕ	-16694
▁ካርቦ	-16695
▁ለኔ	-16696
▁አዳማ	-16697
▁ኮሮና	-16698
▁ያቆ	-16699
▁መልእክቶችን	-16700
ኤታ	-16701
▁የማዳ	-16702
87	-16703
▁ያውቃል	-16704
ረና	-16705
▁አዘገጃጀት	-16706
▁የማስተላለፊያ	-16707
▁መረቦችን	-16708
▁ዩኤስኤ	-16709
▁የተቀበሉ	-16710
▁ምርመራዎችን	-16711
▁እንደመሆናቸው	-16712
ቲሲ	-16713
ጠቃለል	-16714
ዚካል	-16715
▁በአብ	-16716
▁ጥሰቶች	-16717
▁ጎንዛ	-16718
▁ተፈርዶ	-16719
ዶሻ	-16720
▁መተካት	-16721
ማማት	-16722
▁አቅጣጫዊ	-16723
ሙያዎች	-16724
▁መጭመቂያ	-16725
▁ተነግሯል።	-16726
ተርጉ	-16727
▁ሲወድቅ	-16728
ዮናውያን	-16729
▁አለባበስ	-16730
▁መንኮራኩር	-16731
ከለክል	-16732
▁ዋጋን	-16733
▁መጫወቻ	-16734
-14	-16735
ቴሉ	-16736
▁ኪዩ	-16737
▁አባይ	-16738
▁ኒውሮ	-16739
▁የተዋቀሩ	-16740
▁ሚናን	-16741
ፍራን	-16742
ንቲያ	-16743
▁የዘመናዊ	-16744
▁ሳሙና	-16745
▁የተመጣ	-16746
▁በትኩረት	-16747
▁እንቆቅል	-16748
ረጋገጫ	-16749
ሺየስ	-16750
▁ከብቶች	-16751
ቪዲ	-16752
▁በተዛማጅ	-16753
▁የስርአ	-16754
ካሊ	-16755
▁የፀጉር	-16756
▁አስፀያፊ	-16757
ጓቸው	-16758
ቀኛ	-16759
▁እጁን	-16760
▁አመልክቷል።	-16761
ዳብር	-16762
▁በመቀ	-16763
▁መገንዘብ	-16764
▁ፒሲ	-16765
መበት	-16766
▁አቀረበ።	-16767
▁እጁ	-16768
▁በመጨረሻዎቹ	-16769
▁ጠቁመው	-16770
▁በመጋ	-16771
▁ጋርም	-16772
▁ስፓር	-16773
▁አንጋፋ	-16774
▁ገዛ	-16775
▁የሚካሄደው	-16776
▁ክምችቶች	-16777
▁ለማጎልበት	-16778
▁ኖድ	-16779
▁ይመስለኛል።	-16780
▁ድፍረት	-16781
ሚዲያ	-16782
▁የደረሱ	-16783
▁ከተመረቀ	-16784
ond	-16785
▁መቆጣጠሪያዎች	-16786
ሪስቤን	-16787
▁በአትላንታ	-16788
ናቸውም	-16789
▁ቅርጫት	-16790
ዘግየት	-16791
▁ምሁራዊ	-16792
▁ጌጣጌጦች	-16793
ሪች	-16794
▁ዝነኛ	-16795
EL	-16796
ሶቹን	-16797
▁ተጠቅመው	-16798
▁ዋትሰን	-16799
▁የመመለሻ	-16800
ናም	-16801
ይራ	-16802
▁አይመስልም	-16803
▁የሚያደርጉትን	-16804
▁በርናርድ	-16805
▁በመጠን	-16806
ቴሽን	-16807
▁በሞባይል	-16808
▁የሚከሰቱት	-16809
▁የናኖ	-16810
ቆጥር	-16811
ባሉ።	-16812
ሟቸውን	-16813
▁ቴዎድሮስ	-16814
▁በወጣቶች	-16815
▁1894	-16816
▁የሚዲያ	-16817
▁1885	-16818
ፔስ	-16819
▁የዙ	-16820
▁ወስደው	-16821
▁ዳይሬክቶ	-16822
▁ግጥሚያውን	-16823
▁ይለውጣል	-16824
▁ወዳጃ	-16825
▁የኩባ	-16826
▁ተገኝነት	-16827
▁መሪዎችን	-16828
▁Cl	-16829
▁በፖርቱጋል	-16830
ks	-16831
▁95%	-16832
▁በዎል	-16833
▁ያህሉ	-16834
▁ሲያገኝ	-16835
▁ለአም	-16836
ቢዮን	-16837
2006	-16838
▁መሙያ	-16839
ብሄራዊ	-16840
▁ባይኖርም	-16841
▁በእርግዝና	-16842
▁እንዲኖሩ	-16843
▁ሲይዝ	-16844
▁የንጉስ	-16845
▁ጌት	-16846
▁አፍር	-16847
ሰሙ	-16848
▁ንስር	-16849
▁ፖርቶ	-16850
▁ቫልቭ	-16851
▁ማያሚ	-16852
ult	-16853
▁በራሪ	-16854
▁(7	-16855
▁እንዲካሄድ	-16856
▁በምርት	-16857
81	-16858
ፒዲ	-16859
▁የአንግሎ	-16860
▁በፊላደልፊያ	-16861
▁ያገናኛል	-16862
ቅያኖ	-16863
▁በስታቲስቲክስ	-16864
ከፊ	-16865
▁CS	-16866
▁እንዲያቀርቡ	-16867
▁በጭንቅላቱ	-16868
▁መምህ	-16869
▁ወላጆቹ	-16870
▁ቦክሰ	-16871
▁እንደሚያሳድር	-16872
▁MS	-16873
▁ቆርጦ	-16874
▁የተደረጉት	-16875
▁ስለመሆኑ	-16876
ኔንታል	-16877
▁ሯጮች	-16878
▁ተተርጉ	-16879
▁አመልክተዋል።	-16880
▁በማስቀመጥ	-16881
ፋሽ	-16882
▁ሀዋር	-16883
▁ፕሮዳክሽን	-16884
ራጓይ	-16885
▁ፊሊፒንስ	-16886
▁በኮንግረሱ	-16887
▁የተመጣጠነ	-16888
መናል።	-16889
▁ፍጡር	-16890
▁ያገለገለው	-16891
▁አብላ	-16892
▁አድርጌ	-16893
▁በተፈጠረ	-16894
▁1893	-16895
▁የታተመው	-16896
ጣዎች	-16897
▁በጄምስ	-16898
ማኑኤል	-16899
በአለም	-16900
▁ስብስቡ	-16901
▁የተራቀቀ	-16902
▁የአልበሙ	-16903
ማጆች	-16904
pt	-16905
▁መላእክት	-16906
▁አጠናቅቀዋል	-16907
ሄልም	-16908
▁ፔትሮ	-16909
▁የሚያተኩ	-16910
▁ምርጫውን	-16911
▁ወልደ	-16912
▁ያሸንፋል	-16913
▁ጠመንጃዎችን	-16914
▁ሻርሎት	-16915
▁የኋለኞቹ	-16916
ሩና	-16917
▁መገልገያ	-16918
▁ለማገናኘት	-16919
▁ያዙ	-16920
▁ሆነዋል።	-16921
▁በመገንዘብ	-16922
▁ስፕ	-16923
/2012	-16924
▁እንገልፃ	-16925
ላኒ	-16926
▁የሚያስተላል	-16927
▁መከሰ	-16928
▁መገን	-16929
ኖቫ	-16930
▁በትውልድ	-16931
▁ትእዛዞችን	-16932
▁መጣ።	-16933
▁ሰበረ	-16934
▁መጥተው	-16935
▁ፕላዝማ	-16936
▁በፀጥታ	-16937
▁መርከቦቹ	-16938
ቱና	-16939
ንካን	-16940
▁ቶድ	-16941
ናብ	-16942
▁እየታየ	-16943
▁ተገድለዋል።	-16944
▁ለአፍሪካ	-16945
▁የዲጂታል	-16946
▁የአትላንቲክ	-16947
ደርን	-16948
▁እንደሚቀጥል	-16949
ኖልድስ	-16950
▁የማስተዋወቂያ	-16951
▁የዋስትና	-16952
ራይት	-16953
▁በመምጣት	-16954
▁ለማፅዳት	-16955
▁መጫን	-16956
▁ሊደረግ	-16957
ኔሊ	-16958
▁ከወን	-16959
▁ለደቡብ	-16960
▁የማሌዥያ	-16961
▁የተመቻ	-16962
▁የተተገበረ	-16963
ፈረሰ	-16964
▁ለዜ	-16965
ማሊ	-16966
ዱም	-16967
ለባበስ	-16968
▁ስላልተ	-16969
▁በአርጀንቲና	-16970
▁ምግቦችን	-16971
ቦቿ	-16972
▁ጥንካሬን	-16973
▁2:	-16974
▁ተገድሏል	-16975
▁ምክንያቱ	-16976
▁የነፍስ	-16977
▁በስህተት	-16978
ሏቸውን	-16979
የታ	-16980
▁ኢዮ	-16981
ካቸው	-16982
ጂያንግ	-16983
▁በሰብአዊ	-16984
▁የእግዚአብሄር	-16985
▁ውሎ	-16986
ምቀት	-16987
▁በማካሄድ	-16988
▁ሲልቨር	-16989
▁የዛፍ	-16990
▁ማጥፊያ	-16991
▁ጣት	-16992
▁ተቀበለች	-16993
▁እንደሆን	-16994
▁የአንድን	-16995
▁ቤተመቅደሶች	-16996
ዎቿን	-16997
▁ኮምፒውተሮች	-16998
▁ለማነቃቃት	-16999
▁ሪዞ	-17000
የህዝብ	-17001
▁ይጋፈ	-17002
አካ	-17003
▁በጨረር	-17004
▁ኪስ	-17005
ፔል	-17006
▁ከቼ	-17007
ጌን	-17008
ቦላ	-17009
▁የዋሉት	-17010
▁መንሸራተት	-17011
▁et	-17012
▁ቴፕ	-17013
ouch	-17014
መልመል	-17015
▁ድርጊቱን	-17016
ፒያ	-17017
▁91	-17018
▁ኦክላሆማ	-17019
▁ለኬ	-17020
▁ታል	-17021
▁በገበያ	-17022
ካካስ	-17023
▁ሀንተር	-17024
ረጋግጡ	-17025
▁የፋሽን	-17026
▁በጣቢያው	-17027
▁ታና	-17028
▁በሚመራው	-17029
▁ግጥሞችን	-17030
▁ፒክቸ	-17031
▁ይሄዳሉ	-17032
▁በዮ	-17033
▁ተጠርቷል	-17034
▁ኦሮ	-17035
ሊባን	-17036
ዘና	-17037
ደርደሪያ	-17038
▁የተከፈተ	-17039
ነጭ	-17040
እንዲሁም	-17041
▁ምሽጎች	-17042
▁ወለዱ	-17043
▁በመሮጥ	-17044
▁አምስቱ	-17045
ችለር	-17046
▁የፎር	-17047
ላንዶ	-17048
▁ተንጠልጥ	-17049
▁IC	-17050
▁በቆዳ	-17051
ላለን።	-17052
ፎቹን	-17053
▁ነርስ	-17054
▁እሳተ	-17055
▁ጆሴ	-17056
ጠራቸው	-17057
▁የህመም	-17058
▁ከጤና	-17059
▁ያነጣ	-17060
.4	-17061
per	-17062
▁AS	-17063
ጉዳይ	-17064
▁በተጫዋ	-17065
▁ዳይኦክሳይድ	-17066
▁መዘምራን	-17067
▁ድብርት	-17068
▁ኮንቴ	-17069
▁አግኝተናል	-17070
▁እጆች	-17071
ሪንስተን	-17072
▁ከኮን	-17073
▁አክሲዮን	-17074
ሜዳ	-17075
ሸርሸር	-17076
▁ያደርገዋል።	-17077
▁መሬቶችን	-17078
ማሪው	-17079
▁ደረሱ	-17080
▁የኛ	-17081
▁ተግዳሮቶችን	-17082
ቢዮ	-17083
▁የሚኖሩት	-17084
▁በተፈጥሮው	-17085
▁መናፈ	-17086
▁ከአሁኑ	-17087
▁የታጠቀ	-17088
ቫቲቭ	-17089
▁ኦፕሬሽኖች	-17090
▁የጥፋት	-17091
▁ጉዲፈቻ	-17092
▁ድቦች	-17093
▁የመጥለቅለቅ	-17094
ጂክ	-17095
III	-17096
ጋል።	-17097
▁ቦን	-17098
በተለምዶ	-17099
▁ከመጋቢት	-17100
▁የትኞቹ	-17101
▁ጊታሪስት	-17102
▁አሻሽሏል	-17103
▁AC	-17104
▁ትኩረትን	-17105
ቀመጫ	-17106
▁ይነፃፀ	-17107
▁የአለማችን	-17108
ትከል	-17109
▁ቅጦችን	-17110
▁ለጤና	-17111
በእርግ	-17112
▁የዴሞክራሲ	-17113
▁እንዲቆም	-17114
▁ከኤፕሪል	-17115
▁ችሎታው	-17116
▁ፈረንሳይኛ	-17117
▁የሚታወቁት	-17118
▁ጉዞው	-17119
▁ይዞራል	-17120
fl	-17121
▁አሳዳጊ	-17122
▁ለራሳቸው	-17123
▁በኤክስ	-17124
▁የስርአቱ	-17125
▁ለማቃለል	-17126
▁ሲጋራ	-17127
ዲዮን	-17128
▁ትላለች	-17129
▁በተከሰተው	-17130
▁የፕሮቴስታንት	-17131
▁በሩጫው	-17132
▁ድርጊቶችን	-17133
▁በኢሊኖይ	-17134
ሰሮች	-17135
ምግባር	-17136
me	-17137
▁የትዳር	-17138
▁ከክልል	-17139
▁በክሊኒካዊ	-17140
▁ተቃውመዋል	-17141
ዳሮች	-17142
▁94	-17143
▁በተሸፈ	-17144
▁ሽማግሌዎች	-17145
▁የኖቤል	-17146
▁ተመልካች	-17147
▁''	-17148
ርሞኒክ	-17149
old	-17150
▁የስጋ	-17151
▁የተካሄዱ	-17152
▁ከተሰጠ	-17153
az	-17154
ርሽኙ	-17155
▁ዲና	-17156
▁መያዙን	-17157
ታለል	-17158
ሄርን	-17159
▁ይፋዊ	-17160
ንቲኔንታል	-17161
▁ስምምነቶችን	-17162
▁በስድስተኛው	-17163
ለውጡ	-17164
እሉ	-17165
ርጋ	-17166
▁3,000	-17167
ይንኛ	-17168
▁ያእቆብ	-17169
▁አይነቶቹ	-17170
ሀሳባዊ	-17171
▁በስብሰባው	-17172
▁ትፈልጋ	-17173
▁አልታ	-17174
▁እንደሞተ	-17175
▁ለማሰልጠን	-17176
ሮሮ	-17177
ምፒውተር	-17178
▁አጭበር	-17179
ርድስ	-17180
▁ሶል	-17181
ዶቻቸው	-17182
▁እየገሰገሰ	-17183
ደረጋቸው	-17184
▁በቴክኒካዊ	-17185
▁መሬቱን	-17186
▁የሚያስችለውን	-17187
▁ዳሰሳ	-17188
ዩኒኬሽን	-17189
▁የዝውውር	-17190
▁በቃለ	-17191
▁በዲስ	-17192
ገፉ	-17193
▁በህወሀት	-17194
▁የዩሮ	-17195
▁ሲጨምር	-17196
ኮሙኒኬሽን	-17197
ገሬው	-17198
▁ቼክ	-17199
▁ሆላንድ	-17200
▁ተነስቷል	-17201
▁ኮንክሪት	-17202
▁አበቦች	-17203
▁መዳ	-17204
ቅዱስ	-17205
▁አለቆች	-17206
▁በመስክ	-17207
▁በቆርቆሮ	-17208
▁የስብሰባ	-17209
▁ቀጠለ።	-17210
የታቸውን	-17211
ምእራብ	-17212
▁EC	-17213
▁የሰራዊት	-17214
▁የኢንሹራንስ	-17215
▁አደር	-17216
ወትር	-17217
▁ቁርጥራጭ	-17218
▁በይነመረብ	-17219
▁የሪል	-17220
ጣፋጭ	-17221
ፈወስ	-17222
▁አሲዶች	-17223
▁ተናገሩ	-17224
▁አድርገን	-17225
▁ስፔክትሮስኮፒ	-17226
▁ለመንደፍ	-17227
የአለም	-17228
ዷን	-17229
▁አስተው	-17230
▁ኢብ	-17231
▁ከልጅ	-17232
▁ከአንዳንድ	-17233
ብረቅ	-17234
▁ኦፕሬቲንግ	-17235
▁የአፍጋኒስታን	-17236
ተባይ	-17237
▁በታዋቂ	-17238
▁ወጥመድ	-17239
▁እሽቅድምድም	-17240
▁ቅጥር	-17241
PD	-17242
ፓላ	-17243
▁ሰፈሩ	-17244
▁ተስተው	-17245
▁የሰለጠኑ	-17246
▁ደብተር	-17247
▁የትራክ	-17248
▁በጥንታዊ	-17249
▁እሳቤ	-17250
▁ሜታል	-17251
▁ፍርግርግ	-17252
58	-17253
▁ሂዩዝ	-17254
ታተሙ	-17255
▁ፒክቸርስ	-17256
ራግ	-17257
ፒዮ	-17258
▁ከዜ	-17259
ረሪት	-17260
ፈተው	-17261
ፍራት	-17262
▁አለማየሁ	-17263
▁እንጠቁ	-17264
▁ጨምረው	-17265
ምስትሮንግ	-17266
▁ተዛው	-17267
▁ለአካባቢ	-17268
▁ያሳየ	-17269
▁ግምቶችን	-17270
ላቢ	-17271
ነው።	-17272
▁አለባት	-17273
▁ኮርፖሬሽኖች	-17274
▁እንደደረሰ	-17275
▁ለቲ	-17276
▁እንደሚሰሩ	-17277
▁የወጪ	-17278
▁እየተንቀሳ	-17279
▁Inter	-17280
▁መሙላት	-17281
▁ለውጭ	-17282
▁መናፈሻ	-17283
▁ካቲ	-17284
▁ተሽጧል	-17285
ካትቱ	-17286
▁ኢንተለ	-17287
▁ሜዳሊያዎችን	-17288
▁ፈላጊ	-17289
▁በፐር	-17290
ቆጣጠረው	-17291
▁የተቆራረጠ	-17292
ፐርት	-17293
▁ከጁ	-17294
▁ለመበ	-17295
▁ፒያ	-17296
ባሆ	-17297
ቋቸው	-17298
▁ተሸላሚ	-17299
▁ከሴንት	-17300
ኔሳ	-17301
▁የማስተማሪያ	-17302
▁ለይ	-17303
▁የክስ	-17304
▁ግራፊክ	-17305
▁በአውሮፕላኑ	-17306
ቀቱን	-17307
ላንዳውያን	-17308
ራንት	-17309
ንክብ	-17310
▁ጠየቀች	-17311
▁በአማካኝ	-17312
▁በፓርቲው	-17313
▁፳	-17314
▁ፎረስት	-17315
ው።	-17316
▁ፔድሮ	-17317
▁ከአባ	-17318
▁የደረሰባቸው	-17319
▁ለዊ	-17320
ተንፈስ	-17321
▁ተቀምጦ	-17322
▁ክፍያዎችን	-17323
▁በሀር	-17324
▁በማሰራጨት	-17325
▁ከሜዳ	-17326
ቴር	-17327
▁ከውሀ	-17328
▁ድብደባዎች	-17329
የግ	-17330
▁ያግ	-17331
▁የመመለስ	-17332
▁ማልማት	-17333
▁የሚቆጣጠሩ	-17334
ችመንድ	-17335
▁ለመጨ	-17336
▁አጋሮቹ	-17337
▁በአካላዊ	-17338
▁አጠባበቅ	-17339
▁መንፈ	-17340
▁የማይክሮ	-17341
▁ከኖቬምበር	-17342
ንዶቹ	-17343
▁ለሄ	-17344
▁Qu	-17345
▁በአንድነት	-17346
▁ከማሳ	-17347
ንግሊ	-17348
ዞው	-17349
▁ዋርነር	-17350
ሚኒዝም	-17351
ፌል	-17352
▁ለህግ	-17353
▁በአፈር	-17354
▁የግሉ	-17355
▁ይወሰድ	-17356
▁ሰብሎች	-17357
ቁሮች	-17358
[...]
