[UNK]	0
[PAD]	0
[SOS]	0
[EOS]	0
▁የ	-0
▁በ	-1
▁አ	-2
▁እ	-3
▁መ	-4
▁።	-5
▁ከ	-6
▁እን	-7
▁ተ	-8
▁ለ	-9
ቸው	-10
▁ይ	-11
▁ወ	-12
▁ያ	-13
▁የሚ	-14
▁ነ	-15
▁ስ	-16
ዎች	-17
ላይ	-18
▁ማ	-19
▁እንደ	-20
▁ም	-21
▁የተ	-22
▁ብ	-23
ዋል	-24
ነት	-25
▁ው	-26
▁በመ	-27
▁ላይ	-28
▁ግ	-29
▁ባ	-30
ስት	-31
▁ሰ	-32
▁ሲ	-33
▁እንዲ	-34
▁አስ	-35
▁እና	-36
ውን	-37
▁ሀ	-38
▁ደ	-39
ንግ	-40
▁በአ	-41
▁ነው	-42
▁በተ	-43
▁ጥ	-44
ቶች	-45
▁ገ	-46
ሆኑ	-47
በት	-48
▁የአ	-49
▁ክ	-50
ሆን	-51
▁ቀ	-52
▁ድ	-53
▁የመ	-54
ለው	-55
ንድ	-56
▁ት	-57
ኢት	-58
ኢትዮ	-59
▁"	-60
▁ህ	-61
ደረ	-62
ሆነ	-63
ጵያ	-64
ዚህ	-65
ኢትዮጵያ	-66
ችን	-67
▁ወደ	-68
በር	-69
ቸውን	-70
▁ሁ	-71
▁ለመ	-72
▁ሚ	-73
▁ለማ	-74
▁ቤ	-75
▁አመ	-76
ስጥ	-77
ገር	-78
▁በማ	-79
▁እንደሚ	-80
ደር	-81
▁ጋ	-82
▁1	-83
▁ውስጥ	-84
▁ል	-85
▁2	-86
ተኛ	-87
▁ዘ	-88
▁ቢ	-89
▁ጉ	-90
ረት	-91
ሪያ	-92
▁ግን	-93
▁ከተ	-94
ለት	-95
▁ጠ	-96
▁ሊ	-97
ጊዜ	-98
▁ጋር	-99
ራት	-100
▁(	-101
▁ባለ	-102
▁እየ	-103
ድር	-104
▁ታ	-105
▁ሳ	-106
ድረ	-107
▁የሚያ	-108
▁እንዳ	-109
ንግስት	-110
▁ጊዜ	-111
▁ካ	-112
▁ኢ	-113
በረ	-114
ንም	-115
▁ይህ	-116
▁አን	-117
ለም	-118
ስተ	-119
▁ምክ	-120
ሮች	-121
▁ስራ	-122
ርት	-123
ንያ	-124
▁አቶ	-125
▁ፍ	-126
▁አገ	-127
ትን	-128
▁በሚ	-129
ንት	-130
▁የማ	-131
▁ኮ	-132
ሎች	-133
ረጃ	-134
ዲስ	-135
ቱን	-136
▁መሆኑ	-137
▁አይ	-138
ራዊ	-139
ገባ	-140
ጀመ	-141
▁ስለ	-142
▁ጉዳ	-143
00	-144
▁ዋ	-145
ሪካ	-146
▁እስ	-147
ላቸው	-148
▁ፕ	-149
▁መስ	-150
▁ሚኒ	-151
▁የም	-152
▁አካ	-153
▁ች	-154
▁ቅ	-155
ከል	-156
▁ጨ	-157
ዎችን	-158
መለ	-159
▁ቤት	-160
ግባ	-161
▁ነበር	-162
ታት	-163
▁አለ	-164
ታው	-165
ሁን	-166
▁የነ	-167
ማሪ	-168
ያን	-169
ይም	-170
▁ሲሆን	-171
ዮን	-172
ተር	-173
▁መን	-174
▁አስተ	-175
▁ድር	-176
▁መንግስት	-177
ሰራ	-178
▁ቡ	-179
ማት	-180
▁መሰ	-181
▁ፈ	-182
ታወ	-183
▁ያለ	-184
ገድ	-185
ባቸው	-186
ጠና	-187
ላል	-188
▁አበ	-189
01	-190
ድረግ	-191
▁መሆኑን	-192
ሰብ	-193
▁ሆ	-194
ታል	-195
▁ከአ	-196
ሉት	-197
▁ገል	-198
▁ከፍ	-199
ከተ	-200
▁ከተማ	-201
ረው	-202
▁ዳ	-203
▁ኢትዮጵያ	-204
ብር	-205
ንስ	-206
▁ሌ	-207
ለያ	-208
ኛው	-209
▁ከመ	-210
▁እየተ	-211
ልጣ	-212
ላት	-213
በሩ	-214
▁ነገር	-215
▁አንድ	-216
ናት	-217
▁በእ	-218
ስራ	-219
ደረገ	-220
ናቸው	-221
ቅር	-222
▁ሙ	-223
ናል	-224
ገለ	-225
▁አል	-226
▁ብር	-227
ተዋል	-228
ገኘ	-229
▁አም	-230
▁የእ	-231
ልግ	-232
▁ቀን	-233
ኋላ	-234
▁አመት	-235
ግር	-236
▁የኢትዮጵያ	-237
▁ደግ	-238
▁የህ	-239
ገኙ	-240
▁ሀይ	-241
ታቸው	-242
ሊዮን	-243
ሚያ	-244
ሽን	-245
▁አባ	-246
▁በዚህ	-247
▁አበባ	-248
▁ክፍ	-249
▁ደግሞ	-250
▁ምር	-251
ድን	-252
▁ሚኒስት	-253
ለዋል	-254
ጠር	-255
ባቢ	-256
▁ቦ	-257
▁የው	-258
▁ክል	-259
▁ስር	-260
▁ኤ	-261
ርድ	-262
▁በኋላ	-263
▁ቁ	-264
ተው	-265
ፊት	-266
ሁም	-267
▁መል	-268
ትና	-269
▁ሁሉ	-270
ከላ	-271
▁በላይ	-272
ቷል	-273
▁ወይም	-274
▁የግ	-275
መን	-276
▁ምን	-277
ራል	-278
ክል	-279
ጥር	-280
▁ገልፀ	-281
▁ምክንያ	-282
▁እያ	-283
ጠቀ	-284
ዳን	-285
▁የሰ	-286
ዎቹ	-287
▁ዝ	-288
▁እር	-289
ረስ	-290
▁የወ	-291
ፓር	-292
▁ሳይ	-293
ክት	-294
▁ከፍተኛ	-295
ዝብ	-296
ኔታ	-297
ኞች	-298
▁አብ	-299
▁መካ	-300
▁ወቅ	-301
▁በቀ	-302
ቦች	-303
ምሮ	-304
ናግ	-305
▁እንዲሁም	-306
▁ጠቅ	-307
▁3	-308
መር	-309
▁ዶ	-310
ላፊ	-311
ረዋል	-312
ረጋ	-313
▁ሁኔታ	-314
ለያዩ	-315
▁እስከ	-316
▁ለአ	-317
▁ባን	-318
▁ን	-319
▁ሰዎች	-320
ከት	-321
▁ያስ	-322
ልግሎ	-323
ካሄ	-324
ላለ	-325
ቀረ	-326
ጨማሪ	-327
ችል	-328
▁ጨዋ	-329
ቅም	-330
ገን	-331
ዮች	-332
ታዊ	-333
▁ደረጃ	-334
ብረ	-335
አት	-336
ጠበ	-337
ገል	-338
▁እድ	-339
▁አዲስ	-340
▁ማስ	-341
ረዳ	-342
ፈል	-343
▁ገልፀዋል	-344
▁ኢን	-345
▁ያለው	-346
▁ብቻ	-347
▁ተናግ	-348
▁መሰረት	-349
ቀር	-350
▁እንደሆነ	-351
▁ሀላፊ	-352
ጠቃ	-353
ያስ	-354
▁ሆነ	-355
መራ	-356
ምህ	-357
▁መካከል	-358
▁ተቋ	-359
▁ድርጅ	-360
ጣት	-361
▁ብለዋል	-362
▁ወቅት	-363
ሳይ	-364
ናገ	-365
▁ኩ	-366
▁201	-367
▁ብዙ	-368
▁ከዚህ	-369
ቶችን	-370
▁አድር	-371
▁ፖ	-372
ፍሪካ	-373
ንግድ	-374
ወሰ	-375
ቃል	-376
▁ይህን	-377
ገሪ	-378
ሏል	-379
ግለ	-380
▁ኮሚ	-381
▁፣	-382
▁አገልግሎ	-383
ያው	-384
▁ጀ	-385
▁ፕሮ	-386
የት	-387
ባት	-388
ሩት	-389
ይት	-390
ያቄ	-391
ም፣	-392
▁የኢ	-393
ገኝ	-394
▁ጨዋታ	-395
ርስ	-396
▁አቀ	-397
▁በሰ	-398
ደረጉ	-399
▁ክልል	-400
▁መረጃ	-401
መል	-402
▁ስም	-403
▁ጥያቄ	-404
ታቸውን	-405
ርካ	-406
▁የነበረ	-407
▁መንገድ	-408
▁ፓር	-409
▁;	-410
ግራ	-411
▁አማ	-412
▁ናቸው	-413
▁ዋና	-414
▁በመሆኑ	-415
ሪዎች	-416
▁እነ	-417
ፌዴ	-418
▁ግብ	-419
ምር	-420
▁ጎ	-421
▁ተናግረዋል	-422
▁ምክንያት	-423
ወት	-424
▁ሶ	-425
ዘብ	-426
ባንያ	-427
▁ዘር	-428
▁ጉዳይ	-429
የር	-430
ኖች	-431
▁የሀ	-432
ምና	-433
▁የሆነ	-434
▁ተብ	-435
▁የት	-436
▁,	-437
▁መጠ	-438
▁አካባቢ	-439
▁በተለ	-440
""	-441
▁አመታት	-442
▁ሰው	-443
▁ፕሬ	-444
▁አስታው	-445
ምን	-446
ገና	-447
ዘጋ	-448
ቢያ	-449
ፈፀ	-450
▁ሚሊዮን	-451
ላክ	-452
ደው	-453
ቋል	-454
▁ቆ	-455
ጠው	-456
ነሳ	-457
▁ሽ	-458
▁4	-459
▁ሆኖ	-460
▁ፅ	-461
ፈው	-462
▁ሚኒስትር	-463
ሪፖ	-464
▁ያህ	-465
▁ሺ	-466
በው	-467
▁ብሄ	-468
ጀመሪያ	-469
▁ምክር	-470
መው	-471
▁ሜ	-472
ለን	-473
▁በኢትዮጵያ	-474
ሪክ	-475
መድ	-476
ኩል	-477
ለቱ	-478
▁ተወ	-479
▁የሚያስ	-480
ወጣ	-481
ገሪቱ	-482
ለቲ	-483
▁አስተዳ	-484
ንግስ	-485
ራቸው	-486
▁በፊት	-487
▁እንዲያ	-488
ፍት	-489
ላሉ	-490
▁""	-491
▁በግ	-492
▁በህ	-493
ለሁ	-494
▁ኩባንያ	-495
▁ይች	-496
▁ቦታ	-497
▁በመቶ	-498
ቀው	-499
▁5	-500
ልቅ	-501
ችሁ	-502
▁ከእ	-503
ብት	-504
ኖር	-505
▁የስ	-506
ሰው	-507
▁ጠቅላይ	-508
▁ከሚ	-509
▁ቢሆን	-510
ኤል	-511
▁አሰ	-512
ምህርት	-513
ግኘ	-514
▁የበ	-515
ስፋ	-516
▁ፋ	-517
ላማ	-518
ዛሬ	-519
ት፣	-520
ክር	-521
▁ኦ	-522
ለቲካ	-523
ርያ	-524
ሩን	-525
ነው	-526
ስቴ	-527
▁ችግር	-528
ዚያ	-529
▁ህግ	-530
▁ያል	-531
ከና	-532
ይና	-533
ደጋ	-534
▁በሀ	-535
▁ውጤ	-536
ደም	-537
▁አስፈ	-538
▁:	-539
▁አው	-540
ቅረ	-541
ረድ	-542
▁የታ	-543
▁የባ	-544
ክስ	-545
▁ቤቱ	-546
▁ያሉ	-547
ሳብ	-548
▁ድረስ	-549
▁ራ	-550
▁አገልግሎት	-551
▁አሁን	-552
▁ዜ	-553
መስ	-554
ገው	-555
ውያን	-556
▁በተጨማሪ	-557
▁ተግባ	-558
ምነት	-559
ሳኔ	-560
ኮኖ	-561
▁ወር	-562
▁ሌሎች	-563
▁ፓርቲ	-564
▁ሲሆን፣	-565
ክተር	-566
▁ባንክ	-567
ሉም	-568
ንና	-569
ጠቅ	-570
▁ሂ	-571
▁ሞ	-572
ጣም	-573
ገኘው	-574
ጀት	-575
▁ሁለት	-576
ሜሪካ	-577
▁ረ	-578
▁ችግ	-579
▁እንደተ	-580
▁ተቀ	-581
▁አጋ	-582
▁አለም	-583
▁አሳ	-584
ሰማ	-585
ዳንት	-586
ቅስ	-587
ባል	-588
ጨረ	-589
ላም	-590
▁በስ	-591
ሱን	-592
ገኛ	-593
▁ወን	-594
▁ግንባ	-595
ገቡ	-596
▁መንግስ	-597
▁በም	-598
ወቅ	-599
ኝነት	-600
▁የውጭ	-601
ቃት	-602
▁ር	-603
▁ሺህ	-604
▁ሴ	-605
▁ኳ	-606
ሳት	-607
▁በኩል	-608
▁መር	-609
ግብ	-610
ጆች	-611
▁ለው	-612
ዶች	-613
ለች	-614
ቃሴ	-615
ሞች	-616
▁ሲያ	-617
▁በት	-618
▁ማእ	-619
ቅስቃሴ	-620
▁አዋ	-621
▁ፕሬዚ	-622
▁ሚኒስቴ	-623
▁በየ	-624
▁ድጋ	-625
▁ሀይል	-626
▁ተከ	-627
ያዘ	-628
ብረት	-629
ጦር	-630
ደረገው	-631
ገለፁ	-632
▁ነገ	-633
ሰባ	-634
▁አቀፍ	-635
ግኘት	-636
▁ቡድን	-637
ነስ	-638
ስልጣ	-639
▁አለመ	-640
▁ልማት	-641
▁የስራ	-642
▁ቴ	-643
▁መግለ	-644
▁በርካ	-645
▁በሁ	-646
201	-647
ፈት	-648
ነበረ	-649
▁ሌላ	-650
▁አር	-651
▁ቡድ	-652
▁በጣም	-653
▁ፖሊ	-654
▁የተባ	-655
ፈጠ	-656
▁ውሳኔ	-657
ንቀ	-658
ሰቡ	-659
▁ፀ	-660
ደረግ	-661
ጡት	-662
▁ህዝብ	-663
▁ህዝ	-664
▁እንቅስቃሴ	-665
▁ዲ	-666
▁ባህ	-667
ቤት	-668
▁በማለት	-669
መጣ	-670
▁6	-671
በል	-672
▁ገን	-673
ሻሻ	-674
ትል	-675
ሀን	-676
▁የቀ	-677
ጠናቀ	-678
ባኤ	-679
▁ጀምሮ	-680
▁የኮ	-681
▁ልዩ	-682
▁ያሉት	-683
ልክ	-684
ብሄ	-685
▁አገር	-686
▁ፍርድ	-687
▁ለሚ	-688
▁የተለያዩ	-689
▁የፖ	-690
▁ቁጥር	-691
▁ኪ	-692
ሪፖር	-693
▁ውድ	-694
▁እንደሚያ	-695
በያ	-696
ዩኒ	-697
▁ይሆ	-698
ቸዋል	-699
ፖርት	-700
ጫዋ	-701
▁ለተ	-702
ሰጥ	-703
▁በሌ	-704
▁ከማ	-705
▁መሆ	-706
▁ምንም	-707
▁ቢሊዮን	-708
▁ምርጫ	-709
▁እንዳለ	-710
▁ለማስ	-711
ከራ	-712
▁ማሀ	-713
▁ጭ	-714
ክራ	-715
ጥታ	-716
ከናወ	-717
ፉት	-718
ኮኖሚ	-719
ሬት	-720
ጋት	-721
▁ማድረግ	-722
▁በበ	-723
▁ሚኒስቴር	-724
▁በው	-725
ቡብ	-726
▁7	-727
▁በርካታ	-728
▁ማን	-729
▁በጥ	-730
▁ጉዳዮች	-731
▁እንዲህ	-732
▁አስረድ	-733
ላር	-734
▁ፕሮጀ	-735
ጨረሻ	-736
መረ	-737
ድሞ	-738
ጠት	-739
▁አይነት	-740
ሰሩ	-741
▁አዳ	-742
ደት	-743
ደራ	-744
ምንት	-745
ንን	-746
ጿል	-747
▁ላ	-748
▁አስተዳደር	-749
ያዎች	-750
▁አቅ	-751
ቫይ	-752
ምጃ	-753
መለከተ	-754
ጤና	-755
▁ዙ	-756
ኮች	-757
▁ድጋፍ	-758
ማይ	-759
ረጋገ	-760
▁የነበሩ	-761
ቅድ	-762
ቀዋል	-763
▁-	-764
ብራ	-765
ችሉ	-766
ክልሉ	-767
ቂቃ	-768
▁የመንግስት	-769
▁አቅር	-770
ለተኛ	-771
ከር	-772
▁ግንኙ	-773
▁አገሮች	-774
ባይ	-775
▁ህይ	-776
▁ያለውን	-777
▁እንዳይ	-778
መሳ	-779
▁እነዚህ	-780
▁ብሄራዊ	-781
ዱስት	-782
ንዳ	-783
▁እንደነ	-784
ሳተ	-785
▁ለማድረግ	-786
▁አመራ	-787
ፈለ	-788
▁መግለጫ	-789
▁ጣ	-790
ቋቋ	-791
ሰረ	-792
ሳል	-793
ቀመ	-794
▁)	-795
▁ደቂቃ	-796
▁አንዱ	-797
▁?	-798
▁ሙሉ	-799
▁ጠቁ	-800
ካይ	-801
ሁኑ	-802
▁የማይ	-803
19	-804
▁ዶላር	-805
▁ብሎ	-806
▁ድርጅት	-807
ዱስ	-808
▁8	-809
ጠቀም	-810
▁ተቋማት	-811
ሮችን	-812
▁አክ	-813
ተኞች	-814
ናቸውን	-815
ከተማ	-816
ጋራ	-817
ቀት	-818
ፌዴራል	-819
▁አባላት	-820
ያዊ	-821
▁በደ	-822
▁ዘመን	-823
▁ቤቶች	-824
▁በማድረግ	-825
▁ባለስልጣ	-826
በትን	-827
ሙሉ	-828
▁ግንባታ	-829
ከፍ	-830
▁ያህል	-831
▁ድን	-832
▁ሀገ	-833
▁እው	-834
▁ኳስ	-835
▁እርምጃ	-836
ቱም	-837
ቻቸው	-838
ን፣	-839
ራንስ	-840
▁ሰራ	-841
▁ግድ	-842
▁ጥሩ	-843
ደርግ	-844
▁ስርአት	-845
▁ትኩ	-846
ከላከ	-847
▁ዘርፍ	-848
▁ተጫዋ	-849
ጠበቅ	-850
..	-851
▁በታ	-852
200	-853
▁ቃል	-854
ደርጉ	-855
▁በተለይ	-856
▁ቤተ	-857
ፋት	-858
▁የሆኑ	-859
▁200	-860
▁ቀደም	-861
▁ዝግ	-862
▁አይደ	-863
ጥብ	-864
▁ዋጋ	-865
▁ጉባኤ	-866
ነቱ	-867
ቀጥ	-868
ረም	-869
ህን	-870
ጠቃላይ	-871
▁እንጂ	-872
▁ተፈ	-873
▁ተብሎ	-874
▁ማለት	-875
▁ዘመ	-876
ላቸውን	-877
▁ውይ	-878
ሉን	-879
▁ትምህርት	-880
▁መድረ	-881
▁ምስ	-882
▁የሚል	-883
ጎች	-884
▁ነፃ	-885
▁ዛሬ	-886
ላጊ	-887
ከሰ	-888
▁የደ	-889
ዱስትሪ	-890
▁ሊያ	-891
▁ተጠ	-892
ሯል	-893
▁ባለሙ	-894
ሳቸው	-895
ቾች	-896
ገነ	-897
▁ይታወ	-898
▁የነበረው	-899
ይሬ	-900
▁የተሰ	-901
▁አስረድተዋል	-902
▁ይችላል	-903
▁ኮሚቴ	-904
ቻል	-905
ልማት	-906
▁ፕሬዚዳንት	-907
▁ንግድ	-908
▁ሚኒስትሩ	-909
▁19	-910
ኦሮ	-911
▁ግንኙነት	-912
▁ስብ	-913
ታይ	-914
ደግ	-915
ፍራ	-916
ቆጣ	-917
▁–	-918
ዛት	-919
ገቢ	-920
▁ጨምሮ	-921
መዋል	-922
ጨዋ	-923
ነጋ	-924
▁ገንዘብ	-925
▁ሱ	-926
▁መጠን	-927
ኖሩ	-928
▁የሚገኙ	-929
ላሽ	-930
▁ይሁን	-931
▁በተለያዩ	-932
ነሱ	-933
ኑን	-934
▁ማሳ	-935
▁ሀሳብ	-936
▁ጥቅም	-937
ዘር	-938
ዴት	-939
▁ሳምንት	-940
ዳጅ	-941
▁ክለ	-942
ረን	-943
▁ሲሉ	-944
ላጎ	-945
መሳሳይ	-946
▁ቡና	-947
▁ሶስት	-948
▁በማስ	-949
▁ዳይሬ	-950
ክለ	-951
▁በቅር	-952
▁የንግድ	-953
▁ለእ	-954
▁እድል	-955
ልፅ	-956
▁ተስፋ	-957
ጀል	-958
▁የፖለቲካ	-959
▁ማህ	-960
▁እንኳ	-961
▁ከሆነ	-962
▁ሳይሆን	-963
ሪፖርተር	-964
ቨር	-965
▁በአዲስ	-966
▁በአንድ	-967
▁አካላት	-968
▁ልጆች	-969
የው	-970
▁ጥረት	-971
▁ገቢ	-972
▁አፈ	-973
ስር	-974
ሳሌ	-975
▁ዘንድ	-976
▁ዴ	-977
▁ክፍል	-978
ፃሚ	-979
ካባቢ	-980
▁ሰብ	-981
▁ይገኛ	-982
▁አንዳ	-983
ትር	-984
ያዝ	-985
ለውን	-986
▁እንደነበር	-987
ሞክራ	-988
▁እጅ	-989
▁ይህም	-990
▁9	-991
በዋል	-992
ውም	-993
▁እንዴት	-994
▁ፍላጎ	-995
▁ቆይ	-996
▁መቀ	-997
▁የኤ	-998
▁ያሳ	-999
ገለፁት	-1000
▁የፀ	-1001
ጋል	-1002
ስና	-1003
▁ምክትል	-1004
▁በወ	-1005
ፅሀ	-1006
መት	-1007
▁የመጀመሪያ	-1008
▁መሳ	-1009
ገንዘብ	-1010
ሄድ	-1011
▁በነ	-1012
ህፈት	-1013
ገብ	-1014
ከላከያ	-1015
ጀመር	-1016
ችንን	-1017
▁በአሁኑ	-1018
▁የጥ	-1019
▁ይህንን	-1020
ካሄድ	-1021
▁ቀናት	-1022
ብረተ	-1023
ቅረብ	-1024
▁ይሆናል	-1025
▁ጉዳት	-1026
▁ሰጥ	-1027
ጠራ	-1028
ቦት	-1029
ነር	-1030
ካም	-1031
ናዊ	-1032
▁ተከት	-1033
ሎጂ	-1034
▁ቅዱስ	-1035
▁ከባ	-1036
ንጫ	-1037
▁የምር	-1038
ግራይ	-1039
▁ለመስ	-1040
▁ውጤት	-1041
▁ሄ	-1042
▁ተጨማሪ	-1043
ሮና	-1044
ውል	-1045
▁ወራት	-1046
▁ፈቃ	-1047
ገለፀ	-1048
ንቀሳ	-1049
ቹን	-1050
ለጠ	-1051
▁ስምምነት	-1052
ቡን	-1053
ገደ	-1054
ከለ	-1055
ንተ	-1056
ስተኛ	-1057
▁በሙሉ	-1058
ላዊ	-1059
▁ሲል	-1060
▁አፍሪካ	-1061
▁ቀር	-1062
ችው	-1063
ዲያ	-1064
▁የአለም	-1065
ሲቲ	-1066
▁መሆን	-1067
ቅና	-1068
ቧል	-1069
ከላከል	-1070
▁ህገ	-1071
▁ጌ	-1072
▁አስፈላጊ	-1073
▁አት	-1074
▁የፋ	-1075
ዳር	-1076
▁አድ	-1077
▁ቋ	-1078
▁በፍ	-1079
▁ፖሊስ	-1080
ልና	-1081
አዊ	-1082
▁በመስ	-1083
▁አሸ	-1084
▁እስካ	-1085
▁ያላቸው	-1086
▁አይደለም	-1087
ሌክት	-1088
ደረሰ	-1089
▁ምላሽ	-1090
ቀረቡ	-1091
ስተዳ	-1092
▁የቆ	-1093
ሻለ	-1094
ማሽ	-1095
መንት	-1096
▁10	-1097
▁አህ	-1098
▁እኔ	-1099
▁ተደር	-1100
▁እንዳል	-1101
▁ገለ	-1102
ኛውም	-1103
ላላ	-1104
ነዚህ	-1105
▁ዩኒ	-1106
ሰቦች	-1107
▁ይገባ	-1108
▁ከዚያ	-1109
ማራ	-1110
ጥጥር	-1111
▁ተከትሎ	-1112
▁ትር	-1113
ሶች	-1114
ሽኑ	-1115
▁ተጠቃ	-1116
▁መብት	-1117
▁ሸ	-1118
ቨርሲቲ	-1119
▁ጫ	-1120
▁በኢ	-1121
▁የህዝብ	-1122
መዘ	-1123
ርስቲ	-1124
ገት	-1125
▁ደን	-1126
ጭት	-1127
ብሪካ	-1128
▁ውይይት	-1129
▁የአዲስ	-1130
ሬሽን	-1131
▁ተገል	-1132
▁እንደማይ	-1133
ረር	-1134
ቆጠ	-1135
ሞክራሲ	-1136
▁አጥ	-1137
ቀረበ	-1138
በቃ	-1139
▁ዮ	-1140
▁ጦር	-1141
▁በድ	-1142
▁ዞ	-1143
▁መሪ	-1144
▁መሆናቸውን	-1145
ቂያ	-1146
▁ልጅ	-1147
▁ለውጥ	-1148
▁የሁ	-1149
▁ለህ	-1150
▁ለማግኘት	-1151
▁ሁሉም	-1152
ነትን	-1153
ጋሚ	-1154
▁ትኩረት	-1155
▁ስራዎች	-1156
▁አካል	-1157
ሙት	-1158
▁15	-1159
▁ወጣ	-1160
▁ትልቅ	-1161
▁ለም	-1162
▁ሆነው	-1163
▁አሰራ	-1164
▁ባለፈው	-1165
▁የኢን	-1166
▁አቅም	-1167
ቨስት	-1168
▁የአፍሪካ	-1169
በታል	-1170
▁በተጨማሪም	-1171
ፃፀ	-1172
ጠል	-1173
▁የካ	-1174
▁ፅህፈት	-1175
▁ዶክተር	-1176
ዝር	-1177
▁በሚል	-1178
▁እንድ	-1179
▁መሳሪያ	-1180
ጥሮ	-1181
▁ድም	-1182
▁አደጋ	-1183
▁መንገ	-1184
ናገሩት	-1185
▁ሰአት	-1186
ጓል	-1187
▁12	-1188
▁አስታውቋል	-1189
ጅት	-1190
▁በተመለከተ	-1191
ደርስ	-1192
ሰር	-1193
ምት	-1194
▁አምላክ	-1195
▁ቻ	-1196
▁ነጥብ	-1197
▁ምርት	-1198
▁20	-1199
ክሮ	-1200
▁ስልጣ	-1201
▁ወጪ	-1202
ወስ	-1203
▁ወይ	-1204
▁ግለ	-1205
▁በዚህም	-1206
ፍጠር	-1207
▁ቢሮ	-1208
▁አዋጅ	-1209
እራ	-1210
▁ማስተ	-1211
ታወቀ	-1212
▁በባ	-1213
ሎችን	-1214
በራዊ	-1215
▁ነዋ	-1216
ተት	-1217
▁ውጪ	-1218
▁ማድረ	-1219
ጣይ	-1220
ቃቤ	-1221
ፎች	-1222
ከታ	-1223
ስታ	-1224
▁ብለው	-1225
ንካ	-1226
ዘው	-1227
▁የህግ	-1228
ሱም	-1229
▁አሰልጣ	-1230
▁ፕሮጀክ	-1231
ክምና	-1232
▁ይችላሉ	-1233
ካዮች	-1234
▁መሀ	-1235
▁የሚሰ	-1236
ኦሮሚያ	-1237
ጣሪ	-1238
ላው	-1239
ታደ	-1240
▁ንጉ	-1241
ፅሀፍ	-1242
▁በበኩ	-1243
ተን	-1244
ራን	-1245
▁አደ	-1246
ታማ	-1247
▁መደ	-1248
ጮች	-1249
▁ወንድ	-1250
▁የዋ	-1251
▁አንዳንድ	-1252
ዳማ	-1253
▁ተቃ	-1254
▁መብ	-1255
▁ከወ	-1256
ሁንም	-1257
ሱስ	-1258
▁ቫይ	-1259
▁በአለም	-1260
መለስ	-1261
ማር	-1262
ብርና	-1263
ደረጉት	-1264
20	-1265
ነገ	-1266
▁ጠቁመዋል	-1267
▁በመሆኑም	-1268
▁አስፈፃሚ	-1269
▁ሂደት	-1270
▁ትእ	-1271
▁ያልተ	-1272
▁ከሰ	-1273
ዘጋጀ	-1274
ክኖ	-1275
▁ህይወት	-1276
▁ችግሮች	-1277
▁ስል	-1278
▁አያ	-1279
▁11	-1280
ጣሚ	-1281
ድስት	-1282
▁ገበያ	-1283
▁የገ	-1284
ርፖ	-1285
ከፍተኛ	-1286
▁ተመል	-1287
የሱስ	-1288
▁በቅርቡ	-1289
▁ገብ	-1290
▁አስታውቀዋል	-1291
▁ውሀ	-1292
▁ይፋ	-1293
▁ቅር	-1294
ወጥ	-1295
▁ኩባንያዎች	-1296
▁ባለመ	-1297
▁እቅድ	-1298
▁ስብሰባ	-1299
ው፣	-1300
▁በተለይም	-1301
▁አካባቢዎች	-1302
▁ይታወሳል	-1303
▁የግብ	-1304
▁አሉ	-1305
ሟል	-1306
▁ድርጅቶች	-1307
ቀስ	-1308
▁ስርአ	-1309
ካል	-1310
ንባ	-1311
▁በዘ	-1312
ፈር	-1313
▁የብ	-1314
▁ና	-1315
የም	-1316
ዳሚ	-1317
▁መለ	-1318
▁እንደሚገባ	-1319
▁ዙሪያ	-1320
▁የፌዴራል	-1321
▁ፊ	-1322
▁እስካሁን	-1323
▁ተገልጿል	-1324
▁ባለው	-1325
ያዙ	-1326
▁ቢሆንም	-1327
▁አንፃ	-1328
▁መሰረ	-1329
▁በብ	-1330
▁አባል	-1331
ማቸው	-1332
▁ያህዌ	-1333
ንፃ	-1334
ጠየ	-1335
▁ተፅ	-1336
ካሄደው	-1337
▁ጊ	-1338
ላን	-1339
▁ነው፤	-1340
ኤፍ	-1341
ሌሎች	-1342
▁ፋብሪካ	-1343
▁የራ	-1344
▁ተጠቃሚ	-1345
ነግ	-1346
▁በሆነ	-1347
▁በዋ	-1348
ጠይ	-1349
▁መው	-1350
▁አላማ	-1351
▁ዜጎች	-1352
እክት	-1353
▁ታው	-1354
▁ጋዜ	-1355
▁አስተያ	-1356
ሰጣ	-1357
ሰዋል	-1358
▁አሁንም	-1359
በሩት	-1360
▁ጥናት	-1361
ሶስት	-1362
ባቸውን	-1363
ሌክትሪክ	-1364
ብኝ	-1365
ዎችና	-1366
▁አማካ	-1367
▁ርእ	-1368
ክኖሎጂ	-1369
ይናንስ	-1370
ያያዘ	-1371
ልም	-1372
ርክ	-1373
▁ፍላጎት	-1374
ሸነ	-1375
▁ሁለቱ	-1376
▁አድርጎ	-1377
▁የቻ	-1378
ፈፀም	-1379
ላቀ	-1380
▁ቶ	-1381
▁ተማሪ	-1382
ፍትሄ	-1383
▁የምት	-1384
ክቶ	-1385
ሀት	-1386
መለከ	-1387
▁ዳር	-1388
▁ስለዚህ	-1389
▁በራ	-1390
ራሉ	-1391
ሜን	-1392
ቢት	-1393
▁በረ	-1394
▁አንቀ	-1395
▁ኢንዱስትሪ	-1396
ሳቢ	-1397
▁ስለሚ	-1398
እኖ	-1399
ሱት	-1400
ሰን	-1401
▁ምርመራ	-1402
▁የሆነው	-1403
▁ስት	-1404
▁በሌላ	-1405
ዲህ	-1406
ሷል	-1407
ታችን	-1408
▁ቡድኑ	-1409
▁ሁለተኛ	-1410
▁ሜትር	-1411
▁አህመድ	-1412
▁ወጥ	-1413
ጀመረ	-1414
ማን	-1415
ቀርብ	-1416
▁አምስት	-1417
▁ሰላም	-1418
▁መጥ	-1419
▁ውጭ	-1420
▁የዘ	-1421
ይል	-1422
▁አንፃር	-1423
ብን	-1424
▁ባል	-1425
▁መም	-1426
ኞቹ	-1427
▁ከሁ	-1428
▁አቃቤ	-1429
▁14	-1430
ቂት	-1431
▁ዩኒቨርሲቲ	-1432
▁ሰነ	-1433
ስን	-1434
▁ኮሚሽን	-1435
▁ታሪክ	-1436
▁የክልሉ	-1437
▁አማራ	-1438
ረጋግ	-1439
▁ጠይ	-1440
▁ሀገራት	-1441
ናው	-1442
ሰረተ	-1443
▁አግ	-1444
▁ተጠር	-1445
▁በኮ	-1446
▁2012	-1447
ምድ	-1448
ብሄር	-1449
▁የባን	-1450
▁አቋ	-1451
▁መዝ	-1452
ወጡ	-1453
▁ቃ	-1454
▁ተፅእኖ	-1455
ነበረው	-1456
▁አመልክ	-1457
ጠብ	-1458
ዎን	-1459
▁ዳይሬክተር	-1460
▁መልኩ	-1461
ክተ	-1462
▁ለዚህ	-1463
ደን	-1464
▁መታ	-1465
▁ካል	-1466
ቶቹ	-1467
▁ወረዳ	-1468
▁እለት	-1469
መዝ	-1470
ዱን	-1471
▁በጉ	-1472
ውሮ	-1473
▁ሊግ	-1474
ኗል	-1475
▁አራት	-1476
ብሄራዊ	-1477
ጠቅላይ	-1478
▁የተቀ	-1479
▁ጥቃት	-1480
▁ነገሮች	-1481
ከብ	-1482
ሀብ	-1483
ጥነት	-1484
▁ንግ	-1485
ንቲ	-1486
ከበር	-1487
▁ትን	-1488
▁አሰራር	-1489
▁የተወሰ	-1490
▁ይገኛል	-1491
ዲሱ	-1492
▁አላ	-1493
ሜዳ	-1494
▁የአሜሪካ	-1495
ረጥ	-1496
▁ጥሪ	-1497
ሎት	-1498
ረብ	-1499
▁በጀት	-1500
▁ወንጀል	-1501
▁ቢሆንም፣	-1502
▁ይዞ	-1503
▁ተብሏል	-1504
ከርካ	-1505
ቨስትመንት	-1506
ሊዝ	-1507
▁ሰራዊ	-1508
ፈልግ	-1509
▁ኢኮኖሚ	-1510
ፎር	-1511
▁ተግባር	-1512
ደገ	-1513
▁ኮን	-1514
▁ኬ	-1515
ምፒ	-1516
በኛ	-1517
በብ	-1518
▁ከነ	-1519
ራር	-1520
ዛዝ	-1521
▁በመሆን	-1522
▁13	-1523
▁ሜዳ	-1524
ዋሳ	-1525
ረጋገጥ	-1526
▁መኖ	-1527
ንሲ	-1528
▁በሚያ	-1529
ማኖ	-1530
የን	-1531
▁ሙከራ	-1532
ዮር	-1533
▁እጅግ	-1534
▁የፍ	-1535
▁የተመ	-1536
ገራ	-1537
ደሩ	-1538
▁ባይ	-1539
ሊያ	-1540
ጋቸው	-1541
ምሩ	-1542
ግል	-1543
ኪያ	-1544
ሳስ	-1545
ግና	-1546
ፈረ	-1547
ቦችን	-1548
▁ሀብት	-1549
▁የከተማ	-1550
▁ድርጊ	-1551
▁አየር	-1552
▁ከው	-1553
አዴ	-1554
ካባቢው	-1555
▁የገንዘብ	-1556
ኖረው	-1557
▁ስታ	-1558
ቀርቡ	-1559
▁እንኳን	-1560
ስማ	-1561
ካት	-1562
▁በቁ	-1563
▁ለማሳ	-1564
▁መሬት	-1565
ነትና	-1566
ግዚ	-1567
ባሳ	-1568
▁የሌ	-1569
▁መንግስታት	-1570
ዚሁ	-1571
▁የቡ	-1572
▁የምን	-1573
▁ደር	-1574
▁ክስ	-1575
ያንዳን	-1576
ደኛ	-1577
▁ተገቢ	-1578
▁ስነ	-1579
▁የገለፁት	-1580
ቁት	-1581
▁እድገት	-1582
ይን	-1583
▁በመግለ	-1584
▁ባለሙያዎች	-1585
▁የሞ	-1586
▁መስመር	-1587
▁ጅ	-1588
ሳቸውን	-1589
▁ተግባራዊ	-1590
ባባ	-1591
▁መዋ	-1592
▁ይገባል	-1593
▁የግል	-1594
ርትራ	-1595
ቤተ	-1596
▁አስተዋ	-1597
ሪፖርት	-1598
ለፍ	-1599
▁ስፍራ	-1600
▁ባለፉት	-1601
ስትና	-1602
ሽከርካ	-1603
▁ሰራተኞች	-1604
ሙን	-1605
ፒታል	-1606
▁ታውቋል	-1607
▁ካለ	-1608
▁ጨዋታዎች	-1609
ወር	-1610
▁ባንኮች	-1611
ነቱን	-1612
▁ዝር	-1613
ልፍ	-1614
ዳት	-1615
ሰበ	-1616
▁የጎ	-1617
ስቲ	-1618
▁በር	-1619
▁18	-1620
▁በአገሪቱ	-1621
ግባት	-1622
▁ወል	-1623
ጥረት	-1624
ካሄደ	-1625
▁ሪፖርት	-1626
▁አመራሮች	-1627
▁እንደሚችል	-1628
▁ሀሳ	-1629
▁በሽ	-1630
ንቋ	-1631
▁ገልጿል	-1632
▁ፓ	-1633
▁አለበት	-1634
▁16	-1635
▁ሆኖም	-1636
▁የፕ	-1637
▁ሀገር	-1638
ፍታት	-1639
ገናኛ	-1640
ስብ	-1641
ገባው	-1642
ዳሴ	-1643
▁ፈቃድ	-1644
መለክ	-1645
▁የተሻለ	-1646
ሰብአዊ	-1647
▁ሊቀ	-1648
ያይ	-1649
ረርሽ	-1650
▁መተ	-1651
ዛሪ	-1652
▁ፕሮግራ	-1653
ቆጣጠር	-1654
ረሱ	-1655
▁በበኩላቸው	-1656
በረሰብ	-1657
▁እቃ	-1658
▁የቀድሞ	-1659
ቻቸውን	-1660
ብረተሰቡ	-1661
ዋን	-1662
▁በተያያዘ	-1663
▁አጋጣሚ	-1664
ዷል	-1665
▁የተለ	-1666
▁ድምፅ	-1667
▁ከሀ	-1668
ስቱ	-1669
▁ሚና	-1670
ከፈ	-1671
ራንስፖርት	-1672
▁አሜሪካ	-1673
▁ስላ	-1674
ፊያ	-1675
▁የጤና	-1676
▁ድርሻ	-1677
ገዋል	-1678
ራቸውን	-1679
▁የውሀ	-1680
ዱት	-1681
ዳታ	-1682
▁የቴ	-1683
▁ነበሩ	-1684
ምላክ	-1685
▁ኮርፖ	-1686
▁ሱዳን	-1687
▁ክፍያ	-1688
ለማ	-1689
ከፋ	-1690
▁ጎል	-1691
▁ይልቅ	-1692
ጀመርያ	-1693
ዎች፣	-1694
ቆም	-1695
▁ዞን	-1696
ወጣው	-1697
▁ሀላፊነት	-1698
▁ስልጣን	-1699
ሰጡ	-1700
▁በጋራ	-1701
ሻገር	-1702
ፈልጉ	-1703
ዮርጊ	-1704
▁አንቀፅ	-1705
ስራቅ	-1706
▁ሰር	-1707
▁ትክ	-1708
▁ሪ	-1709
ንካራ	-1710
▁አስታወቀ	-1711
ኛል	-1712
▁ያደር	-1713
▁በወቅ	-1714
▁ተወካዮች	-1715
▁ለሪፖርተር	-1716
ጅም	-1717
ኛውን	-1718
▁17	-1719
▁መፍትሄ	-1720
▁አለው	-1721
▁ባህር	-1722
▁አፈፃፀ	-1723
ድሩ	-1724
ቋቋም	-1725
▁እንዲሆን	-1726
ቀም	-1727
▁መመር	-1728
ረዳት	-1729
▁ስጋት	-1730
▁ፕሮጀክት	-1731
▁መልካም	-1732
▁30	-1733
ያህ	-1734
▁በመቀ	-1735
ጀንሲ	-1736
▁2013	-1737
50	-1738
▁ቫይረስ	-1739
▁የሙ	-1740
an	-1741
ናፊ	-1742
▁ክልሎች	-1743
▁የመስ	-1744
▁እኛ	-1745
ህአዴ	-1746
▁የልማት	-1747
ደጋጋሚ	-1748
ቲት	-1749
▁ሊሆን	-1750
▁ውድድር	-1751
▁ቱ	-1752
▁የሚለው	-1753
▁ለሁ	-1754
▁አብዛ	-1755
መቱ	-1756
ፅኦ	-1757
▁የድ	-1758
ጋዊ	-1759
▁እንደሚያስ	-1760
▁አጋማሽ	-1761
ተና	-1762
ክሲ	-1763
ኞችን	-1764
ወሀት	-1765
▁የኢኮኖሚ	-1766
▁ሀይሎች	-1767
▁መመ	-1768
▁ከህ	-1769
▁የሚገኘው	-1770
ደረጃ	-1771
▁የፀጥታ	-1772
▁ዝግጅት	-1773
ባሉ	-1774
▁በአጠቃላይ	-1775
▁አብይ	-1776
▁ተመሳሳይ	-1777
▁ወታደ	-1778
▁እንግ	-1779
▁ኢየሱስ	-1780
ማል	-1781
▁የተነሳ	-1782
▁ትእዛዝ	-1783
ባለ	-1784
▁ማእከል	-1785
▁ክፍለ	-1786
▁ሆቴ	-1787
▁የሚያስችል	-1788
▁ብድር	-1789
▁ከኢትዮጵያ	-1790
▁ብሏል	-1791
ሁፍ	-1792
▁ፊት	-1793
ህር	-1794
ጫወ	-1795
▁የሰው	-1796
ቻችን	-1797
▁እግር	-1798
▁ማሻሻ	-1799
▁መስራት	-1800
▁ከተሞች	-1801
ረታ	-1802
▁በመንግስት	-1803
▁መስሪያ	-1804
▁ተጫዋቾች	-1805
ዳሪ	-1806
▁ስለመ	-1807
ጠን	-1808
ገንባት	-1809
▁ስቴ	-1810
ዊት	-1811
ያቸው	-1812
▁አገራት	-1813
▁ክርስቲ	-1814
▁ስን	-1815
ህአዴግ	-1816
▁ምንዛሪ	-1817
▁ንብረት	-1818
ባቂ	-1819
▁ያላ	-1820
▁አጠቃላይ	-1821
ፈጠረ	-1822
▁ግብር	-1823
ጫወት	-1824
▁የለ	-1825
▁የአገሪቱ	-1826
▁በይ	-1827
▁አስተዋፅኦ	-1828
▁መፅሀፍ	-1829
▁ማግኘት	-1830
▁ኢትዮጵያን	-1831
ውጣት	-1832
ጠናቀቅ	-1833
▁በእር	-1834
▁ተሳት	-1835
ወዳ	-1836
▁ፖለቲካ	-1837
▁እንደሌ	-1838
▁እንዳለበት	-1839
▁የበለጠ	-1840
ፈቀ	-1841
▁የጋራ	-1842
ጣን	-1843
▁ከግ	-1844
▁ቀጥ	-1845
▁የምርጫ	-1846
▁ቅድ	-1847
▁ህይወ	-1848
ም፤	-1849
ፈራ	-1850
ሰት	-1851
ሸን	-1852
▁የነበሩት	-1853
ደብ	-1854
▁ከዚያም	-1855
ልን	-1856
▁የሚመ	-1857
▁መጋ	-1858
▁የሚሆኑ	-1859
ሰጠው	-1860
ርማ	-1861
▁ተሳ	-1862
ሰድ	-1863
▁ህዝቦች	-1864
ቱት	-1865
ውና	-1866
▁ጤና	-1867
ስቶ	-1868
▁መቆ	-1869
▁ሮ	-1870
▁ለመቀ	-1871
ላማዊ	-1872
ስትራ	-1873
▁ተጠና	-1874
ሰል	-1875
▁በተመሳሳይ	-1876
▁ከቀ	-1877
▁ከባድ	-1878
ዘን	-1879
▁አገሪ	-1880
▁ፓርቲዎች	-1881
▁አልተ	-1882
ያል	-1883
▁ገፅ	-1884
ጋሪ	-1885
ዳቤ	-1886
▁ቦርድ	-1887
ምረት	-1888
ዩት	-1889
er	-1890
ያህዌ	-1891
ግዚአ	-1892
▁ጣቢያ	-1893
▁ጊዮርጊ	-1894
▁ይጠበ	-1895
ቤቱ	-1896
▁የነበረውን	-1897
▁መነ	-1898
▁ከስ	-1899
ግዚአብሄር	-1900
ባብ	-1901
▁ጠንካራ	-1902
▁ደብ	-1903
▁ነበረ	-1904
ቶችና	-1905
▁ሰፊ	-1906
▁አሰልጣኝ	-1907
ዘጋጅ	-1908
▁ድንጋ	-1909
▁ሀብ	-1910
ራይ	-1911
ጉን	-1912
▁ምድር	-1913
▁መሆኑንም	-1914
▁ጉዳዩ	-1915
ጭር	-1916
ጠረ	-1917
▁ኡ	-1918
ፁም	-1919
ኳይ	-1920
ጣጫ	-1921
ፈን	-1922
▁ወረርሽ	-1923
ዳቸው	-1924
ርያም	-1925
▁የወጣ	-1926
▁ስሜ	-1927
▁ባለስልጣን	-1928
▁አመቱ	-1929
▁ይጠበቃል	-1930
▁ምእራ	-1931
▁የክ	-1932
▁ጎን	-1933
ከናወን	-1934
▁በጎ	-1935
▁ረገድ	-1936
▁ዴሞክራሲ	-1937
▁በከፍተኛ	-1938
000	-1939
ቸኳይ	-1940
▁ቴክኖሎጂ	-1941
ነኛ	-1942
▁ስለሆነ	-1943
▁ነዋሪዎች	-1944
ውሞ	-1945
ቻሉ	-1946
▁የአገር	-1947
ገነባ	-1948
ራም	-1949
ቂቅ	-1950
▁እምነት	-1951
▁በክ	-1952
ሊየን	-1953
▁ቋንቋ	-1954
ሀል	-1955
▁የለም	-1956
ታፊ	-1957
▁ከታ	-1958
ጠቁ	-1959
▁ሰላ	-1960
▁አመራር	-1961
በልጥ	-1962
መለከት	-1963
▁ላለ	-1964
▁ዩ	-1965
▁ለሰ	-1966
▁ተጠቅ	-1967
▁24	-1968
ከታተ	-1969
▁ተከላ	-1970
▁ይናገ	-1971
▁በወቅቱ	-1972
ሱዳን	-1973
▁በታች	-1974
▁አምባሳ	-1975
ናገር	-1976
▁የማስ	-1977
በረታ	-1978
▁የል	-1979
▁መጨረሻ	-1980
▁መከላከያ	-1981
▁ጦርነት	-1982
▁ፍት	-1983
▁ግጭት	-1984
▁በቂ	-1985
ላንድ	-1986
ብብር	-1987
ቀረበው	-1988
ከረም	-1989
ሆናቸው	-1990
በራት	-1991
ሪም	-1992
▁አውሮ	-1993
▁ነጋ	-1994
▁ስልጠና	-1995
ኒያ	-1996
ግባር	-1997
▁ያላቸውን	-1998
▁ልብ	-1999
▁በሌሎች	-2000
▁ቴሌ	-2001
▁መድረክ	-2002
▁አግኝ	-2003
ገኙት	-2004
▁የቦ	-2005
▁ባለሀብ	-2006
▁ባሻገር	-2007
ግባብ	-2008
▁ቢያ	-2009
▁ኖ	-2010
ነቶች	-2011
ታር	-2012
ደርገው	-2013
▁የሚችል	-2014
▁ኢትዮጵያውያን	-2015
▁አቅጣጫ	-2016
▁ጄ	-2017
▁አሸናፊ	-2018
ድድር	-2019
▁አድርጓል	-2020
ስተዋ	-2021
...	-2022
▁ኪሎ	-2023
ጀመረው	-2024
ል፣	-2025
▁ክፍሎች	-2026
▁ተቋም	-2027
▁ዝቅ	-2028
▁የኮሮና	-2029
▁አስተያየት	-2030
▁የሽ	-2031
▁ድል	-2032
▁ከበ	-2033
ላቅ	-2034
ገልፃ	-2035
ስራኤል	-2036
ሳተፉ	-2037
▁25	-2038
▁በል	-2039
▁አማካይ	-2040
▁የትምህርት	-2041
on	-2042
ውሮፓ	-2043
▁ጥር	-2044
▁ወጣቶች	-2045
ሬሽኑ	-2046
▁በአፍሪካ	-2047
▁በሰጡት	-2048
▁በክልሉ	-2049
▁ፌዴ	-2050
▁በቀጣይ	-2051
▁ገብረ	-2052
ጫው	-2053
▁ሴቶች	-2054
ንቀሳቀ	-2055
▁ፎ	-2056
▁የቅ	-2057
▁መንግስቱ	-2058
ገዛ	-2059
ናይት	-2060
▁ጫና	-2061
▁አለማ	-2062
▁ግድብ	-2063
ባዊ	-2064
▁መልእክት	-2065
ርቶ	-2066
in	-2067
▁የጠ	-2068
▁ንጉስ	-2069
▁መንፈ	-2070
ፉን	-2071
ቻለ	-2072
▁ቡድኖች	-2073
▁የጦር	-2074
▁ሻ	-2075
▁ፀሀ	-2076
▁ጭምር	-2077
ሶማ	-2078
▁መርሀ	-2079
▁የሚታ	-2080
▁መድ	-2081
ሬዳ	-2082
▁ወስ	-2083
ነስተኛ	-2084
ጠናከር	-2085
▁ከአንድ	-2086
▁እርዳታ	-2087
▁ተገኝ	-2088
▁አሳስ	-2089
▁ዋንጫ	-2090
▁ኤጀንሲ	-2091
▁ጉዞ	-2092
ንቃ	-2093
▁መንገዶች	-2094
▁ምት	-2095
▁ተች	-2096
▁የጉ	-2097
▁ለመስጠት	-2098
ሬታ	-2099
▁ማብራ	-2100
▁ተከሳ	-2101
▁የኦ	-2102
▁የድር	-2103
▁የሚታወ	-2104
▁በአል	-2105
▁ደጋ	-2106
▁ቦታዎች	-2107
ክልል	-2108
ፌደ	-2109
▁ሰራዊት	-2110
ጣል	-2111
▁የሰብአዊ	-2112
ሳዊ	-2113
▁ፕሬዝ	-2114
▁በቅ	-2115
ጧል	-2116
ላለፍ	-2117
ጠቀሙ	-2118
▁ስቴት	-2119
▁የሚፈ	-2120
▁የፋይናንስ	-2121
ምስት	-2122
11	-2123
▁ግለሰቦች	-2124
▁የሲ	-2125
ጀመሩ	-2126
▁በመተ	-2127
ስ፣	-2128
▁አራ	-2129
ዝም	-2130
ድሮ	-2131
▁ጥያቄዎች	-2132
ፏል	-2133
ይወት	-2134
▁ግልፅ	-2135
▁ይመስ	-2136
▁ማለ	-2137
▁እንዳለው	-2138
▁ስድስት	-2139
▁ተዋ	-2140
▁በሁለቱ	-2141
ነህ	-2142
▁በፍጥነት	-2143
▁ሀይለ	-2144
▁መክ	-2145
▁መስጠት	-2146
ከባ	-2147
▁ያመለክ	-2148
▁አዳዲስ	-2149
ጠበቀ	-2150
ጠሩ	-2151
መሰ	-2152
ስተካ	-2153
▁ሩ	-2154
▁ደቡብ	-2155
▁ለመከላከል	-2156
ባበ	-2157
ንጉ	-2158
▁ምክንያቱም	-2159
ስተር	-2160
▁ይገልፃ	-2161
▁ያደረገ	-2162
▁ህጋዊ	-2163
30	-2164
▁ፖሊሲ	-2165
▁ወገ	-2166
ጠኛ	-2167
ርባ	-2168
ደሰ	-2169
ናሽ	-2170
ሬዳዋ	-2171
ገም	-2172
▁ሀላፊዎች	-2173
▁የዳ	-2174
▁እጥረት	-2175
ውው	-2176
ችለው	-2177
▁እንዳስ	-2178
ልስ	-2179
ብዛ	-2180
▁ትክክለ	-2181
ቀረቡት	-2182
▁አስመል	-2183
▁ዙር	-2184
▁ጥበቃ	-2185
▁ተደርጎ	-2186
ንታ	-2187
▁ጆ	-2188
▁ሌላው	-2189
ቀበ	-2190
ለህ	-2191
ሳኝ	-2192
▁እየሰራ	-2193
▁የሆኑት	-2194
▁ዝርዝር	-2195
▁የሚችሉ	-2196
▁ካሳ	-2197
ጠኝ	-2198
▁የተባለው	-2199
▁ይኼ	-2200
ዎቹን	-2201
ሸነፍ	-2202
▁የሰላም	-2203
▁የመጨረሻ	-2204
▁ተከታ	-2205
▁ለማወቅ	-2206
▁ኮሚሽ	-2207
ልቁ	-2208
ቀጥል	-2209
at	-2210
▁ያው	-2211
▁የፍት	-2212
ለቀ	-2213
ናይትድ	-2214
▁ተማሪዎች	-2215
▁ማብራሪያ	-2216
▁መቶ	-2217
▁እንደሚገኝ	-2218
▁2010	-2219
▁የአየር	-2220
ሞን	-2221
ካሂ	-2222
▁ጃ	-2223
ምህር	-2224
▁ሂደ	-2225
▁ፕሮጀክቶች	-2226
ፋር	-2227
▁ደብዳቤ	-2228
▁ተሳትፎ	-2229
▁ከሌሎች	-2230
▁በተደጋጋሚ	-2231
ካተ	-2232
ውስ	-2233
ሀንስ	-2234
10	-2235
▁ይላል	-2236
▁ከም	-2237
▁ለኢትዮጵያ	-2238
ያት	-2239
▁ለመፍታት	-2240
▁በኤ	-2241
▁አበባ፣	-2242
▁አዲሱ	-2243
▁በቁጥጥር	-2244
▁ምል	-2245
▁ማሀበር	-2246
ዳል	-2247
2012	-2248
▁ተሰ	-2249
▁በደቡብ	-2250
▁የወደ	-2251
ላችሁ	-2252
▁፤	-2253
▁ያገኘ	-2254
ከረ	-2255
ያንዳንዱ	-2256
ነታቸው	-2257
▁የመን	-2258
▁ሀም	-2259
▁የአማራ	-2260
▁በአገር	-2261
▁ምግብ	-2262
ማኖት	-2263
ዛሬው	-2264
ንቲባ	-2265
▁ኢንተር	-2266
▁አድርገው	-2267
▁መሀመድ	-2268
ኪና	-2269
ምጣት	-2270
▁አስር	-2271
ድብ	-2272
ፈፀመ	-2273
▁ህንፃ	-2274
▁ገለፃ	-2275
▁አትሌ	-2276
ፍን	-2277
▁በመግለፅ	-2278
▁ባለሙያ	-2279
▁መግባ	-2280
▁የመጣ	-2281
▁2011	-2282
or	-2283
▁አመልክተዋል	-2284
▁ዜና	-2285
ንቶ	-2286
▁ተችሏል	-2287
▁ጠባቂ	-2288
ሩም	-2289
15	-2290
ፓርቲ	-2291
ታን	-2292
▁ወዲህ	-2293
▁ተጋ	-2294
▁እዚህ	-2295
ባለው	-2296
ላቁ	-2297
▁ህፃ	-2298
▁ቁጥጥር	-2299
ላቂ	-2300
▁አስኪያ	-2301
ሻሻል	-2302
ወያ	-2303
ምባ	-2304
ፖር	-2305
▁ባለስልጣናት	-2306
▁ከውጭ	-2307
ይቶ	-2308
▁አልፎ	-2309
ጨዋታው	-2310
▁ጥና	-2311
▁በከተማ	-2312
▁እንድት	-2313
▁መሪዎች	-2314
▁ሊቀመን	-2315
ኬሽን	-2316
▁ትና	-2317
ዲት	-2318
▁መደረጉ	-2319
▁ተሳታፊ	-2320
▁ሆኗል	-2321
▁ከሚያ	-2322
ሾች	-2323
ግጥ	-2324
▁አፈፃፀም	-2325
መጡ	-2326
▁የበላይ	-2327
▁በመጀመሪያ	-2328
▁ለምን	-2329
▁ኔ	-2330
18	-2331
▁ምንጮች	-2332
ላኩ	-2333
▁እሱ	-2334
ያቂ	-2335
▁ጊዮርጊስ	-2336
▁የለው	-2337
▁በስተ	-2338
ኖራቸው	-2339
ማማ	-2340
▁ንግግር	-2341
▁22	-2342
ገልግሎ	-2343
ቆጠር	-2344
ንደ	-2345
ሀኒ	-2346
ርዱ	-2347
ዝና	-2348
የሁ	-2349
ራች	-2350
▁ጓ	-2351
▁ጋዜጣ	-2352
ፈልጋ	-2353
ባቸዋል	-2354
▁ባንኩ	-2355
▁ተሽከርካ	-2356
▁ዘግ	-2357
ጨት	-2358
ገረ	-2359
▁ረቂቅ	-2360
ስተዋል	-2361
ርቅ	-2362
ቃወ	-2363
▁ግብፅ	-2364
ታወቁ	-2365
▁ፈተና	-2366
▁በመጠቀም	-2367
ሳተፍ	-2368
▁አረ	-2369
ንጀል	-2370
▁ባለቤት	-2371
▁አጠና	-2372
▁የምግብ	-2373
ፈረን	-2374
ችላለ	-2375
▁ገበ	-2376
ክሽን	-2377
▁እርስ	-2378
▁ይላሉ	-2379
ሴቶች	-2380
▁እንደሚሆን	-2381
▁ሴት	-2382
▁መልክ	-2383
▁ችሏል	-2384
ቡር	-2385
▁በዚሁ	-2386
▁ወለ	-2387
▁ግጭ	-2388
ኒክ	-2389
▁ይሁንና	-2390
▁ለመስራት	-2391
▁ማንኛውም	-2392
▁ወረርሽኝ	-2393
▁የአንድ	-2394
ግባቡ	-2395
▁21	-2396
ህና	-2397
▁በስራ	-2398
▁በህገ	-2399
▁ከጥ	-2400
▁እነዚህን	-2401
▁ምርቶች	-2402
ናቀ	-2403
▁ጥቂት	-2404
▁መረጃዎች	-2405
ራቢ	-2406
ገውን	-2407
▁አብራር	-2408
▁ሪፖርተር	-2409
መለሱ	-2410
ብረተሰብ	-2411
ኳስ	-2412
▁ውጤታማ	-2413
▁ብዙሀን	-2414
ሀሴ	-2415
▁አዋጁ	-2416
ድረስ	-2417
▁ቋሚ	-2418
▁ሰባት	-2419
▁ከእነዚህ	-2420
▁መመሪያ	-2421
▁መመርያ	-2422
▁ሰኔ	-2423
በራቸው	-2424
ኬት	-2425
▁ርእሰ	-2426
▁መሰረታዊ	-2427
በራ	-2428
ገለፀው	-2429
ኮኖሚያ	-2430
ሪምየር	-2431
▁ኢትዮጵያዊ	-2432
▁ሰዎችን	-2433
▁ክለቦች	-2434
▁ቀላል	-2435
▁ተራ	-2436
ሀንነት	-2437
▁ብል	-2438
▁የቀረበ	-2439
▁አቋም	-2440
ካታ	-2441
▁ሰለ	-2442
ቡቲ	-2443
በኞች	-2444
▁ይዘ	-2445
▁የዩ	-2446
▁ልክ	-2447
መነ	-2448
▁ሲሆኑ	-2449
▁ጨዋታው	-2450
መደ	-2451
▁የደቡብ	-2452
▁ልማ	-2453
ጉም	-2454
▁ፕሮግራም	-2455
ተኛው	-2456
▁ህዝቡ	-2457
ሮቹ	-2458
▁ባሉ	-2459
▁ቆይታ	-2460
▁23	-2461
መሩ	-2462
ፈፀሙ	-2463
▁ተቃውሞ	-2464
▁ይበልጥ	-2465
▁ቅጣት	-2466
▁አገሪቱ	-2467
ለኝ	-2468
ንቃቄ	-2469
ታሉ	-2470
▁ማስረጃ	-2471
▁ልምድ	-2472
▁የሚገኝ	-2473
▁ልጆ	-2474
▁ጥቃ	-2475
.5	-2476
▁ተሰጥ	-2477
▁ውል	-2478
ቪድ	-2479
▁ሰነድ	-2480
▁ይገኛሉ	-2481
▁በኦሮሚያ	-2482
▁መልስ	-2483
ሹራንስ	-2484
ቆጠሩ	-2485
▁ማክ	-2486
▁በሁለት	-2487
▁ችሎ	-2488
▁ጠቅላላ	-2489
ገሪቱን	-2490
ገናኘ	-2491
▁መነሻ	-2492
▁የተፈ	-2493
▁በማሳ	-2494
▁ዋስትና	-2495
▁የትግራይ	-2496
▁በምር	-2497
ህንነት	-2498
ጠዋል	-2499
ገበ	-2500
▁አምባሳደር	-2501
ዲዮ	-2502
ጠፋ	-2503
▁ባለፈ	-2504
▁አቅርቦት	-2505
▁በዋና	-2506
ፌደራል	-2507
▁ከንቲባ	-2508
▁እንዲፈ	-2509
ድኑ	-2510
▁በየአ	-2511
▁ቅሬታ	-2512
ሄዱ	-2513
▁ምሳሌ	-2514
ሞት	-2515
ፕሎ	-2516
▁ሰብሳቢ	-2517
ጥን	-2518
በትና	-2519
ናገሩ	-2520
ቆጥ	-2521
ገባት	-2522
▁እድሜ	-2523
ፈጠረው	-2524
▁ህክምና	-2525
ታዎች	-2526
▁ተግባራት	-2527
▁ብሄር	-2528
ዘርፉ	-2529
▁ሁሉንም	-2530
▁በቀጥታ	-2531
▁በመጨረሻ	-2532
መልከት	-2533
▁ክት	-2534
ሳሰ	-2535
▁ማር	-2536
▁ገና	-2537
▁አቅርበዋል	-2538
▁ለሀ	-2539
ዥን	-2540
ረዱ	-2541
▁የተናገሩት	-2542
ማቸውን	-2543
▁ስምም	-2544
▁በአግባቡ	-2545
በሌ	-2546
ርፍ	-2547
▁ሹ	-2548
ኮኖሚያዊ	-2549
ጦች	-2550
ይቱ	-2551
▁አስቀ	-2552
▁አድርገዋል	-2553
▁ዛ	-2554
▁ማሻሻያ	-2555
ወደ	-2556
▁አነስተኛ	-2557
▁በሁለተኛ	-2558
▁'	-2559
▁ያስረዳ	-2560
▁የውድድር	-2561
ጥቃት	-2562
▁እውነ	-2563
▁ዮሀንስ	-2564
▁አማራጭ	-2565
▁ማረ	-2566
ሰጣቸው	-2567
ጠውን	-2568
ጣቸው	-2569
▁መግ	-2570
▁ሊሆኑ	-2571
▁ይታ	-2572
▁አስመልክቶ	-2573
ስቸኳይ	-2574
▁አጥቂ	-2575
▁አንተ	-2576
ጊዜው	-2577
om	-2578
ጅቱ	-2579
▁የዚህ	-2580
▁የዋጋ	-2581
ሆኑም	-2582
ንግሊዝ	-2583
▁የሚለውን	-2584
ስተዳደር	-2585
▁መኮ	-2586
▁ለህዝብ	-2587
▁መንግስታዊ	-2588
▁ተለ	-2589
▁እንደገለፁት	-2590
▁መወሰ	-2591
▁በማን	-2592
▁ብርሀ	-2593
▁የደረ	-2594
▁በህግ	-2595
▁መስከረም	-2596
▁በመሆኑ፣	-2597
▁ይታወቃል	-2598
▁ደጋፊ	-2599
▁የኦሮሚያ	-2600
▁ዘገባ	-2601
ኒው	-2602
▁28	-2603
▁ይናገራሉ	-2604
ርስቶ	-2605
▁ጠይቀዋል	-2606
▁እየተደረገ	-2607
▁እስራ	-2608
ገሩ	-2609
▁ጳ	-2610
▁በዚያ	-2611
▁አግባብ	-2612
▁ወሳኝ	-2613
▁ከሁለት	-2614
▁ትናንት	-2615
▁ወይዘ	-2616
▁ድርጊት	-2617
▁ካር	-2618
▁ወረ	-2619
ቷን	-2620
▁ጌታ	-2621
▁ሀብረት	-2622
ዛቤ	-2623
▁ጥቅምት	-2624
▁ደመ	-2625
▁ተያይ	-2626
en	-2627
▁ሚሊየን	-2628
▁ክለብ	-2629
ነጋገር	-2630
ያጭ	-2631
▁እም	-2632
ለያየ	-2633
▁መረጃዎችን	-2634
▁ይደ	-2635
ሪው	-2636
▁ደረ	-2637
▁ባለሀብቶች	-2638
▁አላቸው	-2639
▁ፍሬ	-2640
▁ስራዎችን	-2641
▁ሊቀመንበር	-2642
▁27	-2643
ሪት	-2644
▁የሚያደርጉ	-2645
▁ይኖ	-2646
ገመ	-2647
ዋሚ	-2648
▁በውጭ	-2649
ንብ	-2650
▁ተደራ	-2651
▁ኢንቨስትመንት	-2652
ግም	-2653
ቻላል	-2654
▁ልዩነት	-2655
▁ተቀባይ	-2656
▁ዘመቻ	-2657
▁ፕሬዚዳን	-2658
▁አጀ	-2659
▁ወገኖች	-2660
▁ተስፋዬ	-2661
▁አኳ	-2662
▁የህክምና	-2663
ሮው	-2664
▁ጂ	-2665
ጡን	-2666
ww	-2667
ዮችን	-2668
▁ሶስተኛ	-2669
ጣጥ	-2670
▁ስጋ	-2671
▁አማካኝነት	-2672
ፍና	-2673
▁ወደፊት	-2674
▁መሸ	-2675
▁ፍቅር	-2676
▁በነበረው	-2677
▁ቀጠ	-2678
▁አስደ	-2679
ከሉ	-2680
ኳር	-2681
ሀዊ	-2682
ሊስ	-2683
ንባታ	-2684
▁ለምሳሌ	-2685
ገራችን	-2686
▁ያመለክታል	-2687
ፕሎማ	-2688
▁ለፍ	-2689
ስትራክሽን	-2690
▁ይቻላል	-2691
▁ወቅታዊ	-2692
ላከ	-2693
▁በሁሉም	-2694
ደል	-2695
ኢን	-2696
▁ስህ	-2697
▁በትግራይ	-2698
▁የሆነውን	-2699
▁በዛሬው	-2700
▁ለብ	-2701
▁አቢ	-2702
ጠናቀቁ	-2703
ቃቸው	-2704
ሳካ	-2705
▁ለመፍጠር	-2706
ከናወኑ	-2707
ዶችን	-2708
▁ያስተ	-2709
▁ይሄ	-2710
ነታቸውን	-2711
▁ማጣ	-2712
የአ	-2713
▁ትውል	-2714
▁ይዘው	-2715
▁እንደገለፁ	-2716
ላትን	-2717
▁የግብርና	-2718
▁ኤሌክትሪክ	-2719
ባበር	-2720
ሴት	-2721
ለበት	-2722
tt	-2723
ጋና	-2724
▁የመከላከያ	-2725
ጀር	-2726
▁ጥቅ	-2727
▁ዘመናዊ	-2728
▁አወ	-2729
ላይታ	-2730
▁ህብረት	-2731
▁ያደረገው	-2732
▁ትንሽ	-2733
▁ይኖር	-2734
▁መደበኛ	-2735
▁የደረሰ	-2736
▁እንደተናገሩት	-2737
ኒስት	-2738
ልጋ	-2739
▁ወገን	-2740
▁በቀላሉ	-2741
▁እንደገና	-2742
ስፋት	-2743
▁ማስታወ	-2744
ዳዩ	-2745
▁ተመ	-2746
ዳና	-2747
▁የቤት	-2748
▁አፍ	-2749
▁26	-2750
▁ጉብኝ	-2751
ሆነው	-2752
▁የባለ	-2753
▁የኤሌክትሪክ	-2754
▁ድርድር	-2755
▁ዴሞክራሲያዊ	-2756
ዳረ	-2757
▁ተጠርጣሪ	-2758
▁ስሜት	-2759
▁በግልፅ	-2760
▁እየተሰራ	-2761
▁ግንቦት	-2762
ኖችን	-2763
ፈጠሩ	-2764
▁የይ	-2765
▁ከአዲስ	-2766
▁አርብ	-2767
▁የምታ	-2768
▁ቶን	-2769
▁ግም	-2770
▁አውሮፕ	-2771
ካሄዱ	-2772
al	-2773
▁ሀዋሳ	-2774
▁የተደረገ	-2775
▁ኢኮኖሚያዊ	-2776
▁ሬ	-2777
▁የመጀመሪያው	-2778
▁የሚተ	-2779
ንፈ	-2780
ቫይረሱ	-2781
ኩት	-2782
▁ያስፈል	-2783
ሰስ	-2784
ገልግሎት	-2785
▁እንደማ	-2786
▁የባንኩ	-2787
▁ባደረጉት	-2788
ጣቱ	-2789
ፋሉ	-2790
▁h	-2791
ቀፍ	-2792
ንድን	-2793
ጠኞች	-2794
▁መዘ	-2795
ራዘ	-2796
▁አማካይነት	-2797
ዝቡ	-2798
ክተሩ	-2799
▁ኩባንያው	-2800
-1	-2801
ቀመጥ	-2802
▁የባንክ	-2803
▁ደስታ	-2804
▁ወይዘሮ	-2805
▁የተሰማ	-2806
▁ፈፅ	-2807
▁መጀመሪያ	-2808
ፋን	-2809
ቴጂ	-2810
199	-2811
ገበያ	-2812
▁እያደረገ	-2813
ቻለው	-2814
በርካታ	-2815
▁ያሉትን	-2816
▁በፖ	-2817
ቀል	-2818
▁ነጋዴ	-2819
▁የሰራ	-2820
▁እንደገለፁት፣	-2821
▁የተመሰረተ	-2822
▁አሳስበዋል	-2823
▁ቅርንጫ	-2824
▁ትብብር	-2825
ጋጠ	-2826
ar	-2827
ያዘው	-2828
▁ተቋማ	-2829
▁አለባቸው	-2830
▁አብራርተዋል	-2831
ደርሱ	-2832
▁አርሶ	-2833
▁ከዚህም	-2834
ጨዋታ	-2835
▁የተገኘ	-2836
ቀሳ	-2837
▁በአካባቢው	-2838
▁ሲሆን፤	-2839
ችልም	-2840
ብርሀ	-2841
▁ዘርፎች	-2842
▁በፅ	-2843
ቅርብ	-2844
▁በቦ	-2845
▁ነጥ	-2846
ለካ	-2847
ሎቹ	-2848
▁ጭማሪ	-2849
▁ወጣት	-2850
ከናው	-2851
▁በፕ	-2852
▁የብሄራዊ	-2853
ሎስ	-2854
▁በሀላ	-2855
▁በቀጣ	-2856
ሁድ	-2857
▁ራሱን	-2858
▁አቤቱ	-2859
▁የመጀመርያ	-2860
ራሽ	-2861
ስቡ	-2862
▁ነፃነት	-2863
▁የተባበሩት	-2864
▁!	-2865
▁የዲ	-2866
ልፅግና	-2867
▁አስኪያጅ	-2868
▁በአማራ	-2869
▁ስደ	-2870
▁የቱ	-2871
▁ሆቴል	-2872
▁ስፖርት	-2873
▁አብዱ	-2874
▁ቀድሞ	-2875
ነሰ	-2876
▁ያመ	-2877
ከላዊ	-2878
▁ነው፣	-2879
ሮጀ	-2880
ዳሜ	-2881
▁መስተዳ	-2882
ሳሉ	-2883
▁ልም	-2884
ህል	-2885
▁ወታደራዊ	-2886
ገልፁ	-2887
▁ለአንድ	-2888
ረጋጋት	-2889
ለል	-2890
ውሰድ	-2891
▁ያስታወ	-2892
▁ክር	-2893
▁ችሎት	-2894
▁እውቅና	-2895
▁አንድነት	-2896
ሪዝም	-2897
▁የአምላክ	-2898
▁አንዳን	-2899
ጎችን	-2900
▁የሚገባ	-2901
ተኝነት	-2902
▁የዜ	-2903
ሂሳብ	-2904
ክታር	-2905
▁ሆስ	-2906
ስተው	-2907
መለከተው	-2908
▁ኑ	-2909
▁ምንጭ	-2910
▁የፅ	-2911
▁ቀዳሚ	-2912
▁አረጋግ	-2913
▁በቀለ	-2914
▁በመስጠት	-2915
-0	-2916
ጋዜ	-2917
ክሩ	-2918
ዋቂ	-2919
▁እንደሆኑ	-2920
በትም	-2921
▁ፕሬዝዳንት	-2922
▁ድንጋጌ	-2923
ንቀሳቀሱ	-2924
▁ይቀ	-2925
▁ተያይዞ	-2926
▁ምሁ	-2927
▁የተለየ	-2928
▁አለመሆኑ	-2929
12	-2930
ጋጥ	-2931
▁50	-2932
▁ፀሀፊ	-2933
▁ያደረጉት	-2934
ርስቶስ	-2935
▁ጠቅሰዋል	-2936
▁የእር	-2937
▁አክሲ	-2938
▁ፍፁም	-2939
በአ	-2940
ጀመርያው	-2941
▁ሰጥተዋል	-2942
▁ጥላ	-2943
ሰጠ	-2944
▁ጥራት	-2945
ካን	-2946
▁እንዳለባቸው	-2947
ሜሽን	-2948
▁ተጠያቂ	-2949
▁የምርመራ	-2950
▁ኤል	-2951
▁የተከሰ	-2952
አብ	-2953
▁የተወሰነ	-2954
ሲል	-2955
▁በኢን	-2956
▁በድጋሚ	-2957
ሯቸው	-2958
▁ግዛት	-2959
▁/	-2960
ድርሻ	-2961
▁አክለዋል	-2962
▁ስትራ	-2963
▁መሆናቸው	-2964
እና	-2965
▁2009	-2966
▁ቪ	-2967
ሳን	-2968
በላ	-2969
▁ይፈ	-2970
▁ሳቢያ	-2971
ናልባት	-2972
ቢሲ	-2973
▁የማእ	-2974
▁እንዳልሆነ	-2975
ችሁን	-2976
▁ሰላማዊ	-2977
▁ፅሁፍ	-2978
ወሰን	-2979
▁ይሰጣ	-2980
▁ግዴ	-2981
▁0	-2982
ሊን	-2983
▁ተብለው	-2984
ይታ	-2985
▁S	-2986
▁ኮርፖሬሽን	-2987
ቐለ	-2988
▁የሚያሳ	-2989
▁የሚሰራ	-2990
▁መቆየ	-2991
▁ስለተ	-2992
▁ካለው	-2993
▁ፕሮፌ	-2994
ፈዋል	-2995
▁ስራው	-2996
ጣሪዎች	-2997
▁ዝግጁ	-2998
st	-2999
▁እንዳሉት	-3000
ገለግ	-3001
▁መጋቢት	-3002
▁ከሌ	-3003
▁አኳያ	-3004
▁ተጫዋች	-3005
ትም	-3006
▁በመሆናቸው	-3007
▁የቢ	-3008
ሰልጣ	-3009
▁ሳያ	-3010
▁ትራንስፖርት	-3011
ፈለጉ	-3012
▁ስቴትስ	-3013
▁የሁለቱ	-3014
17	-3015
▁ለስ	-3016
ቸጋሪ	-3017
▁ተመስ	-3018
▁ብሄረ	-3019
▁ዝቅተኛ	-3020
▁ሰጪ	-3021
ክለቡ	-3022
▁ስራውን	-3023
ናይ	-3024
▁ሰጥቷል	-3025
ላችን	-3026
▁ላይም	-3027
▁መጠቀም	-3028
ቾችን	-3029
ሰኞ	-3030
▁ብቃት	-3031
▁ቻይና	-3032
ኮም	-3033
▁ዳዊት	-3034
▁ጅማ	-3035
▁ካሉ	-3036
▁ድረ	-3037
ዘጋጀት	-3038
▁ተመራ	-3039
ፈልገው	-3040
60	-3041
ሴን	-3042
ጀምር	-3043
▁ተል	-3044
ዘዋ	-3045
▁29	-3046
▁ተወዳ	-3047
▁እንደምት	-3048
//	-3049
ላቸዋል	-3050
▁የሚመራ	-3051
▁ቁር	-3052
▁ኢንጂ	-3053
ኔት	-3054
ttp	-3055
▁ሳምን	-3056
▁የነዳጅ	-3057
▁ተቀባይነት	-3058
ንቀሳቀስ	-3059
መና	-3060
ጥረው	-3061
▁ሰብአዊ	-3062
▁የሚሉት	-3063
▁ከሳ	-3064
▁አጀንዳ	-3065
▁በፀ	-3066
▁ከት	-3067
▁እስኪ	-3068
ሶችን	-3069
▁በካ	-3070
://	-3071
ቪዥን	-3072
▁ቀጠሮ	-3073
ይማኖት	-3074
▁እቅ	-3075
▁መፈ	-3076
▁ይኸ	-3077
▁ነዋሪ	-3078
ጣኝ	-3079
▁ሰን	-3080
▁40	-3081
ከተል	-3082
▁ሪፖር	-3083
▁አዳማ	-3084
▁የኢንዱስትሪ	-3085
▁የብድር	-3086
▁ጀም	-3087
ያንስ	-3088
▁ታስ	-3089
▁እናንተ	-3090
▁ጉል	-3091
▁ቅድመ	-3092
ኩባንያ	-3093
▁ኮሚቴው	-3094
▁የቻይና	-3095
▁መገኘ	-3096
ሙስ	-3097
ጓዝ	-3098
ቻይና	-3099
▁ርቀት	-3100
ጀም	-3101
▁ኤር	-3102
▁ችግሮችን	-3103
ንክ	-3104
▁እንደሚገኙ	-3105
ሬዚ	-3106
▁ከመስ	-3107
▁2008	-3108
ተኮ	-3109
ቲክ	-3110
▁አሻ	-3111
ኦሮሞ	-3112
▁ግርማ	-3113
▁ፖለቲካዊ	-3114
ችኋ	-3115
ፎርሜሽን	-3116
▁የእድ	-3117
ቆይ	-3118
▁ጉድ	-3119
▁በግብ	-3120
▁በአሜሪካ	-3121
▁ክርስቲያ	-3122
▁በሀገሪቱ	-3123
▁ድርጅቱ	-3124
▁ተቀብ	-3125
▁ከተለያዩ	-3126
ካኤል	-3127
▁የስነ	-3128
▁ዱ	-3129
le	-3130
▁ሁኔታዎች	-3131
▁ምናልባት	-3132
▁ማለትም	-3133
ባር	-3134
▁ሀምሌ	-3135
ጠኝነት	-3136
ረፍት	-3137
14	-3138
▁ታደሰ	-3139
▁ማርያም	-3140
▁የሊ	-3141
ከናወነ	-3142
ላእክት	-3143
ጠቀሱት	-3144
▁ፕሪምየር	-3145
▁ባወጣው	-3146
▁በመም	-3147
▁፲	-3148
▁የገቢ	-3149
መም	-3150
▁መፍጠር	-3151
ግግር	-3152
▁ገደ	-3153
▁ታላቅ	-3154
▁ዳን	-3155
▁http	-3156
▁ብዬ	-3157
ገራቸው	-3158
▁ገፃ	-3159
ተናል	-3160
▁የወንጀል	-3161
▁መስጠ	-3162
▁ማሀበራት	-3163
▁በውይ	-3164
▁የሚሉ	-3165
▁ተደርጓል	-3166
▁ነሀሴ	-3167
▁ከደ	-3168
ገናኝ	-3169
▁ከፋ	-3170
▁ለዘ	-3171
ኔራል	-3172
ፓርላማ	-3173
ኤስ	-3174
▁መርማሪ	-3175
▁በሚገኘው	-3176
▁ጊዜያት	-3177
▁መፍ	-3178
▁ማቅረብ	-3179
ቱ፣	-3180
▁ደንብ	-3181
ነገር	-3182
▁ምክንያቶች	-3183
ዶቹ	-3184
▁አብሮ	-3185
▁እግዚአብሄር	-3186
ፆች	-3187
▁ደም	-3188
▁ለወ	-3189
▁የጠቆ	-3190
▁በህዝብ	-3191
▁አቅራቢ	-3192
ራው	-3193
▁መጣ	-3194
▁በመጥ	-3195
▁C	-3196
ዴሞክራሲ	-3197
▁አገራዊ	-3198
▁ጠቁመው	-3199
▁የግድ	-3200
ወሰነ	-3201
▁ይሆዋ	-3202
በሪያ	-3203
▁የን	-3204
▁ሄክታር	-3205
▁ስትራቴጂ	-3206
ቪል	-3207
ጊያ	-3208
▁ጉዳዩን	-3209
▁አንስቶ	-3210
ወስድ	-3211
አይ	-3212
▁ለማሳደግ	-3213
▁ሉ	-3214
▁የምና	-3215
ቆች	-3216
▁የተቀመ	-3217
▁A	-3218
▁እንዳሉ	-3219
▁በሁለተኛው	-3220
▁ነኝ	-3221
▁ታማ	-3222
▁ግዥ	-3223
ዎችም	-3224
ጁን	-3225
▁የወሰ	-3226
▁ሲባል	-3227
▁ውድድ	-3228
▁የገበያ	-3229
▁የተባሉ	-3230
▁በሳ	-3231
▁ለፍርድ	-3232
▁የሚኖሩ	-3233
▁ተገ	-3234
▁የሚባል	-3235
▁የፋና	-3236
የሩ	-3237
▁አመለካ	-3238
ልቃ	-3239
ጥሩ	-3240
▁ተስማ	-3241
ረከ	-3242
▁ነዳጅ	-3243
▁የሀይል	-3244
▁መጨ	-3245
▁የመል	-3246
▁የቁ	-3247
▁የካቲት	-3248
ሌት	-3249
ሞላ	-3250
▁ገዥ	-3251
▁ለዚህም	-3252
▁ክርስቲያን	-3253
▁አስቸጋሪ	-3254
▁ለመገንባት	-3255
መለከታቸው	-3256
ሊክ	-3257
▁እንደመ	-3258
▁የሚሆን	-3259
ሲያ	-3260
▁ተነ	-3261
▁ፍቃ	-3262
▁አቅርቦ	-3263
ሏቸው	-3264
▁እንደሚችሉ	-3265
▁ሆይ	-3266
ናቂ	-3267
▁ምርጥ	-3268
▁ካፒታል	-3269
▁ህፃናት	-3270
ድቅ	-3271
▁እየታ	-3272
▁የባህር	-3273
▁ተሸ	-3274
ኬንያ	-3275
ወገድ	-3276
▁ቀይ	-3277
▁ያደርጋል	-3278
▁የያህዌ	-3279
▁ዋነኛ	-3280
2013	-3281
▁አስተያየ	-3282
▁አስተዳደሩ	-3283
ቶች፣	-3284
▁መቅ	-3285
▁ደቂቃዎች	-3286
▁ቀጣይ	-3287
መቻ	-3288
▁ገልፀው	-3289
ሊሞች	-3290
▁የፓርቲ	-3291
40	-3292
ዘጋጁ	-3293
▁ደስ	-3294
▁ጌታቸው	-3295
ቋረጥ	-3296
▁ድንበር	-3297
▁የሚጠ	-3298
ሪስ	-3299
▁መድሀኒ	-3300
▁ይመስላል	-3301
ግዳ	-3302
▁እንደሆነም	-3303
▁ቲ	-3304
ችግ	-3305
▁መንፈስ	-3306
▁የተከ	-3307
▁ዘዴ	-3308
ሮድ	-3309
▁በድር	-3310
እክ	-3311
▁ወርቅ	-3312
▁ህገወጥ	-3313
ምረ	-3314
▁ባስ	-3315
▁ሰአ	-3316
ቤል	-3317
ደርጋ	-3318
▁ስምንት	-3319
▁አልነበረ	-3320
▁ዝግጅ	-3321
▁የተደረገው	-3322
▁በዝ	-3323
▁በእርግጥ	-3324
▁ቆይቷል	-3325
▁በአጭር	-3326
▁ፒ	-3327
▁መገናኛ	-3328
▁ሁለተኛው	-3329
▁ቀውስ	-3330
▁የሚደረግ	-3331
▁የመሬት	-3332
▁ድቻ	-3333
▁በየአመቱ	-3334
▁በይፋ	-3335
▁ጨረታ	-3336
ማሉ	-3337
ገነቡ	-3338
ሪንግ	-3339
ባባሪ	-3340
▁በሙ	-3341
▁መኖሪያ	-3342
▁ወዳ	-3343
▁አሳል	-3344
ጪው	-3345
▁ሲሉም	-3346
▁ለማቅረብ	-3347
▁በነፃ	-3348
▁ትክክለኛ	-3349
ዋእ	-3350
▁ለመግ	-3351
▁መሰረተ	-3352
▁ክትትል	-3353
▁ለማረጋገጥ	-3354
▁ክስተ	-3355
▁ለመሆን	-3356
ልጣን	-3357
▁አድራ	-3358
▁ማረጋገ	-3359
ላጆች	-3360
▁ላለፉት	-3361
▁ምስራቅ	-3362
▁ቀጣ	-3363
ዩኒኬሽን	-3364
▁ምእራፍ	-3365
▁ያለበት	-3366
▁ታሪካ	-3367
▁መብቶች	-3368
ገቡት	-3369
▁እንስ	-3370
▁ምህ	-3371
▁ፈጣን	-3372
▁በራሱ	-3373
.2	-3374
▁ሊያስ	-3375
▁ኬንያ	-3376
▁የምክር	-3377
በተ	-3378
ገማ	-3379
▁ከመንግስት	-3380
ዘጋጀው	-3381
ፓን	-3382
▁ለጥ	-3383
▁አስቀድሞ	-3384
ሟላ	-3385
2011	-3386
▁ለግ	-3387
▁አማካሪ	-3388
▁የሀገሪቱ	-3389
▁ምቹ	-3390
▁ደሳ	-3391
ሰቦ	-3392
▁በኋላ፣	-3393
▁የሳ	-3394
ይጣ	-3395
▁ጠቃ	-3396
▁እንዳላቸው	-3397
ገባቸው	-3398
▁ኮንት	-3399
▁የኢትዮጵያን	-3400
ፍሬ	-3401
▁ደህንነት	-3402
▁ደሀንነት	-3403
ሽት	-3404
▁መልሶ	-3405
ሳቁ	-3406
▁የአውሮፓ	-3407
▁መኮንን	-3408
▁ነበር፤	-3409
▁ስርአቱ	-3410
ክኒክ	-3411
▁ግዙ	-3412
ማግ	-3413
▁ሎ	-3414
▁በሶ	-3415
▁መሀል	-3416
▁አቻ	-3417
▁ንብረ	-3418
▁ዘንድሮ	-3419
▁ወንጀ	-3420
▁የሚሰጥ	-3421
ክክር	-3422
▁በዳ	-3423
ንዳንድ	-3424
▁አደረጃ	-3425
▁ትርጉም	-3426
▁እንድን	-3427
▁ኮሚሽነር	-3428
▁የቤተ	-3429
▁የሶ	-3430
▁የተመረ	-3431
ቋረ	-3432
ዲያው	-3433
ወጣት	-3434
ጨመረ	-3435
▁በአብዛ	-3436
ዎት	-3437
▁የተገኘው	-3438
▁ማህበረሰብ	-3439
▁እንዲሆኑ	-3440
ሁዳ	-3441
▁የቆየ	-3442
▁በአንፃ	-3443
▁ለሚያ	-3444
▁ማህበራዊ	-3445
▁ትርፍ	-3446
▁ጠቃሚ	-3447
ረጅም	-3448
▁በትክ	-3449
▁ኢትዮ	-3450
▁የተወ	-3451
▁የክልል	-3452
ቁር	-3453
ጠነ	-3454
▁ይቅር	-3455
▁በቡ	-3456
ያቸውን	-3457
▁ተከታታይ	-3458
ዚቃ	-3459
▁ማክሰኞ	-3460
▁ደሳለኝ	-3461
ሳሰብ	-3462
▁ይገልፃሉ	-3463
▁ቀበሌ	-3464
ሸጥ	-3465
com	-3466
▁ትስ	-3467
ጎብ	-3468
ነት፣	-3469
▁ምድብ	-3470
▁ባደረገው	-3471
ራምፕ	-3472
ፈፅ	-3473
ሚንቶ	-3474
ፌዴሪ	-3475
▁ያደረጉ	-3476
በታ	-3477
እራብ	-3478
▁መጠየ	-3479
▁በመጠ	-3480
▁ብዛት	-3481
ከሩ	-3482
▁በቴ	-3483
ዋት	-3484
ሚዎች	-3485
▁ዳይሬክተሩ	-3486
13	-3487
ይህ	-3488
▁የህዳሴ	-3489
▁ኢንስ	-3490
ላለች	-3491
ሰና	-3492
▁አጠቃ	-3493
▁ታክስ	-3494
▁ዘላቂ	-3495
▁ብርሀኑ	-3496
?"	-3497
▁የቴሌ	-3498
▁መከላከል	-3499
ሀሳስ	-3500
ሶማሌ	-3501
ቃሉ	-3502
▁ጠብ	-3503
ከቱ	-3504
▁በገ	-3505
▁በማቅረብ	-3506
▁ናት	-3507
ልማ	-3508
▁መፃ	-3509
▁ከብ	-3510
ተኞችን	-3511
▁በእጅ	-3512
▁ሰሞ	-3513
▁በፌዴራል	-3514
25	-3515
▁ትልቁ	-3516
▁ክብር	-3517
▁አመታዊ	-3518
ረክ	-3519
ነበር	-3520
ገበው	-3521
▁አቤቱታ	-3522
▁ዘግቧል	-3523
ውጣ	-3524
▁የተቋቋ	-3525
▁የጠቅላይ	-3526
ዮቹ	-3527
ማግሌ	-3528
ጃሉ	-3529
▁ተር	-3530
▁ሰለሞን	-3531
▁ያስፈልጋል	-3532
▁ፌ	-3533
▁የተሻ	-3534
ዳጊ	-3535
▁ቢያንስ	-3536
ራፊ	-3537
▁የግንባታ	-3538
▁በተካሄደው	-3539
▁መጀመ	-3540
▁በዋናነት	-3541
▁የኢንቨስትመንት	-3542
▁100	-3543
▁የትራንስፖርት	-3544
ክቷል	-3545
▁መሰል	-3546
▁የእስራኤል	-3547
▁ቅዳሜ	-3548
ሰቢያ	-3549
▁ሰኞ	-3550
ገኘውን	-3551
ጌታ	-3552
ለቱን	-3553
▁ምግባር	-3554
▁ሀይሉ	-3555
▁ማቆ	-3556
▁ቀሪ	-3557
▁በሊ	-3558
ቁሟል	-3559
ላቱ	-3560
▁ያሸን	-3561
ናሽናል	-3562
▁ሰማ	-3563
▁በስተቀር	-3564
▁የተቃ	-3565
▁ተገለፀ	-3566
▁የሚቆጠሩ	-3567
ጋቸውን	-3568
▁እያለ	-3569
▁ማሀበረሰብ	-3570
መለከቱ	-3571
▁ሰላምና	-3572
▁ጥንቃቄ	-3573
▁ተናግሯል	-3574
▁የወደቁ	-3575
▁ከበደ	-3576
▁ግምት	-3577
▁እኩል	-3578
▁ሰራተኛ	-3579
▁የአገሪቱን	-3580
▁የመንገድ	-3581
▁ስህተት	-3582
▁ግንዛቤ	-3583
ጣኔ	-3584
▁አቢይ	-3585
▁ስርጭት	-3586
▁ጉብኝት	-3587
ኖስ	-3588
ህሳስ	-3589
ምባሲ	-3590
ገልፅ	-3591
▁እንደም	-3592
▁ይደረ	-3593
▁በሽታ	-3594
ደገፍ	-3595
ጠይቅ	-3596
▁እየተካሄደ	-3597
▁የቡና	-3598
▁ኮሚሽኑ	-3599
▁ሚዲያ	-3600
▁ሳምንታት	-3601
ዲን	-3602
▁አልቻ	-3603
▁የጣ	-3604
▁ምስክ	-3605
▁አብርሀ	-3606
▁በተደረገው	-3607
▁ማመን	-3608
▁ወንዶች	-3609
ዳቸውን	-3610
▁ስታዲ	-3611
ሟላት	-3612
▁ችግሩን	-3613
መዝገብ	-3614
▁እህ	-3615
ሬን	-3616
በት፣	-3617
ውውር	-3618
ዝገባ	-3619
▁በብዙ	-3620
▁ተልእ	-3621
▁ተቀም	-3622
▁ሲነ	-3623
ገንዝ	-3624
▁የህወሀት	-3625
16	-3626
▁የሀገር	-3627
ረጋጋ	-3628
▁ህዳሴ	-3629
▁ገልፀው፣	-3630
▁በሚመለከት	-3631
▁እጩ	-3632
▁ባለቤ	-3633
▁ያለመ	-3634
▁በእነዚህ	-3635
እምሮ	-3636
ሰበው	-3637
▁የሚወ	-3638
ችውን	-3639
▁ካልተ	-3640
▁የተጣ	-3641
▁ለቀ	-3642
▁መስክ	-3643
▁የመላእክት	-3644
▁እራ	-3645
▁አሳይ	-3646
▁የሚገ	-3647
ፍራሉ	-3648
▁የግብፅ	-3649
ፋቸው	-3650
es	-3651
▁ዳኛ	-3652
ቆዩ	-3653
▁የአካባቢ	-3654
▁ያድር	-3655
▁የተባለ	-3656
ሆኑት	-3657
▁ታይ	-3658
▁የሚሰሩ	-3659
▁በን	-3660
በረሰቡ	-3661
ion	-3662
ናገድ	-3663
▁ቤተሰብ	-3664
ይጣንም	-3665
ዥም	-3666
▁በመል	-3667
▁ልኡ	-3668
መስረት	-3669
▁የፍትወት	-3670
▁ብልጫ	-3671
.3	-3672
▁የሚገኙት	-3673
▁ተይ	-3674
▁ያሸንፋሉ	-3675
ለትን	-3676
▁እቃዎች	-3677
▁ዘርፉ	-3678
▁የሚያደርግ	-3679
▁ግዴታ	-3680
▁በዚ	-3681
▁የፊ	-3682
ሙዩኒኬሽን	-3683
▁ታዋቂ	-3684
▁ያውጃሉ	-3685
▁«	-3686
▁የያዘ	-3687
▁የምርት	-3688
▁በምን	-3689
▁የእግር	-3690
ሰለ	-3691
ጎል	-3692
▁ስኬ	-3693
▁እነሱ	-3694
▁እንዲቀ	-3695
ካካ	-3696
▁ተወስ	-3697
▁ቅድሚያ	-3698
▁እንዳያ	-3699
▁ይደፍራሉ	-3700
▁ወንዝ	-3701
▁ገደብ	-3702
▁ኔፊ	-3703
▁እንዲያስ	-3704
▁ራሳቸውን	-3705
▁መቀመ	-3706
▁ተነግ	-3707
▁ኔፊሊሞች	-3708
ታወቅ	-3709
▁ተሰማ	-3710
▁ለሰይጣንም	-3711
▁አሸን	-3712
ጠናቀቀ	-3713
▁ሲያስ	-3714
▁ለመጀመሪያ	-3715
▁ማየት	-3716
▁የቀድሞው	-3717
▁የህዝ	-3718
ሙና	-3719
▁ክለቡ	-3720
ለመ	-3721
ልድ	-3722
▁ሁለቱም	-3723
▁አገልጋ	-3724
▁መሆኑን፣	-3725
ርነት	-3726
▁ትግል	-3727
▁በሚገኙ	-3728
▁ያሳያል	-3729
▁ክፍተት	-3730
▁እያንዳንዱ	-3731
▁አፅ	-3732
ሳው	-3733
ድሮስ	-3734
▁አክሲዮን	-3735
▁መስዋእ	-3736
ዳው	-3737
▁የጊዜ	-3738
▁ሀሳቦች	-3739
▁የመሳሰ	-3740
▁ኦሮ	-3741
▁ፀጋ	-3742
▁ነገሮችን	-3743
▁የፌደራል	-3744
▁ማዳ	-3745
▁በስፋት	-3746
ሉ፣	-3747
ሾቹ	-3748
ኖሪያ	-3749
▁ሰሞኑን	-3750
ጣቂ	-3751
▁ማንም	-3752
▁70	-3753
▁ብርሀን	-3754
▁2007	-3755
▁በኋላም	-3756
ኑት	-3757
ውሎስ	-3758
▁ፈር	-3759
ic	-3760
ላካ	-3761
▁መቻ	-3762
▁በምት	-3763
▁ተሞ	-3764
ፈፀመው	-3765
is	-3766
▁ብቸ	-3767
▁አልባ	-3768
▁አዘጋጅ	-3769
ጠቅላላ	-3770
▁ችግሩ	-3771
▁ሽማግሌ	-3772
▁መሳሪያዎች	-3773
ጋንዳ	-3774
ከን	-3775
ጎን	-3776
▁ዴኤ	-3777
▁ሰጥቶ	-3778
▁ግንባር	-3779
▁ህጉ	-3780
▁እሁድ	-3781
▁የተፈጥሮ	-3782
▁ሌሎችም	-3783
▁ምልክት	-3784
▁ለአዲስ	-3785
▁መኪና	-3786
▁ሽልማት	-3787
▁ይሰራ	-3788
ኤም	-3789
▁ከላይ	-3790
ፃሜ	-3791
▁ከሶስት	-3792
▁ፕሮፌሰር	-3793
▁የእርስ	-3794
,000	-3795
▁ብለን	-3796
▁ለመመለስ	-3797
ቴን	-3798
▁በሶስት	-3799
▁ታሪ	-3800
▁ለሁለት	-3801
ረግ	-3802
▁ማሽ	-3803
▁መደረጉን	-3804
▁P	-3805
▁አውጥ	-3806
▁የሂሳብ	-3807
.6	-3808
▁ዳግም	-3809
▁ተልእኮ	-3810
ከፊ	-3811
▁አንደ	-3812
▁እያስ	-3813
▁ሲዳማ	-3814
▁ታሪካዊ	-3815
▁ክርክር	-3816
▁ትምህር	-3817
ናቃ	-3818
ጠንቀ	-3819
ስተካከል	-3820
▁ጉባኤው	-3821
ንጀ	-3822
.7	-3823
ካከ	-3824
▁ሊጉ	-3825
▁የተሳ	-3826
▁ጄኔራል	-3827
ዮኖች	-3828
▁ትስስር	-3829
ገዝ	-3830
▁ጠቅሰው	-3831
▁ባለድርሻ	-3832
it	-3833
▁መልእክ	-3834
▁መኖር	-3835
▁ተመር	-3836
▁የኦሮሞ	-3837
▁ቀርቦ	-3838
80	-3839
▁ዘጠኝ	-3840
ፈቀደ	-3841
▁መባ	-3842
▁ይሆን	-3843
ሮድካ	-3844
ቅረፍ	-3845
▁ከኢ	-3846
ፈለግ	-3847
▁የሰጡት	-3848
ዝነስ	-3849
ፕሎማሲ	-3850
▁ሀሙስ	-3851
▁ለመቆጣጠር	-3852
▁ተሽከርካሪዎች	-3853
▁ውይይ	-3854
ህበራዊ	-3855
ቅናቄ	-3856
ምራት	-3857
▁ትኩስ	-3858
▁ንፁ	-3859
▁ባህል	-3860
▁አምራ	-3861
▁አመልክቷል	-3862
▁ይጠቁ	-3863
ዋለሁ	-3864
▁ዳንኤል	-3865
▁የተሰጠው	-3866
▁ማጥ	-3867
▁ኢህአዴግ	-3868
▁ተጨዋ	-3869
ፈረንሳይ	-3870
▁አሰፋ	-3871
ሏላዊ	-3872
ከተለው	-3873
ሞችን	-3874
▁በአብዛኛው	-3875
ቱና	-3876
ደስ	-3877
ኘው	-3878
▁M	-3879
▁ግዛ	-3880
ሊት	-3881
▁ያገኘነው	-3882
▁ፉ	-3883
ምቤ	-3884
▁የሆ	-3885
▁የፌዴ	-3886
ወዝ	-3887
▁ምርምር	-3888
▁በማይ	-3889
▁ፌዴሬሽን	-3890
ላለፉ	-3891
ድና	-3892
▁እዳ	-3893
▁ሆስፒታል	-3894
ቃሽ	-3895
ጋለ	-3896
ገለፅ	-3897
▁ጥበብ	-3898
▁ማህበር	-3899
▁በድን	-3900
▁የሱዳን	-3901
▁ግለሰብ	-3902
▁ከኮ	-3903
ብሮ	-3904
▁ለት	-3905
▁በሚያስ	-3906
ዘቡ	-3907
ፎችን	-3908
▁ፓርክ	-3909
▁አዛ	-3910
▁ተነስ	-3911
.4	-3912
ናሉ	-3913
ስቡክ	-3914
▁ድሬዳዋ	-3915
ያኑ	-3916
▁ኤርትራ	-3917
▁አገልግሎቶች	-3918
▁አቀፉ	-3919
ልኝ	-3920
▁የተመዘ	-3921
ፃፀር	-3922
▁ሁል	-3923
▁ሽያጭ	-3924
▁ህብረተሰቡ	-3925
ከም	-3926
▁በጥሩ	-3927
▁ታዲያ	-3928
▁በእው	-3929
ብብ	-3930
▁አለመሆኑን	-3931
▁፡	-3932
▁ግራ	-3933
▁ፅሁ	-3934
ሆንም	-3935
▁የሸ	-3936
▁ቁሳቁ	-3937
▁ፋብሪካዎች	-3938
ቀቅ	-3939
ደቢት	-3940
▁እሱም	-3941
▁የተሰራ	-3942
▁ቁጥ	-3943
▁ቦርዱ	-3944
▁ምስክር	-3945
▁በመን	-3946
▁በኦ	-3947
▁የአን	-3948
ምሩክ	-3949
ንነት	-3950
▁ትራምፕ	-3951
▁እንደሌለ	-3952
▁የወጪ	-3953
▁ከአለም	-3954
▁ፍትሀዊ	-3955
▁ተጠርጣሪዎች	-3956
▁ሞት	-3957
▁እርሻ	-3958
▁ጁ	-3959
ጭነት	-3960
▁እንዲያው	-3961
ዮሽ	-3962
▁ህል	-3963
▁በሞ	-3964
▁ያድርጉ	-3965
መጥ	-3966
ብቅ	-3967
ከለኛ	-3968
▁መስተዳድር	-3969
▁እያሳ	-3970
▁ህዝባዊ	-3971
ንታል	-3972
▁ተጠቁሟል	-3973
ኡዲ	-3974
▁ብዙም	-3975
▁መከራ	-3976
▁በኮሮና	-3977
ሸጋ	-3978
▁አክል	-3979
ርሶ	-3980
2010	-3981
▁199	-3982
▁መምጣ	-3983
▁ጥፋት	-3984
▁የሁለት	-3985
ናንተ	-3986
▁በሜዳ	-3987
▁አጠ	-3988
▁በመጥቀስ	-3989
ሬድ	-3990
ባባይ	-3991
▁ዝና	-3992
▁የኤርትራ	-3993
▁በተቃ	-3994
▁በአመት	-3995
▁ተቃዋሚ	-3996
ፈጠር	-3997
▁ወጥቶ	-3998
ማስ	-3999
▁[	-4000
ትነት	-4001
▁ትውልድ	-4002
ዟል	-4003
▁አክልበ	-4004
▁እንዲሰጥ	-4005
▁የሚታወስ	-4006
ችበት	-4007
▁በቤ	-4008
ረፍ	-4009
ባክ	-4010
▁ዋናው	-4011
▁https	-4012
.8	-4013
▁በእን	-4014
▁መረ	-4015
ላውያን	-4016
▁በባለ	-4017
▁ኢንሹራንስ	-4018
▁ከል	-4019
ጥፍ	-4020
ጠብቁ	-4021
ረጋገጠ	-4022
ዎቻቸው	-4023
▁የሚሆነው	-4024
ማካይ	-4025
▁ካርድ	-4026
ገስ	-4027
ያሜ	-4028
፱፻	-4029
▁ጨዋታውን	-4030
ራቱ	-4031
ሙኤል	-4032
▁በትክክል	-4033
ለድ	-4034
ምረው	-4035
▁ግዙፍ	-4036
▁ትራንስ	-4037
▁ግምገማ	-4038
ፐብ	-4039
ገናኙ	-4040
ጥረ	-4041
ርሱ	-4042
▁ግብረ	-4043
ሴፍ	-4044
▁እንዳልተ	-4045
ግበር	-4046
▁ለሙሉ	-4047
▁ሰብስ	-4048
ነበረበት	-4049
▁ያስች	-4050
ፈታ	-4051
▁መዛ	-4052
▁ብት	-4053
ሉትን	-4054
መዝግ	-4055
▁የተጀመረው	-4056
▁ርእስ	-4057
▁ሰይ	-4058
▁በተደረገ	-4059
▁እየጨመረ	-4060
ቅድመ	-4061
ጠየቁ	-4062
ምፒክ	-4063
ቋሚ	-4064
70	-4065
▁አካሄድ	-4066
▁የሚሰጠው	-4067
▁ፍትህ	-4068
▁አቡ	-4069
▁ክፉ	-4070
ገልገል	-4071
▁የሚች	-4072
ዞች	-4073
▁አዲ	-4074
▁ማቅረ	-4075
▁የማያ	-4076
ሊያን	-4077
▁በሰጠው	-4078
▁ተካ	-4079
▁አለቃ	-4080
▁ጳውሎስ	-4081
▁የሚቀ	-4082
▁የድን	-4083
▁በሰሜን	-4084
/200	-4085
▁የአካል	-4086
▁አደሮች	-4087
ሰባሰብ	-4088
▁ገለፁ	-4089
ዩኒቨርሲቲ	-4090
ውንም	-4091
▁ውድቅ	-4092
ደበ	-4093
▁የአስቸኳይ	-4094
ደራጀ	-4095
ኛውንም	-4096
▁ልማትና	-4097
▁በቆ	-4098
▁ማሀበራዊ	-4099
th	-4100
ነሱት	-4101
ይይት	-4102
▁ደካ	-4103
▁ይገልፃል	-4104
በስ	-4105
ታችንን	-4106
▁እንቅ	-4107
ጣው	-4108
▁ሽን	-4109
▁በአስ	-4110
ሙር	-4111
▁የኢፌዴሪ	-4112
ፋና	-4113
▁ከግብ	-4114
▁እንችላለ	-4115
▁ሙስና	-4116
የተ	-4117
▁የቤ	-4118
▁ማስከበር	-4119
▁እንዲያደርጉ	-4120
ፈለገው	-4121
▁የማሀ	-4122
▁ፈጠራ	-4123
▁ያልሆነ	-4124
▁የጨዋታ	-4125
ራቶ	-4126
▁በሰላም	-4127
▁በመጀመሪያው	-4128
▁የሚያሳይ	-4129
▁የኢህአዴግ	-4130
▁ብረት	-4131
▁ደንበኞች	-4132
▁በሚቀጥ	-4133
▁ኢንተርናሽናል	-4134
▁በአንፃሩ	-4135
የሩሳሌ	-4136
▁ሶማ	-4137
▁በሲ	-4138
ሳሽ	-4139
▁ለሌሎች	-4140
▁ፋይ	-4141
ያዛ	-4142
ኩስ	-4143
▁ኢንቨስት	-4144
ክተሮች	-4145
▁እስራኤል	-4146
ዩም	-4147
▁እውነት	-4148
▁አበበ	-4149
▁ማረጋገጫ	-4150
ነዋል	-4151
▁በመስራት	-4152
ርና	-4153
ጠየቅ	-4154
▁የፈ	-4155
▁ኖሮ	-4156
ንዴ	-4157
▁የመስመር	-4158
▁በተሻለ	-4159
▁አመለካከት	-4160
▁ባሉት	-4161
▁የስፖርት	-4162
▁ኮንስትራክሽን	-4163
▁ቀጥሎ	-4164
▁ከነበረው	-4165
▁ከዋ	-4166
▁እንዲሁ	-4167
ምም	-4168
ሎን	-4169
▁አክለው	-4170
▁አቅርቧል	-4171
▁አስፈላጊውን	-4172
▁ካስ	-4173
▁ሂሳብ	-4174
ጋቢ	-4175
▁ብሎም	-4176
▁የሀይማኖት	-4177
▁ሽፋን	-4178
▁መፅ	-4179
▁ይጠቀ	-4180
ገኙበት	-4181
▁በርስ	-4182
▁የበጀት	-4183
▁በባህር	-4184
ደቀ	-4185
▁T	-4186
▁ስላል	-4187
ገዳ	-4188
▁60	-4189
▁ሀላፊው	-4190
▁እንችላለን	-4191
▁በጠቅላይ	-4192
ዘረ	-4193
▁እነሱም	-4194
▁ፋይናንስ	-4195
▁ክፍት	-4196
▁እድገ	-4197
▁ይሰማ	-4198
▁የጠቆሙት	-4199
▁ካም	-4200
▁ግብይት	-4201
▁ይደረጋል	-4202
▁መቅረ	-4203
▁ጉዳዮችን	-4204
▁በቅርብ	-4205
▁ማግኘ	-4206
ንቅ	-4207
ደረሰው	-4208
▁ምዝገባ	-4209
▁ከተማን	-4210
ቸዉ	-4211
▁እንደሚደረግ	-4212
▁ጣልቃ	-4213
▁ተደራሽ	-4214
▁የተጠቀ	-4215
▁አንስተዋል	-4216
ገዙ	-4217
▁መቼ	-4218
▁ስታዲየም	-4219
▁ፀረ	-4220
▁የሌለው	-4221
▁አዝ	-4222
▁ይረዳ	-4223
▁እንደሚሰራ	-4224
መልስ	-4225
▁የኮን	-4226
ሆዋ	-4227
▁ብሩ	-4228
ጨምር	-4229
▁ቤቱን	-4230
▁ብሮድካ	-4231
▁ኒ	-4232
▁የቀረበው	-4233
▁እንዲደረግ	-4234
ቁን	-4235
ቶቹን	-4236
▁አስታውሰዋል	-4237
ዬን	-4238
▁ባሳ	-4239
▁የምስ	-4240
ፐር	-4241
▁ተወዳዳሪ	-4242
▁ልደ	-4243
▁ለመቀነስ	-4244
ላቸውም	-4245
▁ሀብታ	-4246
▁በዘርፉ	-4247
▁ስለሚያ	-4248
▁ከሜዳ	-4249
▁ግብርና	-4250
▁ስፖር	-4251
▁ስለመሆኑ	-4252
ላለም	-4253
ሪን	-4254
▁ባለስልጣኑ	-4255
▁ይሰጣል	-4256
▁አሀ	-4257
▁የመረጃ	-4258
▁በንግድ	-4259
▁እርምጃዎች	-4260
▁የቦርድ	-4261
▁አስረድቷል	-4262
▁የብር	-4263
▁ለማስተ	-4264
ድም	-4265
ኖቹ	-4266
ደሪያ	-4267
▁ሰል	-4268
▁ግቦች	-4269
ያዝያ	-4270
▁ሲነፃፀር	-4271
100	-4272
ንዱ	-4273
fan	-4274
ለየት	-4275
ሻው	-4276
ባበሩት	-4277
▁የላ	-4278
▁ቻናል	-4279
▁የሚገኘውን	-4280
ህነት	-4281
▁መሆኑንና	-4282
▁ንቅናቄ	-4283
ጅማ	-4284
▁ለውጭ	-4285
ጉት	-4286
▁ያን	-4287
ሟሉ	-4288
▁እርግ	-4289
ሻንጉ	-4290
▁እግ	-4291
▁ነጥቦች	-4292
▁ጠይቋል	-4293
▁እንደሚቻል	-4294
ስኮ	-4295
ክሲዮን	-4296
▁የማድረግ	-4297
▁አንደኛ	-4298
▁ክልላዊ	-4299
▁ተጨ	-4300
▁ደርሷል	-4301
ጋይ	-4302
ደንት	-4303
▁ተጫዋቾችን	-4304
▁ከባለ	-4305
ነበ	-4306
▁ዘይት	-4307
ሊሲ	-4308
▁ተነግሯል	-4309
▁ያቀ	-4310
▁መግባት	-4311
▁ኤምባሲ	-4312
ባጭ	-4313
▁ስያሜ	-4314
ጠራው	-4315
ቁም	-4316
ጄሪያ	-4317
▁አብዛኞቹ	-4318
ራጮች	-4319
▁ራስ	-4320
▁ግር	-4321
ou	-4322
ዝርዝር	-4323
▁ለሌ	-4324
ራቅ	-4325
ዎስ	-4326
▁የለውም	-4327
▁አስተሳሰብ	-4328
▁በተለየ	-4329
▁ብልፅግና	-4330
ኩባንያው	-4331
ክብ	-4332
ትናንት	-4333
ቫይረስ	-4334
ማጭ	-4335
▁በሚገባ	-4336
▁ብሄረሰቦች	-4337
ህዴ	-4338
▁ግድያ	-4339
▁እንዲያገኙ	-4340
▁የአገልግሎት	-4341
ፌስቡክ	-4342
▁ቫይረሱ	-4343
▁በፋ	-4344
ናገረው	-4345
ዋር	-4346
▁መሰብ	-4347
ሮጀክ	-4348
▁2014	-4349
▁መንገዱ	-4350
▁ያስረዳል	-4351
ከሰቱ	-4352
▁ችለዋል	-4353
▁መሆኗ	-4354
▁ማሳያ	-4355
▁በእለቱ	-4356
▁ማወቅ	-4357
▁የሚሸ	-4358
▁በህይወት	-4359
2009	-4360
▁ማረጋገጥ	-4361
▁አስተዳደ	-4362
ናቱ	-4363
▁በማስተ	-4364
▁የሚደረገው	-4365
ማሪዎች	-4366
ባን	-4367
▁ያለፈ	-4368
▁መቀመጫ	-4369
▁ቡድኑን	-4370
▁ተጠናቋል	-4371
ቢኔ	-4372
ግስት	-4373
▁በሂ	-4374
ከታተል	-4375
▁የገባ	-4376
ደቅ	-4377
ሮን	-4378
ቀጠል	-4379
▁ሳሙኤል	-4380
ወሰደ	-4381
▁ለነ	-4382
▁በጉዳዩ	-4383
▁ታሀሳስ	-4384
ባረ	-4385
ምቤላ	-4386
▁የሚፈልጉ	-4387
ኒስቴ	-4388
ኤላውያን	-4389
▁የቆየው	-4390
▁መለስ	-4391
▁ቁልፍ	-4392
ኡስ	-4393
ጎዳ	-4394
▁ተቆጣ	-4395
▁ፋሲል	-4396
▁እንቅስቃሴዎች	-4397
▁የሴ	-4398
▁እውነተኛ	-4399
መታት	-4400
▁ሀዳር	-4401
ሶማሊያ	-4402
መንግስት	-4403
▁የሚሆኑት	-4404
.9	-4405
▁በጨዋታው	-4406
▁እያንዳን	-4407
▁ተመልክቷል	-4408
▁አልነበረም	-4409
ያሉ	-4410
▁ዘው	-4411
22	-4412
▁እንደሚያደርግ	-4413
ግራም	-4414
▁እንደሚያስፈልግ	-4415
/2012	-4416
ራጭ	-4417
▁ጋዜጣዊ	-4418
ለጋ	-4419
▁ማእከላዊ	-4420
▁ኢንስቲት	-4421
ረኛ	-4422
▁B	-4423
▁ሳይንስ	-4424
▁ምስክሮች	-4425
ከሰት	-4426
▁አስተላል	-4427
▁በብዛት	-4428
▁ሳይሆን፣	-4429
▁ወረዳዎች	-4430
▁500	-4431
▁መጥፎ	-4432
▁ታጣቂ	-4433
▁በየጊዜው	-4434
▁ማድረጉን	-4435
ለቅ	-4436
▁ለራ	-4437
ቸውም	-4438
▁ከኤ	-4439
ቃቂ	-4440
▁አርባ	-4441
ነገረ	-4442
ጠበቁ	-4443
ስቲክስ	-4444
▁ሏላዊ	-4445
ዊው	-4446
▁በመያዝ	-4447
▁የሚከተ	-4448
▁ስለነበር	-4449
▁የሚጠበቅ	-4450
▁የሚያስችሉ	-4451
▁በሰው	-4452
▁የአካባቢው	-4453
ተገ	-4454
ረዳው	-4455
▁ወሰ	-4456
▁አለመግባ	-4457
▁ወታደሮች	-4458
▁ደጋፊዎች	-4459
▁ጠቀ	-4460
▁ኤክስ	-4461
▁ፓርላማ	-4462
▁አስተባባሪ	-4463
ነቅ	-4464
▁አና	-4465
▁የመሰረተ	-4466
▁የመገናኛ	-4467
ሳች	-4468
ገሉ	-4469
▁ወልደ	-4470
▁የሩ	-4471
▁ምሽት	-4472
▁አውቶ	-4473
ረበ	-4474
ጫወቱ	-4475
▁መስፈር	-4476
ጠለ	-4477
▁በአንዳንድ	-4478
ጦታ	-4479
▁መና	-4480
▁ለማካሄድ	-4481
▁35	-4482
ይሮ	-4483
▁ተነሳ	-4484
ገነባው	-4485
ፍቶ	-4486
-19	-4487
ላንት	-4488
▁ከአገር	-4489
24	-4490
ገጥ	-4491
ችሉም	-4492
▁እውቀት	-4493
▁ወላይታ	-4494
▁ለማጠናከር	-4495
ቻለሁ	-4496
▁የሚያደር	-4497
▁እየሰሩ	-4498
▁የኮሚ	-4499
▁ውጤቶች	-4500
ገለግሉ	-4501
▁አምራች	-4502
▁እግርኳስ	-4503
ስተናግ	-4504
▁አሰጣጥ	-4505
ፕራይ	-4506
▁ደካማ	-4507
▁አዳነ	-4508
▁ግድቡ	-4509
▁ወደብ	-4510
▁ሙያ	-4511
▁ይበ	-4512
▁ታማኝ	-4513
▁በመግባት	-4514
▁ጣቢያዎች	-4515
▁ባልተ	-4516
▁ለመንግስት	-4517
▁በቀን	-4518
ወሰድ	-4519
ቲን	-4520
▁በግል	-4521
▁በግብፅ	-4522
▁አውሮፕላን	-4523
▁ማቀ	-4524
▁ከጊዜ	-4525
▁የሚሰጡ	-4526
ጓዴ	-4527
ናትን	-4528
ሸት	-4529
▁በፈ	-4530
▁ነን	-4531
ሰብሰብ	-4532
ሰልጣኝ	-4533
▁አብረው	-4534
ያስፖ	-4535
ሻንጉል	-4536
21	-4537
ቡእ	-4538
ብነት	-4539
▁ተሰጥቶ	-4540
▁ታህሳስ	-4541
ing	-4542
▁ክፍተ	-4543
▁የኢትዮ	-4544
▁ማኔ	-4545
ፈቀድ	-4546
▁የህገ	-4547
ate	-4548
▁ኮሪያ	-4549
▁የሽብር	-4550
ረፈ	-4551
▁አቀባይ	-4552
▁በአዲሱ	-4553
▁ፔ	-4554
▁የሚችለው	-4555
2008	-4556
▁ስደተኞች	-4557
▁ሆና	-4558
▁የተፈጠረ	-4559
▁ሲሆን፥	-4560
▁ተሽከርካሪ	-4561
www	-4562
ተኩ	-4563
ራችን	-4564
▁ህወሀት	-4565
▁መሰረት፣	-4566
▁ወደሚ	-4567
▁የቴክኒክ	-4568
▁መሬ	-4569
▁ሀይማኖ	-4570
ሀይ	-4571
▁ለታ	-4572
▁ማቴ	-4573
▁ተሻ	-4574
▁በመቀጠል	-4575
▁ማይ	-4576
▁አስራ	-4577
ሬዚዳንት	-4578
ሳራ	-4579
ረንጓዴ	-4580
ሺህ	-4581
ባይል	-4582
▁አስደናቂ	-4583
▁ተደ	-4584
ጆቹ	-4585
ፍያ	-4586
ዘነጋ	-4587
▁ቴሌቪዥን	-4588
ጥቅ	-4589
ንስት	-4590
▁መቐለ	-4591
▁ይኸውም	-4592
▁በራሳቸው	-4593
▁ያቀረቡት	-4594
▁በመተባበር	-4595
▁በፊ	-4596
▁ሰሜን	-4597
ኒስትሮች	-4598
ችት	-4599
▁የተወሰኑ	-4600
▁መገደ	-4601
ዘግ	-4602
▁ሚኒስቴሩ	-4603
▁በሀገር	-4604
▁የጀመረው	-4605
ፈለገ	-4606
▁ለማምጣት	-4607
▁መላኩ	-4608
▁መጠበቅ	-4609
▁ማድረጉ	-4610
▁የሚገቡ	-4611
▁የበላይነት	-4612
▁በግንባ	-4613
▁እንደነበረ	-4614
▁ማእቀ	-4615
▁ሆኑ	-4616
ክርስቲ	-4617
▁በጊዜ	-4618
▁ሀጢ	-4619
▁R	-4620
▁በዩ	-4621
▁የጋ	-4622
▁በትምህርት	-4623
▁ጠቀሜ	-4624
▁ያስረዳሉ	-4625
▁ፕሬዚዳንቱ	-4626
ዋሎ	-4627
ከፈል	-4628
▁ጥረ	-4629
ወሰኑ	-4630
▁ኋላ	-4631
ምምነት	-4632
▁ተሞክሮ	-4633
▁F	-4634
▁ሚስተር	-4635
▁ምእራብ	-4636
ሪታ	-4637
▁በማሰብ	-4638
ይዝ	-4639
ስተናገ	-4640
▁በስልክ	-4641
▁አስቆጥ	-4642
▁ተጠቅሷል	-4643
ማው	-4644
▁ዲግ	-4645
▁ሰልፍ	-4646
ቆሙ	-4647
ከው	-4648
▁ክብ	-4649
▁ህጎች	-4650
▁ያልሆኑ	-4651
▁አምና	-4652
▁ውስጥም	-4653
▁ጥፋ	-4654
ታወቀው	-4655
▁ለማየት	-4656
▁በቫይረሱ	-4657
ፋስ	-4658
▁ሀያ	-4659
▁ትግራይ	-4660
ሁት	-4661
▁ትግ	-4662
▁ጊዜያዊ	-4663
▁በመፍጠር	-4664
ሪሚ	-4665
ነሳት	-4666
▁በብሄራዊ	-4667
▁እንዲሰጡ	-4668
▁አንድም	-4669
▁ካለፈው	-4670
▁እናም	-4671
▁በሆነው	-4672
በሳ	-4673
አን	-4674
▁ሳለ	-4675
▁በከተማዋ	-4676
ጠባ	-4677
ሪነት	-4678
▁አታ	-4679
ንቀሳቃሽ	-4680
ገዱ	-4681
ንግተን	-4682
▁ኩንታል	-4683
ስቲንግ	-4684
▁ልት	-4685
ንድሮው	-4686
▁ለመቅረፍ	-4687
ሆና	-4688
▁ተፈጥሮ	-4689
▁አብርሀም	-4690
▁ክርስቶስ	-4691
ማዊ	-4692
▁መውሰድ	-4693
ጠናቀቀው	-4694
▁እውን	-4695
ላስ	-4696
▁በመግ	-4697
ዲና	-4698
ገጠ	-4699
▁ቸ	-4700
ወሰዱ	-4701
ጠንቀቂያ	-4702
ኳን	-4703
▁እል	-4704
ስፋፋ	-4705
▁መዳረ	-4706
▁በመላው	-4707
ባኤው	-4708
▁ስኳር	-4709
▁ቢኖር	-4710
▁የመፅሀፍ	-4711
የትኛውም	-4712
▁ቃለ	-4713
▁ለሁሉም	-4714
▁ጠበ	-4715
ገኘት	-4716
▁ማው	-4717
▁ተቋሙ	-4718
▁የተሰማሩ	-4719
ድድሩ	-4720
▁የበኩ	-4721
ንጋ	-4722
ውሉ	-4723
▁ህዳር	-4724
▁ለመጠቀም	-4725
▁የረ	-4726
▁ፍጥነት	-4727
ቆጣጠ	-4728
▁ይመ	-4729
▁ተከላካይ	-4730
▁መግባባት	-4731
▁ደርሶ	-4732
ብረቱ	-4733
▁የሚያስች	-4734
▁መድረሱን	-4735
▁ነጋዴዎች	-4736
ህም	-4737
መኑ	-4738
▁ከጎ	-4739
▁ተካሂ	-4740
▁ተሾ	-4741
▁ጓደ	-4742
ፎካካ	-4743
▁ቤቶችን	-4744
▁የሴቶች	-4745
ናዳ	-4746
ደርጉት	-4747
▁ለማን	-4748
▁ስብስብ	-4749
▁መስፈ	-4750
▁ምስጋና	-4751
▁የውሳኔ	-4752
ር፣	-4753
▁ፀጥታ	-4754
▁ይገኙ	-4755
▁ማረፊያ	-4756
ፈተ	-4757
ንታዊ	-4758
▁ግብአ	-4759
▁ለአገር	-4760
▁ባለበት	-4761
▁ተወያይ	-4762
▁ቱሪዝም	-4763
▁ራሱ	-4764
▁የሳይ	-4765
ልተኛ	-4766
▁አሊ	-4767
ዳሪዎች	-4768
▁ሚዛ	-4769
▁አስገንዝ	-4770
▁የስልጣን	-4771
ኮት	-4772
ወሩ	-4773
ከበረ	-4774
ወርቅ	-4775
▁የኪ	-4776
▁ኢንጂነር	-4777
▁ለመግባት	-4778
ኑኤል	-4779
ጨረታ	-4780
▁የቡድኑ	-4781
ምረቻ	-4782
▁አደራ	-4783
ኖረ	-4784
▁ግንባታው	-4785
▁የማእድን	-4786
▁ከስራ	-4787
▁የአል	-4788
ራፊክ	-4789
▁ዲዛ	-4790
▁ፎቶ	-4791
ምንጭ	-4792
ጠበቀው	-4793
አል	-4794
▁ከነማ	-4795
▁ጠቁሟል	-4796
ደረሱ	-4797
▁ምልክ	-4798
▁እንዲሰሩ	-4799
ፍል	-4800
ነጋግ	-4801
▁ለአለም	-4802
▁ፈቃደኛ	-4803
▁በዝርዝር	-4804
▁ሽብር	-4805
▁በቢ	-4806
▁አረቢያ	-4807
▁የሚመጣ	-4808
▁ቅርንጫፍ	-4809
▁E	-4810
▁ምድ	-4811
ከለኛው	-4812
▁በተቀ	-4813
▁አባት	-4814
▁በረከት	-4815
▁ማንኛውንም	-4816
ድየም	-4817
ፈጥር	-4818
▁ለሶ	-4819
▁ጠበቃ	-4820
▁የተገኙ	-4821
▁O	-4822
▁መፃህ	-4823
▁ቴዎ	-4824
▁እኔም	-4825
▁የሰጠው	-4826
ብስ	-4827
ኩረት	-4828
ሞኑ	-4829
ቱንና	-4830
▁ክህ	-4831
▁አደረገ	-4832
ያያ	-4833
▁ልን	-4834
▁ምጣኔ	-4835
▁በአዋ	-4836
▁መንግስትና	-4837
▁ያም	-4838
▁ዜጎችን	-4839
▁መዝገብ	-4840
▁አምራቾች	-4841
▁ድንቅ	-4842
▁ሰአታት	-4843
▁ከሚገኙ	-4844
▁ወዲያው	-4845
▁የለውጥ	-4846
▁መኖራቸውን	-4847
▁ብሮድካስቲንግ	-4848
ኛዎቹ	-4849
▁ካሬ	-4850
▁ሀይሌ	-4851
▁በመታ	-4852
▁መኖሩን	-4853
▁በእጅጉ	-4854
▁ካላቸው	-4855
ቀን	-4856
ክፈል	-4857
ቃቸውን	-4858
▁ሚያዝያ	-4859
▁ደግሞም	-4860
ፋቸውን	-4861
▁ፍፃሜ	-4862
▁ቀርበው	-4863
ቀበል	-4864
ለሁ፤	-4865
ጣቸውን	-4866
▁መዋቅር	-4867
እን	-4868
▁ራእ	-4869
▁ስላለ	-4870
ቲክስ	-4871
!!	-4872
▁ውድድሮች	-4873
ጓዙ	-4874
▁ይሆናሉ	-4875
▁I	-4876
▁ዮና	-4877
ከላካይ	-4878
▁ዝውውር	-4879
▁ገበያው	-4880
▁እንደነበሩ	-4881
▁በፖለቲካ	-4882
ራኒ	-4883
የበት	-4884
▁የሚያደርገው	-4885
ሰሙ	-4886
ታለች	-4887
▁ነፍ	-4888
ሀድ	-4889
▁ግማሽ	-4890
▁የሚውል	-4891
▁በተለያየ	-4892
ነቶችን	-4893
▁የዩናይትድ	-4894
ስለ	-4895
▁ዊ	-4896
▁ከጉ	-4897
▁የህይወት	-4898
▁ሙሴ	-4899
ዴፓ	-4900
ክረው	-4901
የሩሳሌም	-4902
ራዘም	-4903
▁ስለማይ	-4904
▁በጋ	-4905
ቻችንን	-4906
▁ተጠናክሮ	-4907
▁ንኡስ	-4908
▁ወይስ	-4909
▁፲፱፻	-4910
▁በመካ	-4911
▁ተገናኝ	-4912
▁ማድረጋቸውን	-4913
▁በዲ	-4914
ክልሎች	-4915
▁መምህ	-4916
▁የሚጠቀ	-4917
ጃቸው	-4918
23	-4919
ግን	-4920
:00	-4921
ቨርስቲ	-4922
▁አጋር	-4923
▁የመጡ	-4924
▁ሆነዋል	-4925
▁ምርቶችን	-4926
▁ሲሆኑ፣	-4927
▁ተዘጋጅ	-4928
ቆስ	-4929
ቱንም	-4930
▁እጣ	-4931
▁ሚንስት	-4932
▁ተገቢውን	-4933
▁ቢራ	-4934
▁መለያ	-4935
▁ሀገሪቱ	-4936
▁መመለስ	-4937
▁እንዲታ	-4938
▁ተን	-4939
▁በበኩሉ	-4940
▁ከቅ	-4941
ቶቻቸው	-4942
ከታታይ	-4943
▁በሱዳን	-4944
▁ያወጣ	-4945
▁የበረ	-4946
ኙን	-4947
re	-4948
ሉና	-4949
ወቀ	-4950
▁እንድታ	-4951
▁የድርጅቱ	-4952
ፋል	-4953
ጠረጠሩ	-4954
▁ፈፅሞ	-4955
▁ረጅም	-4956
▁የእን	-4957
ካተቱ	-4958
▁ሳህ	-4959
▁ችሎታ	-4960
▁አዳራሽ	-4961
▁ይዞታ	-4962
▁ያደርጋ	-4963
ናጀ	-4964
▁ይሰ	-4965
▁አብዱል	-4966
▁የወጣው	-4967
ግባኝ	-4968
▁መጫወት	-4969
▁ሾ	-4970
▁የፀረ	-4971
▁ዳኞች	-4972
ቡት	-4973
▁በምስራቅ	-4974
▁እንደሚሉት	-4975
▁ረዳት	-4976
▁የደን	-4977
▁መምህር	-4978
▁ሚካኤል	-4979
ታወቂያ	-4980
▁በደንብ	-4981
▁እያደረጉ	-4982
▁በማንኛውም	-4983
ከፋፈል	-4984
▁ከቅርብ	-4985
▁የፍርድ	-4986
▁በማሀ	-4987
ወቁ	-4988
▁አቀባ	-4989
ኮችን	-4990
▁ኢሳ	-4991
▁መሞ	-4992
▁ፕሮጀክቱ	-4993
ግለፅ	-4994
▁አዘ	-4995
▁ተፈፃሚ	-4996
ርን	-4997
▁ትክክል	-4998
ድግ	-4999
▁ይጠበቅ	-5000
▁አውሮፕላ	-5001
▁የተጋ	-5002
ዋሪ	-5003
▁የእኛ	-5004
▁ገልፆ	-5005
ጋዜጠኞች	-5006
መናዊ	-5007
▁እንዲደርስ	-5008
ለታል	-5009
▁የመጀመርያው	-5010
ምፅ	-5011
ያም	-5012
▁ገደማ	-5013
▁ሀይለማ	-5014
▁አደባባይ	-5015
▁የዴሞክራሲ	-5016
ቡና	-5017
ትሪክ	-5018
ታቸውም	-5019
▁አለኝ	-5020
▁በምርጫ	-5021
▁ባህላዊ	-5022
▁ጥላሁን	-5023
ረዱት	-5024
▁ዴኤታ	-5025
▁ህዝቡን	-5026
▁ኳሶች	-5027
ተው፣	-5028
▁መግለጫው	-5029
▁ባላቸው	-5030
ab	-5031
ስፈ	-5032
ጂቡቲ	-5033
▁አስተዳዳሪ	-5034
ኑም	-5035
▁በቤተ	-5036
መጣል	-5037
▁እሳቸው	-5038
▁ተከሳሾች	-5039
▁እንዲኖር	-5040
ዛው	-5041
ቀመጠው	-5042
▁ያመላክ	-5043
▁ሚኒስትሯ	-5044
▁D	-5045
ጠብቅ	-5046
ሌክትሮ	-5047
▁በአይ	-5048
ግዳሮ	-5049
ዩን	-5050
▁ያቀር	-5051
▁የፍትህ	-5052
▁እንዲገቡ	-5053
▁ያቀረበ	-5054
▁ለምንድን	-5055
ምብ	-5056
ላከው	-5057
ዘነጋም	-5058
▁ካልሆነ	-5059
ሪል	-5060
ድቡ	-5061
▁በመጪው	-5062
▁ፓርኮች	-5063
▁ሼ	-5064
ርቃ	-5065
ዩብ	-5066
▁ያብራ	-5067
▁አስቸኳይ	-5068
ክትል	-5069
▁በሆ	-5070
▁ትል	-5071
ጀርመን	-5072
▁አሳሳቢ	-5073
▁አስቀም	-5074
ኝት	-5075
▁አለማየሁ	-5076
▁ያለባቸው	-5077
▁ሽግግር	-5078
▁አረጋግጠዋል	-5079
▁ደብረ	-5080
ቦን	-5081
ውሮፕ	-5082
▁የየ	-5083
▁ሲታይ	-5084
▁ከአምስት	-5085
ንድሮ	-5086
▁ይተ	-5087
▁አረጋ	-5088
ፋው	-5089
▁ሰባ	-5090
▁ካሉት	-5091
ናልድ	-5092
▁መጀመሩን	-5093
ራክ	-5094
ፒታ	-5095
▁ይባ	-5096
▁ጥገና	-5097
▁ማሀበሩ	-5098
▁የሶስት	-5099
▁ዩናይትድ	-5100
ፐብሊክ	-5101
▁ያገኛ	-5102
▁ተወካይ	-5103
ብናል	-5104
▁አይዘነጋም	-5105
መስል	-5106
ስልጣኑ	-5107
▁ለስራ	-5108
▁ለመተ	-5109
ዮና	-5110
▁ለኮ	-5111
ቀጥሉ	-5112
▁ስላሴ	-5113
▁አባይ	-5114
▁ይህንኑ	-5115
ወድ	-5116
ርተው	-5117
▁እንዲወጡ	-5118
በቱ	-5119
▁የዝ	-5120
ጉር	-5121
ላጭ	-5122
ስል	-5123
እኔ	-5124
ችኋል	-5125
▁የተያዙ	-5126
▁ያተኮ	-5127
▁ለማሻሻል	-5128
▁አደረጃጀት	-5129
▁ጤ	-5130
ምቦ	-5131
ክሉ	-5132
ደረሰባቸው	-5133
▁ከሆነ፣	-5134
▁መስመ	-5135
ሰውን	-5136
▁ባለማ	-5137
▁የትርፍ	-5138
▁በማስገባት	-5139
.1	-5140
ኖክ	-5141
ኝም	-5142
▁ፈጥ	-5143
ርጦ	-5144
ሻል	-5145
ነርጂ	-5146
▁የዘር	-5147
▁32	-5148
▁የኑ	-5149
▁በመግለጫው	-5150
ሊምፒክ	-5151
▁ተራራ	-5152
▁ደስተኛ	-5153
▁ያቀረበው	-5154
ላለፈ	-5155
ዋልታ	-5156
▁ቅን	-5157
▁ተግዳሮ	-5158
▁ህመም	-5159
▁ምርጫው	-5160
▁ግጭቶች	-5161
▁አንደኛው	-5162
▁ባለአ	-5163
▁የፅሁፍ	-5164
▁ጠቁመው፣	-5165
-2	-5166
ቴክ	-5167
▁ለማድረስ	-5168
ቅዶ	-5169
እቆ	-5170
▁ኮሚሽነ	-5171
ንዛ	-5172
▁እያደገ	-5173
ቀድ	-5174
ኘት	-5175
ንደር	-5176
▁ውህ	-5177
▁መድን	-5178
▁መፈፀ	-5179
▁አበባ፡	-5180
▁ለመጠበቅ	-5181
▁ገለፀ	-5182
ጠይቁ	-5183
▁33	-5184
ዳጅነት	-5185
▁ፓርቲው	-5186
▁በመጨረሻም	-5187
ፈሩ	-5188
▁እገዛ	-5189
▁ቤታቸው	-5190
ያያዙ	-5191
▁በሆኑ	-5192
▁ተስማም	-5193
ይወ	-5194
▁መሄድ	-5195
▁እንደሚያሳ	-5196
ካቤ	-5197
ላቀሉ	-5198
▁በጦር	-5199
▁መሆኑም	-5200
▁የመልካም	-5201
▁እንደዚህ	-5202
▁እሷ	-5203
▁ከሁሉም	-5204
ካተተ	-5205
▁ከድር	-5206
ኔል	-5207
ስተኛው	-5208
▁የመከላከል	-5209
መልከ	-5210
▁ያሳለ	-5211
▁አለብን	-5212
ቃወም	-5213
▁ዝርያ	-5214
መጣጣኝ	-5215
▁ስኬታማ	-5216
▁ፍር	-5217
▁ሂደቱ	-5218
ro	-5219
ወረ	-5220
▁ገፅታ	-5221
▁በማእ	-5222
▁የከፍተኛ	-5223
▁የእው	-5224
▁መያዝ	-5225
▁የራሱን	-5226
ንበት	-5227
▁መንፈሳዊ	-5228
me	-5229
▁ታላቁ	-5230
▁ያንን	-5231
▁ቤተሰቦች	-5232
ኤን	-5233
198	-5234
▁ባህሪ	-5235
▁የሜዳ	-5236
▁ፈረን	-5237
▁ስርአቱን	-5238
አለም	-5239
ያለሁ	-5240
በበ	-5241
ቀርበው	-5242
▁እንዲሰ	-5243
▁ጎንደር	-5244
ደባ	-5245
አብመድ	-5246
▁ስለማ	-5247
▁ሲደረግ	-5248
▁በመድረ	-5249
▁አስደሳች	-5250
-3	-5251
▁ስልክ	-5252
ጨመር	-5253
▁በቀል	-5254
▁ገንዘ	-5255
▁ክስተት	-5256
▁ልውው	-5257
▁የሚወስ	-5258
▁የባቡር	-5259
▁በውይይቱ	-5260
▁ደንበ	-5261
▁መዳረሻ	-5262
▁ዳርቻ	-5263
ከማ	-5264
ጥል	-5265
▁መውጣት	-5266
▁የተገኙት	-5267
▁ዜጋ	-5268
▁ገብተው	-5269
▁አጠቃቀም	-5270
▁የፓርቲው	-5271
ማሩ	-5272
▁እያሉ	-5273
▁ያነሳ	-5274
▁ቀስ	-5275
▁ውዝ	-5276
▁እየቀ	-5277
▁መስፍን	-5278
▁በመውሰድ	-5279
▁አስታወቁ	-5280
ሰራው	-5281
ነውን	-5282
▁በምድር	-5283
▁ለአብነት	-5284
ዳንቱ	-5285
▁ተቋማትን	-5286
▁ማጥቃት	-5287
ጣሉ	-5288
▁ቻምፒ	-5289
▁በሁለቱም	-5290
▁ለጉ	-5291
▁አጭር	-5292
▁አያያዝ	-5293
ባችን	-5294
▁ጥልቅ	-5295
ዲያዎች	-5296
▁ማሳደግ	-5297
▁የፖሊስ	-5298
▁ክን	-5299
▁ይኼንን	-5300
ላቀል	-5301
▁ተአ	-5302
▁ኮሎ	-5303
▁ጓደኛ	-5304
▁በሀዋሳ	-5305
▁የታክስ	-5306
▁የሚናገሩት	-5307
▁ብራ	-5308
▁ወለድ	-5309
▁ገብቶ	-5310
▁የሚያው	-5311
▁መንስ	-5312
▁በውስ	-5313
▁እሱን	-5314
ለኛ	-5315
ሰተኛ	-5316
ማመን	-5317
▁ሲሚንቶ	-5318
▁ሙከራዎች	-5319
▁አጣ	-5320
▁ኢዮ	-5321
▁መፅሀ	-5322
▁በገንዘብ	-5323
▁የኢንሹራንስ	-5324
▁45	-5325
ዛል	-5326
▁ምንድን	-5327
▁80	-5328
▁አበራ	-5329
▁ከአፍሪካ	-5330
ረምት	-5331
▁ሸዋ	-5332
▁ፈንድ	-5333
▁መቀነስ	-5334
ፖለቲካ	-5335
▁በመር	-5336
▁የቀረቡ	-5337
▁ከመሆኑም	-5338
ገጣ	-5339
ሪያው	-5340
ሳችን	-5341
▁መቃ	-5342
▁ሶስቱ	-5343
ለይ	-5344
ታኝ	-5345
ራትና	-5346
▁ከራ	-5347
▁የከ	-5348
▁ከዘ	-5349
▁ያነጋ	-5350
▁ያደረ	-5351
▁የእንግሊዝ	-5352
▁ሰም	-5353
▁በራስ	-5354
ዞኑ	-5355
ማማኝ	-5356
▁አመላክ	-5357
ክፈ	-5358
▁ማመንጫ	-5359
▁ህግን	-5360
▁ያስመዘ	-5361
▁ስታድየም	-5362
▁ተፋ	-5363
▁ቅናሽ	-5364
90	-5365
▁ንፁህ	-5366
▁ምክክር	-5367
▁ሀብታሙ	-5368
ፈልጋቸው	-5369
▁ተደጋጋሚ	-5370
ላፊነት	-5371
▁አውሮፓ	-5372
▁በህገወጥ	-5373
ራለች	-5374
▁ኦዲ	-5375
▁የአይ	-5376
▁ጋዜጠኞች	-5377
ኦን	-5378
▁ኤም	-5379
▁ከፊ	-5380
▁የግን	-5381
▁የውስጥ	-5382
▁በተግባር	-5383
▁ተጠቃሚነት	-5384
ችሁም	-5385
ፃፈ	-5386
ባቸውም	-5387
▁ደመቀ	-5388
▁ሜጋ	-5389
▁ይጠቅ	-5390
ክተው	-5391
▁ልብስ	-5392
▁ሀገራዊ	-5393
▁አብዛኛው	-5394
ፍረስ	-5395
▁ሁልጊዜ	-5396
▁መቆጣጠር	-5397
ቪዬ	-5398
▁በምእራብ	-5399
▁ማእከ	-5400
▁ቆይተዋል	-5401
▁ታሳቢ	-5402
▁ኮከብ	-5403
▁ቢሊየን	-5404
ሰማሩ	-5405
ካተት	-5406
▁ምህረት	-5407
▁ክልሉ	-5408
ለናል	-5409
ገናኘት	-5410
▁ለመታ	-5411
▁ወሰን	-5412
▁አያይ	-5413
▁የቻለው	-5414
▁የሚደርስ	-5415
▁መንስኤ	-5416
▁ለማሳካት	-5417
ደራጀት	-5418
▁ተከሳሾቹ	-5419
ቀደ	-5420
ዳም	-5421
ኖሩት	-5422
▁ኮሌ	-5423
▁መስኮች	-5424
ፊው	-5425
ክበር	-5426
ላችንም	-5427
▁ተገኝተው	-5428
▁ያገለ	-5429
▁ጥሰት	-5430
▁የእርሻ	-5431
▁ተጎ	-5432
ገባም	-5433
▁ዞኖች	-5434
▁ሪፖርቱ	-5435
▁ዘይ	-5436
ለማችን	-5437
▁ንጉሱ	-5438
▁ከሆኑ	-5439
▁ክርስቲያኖች	-5440
▁በኢኮኖሚ	-5441
▁ኮሙዩኒኬሽን	-5442
ብህ	-5443
▁ግብአት	-5444
▁ትራንስፎርሜሽን	-5445
▁መላ	-5446
ፎካካሪ	-5447
▁በቻይና	-5448
▁የንግድና	-5449
45	-5450
ሊቲ	-5451
ጃፓን	-5452
ጅመንት	-5453
▁መካከለኛ	-5454
▁ስራቸውን	-5455
ብቶ	-5456
▁ድንጋይ	-5457
ረቤት	-5458
▁ቴዎድሮስ	-5459
ዜአ	-5460
ገሰ	-5461
▁ቴሌኮም	-5462
ይብ	-5463
▁ስሙ	-5464
▁በልዩ	-5465
▁ደረሰ	-5466
▁ሲያደርግ	-5467
ራጅ	-5468
▁ሲቀ	-5469
ፈልገውን	-5470
▁ሲያደርጉ	-5471
▁ተመስገን	-5472
▁ግቢ	-5473
▁አሉት	-5474
▁የሙስና	-5475
ናጋ	-5476
ድል	-5477
▁ጀር	-5478
ሪሚየር	-5479
▁ማደ	-5480
▁ጴ	-5481
▁በረራ	-5482
▁ይህንንም	-5483
▁ትክክለኛውን	-5484
▁ለኢ	-5485
▁መናገ	-5486
▁በመደ	-5487
▁እባክ	-5488
ራቢያ	-5489
ሮች፣	-5490
ላጅ	-5491
ቆጠረ	-5492
ነራል	-5493
ለስ	-5494
ጮችን	-5495
▁የአር	-5496
▁ፈጣሪ	-5497
▁ይቅርታ	-5498
▁ኢንተርፕራይ	-5499
▁ዳር፡	-5500
▁በበኩላቸው፣	-5501
▁የሱ	-5502
▁አያስ	-5503
▁ልምምድ	-5504
ስክ	-5505
▁ስጦታ	-5506
▁የላቀ	-5507
▁አይችልም	-5508
ጂታል	-5509
ስያ	-5510
ግራቸው	-5511
▁አደር	-5512
▁መድሀኒት	-5513
ቆየ	-5514
ፋጣኝ	-5515
▁ያሻ	-5516
▁ከማስ	-5517
▁ተረጋግ	-5518
▁እድሎች	-5519
▁ታዳጊ	-5520
▁የከፋ	-5521
▁ሀይማኖት	-5522
▁መረጋጋት	-5523
▁ግሩ	-5524
▁በዝግ	-5525
▁የሚያደርጉት	-5526
▁አስገንዝበዋል	-5527
ፈሰ	-5528
ዛቢ	-5529
▁ማሸነፍ	-5530
▁መንግስትን	-5531
▁የቅርብ	-5532
▁የሚመራው	-5533
▁የማጥቃት	-5534
▁ምክረ	-5535
▁ጠየ	-5536
▁የቴክኖሎጂ	-5537
ad	-5538
ናገረ	-5539
ሮጀክቱ	-5540
▁ምሁራን	-5541
▁በሰላማዊ	-5542
▁ይናገራል	-5543
ቀኑ	-5544
▁ብቸኛ	-5545
▁ለረጅም	-5546
▁አሉታዊ	-5547
በጣ	-5548
እቆብ	-5549
▁ረቡእ	-5550
▁የሚዲያ	-5551
ካር	-5552
▁የፈጠ	-5553
▁እየታየ	-5554
▁ኦሮሚያ	-5555
ያያዥ	-5556
ማውያን	-5557
▁ይነገ	-5558
▁ማእቀፍ	-5559
▁የመጣው	-5560
▁አባላትን	-5561
ወራ	-5562
ዊተር	-5563
▁ከፀ	-5564
▁መገንባት	-5565
500	-5566
ለን፤	-5567
ሮችና	-5568
▁አየ	-5569
▁ጠቀሜታ	-5570
▁አጋጣሚዎች	-5571
ድያ	-5572
ፃፈው	-5573
▁ገዢ	-5574
ልት	-5575
ቂጤ	-5576
ለቲከ	-5577
ባሉት	-5578
▁ለይ	-5579
▁በጭ	-5580
መራው	-5581
2007	-5582
ምራ	-5583
▁ሚሊ	-5584
▁መሪነት	-5585
ብሰባ	-5586
▁ያለም	-5587
▁የጀመረ	-5588
▁እንዲያደርግ	-5589
▁ከር	-5590
▁የነበሩትን	-5591
ክልና	-5592
▁በክሱ	-5593
ሰቀ	-5594
ፈራረ	-5595
▁ስኬት	-5596
▁ህይወታቸው	-5597
▁ጥያቄዎችን	-5598
▁ስለሆነም	-5599
▁እናት	-5600
▁ለሶስት	-5601
▁ተነስቶ	-5602
▁ይገኙበታል	-5603
ኦት	-5604
▁የአቶ	-5605
▁የተገለፀ	-5606
▁የአስተዳደር	-5607
ጀመሩት	-5608
▁ላይ፣	-5609
ፎርም	-5610
▁ፈረ	-5611
▁የሚገልፁ	-5612
▁ማስታወቂያ	-5613
▁እንዲቀጥል	-5614
▁ዝናብ	-5615
▁የተቋ	-5616
▁በእስር	-5617
▁ኮንትራ	-5618
ቅምት	-5619
▁ሆቴሎች	-5620
▁መቻሉን	-5621
▁ከመሆኑ	-5622
▁ባለመሆኑ	-5623
▁የመኖሪያ	-5624
ቀመጡ	-5625
▁37	-5626
ሰረተው	-5627
▁የያዙ	-5628
▁ከሰሞኑ	-5629
▁እንደሆነና	-5630
ፋዊ	-5631
ሉበት	-5632
▁ሆን	-5633
▁ቶሎ	-5634
▁ይዘት	-5635
▁የወርቅ	-5636
▁የውይይት	-5637
▁ገዛ	-5638
▁ለማከናወን	-5639
▁የምስራቅ	-5640
▁የዋስትና	-5641
▁እየሆነ	-5642
▁ባካሄደው	-5643
በለ	-5644
▁34	-5645
ለወጥ	-5646
መረጡ	-5647
ሳእና	-5648
ታችሁ	-5649
▁አጨዋ	-5650
▁ኢንዱስት	-5651
አሁን	-5652
▁ዋት	-5653
▁የፓ	-5654
▁ሌላኛው	-5655
▁ያገኘው	-5656
▁መስፈርት	-5657
▁እድሎችን	-5658
▁የገቡ	-5659
መለከቱት	-5660
▁እርግጠኛ	-5661
▁መት	-5662
▁የሌላቸው	-5663
▁በአስቸኳይ	-5664
ተኞቹ	-5665
ተውን	-5666
▁እይታ	-5667
▁ጎዳና	-5668
▁ተሰም	-5669
ፀው	-5670
ፃፍ	-5671
▁ክሱ	-5672
▁አረብ	-5673
የመ	-5674
▁የሮ	-5675
▁መስራች	-5676
▁የታላቁ	-5677
ሪቱ	-5678
ገለግል	-5679
▁ገፃችን	-5680
▁የጠቀሱት	-5681
▁ከመቶ	-5682
▁የተጀመረ	-5683
ch	-5684
ንዶች	-5685
▁የተዋ	-5686
▁የአመራ	-5687
▁እንግሊዝ	-5688
▁የሚገባው	-5689
▁ሀብረተሰቡ	-5690
ሄደ	-5691
ቅን	-5692
▁በማሸነፍ	-5693
ስቲክ	-5694
▁ሙስ	-5695
▁የችግ	-5696
▁ጉልህ	-5697
▁የገለፀው	-5698
▁ኢንስቲትዩት	-5699
▁ብርቱ	-5700
ጨው	-5701
ገትና	-5702
▁ላለው	-5703
▁የሚደረጉ	-5704
ቦና	-5705
ምበር	-5706
▁አብዲ	-5707
▁እንደተናገሩት፣	-5708
ቡድኑ	-5709
▁ስለም	-5710
▁የአት	-5711
▁ያሬድ	-5712
ምሌ	-5713
ፅና	-5714
▁መገለ	-5715
▁የቆዩ	-5716
▁በበጀት	-5717
▁ዶናልድ	-5718
ዎታል	-5719
▁የሚታይ	-5720
▁እስር	-5721
▁ጥቁር	-5722
▁በእርስ	-5723
▁ነበር፣	-5724
መኛ	-5725
ንካሬ	-5726
ጦችን	-5727
▁ያደ	-5728
▁ተሾመ	-5729
▁እኛም	-5730
▁እነሆ	-5731
▁ኢትዮጵያዊያን	-5732
ቴል	-5733
ካዊ	-5734
ነሪንግ	-5735
▁እንደሌለው	-5736
▁በፍርድ	-5737
▁መቀጠል	-5738
▁መዘጋጀ	-5739
ፃናት	-5740
ጋው	-5741
▁በሀይ	-5742
▁ተበ	-5743
▁አትሌት	-5744
▁ያቀረቡ	-5745
▁ባለሙያው	-5746
▁ተሳታፊዎች	-5747
ፆታ	-5748
▁ከአስር	-5749
ልጠና	-5750
▁ጥምረት	-5751
▁ማህበራት	-5752
▁ሀኪ	-5753
▁የእኔ	-5754
▁የተዘጋጀ	-5755
ቸት	-5756
▁የአባ	-5757
▁የፖሊሲ	-5758
▁አትሌቶች	-5759
ጀምሩ	-5760
▁ወድ	-5761
ዎችንና	-5762
▁ማስፋ	-5763
▁ፉክክር	-5764
▁የስር	-5765
▁ሀገሮች	-5766
▁ክም	-5767
▁ላኪ	-5768
▁የአክሲዮን	-5769
▁ጀመረ	-5770
▁ብዙዎች	-5771
▁ይነገራል	-5772
ጠላ	-5773
▁31	-5774
▁በሊጉ	-5775
▁ካህ	-5776
▁ስላለው	-5777
▁ትችላለ	-5778
▁ሰብስክራ	-5779
ቻላቸው	-5780
▁የሰሜን	-5781
▁ማሞ	-5782
ሶን	-5783
ናን	-5784
▁ተጠቃሽ	-5785
▁መግለጫ፣	-5786
▁ለመፈፀም	-5787
▁ይኖረዋል	-5788
▁G	-5789
▁ራእይ	-5790
▁ሌሎችን	-5791
▁የመፍትሄ	-5792
▁ግሩፕ	-5793
▁ሰብስክራይብ	-5794
▁የታሪክ	-5795
▁ለጠቅላይ	-5796
ደድ	-5797
መለሰ	-5798
▁መስኖ	-5799
▁አንዳንዶቹ	-5800
ንስሳት	-5801
▁ተያያዥ	-5802
--	-5803
ለዋ	-5804
▁ውስ	-5805
▁በሚለው	-5806
▁ከጥቂት	-5807
▁መንግስትም	-5808
ግነት	-5809
ጧቸው	-5810
▁ለል	-5811
▁አቆጣጠር	-5812
▁በእንግሊዝ	-5813
▁ለመር	-5814
ለደ	-5815
ቢያው	-5816
▁የተገደ	-5817
▁ወንድም	-5818
▁እንደሚኖር	-5819
▁ብን	-5820
▁ያሰ	-5821
▁ያግ	-5822
▁ንግድና	-5823
▁L	-5824
ሽነት	-5825
▁ለቢ	-5826
▁በተከሰ	-5827
▁ወንድሞች	-5828
ትንና	-5829
▁ዳግ	-5830
▁የማህ	-5831
▁ቤተሰቦ	-5832
▁ፕላ	-5833
▁ቀርቧል	-5834
▁እርስዎ	-5835
ቪዬሽን	-5836
▁ኪሳራ	-5837
▁ማምረት	-5838
▁ለመጀመር	-5839
ዲሁ	-5840
ናቀሉ	-5841
▁ያመላክታል	-5842
ትሮ	-5843
ሰራር	-5844
▁በመሄድ	-5845
ንኩ	-5846
▁ስፋት	-5847
▁በአምላክ	-5848
▁በአምስት	-5849
▁ፊል	-5850
▁በሚቀጥለው	-5851
▁በተገኙበት	-5852
እኛ	-5853
ለጥ	-5854
የውን	-5855
ወያየት	-5856
▁ሁሉን	-5857
ማረ	-5858
ያስፖራ	-5859
▁የግብይት	-5860
27	-5861
ሙዝ	-5862
▁ይሰራል	-5863
▁አካዳሚ	-5864
መላለ	-5865
▁እዚያ	-5866
▁ከአራት	-5867
ከተለ	-5868
▁መዳ	-5869
▁አሳይቷል	-5870
ዜማ	-5871
ክለው	-5872
▁እሴት	-5873
▁በአውሮፓ	-5874
▁እንስሳት	-5875
ቅል	-5876
▁ምስራ	-5877
▁በውሀ	-5878
▁የገጠ	-5879
▁እንዲወጣ	-5880
▁ጀርባ	-5881
▁ለመረዳት	-5882
▁የተለያየ	-5883
ed	-5884
▁ዉ	-5885
▁በጤና	-5886
▁ስፍራዎች	-5887
▁ተገኝተዋል	-5888
▁እስራኤላውያን	-5889
የሙ	-5890
▁አንዷ	-5891
▁በቀጣይም	-5892
ላሴ	-5893
▁በነበሩ	-5894
ልስጤ	-5895
ስበው	-5896
▁ሰሚ	-5897
▁እረፍት	-5898
▁የማስተ	-5899
ቆት	-5900
▁ስርጭ	-5901
ዘተ	-5902
ጠቀሙበት	-5903
▁ተጠቅሞ	-5904
▁አይነቶች	-5905
▁አይደሉም	-5906
▁ወኪ	-5907
▁የተቋቋመው	-5908
▁ግል	-5909
ወግ	-5910
ደተኞች	-5911
▁ለመውሰድ	-5912
ራረብ	-5913
ሽታው	-5914
ከዚህ	-5915
▁ሚስት	-5916
▁ተፈራ	-5917
ላምና	-5918
ታውን	-5919
ከትል	-5920
ውያኑ	-5921
▁ለብዙ	-5922
▁ኪዳን	-5923
▁የከተማው	-5924
ቀረት	-5925
እንደ	-5926
▁የሚመጡ	-5927
▁ስርአትን	-5928
ጓጓ	-5929
▁36	-5930
▁ገብተዋል	-5931
▁ጠር	-5932
▁ሰበር	-5933
▁ለማቋቋም	-5934
▁ስምምነቱ	-5935
ፈነ	-5936
▁የዶ	-5937
▁ይጠይ	-5938
▁እንዲተ	-5939
ሽከርካሪ	-5940
▁በዛ	-5941
▁ቤት፣	-5942
▁ተወል	-5943
▁አደገኛ	-5944
▁300	-5945
▁አልቻለም	-5946
ክቸ	-5947
▁ማብ	-5948
ሚካኤል	-5949
▁የራሱ	-5950
▁መረዳት	-5951
▁ጠባቂው	-5952
▁የተባለውን	-5953
▁አድርጎታል	-5954
▁ይኖርበታል	-5955
ተሻ	-5956
▁ቫ	-5957
▁የማን	-5958
ኒስቴሩ	-5959
ኒኬሽን	-5960
▁ዮሴፍ	-5961
▁ተመዝግ	-5962
▁አሰልጣኞች	-5963
▁በአቶ	-5964
▁ያገኙ	-5965
▁በአራት	-5966
ዳሉ	-5967
▁ህዝብን	-5968
▁ከወዲሁ	-5969
el	-5970
▁ከቤተ	-5971
▁በግብርና	-5972
ጋፍ	-5973
ጎት	-5974
ረኞች	-5975
▁መጀመርያ	-5976
ቆማ	-5977
ቾቹ	-5978
▁የቅድመ	-5979
▁ደደቢት	-5980
▁አገልግሎቶችን	-5981
ስማማ	-5982
▁ሲሰራ	-5983
▁ማንነት	-5984
▁በሚገኝ	-5985
▁በሚደረገው	-5986
▁እንደሚጠበቅ	-5987
▁ለማጥ	-5988
▁ዘርፉን	-5989
▁ፌዴሬሽኑ	-5990
▁እንደሚሰጥ	-5991
▁መንቀሳ	-5992
ጓቸው	-5993
▁ለመደገፍ	-5994
▁ለፕ	-5995
ረጋግጥ	-5996
▁አስቆ	-5997
▁ትልልቅ	-5998
▁በኤርትራ	-5999
▁መያዙ	-6000
ርጋ	-6001
ol	-6002
ጎዱ	-6003
▁መስዋእት	-6004
▁የተፈፀመ	-6005
ቷቸው	-6006
ገመት	-6007
▁ውስን	-6008
▁የተጫዋ	-6009
▁እንቅፋት	-6010
▁በተጨማሪ፣	-6011
▁አለሙ	-6012
▁ኤልያስ	-6013
▁የተሰጠ	-6014
ቅዱ	-6015
በኙ	-6016
ልቀት	-6017
▁በክልል	-6018
ሰቦችን	-6019
▁መፍታት	-6020
▁የከተማዋ	-6021
▁ማስጠንቀቂያ	-6022
▁የመሰ	-6023
ሽንግተን	-6024
▁መግቢያ	-6025
▁መፃህፍት	-6026
▁ከድ	-6027
▁ለውጦች	-6028
▁አጠናክሮ	-6029
▁አስከባ	-6030
▁የተሰኘ	-6031
▁H	-6032
▁ላል	-6033
▁ሲሞ	-6034
▁ዲግሪ	-6035
ቶቻቸውን	-6036
▁ወቅትም	-6037
▁የገባው	-6038
▁ከተማዎች	-6039
▁ዲፕሎማሲ	-6040
ነበሩ	-6041
28	-6042
ቶቻችን	-6043
▁ቀለም	-6044
▁ፀጋዬ	-6045
▁ከሞ	-6046
▁አውራ	-6047
▁ይቀጥ	-6048
ምንቱ	-6049
▁ነበረች	-6050
ሸራ	-6051
▁ስንዴ	-6052
▁ከእኛ	-6053
▁አማራጮች	-6054
ቆየት	-6055
ናቸውም	-6056
▁ግሽ	-6057
አም	-6058
▁ማረሚያ	-6059
35	-6060
▁በአማካይ	-6061
በባ	-6062
ቻልም	-6063
ለፍነው	-6064
▁ስድ	-6065
▁ጥናቶች	-6066
▁ባቀረቡት	-6067
ሊያም	-6068
ቻችሁ	-6069
ድሞው	-6070
▁መዋቅ	-6071
▁አንዲት	-6072
▁የተባሉት	-6073
▁በእስራኤል	-6074
▁ከፕ	-6075
▁ታከለ	-6076
ነሳው	-6077
▁ሚዲያዎች	-6078
▁የሚባለው	-6079
▁የተገለፀው	-6080
ለብ	-6081
▁በሴ	-6082
▁ገዳ	-6083
▁የፓርላማ	-6084
ሪያት	-6085
▁ለአመታት	-6086
▁ተጠርጥረው	-6087
▁N	-6088
▁ያላት	-6089
▁የሁለተኛ	-6090
▁ለጎን	-6091
▁ሙዚቃ	-6092
▁የጠየ	-6093
▁በመግለፅ፣	-6094
▁በላ	-6095
▁ነገስ	-6096
▁ያነጋገራቸው	-6097
ጋቢት	-6098
▁የተደ	-6099
ጠቀምበት	-6100
▁መግለፃ	-6101
▁ከግምት	-6102
▁አብዛኛዎቹ	-6103
▁በሩ	-6104
▁አድርጋ	-6105
▁አገልግሎቱን	-6106
አዲስ	-6107
▁ወላጆች	-6108
▁ብቃ	-6109
▁ጊዜም	-6110
▁ገባ	-6111
▁1-0	-6112
▁በአም	-6113
▁ወዘተ	-6114
▁ለመግዛት	-6115
▁አስተማማኝ	-6116
ምርጫ	-6117
አንድ	-6118
▁አድማ	-6119
▁በያህዌ	-6120
▁ያለምንም	-6121
መላ	-6122
▁የመተ	-6123
ዎቻቸውን	-6124
▁አግኝቶ	-6125
▁በጠ	-6126
▁መድረኩ	-6127
▁የተውጣ	-6128
የኢትዮጵያ	-6129
▁ገለልተኛ	-6130
▁ፕሮጀክቶችን	-6131
▁ተከላካ	-6132
▁በቀር	-6133
▁ተጠይ	-6134
▁የሲዳማ	-6135
ውንና	-6136
▁መረብ	-6137
ከናወነው	-6138
ሯንዳ	-6139
▁ለበ	-6140
▁ሳጥን	-6141
▁የጥናት	-6142
il	-6143
▁አብዮ	-6144
▁2015	-6145
▁ከደቡብ	-6146
እም	-6147
▁.	-6148
▁መሆኗን	-6149
▁መክፈል	-6150
▁90	-6151
▁ተለዋ	-6152
▁ማስተካከ	-6153
ፀባረ	-6154
▁ነባ	-6155
▁መነሳ	-6156
▁ጀመር	-6157
▁መደረግ	-6158
▁መምጣቱን	-6159
▁ምስሎችን	-6160
▁አካላትን	-6161
▁ከማድረግ	-6162
ድሀኒ	-6163
▁ከክ	-6164
▁ዘገባው	-6165
▁ጫማ	-6166
▁አምባ	-6167
▁ጥናቱ	-6168
ደረሰበት	-6169
▁እንክብ	-6170
▁ተወላጆች	-6171
▁የሚያስተ	-6172
ሷን	-6173
ቧን	-6174
ቿን	-6175
▁38	-6176
▁በስነ	-6177
▁ባቡር	-6178
▁የተካሄደው	-6179
ኮል	-6180
▁ታግ	-6181
▁እለ	-6182
▁ዝም	-6183
▁በመላ	-6184
▁በጠቅላላ	-6185
▁ሽማግሌዎች	-6186
▁እንደሚገባም	-6187
ስም	-6188
▁ቀጥተኛ	-6189
▁የራሳቸውን	-6190
▁ባለመቻሉ	-6191
▁እሳ	-6192
▁ባልደረ	-6193
ህረ	-6194
ሬሽ	-6195
▁መደብ	-6196
▁ፖለቲከ	-6197
▁የተሳተፉ	-6198
▁እንዲያውም	-6199
ንሰ	-6200
ጣራት	-6201
ውሮፕላን	-6202
▁የህብረተሰብ	-6203
ገተኛ	-6204
ስልጣን	-6205
▁እንደማይችል	-6206
ለለ	-6207
ፍቱ	-6208
ፍራት	-6209
▁የሚታዩ	-6210
▁ያደርገዋል	-6211
▁ህይወታቸውን	-6212
ጠባበ	-6213
▁ፋሲ	-6214
ና፣	-6215
ረጋገጡ	-6216
▁ብር፣	-6217
▁አንዱን	-6218
▁ለአፍሪካ	-6219
▁እንዲሰራ	-6220
▁የኩባንያው	-6221
ሚያስ	-6222
ኔታው	-6223
as	-6224
▁ያወ	-6225
▁አስመ	-6226
▁ለሚገኙ	-6227
▁ተስተው	-6228
▁ጋዜጠኛ	-6229
▁በኩ	-6230
በዛ	-6231
ባማ	-6232
ኮር	-6233
ዘረጋ	-6234
▁በሀይል	-6235
▁ኮርፖሬሽኑ	-6236
ሰረቱ	-6237
▁ላሉ	-6238
▁ቃላት	-6239
▁አሳው	-6240
▁ጦ	-6241
ክርስቲያን	-6242
▁ሀላፊነቱ	-6243
ጣራ	-6244
▁መስጫ	-6245
▁መክፈ	-6246
▁ጨዋታዎችን	-6247
ጦት	-6248
▁መጠናቀቁ	-6249
▁መጨመር	-6250
ጆታ	-6251
▁ለመውጣት	-6252
ከታተሉ	-6253
▁አደሩ	-6254
▁መቀበል	-6255
ኸኝ	-6256
ውንት	-6257
▁ተፈናቃ	-6258
▁የስኳር	-6259
▁ብላ	-6260
▁ለህግ	-6261
▁ቀርቷል	-6262
▁አቤ	-6263
▁በከተማው	-6264
ቀውን	-6265
▁ለፊት	-6266
▁መያዛ	-6267
▁በተሰጠው	-6268
▁አሸናፊነት	-6269
▁ያስታወሱት	-6270
▁መፅሄ	-6271
▁ያህዌን	-6272
▁የተያያዘ	-6273
▁ይጠቁማሉ	-6274
▁አፄ	-6275
ፈፀሙት	-6276
▁ሊኖር	-6277
▁እስክ	-6278
▁ማውጣት	-6279
▁የደረሰው	-6280
ላልቅ	-6281
ቷቸዋል	-6282
▁ያጋጠ	-6283
▁የኮቪድ	-6284
▁ቋንቋዎች	-6285
▁በቱ	-6286
▁ተዘግ	-6287
▁ሰጥተው	-6288
▁ፈረንሳይ	-6289
ቋቋሙ	-6290
▁በዙ	-6291
▁ቤትና	-6292
▁የተፈጠረው	-6293
▁ዩኒቨርስቲ	-6294
▁ተመልካ	-6295
▁አራተኛ	-6296
▁ሽልማ	-6297
▁በአን	-6298
▁በሶማሌ	-6299
▁ከቻይና	-6300
37	-6301
ሰቡን	-6302
ገልገ	-6303
▁ስለሌ	-6304
▁የመንግስ	-6305
▁በኢንዱስትሪ	-6306
▁ኑሮ	-6307
▁ሆሳእና	-6308
▁ማቆያ	-6309
▁እንደመሆኑ	-6310
አር	-6311
▁ብቁ	-6312
▁መርከ	-6313
▁መናገር	-6314
▁ተጠርጣሪዎቹ	-6315
▁ማሰ	-6316
▁እነሱን	-6317
ገፅ	-6318
▁መኪ	-6319
▁ቀርቶ	-6320
▁ጊዜው	-6321
▁በአዳማ	-6322
▁መንግስቱን	-6323
▁ነጭ	-6324
▁ከዛ	-6325
ጠቀሰው	-6326
▁መብራ	-6327
▁የቻለ	-6328
ኒሻንጉል	-6329
▁በርካቶች	-6330
▁የነበራቸው	-6331
▁ፈታኝ	-6332
▁ትላንት	-6333
▁ኤፍሬ	-6334
▁አሞ	-6335
▁በከፊ	-6336
▁በሂደት	-6337
ጠም	-6338
ent	-6339
▁ኢሳያስ	-6340
▁እንግዳ	-6341
▁አሰላለፍ	-6342
▁እንደገለፁት፤	-6343
▁ሲታ	-6344
▁በጣ	-6345
▁ነች	-6346
▁ልውውጥ	-6347
▁ታይቷል	-6348
ሊና	-6349
ነኛው	-6350
▁መርህ	-6351
▁ክብረ	-6352
▁የኢንተር	-6353
▁ያደርጋሉ	-6354
▁የሰጡ	-6355
▁ምርታማ	-6356
▁ለመድረስ	-6357
▁ሽረ	-6358
▁የክፍያ	-6359
▁እንክብካቤ	-6360
ቃስ	-6361
ዚያው	-6362
▁ፅኑ	-6363
▁ለባለ	-6364
▁ህልውና	-6365
▁የቡድን	-6366
ድሜ	-6367
▁የሰማ	-6368
ac	-6369
▁የዛሬ	-6370
▁ደመወዝ	-6371
▁ተከላካዮች	-6372
ቂቁ	-6373
ይዙ	-6374
▁ምትክ	-6375
26	-6376
ሬዝ	-6377
ያዣ	-6378
▁የመር	-6379
ነብ	-6380
ፌዴሬሽን	-6381
▁አደርጋ	-6382
▁የጠበቀ	-6383
▁ማም	-6384
ሩ፣	-6385
ጠሉ	-6386
▁ለባ	-6387
▁ርዝ	-6388
▁ሳል	-6389
▁ፍል	-6390
ታች	-6391
ናል፤	-6392
▁በጀ	-6393
▁ተክለ	-6394
▁የቀረ	-6395
▁ማሳየት	-6396
ዘዝ	-6397
▁አይን	-6398
▁ፍቃዱ	-6399
▁ይግባኝ	-6400
▁ሚኒስትሩ፣	-6401
የቱ	-6402
▁መሻሻል	-6403
ወል	-6404
ባንድ	-6405
ጎብኙ	-6406
▁ለይቶ	-6407
▁የኬንያ	-6408
ታትን	-6409
▁አያሌ	-6410
▁ሳን	-6411
▁እውቀ	-6412
▁ፍለጋ	-6413
▁ጥሰ	-6414
▁ያላትን	-6415
ዋይ	-6416
▁ይስ	-6417
ስተዋወቅ	-6418
ማርያም	-6419
▁ለማለት	-6420
▁እንደማያ	-6421
▁የመሳሰሉ	-6422
ሬዎች	-6423
▁ከቦ	-6424
▁ሲገባ	-6425
▁የክስ	-6426
▁በተባበሩት	-6427
ደረጋቸው	-6428
▁መጀመር	-6429
▁ማኔጅመንት	-6430
▁ነክ	-6431
▁ፋይዳ	-6432
▁ጨምረው	-6433
▁መቆየቱን	-6434
ለቆ	-6435
▁በትኩረት	-6436
▁ጥንካሬ	-6437
▁የድንበር	-6438
ታና	-6439
▁ናይ	-6440
▁አለን	-6441
▁ይጎብኙ	-6442
ደራጁ	-6443
▁ከእነሱ	-6444
▁ወቅት፣	-6445
ሞቹ	-6446
ካቸው	-6447
ወስዱ	-6448
▁ጴጥሮ	-6449
▁እስከሚ	-6450
▁የሀዋሳ	-6451
▁ተሰር	-6452
▁ተጠሪ	-6453
▁ተጠናቆ	-6454
▁ጉምሩክ	-6455
▁አይደለም፤	-6456
ዌር	-6457
▁አጠገብ	-6458
▁የሳይንስ	-6459
ዊያን	-6460
▁ፍራ	-6461
▁የተጠ	-6462
▁አለመግባባት	-6463
▁ነገስታት	-6464
▁ዩኒቨርሲቲዎች	-6465
▁ተናግረው	-6466
ንሳዊ	-6467
ከናውን	-6468
ወዳደር	-6469
▁በድምሩ	-6470
▁የቅዱስ	-6471
ስማሙ	-6472
▁የነፃ	-6473
▁ኢነርጂ	-6474
▁እንዲካሄድ	-6475
▁ሀይለማርያም	-6476
ጠጥ	-6477
▁ስና	-6478
▁ባሪያ	-6479
▁ነውና	-6480
▁የፊት	-6481
▁ማዳበሪያ	-6482
▁የሀብረተሰብ	-6483
ንድነው	-6484
▁ሁሴን	-6485
▁ያመለክታሉ	-6486
ኒየም	-6487
▁ሰሌ	-6488
▁እሳት	-6489
▁ዛሬም	-6490
▁በመንፈ	-6491
▁ኮሎኔል	-6492
ማች	-6493
▁ሀሰን	-6494
▁ለተለያዩ	-6495
▁አካባቢው	-6496
▁ማካሄድ	-6497
ንቱ	-6498
▁የሰጠ	-6499
ጋች	-6500
▁የሜ	-6501
▁ተፈጥ	-6502
▁ምስል	-6503
▁በበርካታ	-6504
▁የሽግግር	-6505
ርቶዶ	-6506
▁ሲሳይ	-6507
▁የባህል	-6508
▁የክለቡ	-6509
▁የሚደርሱ	-6510
▁ሀላፊነቱን	-6511
ባሪ	-6512
▁በማድረ	-6513
▁ከተማዋ	-6514
▁በማውጣት	-6515
▁የተለመደ	-6516
▁ዘመነ	-6517
▁በየቀኑ	-6518
ሎጂስቲክስ	-6519
▁እንደምን	-6520
ነገረው	-6521
ገገ	-6522
መናት	-6523
▁ይልቁ	-6524
▁ከእሱ	-6525
▁ኮንግ	-6526
▁ለመያዝ	-6527
am	-6528
መውን	-6529
▁በቀረ	-6530
▁ሰማያዊ	-6531
ረጡ	-6532
ቆጠረው	-6533
▁ካቢኔ	-6534
▁ሁለቱን	-6535
▁የተሞላ	-6536
▁ተፎካካሪ	-6537
ዴል	-6538
▁መስተ	-6539
▁ሀሳቦችን	-6540
ኪንግ	-6541
▁በየነ	-6542
▁እንግዲህ	-6543
▁የቤተሰብ	-6544
▁የኬ	-6545
▁ጤናማ	-6546
▁የሚገልፅ	-6547
▁የተከላካይ	-6548
ስቶች	-6549
ፋክቸ	-6550
ላሚ	-6551
▁በቶ	-6552
ክሲዮኖች	-6553
▁መድረኮች	-6554
▁የእድገትና	-6555
ፍራው	-6556
▁ምኞ	-6557
▁ጉሙዝ	-6558
▁እንስሳ	-6559
▁ውስጥና	-6560
▁ቆሻሻ	-6561
ኞቹን	-6562
▁ቴክ	-6563
▁የኑሮ	-6564
▁እንደሚቀጥል	-6565
▁አስተያየታቸውን	-6566
ገቢው	-6567
▁በትን	-6568
▁አካሂ	-6569
▁የተሸ	-6570
▁ካላ	-6571
ባበሪያ	-6572
▁አስታውሰው	-6573
ክፈት	-6574
ጭበር	-6575
▁መራ	-6576
ስብስብ	-6577
▁ተሰብ	-6578
▁በጉዳት	-6579
▁የተፈረ	-6580
▁አማኑኤል	-6581
ቦቹ	-6582
ጥቂ	-6583
ሚካል	-6584
ድመው	-6585
▁ማምረቻ	-6586
▁ሲካሄድ	-6587
▁የሚካሄደው	-6588
ለኛል	-6589
▁የጨ	-6590
▁ሽንፈት	-6591
▁ወዲያውኑ	-6592
ሬስ	-6593
ብርብ	-6594
ሸጋገር	-6595
▁በዘላቂ	-6596
▁የደሀንነት	-6597
በሉ	-6598
ንሰር	-6599
▁የድምፅ	-6600
▁በተከታታይ	-6601
ችሎ	-6602
▁የና	-6603
▁የሰነ	-6604
▁ወረቀት	-6605
▁የምርምር	-6606
▁የተሰጠውን	-6607
▁ኢንዱስትሪው	-6608
ማሪያ	-6609
▁ሰነዶች	-6610
▁ግቦችን	-6611
▁ጐ	-6612
▁ተቀብሎ	-6613
▁እንዲመለሱ	-6614
▁ፃ	-6615
መሰረተ	-6616
▁ተመስርቶ	-6617
▁እየተከናወነ	-6618
▁የዜና	-6619
▁ቼ	-6620
▁ሳም	-6621
▁የሙያ	-6622
▁መጠየቅ	-6623
ልቻ	-6624
▁ታስቦ	-6625
▁ደህን	-6626
▁የአምላክን	-6627
ፈጥሮ	-6628
▁ምግ	-6629
▁ተተ	-6630
▁ይጨ	-6631
▁መድረሱ	-6632
▁ከሁለቱ	-6633
▁ማእከላት	-6634
ነሽ	-6635
▁በሜዳው	-6636
▁ኤጀንሲው	-6637
▁ያስችላል	-6638
▁የሚደ	-6639
▁ከአሜሪካ	-6640
ፋይ	-6641
ቲዩብ	-6642
ከፋፈ	-6643
ክልት	-6644
▁ኢላማ	-6645
▁ሰራዊቱ	-6646
▁እስራት	-6647
▁ከመጀመሪያ	-6648
▁ከረ	-6649
▁እርሱ	-6650
▁በአካባቢ	-6651
ኑፋክቸ	-6652
▁ሞገስ	-6653
▁ማጣሪያ	-6654
▁የተያያዙ	-6655
▁ወስዶ	-6656
▁ማበረታ	-6657
▁ተጨባጭ	-6658
▁ውሳኔዎች	-6659
▁ሰራተኞችን	-6660
ባቸውና	-6661
▁መድረስ	-6662
▁አቅራቢያ	-6663
▁የተከፈለ	-6664
▁ተጠቃሚዎች	-6665
ንቦት	-6666
ጂነር	-6667
ነታችን	-6668
ገባችን	-6669
▁የሚሆነ	-6670
▁የሚካሄድ	-6671
▁ድብ	-6672
▁ቅርፅ	-6673
▁ተናገሩ	-6674
▁አይቀር	-6675
▁የሚያግ	-6676
▁በትዊተር	-6677
▁ሁኔታዎችን	-6678
ከባቢ	-6679
▁65	-6680
ጠርጣሪ	-6681
▁አልበ	-6682
ረቃ	-6683
ቁሞ	-6684
ዋቸው	-6685
▁ሲሰሩ	-6686
▁ቆጠራ	-6687
▁ጀምሯል	-6688
ሮጀክት	-6689
▁ከጠቅላይ	-6690
▁አስፈፃሚው	-6691
▁ፍቅ	-6692
▁በነፃነት	-6693
▁የሆኑትን	-6694
▁የፈረንሳይ	-6695
እል	-6696
▁አገልግ	-6697
▁ሀሳባቸውን	-6698
▁አገኘ	-6699
▁ይመል	-6700
▁የሚቀርቡ	-6701
▁ቀጠና	-6702
▁በባህ	-6703
▁የብዙ	-6704
▁ቢዝነስ	-6705
▁አልቻሉም	-6706
▁ያቀርባል	-6707
▁ሪፖርተር፡	-6708
▁ኢንዱስትሪዎች	-6709
ሙላት	-6710
▁ይሸ	-6711
▁ከእስር	-6712
▁ጉድለት	-6713
▁የተጠረጠሩ	-6714
▁ለጊዜው	-6715
▁ተመጣጣኝ	-6716
ቃይ	-6717
▁ይገመ	-6718
▁እንዲችሉ	-6719
ጎማ	-6720
▁የጉዞ	-6721
▁አገሪቱን	-6722
▁ከሶ	-6723
ስፋፋት	-6724
▁ዘመኑ	-6725
▁ሁላችንም	-6726
▁በተያዘው	-6727
▁ሉቃስ	-6728
▁ተፈፅ	-6729
▁ሙሉጌታ	-6730
▁ኢንጂነሪንግ	-6731
ሶቹ	-6732
ነቃ	-6733
ኩም	-6734
ድ፣	-6735
ርያት	-6736
ሸነፈ	-6737
▁ኪዳ	-6738
▁ገዝ	-6739
▁መምጣት	-6740
▁በሰፊው	-6741
▁አእምሮ	-6742
▁ከስድስት	-6743
▁የለበትም	-6744
▁የመጀመሪያውን	-6745
ግሮ	-6746
ናጠል	-6747
ከፈለው	-6748
▁በአየር	-6749
▁ለደ	-6750
▁ማታ	-6751
▁ሰፋ	-6752
▁ሌሎቹ	-6753
▁ፀሀይ	-6754
▁በተወሰነ	-6755
▁የተቀናጀ	-6756
▁ጥቃቶች	-6757
▁ተጋላጭ	-6758
ደይ	-6759
▁የአሰራር	-6760
92	-6761
▁ቅፅ	-6762
▁መስራ	-6763
▁የውጪ	-6764
ግሞ	-6765
▁የሚባሉ	-6766
▁ሶስተኛው	-6767
▁ሲቪል	-6768
▁ይጀም	-6769
▁በቀጣዩ	-6770
▁ወልዋሎ	-6771
▁ለግብ	-6772
▁ጨርቅ	-6773
▁ፕሬስ	-6774
ርቶዶክስ	-6775
ሳችሁ	-6776
▁በኪ	-6777
▁በምክትል	-6778
▁ባሳለፍነው	-6779
▁ስዩም	-6780
▁ተከሳሽ	-6781
▁የህዝቡን	-6782
et	-6783
▁ሊታ	-6784
▁መወሰኑን	-6785
▁ሪፐብሊክ	-6786
ላላቅ	-6787
▁ታይቶ	-6788
▁የወጡ	-6789
▁ያተኮረ	-6790
ጠፉ	-6791
ውልድ	-6792
▁በመጣ	-6793
▁የመኪና	-6794
ችም	-6795
▁አስገ	-6796
▁ስማቸው	-6797
▁አሰልጣኙ	-6798
ናቅ	-6799
▁ቂ	-6800
▁ጥብቅ	-6801
▁ፊርማ	-6802
▁ማእድን	-6803
▁በመባል	-6804
▁እንጂ፣	-6805
▁የብሄር	-6806
▁የሚጠይቅ	-6807
▁የአም	-6808
▁ለገበያ	-6809
ኑፋክቸሪንግ	-6810
▁ለማስወገድ	-6811
ከበ	-6812
ከብር	-6813
▁ጆን	-6814
▁ተለይ	-6815
▁በፍፁም	-6816
▁ኤፍሬም	-6817
▁እንዲገባ	-6818
ከተሞች	-6819
▁ቀንድ	-6820
▁መፈፀም	-6821
▁የመሀል	-6822
▁ለመርዳት	-6823
ብቻ	-6824
ለቀቁ	-6825
▁መንደር	-6826
▁ወንጀሎች	-6827
▁ደረጃዎች	-6828
▁እንደሚኖረው	-6829
▁ቤን	-6830
▁በእሱ	-6831
▁አመፅ	-6832
▁ካርታ	-6833
▁ያስታው	-6834
አዛ	-6835
and	-6836
2014	-6837
▁ለሌላ	-6838
▁መስፋ	-6839
▁ተጫው	-6840
▁ታዛቢ	-6841
▁ከቤት	-6842
▁ገፃቸው	-6843
▁የኩ	-6844
▁ማእረግ	-6845
▁መላው	-6846
▁ለበርካታ	-6847
▁አገራቸው	-6848
▁የተፈጠረውን	-6849
▁አስተላልፈዋል	-6850
ቆመ	-6851
▁ያዘ	-6852
▁በዚያው	-6853
▁ተከትሎም	-6854
▁የማስከበር	-6855
ያውቁ	-6856
ጊዜም	-6857
▁አደረጃጀ	-6858
▁እያንዳንዳቸው	-6859
▁የሚመለከታቸው	-6860
1)	-6861
▁ኒው	-6862
▁ይወስ	-6863
▁ተስማሚ	-6864
▁ከከተማ	-6865
▁ለፌዴራል	-6866
▁ተመራማሪ	-6867
▁ይካሄ	-6868
▁ውስጥ፣	-6869
▁የመንግስትን	-6870
መዱ	-6871
ነካ	-6872
▁ቦሌ	-6873
▁ቢሆኑ	-6874
▁ከተማው	-6875
▁የአደጋ	-6876
▁የሞባይል	-6877
ርም	-6878
ችግር	-6879
▁የሚኖረው	-6880
of	-6881
ደለ	-6882
▁እፅ	-6883
▁ገብቷል	-6884
▁አብዛኛውን	-6885
▁እንደሆነ፣	-6886
33	-6887
▁ከየ	-6888
መንግስ	-6889
ፈልጋሉ	-6890
▁ማስተካከያ	-6891
▁የተከሰተው	-6892
ራሚ	-6893
ሀመድ	-6894
ለያይ	-6895
▁ስህተ	-6896
▁አጥብ	-6897
▁በመከላከያ	-6898
ሌም	-6899
ቋንቋ	-6900
ደረጃው	-6901
▁ከህዝብ	-6902
መኔ	-6903
ሁል	-6904
▁መገለጫ	-6905
▁በከፊል	-6906
ገፍ	-6907
ደረገውን	-6908
▁የሲቪል	-6909
▁ውስብስብ	-6910
▁የክልሉን	-6911
▁ለማስገባት	-6912
▁እንዲኖረው	-6913
ልኮ	-6914
ቆር	-6915
▁ሀሰተኛ	-6916
▁መመልከት	-6917
መጣው	-6918
ሪስት	-6919
ከተሉ	-6920
ዎቻችን	-6921
▁ፕላን	-6922
▁የሁሉም	-6923
▁አሳስቧል	-6924
▁አርባምንጭ	-6925
▁ውድድሩ	-6926
▁ያወጣው	-6927
▁ለመም	-6928
▁የጀመሩት	-6929
▁የፌዴሬሽን	-6930
▁ብድ	-6931
29	-6932
ንጆ	-6933
ስታን	-6934
ዚያን	-6935
▁በአፋር	-6936
▁በማድረግ፣	-6937
▁የሚኒስትሮች	-6938
በመ	-6939
▁ያነሰ	-6940
▁በተባለው	-6941
ሽከርካሪዎች	-6942
▁እንደሚሰሩ	-6943
▁በአሉ	-6944
▁መዘገባችን	-6945
▁ከእነዚህም	-6946
▁ስፔ	-6947
▁እዝ	-6948
▁ጨር	-6949
▁አንዳር	-6950
▁የሀብት	-6951
▁መንቀሳቀስ	-6952
ዌይ	-6953
ፈራው	-6954
▁ፈል	-6955
▁በእኔ	-6956
ላህ	-6957
ያችን	-6958
▁ቅዱ	-6959
▁ያካት	-6960
▁የኮንስትራክሽን	-6961
ቲቭ	-6962
ጣሬ	-6963
ሮባንድ	-6964
▁ማሰል	-6965
▁ተላል	-6966
▁በየትኛውም	-6967
የህ	-6968
ጥሎ	-6969
ገሪቷ	-6970
▁ልታ	-6971
ላለፉት	-6972
▁የተያዘ	-6973
▁ቅርንጫፎች	-6974
▁ብክ	-6975
▁የዱ	-6976
መሰግና	-6977
▁መሰብሰብ	-6978
▁በተፈጠረው	-6979
▁ለረ	-6980
▁ውሳኔው	-6981
ረከብ	-6982
ቀደው	-6983
▁ኪራይ	-6984
▁በእርግ	-6985
ቧቸው	-6986
▁የመግ	-6987
ፉትን	-6988
ሰማራት	-6989
▁መጠቀ	-6990
▁ሀጢአት	-6991
▁ተቀይሮ	-6992
▁ይኖራል	-6993
ጥና	-6994
ቶችም	-6995
ጥታው	-6996
▁ተዳ	-6997
▁ገመ	-6998
መዘገበ	-6999
በረታታ	-7000
▁በቅን	-7001
▁ሜትሪክ	-7002
▁ተጨዋቾች	-7003
ቃወሚያ	-7004
▁የጥራት	-7005
ቲያ	-7006
ጣዊ	-7007
▁መስቀል	-7008
▁ሲናገሩ	-7009
▁በአካል	-7010
▁ማራ	-7011
▁ደራ	-7012
▁ለመቀበል	-7013
▁በዘላቂነት	-7014
48	-7015
▁ትችላለህ	-7016
ፅህና	-7017
▁እሸ	-7018
▁አዛዥ	-7019
▁ፍቃድ	-7020
▁ከጀመረ	-7021
▁ያካተተ	-7022
▁በጥንቃቄ	-7023
▁ይጠቁማል	-7024
ሰነ	-7025
▁ማለፍ	-7026
▁ፋብሪካው	-7027
▁ለማስጠበቅ	-7028
75	-7029
ርታ	-7030
ጨበ	-7031
ርስዎ	-7032
▁ሞክ	-7033
▁ቅዱስን	-7034
▁ለመጫወት	-7035
ቅድሚያ	-7036
▁ከነዚህ	-7037
▁የሙዚቃ	-7038
ራዊት	-7039
ኢንጂነር	-7040
65	-7041
op	-7042
ሆኗ	-7043
▁በቃ	-7044
▁400	-7045
▁ኮሮና	-7046
▁ፈንታ	-7047
▁አመቱን	-7048
ሮስ	-7049
ገፋ	-7050
▁እንዲፈጠር	-7051
▁የአባይ	-7052
▁የሚንቀሳቀሱ	-7053
▁ከለ	-7054
▁በቤት	-7055
▁ምናልባትም	-7056
ሲሲ	-7057
ዘመን	-7058
▁ጠን	-7059
▁ዘውዴ	-7060
▁ድምፃ	-7061
▁የሌሎች	-7062
▁የሚታየው	-7063
ሬው	-7064
በን	-7065
ዜጎች	-7066
የቱን	-7067
▁በለ	-7068
▁ከማን	-7069
▁ተማሪዎችን	-7070
ወያዩ	-7071
▁እንደታ	-7072
▁ታጣቂዎች	-7073
▁የሚያቀርቡ	-7074
▁ቡናዎች	-7075
ጠናቅ	-7076
▁ይሞ	-7077
▁ደግሞ፣	-7078
▁የሚችለውን	-7079
▁ቢኖሩ	-7080
▁ሽመልስ	-7081
▁በምክር	-7082
▁በሪፖር	-7083
▁ጠቅሶ	-7084
ሟቸው	-7085
▁ጥሬ	-7086
▁ማጠናከር	-7087
ሳተፈ	-7088
ካቲት	-7089
▁ተይዞ	-7090
▁ጋዝ	-7091
▁አዝማ	-7092
▁ጎሎች	-7093
▁እንዳላ	-7094
▁የደህንነት	-7095
ድዋ	-7096
▁ምእ	-7097
ጠናከረ	-7098
ረሱን	-7099
▁የሻ	-7100
▁እፈልጋ	-7101
▁እንደሚያደርጉ	-7102
▁ይባላል	-7103
▁75	-7104
▁የአፍ	-7105
▁በማሳደግ	-7106
ሯዊ	-7107
▁ለሁለተኛ	-7108
▁አድና	-7109
▁የቅጣት	-7110
▁ለብሄራዊ	-7111
▁የተካሄደ	-7112
ጋድ	-7113
▁በእኛ	-7114
▁መዝሙር	-7115
▁ናቸው፤	-7116
▁መሳሪያዎችን	-7117
ትመት	-7118
ኖርም	-7119
▁በደል	-7120
▁ወረራ	-7121
▁የተደረጉ	-7122
▁የሀገሪቱን	-7123
በእ	-7124
ቻለም	-7125
ዎንታዊ	-7126
▁አይነቱ	-7127
▁ክምችት	-7128
▁ለኢን	-7129
▁ቅጥር	-7130
▁ሲደርስ	-7131
▁በመመር	-7132
▁ለመል	-7133
▁ከምን	-7134
▁ተመልሶ	-7135
▁ወንድሙ	-7136
▁በዘመነ	-7137
▁ሚኒስትሮች	-7138
ሂም	-7139
▁ረድ	-7140
▁ተቆጥ	-7141
▁ሂደቱን	-7142
▁ርብርብ	-7143
▁የተሰሩ	-7144
▁ይታያል	-7145
▁በተጠናቀቀው	-7146
▁መከላከ	-7147
▁ኮርፖሬት	-7148
ለር	-7149
መናል	-7150
▁ሰነዱ	-7151
▁ይዟል	-7152
ተም	-7153
▁ጢ	-7154
▁ቀረ	-7155
▁ቅስ	-7156
▁ድልድ	-7157
▁ፌዴራ	-7158
ጂዎች	-7159
▁በህዝ	-7160
▁በመመ	-7161
▁የፈረ	-7162
▁እንዳሳ	-7163
▁እንደሚካሄድ	-7164
▁ቀለ	-7165
▁ድክ	-7166
ሪታንያ	-7167
ub	-7168
ደጋፊ	-7169
▁ዲዛይን	-7170
▁ተካሂዷል	-7171
▁ለጋዜጠኞች	-7172
ፈፅም	-7173
ኞቻቸው	-7174
▁አስከ	-7175
▁አክር	-7176
▁ይፈጥ	-7177
▁የካፒታል	-7178
▁የሚደረገውን	-7179
.)	-7180
ቃቱ	-7181
▁መጥቶ	-7182
▁ትኩረ	-7183
▁የመቀ	-7184
▁ግፊት	-7185
ከፍሉ	-7186
▁ከማእ	-7187
▁የጎል	-7188
▁መጥተው	-7189
ቃለሁ	-7190
ከባድ	-7191
ፀድቅ	-7192
▁አዎ	-7193
▁የሚነሱ	-7194
▁ማስታወሻ	-7195
▁ፕሪሚየር	-7196
he	-7197
ርጅ	-7198
ቀበሉ	-7199
▁ይል	-7200
▁የማሳ	-7201
▁የወቅ	-7202
▁በአመቱ	-7203
▁አዲሱን	-7204
▁አጨዋወት	-7205
91	-7206
▁ጥቆማ	-7207
▁ገለፃ፤	-7208
▁በመገንባት	-7209
ቃለን	-7210
▁የአዋ	-7211
▁የጎላ	-7212
▁ማስቆጠር	-7213
▁አስተናግ	-7214
▁ደቀ	-7215
▁በስድስት	-7216
ረሚያ	-7217
▁ብዙውን	-7218
▁የአሁኑ	-7219
▁በማህበራዊ	-7220
▁የቀረበውን	-7221
ሳ፣	-7222
ቤን	-7223
ጋን	-7224
▁ግን፣	-7225
▁የሚኖር	-7226
▁ከሚገኘው	-7227
ኖት	-7228
ሮቹን	-7229
ከፍል	-7230
▁ዛፍ	-7231
ፈፀሚያ	-7232
▁ማሰብ	-7233
▁ሰላምን	-7234
▁ማድረጋቸው	-7235
▁ተግባራትን	-7236
ሽናል	-7237
▁ተና	-7238
▁ቡናን	-7239
▁ነባር	-7240
▁ያእቆብ	-7241
▁የአመራር	-7242
▁አቤል	-7243
fanab	-7244
▁ለማሳየት	-7245
▁በመድረኩ	-7246
▁እንደሚቀ	-7247
▁የሚቀርብ	-7248
▁በአንድነት	-7249
ብዳቤ	-7250
▁ተመድ	-7251
▁መንገደ	-7252
▁ማምጣት	-7253
▁በኬንያ	-7254
▁ልጃ	-7255
ጀንሲው	-7256
▁ለቢቢሲ	-7257
▁ነበረው	-7258
▁የተውጣጡ	-7259
ቪስ	-7260
▁በእግር	-7261
▁ቁርጠኝነት	-7262
▁ኢትዮጵያና	-7263
ተረ	-7264
▁የሚቻል	-7265
ክሌ	-7266
▁ማስተማር	-7267
▁ማከናወን	-7268
▁ዳይሬክቶ	-7269
▁ቄ	-7270
lev	-7271
ብዛም	-7272
ፍረት	-7273
▁ትእዛ	-7274
▁ኦሊምፒክ	-7275
▁መስፈርቶች	-7276
▁ለቆ	-7277
▁በመዝ	-7278
▁ቦታው	-7279
አቱ	-7280
ፍትህ	-7281
▁ጥበ	-7282
▁ሰሌዳ	-7283
▁ያለን	-7284
▁ይኸው	-7285
ነን	-7286
▁ኢያ	-7287
ታቸውንም	-7288
▁የእለት	-7289
ኮቹ	-7290
ሪዎቹ	-7291
▁የጂ	-7292
▁ፎር	-7293
ላለፈው	-7294
▁አበባና	-7295
▁የሁለቱን	-7296
▁አትሌቲክስ	-7297
ልታ	-7298
እዝ	-7299
ተሮች	-7300
ሰባቸው	-7301
▁የድጋፍ	-7302
▁በነበረበት	-7303
▁በግራ	-7304
▁አሳልፎ	-7305
ዛቀ	-7306
▁ተንታ	-7307
▁ቁጥራቸው	-7308
▁የዩቲዩብ	-7309
▁ሊትር	-7310
▁ተዋህ	-7311
▁ፎረም	-7312
▁ዲሞክራሲ	-7313
▁በየደረጃው	-7314
ክሎ	-7315
ጫን	-7316
▁ወራ	-7317
▁ብይን	-7318
▁የቱሪዝም	-7319
▁ያለበትን	-7320
ሮኮ	-7321
▁በኮን	-7322
▁መጀመሩ	-7323
▁እርግጥ	-7324
▁የሚሳተፉ	-7325
▁ኢንቨስትመን	-7326
ንቀት	-7327
▁44	-7328
▁ሴራ	-7329
▁የግራ	-7330
ዘርላንድ	-7331
▁አግኝቷል	-7332
▁ኮሚሽነሩ	-7333
▁ስላሉ	-7334
▁የሚቃ	-7335
▁ጠዋት	-7336
▁ካሳሁን	-7337
▁ለማውጣት	-7338
▁እናደርጋ	-7339
▁W	-7340
ቃለች	-7341
መዘገቡ	-7342
▁ኮሌጅ	-7343
▁በጥናት	-7344
▁በፀጥታ	-7345
▁የስደተኞች	-7346
▁እንደሚያመለክ	-7347
!"	-7348
ሚን	-7349
▁ደሴ	-7350
▁ለእኔ	-7351
▁ሩሲያ	-7352
▁ቪዲዮ	-7353
▁ከነበሩት	-7354
▁ማቋቋ	-7355
▁ደረጃን	-7356
ክን	-7357
ፈቱ	-7358
▁አዋጁን	-7359
▁የተጠየ	-7360
ለቁ	-7361
▁ብጥብ	-7362
ሰባቸውን	-7363
▁ከክልሉ	-7364
ከበሩ	-7365
ደሮች	-7366
▁ኦፕ	-7367
▁ተቀማጭ	-7368
▁ከታክስ	-7369
▁በትብብር	-7370
▁እናመሰግና	-7371
ይድ	-7372
ታቸው፣	-7373
▁በሞት	-7374
▁ከግብፅ	-7375
▁ከብሄራዊ	-7376
▁የጎደ	-7377
▁ያረጋግ	-7378
▁አንዳንዶች	-7379
▁ሳህለ	-7380
▁አለመረጋጋት	-7381
ወከል	-7382
▁ውዝግብ	-7383
▁ጀርመን	-7384
▁በተገቢው	-7385
ርጎ	-7386
ሳኤ	-7387
▁ይው	-7388
▁በማጥ	-7389
▁ቢቢሲ	-7390
▁ወጥተው	-7391
▁ለአገሪቱ	-7392
ላ፣	-7393
ኝታ	-7394
ዛቸው	-7395
ብርሀን	-7396
▁ይላኩ	-7397
▁ሊደረግ	-7398
▁ትውልደ	-7399
▁በመቃወም	-7400
▁ካሜ	-7401
▁በወጣ	-7402
▁የመስኖ	-7403
▁አምላክን	-7404
▁የእምነት	-7405
በርት	-7406
ቸገሩ	-7407
▁አስፍ	-7408
▁የፕሮ	-7409
▁ፍራን	-7410
ዋስ	-7411
▁ልደታ	-7412
▁የግብር	-7413
ነተኛ	-7414
▁የገለፁ	-7415
▁የሰራተኛ	-7416
▁በኢትዮጵያና	-7417
ሪና	-7418
▁ማፅ	-7419
fanate	-7420
▁በቅርበት	-7421
ብል	-7422
ካሄዱት	-7423
▁ኦዲት	-7424
▁ጂቡቲ	-7425
▁አድርገ	-7426
ቼን	-7427
▁በተቋ	-7428
▁ከዚሁ	-7429
▁የቀን	-7430
▁የበጎ	-7431
▁ፖሊሶች	-7432
▁ምንጊዜም	-7433
▁በመለየት	-7434
▁አገልግሎቱ	-7435
ሰሱ	-7436
ናችን	-7437
▁የእጅ	-7438
▁የሚሆነውን	-7439
▁ኤስ	-7440
▁መጠጥ	-7441
▁የሶማሌ	-7442
▁እንደምታ	-7443
▁ዜናዎችን	-7444
fanatelev	-7445
ካሂድ	-7446
ዘጋጃ	-7447
▁የመነ	-7448
▁የማህበራዊ	-7449
▁ብሄረሰቦችና	-7450
ታደራዊ	-7451
▁መገን	-7452
▁አሊያም	-7453
▁በመስመር	-7454
▁በእንዲህ	-7455
ሌን	-7456
▁198	-7457
▁ተከፍ	-7458
▁ውጥረት	-7459
▁እናመሰግናለን	-7460
ህጉ	-7461
ባቱ	-7462
ይነ	-7463
ቨስተ	-7464
▁ሄደ	-7465
▁ተሟ	-7466
ውያንን	-7467
▁አልጋ	-7468
▁በነገው	-7469
ሺዎች	-7470
▁አይቀርም	-7471
ሜል	-7472
ማንድ	-7473
▁ጅፋር	-7474
▁ፍሰት	-7475
▁በወንጀል	-7476
▁ከተደረገ	-7477
▁የተሰኘው	-7478
ለዱ	-7479
▁ከጠ	-7480
▁ዋነኛው	-7481
ላጆ	-7482
ደቢ	-7483
ፀድ	-7484
▁ገም	-7485
▁ይገኝ	-7486
ation	-7487
▁የተሟሉ	-7488
300	-7489
ደግፍ	-7490
▁ቆይቶ	-7491
▁ስምምነቶች	-7492
ች፣	-7493
ጓዳ	-7494
ማርኛ	-7495
አቀፍ	-7496
▁ምክንያቱ	-7497
ደዱ	-7498
▁ይወ	-7499
▁በተሰ	-7500
▁ከሰማ	-7501
▁የሊጉ	-7502
▁ለምክር	-7503
▁ይቀጥላል	-7504
▁ለማስቀጠል	-7505
▁አደርጋለሁ	-7506
አቸው	-7507
ዘውም	-7508
▁በንግ	-7509
ሙኒኬሽን	-7510
▁እምብዛም	-7511
ፈጥ	-7512
▁ኮርፖሬ	-7513
▁በግንባሩ	-7514
▁ፕሬዚደንት	-7515
▁ከዳ	-7516
ሳችንን	-7517
▁አሰባ	-7518
ኝን	-7519
ኩን	-7520
ንጉሱ	-7521
▁55	-7522
▁ሄኖክ	-7523
▁አፅድ	-7524
▁የአረ	-7525
▁ለህዝቡ	-7526
▁ባሉበት	-7527
▁የአምስት	-7528
ጡረታ	-7529
▁ጠላ	-7530
ፈልግም	-7531
▁ታፈሰ	-7532
▁ከእኔ	-7533
▁የኮንት	-7534
▁የሚችሉት	-7535
▁በማዘጋጀት	-7536
▁የኮሮናቫይረስ	-7537
ዮስ	-7538
▁ፊልም	-7539
▁በአገራችን	-7540
▁ፑ	-7541
ፒታሉ	-7542
....	-7543
▁ለመግታት	-7544
id	-7545
ምስ	-7546
▁መውሰ	-7547
▁የተቃውሞ	-7548
▁ድርጊቶች	-7549
▁ሰጠ	-7550
ዘርጋት	-7551
▁ግራም	-7552
▁የግድቡ	-7553
▁የተቀላቀ	-7554
▁እንዲኖራቸው	-7555
▁ቴሌግራም	-7556
▁የሚታወቅ	-7557
▁በህይወ	-7558
▁ከሱዳን	-7559
▁የመድን	-7560
▁ይፈልጋሉ	-7561
▁የሪ	-7562
▁ጥንታዊ	-7563
▁በድሬዳዋ	-7564
ላሳ	-7565
ካፈል	-7566
▁39	-7567
▁ሸቀ	-7568
ግበሪያ	-7569
▁ቀጣና	-7570
▁ተጫዋቹ	-7571
▁አውጥቶ	-7572
▁ለመሳተፍ	-7573
▁እየተባለ	-7574
ደውን	-7575
▁ታቅዶ	-7576
▁የአስ	-7577
▁አረንጓዴ	-7578
▁ኤርሚያስ	-7579
▁የዩኒቨርሲቲ	-7580
2006	-7581
▁አበረታ	-7582
▁ውጤቱን	-7583
▁በማንሳት	-7584
▁ባቀረበው	-7585
▁የንብረት	-7586
▁ተገናኝተው	-7587
ደራደር	-7588
▁ሁከት	-7589
▁ብሩክ	-7590
▁ወጣቱ	-7591
▁ሁኔታው	-7592
▁አለመቻ	-7593
▁ወስደው	-7594
▁የተመለከተ	-7595
ig	-7596
▁ውጤቱ	-7597
▁በፅሁፍ	-7598
▁የሚጠጉ	-7599
▁ይገመታል	-7600
▁ባለሙያዎችን	-7601
▁በእርግጠኝነት	-7602
ሽና	-7603
ወትር	-7604
2015	-7605
▁መመለ	-7606
▁አበር	-7607
▁መጠለያ	-7608
▁ጠቅሷል	-7609
▁በመነሳት	-7610
▁የሚታወቀው	-7611
▁የብልፅግና	-7612
▁እርምጃዎችን	-7613
▁መቁ	-7614
▁መረጃው	-7615
ዘበ	-7616
ዙን	-7617
ገራዊ	-7618
▁ንድ	-7619
▁ከካ	-7620
▁ራሳቸው	-7621
▁ይካሄዳል	-7622
ላለሁ	-7623
ንኦት	-7624
▁ክሊ	-7625
▁ስራን	-7626
▁ለዘላለም	-7627
▁የኮሚሽኑ	-7628
ደቀው	-7629
▁ኔት	-7630
▁ግዢ	-7631
ላለፊያ	-7632
▁ህግና	-7633
▁ቅርብ	-7634
▁በመጀመርያው	-7635
▁ከሚመለከታቸው	-7636
ምኑ	-7637
ፍታ	-7638
▁ሊቃ	-7639
ድሀኒት	-7640
ጎልበት	-7641
▁እጥፍ	-7642
▁በታሪክ	-7643
▁ባንክ፣	-7644
▁ከሆኑት	-7645
▁አክለውም	-7646
▁ወጣቶችን	-7647
መበት	-7648
ራቶን	-7649
▁ኢብራ	-7650
▁ኦባማ	-7651
▁ፍጆታ	-7652
▁ውክልና	-7653
▁ዝግጅቶች	-7654
▁በማሀበራዊ	-7655
▁ፍሰ	-7656
▁ጠበቆች	-7657
▁በስብሰባ	-7658
▁አቅርበው	-7659
▁ውሳኔውን	-7660
▁ለመሰብሰብ	-7661
ድረው	-7662
ጡበት	-7663
▁ታላላቅ	-7664
▁ይልቁንም	-7665
ፁን	-7666
▁ሩብ	-7667
▁ሻምፒ	-7668
▁መቅረብ	-7669
▁የደረሱ	-7670
▁የምክክር	-7671
▁ይጎብኙ፤	-7672
▁ለማጠናቀቅ	-7673
እለት	-7674
▁የአው	-7675
▁የከፈ	-7676
▁የጥፋት	-7677
▁ተስተውሏል	-7678
▁በእያንዳንዱ	-7679
36	-7680
▁መኮን	-7681
▁ምሁራ	-7682
▁ማእከሉ	-7683
▁ሀገራቸው	-7684
▁እቃዎችን	-7685
ዉን	-7686
ዘና	-7687
ሻሽ	-7688
ፈረንስ	-7689
▁ለማምረት	-7690
▁አይገባም	-7691
▁እብ	-7692
▁ተቀላቅ	-7693
▁ትላልቅ	-7694
▁እንድና	-7695
▁የተፋ	-7696
▁በዘንድሮው	-7697
em	-7698
ማኒ	-7699
ፍር	-7700
▁#	-7701
ገራሚ	-7702
▁ከሲ	-7703
▁በዚያን	-7704
▁አይመስ	-7705
▁ጴጥሮስ	-7706
▁ሊያደርግ	-7707
▁መደረ	-7708
▁የኔ	-7709
መሰረት	-7710
▁ሌሊት	-7711
▁ደረጃውን	-7712
▁ለመመስረት	-7713
መወዝ	-7714
▁ሳያስ	-7715
▁በቋሚ	-7716
▁የወረ	-7717
ia	-7718
በሻ	-7719
ቀመጠ	-7720
▁ለካ	-7721
ግባቸው	-7722
▁የደም	-7723
▁ለማስፈፀም	-7724
ሀራ	-7725
▁የግሉ	-7726
▁ጥፋተኛ	-7727
▁በትናንት	-7728
▁የማምረት	-7729
ለንተ	-7730
ወያየ	-7731
▁መውጣ	-7732
▁ራስን	-7733
▁ከወጣ	-7734
▁ቅስቀሳ	-7735
▁ሚንስትር	-7736
▁እንዲያገኝ	-7737
ቋር	-7738
▁ውብ	-7739
ከናውኑ	-7740
▁ለማዳ	-7741
▁በግለ	-7742
▁ድርቅ	-7743
/2013	-7744
▁አስከፊ	-7745
▁ተከታዮች	-7746
▁ተንቀሳቃሽ	-7747
ደላ	-7748
▁ኦፍ	-7749
▁አመሰ	-7750
▁ቀጣይነት	-7751
▁አስቆጥሮ	-7752
ቀዱ	-7753
▁ሲሰጥ	-7754
▁በጉባኤው	-7755
▁ስምምነቱን	-7756
ባትና	-7757
▁መጠኑ	-7758
▁በተካሄደ	-7759
▁የአለማችን	-7760
▁ፕሮግራሞች	-7761
ሪሁን	-7762
ታወስ	-7763
▁ኮማን	-7764
▁የራስ	-7765
▁መሆናቸውንም	-7766
ቂዎች	-7767
ጂንግ	-7768
▁ተቃው	-7769
▁የባህ	-7770
▁ዮናስ	-7771
▁ለያህዌ	-7772
▁በመፅሀፍ	-7773
▁አይችሉም	-7774
▁*	-7775
ጅቡቲ	-7776
ስተዋሉ	-7777
▁ውጊያ	-7778
▁ግሩም	-7779
▁መምራት	-7780
▁አድራሻ	-7781
▁የያዘው	-7782
▁የወደፊት	-7783
ቋቸው	-7784
▁ሚያ	-7785
▁በቀኝ	-7786
▁ክልከላ	-7787
▁አይሆንም	-7788
▁የእነዚህ	-7789
▁የድሬዳዋ	-7790
ባለሁ	-7791
▁ቢጫ	-7792
▁አቃ	-7793
▁ቢባል	-7794
▁ጉድጓ	-7795
▁ወቅታዊ፣	-7796
▁አስተዳደርና	-7797
▁የበላይነትን	-7798
ከትና	-7799
▁የሚደር	-7800
▁ለመቀየር	-7801
▁በማካሄድ	-7802
▁ጠቅሰው፣	-7803
▁ለማስከበር	-7804
▁በማጠናከር	-7805
▁መንጋ	-7806
▁ማለዳ	-7807
▁ተወዳጅ	-7808
▁ብሄረሰብ	-7809
▁አዝማሚያ	-7810
▁ድንገተኛ	-7811
ቸዋ	-7812
▁ለመሸ	-7813
▁ከተቀ	-7814
▁ያህሉ	-7815
▁ማድረስ	-7816
▁አቀባበል	-7817
▁ሰፈር	-7818
ብላ	-7819
ደቁ	-7820
ጥም	-7821
ዘዋል	-7822
ጠቀስ	-7823
ፈፅሙ	-7824
▁ኪንግ	-7825
▁መቋቋም	-7826
▁በቦታው	-7827
▁የተሟላ	-7828
▁...	-7829
መች	-7830
ፈረም	-7831
ኳቸው	-7832
▁ጫፍ	-7833
▁ስትል	-7834
▁ባለመኖሩ	-7835
▁የትብብር	-7836
▁የመጨረሻው	-7837
▁እንደነበርም	-7838
ቋረጡ	-7839
▁ለተጨማሪ	-7840
▁ተጠቅመው	-7841
ገምገም	-7842
▁የእሳት	-7843
▁የፈጠራ	-7844
▁ተሰጥቷል	-7845
ጋዴ	-7846
ሰቡት	-7847
▁ቢሮው	-7848
▁አንጋ	-7849
▁የተሾ	-7850
ለንተናዊ	-7851
▁የተከለ	-7852
▁እንዲያቀርቡ	-7853
ችሁት	-7854
▁ባስተ	-7855
▁በላይ፣	-7856
መስረ	-7857
ፖርቱ	-7858
▁እኩ	-7859
▁መቻሉ	-7860
▁ተባብ	-7861
▁አርቲ	-7862
▁ኳስን	-7863
▁ግብአቶች	-7864
un	-7865
ፈስ	-7866
ራኒው	-7867
▁ትች	-7868
▁ተገን	-7869
▁ንግግ	-7870
▁ተፋሰስ	-7871
▁አባላቱ	-7872
▁ወስኗል	-7873
▁መቃወሚያ	-7874
▁ሳይጠብቁ	-7875
▁የትራፊክ	-7876
34	-7877
ክንያ	-7878
ርፖሬሽኑ	-7879
▁ምልክቶች	-7880
▁አስከባሪ	-7881
▁በፓ	-7882
▁ለድር	-7883
▁ሲመጣ	-7884
▁ለጥቂት	-7885
us	-7886
ልያ	-7887
ሎም	-7888
ቃን	-7889
ጫሉ	-7890
▁እቅዱ	-7891
ጅምላ	-7892
▁ቆንጆ	-7893
▁ዲፕሎማ	-7894
የእ	-7895
ቤትነት	-7896
▁በቴሌ	-7897
ሪያቸውን	-7898
▁መስማማ	-7899
▁ፅሁፎች	-7900
▁የተመሰረተው	-7901
▁የእግዚአብሄር	-7902
ቀሩ	-7903
ቸዋለሁ	-7904
▁በህዝቡ	-7905
▁ፓርላማው	-7906
▁ቬ	-7907
▁አክሏል	-7908
▁አስኪያጁ	-7909
▁የቴሌኮም	-7910
▁ኤክስፖርት	-7911
ፍለ	-7912
▁ቀኝ	-7913
▁እመ	-7914
ሳይያስ	-7915
▁ሶማሌ	-7916
▁ወርቁ	-7917
▁ይደር	-7918
▁ቀጥሏል	-7919
▁በአስር	-7920
▁የሰዎች	-7921
▁ሳይንሳዊ	-7922
▁ከትናንት	-7923
ከነ	-7924
▁48	-7925
▁በመሰ	-7926
▁ሴቶችን	-7927
▁በደብዳቤ	-7928
▁ለመጀመርያ	-7929
ለፉ	-7930
111	-7931
▁ሹመት	-7932
▁ቢያስ	-7933
▁እህት	-7934
▁አክርሮ	-7935
▁ድርጅቶችን	-7936
ነርሱ	-7937
▁መመዘ	-7938
▁ከገባ	-7939
▁ተወልደ	-7940
▁ኦዲተር	-7941
▁አድራጎት	-7942
▁ለማግኘት፡	-7943
በዚህ	-7944
▁የሚረዳ	-7945
▁ህንድ	-7946
▁ሚስጥ	-7947
▁ይወዳ	-7948
▁የሚሰማ	-7949
▁በማለት፣	-7950
▁አስተያየቶች	-7951
ፊቱ	-7952
▁ኛው	-7953
▁ሀውል	-7954
▁ሳንቲ	-7955
▁ማስፈፀሚያ	-7956
ስካ	-7957
በላሸ	-7958
▁በአመ	-7959
▁ፈቃደ	-7960
▁ከጨዋታው	-7961
▁ቦር	-7962
▁መጥቷል	-7963
▁በመንገድ	-7964
▁በጥልቀት	-7965
▁አገልጋዮች	-7966
▁ድንጋጌዎች	-7967
2)	-7968
▁ልጁ	-7969
▁በሜ	-7970
▁ተም	-7971
▁ኮር	-7972
▁ዝርዝ	-7973
▁መፈናቀ	-7974
▁አርብቶ	-7975
▁የተሳሳተ	-7976
ተርስ	-7977
ኒክስ	-7978
▁ተጀም	-7979
▁ያስተናገ	-7980
▁ለማስተካከል	-7981
▁ዳይሬክቶሬት	-7982
የስ	-7983
ስቱም	-7984
ወጡት	-7985
▁ቢል	-7986
▁የተረ	-7987
▁ከነበሩ	-7988
▁ያነሱት	-7989
▁የመጣውን	-7990
▁የተሰጣቸው	-7991
ተስ	-7992
አያ	-7993
ጅነት	-7994
ጣሚያ	-7995
▁ቀና	-7996
▁ለሀገር	-7997
▁ጥያቄውን	-7998
ከፈት	-7999
ስተናግድ	-8000
▁ትግበራ	-8001
▁መንገዶችን	-8002
▁አያይዘውም	-8003
ላቸው፣	-8004
▁ቱርክ	-8005
▁የልኡ	-8006
▁ከሆነው	-8007
ንተን	-8008
▁በመላክ	-8009
ኖም	-8010
ገኝም	-8011
▁ጠብቆ	-8012
▁ወደዚህ	-8013
▁ጉልበት	-8014
ህዴድ	-8015
ላለን	-8016
ዲንግ	-8017
▁አመስ	-8018
▁መቀየር	-8019
▁አንዳርጋቸው	-8020
▁ግኝ	-8021
▁በተባለ	-8022
▁እንዲፈቱ	-8023
▁ይመልከቱ	-8024
▁በቴክኖሎጂ	-8025
▁ኮርፖሬትን	-8026
ቆጠብ	-8027
ዷቸው	-8028
▁ያነ	-8029
▁መኖሩ	-8030
ታቸውንና	-8031
▁አስገዳጅ	-8032
ደሙ	-8033
▁of	-8034
▁ህዝበ	-8035
▁ሰንጠረ	-8036
▁አጠቃቀ	-8037
▁ጌታሁን	-8038
▁አድርገን	-8039
ታቱ	-8040
ዘሩ	-8041
ወርክ	-8042
▁ታክሲ	-8043
▁መብታቸው	-8044
ንሽ	-8045
ንድር	-8046
ስተናገዱ	-8047
▁ህንፃዎች	-8048
▁በስልክዎ	-8049
▁አይቻልም	-8050
ሪፍ	-8051
ዞን	-8052
▁ነግ	-8053
▁ገፆች	-8054
▁ቀበሌዎች	-8055
▁አደጋዎች	-8056
▁ክፍተቶች	-8057
▁እንዲቀርብ	-8058
▁ዌ	-8059
ያንም	-8060
▁ሩጫ	-8061
▁ቀጣዩ	-8062
▁አልፏል	-8063
▁የገቡት	-8064
▁አስተዳደራዊ	-8065
▁እናደርጋለን	-8066
ባች	-8067
ጭቱ	-8068
ሸነፉ	-8069
▁ባለፈም	-8070
▁ለማሟላት	-8071
▁አዎንታዊ	-8072
▁ያስታወቀው	-8073
ጓደ	-8074
ሪያል	-8075
▁አብረ	-8076
▁ወደተ	-8077
▁ይፋዊ	-8078
▁የሚጠቁ	-8079
▁ለመወጣት	-8080
▁ተቋማትና	-8081
▁የማግኘት	-8082
▁ይጠይቃል	-8083
▁እንዳስታወቀው	-8084
▁የሚያደርገውን	-8085
▁፳	-8086
ሾፍቱ	-8087
▁በመስጠ	-8088
▁ህብረተሰብ	-8089
▁ደሞ	-8090
ገነዘቡ	-8091
▁አባተ	-8092
▁ደራሲ	-8093
▁መምሪያ	-8094
▁ከእረፍት	-8095
▁ውይይቶች	-8096
ምቀት	-8097
ቦራቶ	-8098
▁ለኤ	-8099
▁መሰና	-8100
▁የክለ	-8101
▁የሚያሰ	-8102
▁መመርያው	-8103
ረጠ	-8104
▁ኮም	-8105
ንግዲህ	-8106
▁ለውጡ	-8107
ደረገባቸው	-8108
ኢድ	-8109
▁OK	-8110
▁በሂሳብ	-8111
▁ጉባኤውን	-8112
▁እንደማይቻል	-8113
ለታ	-8114
ለምዶ	-8115
▁በቀስ	-8116
▁እኔን	-8117
▁መወሰኑ	-8118
▁ማቴዎስ	-8119
▁የታየው	-8120
▁ማስገባት	-8121
▁በሸ	-8122
ገልፀው	-8123
▁አያው	-8124
▁መጠናቀቅ	-8125
▁ከስልጣን	-8126
▁እፈልጋለሁ	-8127
▁የምንችለው	-8128
ሯን	-8129
▁ምላ	-8130
▁ቤቱም	-8131
▁በአዋጅ	-8132
ቅለ	-8133
ደጉ	-8134
ገቡን	-8135
▁ገጥ	-8136
▁ሰለባ	-8137
▁ጀማል	-8138
▁ተቋማቱ	-8139
▁ምርጫውን	-8140
▁የተጠበቀ	-8141
▁የታየበት	-8142
የሚ	-8143
ገባደ	-8144
ላቸውና	-8145
▁ማርቆስ	-8146
▁እንዳት	-8147
▁ገዛኸኝ	-8148
▁በትናንትናው	-8149
ur	-8150
▁ሀይቅ	-8151
▁ወልቂጤ	-8152
▁በተቃራኒው	-8153
▁በበኩላቸው፤	-8154
▁እንዲደርስዎ	-8155
አሉ	-8156
ማቾች	-8157
▁8111	-8158
▁መታየት	-8159
▁አንድን	-8160
ብሩ	-8161
እድ	-8162
ረርሽኙ	-8163
▁ቦታዎችን	-8164
▁የህፃናት	-8165
▁አግኝተዋል	-8166
32	-8167
ሙያ	-8168
ነቀ	-8169
ደቡ	-8170
▁ውሎ	-8171
▁ይሄን	-8172
▁መረጃና	-8173
▁አሸንፎ	-8174
▁የሚመረ	-8175
▁መስመሮች	-8176
ዘም	-8177
ሰሩት	-8178
ከሪያ	-8179
ባቸው፣	-8180
▁ሀይማኖታዊ	-8181
ከስ	-8182
ባችሁ	-8183
ዘዋወር	-8184
▁ውድመት	-8185
ታኔ	-8186
ሷቸው	-8187
▁ወሬ	-8188
▁ግዜ	-8189
▁መርሆ	-8190
▁ጎብኝ	-8191
▁አስመዝግ	-8192
ዎቹም	-8193
ጋጣሚ	-8194
▁የቪ	-8195
▁ተዋጊ	-8196
▁እገዳ	-8197
▁ስትሆን	-8198
▁በርከት	-8199
ሉ፤	-8200
ፈቅድ	-8201
▁የቱርክ	-8202
▁መስጠቱን	-8203
▁በዘመናዊ	-8204
▁የፋብሪካ	-8205
▁የእንስሳት	-8206
▁እንዲያቀርብ	-8207
▁ዲሲ	-8208
▁መግዛት	-8209
▁ከክለቡ	-8210
▁በሚካሄደው	-8211
▁በዩናይትድ	-8212
38	-8213
ደግፉ	-8214
▁መሰጠ	-8215
▁ግድቡን	-8216
▁ማበረታቻ	-8217
ሳዩ	-8218
▁ሲስተ	-8219
▁ወደኋላ	-8220
▁በውድድሩ	-8221
▁እንዲውል	-8222
▁የቢዝነስ	-8223
▁የዜጎችን	-8224
ፍስ	-8225
▁ለሽ	-8226
▁መላክ	-8227
▁በጥቂት	-8228
▁የተሰበ	-8229
▁የሚጠበቀው	-8230
ራስ	-8231
ጫወተ	-8232
▁ለሰው	-8233
▁አውደ	-8234
▁ተገኝቶ	-8235
77	-8236
ካሚ	-8237
▁ኡማ	-8238
ሮቻቸው	-8239
▁ሆይ፣	-8240
▁አቡነ	-8241
▁ከህግ	-8242
▁አባቶች	-8243
__	-8244
▁ያዳ	-8245
በረከተ	-8246
▁ሲገቡ	-8247
▁ቅርስ	-8248
▁በሚባል	-8249
▁አካላዊ	-8250
▁የእድሜ	-8251
▁ደንበኛ	-8252
▁በነበራቸው	-8253
ምራል	-8254
ሻውን	-8255
መልከቻ	-8256
ያውያን	-8257
▁ማጥፋት	-8258
▁ያደረግ	-8259
▁አስቆጥሯል	-8260
ቸር	-8261
▁ወሎ	-8262
ሙያዎች	-8263
▁ለቤተ	-8264
▁ጊዜ፣	-8265
ዝቃ	-8266
▁ለረዥም	-8267
ኩበት	-8268
ፈፃፀ	-8269
▁በዶ	-8270
መቻቸት	-8271
▁ለእኛ	-8272
▁ይቀር	-8273
▁እልባት	-8274
ለችው	-8275
▁ለመን	-8276
▁አስገብ	-8277
▁የስልክ	-8278
▁ማስወገድ	-8279
▁መናገራቸውን	-8280
ሀም	-8281
ሸንፍ	-8282
▁ሳት	-8283
ስፈላጊ	-8284
▁መስኖና	-8285
▁እንደሚሆኑ	-8286
ሰሳ	-8287
ፋሪ	-8288
▁በመቶ፣	-8289
▁ከፌዴራል	-8290
▁ምክንያታዊ	-8291
▁አውሮፕላኖች	-8292
ለመደ	-8293
▁ሙዚ	-8294
▁በሮ	-8295
▁አሸንፏል	-8296
▁የሲሚንቶ	-8297
▁ብቅ	-8298
ቋቋመው	-8299
▁ሶማሊያ	-8300
▁ወይንም	-8301
▁የሙከራ	-8302
▁ስርአቶች	-8303
▁በሶማሊያ	-8304
▁ተቀብለው	-8305
ay	-8306
um	-8307
ኮራ	-8308
ኖሩን	-8309
▁150	-8310
▁ንጉሴ	-8311
▁ፍተሻ	-8312
▁2018	-8313
▁ሲገልፁ	-8314
▁አቀፋዊ	-8315
▁የሚመስ	-8316
▁ለዘመናት	-8317
▁ቁሳቁሶች	-8318
▁ለቅ	-8319
▁ትርጉ	-8320
▁አናት	-8321
▁በመቶው	-8322
▁በነበረ	-8323
▁ብቸኛው	-8324
▁የቆዩት	-8325
▁በተፈጠረ	-8326
▁54	-8327
▁ታች	-8328
▁ኢዜአ	-8329
▁በወጣው	-8330
▁የምድር	-8331
▁የአቃቤ	-8332
▁የአዳማ	-8333
▁የዘርፉ	-8334
▁ግሽበት	-8335
▁ፌዴራል	-8336
▁ማሰባሰብ	-8337
▁የኳስ	-8338
▁ዘመናት	-8339
▁መተግበር	-8340
▁የሰጠውን	-8341
▁ፈተናዎች	-8342
▁ኦርቶዶክስ	-8343
አድ	-8344
ዋና	-8345
▁ተዛ	-8346
▁የሚበ	-8347
▁ውህደት	-8348
▁የኤሌክትሮ	-8349
▁የባለስልጣኑ	-8350
ኩሪ	-8351
ጭቶ	-8352
ጊዮርጊ	-8353
▁ሙላቱ	-8354
▁እወዳ	-8355
▁ትርኢት	-8356
▁መታወቂያ	-8357
▁ይኖርብናል	-8358
ከመ	-8359
ድስ	-8360
▁ፍራፍሬ	-8361
▁ባሻገር፣	-8362
ችና	-8363
ዝን	-8364
ላይት	-8365
ባለን	-8366
▁ዋቢ	-8367
▁የር	-8368
▁ሙሌት	-8369
▁ቴክኒ	-8370
▁ዜግነት	-8371
▁ዳኝነት	-8372
▁የተቀመጡ	-8373
ልቆ	-8374
ወጫ	-8375
ዝናብ	-8376
ጅተው	-8377
▁ሀዘን	-8378
▁ጠላት	-8379
▁ሽፈራው	-8380
▁በማሳየት	-8381
▁እያከናወነ	-8382
▁ማእቀብ	-8383
▁ስራቸው	-8384
▁ተነሳሽነት	-8385
▁ያስታወቁት	-8386
▁ቆዳ	-8387
▁ባላ	-8388
▁መከሰ	-8389
▁መፅሄት	-8390
▁ቤተክርስቲያን	-8391
▁ሀዋ	-8392
▁ንክ	-8393
▁ይዛ	-8394
▁የቅር	-8395
▁ፅዮን	-8396
▁የመጡት	-8397
ሸጡ	-8398
▁አዳነች	-8399
▁በፓርላማ	-8400
▁አሻራ	-8401
▁ባለሜዳ	-8402
▁የአእምሮ	-8403
▁ፆ	-8404
▁ሚስ	-8405
▁አሮ	-8406
▁ጳጳ	-8407
▁በወር	-8408
▁ለመሄድ	-8409
▁በመሀል	-8410
▁በመቀየር	-8411
▁በስልጣን	-8412
▁ግብዣ	-8413
▁በግማሽ	-8414
ማቅ	-8415
ወሀ	-8416
ግሳ	-8417
በከር	-8418
ምምነቱ	-8419
▁ሄደው	-8420
▁የልዩ	-8421
▁ክለቡን	-8422
▁የበረራ	-8423
▁ግዛቶች	-8424
▁በተናጠል	-8425
ag	-8426
ክሳይ	-8427
ጓጓዝ	-8428
▁ማት	-8429
▁ሲተ	-8430
▁አፀ	-8431
▁በህጋዊ	-8432
▁ከፈለጉ	-8433
▁በመገኘት	-8434
▁ተነስተው	-8435
ባትን	-8436
▁ከኦ	-8437
▁ህዝብና	-8438
▁ኳሶችን	-8439
▁ባለቤቶች	-8440
ፍ፣	-8441
▁ሄዶ	-8442
▁ለወደ	-8443
▁አማራጮችን	-8444
ሳቱ	-8445
ፈለገውን	-8446
▁የኢየሱስ	-8447
ሌክ	-8448
ልፉ	-8449
▁አቅሙ	-8450
▁ደረቅ	-8451
▁አክብሮ	-8452
▁ውይይቱ	-8453
▁የወቅቱ	-8454
▁የሆነችው	-8455
▁የእድገት	-8456
▁ያስረዱት	-8457
▁የተፈፀመው	-8458
.0	-8459
55	-8460
ግጅ	-8461
ጎም	-8462
ፕሮ	-8463
▁ኤን	-8464
ለባቸው	-8465
ልስፍና	-8466
▁ለየት	-8467
▁በአቅ	-8468
▁ንረት	-8469
▁ይመጣል	-8470
▁እንዲከበር	-8471
▁የሁለትዮሽ	-8472
ላና	-8473
▁ጣፋ	-8474
▁አርማ	-8475
▁ያቀረ	-8476
▁በእሳት	-8477
▁በፓርቲ	-8478
▁በመደበኛ	-8479
▁በቅድሚያ	-8480
▁ይመስለኛል	-8481
ሊም	-8482
▁እጃ	-8483
ችኋለሁ	-8484
▁በመው	-8485
▁ተመራጭ	-8486
▁አቪዬሽን	-8487
▁ሁለንተናዊ	-8488
▁ከመጀመሪያው	-8489
▁ሀላፊነታቸውን	-8490
ራራ	-8491
ገግ	-8492
ማመጥ	-8493
ባበቅ	-8494
▁ከብዙ	-8495
▁መጠነኛ	-8496
▁በነበሩት	-8497
▁በውይይት	-8498
▁የሚገልፁት	-8499
▁46	-8500
▁ሀረር	-8501
▁ለሆኑ	-8502
▁በአራ	-8503
▁የመካ	-8504
▁ሲጀምር	-8505
▁ኢሳይያስ	-8506
▁ከመስመር	-8507
▁ለማዘጋጀት	-8508
▁ባለቤትነት	-8509
ቀቁ	-8510
ዘዋዋሪ	-8511
▁በሙስና	-8512
▁ተዋህዶ	-8513
▁ከፋዮች	-8514
▁የሚያስፈልጉ	-8515
▁ባለአክሲዮኖች	-8516
ድጉ	-8517
ጅቶ	-8518
▁ቅብብ	-8519
▁አጋጥ	-8520
▁ወዳጅ	-8521
▁የሀይ	-8522
▁በተቻለ	-8523
▁መገኘቱን	-8524
▁ተሰምቷል	-8525
▁የአውሮፕላን	-8526
ኦል	-8527
ሸናፊ	-8528
▁የሚሞ	-8529
▁መዛሙር	-8530
▁በታላቁ	-8531
▁ቤቶች፣	-8532
▁የአመቱ	-8533
ኮን	-8534
ከሰተ	-8535
▁ስለዚህም	-8536
▁ቀርተዋል	-8537
መታ	-8538
በልጡ	-8539
በርግ	-8540
ገኙም	-8541
ግዚቢ	-8542
▁ሪል	-8543
▁ተሸን	-8544
▁ደህና	-8545
▁በደስታ	-8546
▁ማስፋፊያ	-8547
▁አቀራረብ	-8548
▁እንደተናገሩት፤	-8549
ዳረጉ	-8550
ፓርት	-8551
▁አላት	-8552
▁ይኖሩ	-8553
▁ይፈል	-8554
▁እነዚህም	-8555
▁ጀምረዋል	-8556
ዳማዊ	-8557
▁ቀው	-8558
▁በሱ	-8559
ህይወት	-8560
▁እንግዶች	-8561
▁የሚያጋጥ	-8562
▁ገዱ	-8563
▁ሰማይ	-8564
▁ያለማ	-8565
▁በሴቶች	-8566
▁እነዚያ	-8567
▁እንደቀ	-8568
▁መተማመን	-8569
▁ኢንቨስተ	-8570
▁ቺ	-8571
▁ዚ	-8572
ስተን	-8573
ብረታ	-8574
▁ይቆ	-8575
ነጋገሩ	-8576
ጭበርበር	-8577
▁ለንግድ	-8578
▁ተቀምጧል	-8579
▁ሚኒስቴር፣	-8580
▁ተወያይተዋል	-8581
▁አስፈላጊነት	-8582
ገላ	-8583
▁1,	-8584
▁ለቦ	-8585
▁ተገድ	-8586
▁ሳይቀር	-8587
▁መሰረትም	-8588
▁አባልነት	-8589
ዛን	-8590
ደገፈ	-8591
▁እጦት	-8592
▁የተነ	-8593
▁ፀሎት	-8594
▁ሀሳቡን	-8595
▁ቤቶችና	-8596
▁የሚያሳዩ	-8597
▁በመጀመርያ	-8598
አአ	-8599
የፋና	-8600
▁42	-8601
▁ተጣ	-8602
▁አንዴ	-8603
▁እህል	-8604
▁የፈጠረ	-8605
▁ከተጀመረ	-8606
▁ምሽ	-8607
▁ለሶከር	-8608
▁ማሳሰቢያ	-8609
▁በሪፖርቱ	-8610
▁የስልጠና	-8611
ያውቅ	-8612
▁ተደም	-8613
▁መቆጣጠ	-8614
▁ባደረገ	-8615
ለፈ	-8616
ሲን	-8617
▁የኖ	-8618
▁ሙያዊ	-8619
▁የሞት	-8620
▁ማሻሻል	-8621
▁በላከው	-8622
▁ዘሪሁን	-8623
▁የጭነት	-8624
▁በተፈጥሮ	-8625
ሜት	-8626
ሊዝም	-8627
▁ማነ	-8628
▁ተኮር	-8629
▁መገኘት	-8630
▁ሳይሆኑ	-8631
▁በመልካም	-8632
▁ግንባታዎች	-8633
ሞከር	-8634
▁ከታች	-8635
▁ተከስቶ	-8636
▁ከአሁን	-8637
▁የተገኘውን	-8638
ሰራጨት	-8639
▁ማነስ	-8640
▁ኮምፒ	-8641
▁በእነሱ	-8642
▁ገለፃ፣	-8643
▁ለመቋቋም	-8644
▁በሀገራችን	-8645
ዛኝ	-8646
▁የተን	-8647
▁የሚጠይ	-8648
▁የሚፈጥር	-8649
አስ	-8650
ሰጡት	-8651
▁ቆር	-8652
▁ስለሺ	-8653
▁ግብሩ	-8654
▁መወጣት	-8655
▁እባክዎን	-8656
▁የቀረቡት	-8657
▁እንዳይሆን	-8658
ሀድሶ	-8659
▁እንፈልጋ	-8660
▁ድርጊቱን	-8661
▁አውስተዋል	-8662
ጫቸው	-8663
ፖሊስ	-8664
▁በአር	-8665
▁አስጠን	-8666
▁እችላለ	-8667
▁ለአምላክ	-8668
▁የመጠቀም	-8669
▁እንዲቀርቡ	-8670
ቀና	-8671
▁(4	-8672
▁ሚዛን	-8673
▁በረቂቅ	-8674
▁የሚወጡ	-8675
▁በመምጣቱ	-8676
▁በመቀበል	-8677
▁ይፈጥራል	-8678
ደቱ	-8679
ጓሜ	-8680
ኒልክ	-8681
▁ብቻም	-8682
▁የምስክር	-8683
▁መጠናቀቁን	-8684
▁ሳህለወርቅ	-8685
▁ኮንፈረንስ	-8686
ረምፕ	-8687
ቲንግ	-8688
ካከል	-8689
ወይም	-8690
ከላከሉ	-8691
▁ለደን	-8692
▁ጀመሩ	-8693
ጠቃሚ	-8694
▁47	-8695
▁በሬ	-8696
ተገበር	-8697
▁ሞክሮ	-8698
▁አድን	-8699
▁በመልሶ	-8700
▁ምንድነው	-8701
67	-8702
ሻሻለ	-8703
▁ቆሮ	-8704
▁ልጆቹ	-8705
▁2006	-8706
▁በስቲያ	-8707
▁ከርቀት	-8708
▁የተመለ	-8709
▁ንብረቶች	-8710
ጀርባ	-8711
▁መጠበ	-8712
▁ከኢን	-8713
▁የፀጥታው	-8714
▁ኢንፎርሜሽን	-8715
▁ልና	-8716
▁የቆዳ	-8717
▁ማግስት	-8718
▁አስገራሚ	-8719
ዩተር	-8720
▁ድርድሩ	-8721
▁ጥናትና	-8722
▁የሚገመት	-8723
ቆራ	-8724
ጋጭ	-8725
ቡባዊ	-8726
▁ልደቱ	-8727
▁በማው	-8728
▁የቡድ	-8729
ፌዴሬሽኑ	-8730
▁ከፌስቡክ	-8731
▁የግንዛቤ	-8732
▁መተግበሪያ	-8733
▁አረጋግጧል	-8734
ፋፍ	-8735
ንደቅ	-8736
ዮርክ	-8737
▁ህጉን	-8738
▁ብላለች	-8739
▁እውነታ	-8740
▁የተሻሉ	-8741
▁በተለምዶ	-8742
▁እንዲሰጣቸው	-8743
▁በጨ	-8744
ታወቅም	-8745
▁ክንድ	-8746
▁በመገኘ	-8747
▁ነባራዊ	-8748
▁አያሌው	-8749
▁ኢብራሂም	-8750
▁የሰላምና	-8751
▁ለማስቆጠር	-8752
▁የተመለከቱ	-8753
ኤአ	-8754
▁እሴ	-8755
2017	-8756
▁መሸፈ	-8757
▁በኮቪድ	-8758
▁አካሂዷል	-8759
▁የሚቻለው	-8760
▁ጋራ	-8761
▁የአረብ	-8762
▁ተመልሰው	-8763
▁አስፈላጊው	-8764
ገዘ	-8765
▁በሰማ	-8766
▁ካምፕ	-8767
▁በውስጡ	-8768
▁አቅጣጫዎች	-8769
ዳሚው	-8770
▁ትሪ	-8771
▁ሳኡዲ	-8772
▁ይወጣ	-8773
▁ወጥቷል	-8774
▁ሁኔታውን	-8775
▁ኮንትራት	-8776
▁ያላግባብ	-8777
ዙት	-8778
ዳይ	-8779
ገጃ	-8780
ተኮር	-8781
▁ሊሰራ	-8782
▁ከንቲባው	-8783
▁የአሜሪካን	-8784
ረና	-8785
ግብር	-8786
ሏቸውን	-8787
ታቸውና	-8788
ከባከብ	-8789
▁ባንክና	-8790
▁በምርጫው	-8791
▁ግንባታውን	-8792
ዝሀ	-8793
ጴዛ	-8794
ast	-8795
ውንዴ	-8796
ዳችን	-8797
▁85	-8798
▁መመዘኛ	-8799
▁ተቋማዊ	-8800
▁ተጋጣሚ	-8801
▁አስራት	-8802
▁ከኦሮሚያ	-8803
▁አመላክተዋል	-8804
ቀጣ	-8805
ነትም	-8806
ላላችሁ	-8807
▁መካሄድ	-8808
▁ድርጊቱ	-8809
▁አጀንዳዎች	-8810
▁የተረጋገጠ	-8811
ec	-8812
▁ተጉ	-8813
▁ዘፍ	-8814
2005	-8815
▁አጠራ	-8816
▁ለአሜሪካ	-8817
▁በወቅታዊ	-8818
▁መስዋእትነት	-8819
ቅዷል	-8820
ክፈቻ	-8821
▁መልቀ	-8822
ስትራሊያ	-8823
▁በገበያ	-8824
▁የፍቅር	-8825
▁ማሰልጠኛ	-8826
▁በመከላከል	-8827
▁በማስቆጠር	-8828
ፈረንጆቹ	-8829
▁በመቅረ	-8830
▁የታወቀ	-8831
2018	-8832
ገኛለች	-8833
▁አውታ	-8834
▁ዘርፈ	-8835
▁ማሟላት	-8836
▁እጩዎች	-8837
▁ይጀምራል	-8838
▁በፋይናንስ	-8839
▁የመሳሰሉት	-8840
ብዙ	-8841
▁ማስተር	-8842
▁ለመግለፅ	-8843
▁በጊዜያዊ	-8844
▁እንዲነሳ	-8845
▁የተከሰተውን	-8846
ሪቃ	-8847
ችግሩ	-8848
ዜሽን	-8849
▁ባር	-8850
ጠቃለያ	-8851
▁መልካ	-8852
▁አይሁዳ	-8853
▁እችላለሁ	-8854
▁ስብሰባዎች	-8855
▁ባለመቻላቸው	-8856
▁የኢንተርኔት	-8857
ባባቂ	-8858
▁ብታ	-8859
ገኛለን	-8860
▁አይታ	-8861
▁ተገንዝ	-8862
▁የቻሉት	-8863
▁የኦነግ	-8864
▁ተደርገው	-8865
ላቻ	-8866
ካፈ	-8867
ምናው	-8868
ነጋገ	-8869
ድሮክ	-8870
ቀበለው	-8871
▁ያሳየ	-8872
▁ግድም	-8873
▁ሚያዚያ	-8874
▁ከህዝቡ	-8875
▁የተሳካ	-8876
▁የገጠር	-8877
▁የጨረታ	-8878
▁መምህራን	-8879
▁አመሰግና	-8880
▁ውጤቶችን	-8881
▁በጠቅላላው	-8882
▁የፕሮጀክት	-8883
መረጥ	-8884
ቀው፣	-8885
ናውያን	-8886
▁በማያ	-8887
▁ጥርጣሬ	-8888
400	-8889
ፕሊን	-8890
39	-8891
▁ሁለ	-8892
▁የደረጃ	-8893
ጤት	-8894
ንቀሳቀሰ	-8895
▁በምርመራ	-8896
▁በጋምቤላ	-8897
▁አቅራቢዎች	-8898
ራዊቱ	-8899
▁ሰበታ	-8900
▁ሲጠናቀቅ	-8901
▁ስብሰባው	-8902
▁በህወሀት	-8903
▁በሚቀጥሉት	-8904
▁ሚል	-8905
▁የሺ	-8906
▁በአው	-8907
▁ናሙና	-8908
▁ተፈራር	-8909
▁ለከፍተኛ	-8910
▁በህክምና	-8911
▁አግኝተው	-8912
ርሱም	-8913
▁ባለን	-8914
▁ብዙዎቹ	-8915
▁ጥያቄው	-8916
▁ምክንያት፣	-8917
ሊድ	-8918
▁ቻር	-8919
▁ፀድ	-8920
▁ፈላጊ	-8921
▁2017	-8922
▁በአባይ	-8923
▁አደረጉ	-8924
▁የሚተዳ	-8925
▁አገሮችን	-8926
▁እርሳቸው	-8927
ረሙ	-8928
▁2-0	-8929
▁ቀረጥ	-8930
▁አገና	-8931
▁ከፖለቲካ	-8932
▁እንደሌላቸው	-8933
ንጎ	-8934
ጋለጡ	-8935
▁ረዳ	-8936
▁ዩሮ	-8937
መንጨት	-8938
▁የጃፓን	-8939
▁የሚያስከት	-8940
ሀለሁ	-8941
ጠባቂ	-8942
ታወቁት	-8943
▁ቀጥታ	-8944
▁የሚውሉ	-8945
▁በመነጋገር	-8946
▁የደረሰውን	-8947
▁የሚያደርጉትን	-8948
fanatelevis	-8949
ሹን	-8950
ቶታል	-8951
▁600	-8952
▁ንክኪ	-8953
ቀረበላቸው	-8954
▁ሀብረተሰብ	-8955
▁ከቤ	-8956
ዳደሪያ	-8957
▁መዲና	-8958
▁በጥር	-8959
▁አዋሽ	-8960
▁ያለባቸውን	-8961
▁ሊሰጥ	-8962
▁ከቀረ	-8963
▁ከአውሮፓ	-8964
ዞር	-8965
ጀው	-8966
ለትም	-8967
▁ሆነን	-8968
▁በትእ	-8969
▁አገዛዝ	-8970
▁ጥረቶች	-8971
▁ለመክፈል	-8972
▁በማምረት	-8973
47	-8974
ቆቹ	-8975
ጣጣ	-8976
▁መጓ	-8977
▁በዱ	-8978
▁ጥራ	-8979
▁ሞዴል	-8980
▁ቤትን	-8981
▁የቀጠ	-8982
▁አምላካ	-8983
▁ይደረግ	-8984
▁ከትግራይ	-8985
▁አለመኖሩን	-8986
iv	-8987
ጓጉ	-8988
▁th	-8989
▁በምሳሌ	-8990
▁በዚያም	-8991
66	-8992
ቅያ	-8993
▁አተ	-8994
▁በስር	-8995
▁የመታ	-8996
▁አንበሳ	-8997
▁የመልሶ	-8998
▁ያስቀም	-8999
▁ከእናንተ	-9000
por	-9001
▁ተረክ	-9002
▁ትንታኔ	-9003
▁ይፈልጋል	-9004
▁ተረጋግጧል	-9005
▁ማዋ	-9006
▁ንቁ	-9007
▁ከማሳ	-9008
▁የሊግ	-9009
▁ይዘን	-9010
▁ወንድሞ	-9011
▁በስፍራው	-9012
▁ተወስኗል	-9013
▁አባላትና	-9014
▁የያህዌን	-9015
▁በሚፈለገው	-9016
ፈጣን	-9017
▁አክሊ	-9018
▁በሌሎችም	-9019
▁እንዲቆዩ	-9020
▁የተቋቋመ	-9021
▁የሚገባውን	-9022
2000	-9023
▁አድርጌ	-9024
▁ከሚያስ	-9025
▁እንደሚገባው	-9026
▁ኩባንያዎችን	-9027
▁የሚያስችለውን	-9028
▁ከሁሉ	-9029
▁ማሳካት	-9030
▁ያደረገውን	-9031
▁ፖለቲከኞች	-9032
ጠቢያ	-9033
▁መአዛ	-9034
▁መዘግ	-9035
▁በእነ	-9036
▁አመቺ	-9037
▁አሰም	-9038
▁ሊደርስ	-9039
▁ከሀገር	-9040
▁የሚቆጠር	-9041
▁የተቃዋሚ	-9042
▁በማስመልከት	-9043
ለሙ	-9044
ራ፣	-9045
▁የህንፃ	-9046
▁የሚቆይ	-9047
▁የሚጠቅ	-9048
▁የኦዲት	-9049
▁የተደራጀ	-9050
ቋም	-9051
ህዴን	-9052
ማችን	-9053
▁ተጭ	-9054
ስተላል	-9055
▁በተገናኘ	-9056
ከባበር	-9057
▁እኤአ	-9058
▁አጥቂው	-9059
▁በመገናኛ	-9060
▁አገልግሎትን	-9061
oo	-9062
▁አጎ	-9063
▁ዙርያ	-9064
▁ድጎማ	-9065
▁የተቀበ	-9066
▁የወይን	-9067
▁ናይጄሪያ	-9068
▁አመራሮችና	-9069
ያተ	-9070
ስትሪ	-9071
ከፈለ	-9072
▁ጢሞ	-9073
▁በቅዱስ	-9074
▁የበኩሉን	-9075
▁እድሜያቸው	-9076
▁ከፍተኛውን	-9077
ል፤	-9078
ቶን	-9079
የትና	-9080
▁ለን	-9081
▁ኤፍ	-9082
ቦራቶሪ	-9083
▁መርምሮ	-9084
▁ሳምሶን	-9085
▁ከግማሽ	-9086
▁ውድድሩን	-9087
▁የተጀመረውን	-9088
ልህ	-9089
ረምቱ	-9090
ረናል	-9091
▁ዜጎ	-9092
▁የጭ	-9093
▁ገፁ	-9094
▁ከአቶ	-9095
▁በአሉን	-9096
▁ታስረው	-9097
በዝ	-9098
ፌል	-9099
▁ነህ	-9100
▁ቤቶቹ	-9101
▁እየሰጠ	-9102
▁አምስተኛ	-9103
▁የሚሰጠውን	-9104
ነቷ	-9105
ንቀፅ	-9106
▁ላለመ	-9107
▁ስልት	-9108
▁በክለቡ	-9109
▁የጀርመን	-9110
▁ማስተላለፍ	-9111
▁የመድሀኒት	-9112
ርቻ	-9113
2016	-9114
▁ለሰራ	-9115
▁ሰራሽ	-9116
▁አነሳ	-9117
▁የበለ	-9118
ናይጄሪያ	-9119
▁የድርጅ	-9120
out	-9121
▁ቅሬ	-9122
▁ልምም	-9123
▁መሰራ	-9124
▁መያዙን	-9125
▁በእኩል	-9126
▁የሚያስፈልገውን	-9127
▁ድሪ	-9128
ስፋፊያ	-9129
▁በቦሌ	-9130
▁የመረ	-9131
በረታታት	-9132
▁በብድር	-9133
▁ባንክን	-9134
▁የመጠጥ	-9135
▁የሽያጭ	-9136
▁የጉምሩክ	-9137
▁የጠቆመው	-9138
ሸባ	-9139
ሀብት	-9140
ሸመኔ	-9141
ቋረጠ	-9142
▁ሁሌም	-9143
▁በተጨ	-9144
▁ከምር	-9145
▁የመኖር	-9146
▁እንዲሳተፉ	-9147
እለ	-9148
▁K	-9149
▁ያገኛሉ	-9150
▁እያካሄደ	-9151
ኛ፣	-9152
ደደ	-9153
ማማት	-9154
ጎብኘት	-9155
▁ሸለቆ	-9156
▁አላው	-9157
▁ወለጋ	-9158
▁የልብ	-9159
▁በፖሊስ	-9160
▁ለእነዚህ	-9161
▁አስቻለው	-9162
▁እንደሚታ	-9163
68	-9164
አቶ	-9165
ወዳደሩ	-9166
▁ሲሰጡ	-9167
▁ከፍታ	-9168
▁የአመ	-9169
▁ፅንፈ	-9170
▁ከኮሮና	-9171
▁አስጠንቅ	-9172
ጥኑ	-9173
▁ተባ	-9174
▁ሰኢድ	-9175
▁ፅንሰ	-9176
ለቀቅ	-9177
ሾችን	-9178
ወርድ	-9179
▁ያረ	-9180
▁ሁኔታን	-9181
▁ለከተማ	-9182
▁መለኪያ	-9183
▁በፍቅር	-9184
▁ለመለየት	-9185
▁ለፓርላማ	-9186
▁በቀረበው	-9187
▁በፌደራል	-9188
▁ይታመናል	-9189
ቦር	-9190
የረ	-9191
ግድ	-9192
▁ለጋ	-9193
▁በበቂ	-9194
▁በፈቃ	-9195
▁የሚወጣ	-9196
▁የዜጎች	-9197
▁ለማጥፋት	-9198
▁ይጠቀሳል	-9199
▁የዘንድሮው	-9200
ዎችን፣	-9201
▁ልቦና	-9202
▁ተሰል	-9203
▁መገልገ	-9204
▁ትርጓሜ	-9205
ሩና	-9206
▁እድሉ	-9207
▁ወለል	-9208
▁2016	-9209
▁ሰዎችም	-9210
▁አበባው	-9211
▁የሩሲያ	-9212
▁በፅህፈት	-9213
▁ተቋራጮች	-9214
ሚካ	-9215
▁2-1	-9216
▁በማህ	-9217
▁በሺዎች	-9218
▁ተገኝቷል	-9219
▁የመስጠት	-9220
ርፖር	-9221
▁43	-9222
ካከላቸው	-9223
▁ብቻውን	-9224
▁ለመቀጠል	-9225
▁የተዘጋጀው	-9226
ተህ	-9227
▁አፕ	-9228
▁ወንበር	-9229
▁ውስጣዊ	-9230
▁በመወከል	-9231
▁ያቀረበውን	-9232
▁የሚያስፈልገው	-9233
ነስር	-9234
ጠናው	-9235
▁ፈን	-9236
▁የመለ	-9237
▁ክፍፍል	-9238
▁የቆየውን	-9239
▁ለማስተናገድ	-9240
ዜና	-9241
▁በሰራ	-9242
▁የተዛ	-9243
▁የኒው	-9244
▁ሰርቪስ	-9245
▁የክብር	-9246
▁በውድድር	-9247
▁አንቀፆች	-9248
▁49	-9249
▁ነቢ	-9250
▁መሳተፍ	-9251
▁በባንክ	-9252
▁በመደገፍ	-9253
▁የህዝብን	-9254
▁ከአባ	-9255
▁ሊኖረው	-9256
▁ከንግድ	-9257
▁በአፋጣኝ	-9258
▁ከአምላክ	-9259
▁የምእራብ	-9260
▁ይጠቀሳሉ	-9261
ማካ	-9262
ረከቡ	-9263
ክሲኮ	-9264
▁ተማ	-9265
▁ያምና	-9266
ነታችንን	-9267
▁አርአያ	-9268
▁የተነሱ	-9269
▁የበርካታ	-9270
ሰፋ	-9271
ይስ	-9272
▁s	-9273
▁የሄ	-9274
▁በመፍ	-9275
▁የንግ	-9276
▁ይጠብ	-9277
▁መብራት	-9278
▁ተቋርጦ	-9279
▁ከተማ፣	-9280
▁ከፍተኛው	-9281
ፁህ	-9282
▁ሂሳ	-9283
▁ተረ	-9284
▁ለግል	-9285
▁ረዥም	-9286
▁ቁጠባ	-9287
▁አራቱ	-9288
▁ለማዋል	-9289
▁ርዝመት	-9290
▁ትልቁን	-9291
▁በቅንጅት	-9292
▁ተቆጣጣሪ	-9293
▁የሚመሩት	-9294
▁የማሀበራዊ	-9295
ሏት	-9296
ኚዎች	-9297
▁ጭብ	-9298
▁በአት	-9299
▁እስቲ	-9300
▁ዜናዊ	-9301
▁ለማክበር	-9302
ክላ	-9303
ለጠነ	-9304
▁ከዛሬ	-9305
▁ገዥው	-9306
▁ሰጪዎች	-9307
▁የፍፁም	-9308
▁ተጠያቂነት	-9309
▁እንዲሰጠው	-9310
▁ይኖርባቸዋል	-9311
ቸግ	-9312
ኔን	-9313
ልበት	-9314
ሳይም	-9315
ቋቋመ	-9316
ነቷን	-9317
▁ተስ	-9318
▁ፓት	-9319
▁የግዥ	-9320
▁ፊደል	-9321
▁ምልልስ	-9322
▁ተቋቁሞ	-9323
▁ተባባሪ	-9324
▁ገብነት	-9325
▁አመታትን	-9326
▁ተቆ	-9327
ሪያቸው	-9328
ከተሉት	-9329
▁አንተም	-9330
▁ኮማንደር	-9331
▁ወርቅነህ	-9332
▁የተነሳው	-9333
▁ይገባዋል	-9334
ወች	-9335
ሚሽኑ	-9336
ከፈቱ	-9337
ጎበኙ	-9338
▁የኋላ	-9339
▁ያሳስ	-9340
▁ምስረታ	-9341
▁በልማት	-9342
▁በተያዘ	-9343
▁ባህልና	-9344
▁የተነገረ	-9345
በሰ	-9346
▁ካውን	-9347
▁አውቶቡ	-9348
▁የዚህን	-9349
▁የጨዋታው	-9350
ዳኖስ	-9351
▁ክላ	-9352
▁ዘረ	-9353
▁አሳድ	-9354
▁ሀይልና	-9355
▁የተመዘገበ	-9356
ርሻ	-9357
ኖቬ	-9358
▁p	-9359
ሰረዝ	-9360
▁በምስ	-9361
▁ትረምፕ	-9362
▁ነገስት	-9363
▁ከቡድኑ	-9364
▁የተመድ	-9365
▁በእውነት	-9366
▁ተጀምሯል	-9367
▁ፈፅመዋል	-9368
▁ሽብርተኝነት	-9369
ሙም	-9370
ክም	-9371
ለውጡ	-9372
ታደር	-9373
▁አወጣ	-9374
▁ከሰው	-9375
▁ተእለት	-9376
▁ወረርሽኙ	-9377
▁የተሻገረ	-9378
▁የሚመለከት	-9379
▁ኀ	-9380
ከረው	-9381
▁ርቀ	-9382
ወሰደው	-9383
▁አብራ	-9384
▁አበረታች	-9385
▁የሶማሊያ	-9386
▁ለመተግበር	-9387
ድማ	-9388
▁ሊባል	-9389
▁መገር	-9390
▁ማንበብ	-9391
▁በቡድን	-9392
▁ይሰጣሉ	-9393
▁በመቶውን	-9394
▁የተመረጡ	-9395
▁የተደነገ	-9396
ጠመ	-9397
▁f	-9398
ስልምና	-9399
▁ይመለ	-9400
ገለፀው፣	-9401
▁አፋጣኝ	-9402
▁ተዘጋጅቶ	-9403
▁ከስምምነት	-9404
▁ከአካባቢው	-9405
▁እንደሌለበት	-9406
ጓዳኝ	-9407
▁41	-9408
▁ፍላ	-9409
ንዛኒያ	-9410
▁ስልጣንና	-9411
▁በጎንደር	-9412
▁ተለይተው	-9413
▁ኤርፖርት	-9414
▁የተፈናቀሉ	-9415
ik	-9416
ምጣ	-9417
▁ታወቀ	-9418
▁የመሆን	-9419
▁ተግዳሮቶች	-9420
▁እንፈልጋለን	-9421
▁ኡመር	-9422
▁መምጣቱ	-9423
▁በግድቡ	-9424
▁እንዲመለስ	-9425
ታ፣	-9426
ሻሻያ	-9427
ቀጥለው	-9428
ጫወተው	-9429
▁መማር	-9430
▁ይነሳ	-9431
▁ይረዳል	-9432
▁በመሆኑና	-9433
▁በመፈፀም	-9434
▁ከመስጠት	-9435
▁የደመወዝ	-9436
▁ማሀበረሰቡ	-9437
▁እንድትሆን	-9438
ማጅ	-9439
አተ	-9440
"""	-9441
ይንግ	-9442
ጓጓዣ	-9443
▁አየለ	-9444
▁ወኪል	-9445
▁ድርድ	-9446
▁ተወላጅ	-9447
▁ከሰአት	-9448
▁የአቅም	-9449
▁ዴኤታው	-9450
▁ማቋቋሚያ	-9451
▁በመውጣት	-9452
▁እንዲፈፀም	-9453
ንኮች	-9454
▁ልኡል	-9455
ስተዳደሩ	-9456
▁እንደሚጀምር	-9457
ርዶ	-9458
ቆጥር	-9459
ፋትና	-9460
▁ዲያ	-9461
▁መመዝ	-9462
▁ባህርይ	-9463
▁አልቻል	-9464
▁መክረዋል	-9465
▁በዩኒቨርሲቲ	-9466
ነጥብ	-9467
▁እናው	-9468
▁""""	-9469
▁መስኮት	-9470
▁በአዋጁ	-9471
▁እወዳለሁ	-9472
▁የወጣቶች	-9473
▁በአሰልጣኝ	-9474
▁አስታውሷል	-9475
ሚር	-9476
ባው	-9477
ሙትን	-9478
ሞክር	-9479
ቅተኛ	-9480
ትከል	-9481
▁ቁጣ	-9482
▁የቁጥጥር	-9483
▁ለማገልገል	-9484
▁ኢትዮጵያ፣	-9485
ምቢያ	-9486
በውን	-9487
ፀባር	-9488
▁ሀጢአ	-9489
▁ጣፋጭ	-9490
▁መግለፅ	-9491
▁በህዳሴ	-9492
▁አነጋግ	-9493
▁ጌታነህ	-9494
▁በኢንተር	-9495
▁የሚችሉበት	-9496
▁የሚገኙትን	-9497
ማማች	-9498
▁ማዘ	-9499
▁መለሰ	-9500
▁ተረድ	-9501
▁ጃፓን	-9502
▁እንዲል	-9503
▁የምድብ	-9504
ሞ፣	-9505
▁ስዊ	-9506
▁ይይ	-9507
▁ልደት	-9508
▁መቀጠ	-9509
▁ከቫይረሱ	-9510
▁መያዛቸውን	-9511
ላተ	-9512
▁ሽጉ	-9513
▁ሶፍት	-9514
▁ተሻጋሪ	-9515
▁ለመጨረሻ	-9516
▁በመጫወት	-9517
▁በማግኘት	-9518
▁ኮንግረስ	-9519
▁የልኡካን	-9520
▁የእርዳታ	-9521
ልቶ	-9522
ሱ፣	-9523
ጠሎ	-9524
▁እኮ	-9525
ምግባር	-9526
▁ልኡክ	-9527
▁ደደቢ	-9528
▁ለማገዝ	-9529
▁በድርጅቱ	-9530
▁እንዳለበትም	-9531
ቅ፣	-9532
ግቡ	-9533
ችልበት	-9534
▁አለመኖር	-9535
▁የዳኝነት	-9536
ገቢያ	-9537
▁ማሽን	-9538
▁የፕላ	-9539
▁የሚፈልግ	-9540
▁የወላይታ	-9541
▁ገልፀው፤	-9542
▁ተፈናቃዮች	-9543
▁መግለፃቸውን	-9544
ረሪ	-9545
ጅን	-9546
▁ሮም	-9547
▁የጫ	-9548
▁ይሻ	-9549
▁ፍጥ	-9550
ጁንታው	-9551
▁በማጣ	-9552
▁ፖስት	-9553
▁ትገኛለች	-9554
▁አስመልክተው	-9555
ቪክ	-9556
ስቷል	-9557
ፌሰር	-9558
▁ከሙ	-9559
▁ድንኳ	-9560
▁ለመሸጥ	-9561
▁በእድሜ	-9562
▁ያምናሉ	-9563
▁በመከተል	-9564
▁ግለሰቦችን	-9565
▁እንደሚያሳየው	-9566
44	-9567
78	-9568
ፍጨ	-9569
▁b	-9570
ይይቱ	-9571
▁ሹም	-9572
▁ከየት	-9573
▁ያልታ	-9574
▁የሀሳብ	-9575
▁የረጅም	-9576
▁ግለሰቡ	-9577
▁አሰራሮች	-9578
▁ከኤርትራ	-9579
▁ክስተቶች	-9580
▁የተቀመጠ	-9581
▁የፅህፈት	-9582
▁ለማስቀረት	-9583
▁የፕሮጀክቱ	-9584
▁የተመለከተው	-9585
ሰላ	-9586
ፃፉት	-9587
▁ማማ	-9588
▁ጥቂ	-9589
▁ሲወጣ	-9590
▁በጥናቱ	-9591
▁አልፈው	-9592
▁ያሳያሉ	-9593
▁የሚነገር	-9594
▁ያመለከቱት	-9595
▁ለመዋ	-9596
▁ለሁለቱ	-9597
▁ለዋልታ	-9598
▁ማሽኖች	-9599
▁ያካትታል	-9600
▁ታዬ	-9601
ሬዚዳንቱ	-9602
▁ልማት፣	-9603
▁አበባን	-9604
▁የወረዳ	-9605
▁የባንኩን	-9606
▁በተከሰተው	-9607
▁የሚችልበት	-9608
▁በእግዚአብሄር	-9609
▁ትምህርታቸውን	-9610
ሽር	-9611
ቶሪ	-9612
ፍሮ	-9613
▁ኦፊ	-9614
▁ዱቄ	-9615
ንድስና	-9616
▁አሳዛኝ	-9617
▁በመጠበቅ	-9618
▁በእርግጥም	-9619
ልናል	-9620
▁በደን	-9621
▁እሸቱ	-9622
▁ልጆችን	-9623
▁አመላካ	-9624
▁ለመምራት	-9625
▁አቡበከር	-9626
▁ወዳጅነት	-9627
▁የተመዘገቡ	-9628
63	-9629
ዥው	-9630
ሻሻሉ	-9631
▁የዛ	-9632
▁ኢዮብ	-9633
▁የታየ	-9634
ታወቁት፣	-9635
▁ከያህዌ	-9636
▁ገቢዎች	-9637
▁እስረኞች	-9638
▁ዲፕሎማሲያዊ	-9639
▁ታም	-9640
▁መዝና	-9641
▁በኒው	-9642
▁መሰራት	-9643
▁አይደለ	-9644
▁ወጪዎች	-9645
▁የሚፈፅ	-9646
▁የሪፖርተር	-9647
▁የዲፕሎማሲ	-9648
ካትት	-9649
▁ሳላ	-9650
▁ተመን	-9651
▁አውጪ	-9652
▁ግኝት	-9653
▁ካደረጉ	-9654
▁ክረምት	-9655
▁የማቅረብ	-9656
ማቱ	-9657
ገለገሉ	-9658
▁አማር	-9659
▁አቋር	-9660
▁ከሌላ	-9661
▁ከተባለ	-9662
▁ዳግመኛ	-9663
▁ነበረበት	-9664
ሁለት	-9665
ሰላም	-9666
▁ለሙ	-9667
▁ሹመ	-9668
▁ካደረገ	-9669
▁በሰብአዊ	-9670
▁በዘንድሮ	-9671
▁የተወሰደ	-9672
▁በመመስረት	-9673
▁ያቀረቡትን	-9674
ሬም	-9675
ተራ	-9676
▁ኢም	-9677
▁ከሩ	-9678
ባሳደር	-9679
▁መዝገ	-9680
▁ጥላቻ	-9681
▁ሆስፒታ	-9682
▁መስማት	-9683
▁ብጥብጥ	-9684
▁በመምጣት	-9685
▁አመላክቷል	-9686
ቴር	-9687
ቻች	-9688
▁ቀል	-9689
▁ናስር	-9690
ደርጋቸው	-9691
▁ህይወቱ	-9692
▁ምኒልክ	-9693
▁ሰውነት	-9694
▁እንደዘ	-9695
▁ዘዴዎች	-9696
▁ታይተዋል	-9697
ራባች	-9698
ኞቻችን	-9699
ዋሪዎች	-9700
▁በጅማ	-9701
▁ተጥሎ	-9702
▁ቁርጠኛ	-9703
▁ያገኙት	-9704
▁ጀነራል	-9705
▁የሚሰራው	-9706
▁አመሰግናለሁ	-9707
ፎቹ	-9708
▁ከቆ	-9709
ገናኘው	-9710
▁የሚዘ	-9711
▁ቅዱሳን	-9712
▁በምግብ	-9713
▁አደጋው	-9714
▁በደረሰው	-9715
▁መስተዳድሩ	-9716
ደመ	-9717
፣የ	-9718
▁ግጥ	-9719
▁ምርቱን	-9720
▁መስፋፋት	-9721
▁ስርጭትን	-9722
▁በሚደረግ	-9723
ወን	-9724
፤በ	-9725
ሉንም	-9726
ግጅጋ	-9727
▁ቢታ	-9728
▁ገድ	-9729
2003	-9730
▁ከፊት	-9731
▁ካፒታ	-9732
ልተኝነት	-9733
▁ቢሆኑም	-9734
▁በዝግጅት	-9735
ነቁ	-9736
ሩንዲ	-9737
ለንደን	-9738
▁በቶሎ	-9739
▁ተለያይ	-9740
▁ፋውንዴ	-9741
▁ለማስጀመር	-9742
▁አልተቻለም	-9743
▁የተቀመጠው	-9744
ጋር	-9745
ገደሉ	-9746
▁ሀላ	-9747
▁የተተ	-9748
▁የንጉ	-9749
▁ገንዘቡ	-9750
▁ተው	-9751
▁ጀግ	-9752
ገነዘብ	-9753
▁የመዋ	-9754
▁የጅማ	-9755
▁ላኪዎች	-9756
▁የኪራይ	-9757
▁የተፈቀደ	-9758
▁የተገኘባቸው	-9759
ለፈው	-9760
▁ከሽ	-9761
ፍትሀዊ	-9762
▁መከተል	-9763
▁ማጣራት	-9764
▁ሲያጋጥ	-9765
▁በሰዎች	-9766
▁በደረጃ	-9767
▁መመስረት	-9768
▁ቀርበዋል	-9769
▁አገልጋይ	-9770
▁እየተንቀሳቀሰ	-9771
ዶም	-9772
ጪዎቹ	-9773
▁ከሊ	-9774
▁የበር	-9775
▁ፋንታ	-9776
▁ልማቶች	-9777
▁በማግኘ	-9778
▁በኢትዮ	-9779
▁ቢደረግ	-9780
▁ለመወሰን	-9781
▁በድንገት	-9782
▁እስክንድር	-9783
ራዩ	-9784
ዩቱ	-9785
ቶችንና	-9786
▁በሳይ	-9787
▁በየእ	-9788
▁አምጥ	-9789
▁ጥቃቱ	-9790
▁እያሳየ	-9791
▁ፓርቲዎቹ	-9792
▁ምና	-9793
▁ሳኒ	-9794
▁ሀጫሉ	-9795
ሞክራቲክ	-9796
▁የወንድ	-9797
▁ድጋፍና	-9798
አክ	-9799
▁እሳቤ	-9800
▁ለማስፈን	-9801
▁በመካከለኛው	-9802
▁የአካባቢውን	-9803
195	-9804
ፈፃፀም	-9805
▁በዞኑ	-9806
▁አህጉ	-9807
▁የጋዜ	-9808
▁ለውጡን	-9809
▁ተጫዋቾ	-9810
▁ፈጥሯል	-9811
▁የቫይረሱ	-9812
▁ተጠርጣሪው	-9813
▁አመራሮችን	-9814
▁የአንድነት	-9815
አዴን	-9816
▁ይጠ	-9817
▁ጠረ	-9818
▁ተኩል	-9819
▁ታውቃ	-9820
▁ማመላለ	-9821
▁ተከታት	-9822
▁ማመልከቻ	-9823
▁አስተናጋ	-9824
▁የኩባንያ	-9825
▁እንደሚከተለው	-9826
ፈጥሩ	-9827
▁ፈት	-9828
ንቀሳቅ	-9829
▁በጋዜ	-9830
▁ንጥረ	-9831
▁ኤንድ	-9832
▁ከመቼ	-9833
▁የሌላ	-9834
▁ለሰላም	-9835
▁በቀረበ	-9836
▁ቴድሮስ	-9837
▁ጥቅሞች	-9838
▁በመቀነስ	-9839
▁አጋርነት	-9840
▁ኢኮኖሚው	-9841
▁የቱሪስት	-9842
▁በተዘጋጀው	-9843
▁ኢየሩሳሌም	-9844
▁የኮሙዩኒኬሽን	-9845
ሱና	-9846
ካድ	-9847
ለኞች	-9848
ቱን፣	-9849
ጋዮች	-9850
▁2.	-9851
መለክት	-9852
▁ለምር	-9853
▁ተካሂዶ	-9854
▁ካለፉት	-9855
▁አላውቅም	-9856
▁አሳልፏል	-9857
▁ማስተካከል	-9858
▁በፈረንሳይ	-9859
▁አስቀምጧል	-9860
ጢአት	-9861
▁ሆኜ	-9862
▁ከሞት	-9863
▁ጃዋር	-9864
▁በውይይ	-9865
▁በተቃራኒ	-9866
▁እንዲቻል	-9867
▁ከመስከረም	-9868
ፎቶ	-9869
ሎችና	-9870
▁የሚነ	-9871
▁የዘንድሮ	-9872
72	-9873
▁በሻ	-9874
▁ካምፓ	-9875
▁የወል	-9876
▁ምርትና	-9877
▁የአፋር	-9878
▁የሚፈፀም	-9879
▁ዋሽንግተን	-9880
▁የነበረበት	-9881
ራህ	-9882
ቡል	-9883
▁ዳቦ	-9884
▁ስርወ	-9885
▁ዘይቤ	-9886
▁2020	-9887
▁ለመኖር	-9888
▁ቁሳቁስ	-9889
▁የመግባ	-9890
▁በክልሎች	-9891
▁ዝርያዎች	-9892
▁አካባቢውን	-9893
ልተን	-9894
▁መኩ	-9895
▁ዋል	-9896
ገኝበት	-9897
▁ወንጌ	-9898
▁ግጭቱ	-9899
▁መቆጣጠሪያ	-9900
▁በሚያደርጉት	-9901
31	-9902
?""	-9903
ሊስት	-9904
▁በና	-9905
▁ወግ	-9906
▁የሚጥ	-9907
▁ተቀምጦ	-9908
▁ተአማኒ	-9909
▁እዚያው	-9910
▁እየሰጡ	-9911
▁የምጣኔ	-9912
▁ክፍሎችን	-9913
▁ይጨምራል	-9914
▁ምስክርነት	-9915
▁የገንዘብና	-9916
▁በእንግሊዝኛ	-9917
62	-9918
▁መሳይ	-9919
▁ተኩስ	-9920
▁የካሳ	-9921
▁ሪፎርም	-9922
▁የሚረዱ	-9923
▁እንዲመጣ	-9924
▁እንዳላት	-9925
▁ከሚገኙት	-9926
▁ማለታቸውን	-9927
ፀዳ	-9928
ንያም	-9929
ክተዋል	-9930
▁በሰኔ	-9931
▁የሚጠጋ	-9932
▁ባይሆንም	-9933
49	-9934
ቂኝ	-9935
ከአ	-9936
ያና	-9937
ላይን	-9938
ንግሊ	-9939
ደረው	-9940
▁ይሰጥ	-9941
ጊዮርጊስ	-9942
▁ስርአተ	-9943
▁የህንድ	-9944
▁ያሉበት	-9945
ደመው	-9946
ገራቱ	-9947
▁የኡ	-9948
▁ጎሳ	-9949
ላይነት	-9950
ምቦልቻ	-9951
▁ዋልታ	-9952
▁ሳንቲም	-9953
▁ገልፆ፣	-9954
▁መታሰቢያ	-9955
▁ከአገሪቱ	-9956
▁እየተከናወኑ	-9957
ሌይ	-9958
ትስ	-9959
ዚል	-9960
ሰብል	-9961
▁ለድ	-9962
▁ከሌላው	-9963
▁በማለትም	-9964
▁የመንግስትና	-9965
ብራት	-9966
▁58	-9967
▁ቅኝ	-9968
▁ሀውስ	-9969
በራቸውን	-9970
▁አለምን	-9971
▁የቦርዱ	-9972
▁ለማሸነፍ	-9973
▁በቋሚነት	-9974
▁የማሀበሩ	-9975
▁እንቅስቃሴዎችን	-9976
69	-9977
▁In	-9978
▁ሻይ	-9979
▁ትሬ	-9980
▁ድግ	-9981
▁ማጣት	-9982
▁ኮቪድ	-9983
በረሰቦች	-9984
▁ሀሳብን	-9985
▁በብቃት	-9986
▁አውቃለሁ	-9987
▁እንዲቆም	-9988
▁የስድስት	-9989
▁አላስፈላጊ	-9990
▁ዩኒቨርሲቲው	-9991
ምንም	-9992
ናዊው	-9993
1892	-9994
▁ተለዋጭ	-9995
▁አጠናቆ	-9996
▁ጌትነት	-9997
▁መካከልም	-9998
ረቤ	-9999
ደርግም	-10000
▁ትጥቅ	-10001
▁ክርክ	-10002
▁ድብደባ	-10003
▁የአማካይ	-10004
▁ያስቆጠረው	-10005
▁እንቅስቃሴን	-10006
▁ባዶ	-10007
▁ዘለ	-10008
ለመደው	-10009
▁ለወጣ	-10010
▁መዋጮ	-10011
▁ማራኪ	-10012
▁በተወ	-10013
▁እንቁ	-10014
▁የማጣ	-10015
▁ማክበር	-10016
▁ትንቢት	-10017
▁ለአምስት	-10018
▁መጠበቂያ	-10019
▁አፍሪካን	-10020
▁ስደተኞችን	-10021
▁የኢትዮጵያና	-10022
ካው	-10023
ፈናቀ	-10024
▁ሙቀት	-10025
▁ስሁል	-10026
▁ተዋና	-10027
▁ማልማት	-10028
▁ተከናው	-10029
▁የመማር	-10030
▁፪	-10031
ባለች	-10032
2020	-10033
ሰረታዊ	-10034
▁የክል	-10035
▁መከበር	-10036
▁ተይዘው	-10037
▁ከሀምሌ	-10038
▁ለሶስተኛ	-10039
▁ማገልገል	-10040
▁በተወሰኑ	-10041
▁ዘገባዎች	-10042
▁እንደነበረው	-10043
▁እንዳደረገው	-10044
ቡም	-10045
▁d	-10046
ሸባብ	-10047
ፋጠን	-10048
▁ያመጣ	-10049
▁ገንዘቡን	-10050
▁የሚመለከተው	-10051
▁የማህበረሰብ	-10052
ረቱ	-10053
ሪዝ	-10054
ጎና	-10055
ስቱን	-10056
▁ተሰና	-10057
▁አባጅ	-10058
ርባምንጭ	-10059
▁ለልማት	-10060
▁በሰማይ	-10061
▁ችለናል	-10062
▁ያደረጉትን	-10063
▁እንዳስታወቁት፣	-10064
600	-10065
ጠቀሱ	-10066
▁በሄ	-10067
▁ትዝ	-10068
ሚኒስት	-10069
▁ሞተር	-10070
▁ሲልም	-10071
▁እንዷ	-10072
▁ዝርጋ	-10073
▁ጥቅል	-10074
▁በመግባ	-10075
▁አስመጪ	-10076
▁ሲያገለግሉ	-10077
ሲስ	-10078
ውንድ	-10079
▁ድራ	-10080
▁ደሀን	-10081
▁በቁጥር	-10082
▁አድርጓ	-10083
▁ተከላካዩ	-10084
▁መመሪያዎች	-10085
▁እንደማይችሉ	-10086
▁ያድርጉፈጣን	-10087
ሳለች	-10088
ገረው	-10089
ሻሻለው	-10090
▁the	-10091
▁ነገድ	-10092
▁አምር	-10093
▁በአንዱ	-10094
ጠናክር	-10095
▁ማነቆ	-10096
▁ተርታ	-10097
▁ምልከታ	-10098
▁ምንዛሬ	-10099
▁አስርት	-10100
▁ነገርግን	-10101
▁ያለፉትን	-10102
▁በፕሬዚዳንት	-10103
ሏን	-10104
ኛ፦	-10105
የል	-10106
ላላፊ	-10107
መድን	-10108
ሽንና	-10109
▁ግንብ	-10110
▁አቀረበ	-10111
ማኝ	-10112
ፅር	-10113
ማውን	-10114
ካሂዱ	-10115
▁ለዋ	-10116
2019	-10117
▁ኦነግ	-10118
▁ማራቶን	-10119
▁አቀባዩ	-10120
▁ሰነዶችን	-10121
▁ለአብነትም	-10122
ube	-10123
ኖራት	-10124
ወደው	-10125
1997	-10126
▁አማረ	-10127
▁ሊቀመንበሩ	-10128
▁ሲንቀሳቀሱ	-10129
▁በአገልግሎት	-10130
በረከ	-10131
▁መሄ	-10132
▁ፎቅ	-10133
▁ለቀው	-10134
▁ንጉሰ	-10135
▁ክሱን	-10136
▁ወይን	-10137
▁መመስረ	-10138
▁ስነስር	-10139
▁በቀድሞው	-10140
▁በግንባታ	-10141
▁ማሻሻያዎች	-10142
▁ፕሬዝደንት	-10143
▁ማስተባበሪያ	-10144
▁በመሆናቸው፣	-10145
▁ተሽከርካሪዎችን	-10146
ደበኛ	-10147
ፆችን	-10148
▁ዲዛይ	-10149
▁መቅደስ	-10150
▁በሽብር	-10151
▁አስገድ	-10152
▁እንዲፈቀድ	-10153
▁ይገኝበታል	-10154
▁U	-10155
ግጅት	-10156
ገባደጃ	-10157
▁በየት	-10158
▁የገዛ	-10159
▁መጠሪያ	-10160
▁ቀሪዎቹ	-10161
▁ከወራት	-10162
▁ስለሚችል	-10163
▁እየቀነሰ	-10164
ኦኤ	-10165
ዝ፣	-10166
ዟቸው	-10167
ደረስ	-10168
▁እኛን	-10169
▁መሸፈኛ	-10170
▁አብዱላ	-10171
▁እሴቶች	-10172
▁በፌስቡክ	-10173
ራፌል	-10174
ደሰት	-10175
▁ቁም	-10176
▁ፈለ	-10177
ኖረውም	-10178
▁በብር	-10179
▁በገዛ	-10180
▁ማህበሩ	-10181
▁ከአንተ	-10182
▁የመብት	-10183
▁የሚያስተዳ	-10184
ቶት	-10185
▁ትችት	-10186
▁ኢንጅ	-10187
▁የሚጋ	-10188
ገኘባቸው	-10189
▁ንፁሀን	-10190
▁አልያም	-10191
▁ያለፈው	-10192
▁ጣሊያን	-10193
▁ሏላዊነት	-10194
▁ማድረግ፣	-10195
▁ዲሞክራሲያዊ	-10196
ሽሎ	-10197
▁ትራ	-10198
▁ጨም	-10199
ንደኛው	-10200
▁ብለህ	-10201
▁እናስ	-10202
▁የማይታ	-10203
▁የአበባ	-10204
▁ይኖራሉ	-10205
▁ባለሀብት	-10206
▁ተሳትፈዋል	-10207
▁ውሳኔዎችን	-10208
▁በኢየሩሳሌም	-10209
▁በኢንቨስትመንት	-10210
ዝቀ	-10211
▁ተጎጂ	-10212
▁ደበበ	-10213
▁አባባል	-10214
▁ከባህር	-10215
▁ማስተዋል	-10216
▁የላቸውም	-10217
▁የመሪዎች	-10218
▁ድርጅቶችና	-10219
ታም	-10220
ዚን	-10221
▁ዋጋው	-10222
▁መለወጥ	-10223
▁መርከብ	-10224
ለዩ	-10225
ቀፉ	-10226
በረው	-10227
▁መጡ	-10228
▁ቀነ	-10229
▁ነዉ	-10230
ተስኖት	-10231
▁አሀዝ	-10232
▁የወን	-10233
▁ገነት	-10234
▁ጭነት	-10235
▁ሲገለፅ	-10236
▁ባልሆነ	-10237
▁መፈፀሙን	-10238
▁የተገነባ	-10239
▁ከትምህርት	-10240
ers	-10241
ከፈሉ	-10242
▁በፅኑ	-10243
▁ክሶች	-10244
▁ለማለፍ	-10245
▁ሲቀርብ	-10246
▁ካህናት	-10247
▁ለማስቆም	-10248
▁ትእግስት	-10249
▁እንዲሰማ	-10250
▁የተረጋጋ	-10251
▁ፍልስፍና	-10252
▁ወረርሽኝን	-10253
▁የተገነባው	-10254
▁እንደሚገባቸው	-10255
▁ኹ	-10256
▁ሰበብ	-10257
▁በአባ	-10258
▁ከሜዳው	-10259
ቀኝ	-10260
▁c	-10261
ከብሩ	-10262
▁57	-10263
▁የማዳ	-10264
▁ይኼን	-10265
▁በቀዳሚ	-10266
▁ክብደት	-10267
▁ዮናታን	-10268
▁መኖራቸው	-10269
▁በሽታዎች	-10270
▁ተፈጥሯዊ	-10271
▁በተመለከተም	-10272
43	-10273
ኗኗ	-10274
ውተር	-10275
▁ሬድ	-10276
▁ተጓ	-10277
▁አሶ	-10278
▁ተገዷል	-10279
▁አመትም	-10280
ናና	-10281
▁m	-10282
▁ጄኔ	-10283
▁በድረ	-10284
▁የግለ	-10285
▁ፈጥሮ	-10286
▁አዋሳኝ	-10287
▁መጨረሻው	-10288
▁ተቋማት፣	-10289
▁በአነስተኛ	-10290
▁የሚታየውን	-10291
▁የአሰልጣኝ	-10292
ይር	-10293
▁የያ	-10294
▁ወረቀ	-10295
▁አለምአቀፍ	-10296
▁አስተዳደሮች	-10297
ችኹ	-10298
ግስቱ	-10299
ጠቅም	-10300
▁ዝንባ	-10301
▁ልማትን	-10302
▁ማቋቋም	-10303
▁የታሰሩ	-10304
▁የማንነት	-10305
▁ማስረጃዎች	-10306
ቴው	-10307
▁ፈጣ	-10308
▁ታደለ	-10309
▁ማንሳት	-10310
ul	-10311
▁120	-10312
▁ሰንሰ	-10313
▁ድረስ፣	-10314
▁ማዘጋጀት	-10315
▁አስተማሪ	-10316
▁እጃቸውን	-10317
▁የበኩላቸውን	-10318
▁መለዋ	-10319
▁እንሰራ	-10320
▁በመምራት	-10321
▁የአሰልጣ	-10322
▁ቅሬታቸውን	-10323
▁ይጎብኙ፤ተ	-10324
ክ፣	-10325
▁ሴክ	-10326
▁የቃ	-10327
ባልነት	-10328
ከራከሩ	-10329
▁መቆራ	-10330
▁ማለቱ	-10331
▁በቀይ	-10332
▁ብዙሀ	-10333
▁አሰጣ	-10334
▁ክፍሉ	-10335
▁ድሪባ	-10336
▁ሜዳሊያ	-10337
▁የሀሰት	-10338
▁እንደርታ	-10339
▁አምባሳደሩ	-10340
▁ኢትዮጵያም	-10341
▁እንዲቀጥሉ	-10342
ንገ	-10343
ግሩ	-10344
▁ቆሞ	-10345
▁ጃን	-10346
ሯቸውን	-10347
ሳሰሉት	-10348
▁ላልተ	-10349
▁አወቃ	-10350
▁ከህገ	-10351
▁በባንኩ	-10352
▁በግንቦት	-10353
▁መንገደኞች	-10354
▁ማስተናገድ	-10355
▁የሳይንስና	-10356
ዋርያው	-10357
▁ሰርቶ	-10358
▁በፕሮ	-10359
▁አሰል	-10360
▁የዞኑ	-10361
▁ፍሬው	-10362
▁መለየት	-10363
▁ኮማንድ	-10364
▁ለማንኛውም	-10365
fanatelevision	-10366
ውድ	-10367
▁በኬ	-10368
▁ይችል	-10369
▁መቆጠር	-10370
▁ተለይቶ	-10371
▁አከባቢ	-10372
▁እነርሱ	-10373
▁ዘላለም	-10374
▁የሚሰጡት	-10375
▁አግባብነት	-10376
ለውጥ	-10377
▁አጣሪ	-10378
▁የክት	-10379
▁ፍንዳ	-10380
▁መረጃን	-10381
▁ሲጠበቅ	-10382
▁በኩልም	-10383
▁ተፈናቅ	-10384
▁ለውጦችን	-10385
▁አፅንኦት	-10386
▁የጎደለው	-10387
▁ማስመዝገብ	-10388
▁እንደደረሰ	-10389
ከፈተ	-10390
ወሰነው	-10391
▁ሰይጣን	-10392
▁በየእለቱ	-10393
▁የሚያገኙ	-10394
▁የሚጠቀሙ	-10395
▁ማህበረሰቡ	-10396
▁እየተነገረ	-10397
▁ከእስራኤል	-10398
▁የሚያመለክ	-10399
ይንት	-10400
ጠሩት	-10401
▁ሲመ	-10402
▁ነብ	-10403
▁ሀኪም	-10404
▁በመሸ	-10405
▁ከግራ	-10406
ገራቸውን	-10407
▁አብያተ	-10408
▁የሚመሩ	-10409
▁ጥናታዊ	-10410
▁ግንባታና	-10411
ያ፣	-10412
ሪያም	-10413
▁ለቀጣይ	-10414
▁አመላካች	-10415
▁ከጠቅላላ	-10416
▁ማቅረባቸውን	-10417
ap	-10418
ሰመ	-10419
ብና	-10420
▁ከዩ	-10421
ባቢሎን	-10422
ነኝነት	-10423
▁በወል	-10424
▁በገቢ	-10425
▁ለእነሱ	-10426
▁በረቂቁ	-10427
▁ከቀናት	-10428
▁ምርጫዎች	-10429
▁ያገኙትን	-10430
▁መዋላቸውን	-10431
os	-10432
ጣና	-10433
ፈሩት	-10434
▁መቅደ	-10435
▁ስፍራው	-10436
▁በፊትም	-10437
▁አስታውሰው፣	-10438
ህ፣	-10439
ሽታ	-10440
ክሌር	-10441
ወስደው	-10442
▁ደረጀ	-10443
▁በምርት	-10444
▁በደረሰ	-10445
▁ከሰባት	-10446
▁ማመላለሻ	-10447
ላጠ	-10448
ዳግ	-10449
ፃፉ	-10450
ፋቱ	-10451
ዳዲስ	-10452
ከበረው	-10453
▁የቢሮ	-10454
ታቸውን፣	-10455
▁በየወሩ	-10456
▁በጊዜው	-10457
▁ጭንቀት	-10458
▁ለማስቻል	-10459
▁መኮንኖች	-10460
▁ሚኒስቴርና	-10461
▁የደረሰባቸው	-10462
ut	-10463
▁ቮ	-10464
▁ልጄ	-10465
▁ምሀ	-10466
▁ዮሀ	-10467
▁ካናዳ	-10468
▁ለክልሉ	-10469
▁ለጉዳዩ	-10470
▁በይሆዋ	-10471
▁ነጥቦችን	-10472
▁በማረጋገጥ	-10473
ቲቪ	-10474
▁ችላ	-10475
ደርገውን	-10476
▁ነበርና	-10477
▁የትኛው	-10478
▁በመጠቆም	-10479
▁ይጎብኙ፤ተንቀሳቃሽ	-10480
ጐች	-10481
2004	-10482
▁ከቀኝ	-10483
▁ጊዜን	-10484
▁አላማው	-10485
▁ማስቀመጥ	-10486
▁እንደሆን	-10487
▁ቤተሰቦቻቸው	-10488
ኪዮ	-10489
▁ሊጉን	-10490
▁ቤትም	-10491
▁ለመሆኑ	-10492
▁ለአራት	-10493
▁መካከል፣	-10494
▁የሰራተኞች	-10495
▁ይጠበቅባቸዋል	-10496
ሬቻ	-10497
ርኩ	-10498
ጃም	-10499
ቢያን	-10500
▁ጆሮ	-10501
▁ተቃር	-10502
▁አይነ	-10503
▁አድሀ	-10504
▁ጥቅማ	-10505
▁ከመረብ	-10506
▁የሙቀት	-10507
▁አፈፃፀሙ	-10508
▁የሀብረት	-10509
▁የተጀመሩ	-10510
▁ከማንኛውም	-10511
▁t	-10512
ቀበሉት	-10513
▁ማርያ	-10514
▁ስራም	-10515
▁ከመጡ	-10516
▁ከቀኑ	-10517
▁ምግቦች	-10518
▁ከመሆን	-10519
▁የአይን	-10520
▁በጥቅምት	-10521
▁ተመልከት	-10522
▁በስብሰባው	-10523
▁አፍሪካውያን	-10524
▁የተደረገውን	-10525
ሳና	-10526
ቆም፣	-10527
ቢዎች	-10528
▁ለመቅ	-10529
▁ማርክ	-10530
▁ቀልጣ	-10531
▁አስች	-10532
▁የሚሰበ	-10533
▁ከመቼውም	-10534
ሊጥ	-10535
ሚል	-10536
ቻው	-10537
ዘጉ	-10538
ጃን	-10539
▁የተበ	-10540
▁መኪኖች	-10541
▁በሲዳማ	-10542
▁የፈፀሙ	-10543
▁በኢህአዴግ	-10544
▁ከነበረበት	-10545
ጎለ	-10546
ሳሪያ	-10547
ባቶች	-10548
▁1.	-10549
▁ለፀ	-10550
▁ከይ	-10551
▁ከገ	-10552
እነዚህ	-10553
ጠበቅም	-10554
▁ሁንዴ	-10555
▁ተገም	-10556
▁ችግኝ	-10557
▁ኮንቴ	-10558
▁ለሚለው	-10559
▁በየመን	-10560
▁ጦርነቱ	-10561
▁ለመታደግ	-10562
▁ስለሆነ፣	-10563
▁የተጠቀሰው	-10564
46	-10565
ፍቲ	-10566
ግራት	-10567
▁ህሙ	-10568
▁አደረ	-10569
▁በጥብቅ	-10570
▁ለዴሞክራሲ	-10571
▁የእግርኳስ	-10572
▁ግንኙነትና	-10573
ot	-10574
ጅሙ	-10575
ዝናኛ	-10576
▁ያበ	-10577
መዘገብ	-10578
ኢህአዴግ	-10579
▁እቅዶች	-10580
▁ህፃናትን	-10581
▁ስለነበረ	-10582
▁በሶስተኛ	-10583
▁አይኖርም	-10584
▁መንግስት፣	-10585
▁የፌ	-10586
▁ህያው	-10587
▁ተርሚ	-10588
▁የዋና	-10589
▁ለመናገር	-10590
መልካ	-10591
▁ለመመ	-10592
▁ችሎቱ	-10593
▁የአገ	-10594
▁ገልፃ	-10595
▁ሂደቶች	-10596
▁ማቆሚያ	-10597
▁ስለሆኑ	-10598
▁የብረት	-10599
▁በሳምንቱ	-10600
▁አድናቆት	-10601
85	-10602
ኒስ	-10603
ሰኞቹ	-10604
ሳካም	-10605
▁ከቁ	-10606
ሰልጠን	-10607
ኢህዴን	-10608
▁ሀዲያ	-10609
▁መቆም	-10610
▁ተወካ	-10611
▁ፈቃዱ	-10612
▁ታምራት	-10613
▁አሰቃቂ	-10614
▁የአስር	-10615
▁ይሆናል፤	-10616
▁የማእከላዊ	-10617
ሟን	-10618
▁ቢቂ	-10619
▁ሜጀር	-10620
▁ይመጣ	-10621
▁ሀይለኛ	-10622
▁በመኖሩ	-10623
▁ጎረቤት	-10624
▁የተጠርጣሪ	-10625
ir	-10626
ዘገ	-10627
▁ጩ	-10628
ቅደው	-10629
▁በጅ	-10630
▁ብዛ	-10631
▁ያፀ	-10632
yout	-10633
መርመር	-10634
▁መፍጠ	-10635
▁ማሽነ	-10636
▁ለሚሆኑ	-10637
▁ስምሪት	-10638
▁አመራሩ	-10639
▁ይጠናቀ	-10640
▁በግንባር	-10641
▁ፕሮጀክቱን	-10642
ፕቴ	-10643
▁ከምት	-10644
▁የእዳ	-10645
▁አለቆች	-10646
▁ለማስፋት	-10647
▁ያብራራል	-10648
▁ኮንትራክተሮች	-10649
መተ	-10650
መጠ	-10651
▁ግሎ	-10652
ፈቀደው	-10653
▁ማለፉ	-10654
▁ከተማና	-10655
▁ከአማራ	-10656
▁የሰነድ	-10657
▁የአራት	-10658
ደረግባቸው	-10659
▁የሚያረጋግጥ	-10660
ልክት	-10661
▁ውጣ	-10662
▁ጂኦ	-10663
▁ፊሊ	-10664
የታቸው	-10665
▁ሊያሳ	-10666
▁ወልዴ	-10667
▁ብሄራት	-10668
▁አዳጋች	-10669
▁የማስፋፊያ	-10670
▁ጡ	-10671
▁ሙሳ	-10672
▁ጠጅ	-10673
▁ክፉኛ	-10674
▁ሲናገር	-10675
▁አብዮት	-10676
▁አውራጃ	-10677
▁ወስዷል	-10678
▁ዝንባሌ	-10679
▁የጀመሩ	-10680
▁በመንፈስ	-10681
▁እየወሰደ	-10682
▁ያሳለፈው	-10683
▁የሚያሳየው	-10684
▁የተናገረው	-10685
▁ለእያንዳንዱ	-10686
▁እንደሚፈጥር	-10687
ነነ	-10688
▁ሟ	-10689
ራችሁ	-10690
ነኛነት	-10691
▁ለህል	-10692
▁ይጫወ	-10693
▁ግደይ	-10694
▁ካለበት	-10695
▁ለእርስዎ	-10696
▁ማናቸውም	-10697
▁ተመልካች	-10698
▁በመገንዘብ	-10699
42	-10700
መደው	-10701
▁የሚን	-10702
▁የሚው	-10703
▁ደሴት	-10704
▁እስኪያ	-10705
▁የራሳቸው	-10706
youtube	-10707
▁ባለሜዳዎቹ	-10708
▁የፕሪምየር	-10709
ሙበት	-10710
▁ሲደርሱ	-10711
▁ሳይቆይ	-10712
▁በገጠር	-10713
▁ለእናንተ	-10714
▁አጥቂዎች	-10715
▁የድርድር	-10716
ረካ	-10717
ካፋ	-10718
▁ከአን	-10719
ጠናቀቂያ	-10720
▁እንዲመ	-10721
▁ኔትወርክ	-10722
▁ደርሰዋል	-10723
ረቡ	-10724
ነፃ	-10725
ኖተ	-10726
ዋቱ	-10727
ሊፎር	-10728
▁ማወ	-10729
▁ሸኔ	-10730
▁ታሪፍ	-10731
▁ውለው	-10732
▁ለሆኑት	-10733
▁የተፃፈ	-10734
▁ደረሰኝ	-10735
▁አስባለሁ	-10736
▁ያገለገሉ	-10737
▁በበላይነት	-10738
▁የቴሌቪዥን	-10739
ሀቅ	-10740
ተሩ	-10741
▁ለጎ	-10742
▁ያዋ	-10743
▁ጠፍ	-10744
ዋቸዋል	-10745
▁ሀሳቡ	-10746
▁እንጀ	-10747
▁እጁን	-10748
▁በጨረታ	-10749
▁ቢኖርም	-10750
▁የቋንቋ	-10751
▁በመንግስትና	-10752
ኢማ	-10753
እስ	-10754
▁ህሊና	-10755
▁በምታ	-10756
▁ተደረገ	-10757
▁አላገኘ	-10758
▁የለም፤	-10759
▁ሀላፊዎቹ	-10760
▁የመስራት	-10761
▁በማከናወን	-10762
3)	-10763
▁ስመ	-10764
ኖርበት	-10765
▁ህፃን	-10766
▁ቃሊቲ	-10767
▁በህጉ	-10768
▁ይታይ	-10769
▁ሊካሄድ	-10770
▁ልኡካን	-10771
▁ሚዛናዊ	-10772
▁በጂቡቲ	-10773
▁የህዝብና	-10774
▁የተቀማጭ	-10775
ክሬን	-10776
ግራፍ	-10777
▁ባያ	-10778
▁ተጫ	-10779
ሎምፒክ	-10780
ረጃጅም	-10781
▁ተከራ	-10782
▁ተፈሪ	-10783
▁ከግል	-10784
▁ድህረ	-10785
▁በምንም	-10786
▁ተነጋግ	-10787
▁ያሳለፈ	-10788
▁እንዳብራ	-10789
▁የተገነቡ	-10790
ስራኤላውያን	-10791
▁አመስግ	-10792
▁ከቀረጥ	-10793
▁የበለፀ	-10794
▁በኤሌክትሪክ	-10795
▁J	-10796
▁የጌ	-10797
ሰበሰቡ	-10798
▁አካሄ	-10799
▁የፆታ	-10800
▁ተመላክ	-10801
▁ተገልፆ	-10802
▁ጥርጥር	-10803
▁መንገዱን	-10804
▁ፍላጎቶች	-10805
▁ባስተላለፉት	-10806
▁እንደገለፀው	-10807
ቴና	-10808
ብንም	-10809
▁78	-10810
ደባባይ	-10811
▁250	-10812
▁ማቆም	-10813
▁በበጎ	-10814
▁በግሉ	-10815
▁የታዩ	-10816
▁ጨርሶ	-10817
▁ከወለድ	-10818
▁ለመጨመር	-10819
▁ማመንጨት	-10820
▁አቅማቸው	-10821
▁የተነገረው	-10822
ረገ	-10823
ደረግን	-10824
▁መሸጥ	-10825
▁አዘጋ	-10826
▁ምላሽ፣	-10827
▁ሰንደቅ	-10828
▁ተመላሽ	-10829
▁አድራጊ	-10830
▁ከቅጣት	-10831
▁የተቀረ	-10832
▁ነበራቸው	-10833
▁ሶዶ	-10834
▁ቢስ	-10835
▁ከቢ	-10836
ብርኤል	-10837
▁የውል	-10838
▁ጋርም	-10839
▁ሮበርት	-10840
▁ያለንን	-10841
▁ተመልክቶ	-10842
▁አገራችን	-10843
▁የምንዛሪ	-10844
▁ያገኘውን	-10845
▁ቁሳቁሶችን	-10846
▁በዋነኝነት	-10847
▁እንደሚፈልጉ	-10848
▁የሚከተለውን	-10849
ቅሉ	-10850
ፊዎች	-10851
ፐብሊ	-10852
▁የሂ	-10853
ክልትና	-10854
▁ሀይሎችን	-10855
▁ባህርዳር	-10856
▁እናንተም	-10857
▁የወጣውን	-10858
▁መዘጋጀቱን	-10859
▁በስምምነት	-10860
09	-10861
ፈኑ	-10862
ጠቃል	-10863
▁ሲኖ	-10864
ሰበውን	-10865
ፀባረቅ	-10866
▁አቅዶ	-10867
▁የነገ	-10868
▁ማስጨበ	-10869
▁እድሉን	-10870
▁ያሻገረ	-10871
▁ምግባርና	-10872
▁የዝውውር	-10873
▁ሊያስከትል	-10874
▁እንደሚችልም	-10875
41	-10876
ዮብ	-10877
ሳሰር	-10878
ኗቸው	-10879
ኖረውን	-10880
▁ተዘር	-10881
▁ኦሮሞ	-10882
▁ከሰራ	-10883
ክስፖርት	-10884
▁ሸቀጦች	-10885
▁ይናገር	-10886
ድሪ	-10887
ታል፤	-10888
ገርም	-10889
▁ዲቪ	-10890
▁በመሸጥ	-10891
▁የህዝቡ	-10892
▁የሚያመ	-10893
ብረተሰቡን	-10894
▁አመለካከ	-10895
▁እንዲችል	-10896
▁ይቀላቀሉ	-10897
▁እንዲራዘም	-10898
ሰቦቹ	-10899
ገባኛል	-10900
▁ክቡር	-10901
▁ጋዜጠ	-10902
▁በመሬት	-10903
▁በሚቻል	-10904
▁በእቅድ	-10905
▁ይመስል	-10906
▁ለመክፈት	-10907
▁ተነስቷል	-10908
▁የአሜሪካው	-10909
ቴዎስ	-10910
ውረድ	-10911
ዮቹን	-10912
▁ቁርጥ	-10913
▁ትሆና	-10914
ነበራቸው	-10915
▁በሽታው	-10916
▁ያደርጉ	-10917
▁ልጆቻቸውን	-10918
▁ፕሬዝዳንቱ	-10919
▁ለአገልግሎት	-10920
▁የተመዘገበው	-10921
61	-10922
ታሽ	-10923
ፍሉ	-10924
▁ተጠብ	-10925
▁ጎልቶ	-10926
▁ህጎችን	-10927
▁ሲጀመር	-10928
▁ዲጂታል	-10929
▁ሰርተዋል	-10930
▁የሚጠቀስ	-10931
▁በመጥቀስ፣	-10932
ዦች	-10933
ፅደቅ	-10934
▁መበ	-10935
▁ቅጣ	-10936
▁አሽ	-10937
▁ማደግ	-10938
▁ምስጋ	-10939
▁ቀሪው	-10940
▁ነጋሽ	-10941
▁ዴቪድ	-10942
▁በአስራ	-10943
▁እናቶች	-10944
▁ክትባት	-10945
▁የመድረ	-10946
▁ተዘግቧል	-10947
▁አስታውቆ	-10948
▁የተካተቱ	-10949
▁ጉዳተኞች	-10950
▁እንዲቋረጥ	-10951
▁የመግባቢያ	-10952
ውሎ	-10953
org	-10954
ሰማው	-10955
ፈንቅለ	-10956
▁ቅነሳ	-10957
▁ፍሳሽ	-10958
▁ለመላክ	-10959
▁አገርን	-10960
▁ከጉዳት	-10961
▁የተዘረ	-10962
▁የውሀ፣	-10963
▁በመጨመር	-10964
▁በተደረጉ	-10965
▁የሚመጣው	-10966
▁የተዘጋጁ	-10967
▁ምስክሮችን	-10968
በሬ	-10969
ቶ፣	-10970
ቃጠል	-10971
ዋወቅ	-10972
▁ስእ	-10973
▁800	-10974
▁አዳራ	-10975
▁ካገኘ	-10976
▁ተቋራጭ	-10977
▁ያገለግ	-10978
▁ከመከላከያ	-10979
▁ኩባንያዎቹ	-10980
▁እንደሚገኝም	-10981
ሎቹን	-10982
ብራይ	-10983
▁ሱፐር	-10984
▁ሲሄድ	-10985
▁በገለ	-10986
▁የአቻ	-10987
▁በተገኘ	-10988
▁የተኩስ	-10989
▁ይደነግ	-10990
▁ጊዜውን	-10991
▁ከስምንት	-10992
▁የሚከናወን	-10993
ትን፣	-10994
▁59	-10995
▁ቅመ	-10996
▁በመጋ	-10997
▁ጨለማ	-10998
▁ኤግዚቢ	-10999
▁እራሱን	-11000
▁ማግኘቱን	-11001
▁እንዲታይ	-11002
▁የድንጋይ	-11003
▁አብራርቷል	-11004
▁የሚገልፀው	-11005
ራና	-11006
ዋጭ	-11007
▁ኮድ	-11008
▁ቱሪስ	-11009
▁ላላቸው	-11010
▁መንበር	-11011
▁በከባድ	-11012
▁በጉጉት	-11013
▁የአጥቂ	-11014
▁ማስታወቁ	-11015
▁አንተነህ	-11016
▁በመሰብሰብ	-11017
▁እንደነበር፣	-11018
oc	-11019
ክራል	-11020
ገነዘ	-11021
ግመው	-11022
▁በማለ	-11023
▁ሀብትና	-11024
▁ማለፉን	-11025
▁ይጠቅሳሉ	-11026
▁ጉዳያቸው	-11027
▁የአገራችን	-11028
▁የኛ	-11029
▁ልማድ	-11030
▁መጓዝ	-11031
▁ምደባ	-11032
▁በድል	-11033
▁ዳኛው	-11034
▁ጆርጅ	-11035
▁ቅርበት	-11036
▁ፍልስጤ	-11037
▁ሊያደርጉ	-11038
▁ቻምፒዮን	-11039
▁አንዳንዴ	-11040
▁እየተሰሩ	-11041
▁ኪንግደም	-11042
▁አስተላልፏል	-11043
▁አገልግለዋል	-11044
ማርክ	-11045
ማኑኤል	-11046
▁ውበት	-11047
▁የከረ	-11048
▁መገንዘብ	-11049
▁ብርቱካን	-11050
▁አባላት፣	-11051
▁ተመላክቷል	-11052
▁የሚከተሉት	-11053
88	-11054
ልባ	-11055
ሎች፣	-11056
▁3.	-11057
▁in	-11058
▁ለፋ	-11059
ከሰተው	-11060
▁1-1	-11061
▁ስለአ	-11062
▁ቦምብ	-11063
▁ኮንጎ	-11064
▁መልክአ	-11065
▁መርዳት	-11066
▁በመቐለ	-11067
▁ተስተካ	-11068
▁ከመጠን	-11069
▁እየሰራን	-11070
▁የሚቀጥል	-11071
▁የማሻሻያ	-11072
▁ፌዴራላዊ	-11073
▁የሚገነባው	-11074
ሾም	-11075
ዮተ	-11076
በረክ	-11077
ጫወቻ	-11078
▁ይር	-11079
▁ሂሩት	-11080
▁በአፍ	-11081
▁ከእነ	-11082
▁ወለደ	-11083
▁ፕሬዘ	-11084
▁ከአመት	-11085
▁የሰራዊት	-11086
▁የሚያገለግሉ	-11087
ነቴ	-11088
ኩኝ	-11089
ህትና	-11090
ስላሴ	-11091
ራዊነት	-11092
ኒስቴር	-11093
▁መውደ	-11094
▁መጠይ	-11095
▁ትርኢ	-11096
▁ለቡድኑ	-11097
▁መዋእለ	-11098
▁ተሸላሚ	-11099
▁አለብኝ	-11100
▁መገባደጃ	-11101
▁እንደመጣ	-11102
▁ተቃዋሚዎች	-11103
im	-11104
▁ሰላሳ	-11105
▁ስብስ	-11106
▁ኳሱን	-11107
▁ለመላው	-11108
▁በቀድሞ	-11109
▁ተከራክ	-11110
▁ትንበያ	-11111
▁ከእንግዲህ	-11112
ፀባ	-11113
ሬትስ	-11114
ያዙት	-11115
ጥበብ	-11116
▁ለዳ	-11117
▁አዱ	-11118
▁and	-11119
▁ለጤና	-11120
▁መትቶ	-11121
▁መፈጠ	-11122
▁መብትና	-11123
▁ተደንግ	-11124
▁ተፈላጊ	-11125
▁ጨምሮ፣	-11126
▁ለሚፈልጉ	-11127
▁መተዳደሪያ	-11128
▁የሚገኝበት	-11129
▁የነበረችው	-11130
▁ተስማምተዋል	-11131
ሪኩ	-11132
ሰቃ	-11133
ሪያን	-11134
ደቡብ	-11135
▁ሊሰሩ	-11136
▁ሜዳው	-11137
▁ቶማስ	-11138
▁ከመጣ	-11139
ሊፎርኒያ	-11140
▁እንጨት	-11141
▁ከሳጥን	-11142
▁ሰራተኞቹ	-11143
▁ተሰጥቶት	-11144
▁ነዋሪዎቹ	-11145
▁የገቢዎች	-11146
▁ጠቁመው፤	-11147
▁ተሰማርተው	-11148
▁ከሪፖርተር	-11149
▁የእርስዎን	-11150
ንጭ	-11151
▁ጳጉ	-11152
ደኝነት	-11153
▁ምኞት	-11154
▁ከመቀ	-11155
▁ጅቡቲ	-11156
▁መደገፍ	-11157
▁በሆኑት	-11158
▁በማረሚያ	-11159
▁ከሳምንት	-11160
▁የማይችሉ	-11161
▁ሀላፊዎችና	-11162
▁በዋነኛነት	-11163
▁መኝታ	-11164
▁በመዋ	-11165
▁የሚያን	-11166
▁ስፖርታዊ	-11167
▁እየቀረበ	-11168
▁በሀላፊነት	-11169
▁የሚፈልጉትን	-11170
74	-11171
ዳደር	-11172
▁ህመ	-11173
▁የእሱ	-11174
▁በቅድመ	-11175
▁ኮሚቴዎች	-11176
▁በመቀጠልም	-11177
▁እንደሚጀመር	-11178
ፔን	-11179
ter	-11180
መናን	-11181
▁ትው	-11182
▁አዳም	-11183
▁እርቅ	-11184
▁የጨረ	-11185
▁በሀይሉ	-11186
▁የሶስቱ	-11187
▁የካቢኔ	-11188
▁የገለፀ	-11189
▁ሀዋርያው	-11190
▁ሚንስትሩ	-11191
▁አያውቅም	-11192
▁በኦሮሚያና	-11193
ኋን	-11194
▁መቀሌ	-11195
▁ታዳሚ	-11196
▁ብለው፣	-11197
▁ከመሀል	-11198
▁ወክለው	-11199
▁በሳምንት	-11200
▁የተላለፈ	-11201
▁አሰራሮችን	-11202
ቦታው	-11203
ከፍት	-11204
ውነት	-11205
▁ማእድ	-11206
▁ስንት	-11207
▁ተቀና	-11208
▁የጂኦ	-11209
▁ይወሰ	-11210
▁ኤርፖር	-11211
▁ዘግይቶ	-11212
▁ጄነራል	-11213
▁ለስድስት	-11214
▁በመሳተፍ	-11215
▁ግብጠባቂ	-11216
ህገ	-11217
በጥ	-11218
ክሪ	-11219
ምነው	-11220
ባባስ	-11221
▁መመረ	-11222
▁መደም	-11223
▁ነፍስ	-11224
▁በቡድኑ	-11225
▁ወልዲያ	-11226
▁ሁለቱንም	-11227
▁ስለሚያስ	-11228
▁የሚከተሉትን	-11229
ብሄረ	-11230
ድራል	-11231
ራሚዎች	-11232
▁እየሞ	-11233
▁የድል	-11234
▁ቀድመው	-11235
▁አስፈሪ	-11236
▁ለመሙላት	-11237
▁የኤጀንሲው	-11238
መጣም	-11239
ሩትን	-11240
ጋጠመው	-11241
▁መዝሙ	-11242
▁አክራ	-11243
▁ሊሰጠው	-11244
▁ቅርሶች	-11245
▁የግንባ	-11246
▁መርከቦች	-11247
▁ዝግጅቱን	-11248
▁የማይችል	-11249
▁የነፃነት	-11250
▁ሙከራዎችን	-11251
▁በተያያዘም	-11252
▁እንዳደረገ	-11253
▁በቤኒሻንጉል	-11254
64	-11255
ow	-11256
ቆና	-11257
▁አልታ	-11258
▁የክር	-11259
ከፈላቸው	-11260
▁ሌላውን	-11261
▁ማሳወቅ	-11262
▁ትንሳኤ	-11263
▁ሎጂስቲክስ	-11264
ዝያ	-11265
ሻለቃ	-11266
▁ሞተ	-11267
ሰቀሰው	-11268
ሰበሰብ	-11269
ከፈተው	-11270
▁ሲኖር	-11271
▁ቀይሮ	-11272
▁ኢያሱ	-11273
▁ጊዜና	-11274
ሰቦቻቸው	-11275
▁ለማልማት	-11276
▁በማድረስ	-11277
▁ሁለተኛውን	-11278
▁እንደሚወስድ	-11279
▁እንደነበርና	-11280
ew	-11281
ip	-11282
ሏለም	-11283
▁ሰራተ	-11284
▁አስመራ	-11285
▁የፀሀይ	-11286
▁እንዲቆይ	-11287
▁ግብአቶችን	-11288
▁የሚያገለግል	-11289
▁የተሽከርካሪ	-11290
▁ገብረሚካኤል	-11291
▁ኢንተርፕራይዞች	-11292
ዲያን	-11293
▁የቶ	-11294
▁አፋር	-11295
ፌደሬሽን	-11296
▁መዝናኛ	-11297
▁እንግል	-11298
▁ክህደት	-11299
▁የፕሬስ	-11300
▁ያለውና	-11301
▁መዝገቦች	-11302
▁ከመጀመሩ	-11303
▁ዳያስፖራ	-11304
▁እንዲሰፍን	-11305
▁ኢንቨስተሮች	-11306
ም፥	-11307
ብዎት	-11308
ችሎት	-11309
ክራሉ	-11310
▁ሰሎ	-11311
መጣቸው	-11312
ወትሮው	-11313
▁ለቀጣ	-11314
▁ቢቂላ	-11315
▁የሊዝ	-11316
▁ሀይልን	-11317
▁የተለዩ	-11318
▁የተመራ	-11319
▁የጋምቤላ	-11320
ሲም	-11321
ከሳ	-11322
▁ተክ	-11323
▁ውር	-11324
▁ያጣ	-11325
▁መስኮ	-11326
▁እንዴ	-11327
▁ወቀሳ	-11328
ካሄደውን	-11329
ፕቴምበር	-11330
▁ማዘጋጀ	-11331
▁አማርኛ	-11332
▁ድልድይ	-11333
▁ለመቆየት	-11334
▁በመጋቢት	-11335
▁የሚያወጣ	-11336
▁ሰብሳቢነት	-11337
▁አለመቻሉን	-11338
▁ማስተላለፊያ	-11339
ሰም	-11340
ወጠ	-11341
ፌኮ	-11342
ደጋው	-11343
ፁሀን	-11344
▁የሟ	-11345
▁ለቤት	-11346
▁ማከማ	-11347
▁ወላጆ	-11348
▁ጭፍጨ	-11349
ጣሚያቸው	-11350
▁መኩሪያ	-11351
▁በበለጠ	-11352
▁አማካዩ	-11353
▁ከመድረ	-11354
▁የተቋሙ	-11355
▁ያውቃሉ	-11356
▁ያውቃል	-11357
▁ለመለወጥ	-11358
▁በድርድር	-11359
▁የመሰረት	-11360
▁ገቢዎችና	-11361
▁ፋውንዴሽን	-11362
:-	-11363
ባኖስ	-11364
ቸዉን	-11365
ሌቲክስ	-11366
▁ማቀነ	-11367
▁በሰነ	-11368
▁የአብ	-11369
▁2005	-11370
▁በመካከላቸው	-11371
76	-11372
ርክና	-11373
ቃለል	-11374
ካከር	-11375
ገደዱ	-11376
▁ደጀ	-11377
ረዳቸው	-11378
▁የአሳ	-11379
▁አብረን	-11380
▁የተጣለ	-11381
▁እየተፈፀመ	-11382
▁መጀመራቸውን	-11383
ራመድ	-11384
ፋለች	-11385
▁ብስ	-11386
▁ኦር	-11387
▁ከን	-11388
ቂያዎች	-11389
ቻችሁን	-11390
▁ነጠላ	-11391
▁በክብር	-11392
▁ጤንነት	-11393
▁በእናንተ	-11394
▁ቢያደርጉ	-11395
▁የሰማያዊ	-11396
▁ሲንቀሳቀስ	-11397
▁ስለመሆኑም	-11398
ፈላለ	-11399
ፎይታ	-11400
▁ሰፍ	-11401
▁ክሬ	-11402
▁ይጥ	-11403
ያዛቸው	-11404
▁ሯንዳ	-11405
▁የእነ	-11406
▁መቆየቱ	-11407
▁በመተው	-11408
▁እስከመ	-11409
▁እቅዱን	-11410
▁የጎዳና	-11411
fanabc	-11412
▁በመቶዎች	-11413
▁መልእክተኛ	-11414
ልዩ	-11415
፣በ	-11416
ሱበት	-11417
ቀረው	-11418
ፈርስ	-11419
▁መሰዊ	-11420
▁ጁንታ	-11421
▁ሰልፎች	-11422
▁የአቋም	-11423
▁ህይወቱን	-11424
▁በቀጣዮቹ	-11425
▁የፈጠረው	-11426
▁እንዲጠቀሙ	-11427
▁ስልጣናቸውን	-11428
ከሙ	-11429
▁ለክ	-11430
▁ማሰባ	-11431
▁ከነገ	-11432
▁የዱር	-11433
▁ከጨዋታ	-11434
▁ወንዞች	-11435
▁የተሾሙት	-11436
ቢው	-11437
ኤች	-11438
ሰናል	-11439
ቃወሙ	-11440
ዳችሁ	-11441
▁ኤች	-11442
▁ጉም	-11443
ራችንን	-11444
▁መቻል	-11445
▁ሰርተ	-11446
▁ለማዳን	-11447
▁መገርሳ	-11448
▁በአመራ	-11449
▁ብረትና	-11450
▁አለበት፤	-11451
ብተው	-11452
ጋለጥ	-11453
▁ነቅ	-11454
▁ዲና	-11455
▁ስቃይ	-11456
ብራይስጥ	-11457
▁ንግስት	-11458
▁ከባንክ	-11459
▁ድህነት	-11460
▁ምንተስኖት	-11461
▁በነበሩበት	-11462
ዊን	-11463
ቁመው	-11464
▁ፊደ	-11465
ጠብቀው	-11466
▁በምና	-11467
▁አስታ	-11468
▁ይገለ	-11469
▁በማየት	-11470
▁አምልኮ	-11471
▁የሚነሳ	-11472
▁ጣቢያው	-11473
▁የሚጠይቁ	-11474
ደናቀ	-11475
▁ሽያ	-11476
▁ለእሱ	-11477
▁ኢራን	-11478
▁ቦታውን	-11479
▁ንፅህና	-11480
▁አልቀረ	-11481
▁አቀረቡ	-11482
▁የተላከ	-11483
▁የጥላቻ	-11484
▁አክብሮት	-11485
▁እንዲፈፅ	-11486
▁የመክፈቻ	-11487
▁ያወጣውን	-11488
79	-11489
ረታው	-11490
ደነገ	-11491
▁የኒ	-11492
▁የማት	-11493
▁ገጭቶ	-11494
▁ጨርቃ	-11495
▁በመረጃ	-11496
▁ቢኖሩም	-11497
▁በማምጣት	-11498
▁የተሰራው	-11499
▁ይችላል፤	-11500
▁የአረንጓዴ	-11501
▁ለመከላከልና	-11502
▁ተመራማሪዎች	-11503
ምባሆ	-11504
ናትና	-11505
▁52	-11506
▁እባ	-11507
ሰራበት	-11508
▁መረራ	-11509
▁ንድፍ	-11510
▁ደሞዝ	-11511
▁ከሰሜን	-11512
▁ክህሎት	-11513
▁የይሆዋ	-11514
▁ጥሪውን	-11515
▁ሲያቀርቡ	-11516
▁እየተባባ	-11517
▁የዲጂታል	-11518
▁እንዲቋቋም	-11519
▁ከተመሰረተ	-11520
▁መገደላቸውን	-11521
▁በማስመዝገብ	-11522
ሳትና	-11523
ጉዳዩ	-11524
ቀመጡት	-11525
ኖበታል	-11526
▁ለህዝ	-11527
▁መጠና	-11528
▁ህዝቡም	-11529
▁መምረጥ	-11530
▁በጅምላ	-11531
▁ቤተሰቡ	-11532
▁አክሊሉ	-11533
▁ከክልል	-11534
▁ያሳየው	-11535
▁የትኛውም	-11536
▁የተጫዋቾች	-11537
▁ይደነግጋል	-11538
▁ያስተናገደው	-11539
ፈሻ	-11540
▁ሲቲ	-11541
▁ከሱ	-11542
▁በማዳ	-11543
▁ይመራ	-11544
▁ድጋፉ	-11545
▁ሀውልት	-11546
▁ተዋናይ	-11547
▁ለትምህርት	-11548
▁መርሀግብር	-11549
▁አስተናግዶ	-11550
▁ለማስተዋወቅ	-11551
▁ተወዳዳሪዎች	-11552
ብኛል	-11553
▁በጌ	-11554
▁አዙ	-11555
▁ፖር	-11556
▁ከልብ	-11557
▁ተከተል	-11558
▁ይሄዳል	-11559
▁ማጠናቀቅ	-11560
▁በእውነቱ	-11561
▁ቻምፒዮና	-11562
▁መሆናቸውን፣	-11563
ዛዥ	-11564
ድርግ	-11565
▁በቪ	-11566
▁ገረ	-11567
ሚኒየም	-11568
ባችንን	-11569
ገናዘበ	-11570
ፈጠሩት	-11571
▁ልጁን	-11572
▁ዘለቀ	-11573
▁የትም	-11574
▁ጅምር	-11575
▁መቆራረጥ	-11576
▁አሰልጣኝነት	-11577
▁እያንዳንዱን	-11578
▁ኢንተርፕራይዝ	-11579
ጤን	-11580
ያዝነው	-11581
▁መውጫ	-11582
▁አስጨ	-11583
▁ይመር	-11584
▁ፅፏል	-11585
መዘገበው	-11586
ያስፖራው	-11587
▁ባይሆን	-11588
▁አስቆጣ	-11589
▁እንዲወ	-11590
▁ለውይይት	-11591
▁ተንታኞች	-11592
▁ኢኮኖሚያዊና	-11593
ታለሁ	-11594
ፈቀዱ	-11595
ስርአት	-11596
▁ቃጠሎ	-11597
▁በመቅ	-11598
▁በውል	-11599
▁የቅን	-11600
▁የእለቱ	-11601
▁ባለሙያዎቹ	-11602
."	-11603
ለሽ	-11604
ጠራቀ	-11605
▁ሲመጡ	-11606
▁በሚሊ	-11607
▁ከጤና	-11608
▁የሌለ	-11609
▁የቀረው	-11610
▁በድንበር	-11611
▁ቡድኖችን	-11612
▁የሚያነሳ	-11613
▁እንደሚለው	-11614
ስቦ	-11615
ዘዙ	-11616
▁፥	-11617
መርቱ	-11618
ረዳን	-11619
▁ብና	-11620
▁ላሉት	-11621
▁ጠርዝ	-11622
▁ማጣርያ	-11623
▁በሚኖሩ	-11624
▁አንበጣ	-11625
▁የችግኝ	-11626
▁በመግዛት	-11627
▁እንዲህም	-11628
▁ስብሰባውን	-11629
▁የተመረጡት	-11630
ኸው	-11631
ያሪ	-11632
▁ሼክ	-11633
2002	-11634
▁በደረ	-11635
▁የዘረ	-11636
▁ጠይቆ	-11637
▁ሱራፌል	-11638
▁በሳኡዲ	-11639
▁በአላት	-11640
▁አሸባሪ	-11641
▁የታጠቁ	-11642
▁ገበየሁ	-11643
▁ለመስማት	-11644
▁አባጅፋር	-11645
▁እየፈጠረ	-11646
▁ወደፊትም	-11647
▁አሽከርካሪዎች	-11648
ሜናዊ	-11649
ብላጫ	-11650
ገጣፎ	-11651
▁56	-11652
▁ሳሊ	-11653
በርከት	-11654
▁ማሰራ	-11655
▁ምስጢ	-11656
▁አከራ	-11657
▁ጠያቂ	-11658
▁በውሳኔ	-11659
▁ከፀጥታ	-11660
▁የሚተገ	-11661
▁የጨርቃ	-11662
▁ቅሬታዎች	-11663
▁ታዛቢዎች	-11664
▁ተደራሽነት	-11665
▁የላቦራቶሪ	-11666
ሾሙ	-11667
ሬሽኖች	-11668
▁ርስት	-11669
▁በአቻ	-11670
▁ከኋላ	-11671
▁የገና	-11672
▁የሚሄዱ	-11673
▁በመጨረሻው	-11674
በሮች	-11675
ከንድ	-11676
ኩትን	-11677
ገገሙ	-11678
▁አጋዥ	-11679
▁በመፍታት	-11680
▁ገበያውን	-11681
ሳም	-11682
▁ሽፋ	-11683
▁ጥሎ	-11684
▁ተዘዋ	-11685
▁የሚለ	-11686
▁የሰበ	-11687
▁የአካ	-11688
▁ማስገባ	-11689
▁በነዳጅ	-11690
▁አስመስ	-11691
▁አስከት	-11692
▁የፈለጉ	-11693
▁ግብነት	-11694
▁ሪፖርት፣	-11695
▁ክትትልና	-11696
▁የተበላሸ	-11697
▁ለማስፋፋት	-11698
▁በመስከረም	-11699
▁የአትክልት	-11700
▁ስትራቴጂካዊ	-11701
ጀምሮ	-11702
▁ሳር	-11703
▁በፌ	-11704
▁ባት	-11705
▁መደበ	-11706
▁የመሸ	-11707
▁የአክ	-11708
▁መራጮች	-11709
▁ተራሮች	-11710
▁ናቸው፣	-11711
▁የሳኡዲ	-11712
▁ፈጥረው	-11713
▁የተደገፈ	-11714
ገቱ	-11715
ገጣጠ	-11716
ስለዚህ	-11717
▁ማራዘ	-11718
▁ኤርት	-11719
▁በአስተ	-11720
▁ትናንሽ	-11721
▁የአንበጣ	-11722
▁እየተዘጋጀ	-11723
▁አስፈፃሚዎች	-11724
ce	-11725
ኸር	-11726
ኖረን	-11727
▁ሆይ፥	-11728
▁ማይል	-11729
▁በወረ	-11730
▁አይቀ	-11731
▁ዮርክ	-11732
▁አስፋው	-11733
▁የስንዴ	-11734
▁ሊጠናቀቅ	-11735
▁መዋቅራዊ	-11736
▁በመመለስ	-11737
▁አልባሳት	-11738
▁ከተማዋን	-11739
▁የእርስዎ	-11740
▁የተጠናቀቀ	-11741
▁ኢትዮጵያውያንን	-11742
▁ለየ	-11743
▁ዳዊ	-11744
▁ድህ	-11745
▁ምዘና	-11746
▁ተወያ	-11747
▁ክህሎ	-11748
▁ውድቀት	-11749
▁የተወለ	-11750
▁ድክመት	-11751
▁ግድግዳ	-11752
▁በጀርመን	-11753
▁ተከትለው	-11754
▁እንደማት	-11755
▁የተደራጁ	-11756
▁የወሰደው	-11757
▁መግለፃቸው	-11758
▁አሳይተዋል	-11759
▁የሚያቀርብ	-11760
▁እንደማይገባ	-11761
ቀቀ	-11762
ኤታ	-11763
ያኔ	-11764
cor	-11765
▁95	-11766
▁ዊል	-11767
▁700	-11768
▁መነቃ	-11769
▁መከል	-11770
▁መዘጋ	-11771
▁እአአ	-11772
▁የለሽ	-11773
▁2000	-11774
▁የአፈር	-11775
▁በሚሊዮን	-11776
▁ነዋሪዎችን	-11777
▁አንድነትን	-11778
▁ለማስተላለፍ	-11779
▁የማስተዳደር	-11780
መሰል	-11781
ዋኢማ	-11782
▁ፅጌ	-11783
ራቸዋል	-11784
▁The	-11785
▁የቫይ	-11786
▁መልሰው	-11787
▁በህንድ	-11788
▁ችላለች	-11789
▁ወደዚያ	-11790
▁ተፈፅሟል	-11791
▁ታማኝነት	-11792
ሬዷ	-11793
ብ፣	-11794
ግቶ	-11795
150	-11796
▁አላስ	-11797
▁መብትን	-11798
▁የአረቦን	-11799
▁ገፃችንን	-11800
▁የባለቤትነት	-11801
")	-11802
ማ፣	-11803
ዋም	-11804
ተሚያ	-11805
ቸገር	-11806
ንግል	-11807
▁መያዣ	-11808
▁በዘር	-11809
▁አሟል	-11810
▁የቀኝ	-11811
▁የእስ	-11812
▁በአልን	-11813
▁የማያስ	-11814
▁ግድብን	-11815
▁ሻምፒዮና	-11816
▁የሚመለከቱ	-11817
▁በሚያደርገው	-11818
▁በጊዜያዊነት	-11819
▁እንደተጠበቀ	-11820
ህነግ	-11821
ዘርጋ	-11822
ጨመሩ	-11823
▁ለሞት	-11824
▁እምቅ	-11825
▁ቢሮዎች	-11826
▁ብርሀነ	-11827
▁እየመራ	-11828
▁የሚሄድ	-11829
▁የተማሪ	-11830
▁በጦርነቱ	-11831
▁የስብሰባ	-11832
▁በተቀመጠው	-11833
▁እንሰራለን	-11834
▁የመቆጣጠር	-11835
▁ይጠናቀቃል	-11836
BC	-11837
ና፤	-11838
ይዘው	-11839
▁ቢን	-11840
▁ፓስ	-11841
▁ሁሉ፣	-11842
▁ለባን	-11843
▁በመለ	-11844
▁መሞከር	-11845
▁እርከን	-11846
▁የይሁዳ	-11847
▁ቫይረስን	-11848
▁አንስተው	-11849
▁ድርጅቶቹ	-11850
▁ፕሮግራሙ	-11851
▁እንዳልቻለ	-11852
▁ከተጠናቀቀ	-11853
ኪን	-11854
ዲሪ	-11855
ቅርቦት	-11856
▁ሀያል	-11857
▁ሰብል	-11858
▁ስሞች	-11859
▁ከጥር	-11860
▁የልም	-11861
▁እየተቀ	-11862
▁ከረጅም	-11863
▁በወላይታ	-11864
▁ተዋናዮች	-11865
▁የተፈጠሩ	-11866
▁የግድቡን	-11867
▁ይገባቸዋል	-11868
▁በማስተባበር	-11869
ጨረስ	-11870
▁ረፋ	-11871
ደበኛው	-11872
▁አወል	-11873
▁የሆቴ	-11874
▁ከሀላፊ	-11875
▁አብዮታዊ	-11876
▁የሶስትዮሽ	-11877
▁መፈፀማቸውን	-11878
ደሰቱ	-11879
▁St	-11880
▁ፆታ	-11881
ቆጣጠሩ	-11882
▁መጨና	-11883
▁ምስሎች	-11884
▁ፀሀፊው	-11885
▁በመሰረተ	-11886
▁ባዘጋጀው	-11887
ኝ፣	-11888
ዶቹን	-11889
ጋዴር	-11890
▁ሲን	-11891
ስተካከ	-11892
ገንዘቡ	-11893
▁አዋጭ	-11894
ስትራቴጂ	-11895
▁ምርጫን	-11896
▁ሲስተም	-11897
▁አድርጉ	-11898
▁ልጆቻቸው	-11899
▁ስህተቶች	-11900
▁በመምታት	-11901
▁በማቋቋም	-11902
▁በተጨባጭ	-11903
▁በዝቅተኛ	-11904
▁እድገትና	-11905
▁መመርያዎች	-11906
▁መስተዳደር	-11907
ለፋ	-11908
ዳዊ	-11909
ገናል	-11910
▁ሀምሳ	-11911
▁ይከፍ	-11912
ረጋገጠው	-11913
▁በአንተ	-11914
▁በግሩም	-11915
▁በጥራት	-11916
▁ለተወሰነ	-11917
▁በሚጠራው	-11918
▁የሚገነቡ	-11919
▁ለአካባቢው	-11920
▁በማእከላዊ	-11921
▁እንዳልቻሉ	-11922
ጦሽ	-11923
ሰበት	-11924
ወልድ	-11925
ዛወር	-11926
ዝቃዛ	-11927
▁51	-11928
ሏቸዋል	-11929
▁ሲወጡ	-11930
▁ቁጥሩ	-11931
▁አዋቂ	-11932
▁የስጋ	-11933
▁ጠየቀ	-11934
▁አገላለ	-11935
▁ከምንም	-11936
▁የወለድ	-11937
በኢትዮጵያ	-11938
▁በአንቀፅ	-11939
▁የሚከፈል	-11940
▁የማይቻል	-11941
▁ሀላፊዎች፣	-11942
▁እንደማያስ	-11943
▁ከመሆናቸው	-11944
▁ከአጠቃላይ	-11945
ሪቲ	-11946
ሶር	-11947
▁=	-11948
ሱትን	-11949
መዘግብ	-11950
ሳተፉት	-11951
▁መሀን	-11952
▁ስላልተ	-11953
▁የተረከ	-11954
▁የግጭት	-11955
▁በከተሞች	-11956
▁ከመጋቢት	-11957
▁ያስቆጠረ	-11958
▁በመመልከት	-11959
▁እየተገነባ	-11960
▁ከባለድርሻ	-11961
ጂብ	-11962
ኒካል	-11963
የንስ	-11964
▁ላቀ	-11965
ጫወቱት	-11966
▁አቤቤ	-11967
▁መቆየት	-11968
▁ተቀናቃ	-11969
▁የትኩረት	-11970
▁የሚቀርበው	-11971
ሽቱ	-11972
ደሩት	-11973
ፎርድ	-11974
ኖርዌይ	-11975
ፈናቀሉ	-11976
▁ሆኖ፣	-11977
▁ፀባይ	-11978
▁አብደላ	-11979
▁የፈረን	-11980
▁እንዲመራ	-11981
▁ሚኒስትሩን	-11982
▁የሚያስገድ	-11983
▁ለህብረተሰቡ	-11984
ስቲቫ	-11985
▁ማል	-11986
▁195	-11987
▁ሊወጣ	-11988
▁ያክል	-11989
▁በማደግ	-11990
▁በነሀሴ	-11991
▁ተቀዳሚ	-11992
▁አገናኝ	-11993
▁ከመሬት	-11994
▁ያስገባ	-11995
▁ይዘዋል	-11996
▁መዛሙርቱ	-11997
▁በቀዳሚነት	-11998
▁እንዳይገቡ	-11999
▁ጊዮርጊሶች	-12000
▁እንዳስታወቁት	-12001
ለትና	-12002
መዳን	-12003
ቋርጥ	-12004
በላሹ	-12005
ፈተሽ	-12006
ማኝነት	-12007
▁ማዋል	-12008
▁በለጠ	-12009
▁ብዝሀ	-12010
▁ናትና	-12011
▁የሴት	-12012
▁በመሆኗ	-12013
▁ወታደር	-12014
▁ማስቀጠል	-12015
▁አዘጋጅቶ	-12016
▁ክፍያዎች	-12017
▁የፍጥነት	-12018
▁ግንኙነቶች	-12019
▁መቆየታቸውን	-12020
▁ባለሀብቶችን	-12021
ቃቅ	-12022
ዛር	-12023
ላዎች	-12024
ጉባኤ	-12025
ሰበሰበ	-12026
ስተዋው	-12027
▁ሲነሳ	-12028
▁ትንተ	-12029
▁በፃፈው	-12030
▁አግዳሚ	-12031
▁የቤቶች	-12032
▁ደንቦች	-12033
▁እንዳይኖር	-12034
የቀ	-12035
▁V	-12036
▁ጮ	-12037
ርቻሮ	-12038
የዜና	-12039
ይህን	-12040
ጥበት	-12041
ፉበት	-12042
▁4.	-12043
▁መጠነ	-12044
▁ኦማር	-12045
▁ሁኔታና	-12046
▁ሁኔታ፣	-12047
▁ሞሀመድ	-12048
▁በደብረ	-12049
▁ጥሰቶች	-12050
▁ሌሎችንም	-12051
ውር	-12052
ችሉት	-12053
ኖቹን	-12054
ዘሩት	-12055
▁ተሹ	-12056
▁በቡና	-12057
▁አላህ	-12058
▁ጠንክ	-12059
▁አፍሪካዊ	-12060
▁ዘመናቸው	-12061
▁ምክንያትም	-12062
ጋባ	-12063
ፁእ	-12064
ወስን	-12065
ዳለች	-12066
▁ሊተ	-12067
▁ቁጭ	-12068
▁ካሌ	-12069
▁ጃኮ	-12070
▁ለአም	-12071
▁ግብይ	-12072
ጠቃሚዎች	-12073
▁መግለፁ	-12074
▁ይገባሉ	-12075
▁በትክክለ	-12076
▁አለመኖሩ	-12077
▁ጠባቂዎች	-12078
▁እየተስፋፋ	-12079
▁ወረርሽኙን	-12080
▁የፌዴሬሽኑ	-12081
▁የነበራቸውን	-12082
ጥሬ	-12083
ber	-12084
ቅረቡ	-12085
ንም፤	-12086
▁በቻ	-12087
▁የጆ	-12088
መረምር	-12089
▁በቁር	-12090
▁አመጣ	-12091
▁አባላ	-12092
▁በእርሻ	-12093
▁እስከተ	-12094
▁ለመልቀቅ	-12095
▁በበሽታው	-12096
▁በግለሰብ	-12097
▁ተግዳሮት	-12098
▁ይወስዳል	-12099
▁ለመወያየት	-12100
▁የፕሬዚዳንት	-12101
ጮቹ	-12102
ምድና	-12103
ወቅቱ	-12104
▁ሞላ	-12105
▁ባሰ	-12106
ጆቻቸው	-12107
▁በቃል	-12108
▁አፍቃ	-12109
▁ከሰኔ	-12110
▁የተሞ	-12111
/2011	-12112
▁መቀዛቀ	-12113
▁በማለፍ	-12114
▁ተናጋሪ	-12115
▁አከናው	-12116
▁ከባንኩ	-12117
▁ይደርሳል	-12118
ለቀው	-12119
▁ለሳ	-12120
▁ምሰ	-12121
▁በሪ	-12122
▁በደም	-12123
▁ታሪኩ	-12124
▁እክል	-12125
▁በሶስቱ	-12126
▁ከምርጫ	-12127
▁ራሳችንን	-12128
▁ግልፅነት	-12129
▁ኮሙኒኬሽን	-12130
▁የተደረገበት	-12131
ጢፋ	-12132
ዋለን	-12133
▁ቀበ	-12134
▁ስንታ	-12135
▁የሚጣ	-12136
▁ጋብቻ	-12137
▁ፍቅሩ	-12138
▁ኬሚካል	-12139
▁በጦርነት	-12140
▁እንዲቀንስ	-12141
ሰለፍ	-12142
▁አጨ	-12143
▁ለራሱ	-12144
▁ሊፈጠር	-12145
▁መከናወ	-12146
▁በታላቅ	-12147
▁ተቃራኒ	-12148
▁ጥቃቱን	-12149
▁ማለታቸው	-12150
▁እየደረሰ	-12151
▁የሁለቱም	-12152
▁በማሰባሰብ	-12153
▁የሚገባቸው	-12154
ዴን	-12155
በጀት	-12156
ኢአድ	-12157
ፏቸው	-12158
▁ገፀ	-12159
ረዳው፣	-12160
ተርማል	-12161
▁አባቱ	-12162
▁እንጅ	-12163
▁ጠባብ	-12164
▁እስካል	-12165
▁ጠረጴዛ	-12166
▁ጠንከር	-12167
▁ተናግራለች	-12168
▁አሜሪካውያን	-12169
▁አገልግሎት፣	-12170
▁የኮንትሮባንድ	-12171
ሶ፣	-12172
ከሪም	-12173
ጆችን	-12174
▁88	-12175
▁የጊ	-12176
▁ፕሪ	-12177
ሟቸውን	-12178
ባውያን	-12179
እናንተ	-12180
▁መስሎ	-12181
▁አመለ	-12182
▁ሁከትና	-12183
▁ምስክሮ	-12184
▁በትንሹ	-12185
▁የተሰጡ	-12186
▁ጭፍጨፋ	-12187
▁ሰንጠረዥ	-12188
▁በእምነት	-12189
▁ትሬዲንግ	-12190
▁ከገንዘብ	-12191
▁እስካሁንም	-12192
▁እንመልከት	-12193
95	-12194
ናፍ	-12195
▁መወ	-12196
▁ቀዶ	-12197
▁ረቂቁ	-12198
▁በዋጋ	-12199
▁ከለላ	-12200
ፕሮፌሰር	-12201
▁በፊት፣	-12202
▁አሏቸው	-12203
▁ያመጣል	-12204
▁ይችላል፣	-12205
ዶን	-12206
ቶሊክ	-12207
▁68	-12208
▁ሞገ	-12209
cast	-12210
ላችሁም	-12211
ቅያኖስ	-12212
▁አደም	-12213
▁በመጠቀ	-12214
▁ከማድረ	-12215
▁የሚከለ	-12216
▁የእቅድ	-12217
▁ያለፉት	-12218
▁ለሚገኘው	-12219
▁ከከፍተኛ	-12220
▁የቡድኑን	-12221
▁የክረምት	-12222
▁እንዳሉት፣	-12223
▁እንደተደረገ	-12224
ሊኮ	-12225
ሸፍ	-12226
ያዎቹ	-12227
ሪታኒያ	-12228
▁እትም	-12229
▁ሳይንቲ	-12230
▁በጥቅሉ	-12231
▁የጥበቃ	-12232
▁ድጋፎች	-12233
▁አወቃቀር	-12234
▁በተዘዋዋሪ	-12235
▁እንደሚኖሩ	-12236
ካኔ	-12237
ራዎች	-12238
▁(1	-12239
▁በገባ	-12240
▁ካለመ	-12241
▁ወርሀዊ	-12242
▁አለመቻሉ	-12243
▁የሚካሄዱ	-12244
ርጂ	-12245
ዳኑ	-12246
ንያን	-12247
ኳታር	-12248
▁ተሽ	-12249
▁እማ	-12250
▁ከቡ	-12251
▁ደጃ	-12252
ሸነፈው	-12253
ጠናቅቅ	-12254
▁መሆና	-12255
▁መቼም	-12256
▁በእጁ	-12257
▁ቀልጣፋ	-12258
▁ብሄሮች	-12259
▁ተጀምሮ	-12260
▁የተጣራ	-12261
▁እንደሚተ	-12262
▁ይገባል፤	-12263
▁አጠናክረው	-12264
▁ከየትኛውም	-12265
ጋኒ	-12266
ደንቅ	-12267
▁ሳተ	-12268
▁መሻሻ	-12269
▁መጣጥ	-12270
▁አነጋ	-12271
▁ጉግሳ	-12272
▁በጉብኝ	-12273
▁ተከሳሹ	-12274
▁የሆቴል	-12275
▁የረዥም	-12276
▁የጂቡቲ	-12277
▁የጥገና	-12278
▁በሚደረጉ	-12279
▁በማሻሻል	-12280
▁ክፍተቶችን	-12281
▁አስተዳደርን	-12282
73	-12283
▁በከ	-12284
▁የሬ	-12285
▁ጊኒ	-12286
▁(19	-12287
▁ጉዳቱ	-12288
▁ፋይል	-12289
▁መገመት	-12290
▁በተመሳ	-12291
▁ድቻዎች	-12292
▁ለመምረጥ	-12293
▁ለራሳቸው	-12294
▁አውጥቷል	-12295
▁የተሰጣቸውን	-12296
ሲብ	-12297
ሁሉም	-12298
ኛቸው	-12299
ፈረው	-12300
ንጀለኛ	-12301
ዮሀንስ	-12302
ዶክተር	-12303
▁ርምጃ	-12304
▁እርሱም	-12305
▁እየታዩ	-12306
▁ጉድጓድ	-12307
▁መግባቱን	-12308
▁ሞክረዋል	-12309
▁በክረምቱ	-12310
▁የጎንደር	-12311
▁አድርጋለች	-12312
-4	-12313
ዋሉ	-12314
ቡበት	-12315
ናገኝ	-12316
ገደብ	-12317
▁ንስ	-12318
▁ይነ	-12319
""""	-12320
▁ቀመር	-12321
▁በክል	-12322
▁ባለሞ	-12323
▁ያጠና	-12324
▁ፍቅረ	-12325
▁መነሳት	-12326
▁መፈለግ	-12327
▁እድሳት	-12328
▁ክልል፣	-12329
▁የብረታ	-12330
▁የዛሬው	-12331
▁የሚያግዝ	-12332
▁የፈፀመው	-12333
▁በመተላለፍ	-12334
▁ተደራጅተው	-12335
▁የደረሰበት	-12336
▁የሚያስችለው	-12337
በክ	-12338
ኬድ	-12339
ዎቿ	-12340
ግዝ	-12341
መርጡ	-12342
ጋገብ	-12343
▁ኤሊ	-12344
road	-12345
▁ንዋይ	-12346
▁ከመን	-12347
▁ኬሚካ	-12348
▁ፈፃሚ	-12349
▁መስጠቱ	-12350
▁በሰባት	-12351
▁የጎርፍ	-12352
▁ተጠባባቂ	-12353
▁የመፍጠር	-12354
▁የተገናኙ	-12355
▁በሀይማኖት	-12356
▁የሚኖረውን	-12357
▁መከላከያዎች	-12358
ምቢ	-12359
ዞታ	-12360
ኙነት	-12361
▁ከጣ	-12362
▁ጩኸ	-12363
▁አንቶ	-12364
▁እንባ	-12365
▁ኪዳኔ	-12366
▁ይመረ	-12367
▁በሀምሌ	-12368
▁አምስቱ	-12369
▁ይሰራሉ	-12370
▁ጨዋነት	-12371
▁ሀላፊነቶች	-12372
▁ማጭበርበር	-12373
▁አልተሳካም	-12374
▁እንደሚሰጡ	-12375
▁የተጠየቁት	-12376
▁በትራንስፖርት	-12377
ማና	-12378
ፖሊ	-12379
ገኛል	-12380
▁72	-12381
▁ሽግ	-12382
ሪዎችን	-12383
ዘጋጁት	-12384
▁ፑቲን	-12385
▁ታሪኮች	-12386
▁ለመጠየቅ	-12387
▁በመንግስ	-12388
▁ተንቀሳቅ	-12389
▁የተያዘው	-12390
▁የጣሊያን	-12391
▁ያሏቸውን	-12392
▁እንዲጠናቀቅ	-12393
▁ኮንፌዴሬሽን	-12394
ሄም	-12395
ኮስ	-12396
ሜትር	-12397
ይነር	-12398
▁ሀር	-12399
▁ከጋ	-12400
ፖርታዊ	-12401
▁በውጤ	-12402
▁ተሰባ	-12403
▁ተዳር	-12404
▁የሞቱ	-12405
▁የቋሚ	-12406
▁የቦታ	-12407
▁ያቀፈ	-12408
▁ዱቄት	-12409
ከላካዮች	-12410
▁ተወስዶ	-12411
▁የብቃት	-12412
▁ይከናወ	-12413
▁ያስፈልጋ	-12414
▁እናውቃለን	-12415
▁የሚያከናው	-12416
▁በመግለጫቸው	-12417
ኪዎች	-12418
ፅዮን	-12419
▁ማዶ	-12420
▁ምግባ	-12421
▁እግድ	-12422
▁ለሚያስ	-12423
▁ቆይተው	-12424
▁አስረክ	-12425
▁በማእድን	-12426
▁ያብራሩት	-12427
▁እንዲወስድ	-12428
ist	-12429
▁አፈር	-12430
▁ያሳዩ	-12431
▁ጉድለ	-12432
▁በግጭቱ	-12433
▁እለታት	-12434
▁ከሌሎቹ	-12435
▁ይልቃል	-12436
▁ይጠቀሙ	-12437
▁ጥቃቶችን	-12438
▁የኢትዮጵያውያን	-12439
eb	-12440
ራሪ	-12441
ጎድ	-12442
▁ድሀ	-12443
ካሂደው	-12444
▁በበረ	-12445
▁አልፋ	-12446
▁የቃል	-12447
▁ተገቢው	-12448
▁አቅምን	-12449
▁አዋጆች	-12450
▁ኢንስፔ	-12451
▁ወንድሜ	-12452
▁የመያዝ	-12453
▁በተጓዳኝ	-12454
▁የመግዛት	-12455
▁መከራከሪያ	-12456
▁የተጠቀሱት	-12457
▁የሚደረግበት	-12458
ሞቱ	-12459
ዋለ	-12460
ፉም	-12461
▁ሶከር	-12462
ንሻንጉል	-12463
▁መወሰን	-12464
▁እንግሊ	-12465
▁የጉዳት	-12466
▁በመክፈል	-12467
▁በቅርቡም	-12468
▁የፊታችን	-12469
▁አስቀድመው	-12470
▁እየተሳተፉ	-12471
▁የአፈፃፀም	-12472
ካሪ	-12473
ግራፊ	-12474
▁ታጅ	-12475
ምንታት	-12476
▁ማክሮ	-12477
▁ወተት	-12478
▁የታች	-12479
▁ተከታይ	-12480
▁ይስተዋ	-12481
▁ፍልሚያ	-12482
▁እንዲመሩ	-12483
▁የሚስተዋ	-12484
roadcast	-12485
▁እንደሚያቀርብ	-12486
ቃዊ	-12487
በዙ	-12488
ቆጠቡ	-12489
ቪኦኤ	-12490
▁ህልም	-12491
▁ጅማሮ	-12492
▁ማስመዝ	-12493
▁ከኬንያ	-12494
porate	-12495
▁የሀላፊነት	-12496
roadcasting	-12497
99	-12498
ፌዲሪ	-12499
▁98	-12500
▁ታካ	-12501
▁ከፈ	-12502
▁ገላ	-12503
ብራቶሪ	-12504
ጀምረው	-12505
▁ህብረ	-12506
▁ማሳደ	-12507
እንግሊዝ	-12508
▁መወያየ	-12509
▁ባልንጀ	-12510
▁ክልሉን	-12511
▁ይውላል	-12512
▁ጠብቀው	-12513
▁ስድስተኛ	-12514
▁የማጣራት	-12515
▁በምትገኘው	-12516
▁የሚናገረው	-12517
▁ለማስመዝገብ	-12518
ቃድ	-12519
ስትሮ	-12520
▁ከአስ	-12521
ስተናገደ	-12522
▁ሀብቶች	-12523
▁ባይደን	-12524
▁የጥበብ	-12525
▁ይሁንታ	-12526
▁ገልጧል	-12527
▁ፓውንድ	-12528
▁መነጋገር	-12529
▁ማቅረቡን	-12530
ዛሉ	-12531
ፃዊ	-12532
ላቀቅ	-12533
ላጎት	-12534
መቻቸ	-12535
በናል	-12536
አንተ	-12537
▁ሲወ	-12538
▁ቀኑ	-12539
▁ይለያ	-12540
▁በጥቁር	-12541
▁አድርግ	-12542
▁የእስር	-12543
▁እንቅስቃሴው	-12544
ሰባል	-12545
ኩርት	-12546
ገልጋ	-12547
1990	-12548
▁ህወሀ	-12549
▁ለማሀ	-12550
▁በተጫዋ	-12551
▁አመቻች	-12552
▁እመቤት	-12553
▁አስፍሯል	-12554
▁የሚናገሩ	-12555
▁በሚያስችል	-12556
corporate	-12557
ውዲ	-12558
ጓጎል	-12559
ፀዳጃ	-12560
▁ከቱ	-12561
▁ማዳን	-12562
▁የበዛ	-12563
ኖራቸውም	-12564
▁ማይክሮ	-12565
▁በተቋሙ	-12566
▁በእጥፍ	-12567
▁በዜጎች	-12568
▁ተምሳሌ	-12569
▁አበባ፤	-12570
▁የኖቤል	-12571
▁ደርሰው	-12572
▁በየቦታው	-12573
▁የሚፈፀሙ	-12574
▁በስምምነቱ	-12575
▁የሚፈለገውን	-12576
ኝና	-12577
ቀዱን	-12578
ዋቀር	-12579
▁ዮር	-12580
▁የላይ	-12581
▁የመም	-12582
▁መብራቱ	-12583
▁ያገለገ	-12584
▁አቀማመጥ	-12585
▁አፅድቋል	-12586
▁የሚወስድ	-12587
▁ግጭቶችን	-12588
▁ምርታማነት	-12589
▁ስጋታቸውን	-12590
▁ትችላላችሁ	-12591
▁የሚሰጣቸው	-12592
fanabroadcasting	-12593
ያፊ	-12594
ጣልያን	-12595
▁ነቢያ	-12596
ግራቸውን	-12597
▁ማቅረቡ	-12598
▁በተባሉ	-12599
▁አፈወር	-12600
▁ግብፅና	-12601
▁መያዛቸው	-12602
▁ቫይረሱን	-12603
▁ተከትሎ፣	-12604
▁አካውንት	-12605
▁የፈፀሙት	-12606
▁አሰምተዋል	-12607
▁የኮርፖሬሽኑ	-12608
ማሌ	-12609
ማከለ	-12610
ሪኮች	-12611
ርቆስ	-12612
ሳታፊ	-12613
ህጉሪቱ	-12614
ረጋግጡ	-12615
▁በሮች	-12616
▁ንፋስ	-12617
▁ከጦር	-12618
▁ደማቅ	-12619
▁ለምግብ	-12620
▁አለመስ	-12621
▁የእህል	-12622
▁ግሎባል	-12623
▁ሊኖራቸው	-12624
▁እንዲኖሩ	-12625
▁እየተሰጠ	-12626
▁የሚጠራው	-12627
▁እንዲጨምር	-12628
▁የተከለከለ	-12629
▁የጀመረውን	-12630
▁አይሁዳውያን	-12631
▁እንደዘገበው	-12632
ra	-12633
ንጮ	-12634
ዋ፣	-12635
ሰብኩ	-12636
▁ሰበ	-12637
▁ኢብ	-12638
▁ሱቆች	-12639
▁ሲኖዶ	-12640
▁በአሰ	-12641
▁ሲሞክሩ	-12642
▁ከወንድ	-12643
▁ከጠዋቱ	-12644
▁የወሰዱ	-12645
▁ያደርግ	-12646
▁ዳኛቸው	-12647
▁ግምታዊ	-12648
▁ሪፖርቶች	-12649
▁ተመልሷል	-12650
▁ደህንነቱ	-12651
▁ፍላጎትና	-12652
▁በኢኮኖሚው	-12653
ባህ	-12654
ያሌ	-12655
ሰማራ	-12656
ታለን	-12657
▁ባቢ	-12658
▁ጎብ	-12659
ይተርስ	-12660
▁መሰን	-12661
▁ሬስቶ	-12662
▁ሬዲዮ	-12663
▁የሰላ	-12664
▁መፈፀሙ	-12665
▁ስጋቶች	-12666
▁በጃፓን	-12667
▁የሚቀር	-12668
▁የተጎዱ	-12669
▁በንብረት	-12670
▁አልቀረም	-12671
▁ይጠበቅበታል	-12672
ራረ	-12673
ሰራም	-12674
ኪያስ	-12675
መጣጠነ	-12676
▁ሰፋፊ	-12677
▁አከፋ	-12678
▁የኪነ	-12679
▁በዘለለ	-12680
▁በሚደርስ	-12681
▁በማስረጃ	-12682
▁ከህወሀት	-12683
ቀቱ	-12684
ተኩር	-12685
ሰባሰቡ	-12686
በረከቱ	-12687
▁1.5	-12688
▁አይና	-12689
▁ለማቆም	-12690
▁መገለፁ	-12691
▁ሳይሳካ	-12692
▁በምድብ	-12693
▁በድምፅ	-12694
▁አንባቢ	-12695
▁አንጋፋ	-12696
▁እርካታ	-12697
▁ክፍላተ	-12698
▁ፈርኦን	-12699
▁የማምረቻ	-12700
▁የቻይናው	-12701
▁ያሉበትን	-12702
▁ያልተገባ	-12703
▁አክሲዮኖች	-12704
▁ኤርፖርቶች	-12705
▁የመጀመሪያዎቹ	-12706
ሸር	-12707
መሩን	-12708
ረንስ	-12709
በደር	-12710
▁በጊ	-12711
▁በፀረ	-12712
▁ነገሩ	-12713
▁ጥለው	-12714
▁መምህራ	-12715
▁በይሁዳ	-12716
▁እንዳን	-12717
▁ከቅዱስ	-12718
▁የመታው	-12719
▁ለመሸፈን	-12720
▁ሊቃውንት	-12721
▁በሚባለው	-12722
▁በማድረጉ	-12723
▁አማካዮች	-12724
▁የባህልና	-12725
▁ለቀረበላቸው	-12726
▁የመሳሰሉትን	-12727
▁ያስመዘገበው	-12728
ጎበ	-12729
ሳለሁ	-12730
ነስቲ	-12731
ከሩት	-12732
ገደድ	-12733
▁ዳይ	-12734
▁ለዚሁ	-12735
▁ስሪት	-12736
▁ቃሉን	-12737
▁አራዳ	-12738
▁ገመቹ	-12739
▁ከእርሱ	-12740
▁መገልገያ	-12741
▁አስተዳደር፣	-12742
▁ክርስቲያናት	-12743
ንጅ	-12744
▁አሌ	-12745
▁በረሀ	-12746
▁ዘነበ	-12747
▁ፍኖተ	-12748
▁ቡድንን	-12749
▁ተብራር	-12750
▁ለመዋጋት	-12751
▁ለነበረው	-12752
▁ልዩነቶች	-12753
▁የፍልስጤ	-12754
▁ተፈፃሚነት	-12755
▁ውጤታማነት	-12756
▁የሀገራችን	-12757
▁የተከናወኑ	-12758
▁ጊዜያቸውን	-12759
▁በመንቀሳቀስ	-12760
▁የተደረገላቸው	-12761
▁ኗ	-12762
ካልኝ	-12763
▁ማግ	-12764
▁ከሚል	-12765
▁የትን	-12766
▁ያግኙ	-12767
▁ይቀን	-12768
▁ቀድሞው	-12769
▁በሩሲያ	-12770
▁የአጭር	-12771
▁ጠቁሞ፣	-12772
▁በመረዳት	-12773
▁በተፈፀመ	-12774
▁በፓርቲው	-12775
▁አርበኞች	-12776
▁አሰራርን	-12777
▁ተሰጥቶታል	-12778
▁እንዳብራሩት	-12779
ቀሻ	-12780
ቅርታ	-12781
▁ይሉ	-12782
▁ናችሁ	-12783
▁ይስማ	-12784
▁አድማስ	-12785
▁የዳይሬ	-12786
▁እኩልነት	-12787
▁በሚኒስቴሩ	-12788
▁ትክክለኛው	-12789
▁ስምምነቶችን	-12790
ሯት	-12791
800	-12792
▁64	-12793
▁ጋብ	-12794
▁በሚታ	-12795
▁በስሩ	-12796
▁አሮጌ	-12797
▁አይቶ	-12798
▁2019	-12799
▁ሀገራቱ	-12800
▁መታሰራ	-12801
▁ሰርተው	-12802
አምባሳደር	-12803
▁በመጪዎቹ	-12804
▁ባልደረባ	-12805
▁አፈወርቂ	-12806
▁የከተማዋን	-12807
▁ተጠርጣሪዎችን	-12808
ዋኔ	-12809
ጠኑ	-12810
▁እኚ	-12811
▁ከሆ	-12812
▁ያካ	-12813
መስገን	-12814
ቀጥልም	-12815
አቸውን	-12816
▁ተቀይ	-12817
▁የተዘ	-12818
▁የጥሬ	-12819
▁በላቸው	-12820
▁በፈጣን	-12821
▁ባወጡት	-12822
▁ችግኞች	-12823
▁እስጢፋ	-12824
▁ጥያቄም	-12825
▁ህይወትን	-12826
▁ተማሪዎቹ	-12827
▁አራተኛው	-12828
▁አቋርጠው	-12829
▁አጠራጣሪ	-12830
▁ኩባንያ፣	-12831
▁የሚጠቀሱ	-12832
▁ዳይሬክተ	-12833
▁ለመመልከት	-12834
ዛብ	-12835
ንባብ	-12836
ብርሀም	-12837
ገኝነት	-12838
▁ሰውን	-12839
▁ስምን	-12840
▁ኤርም	-12841
▁ክፍሌ	-12842
▁ለዘርፉ	-12843
▁በረጅሙ	-12844
▁ተሰላፊ	-12845
▁ችግርን	-12846
▁ማስጨበጫ	-12847
▁ማጠናቀቁ	-12848
▁የጉባኤው	-12849
▁ድርጅታዊ	-12850
▁የይገባኛል	-12851
ቁና	-12852
ነባ	-12853
ሰጥም	-12854
ችሎቱ	-12855
▁ሙፈ	-12856
▁ኖት	-12857
ረዱት፣	-12858
ነቃቸው	-12859
ካርያስ	-12860
▁ሲሄዱ	-12861
▁ሺዎች	-12862
▁ቀረበ	-12863
ክርስቲያ	-12864
▁ሆናለች	-12865
▁ሙሏለም	-12866
▁በመክፈት	-12867
▁በምክንያ	-12868
▁ኤርምያስ	-12869
▁ኤጀንሲዎች	-12870
▁እንዲያድግ	-12871
▁የቫይረሱን	-12872
ዝሩ	-12873
መልሱ	-12874
ዘዘው	-12875
▁ልቦ	-12876
▁ውሀና	-12877
▁ይሁኑ	-12878
▁ገንዳ	-12879
▁ጭንቅ	-12880
▁ፀጉር	-12881
▁ማከናወ	-12882
▁በመኪና	-12883
▁ተጭነው	-12884
▁የትዳር	-12885
▁አለማቀፍ	-12886
▁አቅርቦትና	-12887
▁እንዲወስዱ	-12888
▁ጊዮርጊስን	-12889
▁እየተንቀሳቀሱ	-12890
ሳውያን	-12891
ስፈፃሚ	-12892
▁ቃሲም	-12893
▁ባራክ	-12894
▁ቦጋለ	-12895
▁የታተ	-12896
▁ለአደጋ	-12897
▁ሲገልፅ	-12898
▁በማመን	-12899
▁አለው፦	-12900
▁አፍንጫ	-12901
▁ከዘርፉ	-12902
▁ተመልክተ	-12903
▁ተጫዋቾቹ	-12904
▁ክልሎችና	-12905
▁ገልፃለች	-12906
▁መድሀኒቶች	-12907
▁ኢንተርኔት	-12908
▁በተመሳሳይም	-12909
ምሳ	-12910
ጎላ	-12911
ቆይም	-12912
ሲፕሊን	-12913
ግባባት	-12914
▁መባሉ	-12915
▁ምርቱ	-12916
▁ራሴን	-12917
▁ፍላጐ	-12918
▁እንጀራ	-12919
▁አንፃራዊ	-12920
▁ኢንጅነር	-12921
▁እንዲፈታ	-12922
▁ድርጅት፣	-12923
ov	-12924
ምፖ	-12925
ቾት	-12926
700	-12927
ንቶስ	-12928
▁ሙሌ	-12929
▁ሲዲ	-12930
▁ስማ	-12931
▁(1)	-12932
▁መሸጫ	-12933
▁ከገቡ	-12934
▁ጣሪያ	-12935
▁ህሙማን	-12936
▁መረጋጋ	-12937
▁አምርቶ	-12938
▁ጠይቀው	-12939
▁ሰራተኛው	-12940
▁አለመረጋጋ	-12941
▁የቴሌግራም	-12942
▁መግባታቸውን	-12943
▁ስለመሆናቸው	-12944
ዳዳ	-12945
፤የ	-12946
፲፱፻	-12947
ዝረዋል	-12948
▁ከግቡ	-12949
▁ወዳድ	-12950
▁ለመገናኛ	-12951
▁በመደረጉ	-12952
▁በተደራጀ	-12953
▁በኢየሱስ	-12954
▁የሰውነት	-12955
▁የጦርነት	-12956
▁የሚከናወኑ	-12957
▁የፖለቲካና	-12958
▁ይቀላቀሉከዚህ	-12959
▁63	-12960
▁ያት	-12961
▁ምሁር	-12962
▁ተመዝ	-12963
▁ይህች	-12964
▁መሪዎቹ	-12965
▁አንዳች	-12966
▁የቁጠባ	-12967
▁የተጠረ	-12968
▁ከጥቅምት	-12969
▁የሚደነግ	-12970
▁በማጠናቀቅ	-12971
▁መሆናቸውንና	-12972
ሞክ	-12973
ኬል	-12974
ዦር	-12975
መንጃ	-12976
▁ዎቹ	-12977
ሆንበት	-12978
▁ለመጠ	-12979
▁ሲራጅ	-12980
▁የቻሉ	-12981
▁ደንቡ	-12982
▁ግሪክ	-12983
ሬዝዳንት	-12984
▁ኡጋንዳ	-12985
▁ዩጋንዳ	-12986
▁ለመተካት	-12987
▁ኢየሱስን	-12988
▁ከግብርና	-12989
▁ምርመራውን	-12990
▁ተደርገዋል	-12991
▁ዳይሬክተሩ፣	-12992
ሀር	-12993
ልኩ	-12994
(1)	-12995
▁በኡ	-12996
▁የጃ	-12997
ገጠመው	-12998
▁መስቀ	-12999
▁ሲገኝ	-13000
▁አዱኛ	-13001
▁ኢራቅ	-13002
▁የተራ	-13003
▁ድክመ	-13004
▁መጠኑን	-13005
▁የመሩት	-13006
▁ጥያቄን	-13007
▁በአብላጫ	-13008
▁ናትናኤል	-13009
ዩስ	-13010
መንድ	-13011
ጩነት	-13012
▁ምትኩ	-13013
▁ብልሹ	-13014
▁የታሸ	-13015
▁ሊያጋጥ	-13016
▁ረጃጅም	-13017
▁ስለሌለ	-13018
▁በጉባኤ	-13019
▁የሚጠራ	-13020
▁በሌለበት	-13021
▁ተርሚናል	-13022
▁እንደቻለ	-13023
▁ለመቀላቀል	-13024
▁በዴሞክራሲ	-13025
▁አይመስልም	-13026
▁ያስታውሳሉ	-13027
▁የሎጂስቲክስ	-13028
▁ዲግሪያቸውን	-13029
▁እንደተገለፀው	-13030
ሊንግ	-13031
መቻች	-13032
ምርያ	-13033
▁ለሲ	-13034
▁ጎራ	-13035
ቤታቸው	-13036
ጠበቁት	-13037
▁ሙሴን	-13038
▁ማውጣ	-13039
▁ረዘም	-13040
▁ሻለቃ	-13041
▁እየጣ	-13042
▁ውሀን	-13043
▁የየራ	-13044
▁በብሄር	-13045
▁በተሳካ	-13046
▁የአርሶ	-13047
▁የጠየቁ	-13048
▁ይሻላል	-13049
▁በህዝቦች	-13050
▁ተቀምጠው	-13051
▁እንዲመጡ	-13052
▁ፖሊሲዎች	-13053
▁የሚያገኙት	-13054
ተነ	-13055
▁ሌሊ	-13056
▁ካፒ	-13057
▁ክሪ	-13058
▁አውሎ	-13059
▁የቢራ	-13060
▁ፓርኩ	-13061
▁ለአንተ	-13062
▁ቀደምት	-13063
▁በእርሱ	-13064
▁አስደን	-13065
▁መዘግየት	-13066
▁በመተካት	-13067
▁በባህላዊ	-13068
▁በተከሰተ	-13069
▁የሚኖሩት	-13070
▁ያረጋግጡ	-13071
▁ተሰጥቷቸው	-13072
▁የሚኒስቴሩ	-13073
▁መንግስታቸው	-13074
▁እንደሚፈልግ	-13075
ርሞ	-13076
ተቱ	-13077
thi	-13078
ለን፣	-13079
▁አባቴ	-13080
▁አጀማ	-13081
▁ከደን	-13082
▁የጥር	-13083
▁ያለች	-13084
▁ጥይት	-13085
ገልግሎቱ	-13086
▁ትራፊክ	-13087
▁አቻቸው	-13088
▁አይገባ	-13089
▁እጃቸው	-13090
▁ከሀዋሳ	-13091
▁መዝገቡን	-13092
▁አምባገነ	-13093
▁በማስታወስ	-13094
▁የእስልምና	-13095
od	-13096
በሱ	-13097
ሻቸው	-13098
▁ሀሪ	-13099
▁ላከ	-13100
ጠየቀው	-13101
▁ሰልፈ	-13102
▁ስራና	-13103
▁ቴሌኮ	-13104
▁ከውሀ	-13105
▁ሲመለስ	-13106
▁ሲነገር	-13107
▁ፍርሀት	-13108
▁ተገናኝቶ	-13109
▁ፅሁፎችን	-13110
▁እንደሚረዳ	-13111
▁እየተደረጉ	-13112
▁የተጠናከረ	-13113
▁የማስታወቂያ	-13114
ዮት	-13115
ዳሽ	-13116
ጫት	-13117
▁ታክ	-13118
▁ኪም	-13119
▁ብሩህ	-13120
▁የማር	-13121
ሆናቸውን	-13122
▁ይታያሉ	-13123
▁ድጋፉን	-13124
▁እያደረገች	-13125
▁በኮሮናቫይረስ	-13126
ሰዱ	-13127
ጋሉ	-13128
ቀቀው	-13129
ወሰዱት	-13130
▁ነፃና	-13131
▁ማስፈራ	-13132
▁ሴክሬታ	-13133
▁በኮንት	-13134
▁ተጠባቂ	-13135
▁አቋራጭ	-13136
▁የሚከፍ	-13137
▁ያሏቸው	-13138
▁ድንገት	-13139
▁ግርግር	-13140
ፓርትመንት	-13141
▁አሳውቋል	-13142
▁የምግብና	-13143
▁የተሞላበት	-13144
▁ለማበረታታት	-13145
ልካ	-13146
ታዲ	-13147
ጊት	-13148
ግሬሽን	-13149
▁ንግዱ	-13150
▁አናሳ	-13151
▁እሷም	-13152
▁ቀዳማዊ	-13153
▁ተናገረ	-13154
▁ተከፍሎ	-13155
▁ከነሀሴ	-13156
▁ዘመቻው	-13157
▁አሰባሰብ	-13158
▁ለመነጋገር	-13159
▁እራሳቸውን	-13160
▁እንዲሻሻል	-13161
▁ፍሬህይወት	-13162
ልምና	-13163
ሩበት	-13164
▁53	-13165
▁ዳዋ	-13166
ዮኖችን	-13167
▁ይከተ	-13168
ዶሚኒየም	-13169
▁ለሰዎች	-13170
▁በዘጠኝ	-13171
▁ከሚለው	-13172
▁የሚገጥ	-13173
▁የትኞቹ	-13174
▁የኮምፒ	-13175
▁ጥቃቅን	-13176
▁ተገቢነት	-13177
▁ያቀርባሉ	-13178
▁በመቆጣጠር	-13179
▁97	-13180
▁ላስ	-13181
▁አፋ	-13182
▁የሎ	-13183
▁ያነጣ	-13184
▁ገበሬ	-13185
▁ፋሲካ	-13186
▁ሳይችሉ	-13187
▁አጠናቋል	-13188
▁እንደሚመ	-13189
▁የባንኮች	-13190
▁ይኖራቸዋል	-13191
52	-13192
ኛና	-13193
በልፀ	-13194
ይናን	-13195
ሎቻቸው	-13196
▁ካህና	-13197
▁የእና	-13198
ኞቻቸውን	-13199
▁የሚመነ	-13200
▁የአስተ	-13201
▁ያገኛል	-13202
▁የወረዳው	-13203
▁በማድረግና	-13204
ገየ	-13205
ማንት	-13206
▁67	-13207
▁በሉ	-13208
▁ሊኖሩ	-13209
▁ስሙን	-13210
▁ይርጋ	-13211
▁ለንደን	-13212
▁መጥፋት	-13213
▁ተሀድሶ	-13214
▁ተጠብቆ	-13215
▁ታደርጋ	-13216
▁አልሆነ	-13217
▁እያስተ	-13218
▁የማክሮ	-13219
▁የአድዋ	-13220
▁የዝናብ	-13221
▁የያዙት	-13222
▁ጉዳቶች	-13223
▁በማግስቱ	-13224
▁ትሪሊዮን	-13225
▁ወጥተዋል	-13226
▁የተጫዋች	-13227
▁የአማርኛ	-13228
▁ያስፈልግ	-13229
▁በትእግስት	-13230
▁እንደሚያደርገው	-13231
ጫዊ	-13232
ፃል	-13233
ንሽን	-13234
▁ጨው	-13235
▁ማሳወ	-13236
▁ቆመው	-13237
▁በአክ	-13238
▁ከፊል	-13239
▁ኩራት	-13240
▁ዉስጥ	-13241
▁በማስታወ	-13242
▁የሚወጣው	-13243
▁ግንባታን	-13244
▁መብታቸውን	-13245
▁ምህንድስና	-13246
▁በመንፈሳዊ	-13247
▁እንዲለቀቁ	-13248
▁የመካከለኛው	-13249
በህ	-13250
ኒን	-13251
ለምን	-13252
ርያን	-13253
ነበት	-13254
▁አሚ	-13255
ደርሰው	-13256
▁ለአባ	-13257
▁ማይክ	-13258
▁ብፁእ	-13259
▁ሀይል፣	-13260
▁መፅሀፉ	-13261
▁ምርትን	-13262
▁በመቀሌ	-13263
▁በፍትህ	-13264
▁ብድርና	-13265
▁እድልን	-13266
▁ክልልን	-13267
▁ድንኳን	-13268
▁አውጥተው	-13269
▁እነርሱም	-13270
▁ጠቅሰው፤	-13271
▁እንዲከፍሉ	-13272
▁የስምምነት	-13273
▁ፕሬዚዳንታዊ	-13274
ሻን	-13275
ዛጋቢ	-13276
▁66	-13277
▁ማቲ	-13278
▁ውሉ	-13279
▁መረዳ	-13280
▁በይነ	-13281
▁አክብ	-13282
▁ከሆን	-13283
▁ዛፎች	-13284
▁ብድሮች	-13285
▁ፌስቲቫ	-13286
▁ፓትርያ	-13287
▁ባለንብረ	-13288
▁አሜሪካዊ	-13289
▁የተፈፀሙ	-13290
▁የገጠመው	-13291
▁የወዳጅነት	-13292
ሆች	-13293
ኒያም	-13294
ንዳር	-13295
ጣለች	-13296
ላለፉም	-13297
▁መሳተ	-13298
▁እራስ	-13299
▁ወላጅ	-13300
▁ጀልባ	-13301
▁ማብቂያ	-13302
▁ካንሰር	-13303
መንግስታዊ	-13304
▁ማጠቃለያ	-13305
▁የመግለፅ	-13306
▁የምትገኝ	-13307
▁ተከራክረዋል	-13308
▁እንደሚሆንም	-13309
ሮ፣	-13310
የታ	-13311
ይ፣	-13312
መረቱ	-13313
▁ሜካ	-13314
▁በጂ	-13315
▁እገ	-13316
▁ያኔ	-13317
▁የሚባ	-13318
▁ግልጋ	-13319
▁በጨዋታ	-13320
▁ንግድን	-13321
▁የዘለቀ	-13322
▁ተመሰረተ	-13323
▁የሚባሉት	-13324
▁የኬሚካል	-13325
▁ድጋፎችን	-13326
▁በፈረንጆቹ	-13327
▁ድምፃቸውን	-13328
ሎና	-13329
ማከር	-13330
ነገሩ	-13331
▁እዮብ	-13332
▁የበጋ	-13333
ጠራቸውን	-13334
▁ሊከሰት	-13335
▁ማሳለፍ	-13336
▁በገባው	-13337
▁ከኢትዮ	-13338
▁የፊልም	-13339
ፈልጋቸውን	-13340
▁ለማጣራት	-13341
▁መንገድ፣	-13342
▁የተቀሩት	-13343
▁ማስተዳደር	-13344
▁የመጀመርያውን	-13345
▁በኢትዮጵያውያን	-13346
ንሳ	-13347
ዛኙ	-13348
ሰባዊ	-13349
▁አጫ	-13350
ሻቸውን	-13351
▁በጎች	-13352
▁ተባለ	-13353
▁ተክል	-13354
▁ከሳሽ	-13355
▁ከዋና	-13356
▁ለችግሩ	-13357
▁አንቶኒ	-13358
▁ተወያይቶ	-13359
▁ዘፍጥረት	-13360
▁የህዳሴው	-13361
▁ማቀነባበሪያ	-13362
ራዝ	-13363
ሮጥ	-13364
ብዱ	-13365
ጠጣ	-13366
ፋማ	-13367
ደራሉ	-13368
ጋችን	-13369
▁ራሷን	-13370
▁አሸነ	-13371
▁የልጅ	-13372
▁የሪል	-13373
▁ፖስቱ	-13374
▁መልአክ	-13375
▁እድሜው	-13376
▁መስራችና	-13377
▁መከታተል	-13378
▁ሰንሰለት	-13379
▁የሚሰሩት	-13380
▁ተደምጠዋል	-13381
▁አድርገናል	-13382
ኋቸው	-13383
ንም፣	-13384
▁እላ	-13385
ሀብቶች	-13386
ሰማቸው	-13387
▁1.2	-13388
▁የቀይ	-13389
▁ይሁዳ	-13390
▁መስተጋ	-13391
▁ተሟጋች	-13392
▁አሳማኝ	-13393
▁የወሰን	-13394
▁መብቶችን	-13395
▁መጨናነቅ	-13396
▁ማሀበር፣	-13397
▁ቆይታቸው	-13398
▁በተዘጋጀ	-13399
▁አንችልም	-13400
▁ለመሰማራት	-13401
▁እንደገለፀው፣	-13402
በሪ	-13403
ገፉ	-13404
ጫኑ	-13405
ምገማ	-13406
ደስት	-13407
▁ሀጂ	-13408
▁ስቲ	-13409
▁ነቀ	-13410
ስክሌት	-13411
▁መቅጫ	-13412
▁ወዲያ	-13413
▁ዘጋቢ	-13414
ጠራቀሚያ	-13415
▁1990	-13416
▁ብክለት	-13417
▁የሚገዛ	-13418
▁የውድድሩ	-13419
▁የተማሪዎች	-13420
▁የፕላስቲክ	-13421
▁ምርታማነትን	-13422
▁ትራንስፖርትና	-13423
ሲንግ	-13424
▁62	-13425
▁ባዮ	-13426
▁በወን	-13427
▁የማጥ	-13428
▁ይጀመ	-13429
/2006	-13430
▁ሳላዲን	-13431
▁በሌላው	-13432
▁ቴክኒክ	-13433
▁አጋሮች	-13434
▁ጥናቱን	-13435
▁መፈጠሩን	-13436
▁ከነዚህም	-13437
▁በሶስተኛው	-13438
▁በታማኝነት	-13439
▁አይደለሁም	-13440
▁አይደለም፣	-13441
▁ጨዋታቸውን	-13442
ሚት	-13443
ሞራ	-13444
ልጣል	-13445
ሰጠን	-13446
መላክት	-13447
▁ስንል	-13448
▁በሊዝ	-13449
▁አክሎ	-13450
▁ደመወ	-13451
የታቸውን	-13452
▁ለሆነው	-13453
▁ሳይኖር	-13454
▁አተገባ	-13455
▁መንገድና	-13456
▁ስርአትና	-13457
▁ያብራራሉ	-13458
▁ያስመዘገበ	-13459
▁የመጨረሻውን	-13460
ለየ	-13461
ጊቱ	-13462
▁--	-13463
▁ሞቱ	-13464
ነሳሳት	-13465
▁ስሌት	-13466
▁ከሚታ	-13467
▁ክንው	-13468
▁ጎጃም	-13469
ቶቻችንን	-13470
▁መረጃ፣	-13471
▁መቃብር	-13472
▁ሱዳንን	-13473
▁በሙከራ	-13474
▁በጥይት	-13475
▁የታቀደ	-13476
▁ይስሀቅ	-13477
▁ጥያቄ፣	-13478
▁አርቲስት	-13479
▁አብዱላሂ	-13480
▁አትክልት	-13481
▁ፈቃደኞች	-13482
▁በማገልገል	-13483
▁በእንቅስቃሴ	-13484
ቃው	-13485
wik	-13486
ቢነት	-13487
ጋችሁ	-13488
▁ቁስ	-13489
▁በጆ	-13490
▁ቪዛ	-13491
▁ተፈት	-13492
▁አውግ	-13493
▁ተወስኖ	-13494
▁ደረጃም	-13495
▁ብርጋዴር	-13496
▁ተጠይቀው	-13497
▁ችግኞችን	-13498
▁ኤሌክትሮ	-13499
▁የሆነበት	-13500
▁የሴቶችን	-13501
▁አንድነትና	-13502
▁የተቀላቀለው	-13503
▁የደረሰበትን	-13504
ቨን	-13505
ዳድ	-13506
ንጉስ	-13507
ጋራት	-13508
ጠየቀ	-13509
ፅፅር	-13510
▁ሻን	-13511
▁ወፍ	-13512
▁ማውጫ	-13513
▁በተጠ	-13514
▁በአካ	-13515
▁ተሟጋ	-13516
▁ትተው	-13517
▁የመዝ	-13518
▁የስም	-13519
▁ይኼም	-13520
▁ጠርቶ	-13521
▁ጥምር	-13522
▁ለምርጫ	-13523
▁ሱዳንና	-13524
▁ወጣቶቹ	-13525
▁የዳሰሳ	-13526
▁የጉባኤ	-13527
▁ገዥዎች	-13528
▁ማምሻውን	-13529
▁ቃላቸውን	-13530
▁በያዝነው	-13531
▁አልነበሩ	-13532
▁የተናገረ	-13533
▁መናገራቸው	-13534
▁በማስቀመጥ	-13535
▁አመልክተው	-13536
▁እንደሆነች	-13537
ዱላ	-13538
መሪያ	-13539
ራውን	-13540
ፓርኩ	-13541
▁ሄዱ	-13542
▁እይ	-13543
▁ከዲ	-13544
ላችንን	-13545
ተገበሩ	-13546
▁መሸጋ	-13547
▁ባህሩ	-13548
▁አጥፊ	-13549
▁ይቻል	-13550
thiop	-13551
▁ሁንዴሳ	-13552
▁ምድርን	-13553
▁ሬድዋን	-13554
▁መላእክት	-13555
▁ስላላቸው	-13556
▁አድሀኖም	-13557
▁የሚፈጠሩ	-13558
▁በተጠቀሰው	-13559
▁የሚገባቸውን	-13560
ተሪ	-13561
ክራሲ	-13562
▁ሊመጣ	-13563
▁ተሻለ	-13564
▁የከተ	-13565
ደጋፊዎች	-13566
▁ቅዳሜና	-13567
▁በመስኖ	-13568
▁በወንድ	-13569
▁ቦይንግ	-13570
▁ናሽናል	-13571
▁አኳኋን	-13572
▁ከጂቡቲ	-13573
▁የፈፀመ	-13574
▁ለህልፈት	-13575
▁መልቀቂያ	-13576
▁ተናግረው፣	-13577
ሀስ	-13578
ጅና	-13579
ቀትና	-13580
ኔስኮ	-13581
ኗኗር	-13582
▁5.	-13583
▁ለሞ	-13584
▁ሳሉ	-13585
ህወሀት	-13586
▁በጥሬ	-13587
▁ታይም	-13588
▁አስፋ	-13589
ገባቸውን	-13590
▁ለስላሳ	-13591
▁ለደንበ	-13592
▁ረገድም	-13593
▁በግምት	-13594
▁ህፃናትና	-13595
▁ማድረግና	-13596
▁የሁለተኛው	-13597
▁ማስረጃዎችን	-13598
ምፕ	-13599
ርግ	-13600
ሽ፣	-13601
ቲቱ	-13602
ክና	-13603
ጓጎ	-13604
በራቱ	-13605
▁ከሴ	-13606
▁ኮሪ	-13607
▁ጣል	-13608
▁ፖል	-13609
ኪስታን	-13610
▁ህግ፣	-13611
▁ሞሮኮ	-13612
▁ረሀብ	-13613
▁በተራ	-13614
▁አርሲ	-13615
▁ገዳይ	-13616
ቀርባለን	-13617
▁መዝገቡ	-13618
▁በአሁን	-13619
▁የምእራ	-13620
▁የተስፋ	-13621
▁የንግዱ	-13622
▁ሀገሪቱን	-13623
▁ማስጠበቅ	-13624
▁ብዙዎችን	-13625
▁ውይይቱን	-13626
▁ሆስፒታሎች	-13627
▁ኢኮኖሚውን	-13628
▁አድርጓቸዋል	-13629
ሊየ	-13630
ብያ	-13631
ን፤	-13632
ጨር	-13633
ቧንቧ	-13634
▁ሌዋ	-13635
ለተኛው	-13636
ክሳይዝ	-13637
ዳሪነት	-13638
▁መጪው	-13639
▁አሳር	-13640
▁አቃቂ	-13641
▁እስረ	-13642
▁ከንቱ	-13643
▁ዋዜማ	-13644
▁የጎን	-13645
▁ጀግና	-13646
▁ጭብጥ	-13647
▁ፍሰሀ	-13648
▁ዝምድና	-13649
▁የማረጋገጥ	-13650
ረሳ	-13651
ራጌ	-13652
ian	-13653
▁ስጦ	-13654
▁ግፍ	-13655
▁ቀኑን	-13656
▁ባደረ	-13657
▁ከመው	-13658
▁ከስር	-13659
▁ጥቅስ	-13660
▁መስመሩ	-13661
▁በቱርክ	-13662
▁ሀገራችን	-13663
▁የሚያበቃ	-13664
▁የዝግጅት	-13665
▁ይሰማኛል	-13666
▁እንደሚደርስ	-13667
ኩር	-13668
ess	-13669
ፕሪል	-13670
▁ይግ	-13671
ሰሩበት	-13672
▁ባንድ	-13673
▁አመቷ	-13674
▁እስያ	-13675
▁የላከ	-13676
ማንኛውም	-13677
▁ለፍትህ	-13678
▁ሰውየው	-13679
▁በነዚህ	-13680
▁በወረዳ	-13681
▁በዙሪያ	-13682
▁የግማሽ	-13683
▁ፈፅመው	-13684
▁ኮምቦልቻ	-13685
▁የሚገነባ	-13686
ሩ፤	-13687
ተኑ	-13688
ቂያው	-13689
ዛይን	-13690
▁ሽታ	-13691
▁ሊቢያ	-13692
▁እሰጣ	-13693
▁የሚቆ	-13694
▁ሀኪሞች	-13695
▁ሀያላን	-13696
▁መዳረጋ	-13697
▁ቀጣናዊ	-13698
▁ከተገኘ	-13699
▁የታገዘ	-13700
▁ባለማግኘ	-13701
▁ከሁለቱም	-13702
▁ከግንቦት	-13703
▁ሚኒስትርና	-13704
▁ተብራርቷል	-13705
▁ግለሰቦችና	-13706
▁ግንባታቸው	-13707
▁መስፈርቶችን	-13708
▁የዳይሬክተሮች	-13709
ፀና	-13710
▁፫	-13711
▁ከቴ	-13712
ፖንሰር	-13713
▁መፈረ	-13714
▁ስፔሻ	-13715
▁ይከራ	-13716
▁ጣእም	-13717
▁ከተመረ	-13718
▁ዝርፊያ	-13719
▁ዝግጅቱ	-13720
▁መፍጠሩን	-13721
▁ተለዋዋጭ	-13722
▁አመራሮች፣	-13723
▁እንደሚውል	-13724
▁የማዳበሪያ	-13725
▁በሚኒስትሮች	-13726
▁በየአካባቢው	-13727
▁የማሀበረሰብ	-13728
ከርድ	-13729
ጠናል	-13730
▁09	-13731
▁መሾ	-13732
▁3-0	-13733
▁ለመጥ	-13734
▁ለአቶ	-13735
▁መስህ	-13736
▁መፃፍ	-13737
▁ሲኖሩ	-13738
▁ፔትሮ	-13739
▁መንገሻ	-13740
▁ቀሪውን	-13741
▁ቅድስት	-13742
▁ትንተና	-13743
▁እየገቡ	-13744
▁ይደርስ	-13745
▁በየካቲት	-13746
▁ባህሪያት	-13747
▁እንዲነሱ	-13748
▁ይቀርባል	-13749
▁በመኖራቸው	-13750
▁ትምህርቶች	-13751
▁የምትገኘው	-13752
▁እግዚአብሄርን	-13753
og	-13754
ጎስ	-13755
፤እ	-13756
ላሎች	-13757
ልኛል	-13758
ራለን	-13759
ባታል	-13760
ዚያም	-13761
ጥለው	-13762
▁ከአም	-13763
▁ተካቷል	-13764
▁ያግዛል	-13765
▁ዶላር፣	-13766
▁ሀላፊው፣	-13767
▁መመርመር	-13768
▁መሰጠቱን	-13769
▁ቱሪስቶች	-13770
▁የከተሞች	-13771
▁የክልልነት	-13772
▁ህብረተሰቡን	-13773
የሀ	-13774
ጋቡ	-13775
ናጀት	-13776
ኔጋል	-13777
▁ርክ	-13778
▁ቅጂ	-13779
▁ጥግ	-13780
▁በጠበ	-13781
▁ኮርያ	-13782
▁ከምክር	-13783
▁ስልጣንን	-13784
▁በመካሄድ	-13785
▁በስምንት	-13786
▁በስፖርት	-13787
▁በተመረጡ	-13788
▁የተፈራረ	-13789
▁መከላከልና	-13790
▁በመመርያው	-13791
▁ደንበኞችን	-13792
▁ማስታወሻዎች	-13793
ረፉ	-13794
ነታ	-13795
ራረስ	-13796
ሰማት	-13797
▁("	-13798
▁ሳልቫ	-13799
▁ብሎግ	-13800
▁አመተ	-13801
▁ለሴቶች	-13802
▁መሆኑ፣	-13803
▁ተካልኝ	-13804
▁አብዲሳ	-13805
▁እየገባ	-13806
▁ከምድር	-13807
▁የሰብል	-13808
▁መቀጠሉን	-13809
▁እንደሚገቡ	-13810
▁እየተጠባበ	-13811
▁ፕሬዚዳንቷ	-13812
▁በአንፃራዊነት	-13813
ልበስ	-13814
ቅያስ	-13815
ዞችን	-13816
ደናቀፍ	-13817
▁ዘሮች	-13818
▁መቀመጥ	-13819
▁ምግብና	-13820
▁ሲያልፍ	-13821
▁ነበሩ፤	-13822
▁አረጋዊ	-13823
▁አቅሙን	-13824
▁የችግሩ	-13825
▁ያገገሙ	-13826
▁ሲያቀርብ	-13827
▁አስከሬን	-13828
▁የሚመስል	-13829
▁በወታደራዊ	-13830
▁የሚያስፈል	-13831
▁የፌዴራልና	-13832
▁በኢትዮጵያም	-13833
▁የተቀመጠውን	-13834
▁የማስጠንቀቂያ	-13835
ስሀ	-13836
ቡላ	-13837
ጡም	-13838
ity	-13839
ቲካል	-13840
▁ትቶ	-13841
▁ከጅ	-13842
ልቃይት	-13843
ዘወትር	-13844
▁ቀኙን	-13845
▁ነፋስ	-13846
▁ከአል	-13847
▁ከእን	-13848
▁ለኮሮና	-13849
▁ሲመለሱ	-13850
▁ተጀመረ	-13851
▁ይይዛል	-13852
▁እየገለፁ	-13853
▁ከተከሰተ	-13854
▁ተመዝግቧል	-13855
▁የድርጅቱን	-13856
▁የምታደርገውን	-13857
ሮት	-13858
ፀን	-13859
ፎን	-13860
ለጠኑ	-13861
መጣት	-13862
ግራሙ	-13863
▁ሀና	-13864
▁ዘጠ	-13865
▁ሚሊሻ	-13866
▁ስደት	-13867
▁ወቅቱ	-13868
▁ለመሳብ	-13869
▁ለይሆዋ	-13870
▁እንዲያሳ	-13871
▁የሚያቀር	-13872
▁የአንደኛ	-13873
▁በመተግበር	-13874
▁በተያዘለት	-13875
▁የተመሰረቱ	-13876
ሪጅ	-13877
ኗን	-13878
▁ሜት	-13879
ኒስትር	-13880
▁ከማይ	-13881
ስተናገድ	-13882
▁ሁኔታም	-13883
▁ባደረጉ	-13884
▁እፎይታ	-13885
▁የቀብር	-13886
▁ህዝቦችን	-13887
▁ተቋማትም	-13888
▁ተጨዋቾችን	-13889
59	-13890
ማም	-13891
ሻር	-13892
ሽቆ	-13893
ቅዱስ	-13894
▁ላፍቶ	-13895
▁መገኛ	-13896
▁ረፋድ	-13897
ሮቻቸውን	-13898
▁በሚችል	-13899
▁ጨዋታም	-13900
▁ለፖለቲካ	-13901
▁እስልምና	-13902
▁እየተመራ	-13903
▁የእውቀት	-13904
▁እንደፈጠረ	-13905
▁ባለሙያዎችና	-13906
▁እየተደረገላቸው	-13907
▁እንደሚያስፈልገው	-13908
ሄዳ	-13909
ረዝ	-13910
ካራ	-13911
▁ዎ	-13912
በሩን	-13913
ዋለች	-13914
ደሙት	-13915
▁የጀ	-13916
▁ያገ	-13917
1996	-13918
ካተቱት	-13919
▁መሀላ	-13920
▁መቀበ	-13921
▁ምሰሶ	-13922
▁በቀጠ	-13923
▁አእም	-13924
▁ከቡና	-13925
▁ፍንጭ	-13926
ገራችንን	-13927
▁ለዜጎች	-13928
▁ቢችሉም	-13929
▁ትርጉሙ	-13930
▁አገኘሁ	-13931
▁ግጭትና	-13932
▁ተፈጥሯል	-13933
▁የእንኳን	-13934
▁እናገኛለን	-13935
▁ሀይለማሪያም	-13936
▁የባለሙያዎች	-13937
▁የተካሄደውን	-13938
58	-13939
ሞና	-13940
ታይን	-13941
▁ካፍ	-13942
▁ነገሰ	-13943
▁እስቴ	-13944
በረከቱት	-13945
▁ሰላም፣	-13946
▁ተይዟል	-13947
▁አጨዋወ	-13948
▁እያገኘ	-13949
▁እያጋጠ	-13950
▁የታዳጊ	-13951
▁ፊልሞች	-13952
▁አላማዎች	-13953
▁አልችልም	-13954
▁አገላለፅ	-13955
▁እንዲሄድ	-13956
▁ከማእዘን	-13957
▁የሌለበት	-13958
▁የሚሸፍን	-13959
▁እንደሚያመለክተው	-13960
በቁ	-13961
ዋጋ	-13962
ጣጌ	-13963
ጩን	-13964
▁ለቡ	-13965
▁ሞዴ	-13966
▁ረጋ	-13967
▁ታሳ	-13968
ሰናበቱ	-13969
ስተኞች	-13970
ንላይን	-13971
ኖቻቸው	-13972
▁የስዊ	-13973
▁የጥጥ	-13974
ስተዳድር	-13975
▁ሰከንድ	-13976
▁በበአሉ	-13977
▁ከሚኖሩ	-13978
▁ውለዋል	-13979
▁የዋሉት	-13980
▁ሳይንስና	-13981
▁አደሮችን	-13982
▁እርስዎን	-13983
▁እያቀረቡ	-13984
▁ከአመታት	-13985
▁ፕሮፌሰሩ	-13986
▁በወረርሽኙ	-13987
▁እየተባባሰ	-13988
▁በህብረተሰቡ	-13989
▁w	-13990
ሬቶች	-13991
ያንግ	-13992
▁የሉ	-13993
1999	-13994
መለከታ	-13995
▁በስም	-13996
▁ጠንቅ	-13997
▁ለክለቡ	-13998
▁የግእዝ	-13999
▁ያስከት	-14000
▁ይላል፦	-14001
▁ማኔጂንግ	-14002
▁በመጠየቅ	-14003
▁ለማሰባሰብ	-14004
▁ያስታወሰው	-14005
▁የደረሰባቸውን	-14006
▁የሚያስችላቸውን	-14007
ሸሽ	-14008
ቦል	-14009
ገሳ	-14010
ኦነግ	-14011
▁የቲ	-14012
▁ይን	-14013
ነተኛው	-14014
▁አጥር	-14015
▁ከልክ	-14016
ነገራቸው	-14017
▁ሰርቷል	-14018
▁ሰዎች፣	-14019
▁በሚችሉ	-14020
▁በምእራ	-14021
▁ግብሮች	-14022
▁በመታገዝ	-14023
▁ባህርያት	-14024
▁እርምጃው	-14025
▁ከበርካታ	-14026
▁የሚያወጡ	-14027
▁ገብረመድ	-14028
▁ግንባታ፣	-14029
▁በመጠቆም፣	-14030
▁እንዲወሰድ	-14031
▁የተወሰኑት	-14032
ደፍ	-14033
ገኑ	-14034
ሳልፍ	-14035
▁ሀዘ	-14036
▁ረብ	-14037
▁ጥጥ	-14038
▁ፋና	-14039
መሳጠር	-14040
▁ለመዝ	-14041
▁ሙገር	-14042
▁ባልና	-14043
▁እድገቱ	-14044
▁ዝርጋታ	-14045
▁የፋሲል	-14046
▁በመድረስ	-14047
▁አጠባበቅ	-14048
▁አስደንጋጭ	-14049
ኞቼ	-14050
ጎቴ	-14051
FBC	-14052
ነቱም	-14053
ገምገ	-14054
ጎናፀ	-14055
▁ሸሽ	-14056
▁አጉ	-14057
▁ዘፋ	-14058
▁ዲላ	-14059
▁ስእል	-14060
▁የማነ	-14061
▁የካር	-14062
▁ያለአ	-14063
▁ይፈፅ	-14064
▁ጎርፍ	-14065
▁ርእዮተ	-14066
▁በፅናት	-14067
▁ተፈፅሞ	-14068
▁ከጀመሩ	-14069
▁የደንበ	-14070
▁ህይወትና	-14071
▁በተገኘው	-14072
▁ውድድሮችን	-14073
▁አስመዝግቧል	-14074
ናድ	-14075
ደፈ	-14076
ጭሩ	-14077
ትረፍ	-14078
እንዲ	-14079
▁ኳሱ	-14080
▁የፔ	-14081
▁ጎበ	-14082
ስፒታሉ	-14083
▁መካሄ	-14084
▁አዘው	-14085
▁ማለቱን	-14086
▁ቆይታው	-14087
▁ቢንያም	-14088
▁ተሰርቶ	-14089
▁ታቅዷል	-14090
▁ታዋቂው	-14091
▁እየሆኑ	-14092
▁የሚፈታ	-14093
▁ስልጣኑን	-14094
▁እንቅልፍ	-14095
▁ከመግለፅ	-14096
▁የሚሉትን	-14097
▁ድርጅትን	-14098
▁መካከለኛው	-14099
▁ስነስርአት	-14100
▁በፕሪምየር	-14101
▁እየተከታተ	-14102
ለሉ	-14103
ላኑ	-14104
መኝ	-14105
/60	-14106
ለቀቀ	-14107
▁ሰሞን	-14108
▁ከሌለ	-14109
▁ኤሌክት	-14110
▁እጅጉን	-14111
▁ሰምተናል	-14112
▁ስላለበት	-14113
▁በማሳተፍ	-14114
▁አምባሳደ	-14115
▁ከመኖሪያ	-14116
▁ከተሞችን	-14117
▁የልማትና	-14118
▁የሚጠቅም	-14119
▁አካባቢያዊ	-14120
▁የሚያስፈልግ	-14121
ማቹ	-14122
ፋት፣	-14123
▁ኢኒ	-14124
ቦቻቸው	-14125
▁በምድ	-14126
▁በፈረ	-14127
▁ታመነ	-14128
ሸናፊነት	-14129
▁አስገኝ	-14130
▁አድማሱ	-14131
▁የዋለው	-14132
▁ገረመው	-14133
▁ለህክምና	-14134
▁ማሳየቱን	-14135
▁ምርመራው	-14136
▁አምናለሁ	-14137
▁የንፅህና	-14138
▁ይስተዋላል	-14139
▁ተሰጥቷቸዋል	-14140
▁ከሀላፊነታቸው	-14141
ባ፣	-14142
አለሁ	-14143
ግተው	-14144
▁ሰጭ	-14145
▁ቼክ	-14146
ብሪካው	-14147
▁ቁመና	-14148
▁አረም	-14149
▁ከተወ	-14150
▁ለወራት	-14151
▁መጠይቅ	-14152
▁አንተን	-14153
▁የመቐለ	-14154
▁ይልቅ፣	-14155
▁ለማንሳት	-14156
▁ልማቶችን	-14157
▁አሜሪካን	-14158
▁አዳማዎች	-14159
▁ባለሙያዎች፣	-14160
▁በኢንዱስትሪው	-14161
ረዚ	-14162
ቃችሁ	-14163
ፍነው	-14164
▁ለገ	-14165
▁ፍሎ	-14166
ሮቻችን	-14167
▁ቅደም	-14168
▁ኢዜማ	-14169
▁ማተሚያ	-14170
▁ጓደኞች	-14171
▁ቀጥለዋል	-14172
▁አመራሮቹ	-14173
▁ከቀረቡት	-14174
▁የመራጮች	-14175
▁የሚታወቁ	-14176
▁የሰዎችን	-14177
▁የጠየቀው	-14178
▁ይጀመራል	-14179
▁ደብዳቤ፣	-14180
▁ንብረታቸው	-14181
ልጥ	-14182
ርጌ	-14183
▁፩	-14184
ሄደው	-14185
ሪቱን	-14186
ሳት፣	-14187
▁በጁ	-14188
▁ቦንድ	-14189
▁ተከል	-14190
▁አቢሲ	-14191
▁አንቺ	-14192
ዮርዳኖስ	-14193
▁ቅንጅት	-14194
▁አባልና	-14195
▁ከአቅም	-14196
▁የቀበሌ	-14197
▁የትግል	-14198
▁ጥሩነህ	-14199
▁ባንኪንግ	-14200
▁አባላትም	-14201
▁እያቀረበ	-14202
▁የሚያመጣ	-14203
▁በተመጣጣኝ	-14204
▁ለማስተዳደር	-14205
ሜኑ	-14206
ሜቴክ	-14207
ቤቶች	-14208
ንያሁ	-14209
▁ያፈ	-14210
2001	-14211
ዶቻቸው	-14212
▁ሰልጣ	-14213
▁አለ፤	-14214
▁አካሉ	-14215
▁መግባቱ	-14216
▁በተሟላ	-14217
▁በትጋት	-14218
▁ተቀራር	-14219
▁ትፈልጋ	-14220
▁የወሰደ	-14221
▁የዘመን	-14222
▁ለክልሎች	-14223
▁ስማቸውን	-14224
▁ክርስትና	-14225
▁ዘካርያስ	-14226
▁የተግባር	-14227
▁የክትትል	-14228
▁እስጢፋኖስ	-14229
▁እንግሊዝኛ	-14230
▁ከተባበሩት	-14231
▁የአቪዬሽን	-14232
▁ዳይሬክተሯ	-14233
▁በመጀመሪያዎቹ	-14234
ሙ፣	-14235
መረው	-14236
▁ኤክ	-14237
▁የፒ	-14238
▁ያጡ	-14239
ሰባችን	-14240
▁ማሳለ	-14241
▁ወርዶ	-14242
▁ጎረቤ	-14243
▁ጣሰው	-14244
▁ማፍራት	-14245
▁ያነሳሉ	-14246
▁እንደቆየ	-14247
▁ለሚደረገው	-14248
▁እንዳለብን	-14249
▁የሚታወቁት	-14250
▁ደረጃቸውን	-14251
ሜይል	-14252
▁ማቅ	-14253
▁ሱቅ	-14254
▁ፃድ	-14255
▁ባንዲ	-14256
▁ችለው	-14257
▁አመን	-14258
▁እጥረ	-14259
▁የጣና	-14260
▁ሊያገኝ	-14261
▁ሚዲያው	-14262
▁ማከማቻ	-14263
▁የትጥቅ	-14264
▁በሽታውን	-14265
▁ታራሚዎች	-14266
▁አምላክህ	-14267
▁ያነጋገር	-14268
▁ዲፕሎማቶች	-14269
▁እንደማይሆን	-14270
ባና	-14271
ልውና	-14272
▁ለአን	-14273
▁መጋዘ	-14274
▁ከሞላ	-14275
▁የካፍ	-14276
▁ፀድቆ	-14277
▁ቀዝቃዛ	-14278
▁የለኝም	-14279
▁ትኩረቱን	-14280
▁ፕሬዚዳንትና	-14281
▁የተመሰረተባቸው	-14282
ለላ	-14283
ርፉ	-14284
ሮም	-14285
ቭዥን	-14286
የሞች	-14287
▁ማቻ	-14288
▁ታድ	-14289
▁ጫካ	-14290
ጠራቸው	-14291
▁130	-14292
▁ተጠም	-14293
▁መፃህፍ	-14294
▁አርከበ	-14295
▁የመላው	-14296
▁ጥልቀት	-14297
▁ጨምሯል	-14298
▁ፍንዳታ	-14299
▁መቅረቡን	-14300
▁ስንታየሁ	-14301
▁ሶፍትዌር	-14302
▁በርሳቸው	-14303
▁መድረሳቸውን	-14304
▁እንዳይደርስ	-14305
▁እንዳለባቸውም	-14306
54	-14307
71	-14308
ard	-14309
ያለን	-14310
▁ይኑ	-14311
▁ግማ	-14312
▁ታምሩ	-14313
▁ይቀበ	-14314
▁ለሽያጭ	-14315
▁ቢኒያም	-14316
▁ጎሎችን	-14317
▁ለማጥቃት	-14318
▁መለዋወጫ	-14319
▁ሽንኩርት	-14320
▁የመዝናኛ	-14321
▁የገባውን	-14322
▁ይረዳናል	-14323
▁ለማድረግና	-14324
▁እንደሚታይ	-14325
▁በመጨረሻዎቹ	-14326
▁እንደሚሉት፣	-14327
▁የኤሌክትሮኒክስ	-14328
መቀ	-14329
ጅራ	-14330
ወጣም	-14331
▁እጁ	-14332
▁አቁም	-14333
▁ከማሀ	-14334
▁2003	-14335
▁ማዳበር	-14336
▁በሰአት	-14337
▁ወንጀለ	-14338
▁የሊጉን	-14339
▁የቀጥታ	-14340
▁ድምዳሜ	-14341
▁በአማርኛ	-14342
▁ባለሀብቱ	-14343
▁የመጫወት	-14344
▁ይወዳጁን	-14345
▁ማጠራቀሚያ	-14346
▁በተጀመረው	-14347
▁የተወሰደው	-14348
▁በዋሽንግተን	-14349
▁የሚያስተላል	-14350
▁ያስፈልገዋል	-14351
▁ለሚመለከታቸው	-14352
▁ለእግዚአብሄር	-14353
ዱም	-14354
በለጠ	-14355
ከራሉ	-14356
ይሁን	-14357
ገደለ	-14358
▁ዋስ	-14359
ፓጋንዳ	-14360
▁በሚመ	-14361
▁ታቦት	-14362
▁አልማ	-14363
▁ጉምዝ	-14364
▁ሀላፊ፣	-14365
▁ለቪኦኤ	-14366
▁በጎርጎ	-14367
▁አልሲሲ	-14368
▁የኢራቅ	-14369
▁የጀመር	-14370
▁ድልድል	-14371
▁ሲያሸንፍ	-14372
▁ታዳጊዎች	-14373
▁እንግልት	-14374
▁የሚባለውን	-14375
ht	-14376
ሁሩ	-14377
በቀ	-14378
ሊኮፕ	-14379
▁ባዬ	-14380
▁ዋሻ	-14381
▁(2)	-14382
▁እኔና	-14383
▁ያስቀ	-14384
▁ሰሎሞን	-14385
▁ባንኮቹ	-14386
▁ከነበረ	-14387
▁የሚጥል	-14388
▁የእሱን	-14389
▁ያስገነ	-14390
▁ለወጣቶች	-14391
▁መደረሱን	-14392
▁በመናገር	-14393
▁በሜዳቸው	-14394
▁እያደረሰ	-14395
▁የሳይበር	-14396
▁በአለማችን	-14397
▁ተመልሰዋል	-14398
▁እንዳልሆኑ	-14399
▁ያደረግነው	-14400
▁ለኢንዱስትሪ	-14401
▁አብዱልከሪም	-14402
▁እንደምትችል	-14403
▁የሚካሄደውን	-14404
▁የሚያመለክተው	-14405
▁የኢንፎርሜሽን	-14406
▁ይወዳጁንዘወትር	-14407
ረቅ	-14408
ቅሮ	-14409
ናማ	-14410
ጠቀመ	-14411
▁ርስ	-14412
▁ርቆ	-14413
▁ታት	-14414
▁ኔታ	-14415
ዛቸውን	-14416
▁ተረት	-14417
▁ተገኘ	-14418
▁ትዳር	-14419
▁ገንቢ	-14420
▁መክፈቻ	-14421
▁ሻሸመኔ	-14422
▁ሽረዎች	-14423
▁በለይቶ	-14424
▁በቅጣት	-14425
▁ከፓርቲ	-14426
▁ሪፖርቱን	-14427
▁ከቀዳሚው	-14428
▁ወጣቶችና	-14429
▁የሚጠቀም	-14430
▁የሚያገኘው	-14431
▁መደረጋቸውን	-14432
▁እንዳስረዱት፣	-14433
ግት	-14434
ቆጥሩ	-14435
ባብዌ	-14436
ይህም	-14437
▁2.5	-14438
▁መቋቋ	-14439
▁በማር	-14440
▁አንዲ	-14441
▁ዘመድ	-14442
▁የመደ	-14443
▁ደምሴ	-14444
▁ለበለጠ	-14445
▁ቀለሞች	-14446
▁እንደራ	-14447
▁እግርኳ	-14448
ንቀሳቀሰው	-14449
▁መታቀዱን	-14450
▁ሳይደረግ	-14451
▁የፌስቡክ	-14452
▁ገበሬዎች	-14453
▁ክብረወሰን	-14454
▁የፋብሪካው	-14455
▁መመሪያዎችን	-14456
▁እንደሚያስችል	-14457
ep	-14458
ቻቸ	-14459
ፈግ	-14460
ፎም	-14461
ህተት	-14462
ንግዶ	-14463
ደራጅ	-14464
▁ቡክ	-14465
▁የጄ	-14466
ተገበረ	-14467
▁በግድ	-14468
▁ተመላ	-14469
▁አለች	-14470
▁የሀዋ	-14471
▁ጉልበ	-14472
▁ግርጌ	-14473
▁የቦንድ	-14474
▁የኮርፖ	-14475
▁ጋምቤላ	-14476
▁ከተሰጠው	-14477
▁በመሳሰሉት	-14478
▁የተወሰነው	-14479
▁የፓርቲውን	-14480
ct	-14481
ቸገ	-14482
ፅዋት	-14483
▁ልጇ	-14484
▁ኪር	-14485
▁ዜማ	-14486
▁ፀሎ	-14487
▁ፀጉ	-14488
ፈላለግ	-14489
▁አስብ	-14490
▁የኖረ	-14491
▁ሸማቾች	-14492
▁በዛብህ	-14493
▁የታሪፍ	-14494
▁በንግድና	-14495
▁ንግግሮች	-14496
▁እንዳገኘ	-14497
▁መልእክቶች	-14498
▁መግለጫዎች	-14499
▁ጎብኝተዋል	-14500
▁ለሚመለከተው	-14501
ቢን	-14502
ራዘመ	-14503
ያለው	-14504
▁አሲ	-14505
▁አቁ	-14506
▁ለምታ	-14507
▁ሽንፈ	-14508
▁ከራሱ	-14509
▁የምህ	-14510
▁ያጠፋ	-14511
▁ለአስር	-14512
▁መሰዊያ	-14513
▁ማግባት	-14514
▁ሲጫወት	-14515
▁ሴቶችና	-14516
▁በውስጥ	-14517
▁ብራንድ	-14518
▁ዘወትር	-14519
▁የበረሀ	-14520
▁መመዝገብ	-14521
▁አላለፉም	-14522
▁እየሰራች	-14523
▁በአንደኛው	-14524
▁ተደንግጓል	-14525
▁የዳያስፖራ	-14526
▁የተፈፀመውን	-14527
ልዎ	-14528
ሪ፣	-14529
ዘት	-14530
ጋሜ	-14531
▁83	-14532
▁ኢራ	-14533
ድሬሽን	-14534
▁ሴንት	-14535
▁ገርባ	-14536
▁በቦርዱ	-14537
▁ባንኩን	-14538
▁ትላለች	-14539
▁አህጉር	-14540
▁እናምና	-14541
▁የቪዲዮ	-14542
▁የቴሌኮ	-14543
▁ያለብን	-14544
▁ጠበቆቹ	-14545
▁ማስተናገ	-14546
▁ተቆጣጥሮ	-14547
▁የሚጫወቱ	-14548
▁የማሸነፍ	-14549
▁በአደባባይ	-14550
▁የሚፈልገውን	-14551
ሎግ	-14552
ዳፊ	-14553
ባረክ	-14554
ቲኤም	-14555
▁ለቱ	-14556
▁ርካ	-14557
▁ማካሄ	-14558
▁ከሀያ	-14559
▁ወርቃ	-14560
▁ድባብ	-14561
▁ግዛው	-14562
▁ሊወስድ	-14563
▁ሞባይል	-14564
▁በንቃት	-14565
▁አሞላል	-14566
▁አብነት	-14567
▁አካታች	-14568
▁ክልልና	-14569
▁ድንኳኑ	-14570
▁መከሰቱን	-14571
▁የሚበልጡ	-14572
▁የሰጡትን	-14573
▁ለተከታታይ	-14574
▁አዘጋጅነት	-14575
▁የሚጠበቅባቸውን	-14576
56	-14577
ኛለሁ	-14578
▁74	-14579
▁አአ	-14580
▁ዋን	-14581
ላችኋል	-14582
▁ማረፊ	-14583
▁አመር	-14584
▁ወሰነ	-14585
▁ውበቱ	-14586
▁መቅደሱ	-14587
▁ምስራች	-14588
▁ቅብብል	-14589
▁ከምሽቱ	-14590
▁ከሰማይ	-14591
▁ለሰብአዊ	-14592
▁ለግብርና	-14593
▁በቤተሰብ	-14594
▁አሳልፈው	-14595
▁ከድህነት	-14596
▁ደስተኞች	-14597
▁ለእስራኤል	-14598
▁መስተካከል	-14599
▁አቅማቸውን	-14600
▁የሚያስፈልጋቸው	-14601
ምግ	-14602
ሰሰ	-14603
ሺያ	-14604
ቋሙ	-14605
ድሎ	-14606
ጓዘ	-14607
▁ኋ	-14608
ዳግም	-14609
መልመል	-14610
ገደኞች	-14611
▁በሆቴ	-14612
▁በተዋ	-14613
▁ተተኪ	-14614
▁የሚጨ	-14615
▁ለአርሶ	-14616
▁መቋረጥ	-14617
▁ሙሀመድ	-14618
▁እንደየ	-14619
▁ማደያዎች	-14620
▁አለማግኘ	-14621
▁ወንድወሰን	-14622
ሽነ	-14623
ኝ፤	-14624
ሽከረ	-14625
ገራት	-14626
ፍሰስ	-14627
▁ታቦ	-14628
▁ኢት	-14629
▁የሾ	-14630
ኤምኤፍ	-14631
ዘዋወሩ	-14632
▁ገቢው	-14633
▁ለሰባት	-14634
▁መረጋገ	-14635
▁በኦሮሞ	-14636
▁አንብብ	-14637
▁እየመጣ	-14638
▁የመነጨ	-14639
▁የንፁህ	-14640
▁ያልቻሉ	-14641
▁ምእመናን	-14642
▁አማልክት	-14643
▁ከየካቲት	-14644
▁ውስንነት	-14645
▁የተወሰዱ	-14646
እግዚአብሄር	-14647
▁ለመከታተል	-14648
▁እንደሚመጣ	-14649
▁ከተጠቀሱት	-14650
▁የሚደርሰው	-14651
▁በቁርጠኝነት	-14652
▁ዳይሬክተሮች	-14653
ሊዮ	-14654
ሩክ	-14655
ገልፀ	-14656
▁ቆስ	-14657
▁በያ	-14658
▁ወጭ	-14659
ስብሰባ	-14660
በተለይ	-14661
ከራከር	-14662
▁3-1	-14663
▁መጣል	-14664
▁ሰይፍ	-14665
▁ሲመራ	-14666
▁በበር	-14667
▁ተረፈ	-14668
▁እለተ	-14669
▁የሱፍ	-14670
▁መምርያ	-14671
▁በሰራው	-14672
▁በስኬት	-14673
▁ከአንዱ	-14674
▁የሚጎዳ	-14675
▁ለሀገሪቱ	-14676
▁መነቃቃት	-14677
▁አከባበር	-14678
▁አዲግራት	-14679
▁የአለምን	-14680
▁የእውቅና	-14681
▁የግብአት	-14682
▁ይታሰባል	-14683
▁ተዘጋጅቷል	-14684
▁ተፈናቅለው	-14685
▁እንዳይገባ	-14686
▁ፓርቲዎችን	-14687
▁ጥያቄያቸውን	-14688
▁ኢንዱስትሪውን	-14689
ዘዘ	-14690
ደታ	-14691
አትር	-14692
▁ልሂ	-14693
ያችንን	-14694
ዮቻቸው	-14695
▁ለትር	-14696
▁ሙፍቲ	-14697
▁ኦፕሬ	-14698
▁ወጪን	-14699
▁የኦሮ	-14700
▁ፈሳሽ	-14701
▁ሀገርን	-14702
▁በመጓዝ	-14703
▁ቢችልም	-14704
▁ትርፋማ	-14705
▁አልባሳ	-14706
▁ወቅቶች	-14707
▁ያለችው	-14708
▁ግጥሚያ	-14709
▁ስለሚሆን	-14710
▁አያይዘው	-14711
▁አጋጣሚዎችን	-14712
ak	-14713
se	-14714
ዛዊ	-14715
ጩት	-14716
ፖች	-14717
ባበል	-14718
ወርዱ	-14719
ፀያፊ	-14720
▁አዶ	-14721
▁ኮሜ	-14722
▁ከጅማ	-14723
▁ይኼው	-14724
▁ግብፃ	-14725
ስተካከሉ	-14726
▁አባዱላ	-14727
▁ይቀራሉ	-14728
▁በሚሰጠው	-14729
▁አካላትና	-14730
▁የተጨማሪ	-14731
▁የጥንቃቄ	-14732
ሶማሊ	-14733
ተሪያ	-14734
ፍራሽ	-14735
▁ስቶ	-14736
▁ካፕ	-14737
▁ገቡ	-14738
ሆናችን	-14739
▁በዋስ	-14740
▁ወልድ	-14741
▁በተስፋ	-14742
▁አስረኛ	-14743
▁ከተያዘ	-14744
▁የደስታ	-14745
▁በአእምሮ	-14746
▁ከበሽታው	-14747
▁ወገኖችን	-14748
▁ፍላጎትን	-14749
▁በመመሳጠር	-14750
▁እንዲጀመር	-14751
▁የሚችሉበትን	-14752
፰፻	-14753
▁79	-14754
▁ናፍ	-14755
ሪዎችና	-14756
▁ሊገኝ	-14757
▁በብቸ	-14758
▁በእድ	-14759
▁በካይ	-14760
▁ትናገ	-14761
▁ውሏል	-14762
▁ለመማር	-14763
▁ተከፋፍ	-14764
▁ተፈቅዶ	-14765
▁ብሪታንያ	-14766
▁ተደርሷል	-14767
▁እድገትን	-14768
▁የህብረት	-14769
▁የሶስተኛ	-14770
▁እየተካሄዱ	-14771
▁የሚችሉትን	-14772
▁የማመንጨት	-14773
▁ፕሬዘዳንት	-14774
▁መስጠታቸውን	-14775
▁ማሻሻያዎችን	-14776
▁አለመሆናቸውን	-14777
ሊሙ	-14778
ዝድ	-14779
▁ያድ	-14780
____	-14781
ችርቻሮ	-14782
▁በወጪ	-14783
▁ብረታ	-14784
▁አድዋ	-14785
▁የተቆ	-14786
▁ያሳድ	-14787
▁ያነሱ	-14788
▁አውቶሞ	-14789
▁ዘንድ፣	-14790
▁የሚሰነ	-14791
▁መንገድን	-14792
▁በጠንካራ	-14793
▁እነዚያን	-14794
▁እንዲውሉ	-14795
▁በተመለከተ፣	-14796
ቦ፣	-14797
ደነ	-14798
ጂን	-14799
መክት	-14800
ይሆዋ	-14801
▁99	-14802
▁መጉ	-14803
▁ቆጣ	-14804
▁ያየ	-14805
ለዋወጥ	-14806
▁መስጊ	-14807
▁በጨረ	-14808
▁ተፈታ	-14809
▁አብቅ	-14810
▁የራቀ	-14811
▁ፃድቅ	-14812
ነጋገሪያ	-14813
ክርስቶስ	-14814
▁አሳታፊ	-14815
▁ካልሆኑ	-14816
▁ካርዶች	-14817
▁የታሰበ	-14818
▁የእኛን	-14819
▁ኢኮኖሚክ	-14820
▁የኢፌዲሪ	-14821
▁የዘገበው	-14822
▁ወታደሮችን	-14823
▁የተባሉትን	-14824
▁የእንቅስቃሴ	-14825
ለአ	-14826
ዋሽ	-14827
▁ኛ	-14828
ሰቀሰ	-14829
ኒዚያ	-14830
▁69	-14831
▁ሀረግ	-14832
▁ማገገ	-14833
▁በሸራ	-14834
▁ተቋራ	-14835
ደርሳቸው	-14836
▁ተካፋይ	-14837
▁ተጨዋች	-14838
▁የታክሲ	-14839
▁ጳጉሜን	-14840
▁ቢሆንም፤	-14841
▁አሸንፈው	-14842
▁እውቀትና	-14843
▁የሚስተዋሉ	-14844
▁የሚቻልበት	-14845
▁ያልተለመደ	-14846
▁ግንኙነትን	-14847
▁ኢትዮጵያውያንና	-14848
ልፌ	-14849
ሚስ	-14850
ዶር	-14851
ስማን	-14852
▁ለማም	-14853
▁ተቀን	-14854
▁ይሳተ	-14855
▁ሏላዊው	-14856
▁አቋቋም	-14857
▁አዋጅን	-14858
▁እባክህ	-14859
▁የቆሻሻ	-14860
▁መዘርጋት	-14861
▁እውነትን	-14862
▁ሰራተኞችና	-14863
▁በመገምገም	-14864
▁በንግግራቸው	-14865
▁እንደሚጠናቀቅ	-14866
ሀዱ	-14867
ኩ፣	-14868
▁ፈሪ	-14869
በአሁኑ	-14870
▁እያሱ	-14871
▁ከሰል	-14872
▁ዜጐች	-14873
▁የሞተር	-14874
▁ማስተላለ	-14875
▁ታውቃለህ	-14876
▁የሁሉንም	-14877
▁ድህነትን	-14878
▁ግልጋሎት	-14879
▁ተስተካካይ	-14880
▁ድርጊቶችን	-14881
▁የእስራኤልን	-14882
ሚዝ	-14883
ቀብ	-14884
ዳብ	-14885
250	-14886
ፃቸው	-14887
ሬሽኑን	-14888
ጓቸውን	-14889
▁በሰይ	-14890
▁ተደብ	-14891
▁አንጀ	-14892
▁ከተጋ	-14893
▁የተጨ	-14894
ቆጣጠረው	-14895
▁ወልድያ	-14896
▁ለማዘመን	-14897
▁የታሰበው	-14898
▁መደረጉንም	-14899
▁ቴክኖሎጂን	-14900
▁የክርስቶስ	-14901
▁እንደተፈፀመ	-14902
▁እንዲጠናከር	-14903
ሀጉ	-14904
ህራ	-14905
ንዲ	-14906
ለችም	-14907
ቀደም	-14908
ታውስ	-14909
ከሉት	-14910
ክላል	-14911
ደውሉ	-14912
▁ቀዬ	-14913
▁ኦሊ	-14914
▁አየሁ	-14915
▁የቁም	-14916
▁ያረፈ	-14917
▁ይዞት	-14918
▁ፕሮፖ	-14919
▁1000	-14920
▁ምክኒያ	-14921
▁ካርቱም	-14922
▁ክፍያው	-14923
▁ያለው፣	-14924
▁ሀዋሳዎች	-14925
▁በስልጠና	-14926
▁በእጩነት	-14927
▁ነፃነትን	-14928
▁አለመሆን	-14929
▁ያስተናግ	-14930
▁ለማስተማር	-14931
▁መከላከያን	-14932
▁በምሳሌነት	-14933
▁በቴሌቪዥን	-14934
▁እንደሚጠቁ	-14935
ሉልታ	-14936
ላኩት	-14937
ቃዋሚ	-14938
ደገፉ	-14939
ገፆች	-14940
▁ማጉ	-14941
ቆጠሩት	-14942
▁ምድረ	-14943
▁በአፄ	-14944
▁ከአቅ	-14945
▁መገኘቱ	-14946
▁አጥነት	-14947
▁ከሆነም	-14948
▁ደንብና	-14949
▁ግርማይ	-14950
▁የወጣበት	-14951
▁ያለፈውን	-14952
▁በፈቃደኝነት	-14953
▁አካባቢዎችን	-14954
▁ፋብሪካዎችን	-14955
ኖን	-14956
▁l	-14957
ቀበለ	-14958
▁ሲኒ	-14959
▁ሻም	-14960
▁በሚፈ	-14961
▁ባልቻ	-14962
▁አተር	-14963
▁ፅድቅ	-14964
▁አረቦን	-14965
▁አስተሳ	-14966
▁ስላልሆነ	-14967
▁አስተባብ	-14968
▁አነጋጋሪ	-14969
▁የውይይቱ	-14970
▁መሰብሰቡን	-14971
▁በመቀናጀት	-14972
▁በክርስቶስ	-14973
▁ትምህርቱን	-14974
▁አልነበሩም	-14975
▁እንዳይፈጠር	-14976
▁ቴክኖሎጂዎችን	-14977
▁እንደሚኖርበት	-14978
▁እንዲፈቀድለት	-14979
መሙ	-14980
ዴታ	-14981
ቻልን	-14982
▁ታጥ	-14983
ሯቸዋል	-14984
▁በቆሎ	-14985
▁ተጠል	-14986
▁እኩይ	-14987
▁ከወጪ	-14988
▁ኪዩብ	-14989
▁ሲጀምሩ	-14990
▁ዘመኑን	-14991
▁የእነሱ	-14992
▁ዳግማዊ	-14993
▁ለጨዋታው	-14994
▁በብዙዎች	-14995
▁ባንኮችን	-14996
▁ከራሳቸው	-14997
▁ውቅያኖስ	-14998
▁የዘላለም	-14999
▁ወልዋሎዎች	-15000
▁እንደሚቀርብ	-15001
▁የኤክስፖርት	-15002
ሸረ	-15003
ሺፕ	-15004
ኩራ	-15005
ዥያ	-15006
ከባከ	-15007
▁ዶላ	-15008
▁ከምድ	-15009
▁ከአር	-15010
▁2004	-15011
▁ሊፈጥር	-15012
▁ቀይረው	-15013
▁እያገኙ	-15014
▁የሰውን	-15015
▁ይሆዋን	-15016
▁ደቡባዊ	-15017
▁የሚያምር	-15018
▁የሰለጠነ	-15019
▁እናቀርባለን	-15020
▁እንዲያገለግሉ	-15021
ላድ	-15022
ክሬ	-15023
ዚዝ	-15024
ፀል	-15025
▁ግባ	-15026
----	-15027
ፈልጉት	-15028
▁ሲመሩ	-15029
▁አገዳ	-15030
ሺንግተን	-15031
▁መቅረቡ	-15032
▁መተላለ	-15033
▁ማድረጓ	-15034
▁በቦርድ	-15035
▁ብርሀኔ	-15036
▁የምታስ	-15037
▁ፍትህና	-15038
▁በመተከል	-15039
▁ከተባለው	-15040
▁የበለፀገ	-15041
▁የያዘውን	-15042
▁ገብርኤል	-15043
▁መግባታቸው	-15044
▁እንዲጠበቅ	-15045
▁የተከናወነ	-15046
▁የአቅርቦት	-15047
▁በማድረጋቸው	-15048
▁የሚያመለክት	-15049
▁ያስፈልጋቸዋል	-15050
ቀሱ	-15051
ዛቱ	-15052
ዊያው	-15053
▁እደ	-15054
▁የእቃ	-15055
▁ይበሉ	-15056
▁ይችሉ	-15057
ገጥማቸው	-15058
▁በተነሳ	-15059
▁ከመግባ	-15060
▁ክርስቶ	-15061
▁ፌደራል	-15062
▁ተምሳሌት	-15063
▁አንፃር፣	-15064
▁ከጎረቤት	-15065
▁ካደረጉት	-15066
▁የመሳሪያ	-15067
▁የኦህዴድ	-15068
▁ይቀንሳል	-15069
▁ደረጃዎችን	-15070
▁ድርጅቶች፣	-15071
▁እንዳልነበረ	-15072
▁እንደነበራቸው	-15073
▁እንዳስታወቀው፣	-15074
ቃጠ	-15075
ዶኔ	-15076
ዶክ	-15077
ቁበት	-15078
ባረብ	-15079
ገገም	-15080
▁ሳራ	-15081
ጠይቀው	-15082
▁ከተሰ	-15083
▁የሰሩ	-15084
▁ይሰሩ	-15085
40/60	-15086
▁ሪከርድ	-15087
▁በተሞላ	-15088
▁ባልሆኑ	-15089
▁አስበው	-15090
▁በአመዛኙ	-15091
▁የመጠበቅ	-15092
▁የእረፍት	-15093
▁ሀላፊዎችን	-15094
ሰሉ	-15095
ሸጠ	-15096
ጋቱ	-15097
ጀሪያ	-15098
▁ቁል	-15099
▁አጃ	-15100
በረታቱ	-15101
በረክት	-15102
ዳንኤል	-15103
▁ከውጪ	-15104
▁ወሰኑ	-15105
▁ውሉን	-15106
▁የእቅ	-15107
▁ሲደረጉ	-15108
▁በቪዲዮ	-15109
▁አገሪቷ	-15110
▁እውነቱ	-15111
▁የመስክ	-15112
▁የሚጣል	-15113
▁ጥበቃና	-15114
▁ፖሊስና	-15115
▁ስለነበሩ	-15116
▁አስፀያፊ	-15117
▁የታቀደው	-15118
▁የነበሩና	-15119
▁እንገኛለን	-15120
▁ያለማቋረጥ	-15121
▁እንደሚቻለው	-15122
ሸሸ	-15123
ማችሁ	-15124
ዲናዋ	-15125
▁2,	-15126
▁ለቁ	-15127
▁ኩማ	-15128
▁ይጎ	-15129
▁ሊታይ	-15130
▁ርኩስ	-15131
▁ቅኝት	-15132
▁ተሸክ	-15133
▁ደረጄ	-15134
▁ገቢያ	-15135
▁ባለቤቱ	-15136
▁ተላልፎ	-15137
▁አስችሎ	-15138
▁ከአየር	-15139
▁የለንም	-15140
▁ገበያን	-15141
▁በሆነችው	-15142
▁የሚያሳስ	-15143
▁በማደራጀት	-15144
▁እየተፈጠረ	-15145
▁የኮንትራት	-15146
▁እንዲከናወን	-15147
▁የሚያቀርበው	-15148
▁እግዚአብሄርም	-15149
▁ለኢትዮጵያውያን	-15150
ማኔ	-15151
ኮሳ	-15152
▁n	-15153
est	-15154
ቅናት	-15155
ተመድ	-15156
ዚዮን	-15157
▁ተዘ	-15158
ምባብዌ	-15159
ንጋፖር	-15160
ፋሪዎች	-15161
▁በረዶ	-15162
▁ቦርሳ	-15163
▁አርክ	-15164
▁ጡረታ	-15165
ናቸውንም	-15166
▁ሁለገብ	-15167
▁ህዝብም	-15168
▁እየወጡ	-15169
▁የሰራው	-15170
▁የወደብ	-15171
▁ማእድናት	-15172
▁ይገለፃል	-15173
▁ገበያዎች	-15174
▁መረጋገጡን	-15175
▁ተጠቃሚነትን	-15176
▁የዩኒቨርሲቲው	-15177
ፅፍ	-15178
ሊንጦ	-15179
ሲያን	-15180
▁ለሆ	-15181
▁ማሸ	-15182
ኳንንት	-15183
▁ከወል	-15184
▁የስብ	-15185
▁የኖሩ	-15186
▁የአራ	-15187
▁ያስደ	-15188
▁ጋር፣	-15189
▁ጠቋሚ	-15190
▁ፍጥረ	-15191
▁ብላችሁ	-15192
▁የካናዳ	-15193
▁የመመለስ	-15194
▁ይመክራሉ	-15195
▁በኮንስትራክሽን	-15196
57	-15197
ራኔ	-15198
አቀ	-15199
ፋሮ	-15200
ታውቅ	-15201
▁ለኪ	-15202
▁በጄ	-15203
▁ተኝ	-15204
ነርሱም	-15205
▁ሆነች	-15206
▁ሊገባ	-15207
▁ላለማ	-15208
▁መሀሪ	-15209
▁ባለፀ	-15210
▁መብላት	-15211
▁መጠንና	-15212
▁መፈጠር	-15213
▁በምድረ	-15214
▁አሸንፈ	-15215
▁ስፖርቶች	-15216
▁በማክበር	-15217
▁ተካተዋል	-15218
▁የሚፈጥሩ	-15219
▁ያካሄደው	-15220
▁ለማድረግም	-15221
▁አይመስለኝ	-15222
▁የሚንቀሳቀስ	-15223
▁የሚደርሰውን	-15224
አህ	-15225
ጥ፣	-15226
▁፻	-15227
ሀገር	-15228
ሳለን	-15229
▁ወሳ	-15230
▁ዘፈ	-15231
ከራቸው	-15232
▁ለህገ	-15233
▁ለማይ	-15234
▁ማስወ	-15235
▁ተቀር	-15236
▁አደሩን	-15237
▁ጉዳይ፣	-15238
▁ቢሆኑም፣	-15239
▁ተዋጊዎች	-15240
▁ኦፕሬሽን	-15241
▁የመብራት	-15242
▁እንደምንም	-15243
▁መጠየቃቸውን	-15244
ቦላ	-15245
ኒንግ	-15246
▁ልእ	-15247
▁ዘብ	-15248
▁የዮ	-15249
ቆቻቸው	-15250
ደባቸው	-15251
▁ሜቴክ	-15252
▁ቀልብ	-15253
▁ተሻሽሎ	-15254
▁ችግር፣	-15255
▁ጥናት፣	-15256
▁ሲያስረዱ	-15257
▁ዝግጁነት	-15258
▁ለመከላከያ	-15259
▁ፕሮጀክቶቹ	-15260
▁የሚያበረታታ	-15261
▁የህብረተሰቡን	-15262
ቆሎ	-15263
ጢአ	-15264
ላሊት	-15265
ልቦና	-15266
ኖች፣	-15267
ፅዳት	-15268
▁መተማ	-15269
▁መጫወ	-15270
▁መፅና	-15271
▁ማሸነ	-15272
▁ቡና፣	-15273
▁አውጭ	-15274
▁ዝውው	-15275
ሚግሬሽን	-15276
▁ሀይሉን	-15277
▁መጋዘን	-15278
▁በእቅዱ	-15279
▁በፃፉት	-15280
▁ከአዳማ	-15281
▁ለማቆየት	-15282
▁በመምረጥ	-15283
▁በማካተት	-15284
▁ተጫውቷል	-15285
▁አነጋገር	-15286
▁ከአምናው	-15287
▁የሚገናኙ	-15288
▁የተፋሰሱ	-15289
▁ይጠቅሳል	-15290
▁ለማስቀመጥ	-15291
▁መቀመጫውን	-15292
▁ቢያደርጉም	-15293
▁ኤግዚቢሽን	-15294
▁የዲሲፕሊን	-15295
▁ፓርቲያቸው	-15296
ፌት	-15297
ባትም	-15298
ፈነው	-15299
▁በጃ	-15300
▁የጤ	-15301
▁፣የ	-15302
▁ለሆነ	-15303
▁ምረቃ	-15304
▁ምቾት	-15305
▁አንበ	-15306
▁ያለቀ	-15307
▁ደጀኔ	-15308
▁ሂደትን	-15309
▁ለፖሊስ	-15310
▁በሚያሳ	-15311
▁ተለያዩ	-15312
▁አቅምና	-15313
▁እንከን	-15314
▁ያለነው	-15315
▁ፖሊሲው	-15316
▁ለማቃለል	-15317
▁አንጋፋው	-15318
▁አካላትም	-15319
▁የሚጠቁም	-15320
▁ለማጎልበት	-15321
▁በደረሰበት	-15322
▁ማህበረሰቦች	-15323
▁የአትሌቲክስ	-15324
▁ኢንቨስትመንትን	-15325
ላጫ	-15326
ያማ	-15327
ary	-15328
ሙርት	-15329
▁ወጡ	-15330
▁ይለ	-15331
ገኛቸው	-15332
▁መዋል	-15333
▁እያየ	-15334
▁ከባቢ	-15335
▁ኳታር	-15336
▁ፈልጎ	-15337
▁ፈራሚ	-15338
▁ሊያመጣ	-15339
▁ስምኦን	-15340
▁እፅዋት	-15341
▁ከሶማሌ	-15342
▁መቀላቀል	-15343
▁ስለሚችሉ	-15344
▁አፈወርቅ	-15345
▁የሚያግዙ	-15346
▁የለባቸውም	-15347
▁የቴክኒክና	-15348
▁ለሀብረተሰቡ	-15349
▁እንደሚሰራም	-15350
▁የሚያቀርቡት	-15351
if	-15352
ቢስ	-15353
ተካ	-15354
በተን	-15355
ቻቻል	-15356
▁ሞቃ	-15357
▁ነፋ	-15358
ገጥመው	-15359
▁ለገሰ	-15360
▁በግቡ	-15361
▁አምላ	-15362
▁ከረጢ	-15363
▁ከፋይ	-15364
▁የተላ	-15365
▁ማይክል	-15366
▁በጥንት	-15367
▁አመርቂ	-15368
▁አይተው	-15369
▁ከመላው	-15370
▁የፌዴራ	-15371
▁የማውጣት	-15372
▁የተናገሩ	-15373
▁የሚከፈለው	-15374
▁ያረጋግጣል	-15375
▁ኢትዮጵያዊው	-15376
ዘነ	-15377
ሁለቱ	-15378
ሆዋን	-15379
ለህ፤	-15380
ልግና	-15381
መጡት	-15382
ድርና	-15383
ገቡም	-15384
▁3,	-15385
▁ማና	-15386
▁ቱሉ	-15387
▁ዛቻ	-15388
ሰረቱት	-15389
ስተዋለ	-15390
ችለውን	-15391
▁350	-15392
▁ሁነኛ	-15393
▁ሰለሞ	-15394
▁ስለታ	-15395
▁በአጋ	-15396
▁በአፅ	-15397
▁የፍራ	-15398
ገጠማቸው	-15399
▁ቁጥርም	-15400
▁እየሄደ	-15401
▁የምስራ	-15402
▁የደብረ	-15403
▁መታጠቢያ	-15404
▁መከናወን	-15405
▁በመካከላ	-15406
▁ተያይዘው	-15407
▁ትእይንት	-15408
▁አውታሮች	-15409
▁ድርጅትና	-15410
▁ማሀበራዊና	-15411
▁በመከታተል	-15412
▁ለተጠቃሚዎች	-15413
▁የተሰበሰበው	-15414
iz	-15415
ሚኒ	-15416
ሳነ	-15417
ይዩ	-15418
ጭን	-15419
ልሄም	-15420
ቆችን	-15421
ንስና	-15422
▁01	-15423
▁84	-15424
▁ሊወ	-15425
▁ቤል	-15426
▁ጫላ	-15427
ኖቻችን	-15428
ገበያው	-15429
▁በተሳ	-15430
▁ነቢዩ	-15431
▁አተኩ	-15432
▁አጣጥ	-15433
▁ፒተር	-15434
/2005	-15435
ከተላቸው	-15436
ዘውተሪያ	-15437
▁ሀብታም	-15438
▁ተመለሱ	-15439
▁ተወለደ	-15440
▁አክሱም	-15441
▁እየሰፋ	-15442
▁ከዘጠኝ	-15443
▁በቤታቸው	-15444
▁የሚከሰቱ	-15445
▁ጥናቶችን	-15446
▁ያስቀምጣል	-15447
▁ያሻገረውን	-15448
▁ግንኙነታቸውን	-15449
ሀና	-15450
ተሽ	-15451
ጠፍ	-15452
ዎትን	-15453
ጫዎች	-15454
▁ቅጥ	-15455
▁ኦሞ	-15456
▁ከጫ	-15457
▁ሊወጡ	-15458
▁አትር	-15459
▁ውረድ	-15460
▁ለመጓዝ	-15461
▁ሚስጥር	-15462
▁ተወያዩ	-15463
▁ችግርና	-15464
▁የተክሉ	-15465
▁በይበልጥ	-15466
▁አይነተኛ	-15467
▁የሚፈቅድ	-15468
▁የምስጋና	-15469
▁የባለሙያ	-15470
▁ለማነጋገር	-15471
▁ለማድረግ፣	-15472
▁በመወያየት	-15473
▁በባለቤትነት	-15474
▁የቀረበለትን	-15475
ቴጌ	-15476
ጠጋ	-15477
እቢያ	-15478
ዚሁም	-15479
ፋትን	-15480
▁ብረ	-15481
1998	-15482
▁ባህረ	-15483
▁ተሰራ	-15484
▁ያመነ	-15485
▁ይገነ	-15486
▁ጠየቁ	-15487
▁እነማን	-15488
▁ያትታል	-15489
▁በመግጨት	-15490
▁አወዛጋቢ	-15491
▁የተጠቃሚ	-15492
▁ፈረሰኞቹ	-15493
▁በተሰጣቸው	-15494
▁አቅርቦትን	-15495
▁እየተወሰደ	-15496
▁እንደተናገረው	-15497
ላቀለ	-15498
ላትም	-15499
መሰግ	-15500
ማለች	-15501
ቦቹን	-15502
ንስላ	-15503
▁በኔ	-15504
▁ባቡ	-15505
▁አነ	-15506
ቀርቡት	-15507
ጊዜውም	-15508
▁ለመው	-15509
▁ይባል	-15510
▁መሰረቱ	-15511
▁ሚልዮን	-15512
▁ቢቆይም	-15513
▁አቋርጦ	-15514
▁የዘጠኝ	-15515
▁የግሪክ	-15516
▁ሰብሳቢው	-15517
▁ተወስዷል	-15518
▁ታንዛኒያ	-15519
▁አስተባባ	-15520
▁ጢሞቴዎስ	-15521
▁አገራቸውን	-15522
▁የቀድሞውን	-15523
▁በባለስልጣኑ	-15524
▁ያስችላቸዋል	-15525
▁ያነጋገርናቸው	-15526
ኬሽ	-15527
ፉ፣	-15528
ine	-15529
▁86	-15530
▁ለዲ	-15531
▁መቋ	-15532
▁ጥን	-15533
ተርጎም	-15534
▁መሪው	-15535
▁አሉ፤	-15536
▁የመው	-15537
▁የሚዋ	-15538
▁ዳሽን	-15539
▁ለመጣል	-15540
▁መልቀቅ	-15541
▁ሶስቱም	-15542
▁በአማካ	-15543
▁ተዛማጅ	-15544
▁አስነብ	-15545
▁አፍሪቃ	-15546
▁ክሳቸው	-15547
▁የወጡት	-15548
▁ጀኔራል	-15549
▁መዛሙርት	-15550
▁በሆነበት	-15551
▁በመኖሪያ	-15552
▁ከባለፈው	-15553
▁በመመርመር	-15554
▁በገለልተኛ	-15555
▁ተመዝግበው	-15556
▁ንብረቶችን	-15557
▁አገልግሎትና	-15558
▁ባለስልጣናትን	-15559
ይሉ	-15560
ዞርት	-15561
ጠረው	-15562
▁ኩባ	-15563
ሳምንቱ	-15564
▁ክምች	-15565
▁የሚሹ	-15566
▁ሊወሰድ	-15567
▁በመቆም	-15568
▁ተመለሰ	-15569
▁ከሰሀራ	-15570
▁የሀብረቱ	-15571
▁ያሳስባሉ	-15572
▁ማስተዋወቅ	-15573
▁እውነተኛው	-15574
▁እየተጫወተ	-15575
▁አምባሳደሮች	-15576
▁እንደማይኖር	-15577
ህንፃ	-15578
ምጣቱ	-15579
ለምሳሌ	-15580
▁ስራ፣	-15581
▁በሰባ	-15582
▁አገባ	-15583
▁ኡሁሩ	-15584
▁የጠራ	-15585
ርስቲያን	-15586
ስተናግዱ	-15587
▁ለሌላው	-15588
▁ምክሮች	-15589
▁ቁጥሮች	-15590
▁በጥልቅ	-15591
▁ተክተው	-15592
▁ነገሩን	-15593
▁አላችሁ	-15594
▁አድርጐ	-15595
▁ከተቻለ	-15596
▁የጠበቁ	-15597
▁ገንብቶ	-15598
▁ለማዳበር	-15599
▁ቡድናችን	-15600
▁አለብዎት	-15601
▁ኤምሬትስ	-15602
▁እስከዛሬ	-15603
▁ለማስረዳት	-15604
▁በተጠቀሱት	-15605
▁ከመጀመርያው	-15606
▁እንደሚያመለክተው፣	-15607
ሪዳ	-15608
ዳቱ	-15609
መለካ	-15610
ደሚያ	-15611
-3-3	-15612
ምግልና	-15613
ክትሬት	-15614
▁መብቱ	-15615
▁በረከ	-15616
▁አሀጉ	-15617
▁አጣብ	-15618
▁ይነግ	-15619
▁ድቻን	-15620
▁መደንገ	-15621
▁መጠየቁ	-15622
▁ሳይችል	-15623
▁አድናቆ	-15624
▁በቀጣናው	-15625
▁እየገነባ	-15626
▁ከምርጫው	-15627
▁አብዱልፈታ	-15628
▁አተገባበር	-15629
▁የናይጄሪያ	-15630
▁መስማማታቸውን	-15631
ጋግ	-15632
ፋፋ	-15633
ፍሩ	-15634
ሌቶች	-15635
ርካቶ	-15636
▁ሩቅ	-15637
ችልም፤	-15638
▁በቃሉ	-15639
▁ብርና	-15640
▁ነው፡	-15641
▁ይሰጡ	-15642
▁ጭምብ	-15643
▁በችግር	-15644
▁እንዲዳ	-15645
▁ያደረሰ	-15646
▁ኮሚሽን፣	-15647
▁የተጋነነ	-15648
▁ለማስመለስ	-15649
▁በመጠባበቅ	-15650
▁ከፈረንሳይ	-15651
▁ወደሚገኘው	-15652
▁ዴሞክራሲን	-15653
ሊካ	-15654
ቆሮ	-15655
ቴሪያ	-15656
ዝማች	-15657
▁ቆም	-15658
▁ትብ	-15659
▁ዞሮ	-15660
▁የዴ	-15661
▁ይድ	-15662
▁ርካሽ	-15663
▁ሰላማ	-15664
▁ኤልሳ	-15665
▁የመመ	-15666
▁ጎደል	-15667
▁ሚድሮክ	-15668
▁ሲፈፀም	-15669
▁ነግረው	-15670
▁የመነሻ	-15671
▁የተሰና	-15672
▁የተገባ	-15673
▁ደሴቶች	-15674
▁ጀምሮ፣	-15675
▁ፋሲሎች	-15676
▁ሲገባቸው	-15677
▁በሸራተን	-15678
▁በቢሾፍቱ	-15679
▁በንፁሀን	-15680
▁በእጃቸው	-15681
▁የሪፎርም	-15682
▁መፍትሄዎች	-15683
▁ትምህርትና	-15684
▁አማካሪዎች	-15685
▁የመገንባት	-15686
▁ያልተጠበቀ	-15687
▁ቴክኖሎጂዎች	-15688
ሬ፣	-15689
▁ሾፌ	-15690
▁ዳም	-15691
▁ጎድ	-15692
▁ፊን	-15693
▁ሀላባ	-15694
▁ሰቅል	-15695
▁የአሰ	-15696
ኮትላንድ	-15697
▁ሙዚየም	-15698
▁እህቶች	-15699
▁እለታዊ	-15700
▁ድፍረት	-15701
▁አመራርና	-15702
▁አስችሏል	-15703
▁እንደሚወ	-15704
▁በሚቻልበት	-15705
▁የብሪታንያ	-15706
▁መገኘታቸውን	-15707
▁አውስትራሊያ	-15708
▁እንዳልተቻለ	-15709
▁ከፕሬዚዳንት	-15710
**	-15711
ካፍ	-15712
ዷን	-15713
ፃህ	-15714
ሁበት	-15715
ሊበላ	-15716
ረኛው	-15717
ሪካዊ	-15718
ቻሉት	-15719
▁ሀዲ	-15720
▁ተላ	-15721
▁የጁ	-15722
ሞክርም	-15723
ከፋፈያ	-15724
ገመገመ	-15725
▁ቡናው	-15726
▁ናይሮ	-15727
▁አሉን	-15728
▁ከቆየ	-15729
▁የወር	-15730
▁ይሰበ	-15731
▁ሊያገኙ	-15732
▁በሚሆኑ	-15733
▁አምበል	-15734
▁አይደል	-15735
▁የሆነች	-15736
▁የቦምብ	-15737
▁የዘይት	-15738
▁ጀመርኩ	-15739
▁ገዢዎች	-15740
▁አስመላሽ	-15741
▁አጎራባች	-15742
▁እንደገባ	-15743
▁የችግሩን	-15744
▁ላልተወሰነ	-15745
▁ስልጠናዎች	-15746
▁እንዳለውም	-15747
▁ያስከትላል	-15748
▁ባለመሆናቸው	-15749
▁ተፈራርመዋል	-15750
▁እንደሚከናወን	-15751
ቆጭ	-15752
ደሉ	-15753
ሀዋሳ	-15754
ጥታለች	-15755
▁ሳለ፣	-15756
▁አልሚ	-15757
▁አባባ	-15758
▁አካቶ	-15759
▁ወሰደ	-15760
▁ወከፍ	-15761
▁ወዴት	-15762
▁ዲባባ	-15763
ስተካከለ	-15764
▁ለቀጣዩ	-15765
▁ልማታዊ	-15766
▁ስደተኛ	-15767
▁በተመድ	-15768
▁አይቀሬ	-15769
▁እስከማ	-15770
▁ከገበያ	-15771
▁ኦሎምፒክ	-15772
▁ከሚባሉት	-15773
▁ድንጋዮች	-15774
▁በፓርላማው	-15775
▁ትናገራለች	-15776
▁የሚከተለው	-15777
▁የቤኒሻንጉል	-15778
ስጋ	-15779
እር	-15780
ኪኪ	-15781
ልግል	-15782
መረቀ	-15783
ባህር	-15784
▁ታን	-15785
▁አዜ	-15786
▁ዳታ	-15787
ነጋገረ	-15788
▁ሙጂብ	-15789
▁ምንኛ	-15790
▁ሶሪያ	-15791
▁ቅንጅ	-15792
▁ቅጣቱ	-15793
▁ካይሮ	-15794
▁ጩኸት	-15795
ጠናቀዋል	-15796
▁ሲያብራ	-15797
▁ውድነት	-15798
▁የዳኞች	-15799
▁ይመጣሉ	-15800
▁በማስፋት	-15801
▁ችግሮቹን	-15802
▁የተፃፈው	-15803
▁ለማረጋጋት	-15804
▁ንግግራቸው	-15805
▁የሚመጣውን	-15806
▁ኤርትራውያን	-15807
▁ፍላጎታቸውን	-15808
ሂብ	-15809
▁ሀቅ	-15810
▁ማጨ	-15811
▁ተጋላ	-15812
▁አቀና	-15813
▁የአፄ	-15814
▁የጠፋ	-15815
ሳተላይት	-15816
▁አድናቂ	-15817
▁ከሳኡዲ	-15818
▁ፓርቲን	-15819
▁ፖሊሲና	-15820
▁መነሻነት	-15821
▁ቆይታለች	-15822
▁በኮሚሽኑ	-15823
▁በዙሪያው	-15824
▁አሰራርና	-15825
▁ኢየሱስም	-15826
▁እስላማዊ	-15827
▁እንደምና	-15828
▁ካሌንዳር	-15829
▁ካልተቻለ	-15830
▁የተከሰተ	-15831
▁ደደቢቶች	-15832
▁የተመለሰው	-15833
▁ይከናወናል	-15834
▁ፕሬዚዳንቶች	-15835
▁የሚጠበቅበትን	-15836
53	-15837
ረኝ	-15838
ሳድ	-15839
ታሪ	-15840
ኑስ	-15841
all	-15842
ደበው	-15843
▁ራም	-15844
▁ጃፓ	-15845
▁ሳኦል	-15846
▁ከአይ	-15847
▁ክንፍ	-15848
▁ገዝቶ	-15849
ጋጠማቸው	-15850
▁ሀረርጌ	-15851
▁በባቡር	-15852
▁በጠበቀ	-15853
▁ባለፈ፣	-15854
▁ቸርነት	-15855
▁የሚመሰ	-15856
▁ከድርጅቱ	-15857
▁ከፌደራል	-15858
▁የፀደቀው	-15859
▁ለፓርላማው	-15860
▁ማብራሪያ፣	-15861
▁በአባልነት	-15862
▁እየተጠበቀ	-15863
▁የግንኙነት	-15864
▁የተጠናቀቀው	-15865
ፊክ	-15866
መደቡ	-15867
ታውም	-15868
▁77	-15869
▁ለዝ	-15870
▁ጫኔ	-15871
ታችንም	-15872
ቸውንም	-15873
▁በክር	-15874
▁አንገ	-15875
▁ከጓደ	-15876
▁ውጫዊ	-15877
▁ዙፋን	-15878
▁ማእከላ	-15879
▁ማዘጋጃ	-15880
▁ናይሮቢ	-15881
▁አስፈር	-15882
▁ወንጌል	-15883
▁ወጥነት	-15884
▁በአቅራቢ	-15885
▁ከድሬዳዋ	-15886
▁የምስረታ	-15887
▁ፍጥረታት	-15888
▁ማሰባሰቢያ	-15889
▁ከክርስቶስ	-15890
▁ወንድማማች	-15891
ቶቼ	-15892
ፍተ	-15893
▁x	-15894
ራለሁ	-15895
ደበት	-15896
▁ያዩ	-15897
▁ጎማ	-15898
▁ቅመም	-15899
▁እየመ	-15900
▁ከመካ	-15901
▁ውሀው	-15902
▁ድራማ	-15903
▁ገጥሞ	-15904
▁ግምጃ	-15905
▁ጳጳስ	-15906
▁ልጃገረ	-15907
▁ማቀዱን	-15908
▁በማዋል	-15909
▁በቋንቋ	-15910
▁አሸብር	-15911
▁ወዳለው	-15912
▁የቀሩት	-15913
▁የአዋሽ	-15914
▁ጠላቶች	-15915
▁ለሁለቱም	-15916
▁መርሆዎች	-15917
▁ስልጠናው	-15918
▁በአማራና	-15919
▁ተመዝግቦ	-15920
▁አህጉራዊ	-15921
▁ወይዘሪት	-15922
▁ገንዘብና	-15923
▁ተሰብስበው	-15924
▁እውነታዎች	-15925
▁የከተማውን	-15926
▁በማስተናገድ	-15927
▁ፕሮግራሞችን	-15928
ሲካ	-15929
ቻርድ	-15930
ግቷል	-15931
▁71	-15932
▁76	-15933
▁ሰጡ	-15934
▁ከቶ	-15935
▁ጎጂ	-15936
ብራዚል	-15937
▁1.3	-15938
▁ሰልፉ	-15939
▁ቀደሙ	-15940
▁ዲኤታ	-15941
▁መሰጠት	-15942
▁ማግኘቱ	-15943
▁ርክክብ	-15944
▁ስሜታዊ	-15945
▁በዋናው	-15946
▁በጭራሽ	-15947
▁አስተው	-15948
▁አዘገጃ	-15949
▁የጥቁር	-15950
▁መቐለዎች	-15951
▁በመገኘቱ	-15952
▁በአደጋው	-15953
▁አምነስቲ	-15954
▁አካባቢን	-15955
▁የሽልማት	-15956
▁ዲቪዚዮን	-15957
▁መቻላቸውን	-15958
▁ተጠናክረው	-15959
▁እንዳሉት፤	-15960
▁የሚወስደው	-15961
▁የሚገኙበት	-15962
▁እንደሚያገኙ	-15963
ማህ	-15964
ቀጠ	-15965
ኑሮ	-15966
ኙት	-15967
▁a	-15968
!!!	-15969
ብንን	-15970
▁አሜ	-15971
ንስቲት	-15972
▁በካር	-15973
▁በፍር	-15974
▁ንስሀ	-15975
▁የፎቶ	-15976
▁ጥገኛ	-15977
▁ፕረዚ	-15978
ኖቬሽንና	-15979
▁ለቦርዱ	-15980
▁ለጥያቄ	-15981
▁መለያየ	-15982
▁ተባብሮ	-15983
▁እየተን	-15984
▁ለመቅረብ	-15985
▁በለንደን	-15986
▁በተቀናጀ	-15987
▁አጠናቀው	-15988
▁ዘንድሮም	-15989
▁ያስገነዝ	-15990
▁ይገንዘቡ	-15991
▁ይጠይቃሉ	-15992
▁ጥገኝነት	-15993
▁ለመገናኘት	-15994
▁በመስጠት፣	-15995
▁በማስተማር	-15996
▁አምስተኛው	-15997
▁አስቆጥረዋል	-15998
▁እንደሚሉት፤	-15999
▁የሚሳተፉበት	-16000
ሰማኮ	-16001
▁ሎዛ	-16002
መስቀል	-16003
▁ማክስ	-16004
▁ከዛም	-16005
▁የሙሉ	-16006
▁የታጀ	-16007
▁የኤል	-16008
▁የዩኒ	-16009
ጀመራቸው	-16010
ጋኒስታን	-16011
▁ለውጥን	-16012
▁መወሰድ	-16013
▁መዋእል	-16014
▁ሜክሲኮ	-16015
▁በሶሪያ	-16016
▁በተሰራ	-16017
▁በንጉሱ	-16018
▁አስከሬ	-16019
▁የሲቪክ	-16020
▁መቀዛቀዝ	-16021
▁መዘጋጀት	-16022
▁እንዲረዳ	-16023
▁እንዳይሆኑ	-16024
ወይ	-16025
ይሩ	-16026
ጋብ	-16027
ታደስ	-16028
ዳደሩ	-16029
▁6.	-16030
▁ባነሰ	-16031
▁ትዝታ	-16032
▁አማን	-16033
▁አውድ	-16034
▁እመር	-16035
▁ያሰባ	-16036
▁ያሳው	-16037
▁ይቆጠ	-16038
▁ይከፈ	-16039
▁ለደቡብ	-16040
▁ልጃቸው	-16041
▁ሙስናን	-16042
▁በችሎት	-16043
▁በፖሊሲ	-16044
▁ተግባሩ	-16045
▁ከአስራ	-16046
▁ከዚያን	-16047
▁ያተኮሩ	-16048
▁ለመትከል	-16049
▁ማራዘሚያ	-16050
▁አቢሲኒያ	-16051
▁የተመለሱ	-16052
▁የተጣለው	-16053
▁የትውልድ	-16054
▁የነበራት	-16055
▁የፕሮጀክ	-16056
▁ይዞታዎች	-16057
▁ጉባኤዎች	-16058
▁ማረጋገጡን	-16059
▁አልቻልንም	-16060
▁እየተገነቡ	-16061
▁ከእንግሊዝ	-16062
▁የሚያስቀም	-16063
▁ፕሮፌሽናል	-16064
▁በጎርጎርያን	-16065
co	-16066
እት	-16067
ዲሳ	-16068
ንተው	-16069
ካፈሉ	-16070
ክሮች	-16071
ፅሀፉ	-16072
▁ሊሰ	-16073
▁ደዌ	-16074
ገጣጠም	-16075
▁180	-16076
▁ልማቱ	-16077
▁መታገ	-16078
▁ተደጋ	-16079
▁ትንን	-16080
▁ከመታ	-16081
▁የሚዳ	-16082
▁ይወድ	-16083
ከታተልና	-16084
ፈፀማቸው	-16085
▁በመስራ	-16086
▁አሳፋሪ	-16087
▁ክሬዲት	-16088
▁የተከሳ	-16089
▁የተዛባ	-16090
▁ጉዳይም	-16091
▁ፈፅሟል	-16092
▁ፖሊስን	-16093
▁መፈንቅለ	-16094
▁አስገድዶ	-16095
▁እንዲሄዱ	-16096
▁እጥረትና	-16097
▁የማጣሪያ	-16098
▁የደንበኞች	-16099
ሮቢ	-16100
ናፈ	-16101
ሳውቅ	-16102
አይቪ	-16103
ቸዋለን	-16104
ደረገም	-16105
ጦርነት	-16106
▁ሰላጤ	-16107
▁ቀለል	-16108
▁ካህኑ	-16109
▁ክንፈ	-16110
▁ፈገግ	-16111
/2001	-16112
▁መቆጠብ	-16113
▁ማገልገ	-16114
▁ተሳክቶ	-16115
▁አበይት	-16116
▁ወቅቱን	-16117
▁ጀምረው	-16118
▁በማጥቃት	-16119
▁በእውቀት	-16120
▁በወንዶች	-16121
▁አይነቱን	-16122
▁እየታወቀ	-16123
▁ለመመርመር	-16124
▁ተከናውኗል	-16125
▁እንደሚቀጥሉ	-16126
▁ከህብረተሰቡ	-16127
ሌ፣	-16128
ረመ	-16129
ንሱ	-16130
ዘኛ	-16131
ዬ፣	-16132
ህደት	-16133
ለት፣	-16134
ሳቁስ	-16135
ቀንስ	-16136
▁በጫ	-16137
▁የዚ	-16138
ርተዋል	-16139
▁በመረ	-16140
▁አዝና	-16141
▁ከቦታ	-16142
▁ካለፈ	-16143
▁ሱዳን፣	-16144
▁አለብህ	-16145
▁መሀመድ፣	-16146
▁በባንኮች	-16147
▁አመታቸው	-16148
▁ከመደበኛ	-16149
▁የትራንስ	-16150
▁ይጫወታል	-16151
▁ድርጅቱን	-16152
▁በመቀላቀል	-16153
▁ተመልካቾች	-16154
▁የፓርላማው	-16155
▁ሊቀመንበርና	-16156
▁በማስተዋወቅ	-16157
▁ተጠያቂነትን	-16158
▁የሚያመላክት	-16159
ሶም	-16160
ብቃ	-16161
ለው፣	-16162
ሩንና	-16163
ሰረዙ	-16164
ንቀቅ	-16165
የመው	-16166
ፋዮች	-16167
▁ሀት	-16168
▁ሰፈ	-16169
▁ከሸ	-16170
▁ጋና	-16171
ረስላሴ	-16172
ስተዳደ	-16173
▁ነውም	-16174
▁እርባ	-16175
▁ከቆዩ	-16176
▁ግእዝ	-16177
▁ፕሮጄ	-16178
▁ለሚኖሩ	-16179
▁መስርቶ	-16180
▁ሲጫወቱ	-16181
▁ስለምን	-16182
▁በበኩሏ	-16183
▁በተሰጠ	-16184
▁በወጣት	-16185
▁እየገፋ	-16186
▁ከቀረቡ	-16187
▁የሚገር	-16188
▁የቀለም	-16189
▁ይመለከ	-16190
ከናወናቸው	-16191
▁ሀገራትን	-16192
▁መጠቀሚያ	-16193
▁ያካትታሉ	-16194
▁በየሳምንቱ	-16195
▁አቅጣጫዎችን	-16196
▁እንደሚገልፁ	-16197
ንኮ	-16198
ገሬ	-16199
▁g	-16200
ኸሪያ	-16201
ድረጉ	-16202
▁61	-16203
▁መፀ	-16204
▁ቅቤ	-16205
▁ትጥ	-16206
መሳሰል	-16207
▁ይገደ	-16208
▁ማጣቀሻ	-16209
▁ሰማያት	-16210
▁ሲሞክር	-16211
▁የአፍና	-16212
▁በማስመሰል	-16213
▁እንደሚሄድ	-16214
▁ያገለግላል	-16215
እሰ	-16216
ርቷል	-16217
ባቱን	-16218
ከባለ	-16219
ደነግ	-16220
▁መታወ	-16221
▁ማስኬ	-16222
▁በሚሉ	-16223
▁አኩሪ	-16224
▁የዋሉ	-16225
▁ባቢሎን	-16226
▁አባወራ	-16227
▁የዋንጫ	-16228
▁የጥርስ	-16229
▁ሁልጊዜም	-16230
▁አላቸው፦	-16231
▁እንደውም	-16232
▁ያሻማውን	-16233
▁በተፈፀመው	-16234
▁አስተዳደግ	-16235
▁ዝግጅቶችን	-16236
▁አስተዳዳሪዎች	-16237
art	-16238
ልቀው	-16239
ራት፣	-16240
ሰብን	-16241
ብኝት	-16242
ኖችና	-16243
ክሯል	-16244
ክብት	-16245
▁ራማ	-16246
▁ራሴ	-16247
▁ሱዳ	-16248
▁ኢድ	-16249
ቃቅንና	-16250
▁ሊሰጡ	-16251
▁አግሮ	-16252
▁ካሚል	-16253
▁የዚያ	-16254
▁ገበታ	-16255
▁ለገጣፎ	-16256
▁በሀሳብ	-16257
▁ኬንያታ	-16258
▁የልደት	-16259
▁የሶሪያ	-16260
▁መዋቅሮች	-16261
▁በሀይማኖ	-16262
▁የሚፈጠር	-16263
▁ይጀምራሉ	-16264
▁ለምንድነው	-16265
▁ወንጀሎችን	-16266
▁የሚሰጥበት	-16267
▁ሀብረተሰቡን	-16268
▁መምጣታቸውን	-16269
▁ባለስልጣን፣	-16270
▁አስጠንቅቀዋል	-16271
▁የሚያስፈልጋቸውን	-16272
ዌት	-16273
ለልኝ	-16274
ቀየር	-16275
▁89	-16276
▁ልኮ	-16277
▁ማካ	-16278
▁ኤፌ	-16279
▁በልም	-16280
▁በማቀ	-16281
▁በገጠ	-16282
▁ከገቢ	-16283
▁ውጥን	-16284
▁ይፈጠ	-16285
▁ፍስሀ	-16286
▁በሊቢያ	-16287
▁የነፍስ	-16288
▁የድርቅ	-16289
▁ፍቅርና	-16290
▁ሊሰጣቸው	-16291
▁ሙስሊሞች	-16292
▁ምስራቹን	-16293
▁በአሰልጣ	-16294
▁የሌሎችን	-16295
▁ያልታወቀ	-16296
▁ያዘጋጀው	-16297
▁ማጠናቀቁን	-16298
▁አፈፃፀሙን	-16299
▁በበኩላቸው፥	-16300
▁የመንግስታቱ	-16301
▁የማኑፋክቸሪንግ	-16302
ምያ	-16303
ጓሚ	-16304
ጡና	-16305
ህንም	-16306
ደናቂ	-16307
▁ተኩ	-16308
▁ከኪ	-16309
ካተተው	-16310
ወጣበት	-16311
▁ልጥፍ	-16312
▁ሰዎቹ	-16313
▁ወራሽ	-16314
▁የገለ	-16315
▁ፌደራ	-16316
▁2091	-16317
▁አትራፊ	-16318
▁ከዋናው	-16319
▁የሰሩት	-16320
▁የደርግ	-16321
▁ማሻሻያው	-16322
▁የመድረክ	-16323
▁የተከሰቱ	-16324
▁የታችኛው	-16325
▁የፀጥታና	-16326
▁ለሚካሄደው	-16327
▁በመሰረታዊ	-16328
▁በአፅንኦት	-16329
▁ተቃውመዋል	-16330
▁ከተሰጣቸው	-16331
▁ደብረፅዮን	-16332
▁አመስግነዋል	-16333
ዞት	-16334
ቆልቆ	-16335
ነጋዴ	-16336
ንግዳ	-16337
ኢዜአ	-16338
የም፣	-16339
ደራስ	-16340
ገኘቱ	-16341
2091	-16342
ላችሁ፤	-16343
▁ሰው፣	-16344
▁በክለ	-16345
▁አምል	-16346
▁አታው	-16347
▁እናቴ	-16348
▁እያን	-16349
▁ኪዳነ	-16350
▁ደራሽ	-16351
ከታተለው	-16352
▁ለችግር	-16353
▁መመልከ	-16354
▁ሰብስቦ	-16355
▁ቀንሷል	-16356
▁የማየት	-16357
▁የፍፃሜ	-16358
▁ግጭቱን	-16359
▁መደፍረስ	-16360
▁ስለጉዳዩ	-16361
▁በመስቀል	-16362
▁ቡድናቸው	-16363
▁ተጎጂዎች	-16364
▁በማስረዳት	-16365
▁የኦሊምፒክ	-16366
▁የወታደራዊ	-16367
▁ያደረጋቸው	-16368
▁ሴክሬታሪያት	-16369
▁ኢንስፔክተር	-16370
▁ማኑፋክቸሪንግ	-16371
ኖና	-16372
ቆመው	-16373
ታዊው	-16374
▁ማኀ	-16375
መንበር	-16376
▁ሚስቱ	-16377
▁ርእይ	-16378
▁የበግ	-16379
▁ለእስር	-16380
▁ለክልል	-16381
▁ወደቦች	-16382
▁ያምናል	-16383
▁ያጠቃል	-16384
▁ይደውሉ	-16385
▁ፍላጎቱ	-16386
▁ሮይተርስ	-16387
▁በጣሊያን	-16388
▁ባለባቸው	-16389
▁አሰሪዎች	-16390
▁ከቤተሰብ	-16391
▁የሚጫወት	-16392
▁ግለሰቦቹ	-16393
▁ተስማምተው	-16394
▁ተገድለዋል	-16395
▁እንደምንችል	-16396
በጅ	-16397
ጀንቲ	-16398
ኢየሱስ	-16399
▁መፍቻ	-16400
▁በስዊ	-16401
▁ነፍሰ	-16402
▁አድሮ	-16403
▁ከወር	-16404
▁መዘርጋ	-16405
▁መፍጠሩ	-16406
▁ተከራይ	-16407
▁አንዱና	-16408
▁ክብርና	-16409
▁የሚነካ	-16410
▁የሚጠብ	-16411
▁የይዞታ	-16412
▁የጅምላ	-16413
▁ይወጣል	-16414
▁ለማፍረስ	-16415
▁መኳንንት	-16416
▁ምግቦችን	-16417
▁በወረዳው	-16418
▁የሰራዊቱ	-16419
▁ያስገኛል	-16420
▁ለማሸጋገር	-16421
▁በባህርዳር	-16422
▁አቅራቢዎቹ	-16423
▁መፍትሄዎችን	-16424
▁የምታደርገው	-16425
▁የነበረበትን	-16426
እነ	-16427
ዎቼ	-16428
ሳኤል	-16429
ስትን	-16430
ቆምና	-16431
በጣም	-16432
ጡንቻ	-16433
▁ከላ	-16434
▁ቆጣቢ	-16435
▁እሰራ	-16436
▁ያለፉ	-16437
▁ጉጉት	-16438
▁መጠን፣	-16439
▁በስራው	-16440
▁ያዘጋጀ	-16441
▁ገዝተው	-16442
▁መዝሙሮች	-16443
▁ማመቻቸት	-16444
▁ሲያካሂድ	-16445
▁በውሳኔው	-16446
▁እንዳለን	-16447
▁ክለቦችን	-16448
▁የመለየት	-16449
▁የመዋቅር	-16450
▁የተባለች	-16451
▁ሀላፊነትን	-16452
▁እንዳይወጡ	-16453
▁የሚከናወነው	-16454
!)	-16455
ቪዥ	-16456
ላታል	-16457
ቤሪያ	-16458
ቸግር	-16459
ድሮች	-16460
▁ቡር	-16461
▁ቀን፣	-16462
▁በእስ	-16463
▁ውህደ	-16464
▁ያዳም	-16465
▁ጨረቃ	-16466
▁መጠንም	-16467
▁በሚዲያ	-16468
▁በስደት	-16469
▁ታይምስ	-16470
▁አውታር	-16471
▁ጠንክሮ	-16472
▁ለትግራይ	-16473
▁በሚገኙት	-16474
▁ተሹመዋል	-16475
▁ማብራሪያ፤	-16476
▁በማናቸውም	-16477
▁የተደረጉት	-16478
▁እንዳልነበር	-16479
ህት	-16480
ቃዱ	-16481
ቅላ	-16482
ኑና	-16483
ኳል	-16484
ጣፍ	-16485
ive	-16486
ብሊክ	-16487
ብቃት	-16488
ጣጣም	-16489
▁ሳቢ	-16490
▁በፎ	-16491
▁ቡታ	-16492
▁ሄዷል	-16493
▁በአብ	-16494
▁ከመር	-16495
▁ከእር	-16496
▁ሴክተር	-16497
▁ቀዳሚው	-16498
▁በምስራ	-16499
እንግሊዝኛ	-16500
▁በጥንታዊ	-16501
▁ባካሄዱት	-16502
▁ይጠቅማል	-16503
▁መነጋገሪያ	-16504
▁ተመርጠዋል	-16505
▁የሚተዳደሩ	-16506
▁የፍልስጤም	-16507
▁መልእክቶችን	-16508
▁ኢንስቲትዩቱ	-16509
▁እንደሚሳተፉ	-16510
▁እንደተገኘባቸው	-16511
ex	-16512
ለተ	-16513
መቅ	-16514
በላሽ	-16515
ፈርም	-16516
ፍንት	-16517
▁ሴን	-16518
▁ዶሮ	-16519
▁ለበአ	-16520
▁ልጅ፣	-16521
▁በቆይ	-16522
▁ይጠፋ	-16523
ሸነፈበት	-16524
ደረሳቸው	-16525
▁ማስቆም	-16526
▁ርእሶች	-16527
▁በድርድሩ	-16528
▁አስቆጣሪ	-16529
▁አጣብቂኝ	-16530
▁የሞከረው	-16531
▁የተገናኘ	-16532
▁የጥምቀት	-16533
▁ፎቶግራፍ	-16534
▁የኢኮኖሚና	-16535
▁በኢንተርኔት	-16536
▁እንዲረጋገጥ	-16537
51	-16538
ሰተ	-16539
መትና	-16540
ሳሰሉ	-16541
በርከ	-16542
ክክለ	-16543
ዝቀዣ	-16544
▁ላሳ	-16545
▁ሲሲ	-16546
▁ጌዲ	-16547
ከራየት	-16548
ያቂነት	-16549
ፀባርቅ	-16550
▁በልጅ	-16551
▁እዚሁ	-16552
▁የድሮ	-16553
▁ያጋጥ	-16554
▁ይደግ	-16555
መለካከት	-16556
ደረጃጀት	-16557
ጠበቀውን	-16558
▁አብላጫ	-16559
▁እለትም	-16560
▁የሚገድ	-16561
▁ፍፃሜው	-16562
▁መረጃውን	-16563
▁ምሳሌዎች	-16564
▁ሻምፒዮን	-16565
▁በማሳወቅ	-16566
▁በስራቸው	-16567
▁አብረውት	-16568
▁የመምረጥ	-16569
▁የምዝገባ	-16570
▁የሚያስገድድ	-16571
ህራሄ	-16572
መርጥ	-16573
ጎብኘ	-16574
▁..	-16575
▁ማሪ	-16576
▁ዘፀ	-16577
▁ዲስ	-16578
▁ለማእ	-16579
▁ሰይድ	-16580
▁በአሳ	-16581
▁ከብት	-16582
▁ከፍሎ	-16583
▁ከፍቶ	-16584
▁ዘግይ	-16585
ስተላልፍ	-16586
▁ሲጠይቁ	-16587
▁በረጅም	-16588
▁አመኔታ	-16589
▁እስራኤ	-16590
▁ከለውጡ	-16591
▁ያላነሰ	-16592
▁ያሳዩት	-16593
▁ጀግኖች	-16594
▁በመፍቀድ	-16595
▁ከእርስዎ	-16596
▁ይበልጣል	-16597
▁ፌደሬሽን	-16598
▁አስታውቀው	-16599
▁በፕሬዚዳንትነት	-16600
ሺድ	-16601
ክሊ	-16602
ቲስት	-16603
▁ቨር	-16604
▁ኮት	-16605
▁ውሻ	-16606
ጎለብት	-16607
ጠናክሩ	-16608
▁ለመለ	-16609
▁ለራስ	-16610
▁የሉም	-16611
▁ሰሜናዊ	-16612
▁ሰዎችና	-16613
▁በሀዳር	-16614
▁ነገስቱ	-16615
▁አቅዷል	-16616
▁ወዳጆች	-16617
▁የተማረ	-16618
▁ማሽቆልቆ	-16619
▁ኔታንያሁ	-16620
▁አልሆነም	-16621
▁አጥብቀው	-16622
▁የሚመጥን	-16623
▁አድርጋችሁ	-16624
▁በዩኒቨርሲቲው	-16625
ሴይ	-16626
ቀኛ	-16627
ንዶ	-16628
ዛቅ	-16629
ዲፒ	-16630
ies	-16631
ለኛው	-16632
ራንት	-16633
ሶቹን	-16634
ችንም	-16635
ነበብ	-16636
ከውን	-16637
ያትር	-16638
ያችሁ	-16639
▁7.	-16640
▁በቲ	-16641
▁ያጋ	-16642
▁ፍቺ	-16643
ስፒታል	-16644
ኤርትራ	-16645
▁www	-16646
▁እምቢ	-16647
▁እግሩ	-16648
▁ከመል	-16649
▁ግዥና	-16650
▁መውረድ	-16651
▁ባገኘው	-16652
▁አቀፍና	-16653
▁ከቀድሞ	-16654
▁ውብሸት	-16655
▁የቀጠለ	-16656
▁የተጨዋ	-16657
▁የክፍለ	-16658
▁የፀደቀ	-16659
▁በመመደብ	-16660
▁የሚቃጠል	-16661
▁የዘመናዊ	-16662
▁ዮርዳኖስ	-16663
▁ባስቆጠረው	-16664
▁የጨዋታውን	-16665
▁የመጀመሪያዋ	-16666
▁ባለስልጣናትና	-16667
▁እንደተለመደው	-16668
up	-16669
ዱና	-16670
ተርፍ	-16671
▁81	-16672
▁መከ	-16673
▁ሰዶ	-16674
▁ቋት	-16675
ብዛኛው	-16676
▁ቢመስ	-16677
▁ኢሰመ	-16678
▁ይገጥ	-16679
ገጣጠሚያ	-16680
▁ማቆየት	-16681
▁ስልኮች	-16682
▁ቡድን፣	-16683
▁የፍትሀ	-16684
▁ይሄንን	-16685
▁ሆስፒታሉ	-16686
▁መንደሮች	-16687
▁በትላንት	-16688
▁የይሆዋን	-16689
▁የግንቦት	-16690
▁በእንስሳት	-16691
▁ተአማኒነት	-16692
▁እንደማይቀር	-16693
▁የአሰልጣኞች	-16694
ራቂ	-16695
ቅቦ	-16696
ለውም	-16697
ረከበ	-16698
ግሟል	-16699
▁73	-16700
▁ጉር	-16701
▁ጥይ	-16702
▁ፊፋ	-16703
ዳማዊት	-16704
▁ምንጩ	-16705
▁ረብሻ	-16706
▁የሚሻ	-16707
▁የፍል	-16708
▁ግዙፉ	-16709
▁መፍቀድ	-16710
▁ማስኬጃ	-16711
▁በፋሲል	-16712
▁ባንክም	-16713
▁ከሲዳማ	-16714
▁የሰባት	-16715
▁ግኝቶች	-16716
▁ማንነትን	-16717
▁በተቃዋሚ	-16718
▁በእሳቸው	-16719
▁አሜሪካና	-16720
▁ከከተማው	-16721
▁የታሰሩት	-16722
▁የእቅዱን	-16723
▁የወሰዱት	-16724
▁የድርጅት	-16725
▁መስተጋብር	-16726
▁በማስወገድ	-16727
▁እንደሚወጣ	-16728
▁እንዲከፍል	-16729
▁የሚተላለፉ	-16730
▁ፌዴሬሽኖች	-16731
▁አስታውቃለች	-16732
▁ዲፓርትመንት	-16733
▁አስተናጋጅነት	-16734
ፖል	-16735
▁ፏ	-16736
ማታዊ	-16737
ባት፣	-16738
ታወት	-16739
ፈረሙ	-16740
▁መቸ	-16741
▁ሞል	-16742
▁ፓኬ	-16743
ቋቋሙት	-16744
ችላቸው	-16745
ፓርታማ	-16746
▁110	-16747
▁ቀዳዳ	-16748
▁የግቡ	-16749
▁መሬቱን	-16750
▁ሲፈፅሙ	-16751
▁በምትኩ	-16752
▁አሰራሩ	-16753
▁ለአካባቢ	-16754
▁መከፋፈል	-16755
▁ማስታወስ	-16756
▁ምእራባዊ	-16757
▁እንዳያስ	-16758
▁ከቀድሞው	-16759
▁የመስቀል	-16760
▁የፈጠሩት	-16761
▁የፌዴራሉ	-16762
▁በአክሲዮን	-16763
▁አደረሳችሁ	-16764
▁የሚከበረው	-16765
▁የአፍሪካን	-16766
▁ተመልክተናል	-16767
▁የቀረበላቸው	-16768
▁እንደደረሰባቸው	-16769
▁የእግዚአብሄርን	-16770
98	-16771
ሊላ	-16772
ሸሹ	-16773
ትረ	-16774
ለጠፍ	-16775
ቃብር	-16776
▁ዋይ	-16777
▁ድሮ	-16778
ዘረጋው	-16779
▁ለመሰ	-16780
▁ቀንሶ	-16781
▁ተቸግ	-16782
▁የማም	-16783
▁የማው	-16784
▁የዚሁ	-16785
▁የፈጀ	-16786
▁ይበል	-16787
▁ደፋር	-16788
ናገራቸው	-16789
▁ለነበሩ	-16790
▁በመጠን	-16791
▁በደርግ	-16792
▁ባቀረቡ	-16793
▁ባንዲራ	-16794
▁አጋጥሞ	-16795
▁ከቀጠለ	-16796
▁የተሰነ	-16797
▁የኢጋድ	-16798
▁ጥቅምና	-16799
▁መጠናከር	-16800
▁ሰራዊቱን	-16801
▁አይናለም	-16802
▁ከምስራቅ	-16803
▁የመወሰን	-16804
▁የቅርንጫ	-16805
▁እንደጀመረ	-16806
▁የመሰብሰብ	-16807
▁መመለሳቸውን	-16808
▁እንደሚገኙም	-16809
ኤት	-16810
ላትና	-16811
▁87	-16812
▁ማሊ	-16813
▁ስፓ	-16814
▁ታጋ	-16815
▁ፐር	-16816
1983	-16817
ምህራን	-16818
ራህማን	-16819
በልፀግ	-16820
ውያንም	-16821
ገመተው	-16822
ገበያያ	-16823
▁ተለው	-16824
▁አምድ	-16825
▁አስጊ	-16826
▁ዳውድ	-16827
▁ሙስሊም	-16828
▁ሲቀርቡ	-16829
▁ቀጠናው	-16830
▁በጀመረ	-16831
▁ብሄርን	-16832
▁ዋንጫን	-16833
▁መጥተዋል	-16834
▁ሳይጨምር	-16835
▁በቴክኒክ	-16836
▁ትሆናለች	-16837
▁ከክልሎች	-16838
▁የመምራት	-16839
▁የሚስማማ	-16840
▁የሚውለው	-16841
▁የጁንታው	-16842
▁የጠቅላላ	-16843
▁ይቆጠራል	-16844
▁በብቸኝነት	-16845
▁አንዱአለም	-16846
▁የሚፈልገው	-16847
▁የሚያስከትለውን	-16848
-5	-16849
ሀኔ	-16850
ፀት	-16851
ሀሳብ	-16852
ሀዲን	-16853
ሲኤል	-16854
እስከ	-16855
▁መሻ	-16856
▁ሳኦ	-16857
ሰራቸው	-16858
▁ሌተና	-16859
▁ማነው	-16860
▁ርቀው	-16861
▁ቅጠል	-16862
▁ተጋባ	-16863
መንግስቱ	-16864
ፌደሬሽኑ	-16865
▁መክፈት	-16866
▁በመጣስ	-16867
▁በድብቅ	-16868
▁ባለቤቴ	-16869
▁የመልስ	-16870
▁የፈጠሩ	-16871
▁ፅንፈኛ	-16872
▁ፖሊስ፣	-16873
▁ስርአት፣	-16874
▁በሚመስል	-16875
▁ከሀገሪቱ	-16876
▁ከመፍጠር	-16877
▁ደጋግመው	-16878
▁ለፕሮጀክቱ	-16879
▁መዳረሻዎች	-16880
▁በመካከለኛ	-16881
▁እየተገለፀ	-16882
▁ያስመዘገቡ	-16883
▁ያደርጋቸዋል	-16884
ለኹ	-16885
ሙድ	-16886
ቀለ	-16887
መረተ	-16888
መረጠ	-16889
ሴላዊ	-16890
በት፤	-16891
ብርት	-16892
ዊነት	-16893
ጊያው	-16894
ጨርስ	-16895
▁Ch	-16896
ከፋፈለ	-16897
▁ንግስ	-16898
▁አውቆ	-16899
▁ኢብሳ	-16900
▁ከምታ	-16901
▁ያበቃ	-16902
▁ፊሊፕ	-16903
ጠናቀቅም	-16904
▁ህግጋት	-16905
▁ሰላምታ	-16906
▁ሲኖዶስ	-16907
▁በኮምፒ	-16908
▁ከእቅዱ	-16909
▁የቀረጥ	-16910
▁የበአል	-16911
▁የኢራን	-16912
▁ጣልያን	-16913
▁በስፖርቱ	-16914
▁በፈፀሙት	-16915
▁ከተፈፀመ	-16916
▁የመታውን	-16917
▁ይጠቀማል	-16918
▁ገበታቸው	-16919
▁ለመገምገም	-16920
▁መደምደሚያ	-16921
▁ይከራከራሉ	-16922
▁ጉዳያቸውን	-16923
▁ኮንትራክተር	-16924
▁የተከናወነው	-16925
ሎፕ	-16926
ሳር	-16927
ስቲን	-16928
▁93	-16929
▁ሂድ	-16930
ላችሁን	-16931
ኝነትን	-16932
ገለገለ	-16933
▁በጥቂ	-16934
▁እየነ	-16935
▁ከመተ	-16936
▁መከሰት	-16937
▁ተርፎም	-16938
▁ከነአን	-16939
▁ካውንቲ	-16940
▁የበረዶ	-16941
▁የውሀና	-16942
▁ይነሳል	-16943
▁ደረጃና	-16944
ጠረጠሩበት	-16945
▁ሳተላይት	-16946
▁በሚያዝያ	-16947
▁በወጣቶች	-16948
▁ትችላለች	-16949
▁የለብንም	-16950
▁ስትራቴጂክ	-16951
▁አቅርቦት፣	-16952
▁እናምናለን	-16953
▁የህዝቦችን	-16954
▁ፓርቲዎችና	-16955
▁ምስጋናቸውን	-16956
▁የሚጠበቀውን	-16957
▁ገብረመድህን	-16958
▁ያስፈልግዎታል	-16959
▁እንደሚያስፈልጋቸው	-16960
ማክ	-16961
ቅሶ	-16962
አለ	-16963
ጃል	-16964
▁ዞር	-16965
▁ፍጡ	-16966
ሬዚዳን	-16967
ርፖርት	-16968
ንደዚህ	-16969
ከፋፈሉ	-16970
▁ማንሳ	-16971
▁ከመነ	-16972
▁ወድቆ	-16973
▁ፀንቶ	-16974
▁ሀዋርያ	-16975
▁ማቋረጥ	-16976
▁ብርታት	-16977
▁አስናቀ	-16978
▁አጥጋቢ	-16979
▁በተሰኘው	-16980
▁በክረምት	-16981
▁አንስቷል	-16982
▁እንደሻው	-16983
▁የሚደግፍ	-16984
▁ድርድሮች	-16985
▁ፕሬዝዳን	-16986
▁ተቆጥበዋል	-16987
▁የላብራቶሪ	-16988
▁የምፈልገው	-16989
▁የተጫወተው	-16990
▁መታሰራቸውን	-16991
▁ተከላካዮችን	-16992
▁እንዳለበት፣	-16993
▁እንዳልሆነም	-16994
▁የተሻገረለትን	-16995
▁ፍልስጤማውያን	-16996
▁ፕሬዚዳንትነት	-16997
ይራ	-16998
ሪቲሽ	-16999
ገሪያ	-17000
▁ለኦ	-17001
▁ማባ	-17002
ቀጥሉት	-17003
ታወቅ፣	-17004
▁ሰይፉ	-17005
▁በቤቱ	-17006
▁በካፍ	-17007
▁ተጠቂ	-17008
▁ካሁን	-17009
▁የማታ	-17010
▁የጌታ	-17011
▁ለአዲሱ	-17012
▁ለወንድ	-17013
▁ከተማም	-17014
▁ድረስም	-17015
▁መውጣቱን	-17016
▁በማስገባ	-17017
▁ተደራዳሪ	-17018
▁እንዲቀር	-17019
▁ክላስተር	-17020
▁የሚያመነ	-17021
▁ሰራተኞች፣	-17022
▁በግለሰቦች	-17023
▁እላችኋለሁ	-17024
▁በአውሮፕላን	-17025
83	-17026
ላጠፈ	-17027
መደበ	-17028
ራቾች	-17029
ቁረጥ	-17030
▁ሳታ	-17031
▁በፒ	-17032
ራውያን	-17033
ሳችሁን	-17034
ስትያን	-17035
ያውቀው	-17036
ገብጋቢ	-17037
▁ሌላም	-17038
▁ሰብሮ	-17039
▁ሳይታ	-17040
▁ስብእና	-17041
▁በመቆየ	-17042
▁ብድሩን	-17043
▁የናይል	-17044
▁ግብፅን	-17045
▁ማድረግን	-17046
▁ታካሚዎች	-17047
▁እየጠበቀ	-17048
▁ውይይትና	-17049
▁ዘዴዎችን	-17050
▁የመማሪያ	-17051
▁የብርሀን	-17052
▁ይሰጠዋል	-17053
▁ስልጠናዎችን	-17054
▁ባለንብረቶች	-17055
ሊየም	-17056
በሪቾ	-17057
ጉዳት	-17058
▁ማመ	-17059
▁ዘም	-17060
2021	-17061
ንዳርድ	-17062
ጠይቅም	-17063
ፈርኦን	-17064
▁የስደ	-17065
▁ዳሸን	-17066
▁ማህበረ	-17067
▁ሲያገኝ	-17068
▁በካናዳ	-17069
▁በጎርፍ	-17070
▁ተጠቆመ	-17071
▁ተጣርቶ	-17072
▁አይኖር	-17073
▁እንጠይ	-17074
▁ዋናዎቹ	-17075
▁የዘርፍ	-17076
▁ድምፆች	-17077
▁ፌስቡክ	-17078
▁ህዝባችን	-17079
▁በእርዳታ	-17080
▁በድፍረት	-17081
▁ንግግር፣	-17082
▁እናንተን	-17083
▁የሚወሰን	-17084
▁ለደንበኞች	-17085
▁እንዳደረጉ	-17086
▁ሳይጠቀምበት	-17087
▁በማስታወስ፣	-17088
▁ባለስልጣኖች	-17089
▁እንዲተላለፍ	-17090
▁ከዩኒቨርሲቲ	-17091
▁ድንጋጌዎችን	-17092
ሮፕ	-17093
ቡ፣	-17094
ነፍ	-17095
(2)	-17096
ial	-17097
ቃችን	-17098
ቴሽን	-17099
ቶኛል	-17100
ኪዳን	-17101
ወንድ	-17102
▁ሞቅ	-17103
▁ይጋ	-17104
▁በመጡ	-17105
▁በማወ	-17106
▁አጠፋ	-17107
▁የመጠ	-17108
▁ያላስ	-17109
▁ይከብ	-17110
▁ግላዊ	-17111
▁ጭንቀ	-17112
ረጋገጡት	-17113
▁መቁረጥ	-17114
▁መፈራረ	-17115
▁ማእበል	-17116
▁ተደርሶ	-17117
▁ነበርኩ	-17118
▁አለው፤	-17119
▁የሞራል	-17120
ስተናግደው	-17121
▁ለወደፊት	-17122
▁መሪዎችና	-17123
▁በማጥናት	-17124
▁በጥምረት	-17125
▁ታዳሚዎች	-17126
▁እሳቸውም	-17127
▁እንደራሴ	-17128
▁የመስሪያ	-17129
▁ሀይለስላሴ	-17130
▁በፕሮጀክቱ	-17131
▁ባለቤታቸው	-17132
▁እየተሻሻለ	-17133
▁ገብረስላሴ	-17134
ማያ	-17135
ዳ፣	-17136
ric	-17137
ቶቹም	-17138
አብን	-17139
ፍተው	-17140
▁ሉዊ	-17141
▁ጤን	-17142
ነሷቸው	-17143
▁ተቆር	-17144
▁ተቋር	-17145
▁ተዳክ	-17146
▁ትይዩ	-17147
▁አሰና	-17148
▁አገሩ	-17149
▁ፍልሰ	-17150
▁ለግብፅ	-17151
▁ሊቀጥል	-17152
▁ማስፋት	-17153
▁በመቻሉ	-17154
▁በዳዊት	-17155
▁ነቢያት	-17156
▁አቋሙን	-17157
▁ከደረሰ	-17158
▁ወኪሎች	-17159
▁የሚይዙ	-17160
▁የብሄረ	-17161
▁ለግንባታ	-17162
▁መፈናቀል	-17163
▁ማስወገጃ	-17164
▁በደቡባዊ	-17165
▁ተገምቷል	-17166
▁አድርገህ	-17167
▁የህዝቦች	-17168
▁የማሳደግ	-17169
▁ይታወቃሉ	-17170
▁ገፅታዎች	-17171
▁ጨረታውን	-17172
[...]
