[UNK]	0
[PAD]	0
[SOS]	0
[EOS]	0
▁የ	-0
▁በ	-1
▁አ	-2
▁እ	-3
▁መ	-4
▁።	-5
▁ከ	-6
▁እን	-7
▁ተ	-8
▁ለ	-9
ቸው	-10
▁ይ	-11
▁ወ	-12
▁ያ	-13
▁የሚ	-14
▁ነ	-15
▁ስ	-16
ዎች	-17
ላይ	-18
▁ማ	-19
▁እንደ	-20
▁ም	-21
▁የተ	-22
▁ብ	-23
ዋል	-24
ነት	-25
▁ው	-26
▁በመ	-27
▁ላይ	-28
▁ግ	-29
▁ባ	-30
ስት	-31
▁ሰ	-32
▁ሲ	-33
▁እንዲ	-34
▁አስ	-35
▁እና	-36
ውን	-37
▁ሀ	-38
▁ደ	-39
ንግ	-40
▁በአ	-41
▁ነው	-42
▁በተ	-43
▁ጥ	-44
ቶች	-45
▁ገ	-46
ሆኑ	-47
በት	-48
▁የአ	-49
▁ክ	-50
ሆን	-51
▁ቀ	-52
▁ድ	-53
▁የመ	-54
ለው	-55
ንድ	-56
▁ት	-57
ኢት	-58
ኢትዮ	-59
▁"	-60
▁ህ	-61
ደረ	-62
ሆነ	-63
ጵያ	-64
ዚህ	-65
ኢትዮጵያ	-66
ችን	-67
▁ወደ	-68
በር	-69
ቸውን	-70
▁ሁ	-71
▁ለመ	-72
▁ሚ	-73
▁ለማ	-74
▁ቤ	-75
▁አመ	-76
ስጥ	-77
ገር	-78
▁በማ	-79
▁እንደሚ	-80
ደር	-81
▁ጋ	-82
▁1	-83
▁ውስጥ	-84
▁ል	-85
▁2	-86
ተኛ	-87
▁ዘ	-88
▁ቢ	-89
▁ጉ	-90
ረት	-91
ሪያ	-92
▁ግን	-93
▁ከተ	-94
ለት	-95
▁ጠ	-96
▁ሊ	-97
ጊዜ	-98
▁ጋር	-99
ራት	-100
▁ባለ	-101
▁(	-102
▁እየ	-103
ድር	-104
▁ታ	-105
▁ሳ	-106
ድረ	-107
▁የሚያ	-108
▁እንዳ	-109
ንግስት	-110
▁ጊዜ	-111
▁ካ	-112
▁ኢ	-113
በረ	-114
ንም	-115
▁ይህ	-116
▁አን	-117
ለም	-118
ስተ	-119
▁ምክ	-120
ሮች	-121
ርት	-122
▁ስራ	-123
ንያ	-124
▁አቶ	-125
▁ፍ	-126
▁አገ	-127
ትን	-128
▁በሚ	-129
ንት	-130
▁ኮ	-131
▁የማ	-132
ሎች	-133
ረጃ	-134
ዲስ	-135
ቱን	-136
▁መሆኑ	-137
▁አይ	-138
ራዊ	-139
ገባ	-140
ጀመ	-141
▁ስለ	-142
▁ጉዳ	-143
00	-144
ሪካ	-145
▁ዋ	-146
▁እስ	-147
ላቸው	-148
▁ፕ	-149
▁መስ	-150
▁ሚኒ	-151
▁የም	-152
▁አካ	-153
▁ች	-154
▁ቅ	-155
ከል	-156
▁ጨ	-157
ዎችን	-158
መለ	-159
▁ቤት	-160
ግባ	-161
▁ነበር	-162
ታት	-163
▁አለ	-164
ታው	-165
ሁን	-166
▁የነ	-167
ማሪ	-168
ያን	-169
ይም	-170
▁ሲሆን	-171
ዮን	-172
ተር	-173
▁መን	-174
▁አስተ	-175
▁መንግስት	-176
▁ቡ	-177
▁ድር	-178
ሰራ	-179
ማት	-180
▁መሰ	-181
▁ፈ	-182
ታወ	-183
▁ያለ	-184
ገድ	-185
ጠና	-186
ላል	-187
ባቸው	-188
▁አበ	-189
01	-190
ድረግ	-191
ሰብ	-192
▁መሆኑን	-193
▁ሆ	-194
ታል	-195
▁ከአ	-196
ሉት	-197
▁ገል	-198
ከተ	-199
▁ከፍ	-200
ረው	-201
▁ከተማ	-202
▁ዳ	-203
▁ኢትዮጵያ	-204
ብር	-205
ንስ	-206
▁ሌ	-207
ለያ	-208
ኛው	-209
▁ከመ	-210
▁እየተ	-211
ልጣ	-212
ላት	-213
በሩ	-214
▁ነገር	-215
▁አንድ	-216
ናት	-217
▁በእ	-218
ስራ	-219
ደረገ	-220
ናቸው	-221
ቅር	-222
ገለ	-223
▁አል	-224
▁ሙ	-225
ናል	-226
▁ብር	-227
▁አም	-228
ተዋል	-229
ገኘ	-230
▁የእ	-231
ልግ	-232
▁ቀን	-233
ኋላ	-234
▁አመት	-235
ግር	-236
▁የኢትዮጵያ	-237
▁የህ	-238
▁ደግ	-239
ገኙ	-240
ሚያ	-241
ሊዮን	-242
▁ሀይ	-243
ታቸው	-244
ሽን	-245
▁አባ	-246
▁በዚህ	-247
▁አበባ	-248
▁ክፍ	-249
▁ደግሞ	-250
▁ምር	-251
▁ሚኒስት	-252
ድን	-253
ለዋል	-254
ጠር	-255
ባቢ	-256
▁ቦ	-257
▁የው	-258
▁ክል	-259
▁ስር	-260
ርድ	-261
▁ኤ	-262
▁በኋላ	-263
▁ቁ	-264
ተው	-265
ፊት	-266
ሁም	-267
▁መል	-268
▁ሁሉ	-269
ትና	-270
ከላ	-271
▁ወይም	-272
▁በላይ	-273
ቷል	-274
▁የግ	-275
▁ምን	-276
መን	-277
ራል	-278
ጥር	-279
ክል	-280
▁ገልፀ	-281
▁ምክንያ	-282
▁እያ	-283
▁የሰ	-284
ጠቀ	-285
ዳን	-286
ዎቹ	-287
ረስ	-288
▁ዝ	-289
▁እር	-290
ፓር	-291
▁የወ	-292
ክት	-293
▁ሳይ	-294
▁ከፍተኛ	-295
ዝብ	-296
ኔታ	-297
▁አብ	-298
ኞች	-299
▁መካ	-300
▁በቀ	-301
ቦች	-302
▁ወቅ	-303
ምሮ	-304
ናግ	-305
▁ጠቅ	-306
▁እንዲሁም	-307
▁3	-308
መር	-309
▁ዶ	-310
ላፊ	-311
ረዋል	-312
ለያዩ	-313
▁እስከ	-314
▁ሁኔታ	-315
ረጋ	-316
▁ለአ	-317
▁ን	-318
▁ባን	-319
▁ሰዎች	-320
ከት	-321
▁ያስ	-322
ልግሎ	-323
ካሄ	-324
ጨማሪ	-325
ቀረ	-326
ላለ	-327
ችል	-328
ቅም	-329
▁ጨዋ	-330
ገን	-331
ዮች	-332
ታዊ	-333
ብረ	-334
▁ደረጃ	-335
አት	-336
ጠበ	-337
ገል	-338
▁እድ	-339
▁አዲስ	-340
▁ማስ	-341
ፈል	-342
ረዳ	-343
▁ያለው	-344
▁ኢን	-345
▁ገልፀዋል	-346
▁ተናግ	-347
▁ብቻ	-348
▁መሰረት	-349
ቀር	-350
▁እንደሆነ	-351
▁ሀላፊ	-352
ጠቃ	-353
▁ሆነ	-354
ያስ	-355
ምህ	-356
መራ	-357
▁መካከል	-358
▁ተቋ	-359
▁ድርጅ	-360
ጣት	-361
▁ብለዋል	-362
ሳይ	-363
▁ወቅት	-364
ናገ	-365
▁201	-366
▁ኩ	-367
▁ከዚህ	-368
▁ብዙ	-369
ቶችን	-370
ንግድ	-371
▁ፖ	-372
ወሰ	-373
▁አድር	-374
ፍሪካ	-375
ቃል	-376
▁ይህን	-377
ግለ	-378
ገሪ	-379
▁ኮሚ	-380
ሏል	-381
▁አገልግሎ	-382
▁፣	-383
ያው	-384
የት	-385
▁ጀ	-386
▁ፕሮ	-387
ባት	-388
ይት	-389
ሩት	-390
ም፣	-391
ያቄ	-392
▁የኢ	-393
ገኝ	-394
ታቸውን	-395
▁አቀ	-396
ርስ	-397
ደረጉ	-398
▁በሰ	-399
▁መረጃ	-400
▁ክልል	-401
▁ስም	-402
▁ጨዋታ	-403
መል	-404
▁ጥያቄ	-405
▁የነበረ	-406
▁ፓር	-407
ርካ	-408
▁መንገድ	-409
▁;	-410
▁አማ	-411
ግራ	-412
▁ዋና	-413
▁በመሆኑ	-414
ሪዎች	-415
▁ናቸው	-416
▁እነ	-417
ፌዴ	-418
▁ግብ	-419
ምር	-420
▁ጎ	-421
▁ተናግረዋል	-422
▁ምክንያት	-423
ወት	-424
▁ሶ	-425
ባንያ	-426
ዘብ	-427
▁ዘር	-428
▁ጉዳይ	-429
የር	-430
▁የሀ	-431
ኖች	-432
▁ተብ	-433
ምና	-434
▁የሆነ	-435
▁መጠ	-436
▁የት	-437
▁,	-438
▁አካባቢ	-439
""	-440
▁አመታት	-441
▁በተለ	-442
▁ሰው	-443
▁ፕሬ	-444
▁አስታው	-445
ምን	-446
ቢያ	-447
ዘጋ	-448
ገና	-449
ፈፀ	-450
▁ሚሊዮን	-451
ላክ	-452
ደው	-453
ቋል	-454
▁ቆ	-455
ነሳ	-456
ጠው	-457
▁4	-458
▁ሽ	-459
▁ሆኖ	-460
▁ፅ	-461
ፈው	-462
▁ሚኒስትር	-463
▁ብሄ	-464
ሪፖ	-465
▁ያህ	-466
በው	-467
▁ምክር	-468
▁ሺ	-469
ጀመሪያ	-470
መው	-471
▁ሜ	-472
▁በኢትዮጵያ	-473
ሪክ	-474
መድ	-475
ለን	-476
ለቱ	-477
ኩል	-478
▁የሚያስ	-479
▁ተወ	-480
ወጣ	-481
ለቲ	-482
ገሪቱ	-483
▁አስተዳ	-484
ራቸው	-485
▁በፊት	-486
ንግስ	-487
▁""	-488
ፍት	-489
▁በግ	-490
▁እንዲያ	-491
▁በህ	-492
ላሉ	-493
ለሁ	-494
▁ይች	-495
▁ኩባንያ	-496
▁ቦታ	-497
▁በመቶ	-498
▁5	-499
ልቅ	-500
ቀው	-501
ችሁ	-502
ብት	-503
ኖር	-504
▁የስ	-505
ሰው	-506
▁ከእ	-507
▁ጠቅላይ	-508
▁ከሚ	-509
ኤል	-510
▁አሰ	-511
ግኘ	-512
ምህርት	-513
▁ቢሆን	-514
▁የበ	-515
ስፋ	-516
▁ፋ	-517
ዛሬ	-518
ላማ	-519
ክር	-520
ት፣	-521
ለቲካ	-522
▁ኦ	-523
ሩን	-524
ርያ	-525
ነው	-526
ስቴ	-527
ዚያ	-528
▁ችግር	-529
▁ያል	-530
ከና	-531
ደጋ	-532
▁ህግ	-533
ይና	-534
▁በሀ	-535
▁ውጤ	-536
ደም	-537
▁አስፈ	-538
▁:	-539
▁አው	-540
▁የታ	-541
ረድ	-542
ክስ	-543
ቅረ	-544
▁የባ	-545
ሳብ	-546
▁ቤቱ	-547
▁ድረስ	-548
▁ያሉ	-549
▁ራ	-550
▁አገልግሎት	-551
▁አሁን	-552
መስ	-553
ገው	-554
▁ተግባ	-555
▁በተጨማሪ	-556
▁ዜ	-557
ውያን	-558
ሳኔ	-559
ምነት	-560
▁ወር	-561
ኮኖ	-562
▁ሌሎች	-563
▁ፓርቲ	-564
ክተር	-565
▁ሲሆን፣	-566
▁ባንክ	-567
▁ሂ	-568
ሉም	-569
ጣም	-570
ንና	-571
ገኘው	-572
ጠቅ	-573
▁ሞ	-574
ጀት	-575
ሜሪካ	-576
▁ሁለት	-577
▁እንደተ	-578
▁ችግ	-579
▁ተቀ	-580
▁ረ	-581
▁አጋ	-582
▁አሳ	-583
▁አለም	-584
ዳንት	-585
ሰማ	-586
ባል	-587
ቅስ	-588
ላም	-589
ጨረ	-590
ሱን	-591
▁ወን	-592
▁በስ	-593
▁ግንባ	-594
ገኛ	-595
ገቡ	-596
▁መንግስ	-597
▁የውጭ	-598
ኝነት	-599
▁በም	-600
ወቅ	-601
ቃት	-602
▁ር	-603
▁ሺህ	-604
ሳት	-605
▁ሴ	-606
▁ኳ	-607
▁መር	-608
▁በኩል	-609
▁ለው	-610
ለች	-611
ግብ	-612
ጆች	-613
ዶች	-614
ሞች	-615
ቃሴ	-616
▁ሲያ	-617
▁ማእ	-618
▁በት	-619
▁ድጋ	-620
▁ፕሬዚ	-621
ቅስቃሴ	-622
▁በየ	-623
▁ሚኒስቴ	-624
▁አዋ	-625
ያዘ	-626
ብረት	-627
▁ሀይል	-628
▁ተከ	-629
ጦር	-630
ሰባ	-631
ገለፁ	-632
ግኘት	-633
ደረገው	-634
▁ነገ	-635
▁ቡድን	-636
▁አቀፍ	-637
ስልጣ	-638
ነስ	-639
▁አለመ	-640
▁ልማት	-641
▁ቴ	-642
▁መግለ	-643
ነበረ	-644
▁የስራ	-645
ፈት	-646
201	-647
▁በርካ	-648
▁በጣም	-649
▁በሁ	-650
▁ሌላ	-651
▁አር	-652
▁ቡድ	-653
▁ፖሊ	-654
▁የተባ	-655
ፈጠ	-656
ንቀ	-657
▁ውሳኔ	-658
ሰቡ	-659
▁ፀ	-660
ጡት	-661
ደረግ	-662
ሻሻ	-663
▁ዲ	-664
▁በማለት	-665
▁ባህ	-666
ቤት	-667
▁ህዝ	-668
ትል	-669
▁ህዝብ	-670
▁እንቅስቃሴ	-671
ባኤ	-672
በል	-673
▁6	-674
መጣ	-675
▁የኮ	-676
▁ገን	-677
▁የቀ	-678
▁ጀምሮ	-679
ጠናቀ	-680
ሀን	-681
▁ልዩ	-682
▁ያሉት	-683
ብሄ	-684
ልክ	-685
▁ፍርድ	-686
▁የፖ	-687
▁ኪ	-688
▁አገር	-689
▁ቁጥር	-690
▁የተለያዩ	-691
▁ለሚ	-692
▁ውድ	-693
ሪፖር	-694
በያ	-695
▁እንደሚያ	-696
ጫዋ	-697
ዩኒ	-698
▁ይሆ	-699
ፖርት	-700
ቸዋል	-701
▁ለተ	-702
ሰጥ	-703
▁በሌ	-704
▁ከማ	-705
▁ቢሊዮን	-706
▁ምንም	-707
▁ምርጫ	-708
▁መሆ	-709
▁ማሀ	-710
▁እንዳለ	-711
▁ለማስ	-712
▁ጭ	-713
ጥታ	-714
ክራ	-715
ከራ	-716
ከናወ	-717
ሬት	-718
▁በበ	-719
ፉት	-720
ኮኖሚ	-721
ጋት	-722
▁ማድረግ	-723
▁ሚኒስቴር	-724
▁ጉዳዮች	-725
▁ማን	-726
▁በው	-727
▁7	-728
ቡብ	-729
▁በርካታ	-730
▁በጥ	-731
▁እንዲህ	-732
መረ	-733
▁አስረድ	-734
ላር	-735
▁ፕሮጀ	-736
ድሞ	-737
▁አዳ	-738
ጨረሻ	-739
ደት	-740
ጠት	-741
▁አይነት	-742
ሰሩ	-743
ንን	-744
ምንት	-745
ደራ	-746
ጿል	-747
▁አስተዳደር	-748
▁ላ	-749
ያዎች	-750
ቫይ	-751
▁አቅ	-752
▁ድጋፍ	-753
ጤና	-754
መለከተ	-755
▁ዙ	-756
ምጃ	-757
ማይ	-758
ኮች	-759
ረጋገ	-760
▁የነበሩ	-761
ቀዋል	-762
▁-	-763
ብራ	-764
ቅድ	-765
ችሉ	-766
ቂቃ	-767
▁የመንግስት	-768
ክልሉ	-769
ለተኛ	-770
▁ግንኙ	-771
ከር	-772
▁አገሮች	-773
መሳ	-774
ባይ	-775
▁ብሄራዊ	-776
▁አቅር	-777
▁ህይ	-778
▁እንዳይ	-779
▁ያለውን	-780
ዱስት	-781
▁እነዚህ	-782
ንዳ	-783
▁አመራ	-784
▁እንደነ	-785
▁ለማድረግ	-786
▁መግለጫ	-787
▁ጣ	-788
ፈለ	-789
ሳተ	-790
ቀመ	-791
ሰረ	-792
ቋቋ	-793
ሳል	-794
▁)	-795
▁አንዱ	-796
▁ደቂቃ	-797
19	-798
▁ሙሉ	-799
ካይ	-800
▁ጠቁ	-801
▁?	-802
▁ዶላር	-803
ጠቀም	-804
▁ድርጅት	-805
▁8	-806
ዱስ	-807
▁ብሎ	-808
ሁኑ	-809
▁ተቋማት	-810
▁የማይ	-811
ከተማ	-812
▁አክ	-813
ናቸውን	-814
ሮችን	-815
ቀት	-816
ተኞች	-817
▁በደ	-818
ጋራ	-819
▁ዘመን	-820
▁አባላት	-821
▁በማድረግ	-822
▁ባለስልጣ	-823
ፌዴራል	-824
በትን	-825
ሙሉ	-826
ያዊ	-827
ከፍ	-828
▁ቤቶች	-829
▁ግንባታ	-830
▁ያህል	-831
▁ሀገ	-832
▁ኳስ	-833
▁እው	-834
▁ድን	-835
▁እርምጃ	-836
ቱም	-837
ቻቸው	-838
▁ጥሩ	-839
ን፣	-840
▁ሰራ	-841
ራንስ	-842
▁ግድ	-843
ደርግ	-844
▁ስርአት	-845
▁ተጫዋ	-846
▁ትኩ	-847
ከላከ	-848
▁ዘርፍ	-849
▁በታ	-850
200	-851
ጠበቅ	-852
▁ቤተ	-853
▁200	-854
▁ቃል	-855
▁ጉባኤ	-856
..	-857
ፋት	-858
▁ዋጋ	-859
▁ዝግ	-860
▁ቀደም	-861
ደርጉ	-862
▁የሆኑ	-863
▁በተለይ	-864
ነቱ	-865
▁አይደ	-866
ጥብ	-867
ቀጥ	-868
▁ተብሎ	-869
▁ማለት	-870
ረም	-871
▁እንጂ	-872
ጠቃላይ	-873
▁ተፈ	-874
ህን	-875
ሉን	-876
▁ውይ	-877
▁ዘመ	-878
▁ትምህርት	-879
ላቸውን	-880
▁የሚል	-881
▁ምስ	-882
▁ነፃ	-883
▁መድረ	-884
ዱስትሪ	-885
▁የደ	-886
ላጊ	-887
▁ተጠ	-888
ሯል	-889
▁ዛሬ	-890
ጎች	-891
ቾች	-892
ከሰ	-893
▁ባለሙ	-894
ገነ	-895
▁ሊያ	-896
▁የነበረው	-897
ሳቸው	-898
▁የተሰ	-899
ይሬ	-900
▁ይችላል	-901
▁ኮሚቴ	-902
▁ይታወ	-903
▁አስረድተዋል	-904
▁ፕሬዚዳንት	-905
▁ንግድ	-906
ቻል	-907
▁ስብ	-908
▁ሚኒስትሩ	-909
ልማት	-910
▁ግንኙነት	-911
ኦሮ	-912
ፍራ	-913
▁19	-914
ቆጣ	-915
ታይ	-916
ደግ	-917
▁ጨምሮ	-918
ዛት	-919
▁–	-920
ጨዋ	-921
ገቢ	-922
መዋል	-923
ነጋ	-924
▁መጠን	-925
▁የሚገኙ	-926
▁ገንዘብ	-927
ኖሩ	-928
▁ሱ	-929
▁ይሁን	-930
▁በተለያዩ	-931
ላሽ	-932
▁ማሳ	-933
ኑን	-934
▁ጥቅም	-935
▁ሀሳብ	-936
ነሱ	-937
ዳጅ	-938
ዴት	-939
▁ቡና	-940
ዘር	-941
ላጎ	-942
መሳሳይ	-943
▁ሶስት	-944
▁ሳምንት	-945
▁ሲሉ	-946
▁ክለ	-947
ረን	-948
▁በማስ	-949
▁የንግድ	-950
▁ዳይሬ	-951
▁በቅር	-952
ክለ	-953
▁ለእ	-954
▁ማህ	-955
ልፅ	-956
▁የፖለቲካ	-957
ጀል	-958
▁ተስፋ	-959
▁እድል	-960
▁እንኳ	-961
▁ሳይሆን	-962
▁ከሆነ	-963
▁በአዲስ	-964
ቨር	-965
▁በአንድ	-966
ሪፖርተር	-967
▁ልጆች	-968
▁አካላት	-969
▁ጥረት	-970
የው	-971
ስር	-972
ሳሌ	-973
▁ገቢ	-974
▁አፈ	-975
▁ክፍል	-976
ፃሚ	-977
▁ዴ	-978
▁ዘንድ	-979
ካባቢ	-980
▁ሰብ	-981
ያዝ	-982
▁ይገኛ	-983
ትር	-984
▁አንዳ	-985
ለውን	-986
▁እንደነበር	-987
▁እጅ	-988
▁እንዴት	-989
ውም	-990
▁9	-991
▁መቀ	-992
ሞክራ	-993
▁ቆይ	-994
▁ይህም	-995
▁ፍላጎ	-996
▁የኤ	-997
በዋል	-998
▁ያሳ	-999
ስና	-1000
▁የፀ	-1001
ገለፁት	-1002
▁ምክትል	-1003
ጋል	-1004
ፅሀ	-1005
▁የመጀመሪያ	-1006
መት	-1007
▁በወ	-1008
▁መሳ	-1009
▁በነ	-1010
ገንዘብ	-1011
ህፈት	-1012
ሄድ	-1013
ገብ	-1014
ከላከያ	-1015
▁ይህንን	-1016
ካሄድ	-1017
ጀመር	-1018
ብረተ	-1019
▁የጥ	-1020
ችንን	-1021
▁በአሁኑ	-1022
ቅረብ	-1023
▁ቀናት	-1024
▁ይሆናል	-1025
ጠራ	-1026
▁ሰጥ	-1027
▁ጉዳት	-1028
ናዊ	-1029
ቦት	-1030
▁ቅዱስ	-1031
▁የምር	-1032
▁ውጤት	-1033
▁ተከት	-1034
▁ከባ	-1035
▁ሄ	-1036
▁ተጨማሪ	-1037
ነር	-1038
ካም	-1039
ሮና	-1040
ሎጂ	-1041
ንጫ	-1042
▁ለመስ	-1043
▁ወራት	-1044
ገለፀ	-1045
▁ፈቃ	-1046
ውል	-1047
ግራይ	-1048
ንቀሳ	-1049
ከለ	-1050
▁ስምምነት	-1051
▁በሙሉ	-1052
ቹን	-1053
ለጠ	-1054
ስተኛ	-1055
ንተ	-1056
ገደ	-1057
ቡን	-1058
ላዊ	-1059
▁የአለም	-1060
▁ቀር	-1061
ችው	-1062
ዲያ	-1063
▁አፍሪካ	-1064
▁ሲል	-1065
ሲቲ	-1066
▁መሆን	-1067
ቅና	-1068
▁ጌ	-1069
ከላከል	-1070
▁አስፈላጊ	-1071
ቧል	-1072
▁ህገ	-1073
▁አት	-1074
▁የፋ	-1075
ዳር	-1076
አዊ	-1077
▁ቋ	-1078
▁ፖሊስ	-1079
▁በፍ	-1080
▁አድ	-1081
▁ያላቸው	-1082
▁በመስ	-1083
▁እስካ	-1084
▁አሸ	-1085
ልና	-1086
▁አይደለም	-1087
ሌክት	-1088
▁ምላሽ	-1089
ሻለ	-1090
▁የቆ	-1091
ደረሰ	-1092
መንት	-1093
▁እኔ	-1094
▁10	-1095
ስተዳ	-1096
ቀረቡ	-1097
ላላ	-1098
ማሽ	-1099
▁ተደር	-1100
ኛውም	-1101
▁ገለ	-1102
▁አህ	-1103
▁እንዳል	-1104
▁ይገባ	-1105
ነዚህ	-1106
ሰቦች	-1107
ማራ	-1108
▁ዩኒ	-1109
ጥጥር	-1110
መዘ	-1111
▁መብት	-1112
▁ከዚያ	-1113
▁ትር	-1114
ሶች	-1115
▁ተከትሎ	-1116
ጭት	-1117
ብሪካ	-1118
▁ሸ	-1119
ሽኑ	-1120
ገት	-1121
ቨርሲቲ	-1122
▁ጫ	-1123
▁የህዝብ	-1124
▁ውይይት	-1125
▁ተጠቃ	-1126
ርስቲ	-1127
ሬሽን	-1128
▁በኢ	-1129
▁ደን	-1130
▁የአዲስ	-1131
▁ተገል	-1132
▁እንደማይ	-1133
ረር	-1134
ሞክራሲ	-1135
ቆጠ	-1136
▁አጥ	-1137
ቀረበ	-1138
ቂያ	-1139
▁በድ	-1140
በቃ	-1141
▁ልጅ	-1142
▁ጦር	-1143
▁መሪ	-1144
▁የሁ	-1145
▁መሆናቸውን	-1146
▁ዞ	-1147
▁ለውጥ	-1148
▁ሁሉም	-1149
▁ለማግኘት	-1150
ጋሚ	-1151
▁ለህ	-1152
▁አካል	-1153
▁ዮ	-1154
▁ለም	-1155
ነትን	-1156
ሙት	-1157
▁ስራዎች	-1158
▁ትልቅ	-1159
▁አሰራ	-1160
▁ትኩረት	-1161
▁15	-1162
▁ሆነው	-1163
▁የኢን	-1164
▁ወጣ	-1165
▁ባለፈው	-1166
ቨስት	-1167
በታል	-1168
ጠል	-1169
▁ፅህፈት	-1170
▁የአፍሪካ	-1171
▁ዶክተር	-1172
▁አቅም	-1173
▁የካ	-1174
ፃፀ	-1175
▁ድም	-1176
▁በተጨማሪም	-1177
▁አደጋ	-1178
▁መንገ	-1179
ዝር	-1180
ናገሩት	-1181
ጥሮ	-1182
▁መሳሪያ	-1183
▁ሰአት	-1184
▁በሚል	-1185
▁12	-1186
▁እንድ	-1187
ጓል	-1188
▁በተመለከተ	-1189
ጅት	-1190
ሰር	-1191
▁አስታውቋል	-1192
▁ቻ	-1193
▁ምርት	-1194
ምት	-1195
ደርስ	-1196
ወስ	-1197
▁አምላክ	-1198
▁20	-1199
ክሮ	-1200
▁ወይ	-1201
▁ስልጣ	-1202
▁ወጪ	-1203
▁ቢሮ	-1204
▁ነጥብ	-1205
▁ግለ	-1206
▁በዚህም	-1207
ፍጠር	-1208
ታወቀ	-1209
እራ	-1210
▁አዋጅ	-1211
▁ማስተ	-1212
ሎችን	-1213
▁በባ	-1214
ተት	-1215
በራዊ	-1216
ስታ	-1217
▁ነዋ	-1218
▁ውጪ	-1219
ከታ	-1220
ፎች	-1221
▁ማድረ	-1222
ጣይ	-1223
ቃቤ	-1224
ክምና	-1225
▁ብለው	-1226
▁የህግ	-1227
ንካ	-1228
▁አሰልጣ	-1229
▁ፕሮጀክ	-1230
ዘው	-1231
▁መሀ	-1232
ኦሮሚያ	-1233
▁ይችላሉ	-1234
ላው	-1235
ጣሪ	-1236
ካዮች	-1237
▁በበኩ	-1238
ሱም	-1239
ተን	-1240
▁የሚሰ	-1241
ታደ	-1242
ፅሀፍ	-1243
▁ወንድ	-1244
▁ንጉ	-1245
ራን	-1246
ጮች	-1247
ታማ	-1248
▁አደ	-1249
▁መደ	-1250
▁የዋ	-1251
ዳማ	-1252
▁ከወ	-1253
▁ቫይ	-1254
▁መብ	-1255
▁አንዳንድ	-1256
መለስ	-1257
▁በአለም	-1258
ሁንም	-1259
▁ተቃ	-1260
ሱስ	-1261
ብርና	-1262
ደረጉት	-1263
ማር	-1264
▁በመሆኑም	-1265
▁ሂደት	-1266
ነገ	-1267
20	-1268
▁አስፈፃሚ	-1269
▁ያልተ	-1270
▁ጠቁመዋል	-1271
▁ትእ	-1272
ዘጋጀ	-1273
▁ችግሮች	-1274
▁ከሰ	-1275
▁አያ	-1276
▁ገበያ	-1277
▁ህይወት	-1278
▁ስል	-1279
ድስት	-1280
▁11	-1281
ጣሚ	-1282
ክኖ	-1283
ከፍተኛ	-1284
▁ተመል	-1285
▁አስታውቀዋል	-1286
▁በቅርቡ	-1287
▁የገ	-1288
▁ገብ	-1289
ርፖ	-1290
የሱስ	-1291
▁ስብሰባ	-1292
▁ውሀ	-1293
▁ቅር	-1294
ወጥ	-1295
▁ይፋ	-1296
ው፣	-1297
▁እቅድ	-1298
▁ባለመ	-1299
▁ኩባንያዎች	-1300
ሟል	-1301
▁ድርጅቶች	-1302
▁አካባቢዎች	-1303
▁በተለይም	-1304
▁አሉ	-1305
▁ይታወሳል	-1306
▁የግብ	-1307
▁ስርአ	-1308
ንባ	-1309
ቀስ	-1310
▁የብ	-1311
ፈር	-1312
ካል	-1313
▁በዘ	-1314
የም	-1315
▁መለ	-1316
▁ባለው	-1317
▁ዙሪያ	-1318
ያዙ	-1319
▁አባል	-1320
ካሄደው	-1321
▁ና	-1322
ዳሚ	-1323
▁ተገልጿል	-1324
▁የፌዴራል	-1325
▁እስካሁን	-1326
ጠየ	-1327
▁እንደሚገባ	-1328
▁ፊ	-1329
▁አንፃ	-1330
ንፃ	-1331
▁ቢሆንም	-1332
▁ፋብሪካ	-1333
▁መሰረ	-1334
▁ያህዌ	-1335
▁በብ	-1336
ማቸው	-1337
▁ተፅ	-1338
ነግ	-1339
▁በዋ	-1340
▁በሆነ	-1341
▁ጊ	-1342
ላን	-1343
▁ነው፤	-1344
ሌሎች	-1345
▁የራ	-1346
▁አስተያ	-1347
ኤፍ	-1348
▁አላማ	-1349
▁መው	-1350
▁ታው	-1351
ሶስት	-1352
ጠይ	-1353
ባቸውን	-1354
▁ጋዜ	-1355
ሰጣ	-1356
ሰዋል	-1357
▁ተጠቃሚ	-1358
ብኝ	-1359
እክት	-1360
በሩት	-1361
ያያዘ	-1362
▁አማካ	-1363
▁አሁንም	-1364
▁ጥናት	-1365
▁ፍላጎት	-1366
▁ዜጎች	-1367
ይናንስ	-1368
ልም	-1369
▁ርእ	-1370
ሌክትሪክ	-1371
ዎችና	-1372
ርክ	-1373
▁አድርጎ	-1374
ሸነ	-1375
▁ሁለቱ	-1376
▁የቻ	-1377
ክኖሎጂ	-1378
▁ቶ	-1379
▁ተማሪ	-1380
ፈፀም	-1381
ሀት	-1382
ፍትሄ	-1383
ላቀ	-1384
▁የምት	-1385
መለከ	-1386
▁ስለዚህ	-1387
ክቶ	-1388
▁በረ	-1389
▁ዳር	-1390
▁በራ	-1391
ሳቢ	-1392
ሜን	-1393
▁ኢንዱስትሪ	-1394
ራሉ	-1395
▁አንቀ	-1396
ቢት	-1397
▁ስለሚ	-1398
▁ምርመራ	-1399
ዲህ	-1400
ሰን	-1401
እኖ	-1402
▁ስት	-1403
▁በሌላ	-1404
▁የሆነው	-1405
ታችን	-1406
▁ቡድኑ	-1407
▁ሜትር	-1408
ሱት	-1409
▁ሁለተኛ	-1410
ማን	-1411
▁አምስት	-1412
▁ውጭ	-1413
ሷል	-1414
▁ሰላም	-1415
ጀመረ	-1416
ቀርብ	-1417
▁አህመድ	-1418
▁ወጥ	-1419
▁መጥ	-1420
▁የዘ	-1421
▁ባል	-1422
ብን	-1423
▁አንፃር	-1424
ይል	-1425
▁መም	-1426
ኞቹ	-1427
▁ከሁ	-1428
▁ታሪክ	-1429
ቂት	-1430
▁14	-1431
▁አማራ	-1432
▁ዩኒቨርሲቲ	-1433
▁ኮሚሽን	-1434
▁ሰነ	-1435
▁አቃቤ	-1436
ስን	-1437
▁ጠይ	-1438
▁በኮ	-1439
▁ሀገራት	-1440
▁2012	-1441
▁ተጠር	-1442
▁አቋ	-1443
▁የክልሉ	-1444
ናው	-1445
ብሄር	-1446
ሰረተ	-1447
ነበረው	-1448
ረጋግ	-1449
▁አግ	-1450
▁መዝ	-1451
ምድ	-1452
ዎን	-1453
▁ተፅእኖ	-1454
▁መልኩ	-1455
ክተ	-1456
ወጡ	-1457
▁መታ	-1458
▁የባን	-1459
ጠብ	-1460
ቶቹ	-1461
▁አመልክ	-1462
▁ቃ	-1463
▁ለዚህ	-1464
▁ካል	-1465
▁ዳይሬክተር	-1466
▁በጉ	-1467
▁ሊግ	-1468
ውሮ	-1469
ከብ	-1470
ደን	-1471
▁እለት	-1472
▁ወረዳ	-1473
ኗል	-1474
መዝ	-1475
▁አራት	-1476
ዱን	-1477
ብሄራዊ	-1478
ሀብ	-1479
ጠቅላይ	-1480
▁ንግ	-1481
▁አሰራር	-1482
▁ጥቃት	-1483
▁የአሜሪካ	-1484
▁ትን	-1485
▁የተቀ	-1486
ጥነት	-1487
ንቲ	-1488
▁ነገሮች	-1489
ዲሱ	-1490
▁ይዞ	-1491
ከበር	-1492
▁የተወሰ	-1493
▁ይገኛል	-1494
▁አላ	-1495
ረብ	-1496
▁ወንጀል	-1497
▁ተብሏል	-1498
ረጥ	-1499
ሜዳ	-1500
ሎት	-1501
▁በጀት	-1502
ሊዝ	-1503
ቨስትመንት	-1504
ከርካ	-1505
▁ጥሪ	-1506
በኛ	-1507
▁ቢሆንም፣	-1508
ደገ	-1509
ምፒ	-1510
▁ኢኮኖሚ	-1511
▁ሰራዊ	-1512
▁ተግባር	-1513
ፎር	-1514
▁ኮን	-1515
ፈልግ	-1516
▁ከነ	-1517
በብ	-1518
ራር	-1519
▁በመሆን	-1520
ዛዝ	-1521
▁ኬ	-1522
▁13	-1523
▁መኖ	-1524
ንሲ	-1525
ዋሳ	-1526
▁ሜዳ	-1527
ማኖ	-1528
ረጋገጥ	-1529
ደሩ	-1530
▁በሚያ	-1531
▁የፍ	-1532
▁እጅግ	-1533
የን	-1534
ጋቸው	-1535
ምሩ	-1536
ዮር	-1537
▁የከተማ	-1538
▁ባይ	-1539
▁የተመ	-1540
ፈረ	-1541
ግል	-1542
▁አየር	-1543
ኪያ	-1544
ገራ	-1545
▁ሀብት	-1546
▁ሙከራ	-1547
ሊያ	-1548
ቦችን	-1549
ሳስ	-1550
▁ድርጊ	-1551
ግና	-1552
▁የገንዘብ	-1553
ካባቢው	-1554
ባሳ	-1555
▁ከው	-1556
አዴ	-1557
▁በቁ	-1558
▁መሬት	-1559
ነትና	-1560
ስማ	-1561
▁የቡ	-1562
ካት	-1563
▁ስታ	-1564
▁እንኳን	-1565
ደኛ	-1566
ኖረው	-1567
▁የሌ	-1568
ግዚ	-1569
▁ለማሳ	-1570
ቀርቡ	-1571
ያንዳን	-1572
ዚሁ	-1573
▁የምን	-1574
▁እድገት	-1575
ቁት	-1576
▁መንግስታት	-1577
▁ስነ	-1578
▁ደር	-1579
▁ክስ	-1580
ይን	-1581
▁ተገቢ	-1582
▁የገለፁት	-1583
▁በመግለ	-1584
▁ባለሙያዎች	-1585
▁ተግባራዊ	-1586
▁መስመር	-1587
▁ጅ	-1588
▁መዋ	-1589
ሳቸውን	-1590
▁ይገባል	-1591
ባባ	-1592
▁የግል	-1593
▁የሞ	-1594
ፒታል	-1595
▁አስተዋ	-1596
▁ስፍራ	-1597
ርትራ	-1598
ወር	-1599
ሪፖርት	-1600
▁ሰራተኞች	-1601
▁ባለፉት	-1602
ሽከርካ	-1603
ሙን	-1604
▁ካለ	-1605
ስትና	-1606
▁ታውቋል	-1607
ቤተ	-1608
ልፍ	-1609
▁ጨዋታዎች	-1610
ስቲ	-1611
ዳት	-1612
ሰበ	-1613
ለፍ	-1614
▁ዝር	-1615
ነቱን	-1616
▁የጎ	-1617
▁በአገሪቱ	-1618
ግባት	-1619
▁ባንኮች	-1620
▁አመራሮች	-1621
▁18	-1622
▁በር	-1623
▁አለበት	-1624
ካሄደ	-1625
▁እንደሚችል	-1626
ጥረት	-1627
▁ወል	-1628
▁የፕ	-1629
ሰብአዊ	-1630
▁በሽ	-1631
▁ሀሳ	-1632
▁ሪፖርት	-1633
▁ገልጿል	-1634
▁ሀገር	-1635
ስብ	-1636
ዛሪ	-1637
▁ፈቃድ	-1638
▁16	-1639
ያይ	-1640
▁የተሻለ	-1641
▁ፓ	-1642
ገባው	-1643
መለክ	-1644
ረርሽ	-1645
▁ሊቀ	-1646
▁በበኩላቸው	-1647
ንቋ	-1648
ዳሴ	-1649
ፍታት	-1650
▁ሆኖም	-1651
በረሰብ	-1652
▁መተ	-1653
ቆጣጠር	-1654
▁ፕሮግራ	-1655
▁የተለ	-1656
▁እቃ	-1657
▁ድምፅ	-1658
ገናኛ	-1659
ረሱ	-1660
▁በተያያዘ	-1661
▁የቀድሞ	-1662
ብረተሰቡ	-1663
ዋን	-1664
▁አጋጣሚ	-1665
ቻቸውን	-1666
ዷል	-1667
ስቱ	-1668
▁የጤና	-1669
▁ሚና	-1670
ከፈ	-1671
▁አሜሪካ	-1672
▁ከሀ	-1673
ዱት	-1674
▁ስላ	-1675
ገዋል	-1676
▁ነበሩ	-1677
ዳታ	-1678
▁የቴ	-1679
▁ክፍያ	-1680
ፊያ	-1681
▁የውሀ	-1682
▁ይልቅ	-1683
ራቸውን	-1684
ራንስፖርት	-1685
▁ድርሻ	-1686
ከፋ	-1687
▁ኮርፖ	-1688
ለማ	-1689
ምላክ	-1690
ቆም	-1691
▁ጎል	-1692
▁ዞን	-1693
▁ሱዳን	-1694
ፈልጉ	-1695
ዎች፣	-1696
▁ሪ	-1697
ሻገር	-1698
ወጣው	-1699
ጀመርያ	-1700
▁አንቀፅ	-1701
▁ሀላፊነት	-1702
▁ትክ	-1703
▁አስታወቀ	-1704
▁ሰር	-1705
▁ስልጣን	-1706
ኛል	-1707
ዮርጊ	-1708
ሰጡ	-1709
ስራቅ	-1710
▁ያደር	-1711
▁በጋራ	-1712
ንካራ	-1713
ኛውን	-1714
▁አለው	-1715
▁ተወካዮች	-1716
▁መፍትሄ	-1717
ጅም	-1718
▁ለሪፖርተር	-1719
▁በወቅ	-1720
▁አፈፃፀ	-1721
▁ፕሮጀክት	-1722
▁17	-1723
▁ባህር	-1724
ቀም	-1725
ድሩ	-1726
▁መመር	-1727
▁30	-1728
▁ስጋት	-1729
▁እንዲሆን	-1730
ያህ	-1731
ረዳት	-1732
ቋቋም	-1733
ጀንሲ	-1734
50	-1735
▁የሙ	-1736
▁በመቀ	-1737
▁መልካም	-1738
▁ቫይረስ	-1739
an	-1740
▁ሊሆን	-1741
▁2013	-1742
▁የልማት	-1743
▁እኛ	-1744
ደጋጋሚ	-1745
▁የሚለው	-1746
▁ውድድር	-1747
▁ቱ	-1748
▁የመስ	-1749
▁ለሁ	-1750
▁ክልሎች	-1751
ቲት	-1752
ህአዴ	-1753
▁አብዛ	-1754
ናፊ	-1755
መቱ	-1756
ኞችን	-1757
▁መመ	-1758
ወሀት	-1759
ፅኦ	-1760
ደረጃ	-1761
ተና	-1762
▁የሚገኘው	-1763
▁እንደሚያስ	-1764
ጋዊ	-1765
▁አጋማሽ	-1766
ክሲ	-1767
▁የፀጥታ	-1768
▁የኢኮኖሚ	-1769
▁የድ	-1770
▁ከህ	-1771
▁ሀይሎች	-1772
ባሉ	-1773
▁ዝግጅት	-1774
▁ሆቴ	-1775
▁አብይ	-1776
▁እንግ	-1777
▁ተመሳሳይ	-1778
▁ወታደ	-1779
ማል	-1780
▁ኢየሱስ	-1781
▁የተነሳ	-1782
ባለ	-1783
ጫወ	-1784
▁ከኢትዮጵያ	-1785
▁ማእከል	-1786
▁በአጠቃላይ	-1787
▁ትእዛዝ	-1788
▁የሚያስችል	-1789
ቻችን	-1790
▁ብድር	-1791
▁ክፍለ	-1792
▁ፊት	-1793
▁የሰው	-1794
ህር	-1795
▁ብሏል	-1796
▁ስለመ	-1797
▁እግር	-1798
▁ማሻሻ	-1799
▁መስሪያ	-1800
▁ተጫዋቾች	-1801
ገንባት	-1802
▁ከተሞች	-1803
ዳሪ	-1804
ሁፍ	-1805
▁በመንግስት	-1806
▁መስራት	-1807
ጠን	-1808
ያቸው	-1809
ረታ	-1810
ዊት	-1811
▁ምንዛሪ	-1812
▁ስቴ	-1813
ባቂ	-1814
▁ስን	-1815
ፈጠረ	-1816
▁አገራት	-1817
▁አጠቃላይ	-1818
ህአዴግ	-1819
▁ክርስቲ	-1820
▁ንብረት	-1821
▁ያላ	-1822
ጫወት	-1823
▁የለ	-1824
▁ማግኘት	-1825
▁የአገሪቱ	-1826
▁ግብር	-1827
▁በይ	-1828
▁ተሳት	-1829
ጠናቀቅ	-1830
▁አስተዋፅኦ	-1831
▁ፖለቲካ	-1832
ውጣት	-1833
▁መፅሀፍ	-1834
▁ኢትዮጵያን	-1835
ወዳ	-1836
▁በእር	-1837
ጣን	-1838
ሰት	-1839
▁የበለጠ	-1840
ልን	-1841
ፈቀ	-1842
ሰጠው	-1843
▁እንደሌ	-1844
▁እንዳለበት	-1845
▁ህይወ	-1846
▁የምርጫ	-1847
▁ቀጥ	-1848
▁የጋራ	-1849
ደብ	-1850
ም፤	-1851
▁ከግ	-1852
ርማ	-1853
▁ቅድ	-1854
ሸን	-1855
▁የሚመ	-1856
▁መቆ	-1857
ፈራ	-1858
▁ከዚያም	-1859
ቱት	-1860
▁ህዝቦች	-1861
▁የሚሆኑ	-1862
ስቶ	-1863
▁ተሳ	-1864
▁የነበሩት	-1865
ውና	-1866
ሰድ	-1867
▁ጤና	-1868
▁ሮ	-1869
▁መጋ	-1870
▁በተመሳሳይ	-1871
▁ከቀ	-1872
▁ፓርቲዎች	-1873
ዘን	-1874
ሰል	-1875
ላማዊ	-1876
ያል	-1877
ጋሪ	-1878
▁አልተ	-1879
▁ለመቀ	-1880
▁ተጠና	-1881
ዳቤ	-1882
▁ከባድ	-1883
ስትራ	-1884
ያህዌ	-1885
▁ገፅ	-1886
ዩት	-1887
▁አገሪ	-1888
ምረት	-1889
▁ቦርድ	-1890
▁የነበረውን	-1891
▁ከስ	-1892
▁ጣቢያ	-1893
er	-1894
ግዚአ	-1895
▁መነ	-1896
ቤቱ	-1897
▁ጊዮርጊ	-1898
▁ደብ	-1899
ቶችና	-1900
ባብ	-1901
ግዚአብሄር	-1902
▁ይጠበ	-1903
▁ጠንካራ	-1904
▁ድንጋ	-1905
▁መሆኑንም	-1906
▁ነበረ	-1907
▁አሰልጣኝ	-1908
ራይ	-1909
ጉን	-1910
▁ጉዳዩ	-1911
ኳይ	-1912
ዘጋጅ	-1913
ጠረ	-1914
▁ምድር	-1915
▁ሀብ	-1916
▁ሰፊ	-1917
ርያም	-1918
ጣጫ	-1919
▁አመቱ	-1920
▁ወረርሽ	-1921
ጭር	-1922
▁ስሜ	-1923
ፈን	-1924
▁ኡ	-1925
▁ባለስልጣን	-1926
ፁም	-1927
000	-1928
ነኛ	-1929
▁በከፍተኛ	-1930
▁በጎ	-1931
▁የክ	-1932
ከናወን	-1933
▁የወጣ	-1934
ገነባ	-1935
ቸኳይ	-1936
▁ጎን	-1937
ዳቸው	-1938
▁ይጠበቃል	-1939
▁ምእራ	-1940
ራም	-1941
▁ረገድ	-1942
▁ነዋሪዎች	-1943
▁ዴሞክራሲ	-1944
▁በክ	-1945
▁ስለሆነ	-1946
▁የአገር	-1947
ቻሉ	-1948
ውሞ	-1949
ሀል	-1950
ሊየን	-1951
▁ቴክኖሎጂ	-1952
▁የለም	-1953
▁እምነት	-1954
▁ከታ	-1955
መለከት	-1956
ቂቅ	-1957
ታፊ	-1958
▁አምባሳ	-1959
ጠቁ	-1960
▁አመራር	-1961
በልጥ	-1962
▁ሰላ	-1963
ከታተ	-1964
▁ለሰ	-1965
▁ዩ	-1966
▁ላለ	-1967
▁ተከላ	-1968
▁በታች	-1969
በረታ	-1970
▁የማስ	-1971
▁ቋንቋ	-1972
▁ግጭት	-1973
በራት	-1974
▁ፍት	-1975
▁መጨረሻ	-1976
▁ጦርነት	-1977
▁መከላከያ	-1978
▁በቂ	-1979
▁ይናገ	-1980
▁24	-1981
ብብር	-1982
ቀረበው	-1983
▁ተጠቅ	-1984
ሪም	-1985
▁በወቅቱ	-1986
▁ያላቸውን	-1987
ናገር	-1988
▁ስልጠና	-1989
▁ነጋ	-1990
▁የል	-1991
ሱዳን	-1992
ላንድ	-1993
▁አውሮ	-1994
ሆናቸው	-1995
ኒያ	-1996
▁ባለሀብ	-1997
▁ቴሌ	-1998
ከረም	-1999
▁መድረክ	-2000
▁በሌሎች	-2001
ነቶች	-2002
ግባር	-2003
ደርገው	-2004
▁ቢያ	-2005
▁የቦ	-2006
▁ልብ	-2007
▁ኖ	-2008
▁አግኝ	-2009
▁ባሻገር	-2010
▁ጄ	-2011
▁አቅጣጫ	-2012
▁ኢትዮጵያውያን	-2013
ገኙት	-2014
ግባብ	-2015
▁የሚችል	-2016
ድድር	-2017
...	-2018
ታር	-2019
ጀመረው	-2020
▁አድርጓል	-2021
ስተዋ	-2022
▁አስተያየት	-2023
▁ክፍሎች	-2024
ል፣	-2025
▁ኪሎ	-2026
▁አሸናፊ	-2027
▁ተቋም	-2028
▁በል	-2029
▁የኮሮና	-2030
▁ድል	-2031
▁ዝቅ	-2032
▁ከበ	-2033
▁አማካይ	-2034
▁25	-2035
ገልፃ	-2036
ስራኤል	-2037
ላቅ	-2038
▁ጥር	-2039
ውሮፓ	-2040
ሳተፉ	-2041
▁ገብረ	-2042
▁በሰጡት	-2043
▁የትምህርት	-2044
on	-2045
▁የሽ	-2046
▁በአፍሪካ	-2047
▁ፌዴ	-2048
ሬሽኑ	-2049
▁ፎ	-2050
ጫው	-2051
▁የጠ	-2052
▁ጫና	-2053
▁ሻ	-2054
▁ወጣቶች	-2055
ንቀሳቀ	-2056
▁መንግስቱ	-2057
▁ንጉስ	-2058
▁በቀጣይ	-2059
▁መንፈ	-2060
▁በክልሉ	-2061
▁የቅ	-2062
▁ሴቶች	-2063
ናይት	-2064
ቻለ	-2065
ርቶ	-2066
▁አለማ	-2067
▁ፀሀ	-2068
▁ግድብ	-2069
in	-2070
▁መድ	-2071
▁ተገኝ	-2072
▁ወስ	-2073
ባዊ	-2074
▁የጦር	-2075
ገዛ	-2076
▁መልእክት	-2077
▁ኤጀንሲ	-2078
▁ከአንድ	-2079
ፉን	-2080
▁ጉዞ	-2081
▁የሚታ	-2082
ነስተኛ	-2083
ሬታ	-2084
▁መርሀ	-2085
▁መንገዶች	-2086
▁ጭምር	-2087
▁ቡድኖች	-2088
ሶማ	-2089
▁እርዳታ	-2090
ንቃ	-2091
ጠናከር	-2092
▁ዋንጫ	-2093
▁ምት	-2094
▁የኦ	-2095
▁የጉ	-2096
▁አሳስ	-2097
▁ማብራ	-2098
▁የሚታወ	-2099
ሬዳ	-2100
ጣል	-2101
▁የሰብአዊ	-2102
▁ለመስጠት	-2103
▁ተች	-2104
▁የድር	-2105
▁ተከሳ	-2106
▁ደጋ	-2107
▁ቦታዎች	-2108
ጧል	-2109
ክልል	-2110
▁በአል	-2111
▁ፕሬዝ	-2112
ሳዊ	-2113
ምስት	-2114
ጀመሩ	-2115
ፌደ	-2116
ስ፣	-2117
▁የሚፈ	-2118
▁በቅ	-2119
▁ሰራዊት	-2120
▁የፋይናንስ	-2121
ጠቀሙ	-2122
▁ስቴት	-2123
ላለፍ	-2124
ድሮ	-2125
ዝም	-2126
▁ስድስት	-2127
ይወት	-2128
▁ግልፅ	-2129
11	-2130
ከባ	-2131
▁የሲ	-2132
▁መክ	-2133
▁ይመስ	-2134
▁ተዋ	-2135
▁አራ	-2136
▁ሀይለ	-2137
▁ግለሰቦች	-2138
ፏል	-2139
▁እንዳለው	-2140
▁ጥያቄዎች	-2141
▁ማለ	-2142
ነህ	-2143
▁መስጠት	-2144
ጠሩ	-2145
ስተካ	-2146
▁በመተ	-2147
▁በሁለቱ	-2148
ጠበቀ	-2149
ገም	-2150
▁ያመለክ	-2151
▁አዳዲስ	-2152
▁ሩ	-2153
▁በፍጥነት	-2154
▁ህጋዊ	-2155
▁ያደረገ	-2156
▁ለመከላከል	-2157
▁ምክንያቱም	-2158
ባበ	-2159
ስተር	-2160
▁ወገ	-2161
30	-2162
ደሰ	-2163
▁ይገልፃ	-2164
መሰ	-2165
ርባ	-2166
ናሽ	-2167
ንጉ	-2168
ችለው	-2169
▁ፖሊሲ	-2170
▁እንዳስ	-2171
▁ደቡብ	-2172
▁የዳ	-2173
▁ሀላፊዎች	-2174
ጠኛ	-2175
▁ትክክለ	-2176
ልስ	-2177
▁ዙር	-2178
▁ሌላው	-2179
▁እጥረት	-2180
ውው	-2181
▁ጆ	-2182
▁ካሳ	-2183
ቀበ	-2184
▁አስመል	-2185
ለህ	-2186
▁እየሰራ	-2187
ቀረቡት	-2188
▁ተደርጎ	-2189
▁ጥበቃ	-2190
ብዛ	-2191
ንታ	-2192
ሬዳዋ	-2193
ልቁ	-2194
ሳኝ	-2195
▁ዝርዝር	-2196
▁የሆኑት	-2197
ዎቹን	-2198
▁የሰላም	-2199
ጠኝ	-2200
▁የሚችሉ	-2201
ሸነፍ	-2202
▁ተከታ	-2203
ለቀ	-2204
▁ይኼ	-2205
▁ኮሚሽ	-2206
▁መቶ	-2207
▁ተማሪዎች	-2208
▁የመጨረሻ	-2209
▁ለማወቅ	-2210
at	-2211
▁የተባለው	-2212
▁እንደሚገኝ	-2213
ቀጥል	-2214
▁ተሳትፎ	-2215
▁ጃ	-2216
▁የፍት	-2217
▁ማብራሪያ	-2218
▁የአየር	-2219
ሞን	-2220
ካሂ	-2221
▁ያው	-2222
ናይትድ	-2223
ካተ	-2224
▁ደብዳቤ	-2225
▁ሂደ	-2226
▁ከሌሎች	-2227
▁ከም	-2228
▁ፕሮጀክቶች	-2229
ምህር	-2230
10	-2231
ውስ	-2232
ፋር	-2233
▁2010	-2234
▁በተደጋጋሚ	-2235
▁ይላል	-2236
▁ምል	-2237
▁በቁጥጥር	-2238
ሀንስ	-2239
▁ለኢትዮጵያ	-2240
ያት	-2241
▁፤	-2242
▁አዲሱ	-2243
2012	-2244
▁አበባ፣	-2245
ያንዳንዱ	-2246
▁በኤ	-2247
▁ማሀበር	-2248
▁የመን	-2249
▁ተሰ	-2250
▁በደቡብ	-2251
ዳል	-2252
▁ሀም	-2253
ላችሁ	-2254
ማኖት	-2255
▁ለመፍታት	-2256
ከረ	-2257
▁ኢንተር	-2258
▁የወደ	-2259
ዛሬው	-2260
▁የአማራ	-2261
ንቲባ	-2262
ኪና	-2263
ምጣት	-2264
▁አስር	-2265
▁የመጣ	-2266
▁ምግብ	-2267
▁በአገር	-2268
ፈፀመ	-2269
▁2011	-2270
▁መሀመድ	-2271
ፍን	-2272
▁ዜና	-2273
or	-2274
ፓርቲ	-2275
ነታቸው	-2276
▁ህንፃ	-2277
▁ገለፃ	-2278
▁ተጋ	-2279
▁ያገኘ	-2280
▁ባለሙያ	-2281
▁በመግለፅ	-2282
▁ጠባቂ	-2283
▁ወዲህ	-2284
▁አድርገው	-2285
ድብ	-2286
▁አትሌ	-2287
▁ህፃ	-2288
▁መግባ	-2289
15	-2290
▁አመልክተዋል	-2291
ሻሻል	-2292
ታን	-2293
▁ባለስልጣናት	-2294
ወያ	-2295
ላቁ	-2296
ምባ	-2297
▁ቁጥጥር	-2298
ባለው	-2299
ንቶ	-2300
ይቶ	-2301
▁እዚህ	-2302
▁መሪዎች	-2303
▁ተችሏል	-2304
▁አስኪያ	-2305
ጨዋታው	-2306
▁በከተማ	-2307
ፖር	-2308
ሩም	-2309
ላቂ	-2310
▁ጥና	-2311
ኬሽን	-2312
▁አልፎ	-2313
▁ሊቀመን	-2314
▁ከውጭ	-2315
ዲት	-2316
▁መደረጉ	-2317
▁አፈፃፀም	-2318
ግጥ	-2319
▁ተሳታፊ	-2320
▁እንድት	-2321
▁ከሚያ	-2322
▁የበላይ	-2323
▁ምንጮች	-2324
▁ለምን	-2325
ያቂ	-2326
▁ትና	-2327
▁ሆኗል	-2328
▁በስተ	-2329
▁ንግግር	-2330
▁22	-2331
ሾች	-2332
ንደ	-2333
▁እሱ	-2334
ገልግሎ	-2335
18	-2336
መጡ	-2337
▁በመጀመሪያ	-2338
ሀኒ	-2339
ዝና	-2340
ላኩ	-2341
▁ኔ	-2342
▁ጊዮርጊስ	-2343
▁ጓ	-2344
ኖራቸው	-2345
ራች	-2346
ርዱ	-2347
▁የለው	-2348
የሁ	-2349
ቆጠር	-2350
ማማ	-2351
ፈልጋ	-2352
▁ጋዜጣ	-2353
ስተዋል	-2354
▁ዘግ	-2355
ባቸዋል	-2356
▁ተሽከርካ	-2357
ቃወ	-2358
▁ባንኩ	-2359
ጨት	-2360
▁አጠና	-2361
▁ፈተና	-2362
ታወቁ	-2363
▁አረ	-2364
▁ባለቤት	-2365
▁ረቂቅ	-2366
ገረ	-2367
ርቅ	-2368
▁ግብፅ	-2369
▁በመጠቀም	-2370
▁ገበ	-2371
ሴቶች	-2372
ፈረን	-2373
ሳተፍ	-2374
ንጀል	-2375
▁እርስ	-2376
▁የምግብ	-2377
▁ማንኛውም	-2378
▁ችሏል	-2379
▁ወረርሽኝ	-2380
ህና	-2381
▁21	-2382
▁በዚሁ	-2383
▁ሴት	-2384
ችላለ	-2385
ክሽን	-2386
▁የአንድ	-2387
▁እንደሚሆን	-2388
▁ግጭ	-2389
▁ይሁንና	-2390
▁ይላሉ	-2391
▁ወለ	-2392
ኒክ	-2393
▁ለመስራት	-2394
▁ምርቶች	-2395
ቡር	-2396
▁መልክ	-2397
ግባቡ	-2398
▁ከጥ	-2399
▁በስራ	-2400
▁እነዚህን	-2401
▁ቋሚ	-2402
▁አብራር	-2403
ራቢ	-2404
▁መረጃዎች	-2405
ገውን	-2406
▁በህገ	-2407
▁ጥቂት	-2408
ብረተሰብ	-2409
▁መመሪያ	-2410
መለሱ	-2411
▁ውጤታማ	-2412
ናቀ	-2413
በራቸው	-2414
ገለፀው	-2415
▁ሪፖርተር	-2416
ድረስ	-2417
ሪምየር	-2418
ኳስ	-2419
▁አዋጁ	-2420
ሀሴ	-2421
▁ሰባት	-2422
▁ሰኔ	-2423
ኮኖሚያ	-2424
ቡቲ	-2425
ሀንነት	-2426
▁መመርያ	-2427
▁ሰዎችን	-2428
▁ከእነዚህ	-2429
▁አቋም	-2430
▁መሰረታዊ	-2431
በራ	-2432
▁ይዘ	-2433
ካታ	-2434
▁ኢትዮጵያዊ	-2435
▁ክለቦች	-2436
▁ተራ	-2437
▁የቀረበ	-2438
▁የደቡብ	-2439
▁የዩ	-2440
▁ቀላል	-2441
መደ	-2442
▁ብዙሀን	-2443
▁ቆይታ	-2444
▁ርእሰ	-2445
▁ሰለ	-2446
ኬት	-2447
▁ብል	-2448
▁ጨዋታው	-2449
መሩ	-2450
▁ልማ	-2451
ለኝ	-2452
▁ልክ	-2453
መነ	-2454
ጉም	-2455
በኞች	-2456
▁ጥቃ	-2457
ፈፀሙ	-2458
▁ሲሆኑ	-2459
▁ፕሮግራም	-2460
▁ውል	-2461
▁ቅጣት	-2462
ሮቹ	-2463
ታሉ	-2464
▁ልጆ	-2465
▁ይበልጥ	-2466
▁ተሰጥ	-2467
ንቃቄ	-2468
ሹራንስ	-2469
▁ህዝቡ	-2470
▁ባሉ	-2471
▁ጠቅላላ	-2472
ገሪቱን	-2473
▁ማስረጃ	-2474
ቪድ	-2475
ዲዮ	-2476
▁23	-2477
▁አገሪቱ	-2478
ቆጠሩ	-2479
▁የሚገኝ	-2480
.5	-2481
▁ተቃውሞ	-2482
▁በኦሮሚያ	-2483
▁ልምድ	-2484
ተኛው	-2485
▁ማክ	-2486
ገበ	-2487
▁ሰነድ	-2488
▁መነሻ	-2489
▁ቅሬታ	-2490
▁ችሎ	-2491
▁አምባሳደር	-2492
ድኑ	-2493
▁በማሳ	-2494
ፕሎ	-2495
ገናኘ	-2496
▁የተፈ	-2497
▁መልስ	-2498
▁ምሳሌ	-2499
▁የትግራይ	-2500
▁ሰብሳቢ	-2501
▁በዋና	-2502
▁እንዲፈ	-2503
▁ይገኛሉ	-2504
ጠዋል	-2505
▁አቅርቦት	-2506
▁ዋስትና	-2507
▁ባለፈ	-2508
▁ከንቲባ	-2509
ጥን	-2510
ጠፋ	-2511
ሞት	-2512
▁በምር	-2513
ሄዱ	-2514
▁በሁለት	-2515
▁በየአ	-2516
ፌደራል	-2517
ቆጥ	-2518
▁ተግባራት	-2519
ህንነት	-2520
ገባት	-2521
ፈጠረው	-2522
ታዎች	-2523
▁ሁሉንም	-2524
▁ህክምና	-2525
▁ብሄር	-2526
▁እድሜ	-2527
በትና	-2528
▁በቀጥታ	-2529
ዥን	-2530
ዘርፉ	-2531
ናገሩ	-2532
▁ሹ	-2533
▁ገና	-2534
▁ክት	-2535
ሳሰ	-2536
▁በመጨረሻ	-2537
▁ማር	-2538
መልከት	-2539
ኮኖሚያዊ	-2540
▁አስቀ	-2541
ርፍ	-2542
▁አቅርበዋል	-2543
▁የተናገሩት	-2544
▁ስምም	-2545
በሌ	-2546
ረዱ	-2547
▁'	-2548
▁በሁለተኛ	-2549
ጥቃት	-2550
▁አድርገዋል	-2551
▁ለሀ	-2552
▁አነስተኛ	-2553
▁በአግባቡ	-2554
ሰጣቸው	-2555
ጦች	-2556
ማቸውን	-2557
▁ማሻሻያ	-2558
ይቱ	-2559
ጣቸው	-2560
▁ያስረዳ	-2561
▁እውነ	-2562
▁የውድድር	-2563
▁መኮ	-2564
ወደ	-2565
▁አማራጭ	-2566
▁ይታ	-2567
ስቸኳይ	-2568
▁ማረ	-2569
▁ሊሆኑ	-2570
▁በህግ	-2571
ጊዜው	-2572
▁ዮሀንስ	-2573
▁የዚህ	-2574
ጠውን	-2575
▁አስመልክቶ	-2576
▁አጥቂ	-2577
▁አንተ	-2578
▁የሚለውን	-2579
om	-2580
▁መወሰ	-2581
▁መግ	-2582
▁ዛ	-2583
▁መንግስታዊ	-2584
▁የኦሮሚያ	-2585
▁ለህዝብ	-2586
▁እንደገለፁት	-2587
▁ተለ	-2588
▁የዋጋ	-2589
▁በዚያ	-2590
▁በመሆኑ፣	-2591
ንግሊዝ	-2592
ኒው	-2593
▁ብርሀ	-2594
ሆኑም	-2595
ስተዳደር	-2596
ገሩ	-2597
ጅቱ	-2598
▁ይታወቃል	-2599
▁ጠይቀዋል	-2600
▁የደረ	-2601
▁እየተደረገ	-2602
▁በማን	-2603
▁መስከረም	-2604
▁ጳ	-2605
▁ደጋፊ	-2606
▁እስራ	-2607
▁ዘገባ	-2608
▁ጥቅምት	-2609
▁ወረ	-2610
▁ጌታ	-2611
▁28	-2612
▁ከሁለት	-2613
▁አግባብ	-2614
▁ወይዘ	-2615
▁ድርጊት	-2616
▁ወሳኝ	-2617
▁ይናገራሉ	-2618
▁ደመ	-2619
ዛቤ	-2620
ርስቶ	-2621
ነጋገር	-2622
en	-2623
▁ሀብረት	-2624
▁ካር	-2625
ቷን	-2626
▁እም	-2627
▁ተያይ	-2628
▁ትናንት	-2629
▁መረጃዎችን	-2630
▁ደረ	-2631
ለያየ	-2632
▁ሚሊየን	-2633
ሪት	-2634
▁ክለብ	-2635
ሪው	-2636
ያጭ	-2637
▁ስራዎችን	-2638
▁ይደ	-2639
▁አላቸው	-2640
▁ጂ	-2641
ገመ	-2642
▁ባለሀብቶች	-2643
▁ወገኖች	-2644
▁27	-2645
▁የህክምና	-2646
▁ፕሬዚዳን	-2647
▁ፍሬ	-2648
ግም	-2649
▁ተደራ	-2650
▁አጀ	-2651
▁ተቀባይ	-2652
ጡን	-2653
▁ሊቀመንበር	-2654
ፍና	-2655
ww	-2656
ቻላል	-2657
▁ይኖ	-2658
▁ኢንቨስትመንት	-2659
▁በነበረው	-2660
ንብ	-2661
ዋሚ	-2662
▁ዘመቻ	-2663
▁ልዩነት	-2664
ሮው	-2665
ፕሎማ	-2666
▁ለምሳሌ	-2667
▁ወደፊት	-2668
▁አማካኝነት	-2669
ዮችን	-2670
▁ስጋ	-2671
▁የሚያደርጉ	-2672
ከሉ	-2673
▁በውጭ	-2674
ሊስ	-2675
▁አኳ	-2676
▁መሸ	-2677
▁አስደ	-2678
ጣጥ	-2679
▁ሶስተኛ	-2680
▁ፍቅር	-2681
▁ተስፋዬ	-2682
ኳር	-2683
ንባታ	-2684
▁ቀጠ	-2685
ሀዊ	-2686
▁ለፍ	-2687
▁ያመለክታል	-2688
ኢን	-2689
▁ይቻላል	-2690
ላከ	-2691
▁ስህ	-2692
ገራችን	-2693
▁የሆነውን	-2694
▁ለብ	-2695
▁በሁሉም	-2696
▁ወቅታዊ	-2697
ሳካ	-2698
▁በዛሬው	-2699
▁ለመፍጠር	-2700
ከናወኑ	-2701
▁ያስተ	-2702
tt	-2703
▁አቢ	-2704
ቃቸው	-2705
▁ይሄ	-2706
ስትራክሽን	-2707
▁በትግራይ	-2708
ዶችን	-2709
▁ትንሽ	-2710
ነታቸውን	-2711
ደል	-2712
ጠናቀቁ	-2713
▁ማጣ	-2714
ላይታ	-2715
▁ይኖር	-2716
የአ	-2717
ላትን	-2718
▁ትውል	-2719
▁የግብርና	-2720
▁ኤሌክትሪክ	-2721
ለበት	-2722
▁የመከላከያ	-2723
ጋና	-2724
▁እንደተናገሩት	-2725
ኒስት	-2726
▁እንደገለፁ	-2727
▁መደበኛ	-2728
▁ዘመናዊ	-2729
ባበር	-2730
▁ያደረገው	-2731
▁ጥቅ	-2732
ጀር	-2733
▁አወ	-2734
▁በቀላሉ	-2735
ዳና	-2736
ስፋት	-2737
▁አፍ	-2738
▁ተመ	-2739
▁ህብረት	-2740
ልጋ	-2741
▁ይዘው	-2742
▁የቤት	-2743
▁የደረሰ	-2744
ሴት	-2745
ዳዩ	-2746
▁እንደገና	-2747
▁ወገን	-2748
▁ስሜት	-2749
▁ጉብኝ	-2750
▁ተጠርጣሪ	-2751
▁የኤሌክትሪክ	-2752
ዳረ	-2753
▁እየተሰራ	-2754
▁ማስታወ	-2755
▁ከአዲስ	-2756
▁የባለ	-2757
▁26	-2758
▁በግልፅ	-2759
▁አርብ	-2760
ኖችን	-2761
ሆነው	-2762
▁ቶን	-2763
▁አውሮፕ	-2764
▁ኢኮኖሚያዊ	-2765
ሰስ	-2766
ኩት	-2767
▁የምታ	-2768
▁ግንቦት	-2769
▁የመጀመሪያው	-2770
ንድን	-2771
▁ግም	-2772
▁ድርድር	-2773
▁ዴሞክራሲያዊ	-2774
199	-2775
▁የይ	-2776
▁የሚተ	-2777
▁ሀዋሳ	-2778
▁h	-2779
ካሄዱ	-2780
ፈጠሩ	-2781
ገልግሎት	-2782
ጣቱ	-2783
▁እንደማ	-2784
▁እያደረገ	-2785
ቀፍ	-2786
▁ሬ	-2787
ቀመጥ	-2788
▁የባንኩ	-2789
al	-2790
▁ያስፈል	-2791
ራዘ	-2792
ክተሩ	-2793
ጠኞች	-2794
▁ባደረጉት	-2795
ዝቡ	-2796
ፋሉ	-2797
▁መዘ	-2798
▁የተደረገ	-2799
ንፈ	-2800
▁ደስታ	-2801
ቫይረሱ	-2802
▁አማካይነት	-2803
-1	-2804
▁ወይዘሮ	-2805
▁በፖ	-2806
▁ነጋዴ	-2807
ገበያ	-2808
▁ፈፅ	-2809
▁መጀመሪያ	-2810
በርካታ	-2811
▁ኩባንያው	-2812
ቻለው	-2813
ጨዋታ	-2814
ፋን	-2815
ደርሱ	-2816
▁ያሉትን	-2817
▁የተሰማ	-2818
ቴጂ	-2819
▁አብራርተዋል	-2820
ጋጠ	-2821
ችልም	-2822
ያዘው	-2823
▁ትብብር	-2824
▁ቅርንጫ	-2825
ar	-2826
▁ተቋማ	-2827
▁በፕ	-2828
ቀል	-2829
▁የባንክ	-2830
▁ከዚህም	-2831
▁ነጥ	-2832
▁በአካባቢው	-2833
▁አለባቸው	-2834
▁የተመሰረተ	-2835
ቀሳ	-2836
▁እንደገለፁት፣	-2837
ለካ	-2838
▁ወጣት	-2839
▁አርሶ	-2840
▁የተገኘ	-2841
ቅርብ	-2842
ብርሀ	-2843
▁አሳስበዋል	-2844
ሁድ	-2845
▁ስፖርት	-2846
▁የሰራ	-2847
▁ዘርፎች	-2848
ከናው	-2849
▁ሲሆን፤	-2850
ነሰ	-2851
▁በፅ	-2852
▁የተባበሩት	-2853
ሎስ	-2854
▁ሆቴል	-2855
▁ጭማሪ	-2856
▁የብሄራዊ	-2857
▁የዲ	-2858
ዳሜ	-2859
ከላዊ	-2860
ሎቹ	-2861
▁በቦ	-2862
▁!	-2863
▁በቀጣ	-2864
▁ነው፣	-2865
▁አብዱ	-2866
▁የመጀመርያ	-2867
▁ስደ	-2868
▁ራሱን	-2869
▁ወታደራዊ	-2870
▁በሀላ	-2871
ሮጀ	-2872
▁አቤቱ	-2873
▁ነፃነት	-2874
ራሽ	-2875
▁ያመ	-2876
▁በአማራ	-2877
ህል	-2878
▁ቀድሞ	-2879
▁ልም	-2880
▁ክር	-2881
ስቡ	-2882
▁አስኪያጅ	-2883
ሳሉ	-2884
ልፅግና	-2885
ገልፁ	-2886
ለል	-2887
▁ለአንድ	-2888
▁መስተዳ	-2889
▁ሆስ	-2890
▁የቱ	-2891
▁የሚገባ	-2892
ሪዝም	-2893
▁እውቅና	-2894
▁ያስታወ	-2895
▁ኑ	-2896
ሂሳብ	-2897
▁ችሎት	-2898
ስተው	-2899
ውሰድ	-2900
▁የአምላክ	-2901
መለከተው	-2902
▁አንዳን	-2903
ክታር	-2904
▁አንድነት	-2905
ረጋጋት	-2906
ዋቂ	-2907
▁የዜ	-2908
ጎችን	-2909
ተኝነት	-2910
▁በመስጠት	-2911
ጋዜ	-2912
▁እንደሆኑ	-2913
▁ፕሬዝዳንት	-2914
ሰጠ	-2915
▁የተለየ	-2916
12	-2917
በትም	-2918
▁ያደረጉት	-2919
▁በቀለ	-2920
ክሩ	-2921
▁ምንጭ	-2922
▁የፅ	-2923
▁ተያይዞ	-2924
▁50	-2925
▁አረጋግ	-2926
▁ፀሀፊ	-2927
ንቀሳቀሱ	-2928
▁የእር	-2929
▁ድንጋጌ	-2930
▁አለመሆኑ	-2931
-0	-2932
ካን	-2933
▁ቀዳሚ	-2934
▁የተከሰ	-2935
▁ምሁ	-2936
▁ጠቅሰዋል	-2937
▁ይቀ	-2938
▁አክሲ	-2939
▁ጥላ	-2940
▁አክለዋል	-2941
አብ	-2942
▁የተወሰነ	-2943
▁ሰጥተዋል	-2944
▁የምርመራ	-2945
ሲል	-2946
▁2009	-2947
ጋጥ	-2948
▁በድጋሚ	-2949
እና	-2950
▁ሳቢያ	-2951
▁ተጠያቂ	-2952
▁ግዛት	-2953
▁/	-2954
▁የሚያሳ	-2955
▁S	-2956
ርስቶስ	-2957
ቢሲ	-2958
ድርሻ	-2959
▁ቪ	-2960
▁ፍፁም	-2961
ጀመርያው	-2962
▁ሰላማዊ	-2963
▁የማእ	-2964
▁ስትራ	-2965
ሜሽን	-2966
ወሰን	-2967
▁ተጫዋች	-2968
st	-2969
ናልባት	-2970
▁ይፈ	-2971
▁በኢን	-2972
በላ	-2973
በአ	-2974
▁መቆየ	-2975
▁ጥራት	-2976
▁እንዳለባቸው	-2977
▁እንዳልሆነ	-2978
▁መሆናቸው	-2979
ይታ	-2980
▁0	-2981
ሯቸው	-2982
▁ግዴ	-2983
ሳን	-2984
▁ፅሁፍ	-2985
▁ተብለው	-2986
ሊን	-2987
ገለግ	-2988
▁ኤል	-2989
▁ዝግጁ	-2990
▁የሁለቱ	-2991
▁ካለው	-2992
ችሁን	-2993
▁ይሰጣ	-2994
▁ከሌ	-2995
▁ሳያ	-2996
▁ስራው	-2997
ቐለ	-2998
▁ፕሮፌ	-2999
▁ኮርፖሬሽን	-3000
▁ስለተ	-3001
▁ብሄረ	-3002
▁መጋቢት	-3003
ቸጋሪ	-3004
ሰኞ	-3005
ፈዋል	-3006
▁እንዳሉት	-3007
ፈለጉ	-3008
ትም	-3009
▁ስራውን	-3010
▁አኳያ	-3011
ቾችን	-3012
▁የቢ	-3013
▁ላይም	-3014
ናይ	-3015
▁ለስ	-3016
▁ሰጪ	-3017
ላችን	-3018
ጣሪዎች	-3019
▁ስቴትስ	-3020
▁መጠቀም	-3021
▁ሰጥቷል	-3022
▁የሚሰራ	-3023
▁በመሆናቸው	-3024
//	-3025
▁ተመስ	-3026
▁ትራንስፖርት	-3027
▁ዝቅተኛ	-3028
17	-3029
▁የሚመራ	-3030
ሰልጣ	-3031
ፈልገው	-3032
ኔት	-3033
▁ቻይና	-3034
ክለቡ	-3035
▁ጅማ	-3036
ttp	-3037
▁እስኪ	-3038
▁ሳምን	-3039
▁ተቀባይነት	-3040
▁ዳዊት	-3041
ዘዋ	-3042
ጀምር	-3043
60	-3044
▁ተል	-3045
ኮም	-3046
▁ካሉ	-3047
▁ድረ	-3048
://	-3049
ዘጋጀት	-3050
ሴን	-3051
▁ተወዳ	-3052
▁ቁር	-3053
▁በካ	-3054
ቪዥን	-3055
▁ብቃት	-3056
ጥረው	-3057
መና	-3058
▁ከሳ	-3059
ላቸዋል	-3060
▁ይኸ	-3061
▁አጀንዳ	-3062
▁የነዳጅ	-3063
▁ሰን	-3064
ይማኖት	-3065
▁ኢንጂ	-3066
▁29	-3067
ጣኝ	-3068
▁የኢንዱስትሪ	-3069
ንቀሳቀስ	-3070
▁እንደምት	-3071
▁የሚሉት	-3072
ያንስ	-3073
▁ኮሚቴው	-3074
▁40	-3075
▁ሪፖር	-3076
▁ከት	-3077
▁ርቀት	-3078
▁ቀጠሮ	-3079
▁በፀ	-3080
▁ተመራ	-3081
▁የብድር	-3082
▁አዳማ	-3083
ንክ	-3084
▁መፈ	-3085
▁ሰብአዊ	-3086
ምረ	-3087
ኩባንያ	-3088
▁ቅድመ	-3089
ሬዚ	-3090
▁ነዋሪ	-3091
▁እናንተ	-3092
▁ታስ	-3093
ተኮ	-3094
ከተል	-3095
▁2008	-3096
ቲክ	-3097
▁ጉል	-3098
ቻይና	-3099
▁እቅ	-3100
▁የቻይና	-3101
ቱ፣	-3102
▁ግርማ	-3103
ጓዝ	-3104
▁እንደሚገኙ	-3105
ሶችን	-3106
▁ኤር	-3107
ምረው	-3108
▁ፖለቲካዊ	-3109
▁ከመስ	-3110
▁በግብ	-3111
▁ዱ	-3112
ካኤል	-3113
▁በአሜሪካ	-3114
▁ችግሮችን	-3115
▁መገኘ	-3116
▁ጉድ	-3117
▁የእድ	-3118
▁ክርስቲያ	-3119
ችኋ	-3120
▁ተቀብ	-3121
▁ማሀበራት	-3122
ሙስ	-3123
ቆይ	-3124
▁መስጠ	-3125
▁ታደሰ	-3126
ኔራል	-3127
▁ማርያም	-3128
መም	-3129
▁ምናልባት	-3130
▁ፕሪምየር	-3131
▁አሻ	-3132
▁በሀገሪቱ	-3133
ጠኝነት	-3134
▁http	-3135
ፎርሜሽን	-3136
▁ማለትም	-3137
le	-3138
ኦሮሞ	-3139
▁ሀምሌ	-3140
▁ከተለያዩ	-3141
ረፍት	-3142
ከናወነ	-3143
ባር	-3144
▁ብዬ	-3145
▁ገደ	-3146
▁የስነ	-3147
ላእክት	-3148
▁የሚሉ	-3149
▁የሊ	-3150
▁ሁኔታዎች	-3151
40	-3152
▁መፍጠር	-3153
▁ዳን	-3154
▁የገቢ	-3155
ጠቀሱት	-3156
ገራቸው	-3157
▁ባወጣው	-3158
▁በውይ	-3159
ተናል	-3160
▁ታላቅ	-3161
▁መርማሪ	-3162
▁ለዘ	-3163
▁በሚገኘው	-3164
ኤስ	-3165
▁የወንጀል	-3166
▁ነሀሴ	-3167
▁ተደርጓል	-3168
▁ከደ	-3169
▁በመም	-3170
▁ከፋ	-3171
▁፲	-3172
ግግር	-3173
▁መፍ	-3174
▁ገፃ	-3175
▁ደንብ	-3176
ገናኝ	-3177
ዶቹ	-3178
ነገር	-3179
▁C	-3180
▁ማቅረብ	-3181
▁ጠቁመው	-3182
ፓርላማ	-3183
▁ድርጅቱ	-3184
▁ምክንያቶች	-3185
▁የጠቆ	-3186
▁አብሮ	-3187
▁ጊዜያት	-3188
ራው	-3189
▁ደም	-3190
ፆች	-3191
▁አቅራቢ	-3192
▁ለወ	-3193
▁የን	-3194
ዴሞክራሲ	-3195
ወሰነ	-3196
ወስድ	-3197
▁በመጥ	-3198
▁እግዚአብሄር	-3199
ጊያ	-3200
▁በሁለተኛው	-3201
▁አንስቶ	-3202
▁በህዝብ	-3203
▁የተቀመ	-3204
▁ጉዳዩን	-3205
▁ውድድ	-3206
▁አገራዊ	-3207
ጥሩ	-3208
▁የወሰ	-3209
▁ሉ	-3210
▁መጣ	-3211
▁ሄክታር	-3212
ጁን	-3213
▁ለፍርድ	-3214
አይ	-3215
▁የግድ	-3216
▁ግዥ	-3217
▁ሲባል	-3218
ቆች	-3219
▁A	-3220
▁ነዳጅ	-3221
▁ስትራቴጂ	-3222
ልቃ	-3223
▁መጨ	-3224
▁ለማሳደግ	-3225
▁በሳ	-3226
▁የምና	-3227
በሪያ	-3228
▁የሚኖሩ	-3229
ቪል	-3230
▁ተስማ	-3231
▁የተባሉ	-3232
ረከ	-3233
▁እንዳሉ	-3234
▁የቁ	-3235
▁ታማ	-3236
▁አመለካ	-3237
▁ተገ	-3238
▁የፋና	-3239
▁እንደመ	-3240
▁ነኝ	-3241
▁የመል	-3242
የሩ	-3243
▁ይሆዋ	-3244
▁የሚባል	-3245
▁ገዥ	-3246
▁አስቸጋሪ	-3247
▁ለዚህም	-3248
ዎችም	-3249
▁የካቲት	-3250
▁የሀይል	-3251
▁ለመገንባት	-3252
▁ምርጥ	-3253
ሞላ	-3254
▁ካፒታል	-3255
▁የገበያ	-3256
▁የሚሆን	-3257
ሊክ	-3258
ሌት	-3259
▁የባህር	-3260
▁አስተዳደሩ	-3261
ኬንያ	-3262
▁ህፃናት	-3263
▁ቀይ	-3264
▁ተነ	-3265
መለከታቸው	-3266
▁እንደሚችሉ	-3267
ሲያ	-3268
▁ዋነኛ	-3269
▁የያህዌ	-3270
▁ያደርጋል	-3271
ሪስ	-3272
▁ዘዴ	-3273
▁መድሀኒ	-3274
▁አስተያየ	-3275
ሏቸው	-3276
ወገድ	-3277
▁ተሸ	-3278
▁አቅርቦ	-3279
ድቅ	-3280
▁ፍቃ	-3281
▁ክርስቲያን	-3282
▁የፓርቲ	-3283
ቶች፣	-3284
ዘጋጁ	-3285
▁ደስ	-3286
2013	-3287
▁እየታ	-3288
▁ቲ	-3289
▁ሆይ	-3290
ሊሞች	-3291
▁ቀጣይ	-3292
ናቂ	-3293
▁ጌታቸው	-3294
▁ስምንት	-3295
▁መቅ	-3296
▁በድር	-3297
ቋረጥ	-3298
ዝግ	-3299
▁መንፈስ	-3300
▁ሰአ	-3301
▁የሚጠ	-3302
▁ወርቅ	-3303
መቻ	-3304
14	-3305
▁የተከ	-3306
ቤል	-3307
▁ይመስላል	-3308
▁ለመግ	-3309
▁አልነበረ	-3310
▁የሚደረግ	-3311
▁ደቂቃዎች	-3312
ሮድ	-3313
▁ቆይቷል	-3314
▁ድቻ	-3315
▁ድንበር	-3316
▁ህገወጥ	-3317
▁እንደሆነም	-3318
▁ዝግጅ	-3319
▁ገልፀው	-3320
ደርጋ	-3321
▁ባስ	-3322
▁በይፋ	-3323
▁ትክክለኛ	-3324
▁ቀውስ	-3325
ችግ	-3326
▁ወዳ	-3327
▁ሁለተኛው	-3328
▁በእርግጥ	-3329
ሪንግ	-3330
▁በአጭር	-3331
▁ክትትል	-3332
▁ፒ	-3333
▁በሙ	-3334
▁የመሬት	-3335
▁በየአመቱ	-3336
ማሉ	-3337
ግዳ	-3338
እክ	-3339
ባባሪ	-3340
▁በነፃ	-3341
ዩኒኬሽን	-3342
▁ለማቅረብ	-3343
▁መኖሪያ	-3344
▁ሲሉም	-3345
▁አሳል	-3346
ጪው	-3347
ገነቡ	-3348
▁ለመሆን	-3349
▁የምክር	-3350
▁የተደረገው	-3351
▁ማረጋገ	-3352
ልጣን	-3353
▁አስቀድሞ	-3354
▁እንስ	-3355
▁ላለፉት	-3356
▁መገናኛ	-3357
▁ለማረጋገጥ	-3358
2011	-3359
▁መሰረተ	-3360
▁ምህ	-3361
▁ያለበት	-3362
ፓን	-3363
▁ጨረታ	-3364
▁ፈጣን	-3365
▁ለግ	-3366
▁ክስተ	-3367
በተ	-3368
▁መብቶች	-3369
25	-3370
▁ከመንግስት	-3371
ሟላ	-3372
ቃሚ	-3373
▁ታሪካ	-3374
▁ደሳ	-3375
ዘጋጀው	-3376
▁አድራ	-3377
▁ምእራፍ	-3378
ላጆች	-3379
▁በራሱ	-3380
▁ምስራቅ	-3381
▁ቀጣ	-3382
▁ኬንያ	-3383
▁የሳ	-3384
▁ኮንት	-3385
ዋእ	-3386
▁ለጥ	-3387
▁መኮንን	-3388
▁ምቹ	-3389
▁አደረጃ	-3390
▁የሀገሪቱ	-3391
▁ሊያስ	-3392
▁ደሀንነት	-3393
ሰቦ	-3394
▁በኋላ፣	-3395
ገቡት	-3396
ገማ	-3397
ይጣ	-3398
▁ስርአቱ	-3399
ማግ	-3400
▁እንዳላቸው	-3401
▁ንብረ	-3402
▁የአውሮፓ	-3403
▁ግዙ	-3404
ሽት	-3405
ንዳንድ	-3406
ፍሬ	-3407
▁መልሶ	-3408
ዎት	-3409
ገባቸው	-3410
▁ነበር፤	-3411
▁ሎ	-3412
ጨመረ	-3413
▁መሀል	-3414
▁የሚሰጥ	-3415
▁ወንጀ	-3416
▁አማካሪ	-3417
ክክር	-3418
ክኒክ	-3419
▁የተገኘው	-3420
▁የኢትዮጵያን	-3421
▁በሶ	-3422
ሳቁ	-3423
▁አቻ	-3424
▁ጠቃሚ	-3425
▁ትርጉም	-3426
▁ዘንድሮ	-3427
▁የተመረ	-3428
▁ኮሚሽነር	-3429
ቁር	-3430
ወጣት	-3431
ዚቃ	-3432
▁በዳ	-3433
▁ደህንነት	-3434
ዲያው	-3435
ቋረ	-3436
▁ማህበረሰብ	-3437
ረጅም	-3438
▁እንድን	-3439
▁ማክሰኞ	-3440
▁በቡ	-3441
▁በትክ	-3442
▁ደሳለኝ	-3443
▁በአንፃ	-3444
▁እንዲሆኑ	-3445
ሁዳ	-3446
▁የሶ	-3447
▁ማህበራዊ	-3448
ጎብ	-3449
▁የተወ	-3450
▁በአብዛ	-3451
ሳሰብ	-3452
▁ተከታታይ	-3453
ራምፕ	-3454
ፌዴሪ	-3455
▁የቆየ	-3456
▁1.	-3457
▁ያደረጉ	-3458
ሸጥ	-3459
ያቸውን	-3460
▁ታክስ	-3461
?"	-3462
ዋት	-3463
▁መጠየ	-3464
▁ለሚያ	-3465
ጠነ	-3466
▁ትስ	-3467
com	-3468
▁የክልል	-3469
▁ትርፍ	-3470
እራብ	-3471
▁በመጠ	-3472
▁ኢትዮ	-3473
▁ቀበሌ	-3474
▁ምድብ	-3475
13	-3476
▁ይቅር	-3477
▁የቤተ	-3478
ፈፅ	-3479
▁ባደረገው	-3480
ከሩ	-3481
▁ዳይሬክተሩ	-3482
▁ከብ	-3483
▁ብዛት	-3484
▁ይገልፃሉ	-3485
በታ	-3486
▁መፃ	-3487
ይህ	-3488
ሚንቶ	-3489
ነት፣	-3490
▁ብርሀኑ	-3491
ሰና	-3492
▁መከላከል	-3493
▁በቴ	-3494
ላለች	-3495
▁ኢንስ	-3496
▁ፌ	-3497
▁በገ	-3498
▁የህዳሴ	-3499
ሀሳስ	-3500
ረክ	-3501
ሉ፣	-3502
ከቱ	-3503
▁በማቅረብ	-3504
ሚዎች	-3505
▁የቴሌ	-3506
▁ጠብ	-3507
▁ጀም	-3508
ተኞችን	-3509
ነበር	-3510
ማግሌ	-3511
▁ናት	-3512
▁100	-3513
▁አጠቃ	-3514
▁ትልቁ	-3515
ሶማሌ	-3516
▁ቅዳሜ	-3517
▁ሰኞ	-3518
▁የተሻ	-3519
▁አመታዊ	-3520
ልማ	-3521
▁ዘላቂ	-3522
▁የኢንቨስትመንት	-3523
ገበው	-3524
▁ቢያንስ	-3525
▁ሰለሞን	-3526
▁ዘግቧል	-3527
▁የጠቅላይ	-3528
▁አቤቱታ	-3529
▁በተካሄደው	-3530
▁መጀመ	-3531
ዳጊ	-3532
ዮቹ	-3533
ሰቢያ	-3534
▁ተናግሯል	-3535
ክቷል	-3536
▁የግንባታ	-3537
▁ሰሞ	-3538
▁የተቋቋ	-3539
▁ሰማ	-3540
▁በፌዴራል	-3541
ውጣ	-3542
▁በስተቀር	-3543
ገኘውን	-3544
▁በእጅ	-3545
▁በዋናነት	-3546
ጌታ	-3547
▁መሰል	-3548
ጃሉ	-3549
▁ማቆ	-3550
▁ተር	-3551
▁ስርጭት	-3552
▁ክብር	-3553
▁ያስፈልጋል	-3554
▁የእስራኤል	-3555
ለቱን	-3556
▁የሚቆጠሩ	-3557
ራፊ	-3558
▁ጥንቃቄ	-3559
ላቱ	-3560
▁ማሀበረሰብ	-3561
▁ቀሪ	-3562
▁የአገሪቱን	-3563
▁የተቃ	-3564
▁የመንገድ	-3565
ቁሟል	-3566
▁በሊ	-3567
ናሽናል	-3568
▁ያሸን	-3569
▁ስህተት	-3570
▁የትራንስፖርት	-3571
▁እኩል	-3572
▁ግንዛቤ	-3573
ገልፅ	-3574
መለከቱ	-3575
ጋቸውን	-3576
▁ከበደ	-3577
▁ምግባር	-3578
▁ሳምንታት	-3579
▁የወደቁ	-3580
▁እንደም	-3581
▁በሽታ	-3582
ደገፍ	-3583
▁ተገለፀ	-3584
▁ሚዲያ	-3585
▁ግምት	-3586
ዝገባ	-3587
▁እያለ	-3588
▁ጉብኝት	-3589
ቃሉ	-3590
ጣኔ	-3591
ዲን	-3592
ምባሲ	-3593
▁አልቻ	-3594
▁ሰላምና	-3595
▁አብርሀ	-3596
ሟላት	-3597
▁እየተካሄደ	-3598
▁ኮሚሽኑ	-3599
ዳቸውን	-3600
▁ባለቤ	-3601
▁አቢይ	-3602
▁ገልፀው፣	-3603
▁ይደረ	-3604
▁የቡና	-3605
መዝገብ	-3606
▁ተቀም	-3607
▁የህወሀት	-3608
ኖስ	-3609
▁በሚመለከት	-3610
ሬን	-3611
▁የጣ	-3612
▁የሀገር	-3613
▁ምስክ	-3614
▁ሲነ	-3615
▁ተልእ	-3616
▁ችግሩን	-3617
ህሳስ	-3618
ጠይቅ	-3619
▁ማመን	-3620
▁በተደረገው	-3621
▁እህ	-3622
ውውር	-3623
▁እራ	-3624
ረጋጋ	-3625
▁እጩ	-3626
es	-3627
▁ሰራተኛ	-3628
▁ለቀ	-3629
▁ህዳሴ	-3630
▁ስታዲ	-3631
▁በብዙ	-3632
▁ወንዶች	-3633
በት፣	-3634
▁ያለመ	-3635
▁ካልተ	-3636
▁የአካባቢ	-3637
16	-3638
▁የተባለ	-3639
ሰበው	-3640
ናገድ	-3641
መስረት	-3642
▁ታይ	-3643
እምሮ	-3644
▁ዳኛ	-3645
▁በእነዚህ	-3646
▁ቤተሰብ	-3647
ችውን	-3648
▁ያድር	-3649
▁መስክ	-3650
▁በን	-3651
በረሰቡ	-3652
▁የሚገኙት	-3653
▁የመላእክት	-3654
ገንዝ	-3655
▁ልኡ	-3656
ሆኑት	-3657
ፋቸው	-3658
ፍራሉ	-3659
ቆዩ	-3660
▁ታዋቂ	-3661
▁የተጣ	-3662
▁የግብፅ	-3663
▁የሚገ	-3664
ion	-3665
▁አሳይ	-3666
▁የሚወ	-3667
▁ግዴታ	-3668
ሙዩኒኬሽን	-3669
▁እቃዎች	-3670
▁የፊ	-3671
▁የሚሰሩ	-3672
▁የምርት	-3673
ይጣንም	-3674
▁«	-3675
ዥም	-3676
▁የፍትወት	-3677
ጀም	-3678
▁ራሳቸውን	-3679
▁የያዘ	-3680
▁ተይ	-3681
▁በዚ	-3682
▁ገደብ	-3683
▁ያሸንፋሉ	-3684
ካካ	-3685
▁ማየት	-3686
▁ዘርፉ	-3687
▁የሚያደርግ	-3688
▁ሀይሉ	-3689
▁ስኬ	-3690
▁በመል	-3691
ለትን	-3692
▁ተወስ	-3693
▁የእግር	-3694
▁ያውጃሉ	-3695
▁ብልጫ	-3696
▁ወንዝ	-3697
▁እነሱ	-3698
▁እንዳያ	-3699
ጠናቀቀ	-3700
▁በምን	-3701
ጎል	-3702
ድሮስ	-3703
▁የቀድሞው	-3704
▁ተሰማ	-3705
▁ተነግ	-3706
▁ይደፍራሉ	-3707
▁በሚገኙ	-3708
ጣቂ	-3709
▁መሆኑን፣	-3710
▁ኔፊ	-3711
▁እንዲቀ	-3712
▁ያሳያል	-3713
▁ለመጀመሪያ	-3714
▁ቅድሚያ	-3715
▁ኔፊሊሞች	-3716
▁አሸን	-3717
▁ለሰይጣንም	-3718
ሙና	-3719
ታወቅ	-3720
▁እያንዳንዱ	-3721
▁ሲያስ	-3722
▁እንዲያስ	-3723
▁ኦሮ	-3724
▁መቀመ	-3725
▁ትግል	-3726
ዳው	-3727
ሰለ	-3728
▁ክፍተት	-3729
ለመ	-3730
▁ክለቡ	-3731
▁በኋላም	-3732
▁ሁለቱም	-3733
▁አገልጋ	-3734
▁የህዝ	-3735
▁ነገሮችን	-3736
▁አክሲዮን	-3737
▁የጊዜ	-3738
▁ማዳ	-3739
▁ችግሩ	-3740
ልድ	-3741
▁ፀጋ	-3742
▁ምልክት	-3743
ሳው	-3744
ርነት	-3745
ic	-3746
▁በስፋት	-3747
ውሎስ	-3748
ኑት	-3749
▁ተሞ	-3750
▁ሀሳቦች	-3751
▁ብቸ	-3752
ፈፀመው	-3753
▁ሽማግሌ	-3754
▁እሁድ	-3755
▁መቻ	-3756
▁የመሳሰ	-3757
▁አፅ	-3758
▁ብርሀን	-3759
▁ለመመለስ	-3760
is	-3761
▁2007	-3762
▁የፌደራል	-3763
▁ሌሎችም	-3764
ሾቹ	-3765
▁70	-3766
▁አልባ	-3767
▁ሰሞኑን	-3768
▁ዴኤ	-3769
▁ህጉ	-3770
▁ማንም	-3771
▁በምት	-3772
▁በሶስት	-3773
ላካ	-3774
ኖሪያ	-3775
▁መስዋእ	-3776
▁ፈር	-3777
ቴን	-3778
▁ግንባር	-3779
ጠቅላላ	-3780
▁ሰጥቶ	-3781
ጋንዳ	-3782
,000	-3783
▁ታሪ	-3784
▁መኪና	-3785
▁አዘጋጅ	-3786
▁የተፈጥሮ	-3787
▁ይሰራ	-3788
▁መሳሪያዎች	-3789
▁ከላይ	-3790
▁ለአዲስ	-3791
▁ጉባኤው	-3792
ጎን	-3793
▁ሽልማት	-3794
▁ፕሮፌሰር	-3795
ከን	-3796
▁ለሁለት	-3797
▁ከሶስት	-3798
▁ክርክር	-3799
ንጀ	-3800
▁ጄኔራል	-3801
▁የሂሳብ	-3802
▁አንደ	-3803
▁የተሳ	-3804
ረግ	-3805
▁ዳግም	-3806
ጠንቀ	-3807
▁ሲዳማ	-3808
▁ትምህር	-3809
▁መደረጉን	-3810
▁ቀርቦ	-3811
▁ተልእኮ	-3812
ገዝ	-3813
ፕሎማሲ	-3814
▁አውጥ	-3815
▁ብለን	-3816
▁ታሪካዊ	-3817
▁ማሽ	-3818
▁የእርስ	-3819
ከፊ	-3820
▁P	-3821
ዮኖች	-3822
ስተካከል	-3823
▁ጠቅሰው	-3824
▁ትስስር	-3825
▁የሰጡት	-3826
ኤም	-3827
ዝነስ	-3828
ናቃ	-3829
ፃሜ	-3830
ቅናቄ	-3831
▁ሊጉ	-3832
it	-3833
▁ባለድርሻ	-3834
▁ለመቆጣጠር	-3835
▁ዘጠኝ	-3836
ፈቀደ	-3837
▁መኖር	-3838
▁እያስ	-3839
▁ተሽከርካሪዎች	-3840
▁ይሆን	-3841
ሞችን	-3842
ገለፅ	-3843
▁ማጥ	-3844
▁አምራ	-3845
▁ባህል	-3846
▁ምርምር	-3847
ህበራዊ	-3848
ቱና	-3849
ዋለሁ	-3850
▁ተመር	-3851
ናሉ	-3852
ኘው	-3853
ሮድካ	-3854
ፈለግ	-3855
▁አመልክቷል	-3856
▁ሆስፒታል	-3857
ካከ	-3858
▁መልእክ	-3859
▁ይጠቁ	-3860
80	-3861
▁ፉ	-3862
▁ዳንኤል	-3863
▁ንፁ	-3864
▁እዳ	-3865
▁የተሰጠው	-3866
▁ውይይ	-3867
▁ግለሰብ	-3868
▁ሀሙስ	-3869
▁የኦሮሞ	-3870
ቅረፍ	-3871
ያኑ	-3872
▁ኢህአዴግ	-3873
ምራት	-3874
▁ማህበር	-3875
ጋለ	-3876
▁M	-3877
▁የፌዴ	-3878
ፈረንሳይ	-3879
▁ተጨዋ	-3880
ሊት	-3881
▁የተመዘ	-3882
ደስ	-3883
ምቤ	-3884
▁በእው	-3885
▁አሰፋ	-3886
▁በድን	-3887
ከተለው	-3888
▁በአብዛኛው	-3889
▁ፓርክ	-3890
▁ፌዴሬሽን	-3891
▁የሆ	-3892
ቃሽ	-3893
▁ጥበብ	-3894
▁በሚያስ	-3895
▁ከኢ	-3896
ልኝ	-3897
ሏላዊ	-3898
▁ትኩስ	-3899
▁፡	-3900
ከም	-3901
▁አቀፉ	-3902
▁አገልግሎቶች	-3903
▁መባ	-3904
▁በማይ	-3905
▁ከኮ	-3906
▁ያገኘነው	-3907
▁ተነስ	-3908
ወዝ	-3909
▁በጥሩ	-3910
▁ግዛ	-3911
▁ህብረተሰቡ	-3912
ድና	-3913
▁ፋብሪካዎች	-3914
▁አዛ	-3915
ላለፉ	-3916
ዘቡ	-3917
▁ፅሁ	-3918
ፃፀር	-3919
▁ግራ	-3920
▁የአን	-3921
ሆንም	-3922
▁ትራምፕ	-3923
▁ድሬዳዋ	-3924
ስቡክ	-3925
▁የወጪ	-3926
▁ምስክር	-3927
ብሮ	-3928
▁ቦርዱ	-3929
▁ቁጥ	-3930
▁ሽያጭ	-3931
ቀቅ	-3932
ምሩክ	-3933
▁ሁል	-3934
▁አለመሆኑን	-3935
▁ኤርትራ	-3936
▁የሱዳን	-3937
ደቢት	-3938
▁እርሻ	-3939
▁ታዲያ	-3940
▁የሸ	-3941
▁ለት	-3942
▁ፍትሀዊ	-3943
▁እንዲያው	-3944
▁እንደሌለ	-3945
ጭነት	-3946
▁በሞ	-3947
▁በኮሮና	-3948
▁የተሰራ	-3949
ብብ	-3950
▁ያድርጉ	-3951
ባክ	-3952
▁በኦ	-3953
.2	-3954
ፎችን	-3955
▁https	-3956
ኡዲ	-3957
ብቅ	-3958
ንታል	-3959
▁ቁሳቁ	-3960
ከለኛ	-3961
▁ብዙም	-3962
መጥ	-3963
ንነት	-3964
▁ህል	-3965
▁እያሳ	-3966
▁ተጠርጣሪዎች	-3967
▁ጁ	-3968
ባባይ	-3969
ፈጠር	-3970
ዮሽ	-3971
▁እሱም	-3972
▁ከአለም	-3973
ናንተ	-3974
▁ጥፋት	-3975
▁ትውልድ	-3976
▁መስተዳድር	-3977
▁199	-3978
ጥረ	-3979
▁ተጠቁሟል	-3980
▁ሞት	-3981
▁[	-3982
▁ህዝባዊ	-3983
▁በተቃ	-3984
▁በመጥቀስ	-3985
▁መከራ	-3986
▁በቤ	-3987
2010	-3988
▁መረ	-3989
▁አጠ	-3990
ዟል	-3991
ርሶ	-3992
▁መምጣ	-3993
▁በመን	-3994
▁የኤርትራ	-3995
ችበት	-3996
▁በሜዳ	-3997
▁አክል	-3998
▁እንዲሰጥ	-3999
▁በአመት	-4000
ሸጋ	-4001
▁ኢንሹራንስ	-4002
ረፍ	-4003
▁ተቃዋሚ	-4004
ናብ	-4005
ሬድ	-4006
▁ወጥቶ	-4007
▁ካርድ	-4008
ማካይ	-4009
▁ዋናው	-4010
▁የሁለት	-4011
▁በባለ	-4012
▁ያስች	-4013
▁ግዙፍ	-4014
ትነት	-4015
▁የሚታወስ	-4016
ማስ	-4017
▁በእን	-4018
ላውያን	-4019
▁ግብረ	-4020
ራቱ	-4021
፱፻	-4022
▁በትክክል	-4023
▁አክልበ	-4024
ፈታ	-4025
ፐብ	-4026
▁ለሙሉ	-4027
▁የሚሆነው	-4028
ግበር	-4029
▁ርእስ	-4030
ነበረበት	-4031
ጠየቁ	-4032
ርሱ	-4033
ጠብቁ	-4034
ገናኙ	-4035
ረጋገጠ	-4036
▁ሰብስ	-4037
ጥፍ	-4038
▁የተጀመረው	-4039
ዎቻቸው	-4040
▁ከል	-4041
ያሜ	-4042
ውንም	-4043
▁ፍትህ	-4044
ለድ	-4045
ሉትን	-4046
▁እየጨመረ	-4047
ሴፍ	-4048
ቋሚ	-4049
▁በሰጠው	-4050
70	-4051
ገስ	-4052
▁ግምገማ	-4053
▁በተደረገ	-4054
ሙኤል	-4055
ሊያን	-4056
▁ማቅረ	-4057
ዞች	-4058
▁መዛ	-4059
▁ትራንስ	-4060
.3	-4061
ኛውንም	-4062
▁የሚች	-4063
▁ብት	-4064
.6	-4065
▁ሽን	-4066
▁ክፉ	-4067
/200	-4068
▁ሰይ	-4069
▁ጳውሎስ	-4070
መዝግ	-4071
▁አቡ	-4072
▁የአካል	-4073
th	-4074
ደበ	-4075
ገልገል	-4076
▁የሚቀ	-4077
▁አደሮች	-4078
▁እንዳልተ	-4079
▁የኢፌዴሪ	-4080
▁ይገልፃል	-4081
▁ጨዋታውን	-4082
▁የማያ	-4083
▁የሚሰጠው	-4084
▁አለቃ	-4085
▁አካሄድ	-4086
ጣው	-4087
ዩኒቨርሲቲ	-4088
▁ማሀበራዊ	-4089
ምፒክ	-4090
▁የድን	-4091
ቅድመ	-4092
▁ገለፁ	-4093
▁ደካ	-4094
▁የአስቸኳይ	-4095
የተ	-4096
▁ተካ	-4097
▁የማሀ	-4098
▁ማስከበር	-4099
▁ፈጠራ	-4100
▁አዲ	-4101
ሰባሰብ	-4102
▁በሰሜን	-4103
▁የጨዋታ	-4104
▁ሙስና	-4105
▁ውድቅ	-4106
ርና	-4107
ደራጀ	-4108
▁እንቅ	-4109
▁የሚያሳይ	-4110
ፋና	-4111
▁በቆ	-4112
ታችንን	-4113
▁ልማትና	-4114
▁ከነበረው	-4115
▁ያልሆነ	-4116
▁ኢንተርናሽናል	-4117
ነሱት	-4118
▁እንዲያደርጉ	-4119
▁የኢህአዴግ	-4120
ኩስ	-4121
ንዴ	-4122
▁ከግብ	-4123
▁የመስመር	-4124
ይይት	-4125
▁በአስ	-4126
▁በአንፃሩ	-4127
▁እንችላለ	-4128
ሳሽ	-4129
ጠየቅ	-4130
ፈለገው	-4131
▁ኖሮ	-4132
▁ሂሳብ	-4133
▁ብረት	-4134
በስ	-4135
▁በሚቀጥ	-4136
ክተሮች	-4137
የሩሳሌ	-4138
▁የቤ	-4139
▁በመስራት	-4140
▁አበበ	-4141
▁እስራኤል	-4142
▁የሀይማኖት	-4143
ያዛ	-4144
▁የስፖርት	-4145
▁60	-4146
▁ማረጋገጫ	-4147
▁አመለካከት	-4148
▁በመጀመሪያው	-4149
▁በሲ	-4150
▁ሶማ	-4151
▁ብሎም	-4152
▁እውነት	-4153
▁ባሉት	-4154
ሙር	-4155
▁በሰላም	-4156
▁ለሌሎች	-4157
▁ደንበኞች	-4158
▁የፈ	-4159
▁አክለው	-4160
ምም	-4161
ራቶ	-4162
▁በተሻለ	-4163
▁ኢንቨስት	-4164
▁ከዋ	-4165
▁ሽፋን	-4166
ነዋል	-4167
▁ምዝገባ	-4168
▁ፋይ	-4169
▁ሀላፊው	-4170
.7	-4171
ሎን	-4172
▁አስፈላጊውን	-4173
ጋቢ	-4174
▁መቼ	-4175
▁አቅርቧል	-4176
▁ካስ	-4177
ዩም	-4178
ገዳ	-4179
▁ኮንስትራክሽን	-4180
▁T	-4181
▁ይጠቀ	-4182
▁የጠቆሙት	-4183
▁ቀጥሎ	-4184
▁እንዲሁ	-4185
▁ስላል	-4186
▁ክፍት	-4187
▁ይሰማ	-4188
▁ከተማን	-4189
ጠቀሰው	-4190
▁ተደራሽ	-4191
ደቀ	-4192
▁ካም	-4193
▁እነሱም	-4194
▁ጣልቃ	-4195
▁ግብይት	-4196
▁ጉዳዮችን	-4197
▁የበጀት	-4198
ደረሰው	-4199
▁በቅርብ	-4200
▁በባህር	-4201
ዘረ	-4202
▁ይደረጋል	-4203
ቁን	-4204
▁ፋይናንስ	-4205
ፅና	-4206
▁በጠቅላይ	-4207
▁ኒ	-4208
▁አዝ	-4209
▁አንስተዋል	-4210
▁እንደሚደረግ	-4211
ቶቹን	-4212
▁እንችላለን	-4213
ቸዉ	-4214
ንቅ	-4215
ገዙ	-4216
ገኙበት	-4217
▁ማግኘ	-4218
▁የሌለው	-4219
▁በርስ	-4220
▁እድገ	-4221
▁ቤቱን	-4222
▁መቅረ	-4223
▁ብሩ	-4224
▁ግቦች	-4225
▁የምስ	-4226
▁የኮን	-4227
▁ከሜዳ	-4228
▁ስለሚያ	-4229
▁አስታውሰዋል	-4230
ዬን	-4231
▁እንዲደረግ	-4232
መልስ	-4233
ጨምር	-4234
▁ግብርና	-4235
▁ተወዳዳሪ	-4236
▁ስታዲየም	-4237
ፐር	-4238
▁በዘርፉ	-4239
▁የቀረበው	-4240
ሪን	-4241
▁ፀረ	-4242
▁ስለመሆኑ	-4243
▁ባለስልጣኑ	-4244
▁እንደሚሰራ	-4245
▁ለውጭ	-4246
▁ብሮድካ	-4247
▁አስረድቷል	-4248
▁ስፖር	-4249
▁የብር	-4250
ሆዋ	-4251
▁ቻናል	-4252
▁በንግድ	-4253
▁እርምጃዎች	-4254
fan	-4255
▁እግ	-4256
▁አሀ	-4257
▁ንቅናቄ	-4258
▁ልደ	-4259
▁ነጥቦች	-4260
▁የሚገኘውን	-4261
ሟሉ	-4262
▁ሀብታ	-4263
ያዝያ	-4264
▁ሰል	-4265
ላቸውም	-4266
ድም	-4267
ጉት	-4268
100	-4269
▁ይረዳ	-4270
ንዱ	-4271
▁የቦርድ	-4272
▁ባሳ	-4273
▁ለመቀነስ	-4274
ለየት	-4275
▁እንደሚቻል	-4276
ደሪያ	-4277
▁ክልላዊ	-4278
▁እርግ	-4279
▁ሲነፃፀር	-4280
ነበ	-4281
ላለም	-4282
▁አንደኛ	-4283
▁ይሰጣል	-4284
ሻው	-4285
▁የመረጃ	-4286
ሻንጉ	-4287
▁ለማስተ	-4288
ጠራው	-4289
▁ጠይቋል	-4290
ou	-4291
▁ከባለ	-4292
▁ተነግሯል	-4293
.4	-4294
ህነት	-4295
▁ደርሷል	-4296
ጅማ	-4297
▁ለሌ	-4298
▁የማድረግ	-4299
▁ራስ	-4300
▁በተለየ	-4301
▁ተጫዋቾችን	-4302
.8	-4303
ጋይ	-4304
▁የላ	-4305
▁በሚገባ	-4306
▁ያን	-4307
▁ዘይት	-4308
▁ኤምባሲ	-4309
▁አብዛኞቹ	-4310
ኖቹ	-4311
ራጮች	-4312
▁ያቀ	-4313
▁ተጨ	-4314
▁መሆኑንና	-4315
ዝርዝር	-4316
ባጭ	-4317
ቁም	-4318
ቫይረስ	-4319
ትናንት	-4320
▁ግድያ	-4321
ሊሲ	-4322
▁ግር	-4323
ኩባንያው	-4324
▁አስተሳሰብ	-4325
▁መግባት	-4326
▁በፋ	-4327
ደንት	-4328
▁የአገልግሎት	-4329
ማጭ	-4330
ባበሩት	-4331
ክሲዮን	-4332
ሮጀክ	-4333
ናገረው	-4334
▁ማሳያ	-4335
▁ስያሜ	-4336
▁ብሄረሰቦች	-4337
▁መሰብ	-4338
▁እንዲያገኙ	-4339
▁ቫይረሱ	-4340
▁ብልፅግና	-4341
▁ያስረዳል	-4342
▁መንገዱ	-4343
ጎዳ	-4344
▁በሂ	-4345
▁በህይወት	-4346
ቢኔ	-4347
ፌስቡክ	-4348
▁የሚደረገው	-4349
ህዴ	-4350
▁በእለቱ	-4351
▁ቡድኑን	-4352
▁ችለዋል	-4353
ዋር	-4354
▁የሚሸ	-4355
▁የለውም	-4356
▁ማረጋገጥ	-4357
ክብ	-4358
ስኮ	-4359
▁መሆኗ	-4360
▁ሳይንስ	-4361
ዎስ	-4362
ማሪዎች	-4363
ባን	-4364
ጄሪያ	-4365
2009	-4366
ከታተል	-4367
ከሰቱ	-4368
ወሰደ	-4369
▁2014	-4370
▁በጉዳዩ	-4371
ደቅ	-4372
▁በማስተ	-4373
▁አስተዳደ	-4374
ራቅ	-4375
ለጋ	-4376
▁ማወቅ	-4377
ቸውም	-4378
▁መቀመጫ	-4379
ዊው	-4380
ኒስቴ	-4381
▁ማእከላዊ	-4382
▁የሚፈልጉ	-4383
24	-4384
ባረ	-4385
▁ለነ	-4386
▁የገባ	-4387
ራጭ	-4388
ኡስ	-4389
ምቤላ	-4390
ቀጠል	-4391
▁ታጣቂ	-4392
▁በጨዋታው	-4393
▁ተመልክቷል	-4394
▁ቁልፍ	-4395
▁የቆየው	-4396
ግራም	-4397
ግስት	-4398
▁ያለፈ	-4399
▁B	-4400
▁መለስ	-4401
ኤላውያን	-4402
▁ፋሲል	-4403
▁ተጠናቋል	-4404
▁የሴ	-4405
▁አልነበረም	-4406
▁ሀዳር	-4407
▁ለማካሄድ	-4408
ስቲክስ	-4409
▁ታሀሳስ	-4410
▁እንቅስቃሴዎች	-4411
ከሰት	-4412
▁ዘው	-4413
▁ተቆጣ	-4414
▁500	-4415
ረኛ	-4416
▁የሚከተ	-4417
▁ጋዜጣዊ	-4418
▁በየጊዜው	-4419
▁እያንዳን	-4420
ያሉ	-4421
▁ሳሙኤል	-4422
ሮን	-4423
ተገ	-4424
ጫወቱ	-4425
ሶማሊያ	-4426
▁መጥፎ	-4427
/2012	-4428
▁አስተላል	-4429
▁እውነተኛ	-4430
ገሉ	-4431
▁ማድረጉን	-4432
▁ጠቀ	-4433
ለቅ	-4434
ጠበቁ	-4435
ገነባው	-4436
መንግስት	-4437
▁በመያዝ	-4438
ናቱ	-4439
▁መስፈር	-4440
▁ፓርላማ	-4441
▁አስተባባሪ	-4442
ሳች	-4443
▁የሚሆኑት	-4444
መታት	-4445
▁እንደሚያስፈልግ	-4446
▁ወላይታ	-4447
▁ስለነበር	-4448
▁እንደሚያደርግ	-4449
▁ለራ	-4450
▁ኤክስ	-4451
ነገረ	-4452
▁ከኤ	-4453
▁ሳይሆን፣	-4454
▁ኢንስቲት	-4455
▁ምስክሮች	-4456
▁በአንዳንድ	-4457
▁35	-4458
ገጥ	-4459
▁ወሰ	-4460
ረዳው	-4461
▁ሏላዊ	-4462
▁በቀን	-4463
▁አምራች	-4464
▁የሚያስችሉ	-4465
▁በብዛት	-4466
▁የአካባቢው	-4467
ቃቂ	-4468
▁ምሽት	-4469
▁ወልደ	-4470
ነቅ	-4471
▁የሚጠበቅ	-4472
ጦታ	-4473
▁አርባ	-4474
▁አዳነ	-4475
▁እውቀት	-4476
▁የመሰረተ	-4477
▁አለመግባ	-4478
▁ወረዳዎች	-4479
21	-4480
▁ተነሳ	-4481
ቻለሁ	-4482
ገለግሉ	-4483
▁በሰው	-4484
ችሉም	-4485
-19	-4486
▁ለማጠናከር	-4487
ረበ	-4488
ጠለ	-4489
▁የሩ	-4490
▁በአዲሱ	-4491
▁ደጋፊዎች	-4492
▁የኮሚ	-4493
▁ደካማ	-4494
▁ከአገር	-4495
▁አሰጣጥ	-4496
▁ወታደሮች	-4497
ፕራይ	-4498
▁አውቶ	-4499
ፍቶ	-4500
ያስፖ	-4501
▁በመግባት	-4502
▁የመገናኛ	-4503
▁በፈ	-4504
▁የሚያደር	-4505
ወሰድ	-4506
ላንት	-4507
▁ወደብ	-4508
ይሮ	-4509
ing	-4510
ሸት	-4511
▁ጣቢያዎች	-4512
▁ለመንግስት	-4513
▁የህገ	-4514
▁የተፈጠረ	-4515
▁አውሮፕላን	-4516
▁ነን	-4517
ሻንጉል	-4518
▁ታማኝ	-4519
ate	-4520
ብነት	-4521
▁የሚሰጡ	-4522
▁እግርኳስ	-4523
▁አስራ	-4524
▁ከጊዜ	-4525
▁ባልተ	-4526
▁ይበ	-4527
ረፈ	-4528
▁ፔ	-4529
▁አብረው	-4530
▁የኢትዮ	-4531
www	-4532
ፈቀድ	-4533
▁ለታ	-4534
▁ማይ	-4535
ስተናግ	-4536
▁እየሰሩ	-4537
▁ስደተኞች	-4538
▁ማቀ	-4539
▁ውጤቶች	-4540
2008	-4541
▁የሚችለው	-4542
▁መና	-4543
▁ሙያ	-4544
▁ቴሌቪዥን	-4545
▁ተሰጥቶ	-4546
▁አቀባይ	-4547
ቲን	-4548
▁ሆና	-4549
▁በመቀጠል	-4550
ተኩ	-4551
▁ህወሀት	-4552
▁ወደሚ	-4553
▁ሀይማኖ	-4554
▁የሽብር	-4555
ናትን	-4556
▁የቴክኒክ	-4557
▁መሬ	-4558
ሬዚዳንት	-4559
ጆቹ	-4560
▁በግል	-4561
ሀይ	-4562
▁ማኔ	-4563
ሰብሰብ	-4564
▁መላኩ	-4565
ኒስትሮች	-4566
22	-4567
▁የጀመረው	-4568
ቡእ	-4569
ሳራ	-4570
ጓዴ	-4571
ፍያ	-4572
▁ኮሪያ	-4573
ሰልጣኝ	-4574
▁ሲሆን፥	-4575
▁ይኸውም	-4576
▁R	-4577
ንስት	-4578
▁ተሻ	-4579
▁የጋ	-4580
▁ግድቡ	-4581
▁ጥረ	-4582
▁ያቀረቡት	-4583
▁ተሽከርካሪ	-4584
▁ታህሳስ	-4585
ክርስቲ	-4586
▁በሀገር	-4587
▁ክፍተ	-4588
ሺህ	-4589
▁የሚገቡ	-4590
▁እንደነበረ	-4591
▁መጠበቅ	-4592
▁የተወሰኑ	-4593
▁ማቴ	-4594
▁በፊ	-4595
▁ፕሬዚዳንቱ	-4596
ዘግ	-4597
▁ለማምጣት	-4598
▁ጠቀሜ	-4599
▁በግንባ	-4600
▁ሰልፍ	-4601
▁ሰሜን	-4602
ራችን	-4603
▁መገደ	-4604
▁አስደናቂ	-4605
▁ማድረጉ	-4606
ሪሚ	-4607
ቆሙ	-4608
ችት	-4609
ከው	-4610
▁ተደ	-4611
▁ተሞክሮ	-4612
ጥቅ	-4613
ባይል	-4614
▁መሰረት፣	-4615
ወሰኑ	-4616
▁በዩ	-4617
▁ለማየት	-4618
ታወቀው	-4619
▁አስቆጥ	-4620
▁ሆኑ	-4621
ረንጓዴ	-4622
▁በማሰብ	-4623
▁መቐለ	-4624
▁በመተባበር	-4625
▁የበላይነት	-4626
▁F	-4627
▁በትምህርት	-4628
ነሳት	-4629
▁ሚኒስቴሩ	-4630
▁በራሳቸው	-4631
▁ያስረዳሉ	-4632
ሁት	-4633
ሆና	-4634
ንጋ	-4635
ዘነጋ	-4636
▁ኋላ	-4637
▁አምና	-4638
ፈለገ	-4639
▁ዲግ	-4640
▁ጥፋ	-4641
▁ህጎች	-4642
▁በጊዜ	-4643
▁ያልሆኑ	-4644
ማው	-4645
በሳ	-4646
▁እናም	-4647
ሪነት	-4648
▁ሚስተር	-4649
ይዝ	-4650
▁ክብ	-4651
ከፈል	-4652
ምምነት	-4653
▁ምእራብ	-4654
▁በሆነው	-4655
▁ተፈጥሮ	-4656
▁ውስጥም	-4657
ሪታ	-4658
ገጠ	-4659
ንድሮው	-4660
▁በመግ	-4661
ንቀሳቃሽ	-4662
▁ትግራይ	-4663
▁በከተማዋ	-4664
ወሰዱ	-4665
▁መዳረ	-4666
▁ጊዜያዊ	-4667
▁በመፍጠር	-4668
▁አንድም	-4669
ጠንቀቂያ	-4670
▁ትግ	-4671
▁ማእቀ	-4672
ገዱ	-4673
ስተናገ	-4674
▁በስልክ	-4675
ዋሎ	-4676
ጠባ	-4677
ንግተን	-4678
▁በብሄራዊ	-4679
▁ኩንታል	-4680
▁ተከላካይ	-4681
▁ሀያ	-4682
▁ሀጢ	-4683
▁መውሰድ	-4684
▁ካለፈው	-4685
ዲና	-4686
ፋስ	-4687
▁አታ	-4688
▁በቫይረሱ	-4689
.9	-4690
▁ለመቅረፍ	-4691
አን	-4692
▁ለሁሉም	-4693
▁አብርሀም	-4694
▁የመፅሀፍ	-4695
የትኛውም	-4696
ኳን	-4697
ውሉ	-4698
▁ተጠቅሷል	-4699
▁በመላው	-4700
▁እንዲሰጡ	-4701
▁ፍጥነት	-4702
ስፋፋ	-4703
ስቲንግ	-4704
ጠናቀቀው	-4705
ብረቱ	-4706
▁ልት	-4707
▁ጓደ	-4708
▁ህዳር	-4709
▁ተቋሙ	-4710
▁ለመጠቀም	-4711
▁ነጋዴዎች	-4712
▁እል	-4713
▁ይመ	-4714
▁ስኳር	-4715
▁እውን	-4716
ህም	-4717
▁ቤቶችን	-4718
▁ሳለ	-4719
▁የበኩ	-4720
ማዊ	-4721
▁ቃለ	-4722
ገኘት	-4723
▁ተካሂ	-4724
▁መግባባት	-4725
ቆጣጠ	-4726
▁የውሳኔ	-4727
አል	-4728
▁አና	-4729
▁ጠበ	-4730
▁የሴቶች	-4731
▁መስፈ	-4732
▁ቢኖር	-4733
ላስ	-4734
▁ማው	-4735
▁ይገኙ	-4736
ናዳ	-4737
ፈተ	-4738
ድድሩ	-4739
▁የቡድኑ	-4740
ወርቅ	-4741
ር፣	-4742
ኑኤል	-4743
ጠበቀው	-4744
▁ለመግባት	-4745
▁የረ	-4746
▁ከስራ	-4747
ባኤው	-4748
▁ተወያይ	-4749
ፎካካ	-4750
▁ለማን	-4751
▁ግብአ	-4752
▁ቸ	-4753
▁የኪ	-4754
▁ክርስቶስ	-4755
▁ከጎ	-4756
▁የተሰማሩ	-4757
ምረቻ	-4758
ንታዊ	-4759
▁ቱሪዝም	-4760
መኑ	-4761
▁የስልጣን	-4762
ልተኛ	-4763
▁ተሾ	-4764
▁አሊ	-4765
▁ምስጋና	-4766
ፍል	-4767
▁ራሱ	-4768
▁ለአገር	-4769
▁ዲዛ	-4770
▁ፀጥታ	-4771
▁ስብስብ	-4772
ወሩ	-4773
▁ፈቃደኛ	-4774
▁የማእድን	-4775
ጨረታ	-4776
▁ማረፊያ	-4777
ከበረ	-4778
▁ከነማ	-4779
▁ለአለም	-4780
ደርጉት	-4781
▁ምልክ	-4782
▁አደራ	-4783
▁መድረሱን	-4784
ዳሪዎች	-4785
▁መኖሩን	-4786
▁በረከት	-4787
▁ባለበት	-4788
▁ለሶ	-4789
ክፈል	-4790
▁መፃህ	-4791
▁ቴዎ	-4792
▁እንዲሰሩ	-4793
ያያ	-4794
▁ደርሶ	-4795
▁ፎቶ	-4796
▁መዝገብ	-4797
▁በዝርዝር	-4798
▁የሚያስች	-4799
ኩረት	-4800
▁አባት	-4801
▁ኢንጂነር	-4802
ራፊክ	-4803
ደረሱ	-4804
▁የሳይ	-4805
▁ምድ	-4806
ድየም	-4807
▁እኔም	-4808
▁የአል	-4809
▁በተቀ	-4810
▁ሽብር	-4811
▁ግንባታው	-4812
▁መዋቅር	-4813
▁አምራቾች	-4814
▁አስገንዝ	-4815
ኮት	-4816
▁ጠቁሟል	-4817
▁ማንኛውንም	-4818
ኖረ	-4819
ምንጭ	-4820
▁ክህ	-4821
▁የሰጠው	-4822
▁ሰአታት	-4823
ቀን	-4824
ዛን	-4825
ነጋግ	-4826
▁ድንቅ	-4827
▁አረቢያ	-4828
▁ይሆናሉ	-4829
ብስ	-4830
ፈጥር	-4831
እን	-4832
▁ቅርንጫፍ	-4833
ከለኛው	-4834
▁E	-4835
▁በቢ	-4836
▁ጠበቃ	-4837
▁ቀርበው	-4838
▁ገበያው	-4839
▁ካላቸው	-4840
▁በፖለቲካ	-4841
ቱንና	-4842
▁ሀይሌ	-4843
!!	-4844
▁ልን	-4845
▁ደግሞም	-4846
▁መንግስትና	-4847
▁O	-4848
▁ሚያዝያ	-4849
▁አደረገ	-4850
ቃቸውን	-4851
▁ምጣኔ	-4852
▁በአዋ	-4853
▁የሚውል	-4854
▁የተገኙ	-4855
▁ያም	-4856
ቀበል	-4857
▁ከሚገኙ	-4858
▁ወዲያው	-4859
ሀድ	-4860
ክረው	-4861
▁ብሮድካስቲንግ	-4862
▁ዊ	-4863
▁ካሬ	-4864
ራኒ	-4865
ከላካይ	-4866
▁የለውጥ	-4867
ዴፓ	-4868
ኛዎቹ	-4869
▁በመታ	-4870
▁የሚመጣ	-4871
▁ውድድሮች	-4872
ራዘም	-4873
▁ይሰ	-4874
▁በተለያየ	-4875
ሞኑ	-4876
ጓዙ	-4877
▁ዜጎችን	-4878
ጣቸውን	-4879
▁ስላለ	-4880
▁መኖራቸውን	-4881
▁ቢራ	-4882
▁የሚያደርገው	-4883
ቲክስ	-4884
ታለች	-4885
ፋቸውን	-4886
▁በእጅጉ	-4887
▁እንደነበሩ	-4888
▁የዩናይትድ	-4889
ለሁ፤	-4890
▁ማድረጋቸውን	-4891
ጃቸው	-4892
▁መፅ	-4893
▁መምህ	-4894
የበት	-4895
▁የህይወት	-4896
▁ፍፃሜ	-4897
▁ሙሴ	-4898
▁የመጡ	-4899
የሩሳሌም	-4900
ቻችንን	-4901
▁ዝውውር	-4902
ስለ	-4903
▁በጋ	-4904
ጠረጠሩ	-4905
▁መለያ	-4906
ነቶችን	-4907
▁በበኩሉ	-4908
▁ንኡስ	-4909
▁ስለማይ	-4910
▁ከቅ	-4911
▁I	-4912
▁በዲ	-4913
▁ዮና	-4914
▁የበረ	-4915
▁ያደርጋ	-4916
▁በግብፅ	-4917
▁ተገናኝ	-4918
ወቀ	-4919
▁ሚንስት	-4920
▁ተዘጋጅ	-4921
▁ነፍ	-4922
ቨርስቲ	-4923
▁አጋር	-4924
▁ሀገሪቱ	-4925
23	-4926
▁በመካ	-4927
▁ግማሽ	-4928
ግን	-4929
▁ሚካኤል	-4930
ቱንም	-4931
▁ወይስ	-4932
▁ሆነዋል	-4933
▁መመለስ	-4934
▁እንዲታ	-4935
▁ራእ	-4936
▁፲፱፻	-4937
▁ምርቶችን	-4938
▁የእን	-4939
:00	-4940
▁ሲሆኑ፣	-4941
▁በሱዳን	-4942
▁ተጠናክሮ	-4943
ከታታይ	-4944
▁ተገቢውን	-4945
ሉና	-4946
ኙን	-4947
▁ይዞታ	-4948
▁ሳህ	-4949
▁አቀባ	-4950
▁ዳኞች	-4951
▁ያወጣ	-4952
ቆስ	-4953
ከፋፈል	-4954
▁አዳራሽ	-4955
▁ሾ	-4956
▁ከጉ	-4957
re	-4958
ክልሎች	-4959
ካተቱ	-4960
ግባኝ	-4961
ታወቂያ	-4962
ቶቻቸው	-4963
▁ረዳት	-4964
ኮችን	-4965
▁የእኛ	-4966
▁አብዱል	-4967
▁ረጅም	-4968
▁የፀረ	-4969
▁እያደረጉ	-4970
▁የድርጅቱ	-4971
▁እጣ	-4972
▁ችሎታ	-4973
▁ከቅርብ	-4974
▁አለኝ	-4975
▁እንደሚሉት	-4976
ፋል	-4977
▁እንድታ	-4978
▁ኢሳ	-4979
▁በማሀ	-4980
▁ፈፅሞ	-4981
▁በምስራቅ	-4982
መናዊ	-4983
▁ተን	-4984
▁የደን	-4985
▁በማንኛውም	-4986
▁መሞ	-4987
▁አውሮፕላ	-4988
▁የወጣው	-4989
▁ሀይለማ	-4990
ሰሙ	-4991
▁ፕሮጀክቱ	-4992
▁ገልፆ	-4993
▁መጫወት	-4994
▁በቤተ	-4995
▁የተጋ	-4996
▁መምህር	-4997
ab	-4998
▁አደባባይ	-4999
▁የዴሞክራሲ	-5000
ለታል	-5001
▁ዴኤታ	-5002
ጋዜጠኞች	-5003
▁ባላቸው	-5004
ጂቡቲ	-5005
▁በደንብ	-5006
▁ጥላሁን	-5007
ናጀ	-5008
ጉር	-5009
▁ተፈፃሚ	-5010
▁ባህላዊ	-5011
▁ትክክል	-5012
ድግ	-5013
ርተው	-5014
▁የፍርድ	-5015
▁ይጠበቅ	-5016
▁እንዲኖር	-5017
ረዱት	-5018
ትሪክ	-5019
▁አዘ	-5020
▁የመጀመርያው	-5021
ወቁ	-5022
ሌክትሮ	-5023
ቡና	-5024
ዋሪ	-5025
ያም	-5026
ቡት	-5027
▁ካልሆነ	-5028
▁ኳሶች	-5029
▁እንዲገቡ	-5030
▁አስተዳዳሪ	-5031
ጠብቅ	-5032
▁D	-5033
ታቸውም	-5034
▁አረጋ	-5035
▁ገደማ	-5036
▁ያመላክ	-5037
ዩብ	-5038
▁ለምንድን	-5039
ስፈ	-5040
▁በሆ	-5041
▁ፓርኮች	-5042
▁ያለባቸው	-5043
▁ደብረ	-5044
▁አደረጃጀት	-5045
ዩን	-5046
▁ተከሳሾች	-5047
ላከው	-5048
ክትል	-5049
▁በምርጫ	-5050
▁መጀመሩን	-5051
▁አስቀም	-5052
▁አስቸኳይ	-5053
ራክ	-5054
ዛው	-5055
▁አሳሳቢ	-5056
▁የፍትህ	-5057
▁ከአምስት	-5058
▁ያብራ	-5059
▁ህዝቡን	-5060
▁እሳቸው	-5061
ላጭ	-5062
ሪል	-5063
▁ተወካይ	-5064
▁ያቀረበ	-5065
▁ሚኒስትሯ	-5066
ፒታ	-5067
▁ሼ	-5068
▁ሰባ	-5069
▁ይተ	-5070
ኑም	-5071
▁መግለጫው	-5072
መጣል	-5073
ንድሮ	-5074
ቀመጠው	-5075
▁አባይ	-5076
ቦን	-5077
▁የየ	-5078
ዮና	-5079
▁አለማየሁ	-5080
ውሮፕ	-5081
▁ይባ	-5082
▁ያቀር	-5083
▁ያተኮ	-5084
▁የሶስት	-5085
ክሉ	-5086
▁ለማሻሻል	-5087
▁እንዲደርስ	-5088
▁ለስራ	-5089
▁በመጪው	-5090
ኝም	-5091
▁32	-5092
ፐብሊክ	-5093
▁ጥገና	-5094
▁በአይ	-5095
ርቃ	-5096
ስልጣኑ	-5097
ሻል	-5098
ኝት	-5099
ተው፣	-5100
ጀርመን	-5101
▁ያገኛ	-5102
በቱ	-5103
እኔ	-5104
▁መስመ	-5105
ቀጥሉ	-5106
ብናል	-5107
ላለፈ	-5108
ናልድ	-5109
▁ለኮ	-5110
▁ሲታይ	-5111
ምብ	-5112
ቅዶ	-5113
ፋው	-5114
ዋልታ	-5115
ወድ	-5116
▁ለመተ	-5117
▁ማሀበሩ	-5118
▁እንዲወጡ	-5119
▁ያቀረበው	-5120
▁አረጋግጠዋል	-5121
ምቦ	-5122
መስል	-5123
▁ፈጥ	-5124
▁በማስገባት	-5125
ግዳሮ	-5126
▁ትል	-5127
▁ጠቁመው፣	-5128
ግለፅ	-5129
ዘነጋም	-5130
ርን	-5131
ዳጅነት	-5132
ችኋል	-5133
▁የተያዙ	-5134
▁ዩናይትድ	-5135
▁ሽግግር	-5136
▁የትርፍ	-5137
ደረሰባቸው	-5138
▁ህመም	-5139
▁ምርጫው	-5140
▁በመግለጫው	-5141
▁ስላሴ	-5142
▁ከሆነ፣	-5143
▁አንደኛው	-5144
▁ካሉት	-5145
ቴክ	-5146
ድቡ	-5147
▁ይህንኑ	-5148
ምፅ	-5149
▁ደስተኛ	-5150
ጠቀሱ	-5151
▁መሆኑም	-5152
ኖክ	-5153
▁ጤ	-5154
▁ባለማ	-5155
▁ገለፀ	-5156
▁አይዘነጋም	-5157
ro	-5158
ርጦ	-5159
መጣጣኝ	-5160
▁ቤታቸው	-5161
ያያዙ	-5162
ኘት	-5163
ሰውን	-5164
ንደር	-5165
ቀድ	-5166
▁መፈፀ	-5167
▁ተራራ	-5168
▁ግጭቶች	-5169
ስል	-5170
▁የኑ	-5171
▁ባለአ	-5172
▁የዘር	-5173
እቆ	-5174
▁ተስማም	-5175
▁አበባ፡	-5176
ሊምፒክ	-5177
ይወ	-5178
ስተኛው	-5179
ኔል	-5180
▁በጦር	-5181
▁ጎንደር	-5182
▁የመልካም	-5183
▁ኮሚሽነ	-5184
▁ለመጠበቅ	-5185
-2	-5186
198	-5187
▁በመጨረሻም	-5188
▁ቤተሰቦች	-5189
▁ውህ	-5190
▁እያደገ	-5191
▁ለማድረስ	-5192
ቃወም	-5193
▁እገዛ	-5194
ነርጂ	-5195
▁መያዝ	-5196
ንዛ	-5197
ፈሩ	-5198
▁መዳረሻ	-5199
▁አስደሳች	-5200
ካተተ	-5201
▁መሄድ	-5202
▁በሆኑ	-5203
ንበት	-5204
ጠይቁ	-5205
▁ሂደቱ	-5206
▁ታላቁ	-5207
ካቤ	-5208
▁እሷ	-5209
▁ገፅታ	-5210
▁ከሁሉም	-5211
▁የፅሁፍ	-5212
▁መድን	-5213
▁በማእ	-5214
▁በመድረ	-5215
▁መንፈሳዊ	-5216
▁እንደዚህ	-5217
▁ስለማ	-5218
▁ስኬታማ	-5219
▁ተግዳሮ	-5220
▁አለብን	-5221
▁ስርአቱን	-5222
▁ባህሪ	-5223
በበ	-5224
▁ቅን	-5225
▁ፍር	-5226
▁የመከላከል	-5227
▁እንደሚያሳ	-5228
▁33	-5229
▁በውስ	-5230
▁የፓርቲው	-5231
me	-5232
ላቀሉ	-5233
▁የእው	-5234
▁ገንዘ	-5235
▁ያሳለ	-5236
▁አያያዝ	-5237
ጨመር	-5238
አብመድ	-5239
▁ከድር	-5240
ያለሁ	-5241
ማሩ	-5242
መልከ	-5243
▁የሚወስ	-5244
▁ፓርቲው	-5245
ዳንቱ	-5246
-3	-5247
▁ልውው	-5248
▁በቀል	-5249
▁ቻምፒ	-5250
▁ያነሳ	-5251
▁በውይይቱ	-5252
▁ተቋማትን	-5253
▁የከፍተኛ	-5254
ጠቀስ	-5255
▁የኢንሹራንስ	-5256
ባችን	-5257
▁ያንን	-5258
▁መስፍን	-5259
▁ዳርቻ	-5260
▁በሁለቱም	-5261
▁ክስተት	-5262
▁ለአብነት	-5263
▁ኮሎ	-5264
ቀርበው	-5265
ዲያዎች	-5266
▁መንስ	-5267
▁አጭር	-5268
▁የሚናገሩት	-5269
▁ፈረን	-5270
▁ዝርያ	-5271
▁ሲደረግ	-5272
ሰተኛ	-5273
▁እየቀ	-5274
▁የሜዳ	-5275
▁ምንድን	-5276
▁በመውሰድ	-5277
▁የተገኙት	-5278
ጥል	-5279
▁ብራ	-5280
▁እያሉ	-5281
ኤን	-5282
▁ገብቶ	-5283
▁ጥልቅ	-5284
▁የራሱን	-5285
▁ገብተው	-5286
ወረ	-5287
ደባ	-5288
▁ወለድ	-5289
▁ደንበ	-5290
▁በምድር	-5291
▁አስታወቁ	-5292
▁ጓደኛ	-5293
ለኛ	-5294
ሰራው	-5295
▁ክን	-5296
▁በራስ	-5297
▁ማጥቃት	-5298
▁ዜጋ	-5299
▁መውጣት	-5300
ላቀል	-5301
ነውን	-5302
አለም	-5303
▁ሲሚንቶ	-5304
ሪያው	-5305
▁ለጉ	-5306
▁የባቡር	-5307
ራትና	-5308
▁ቀስ	-5309
ለይ	-5310
ማመን	-5311
▁ያደረ	-5312
▁ደመቀ	-5313
▁መቀነስ	-5314
▁ማሳደግ	-5315
▁የታክስ	-5316
▁የሚያው	-5317
ከማ	-5318
ሳችን	-5319
▁80	-5320
▁ሰም	-5321
ዞኑ	-5322
▁ቅናሽ	-5323
▁ተደጋጋሚ	-5324
▁አጠቃቀም	-5325
ዛል	-5326
▁ስልክ	-5327
▁በመር	-5328
▁የፖሊስ	-5329
ራለች	-5330
▁ሸዋ	-5331
▁ተአ	-5332
▁አጣ	-5333
▁የከ	-5334
▁ምክክር	-5335
▁በገንዘብ	-5336
▁እሱን	-5337
▁ፈንድ	-5338
▁እንዲሰ	-5339
▁ይኼንን	-5340
▁ተፋ	-5341
ፖለቲካ	-5342
▁በሀዋሳ	-5343
▁ከአፍሪካ	-5344
▁የእንግሊዝ	-5345
ገጣ	-5346
▁አበራ	-5347
▁ኢዮ	-5348
▁ከዘ	-5349
▁ያነጋ	-5350
▁ኮከብ	-5351
▁ያስመዘ	-5352
ማማኝ	-5353
▁ከፊ	-5354
▁ህግን	-5355
▁አመላክ	-5356
▁45	-5357
▁የአይ	-5358
▁ስታድየም	-5359
▁ሶስቱ	-5360
ረምት	-5361
ጣሉ	-5362
▁መፅሀ	-5363
▁ጥሰት	-5364
▁አብዛኛው	-5365
ክበር	-5366
ላፊነት	-5367
▁ታሳቢ	-5368
▁የሚያስፈል	-5369
ክፈ	-5370
▁መቃ	-5371
▁ዘይ	-5372
90	-5373
ገናኘት	-5374
▁ንፁህ	-5375
▁ተጠቃሚነት	-5376
ናን	-5377
ባቸውም	-5378
▁ማመንጫ	-5379
ችሁም	-5380
▁በህገወጥ	-5381
ኦን	-5382
▁ሀብታሙ	-5383
▁ሁልጊዜ	-5384
▁የውስጥ	-5385
▁በምእራብ	-5386
▁ለመታ	-5387
▁ለማሳካት	-5388
▁የግን	-5389
▁ሀገራዊ	-5390
▁መንስኤ	-5391
ፊው	-5392
ፍረስ	-5393
▁ኦዲ	-5394
▁የቀረቡ	-5395
▁ከራ	-5396
▁ክልሉ	-5397
▁ቢሊየን	-5398
▁ኮሙዩኒኬሽን	-5399
ደራጀት	-5400
▁በተግባር	-5401
▁ሜጋ	-5402
ፃፈ	-5403
ሰማሩ	-5404
▁የቻለው	-5405
ካተት	-5406
▁የንግድና	-5407
▁ኤም	-5408
▁አያይ	-5409
ለናል	-5410
▁ምህረት	-5411
▁አውሮፓ	-5412
▁ቆይተዋል	-5413
▁ጋዜጠኞች	-5414
ገባም	-5415
▁ልብስ	-5416
▁ከመሆኑም	-5417
ቪዬ	-5418
▁ያገለ	-5419
ኖሩት	-5420
▁ደረሰ	-5421
▁ተገኝተው	-5422
▁ቴዎድሮስ	-5423
ክተው	-5424
ጃፓን	-5425
▁ድንጋይ	-5426
▁ግብአት	-5427
▁ሙከራዎች	-5428
▁ንጉሱ	-5429
▁ወሰን	-5430
▁መቆጣጠር	-5431
ላችንም	-5432
▁ሪፖርቱ	-5433
▁መላ	-5434
ሪሚየር	-5435
▁ይጠቅ	-5436
ገሰ	-5437
▁የሚደርስ	-5438
▁ዞኖች	-5439
▁መስኮች	-5440
ታኝ	-5441
▁በቻይና	-5442
▁የእርሻ	-5443
ቀደ	-5444
▁በረራ	-5445
▁ከሆኑ	-5446
▁ማእከ	-5447
ብህ	-5448
▁ተጎ	-5449
ለማችን	-5450
ናጋ	-5451
▁ሲያደርግ	-5452
▁በኢኮኖሚ	-5453
▁ኮሌ	-5454
▁መካከለኛ	-5455
ራጅ	-5456
▁34	-5457
▁እባክ	-5458
▁የሙስና	-5459
ሮች፣	-5460
▁ክርስቲያኖች	-5461
500	-5462
ፎካካሪ	-5463
ዜአ	-5464
ጮችን	-5465
▁በልዩ	-5466
ረቤት	-5467
ነራል	-5468
▁በመደ	-5469
▁ተከሳሾቹ	-5470
▁በበኩላቸው፣	-5471
▁ስሙ	-5472
▁ትራንስፎርሜሽን	-5473
▁ያሻ	-5474
ዳም	-5475
▁ስራቸውን	-5476
▁ኢንተርፕራይ	-5477
▁ፈጣሪ	-5478
ይብ	-5479
▁ግቢ	-5480
▁ሲያደርጉ	-5481
▁የማጥቃት	-5482
▁ሲቀ	-5483
▁ትክክለኛውን	-5484
ስክ	-5485
ጅመንት	-5486
ድል	-5487
▁ማደ	-5488
▁ስጦታ	-5489
▁ታዳጊ	-5490
▁ጀር	-5491
▁ዳር፡	-5492
ሊቲ	-5493
ላጅ	-5494
▁ብቸኛ	-5495
▁ቴሌኮም	-5496
▁ኦሮሚያ	-5497
▁የመጣው	-5498
▁ምክረ	-5499
▁ተመስገን	-5500
▁ግሩ	-5501
▁አሉት	-5502
▁ይህንንም	-5503
ቆየ	-5504
ሮጀክቱ	-5505
▁ከማስ	-5506
ራቢያ	-5507
ያያዥ	-5508
▁መናገ	-5509
▁አያስ	-5510
▁መድሀኒት	-5511
ad	-5512
ለስ	-5513
▁ገዢ	-5514
ግራቸው	-5515
▁በዝግ	-5516
▁ማሸነፍ	-5517
▁አይችልም	-5518
ወራ	-5519
ፈሰ	-5520
ፋጣኝ	-5521
▁የቅርብ	-5522
▁የሚመራው	-5523
▁ጴ	-5524
▁ለኢ	-5525
ዛቢ	-5526
ናገረ	-5527
▁የሚያደርጉት	-5528
ቆጠረ	-5529
▁ለረጅም	-5530
ቀኑ	-5531
ጂታል	-5532
▁ይነገ	-5533
▁ልምምድ	-5534
▁ይናገራል	-5535
▁መገንባት	-5536
▁መንግስትን	-5537
ካር	-5538
ባሉት	-5539
▁አደር	-5540
▁እድሎች	-5541
▁ሀይማኖት	-5542
▁አየ	-5543
▁ከር	-5544
▁የከፋ	-5545
▁ጠቀሜታ	-5546
▁ባካሄደው	-5547
ሰቀ	-5548
ሮችና	-5549
▁የላቀ	-5550
ስያ	-5551
▁ተረጋግ	-5552
▁የሚዲያ	-5553
ምራ	-5554
▁ይቅርታ	-5555
▁የቴክኖሎጂ	-5556
▁ይገኙበታል	-5557
በጣ	-5558
ፎርም	-5559
▁ጠየ	-5560
▁ሆቴሎች	-5561
ቂጤ	-5562
መራው	-5563
▁በጭ	-5564
▁ከፀ	-5565
▁ምሁራን	-5566
▁አባላትን	-5567
▁ማእቀፍ	-5568
▁የተገለፀ	-5569
▁አስገንዝበዋል	-5570
ዊተር	-5571
▁የአር	-5572
ለን፤	-5573
እቆብ	-5574
▁ይዘት	-5575
▁በእስር	-5576
▁መረጋጋት	-5577
2007	-5578
▁ረቡእ	-5579
▁ኮንትራ	-5580
▁አጋጣሚዎች	-5581
▁እንዲቀጥል	-5582
ፃፈው	-5583
▁ለሶስት	-5584
▁የሱ	-5585
ዎችንና	-5586
▁አሉታዊ	-5587
ቅምት	-5588
▁መቻሉን	-5589
▁እየታየ	-5590
ልት	-5591
ብሰባ	-5592
▁የአቶ	-5593
▁የፈጠ	-5594
▁እንዲያደርግ	-5595
▁እናት	-5596
መለከቱት	-5597
▁መሪነት	-5598
.1	-5599
ተኞቹ	-5600
▁የነበሩትን	-5601
▁የአስተዳደር	-5602
ማውያን	-5603
▁የጀመረ	-5604
▁ቶሎ	-5605
ሰረተው	-5606
ቀመጡ	-5607
▁የያዙ	-5608
▁ተነስቶ	-5609
▁በሰላማዊ	-5610
▁ሚሊ	-5611
▁ስኬት	-5612
▁ዝናብ	-5613
▁የምስራቅ	-5614
▁ለማከናወን	-5615
ለወጥ	-5616
▁ፈረ	-5617
▁መስፈርት	-5618
ለቲከ	-5619
ፈራረ	-5620
ተውን	-5621
▁37	-5622
▁በአስቸኳይ	-5623
▁ለይ	-5624
▁ባለመሆኑ	-5625
▁ኢንዱስት	-5626
▁የሮ	-5627
ብቶ	-5628
ድያ	-5629
ጀመሩት	-5630
▁ስለሆነም	-5631
▁እድሎችን	-5632
▁እንደሆነና	-5633
ኦት	-5634
መረጡ	-5635
▁ላይ፣	-5636
▁የሚገልፁ	-5637
▁ህይወታቸው	-5638
▁በክሱ	-5639
▁ከመሆኑ	-5640
▁የሌላቸው	-5641
▁የዋስትና	-5642
▁እርግጠኛ	-5643
▁እንግሊዝ	-5644
▁መት	-5645
ፋዊ	-5646
ሉበት	-5647
ቋሙ	-5648
ቡድኑ	-5649
▁ያገኘው	-5650
▁የመኖሪያ	-5651
ሳእና	-5652
አሁን	-5653
ገለግል	-5654
▁ጥቁር	-5655
▁ማስታወቂያ	-5656
በለ	-5657
▁ላለው	-5658
▁እስር	-5659
▁ከመቶ	-5660
▁ያለም	-5661
▁ገዛ	-5662
▁አጨዋ	-5663
▁እይታ	-5664
▁የገለፀው	-5665
▁የፓ	-5666
▁ሆን	-5667
▁ዋት	-5668
▁የጠቀሱት	-5669
▁ነበር፣	-5670
▁የወርቅ	-5671
▁ሀብረተሰቡ	-5672
ሄደ	-5673
የመ	-5674
▁በበጀት	-5675
▁ከአስር	-5676
ንዶች	-5677
ስቲክ	-5678
▁መገለ	-5679
▁የተዋ	-5680
▁የገቡ	-5681
▁በእርስ	-5682
መኛ	-5683
▁ገፃችን	-5684
▁ብርቱ	-5685
▁ሌላኛው	-5686
▁ከሰሞኑ	-5687
▁ያደ	-5688
▁ተሰም	-5689
▁እነሆ	-5690
▁መቀጠል	-5691
▁ማህበራት	-5692
ምበር	-5693
▁ሙስ	-5694
▁ጎዳና	-5695
▁የውይይት	-5696
▁መስራች	-5697
▁የሚታይ	-5698
ፃፍ	-5699
ነሪንግ	-5700
▁መዘጋጀ	-5701
▁እንደተናገሩት፣	-5702
ጦችን	-5703
▁ሀገሮች	-5704
▁ክሱ	-5705
▁እየሆነ	-5706
ch	-5707
▁በማሸነፍ	-5708
▁የተጀመረ	-5709
ጨው	-5710
ፃናት	-5711
▁አረብ	-5712
▁አትሌት	-5713
▁የሚገባው	-5714
ቅን	-5715
ታችሁ	-5716
ንካሬ	-5717
ዎታል	-5718
ቦና	-5719
ልጠና	-5720
▁የሚደረጉ	-5721
▁የተዘጋጀ	-5722
ካዊ	-5723
▁G	-5724
▁የቆዩ	-5725
▁ጉልህ	-5726
▁ወድ	-5727
▁ኢትዮጵያዊያን	-5728
▁በፍርድ	-5729
▁የአመራ	-5730
▁የአት	-5731
▁የስር	-5732
▁የታላቁ	-5733
▁ዶናልድ	-5734
መለሰ	-5735
ቻላቸው	-5736
▁እኛም	-5737
▁በዝ	-5738
▁ስለም	-5739
▁ተሾመ	-5740
▁የችግ	-5741
▁የአባ	-5742
▁ፉክክር	-5743
▁እንደሌለው	-5744
▁ኢንስቲትዩት	-5745
▁ብዙዎች	-5746
▁ይነገራል	-5747
▁መንግስትም	-5748
ሪቱ	-5749
▁ለል	-5750
ገትና	-5751
▁31	-5752
ምሌ	-5753
ፀው	-5754
▁የእኔ	-5755
ቴል	-5756
▁L	-5757
▁ጥምረት	-5758
▁ተሳታፊዎች	-5759
ቸት	-5760
▁ማስፋ	-5761
▁በሀይ	-5762
▁ያሬድ	-5763
▁ጥያቄዎችን	-5764
ጀምሩ	-5765
▁ሀኪ	-5766
▁ያቀረቡ	-5767
▁ፕላ	-5768
▁አብዲ	-5769
▁መግለጫ፣	-5770
▁ክም	-5771
45	-5772
▁ላኪ	-5773
▁የሰሜን	-5774
ጠላ	-5775
▁ባለሙያው	-5776
▁ተበ	-5777
▁ተያያዥ	-5778
▁ንግድና	-5779
▁ሰብስክራ	-5780
▁አቆጣጠር	-5781
▁በሊጉ	-5782
▁በተከሰ	-5783
▁ግሩፕ	-5784
▁አትሌቶች	-5785
▁ወንድሞች	-5786
▁የታሪክ	-5787
▁የፖሊሲ	-5788
ጧቸው	-5789
▁ተጠቃሽ	-5790
▁ያግ	-5791
ግነት	-5792
▁ለጠቅላይ	-5793
▁ሰብስክራይብ	-5794
ፆታ	-5795
▁ጀመረ	-5796
▁ለመፈፀም	-5797
▁ማሞ	-5798
ለዋ	-5799
ደድ	-5800
ጋው	-5801
ናቀሉ	-5802
ክልና	-5803
▁እንደሚኖር	-5804
▁ዳግ	-5805
▁ከጥቂት	-5806
▁ይኖረዋል	-5807
▁ያሰ	-5808
▁ስላለው	-5809
ለደ	-5810
ሶን	-5811
▁ሌሎችን	-5812
▁ትችላለ	-5813
▁ወንድም	-5814
▁አንዳንዶቹ	-5815
ዲሁ	-5816
▁ብን	-5817
▁ካህ	-5818
▁ሁሉን	-5819
ትሮ	-5820
እኛ	-5821
▁መስኖ	-5822
▁የማህ	-5823
▁የመፍትሄ	-5824
ሽነት	-5825
▁እርስዎ	-5826
▁ለቢ	-5827
ንስሳት	-5828
▁በሚለው	-5829
▁እንስሳት	-5830
▁የአክሲዮን	-5831
▁ኪሳራ	-5832
የውን	-5833
ያስፖራ	-5834
▁ያመላክታል	-5835
ንኩ	-5836
ቢያው	-5837
▁ለመር	-5838
▁ቤተሰቦ	-5839
▁በእንግሊዝ	-5840
▁ውስ	-5841
▁ተገኝተዋል	-5842
▁እዚያ	-5843
ማረ	-5844
▁ሰሚ	-5845
▁ቀርቧል	-5846
▁የከተማው	-5847
ቪዬሽን	-5848
▁ለመጀመር	-5849
27	-5850
ሰራር	-5851
▁ማምረት	-5852
▁አካዳሚ	-5853
▁ስርአትን	-5854
ሙዝ	-5855
▁ፊል	-5856
▁ስፋት	-5857
▁በጤና	-5858
▁የተገደ	-5859
▁በአምስት	-5860
▁በአውሮፓ	-5861
መላለ	-5862
▁በውሀ	-5863
▁በአምላክ	-5864
ወያየት	-5865
▁እረፍት	-5866
▁አንዷ	-5867
▁የተለያየ	-5868
ወግ	-5869
▁የገጠ	-5870
▁በመሄድ	-5871
▁የማስተ	-5872
▁የግብይት	-5873
ስበው	-5874
ውያኑ	-5875
▁በነበሩ	-5876
▁አሳይቷል	-5877
ed	-5878
ቆት	-5879
▁ራእይ	-5880
▁ስርጭ	-5881
▁ይሰራል	-5882
ታውን	-5883
▁ተፈራ	-5884
▁አይደሉም	-5885
ዜማ	-5886
ልስጤ	-5887
▁ኪዳን	-5888
▁ከአራት	-5889
▁አልቻለም	-5890
እንደ	-5891
▁መዳ	-5892
▁ጀርባ	-5893
▁ስምምነቱ	-5894
▁ግል	-5895
▁በቀጣይም	-5896
▁እንዲወጣ	-5897
ለጥ	-5898
የሙ	-5899
ክለው	-5900
▁ጠባቂው	-5901
▁ስፍራዎች	-5902
▁ለብዙ	-5903
▁በሚቀጥለው	-5904
▁እሴት	-5905
▁ተጠቅሞ	-5906
▁እስራኤላውያን	-5907
ቅል	-5908
ትንና	-5909
▁ማብ	-5910
▁ዉ	-5911
ጠቀሙበት	-5912
ላሴ	-5913
▁ይኖርበታል	-5914
ላምና	-5915
▁ለመረዳት	-5916
▁በተገኙበት	-5917
ዘተ	-5918
ራረብ	-5919
▁የማን	-5920
▁ምስራ	-5921
▁ቤት፣	-5922
ሽከርካሪ	-5923
--	-5924
▁ወኪ	-5925
▁የተባለውን	-5926
ተሻ	-5927
ሽታው	-5928
▁የዶ	-5929
ኒስቴሩ	-5930
▁የተቋቋመው	-5931
el	-5932
ቆማ	-5933
▁ያገኙ	-5934
▁ከወዲሁ	-5935
ፈነ	-5936
ደተኞች	-5937
▁መረዳት	-5938
ከትል	-5939
▁36	-5940
▁ይጠይ	-5941
▁የሚመጡ	-5942
▁ገብተዋል	-5943
ቀረት	-5944
▁የተጫዋ	-5945
▁ሚስት	-5946
▁እንዲተ	-5947
ጓጓ	-5948
ቷቸው	-5949
ከዚህ	-5950
▁ለመውሰድ	-5951
▁አድርጎታል	-5952
▁በአቶ	-5953
▁በሚገኝ	-5954
▁በአራት	-5955
▁አይነቶች	-5956
▁ቫ	-5957
▁ግሽ	-5958
▁እንደሚጠበቅ	-5959
▁በግብርና	-5960
ጋፍ	-5961
ከተለ	-5962
28	-5963
ክቸ	-5964
▁ጠር	-5965
▁ህዝብን	-5966
▁ለማቋቋም	-5967
▁ሲሰራ	-5968
▁ቀለም	-5969
▁300	-5970
▁መፃህፍት	-5971
▁በሚደረገው	-5972
▁ለፕ	-5973
▁አስከባ	-5974
ጎት	-5975
ሚካኤል	-5976
▁አሰልጣኞች	-5977
▁ለማጥ	-5978
▁የራሱ	-5979
▁ማንነት	-5980
ቾቹ	-5981
ረኞች	-5982
▁በክልል	-5983
ol	-5984
▁ሰበር	-5985
▁ተወል	-5986
▁አደገኛ	-5987
▁የከተማዋ	-5988
በኙ	-5989
▁ዲፕሎማሲ	-5990
ዳሉ	-5991
ነበሩ	-5992
ኒኬሽን	-5993
▁ለመደገፍ	-5994
▁በኤርትራ	-5995
▁የተፈፀመ	-5996
▁ፌዴሬሽኑ	-5997
ቆየት	-5998
▁አስቆ	-5999
ምንቱ	-6000
▁ውዝ	-6001
▁ወቅትም	-6002
▁በተጨማሪ፣	-6003
▁ሲሞ	-6004
▁ውስን	-6005
▁ተመዝግ	-6006
▁የተባሉት	-6007
ገመት	-6008
▁ይቀጥ	-6009
▁ዮሴፍ	-6010
ሽንግተን	-6011
▁መጀመርያ	-6012
▁አማራጮች	-6013
ሰቦችን	-6014
▁ስድ	-6015
ቶቻችን	-6016
▁ከቤተ	-6017
ቶቻቸውን	-6018
▁2015	-6019
▁ላል	-6020
▁ፀጋዬ	-6021
▁የቅድመ	-6022
▁ማስጠንቀቂያ	-6023
35	-6024
▁መንቀሳ	-6025
▁በአማካይ	-6026
▁እንቅፋት	-6027
▁የሁለተኛ	-6028
▁መያዙ	-6029
▁የተሰጠ	-6030
▁H	-6031
▁ከድ	-6032
▁ሙዚቃ	-6033
▁በእስራኤል	-6034
▁አገልግሎቶችን	-6035
▁ለመግዛት	-6036
▁ደደቢት	-6037
ሸራ	-6038
አም	-6039
▁ነበረች	-6040
▁አጠናክሮ	-6041
ቅዱ	-6042
ሊያም	-6043
ጓቸው	-6044
▁እንደሚሰጥ	-6045
▁ለውጦች	-6046
▁የገባው	-6047
▁N	-6048
ስማማ	-6049
ናቸውም	-6050
▁የመሰ	-6051
▁ትልልቅ	-6052
▁ኤልያስ	-6053
▁የተሰኘ	-6054
ርጋ	-6055
▁ዲግሪ	-6056
ለብ	-6057
ጋቢት	-6058
▁መፍታት	-6059
▁ከተማዎች	-6060
ልቀት	-6061
▁በሴ	-6062
▁መግቢያ	-6063
ጎዱ	-6064
▁ከፕ	-6065
▁የጠየ	-6066
▁አለሙ	-6067
▁ከግምት	-6068
▁ዘርፉን	-6069
▁ተጠርጥረው	-6070
ድሞው	-6071
▁ያላት	-6072
▁ሚዲያዎች	-6073
ቻልም	-6074
▁ጊዜም	-6075
il	-6076
▁ከሞ	-6077
▁አውራ	-6078
▁ማረሚያ	-6079
▁የተገለፀው	-6080
▁በአም	-6081
▁ተጠይ	-6082
ምርጫ	-6083
▁ስንዴ	-6084
▁ለበ	-6085
▁ከእኛ	-6086
▁ተከላካ	-6087
▁አድርጋ	-6088
▁መግለፃ	-6089
▁ባቀረቡት	-6090
▁አንዲት	-6091
▁የሚባለው	-6092
በባ	-6093
አዲስ	-6094
▁ወላጆች	-6095
ሪያት	-6096
▁ብቃ	-6097
▁መድረኩ	-6098
▁ገለልተኛ	-6099
▁ያነጋገራቸው	-6100
▁ታከለ	-6101
▁መስዋእት	-6102
▁የፓርላማ	-6103
▁ፕሮጀክቶችን	-6104
ሷን	-6105
▁መዋቅ	-6106
▁አስተማማኝ	-6107
ረጋግጥ	-6108
▁የተደ	-6109
▁የሲዳማ	-6110
▁በቀር	-6111
▁የሚያስተ	-6112
ለለ	-6113
▁በሩ	-6114
▁የተካሄደው	-6115
ሬሽ	-6116
▁90	-6117
▁በላ	-6118
▁ገባ	-6119
▁ገዳ	-6120
▁ለጎን	-6121
ለፍነው	-6122
▁የጥናት	-6123
▁ጥናቶች	-6124
▁በመግለፅ፣	-6125
▁ተለዋ	-6126
▁አድማ	-6127
▁የመተ	-6128
ጠቀምበት	-6129
▁መሆኗን	-6130
▁ለአመታት	-6131
▁.	-6132
ነሳው	-6133
ጣራት	-6134
▁ዝም	-6135
▁አምባ	-6136
ከናወነው	-6137
▁መክፈል	-6138
▁እንዲሰራ	-6139
▁አብዛኛዎቹ	-6140
ቀውን	-6141
▁ነባ	-6142
▁መረብ	-6143
▁ጫማ	-6144
▁በያህዌ	-6145
▁አግኝቶ	-6146
ና፣	-6147
▁መነሳ	-6148
▁ብር፣	-6149
▁ወዘተ	-6150
▁ሽማግሌዎች	-6151
▁አገልግሎቱን	-6152
▁ዘገባው	-6153
▁ምስሎችን	-6154
ፍቱ	-6155
▁እንደሚገባም	-6156
መላ	-6157
▁ታግ	-6158
▁ከደቡብ	-6159
▁ከማድረግ	-6160
እም	-6161
▁ሳጥን	-6162
▁ባቡር	-6163
▁መደረግ	-6164
የኢትዮጵያ	-6165
ገተኛ	-6166
▁በጠ	-6167
▁ቀጥተኛ	-6168
▁በስነ	-6169
ዎቻቸውን	-6170
▁መጨመር	-6171
ሯንዳ	-6172
▁38	-6173
▁ባልደረ	-6174
ንሰ	-6175
ድሀኒ	-6176
▁ተስተው	-6177
ጠባበ	-6178
▁አብዮ	-6179
▁ለአፍሪካ	-6180
▁በጠቅላላ	-6181
▁እንደማይችል	-6182
ቧን	-6183
ቻችሁ	-6184
አንድ	-6185
▁መምጣቱን	-6186
▁የህብረተሰብ	-6187
ቿን	-6188
ሚያስ	-6189
ፍራት	-6190
▁ጥናቱ	-6191
▁የተውጣ	-6192
▁በተሰጠው	-6193
ፀባረ	-6194
▁1-0	-6195
▁የኩባንያው	-6196
▁በመላ	-6197
ውሮፕላን	-6198
▁እንክብ	-6199
▁ጋዜጠኛ	-6200
▁ማስተካከ	-6201
▁የራሳቸውን	-6202
▁ነገስ	-6203
▁ተወላጆች	-6204
ህረ	-6205
▁ያወ	-6206
ክርስቲያን	-6207
▁ባለመቻሉ	-6208
▁እንዲያውም	-6209
as	-6210
ኮል	-6211
▁ጀመር	-6212
▁ለመውጣት	-6213
ሰረቱ	-6214
▁ሀላፊነቱ	-6215
▁እሳ	-6216
▁መክፈ	-6217
▁እለ	-6218
▁ለሚገኙ	-6219
ኮር	-6220
▁የስኳር	-6221
▁አካላትን	-6222
ጣራ	-6223
▁የኮቪድ	-6224
▁የተሳተፉ	-6225
▁ህይወታቸውን	-6226
ረጋገጡ	-6227
▁ለህግ	-6228
▁ኑሮ	-6229
▁ያለምንም	-6230
ኔታው	-6231
▁በኩ	-6232
▁ብላ	-6233
▁የሚታዩ	-6234
▁ያደርገዋል	-6235
▁መስጫ	-6236
▁ከክ	-6237
▁አስመ	-6238
ደረሰበት	-6239
▁መቀበል	-6240
▁ቀርቷል	-6241
በዛ	-6242
▁ቃላት	-6243
▁ፖለቲከ	-6244
▁ማውጣት	-6245
ዘረጋ	-6246
▁ያስታወሱት	-6247
ባማ	-6248
ታና	-6249
▁ያደርጋሉ	-6250
▁ይጠቁማሉ	-6251
▁አሸናፊነት	-6252
ሊና	-6253
ከታተሉ	-6254
▁ተዘግ	-6255
▁አሳው	-6256
▁የተያያዘ	-6257
አር	-6258
▁ፋሲ	-6259
▁አደሩ	-6260
▁አንዱን	-6261
▁ኮርፖሬሽኑ	-6262
▁ጨዋታዎችን	-6263
ስልጣን	-6264
▁እነሱን	-6265
ገልገ	-6266
▁ተመልካ	-6267
▁በከተማው	-6268
▁መኪ	-6269
▁አፄ	-6270
▁መደብ	-6271
▁በአን	-6272
▁በሀይል	-6273
▁ያጋጠ	-6274
▁ጊዜው	-6275
ጦት	-6276
ሰቡን	-6277
▁ሊኖር	-6278
▁የዛሬ	-6279
ኸኝ	-6280
▁ላሉ	-6281
▁በቱ	-6282
▁ቤትና	-6283
▁ሰጥተው	-6284
▁ተጠርጣሪዎቹ	-6285
▁በዛ	-6286
▁አቤ	-6287
▁ሽልማ	-6288
ቋቋሙ	-6289
▁ሳል	-6290
▁ለፊት	-6291
▁መጠናቀቁ	-6292
37	-6293
▁የቻለ	-6294
▁ከቻይና	-6295
▁የደረሰው	-6296
▁ተፈናቃ	-6297
▁ያህዌን	-6298
▁እስክ	-6299
▁የሰጡ	-6300
▁ሆሳእና	-6301
▁መናገር	-6302
▁በኢንዱስትሪ	-6303
ent	-6304
ውንት	-6305
ፈፀሙት	-6306
ፌዴሬሽን	-6307
▁ዩኒቨርስቲ	-6308
ቷቸዋል	-6309
▁መያዛ	-6310
▁በአዳማ	-6311
▁መንግስቱን	-6312
▁እንደገለፁት፤	-6313
ገፅ	-6314
ውንና	-6315
▁ማሰ	-6316
▁በሂደት	-6317
▁አራተኛ	-6318
▁የቡድን	-6319
▁የነበራቸው	-6320
▁ጦ	-6321
▁እንደመሆኑ	-6322
▁በጣ	-6323
▁ኢሳያስ	-6324
ቂቁ	-6325
▁ትላንት	-6326
ጠም	-6327
▁ብቁ	-6328
ላልቅ	-6329
▁ሲታ	-6330
▁ማቆያ	-6331
▁ፈረንሳይ	-6332
▁የተፈጠረው	-6333
▁በዙ	-6334
▁ነጭ	-6335
▁ማሳየት	-6336
▁ለመድረስ	-6337
▁የመንግስ	-6338
ቃስ	-6339
▁ለባ	-6340
▁ልውውጥ	-6341
▁የክፍያ	-6342
ይዙ	-6343
▁ስለሌ	-6344
▁ታይቷል	-6345
▁ጥሰ	-6346
▁ለባለ	-6347
▁ክብረ	-6348
ደረጋቸው	-6349
▁አደርጋ	-6350
▁ቋንቋዎች	-6351
26	-6352
▁ቀርቶ	-6353
▁አያሌ	-6354
ኒሻንጉል	-6355
ያዣ	-6356
ነኛው	-6357
▁ነች	-6358
▁መፅሄ	-6359
▁ለይቶ	-6360
▁መርህ	-6361
▁ምትክ	-6362
▁በርካቶች	-6363
ጎብኙ	-6364
▁በጀ	-6365
▁በከፊ	-6366
▁የኬንያ	-6367
ዘዝ	-6368
▁መርከ	-6369
▁እንግዳ	-6370
ac	-6371
ተርኔት	-6372
▁ፍለጋ	-6373
▁ምርታማ	-6374
ሬዝ	-6375
ጠሉ	-6376
▁ኤፍሬ	-6377
▁ህልውና	-6378
የቱ	-6379
ዚያው	-6380
▁ይስ	-6381
▁ፍል	-6382
ነብ	-6383
▁ከዛ	-6384
▁የመር	-6385
▁የክስ	-6386
▁ይግባኝ	-6387
▁ተክለ	-6388
▁እንክብካቤ	-6389
▁የቀረ	-6390
▁በሶማሌ	-6391
▁አሰላለፍ	-6392
▁ሚኒስትሩ፣	-6393
ዋይ	-6394
▁ስና	-6395
▁የሰማ	-6396
▁የጠበቀ	-6397
▁ያላትን	-6398
ሬዎች	-6399
ናል፤	-6400
▁አሞ	-6401
▁እውቀ	-6402
▁በትኩረት	-6403
ሩ፣	-6404
ዊያን	-6405
ወል	-6406
▁ማም	-6407
▁ሽረ	-6408
▁ፅኑ	-6409
▁አይን	-6410
▁ይጎብኙ	-6411
▁መቆየቱን	-6412
ታች	-6413
▁ወቅት፣	-6414
ባንድ	-6415
▁መብራ	-6416
▁ጥንካሬ	-6417
ሞቹ	-6418
▁ተጠሪ	-6419
▁የሀዋሳ	-6420
ስተዋወቅ	-6421
▁ተከላካዮች	-6422
ዌር	-6423
▁ርዝ	-6424
▁ሲገባ	-6425
▁ጉምሩክ	-6426
▁ዛሬም	-6427
ጆታ	-6428
▁ሁሴን	-6429
▁ተጠናቆ	-6430
▁ሀይለማርያም	-6431
ድሜ	-6432
▁ሳን	-6433
▁ከቦ	-6434
ማርያም	-6435
ስም	-6436
ካቸው	-6437
▁የድንበር	-6438
ታትን	-6439
ንሳዊ	-6440
▁ሀሰን	-6441
▁ባሪያ	-6442
▁ፍቃዱ	-6443
▁መሻሻል	-6444
▁ተናግረው	-6445
▁አካባቢው	-6446
▁ሰሌ	-6447
▁አዝማ	-6448
▁የተጠ	-6449
▁ፈታኝ	-6450
▁ማካሄድ	-6451
▁ደመወዝ	-6452
▁እንደማያ	-6453
ወስዱ	-6454
▁አለን	-6455
▁ለማለት	-6456
ጠጥ	-6457
▁ናይ	-6458
▁ተሰር	-6459
▁የሚደርሱ	-6460
ለቆ	-6461
ንድነው	-6462
ወዳደር	-6463
▁መጀመር	-6464
መውን	-6465
▁ከእነሱ	-6466
ጋች	-6467
ስማሙ	-6468
▁ጨምረው	-6469
▁ኮሎኔል	-6470
▁የቅዱስ	-6471
▁በበርካታ	-6472
▁የተለመደ	-6473
▁ማኔጅመንት	-6474
▁በተባበሩት	-6475
▁አይደለም፤	-6476
▁ዩኒቨርሲቲዎች	-6477
▁ፋይዳ	-6478
▁የመሳሰሉ	-6479
ፍራው	-6480
▁ፍራ	-6481
▁በመንፈ	-6482
▁ማዳበሪያ	-6483
▁የሰጠ	-6484
▁በድምሩ	-6485
▁ለተለያዩ	-6486
▁አለመግባባት	-6487
▁ያመለክታሉ	-6488
▁በትን	-6489
▁የባህል	-6490
▁እንዲካሄድ	-6491
ባሪ	-6492
▁እሳት	-6493
▁ሽንፈት	-6494
▁እስከሚ	-6495
▁ሀላፊነቱን	-6496
▁ነክ	-6497
▁ሰማያዊ	-6498
▁እንግዲህ	-6499
ከናውን	-6500
▁ቆሻሻ	-6501
▁የነፃ	-6502
▁ከተማዋ	-6503
▁መስተ	-6504
▁አጠገብ	-6505
▁መድረኮች	-6506
ንቱ	-6507
ርቶዶ	-6508
▁ጴጥሮ	-6509
▁በየቀኑ	-6510
ሎጂስቲክስ	-6511
▁የሚካሄደው	-6512
ደራጁ	-6513
ጭበር	-6514
▁ቴክ	-6515
▁ኢነርጂ	-6516
መናት	-6517
▁መራ	-6518
▁ምስል	-6519
am	-6520
ዴል	-6521
▁በማውጣት	-6522
▁አማኑኤል	-6523
▁የጨ	-6524
▁ለመያዝ	-6525
▁አስተያየታቸውን	-6526
ስቶች	-6527
▁ሲሳይ	-6528
▁ተፈጥ	-6529
▁ይልቁ	-6530
▁ጉሙዝ	-6531
▁ጤናማ	-6532
ኒየም	-6533
▁ነውና	-6534
▁ኮንግ	-6535
▁የፊት	-6536
▁የተሞላ	-6537
ሬስ	-6538
▁ካቢኔ	-6539
▁የሀብረተሰብ	-6540
▁የኬ	-6541
▁በቀረ	-6542
ኪንግ	-6543
▁ካላ	-6544
▁የሳይንስ	-6545
▁አስታውሰው	-6546
▁የሜ	-6547
▁የተከላካይ	-6548
ለኛል	-6549
▁ዘመነ	-6550
ፈልጋቸው	-6551
▁በየነ	-6552
▁ወረቀት	-6553
▁እንደምን	-6554
▁የምርምር	-6555
ሚካል	-6556
▁ሁለቱን	-6557
▁ነገስታት	-6558
ላሚ	-6559
▁ሳም	-6560
▁ተሰብ	-6561
▁በማድረ	-6562
▁እንስሳ	-6563
▁ሀሳቦችን	-6564
▁የሚገልፅ	-6565
ጥቂ	-6566
ክሲዮኖች	-6567
▁ከአሜሪካ	-6568
መሰረተ	-6569
ስብስብ	-6570
ነገረው	-6571
▁የክለቡ	-6572
ቦቹ	-6573
ድመው	-6574
ገቢው	-6575
ችሎ	-6576
▁የሽግግር	-6577
▁የተሸ	-6578
▁የኑሮ	-6579
▁ማምረቻ	-6580
▁ተፎካካሪ	-6581
▁ያስችላል	-6582
ክልት	-6583
ፋክቸ	-6584
▁በዘላቂ	-6585
▁ውስጥና	-6586
▁የደሀንነት	-6587
ኞቹን	-6588
▁በጉዳት	-6589
▁ተቀብሎ	-6590
▁ቅርፅ	-6591
▁በቶ	-6592
▁የና	-6593
▁ወስዶ	-6594
▁ሰነዶች	-6595
ፈጥሮ	-6596
ቆጠረው	-6597
▁የሚደ	-6598
▁ሲካሄድ	-6599
ረጡ	-6600
▁ጐ	-6601
ክፈት	-6602
▁ማበረታ	-6603
▁ኢንዱስትሪው	-6604
▁እንደሚቀጥል	-6605
ቲዩብ	-6606
▁የተፈረ	-6607
ገገ	-6608
▁ይጨ	-6609
▁ከሁለቱ	-6610
▁ኢላማ	-6611
▁ከጠቅላይ	-6612
▁ከመጀመሪያ	-6613
▁እየተከናወነ	-6614
▁ተጨባጭ	-6615
▁ግቦችን	-6616
▁የእድገትና	-6617
▁ምኞ	-6618
▁ቀጠና	-6619
▁ታስቦ	-6620
▁መጠየቅ	-6621
▁የተጠረጠሩ	-6622
ንሰር	-6623
▁ከረ	-6624
▁ደህን	-6625
ከፋፈ	-6626
ጂነር	-6627
▁ተተ	-6628
▁መድረሱ	-6629
▁ሰራዊቱ	-6630
▁ድብ	-6631
▁በአካባቢ	-6632
▁ወዲያውኑ	-6633
▁የተያያዙ	-6634
▁እንዲመለሱ	-6635
ረቃ	-6636
ጠርጣሪ	-6637
▁የሰነ	-6638
▁መድረስ	-6639
▁በሜዳው	-6640
▁በተከታታይ	-6641
▁ፃ	-6642
ባቸውና	-6643
▁አልበ	-6644
ልቻ	-6645
ቁሞ	-6646
ነሽ	-6647
ብርብ	-6648
▁አካሂ	-6649
▁ማጣሪያ	-6650
▁ተመስርቶ	-6651
ዋቸው	-6652
▁ፍቅ	-6653
ነታችን	-6654
▁የጉዞ	-6655
▁በትዊተር	-6656
▁ሀሳባቸውን	-6657
ቃይ	-6658
ፋይ	-6659
▁የዜና	-6660
▁የሚሆነ	-6661
▁ኤጀንሲው	-6662
▁የሚካሄድ	-6663
▁ተጠቃሚዎች	-6664
ሮጀክት	-6665
▁ቆጠራ	-6666
▁እርሱ	-6667
▁ከእሱ	-6668
▁የብዙ	-6669
29	-6670
እል	-6671
▁ምግ	-6672
▁ኪዳ	-6673
ባበሪያ	-6674
▁የአምላክን	-6675
ሸጋገር	-6676
▁ተናገሩ	-6677
▁ተጋላጭ	-6678
▁ሁኔታዎችን	-6679
▁ሪፖርተር፡	-6680
▁የተሰጠውን	-6681
▁65	-6682
▁የተከፈለ	-6683
ማሪያ	-6684
▁በሰፊው	-6685
▁በተያዘው	-6686
▁በነፃነት	-6687
▁ውሳኔዎች	-6688
▁ኢንዱስትሪዎች	-6689
በሉ	-6690
ናጠል	-6691
ኑፋክቸ	-6692
▁ይመል	-6693
▁ቢዝነስ	-6694
▁ጥቃቶች	-6695
▁ቼ	-6696
▁ሞገስ	-6697
▁የሚያግ	-6698
▁የቤተሰብ	-6699
▁ሰራተኞችን	-6700
▁ኢንጂነሪንግ	-6701
ንቦት	-6702
▁ይሸ	-6703
▁ሙሉጌታ	-6704
ርያት	-6705
▁ከሶ	-6706
▁ይገመ	-6707
▁ገዝ	-6708
▁የሙያ	-6709
▁አስፈፃሚው	-6710
▁ለጊዜው	-6711
▁ማእከላት	-6712
▁የሚቀርቡ	-6713
▁ሉቃስ	-6714
▁ሲሰሩ	-6715
▁የድምፅ	-6716
▁ተመጣጣኝ	-6717
▁ቅፅ	-6718
▁ጉድለት	-6719
▁ያቀርባል	-6720
▁የመጀመሪያውን	-6721
▁ለደ	-6722
▁ተፈፅ	-6723
▁አቅራቢያ	-6724
et	-6725
ስፋፋት	-6726
▁በባህ	-6727
▁እስራት	-6728
▁የሚባሉ	-6729
▁የፈረንሳይ	-6730
ግሞ	-6731
ገባችን	-6732
▁የወጡ	-6733
▁ፀሀይ	-6734
▁አገልግ	-6735
▁ጀምሯል	-6736
ድ፣	-6737
ሙላት	-6738
▁ሁላችንም	-6739
▁ከስድስት	-6740
ሳችሁ	-6741
▁አይቀር	-6742
▁አሰልጣኙ	-6743
▁ሊታ	-6744
▁አገኘ	-6745
▁መንደር	-6746
▁በተወሰነ	-6747
▁የለበትም	-6748
▁ቂ	-6749
ከባቢ	-6750
▁ዘመኑ	-6751
▁ስማቸው	-6752
ደለ	-6753
▁ኒው	-6754
▁የብሄር	-6755
▁ያተኮረ	-6756
▁ከእስር	-6757
▁እንዲችሉ	-6758
▁የአሰራር	-6759
ሶቹ	-6760
ደይ	-6761
▁መስራ	-6762
ርቶዶክስ	-6763
▁አልቻሉም	-6764
▁የሆኑትን	-6765
ቆመ	-6766
ላላቅ	-6767
▁ማታ	-6768
▁ቀንድ	-6769
▁በቀጣዩ	-6770
▁የመኪና	-6771
▁አገሪቱን	-6772
ነቃ	-6773
▁መወሰኑን	-6774
ኩም	-6775
▁ይጀም	-6776
ችም	-6777
▁ሰፋ	-6778
▁በኪ	-6779
ከፈለው	-6780
▁ፊርማ	-6781
▁እንዲገባ	-6782
▁የተቀናጀ	-6783
ለቀቁ	-6784
▁መምጣት	-6785
▁ተከሳሽ	-6786
of	-6787
▁ሌሎቹ	-6788
▁በአየር	-6789
▁በምክትል	-6790
ሸነፈ	-6791
▁የውጪ	-6792
▁አገራቸው	-6793
▁የተፈጠረውን	-6794
ግሮ	-6795
ጠፉ	-6796
▁ቤን	-6797
▁ለሌላ	-6798
▁ሲቪል	-6799
▁የአም	-6800
▁የመሀል	-6801
▁ደረጃዎች	-6802
▁ታይቶ	-6803
ስታን	-6804
▁ጥብቅ	-6805
▁ማእረግ	-6806
▁ሶስተኛው	-6807
▁ፕሬስ	-6808
▁ከከተማ	-6809
▁አደረጃጀ	-6810
ከብር	-6811
▁ጆን	-6812
▁በፍፁም	-6813
ብቻ	-6814
ቋንቋ	-6815
▁እፅ	-6816
ሌም	-6817
ከበ	-6818
▁ካርታ	-6819
▁ጨርቅ	-6820
▁አእምሮ	-6821
▁ወልዋሎ	-6822
▁አስገ	-6823
▁ለገበያ	-6824
▁ታዛቢ	-6825
▁ከቤት	-6826
▁በመባል	-6827
▁ተከትሎም	-6828
▁የሚጠይቅ	-6829
▁አብዛኛውን	-6830
ፈልጋሉ	-6831
▁ማእድን	-6832
ከተሞች	-6833
ኑፋክቸሪንግ	-6834
መኔ	-6835
▁ቦሌ	-6836
▁ያዘ	-6837
ነካ	-6838
2014	-6839
▁ሪፐብሊክ	-6840
▁ለማስወገድ	-6841
▁እንደሆነ፣	-6842
33	-6843
ጊዜም	-6844
▁የኩ	-6845
ደረጃው	-6846
▁ለበርካታ	-6847
▁ባሳለፍነው	-6848
▁እንደሚኖረው	-6849
መዱ	-6850
ሀመድ	-6851
▁መስፋ	-6852
▁ተጫው	-6853
▁ከህዝብ	-6854
▁ውስጥ፣	-6855
▁ገብቷል	-6856
▁የህዝቡን	-6857
▁የማስከበር	-6858
92	-6859
ላህ	-6860
ችግር	-6861
ውልድ	-6862
▁ለግብ	-6863
▁ስዩም	-6864
▁ተስማሚ	-6865
▁ያስታው	-6866
▁እያንዳንዳቸው	-6867
ቆር	-6868
ያውቁ	-6869
▁በእሱ	-6870
▁ተለይ	-6871
▁መገለጫ	-6872
▁ኤፍሬም	-6873
▁ከተማው	-6874
▁ለፌዴራል	-6875
▁በማድረግ፣	-6876
▁የሚመለከታቸው	-6877
ጎማ	-6878
▁ይካሄ	-6879
አዛ	-6880
ጣሬ	-6881
▁በዚያው	-6882
▁ወንጀሎች	-6883
▁የሚኖረው	-6884
1)	-6885
ለያይ	-6886
▁ይወስ	-6887
▁እንጂ፣	-6888
▁ለመርዳት	-6889
▁መመልከት	-6890
▁የተከሰተው	-6891
ናቅ	-6892
የህ	-6893
▁መላው	-6894
▁ስህተ	-6895
▁ቢሆኑ	-6896
▁መፈፀም	-6897
▁እንደሚሰሩ	-6898
48	-6899
ጥና	-6900
▁በመጣ	-6901
▁በተፈጠረው	-6902
▁እንዲኖረው	-6903
▁የፌዴሬሽን	-6904
▁የሚኒስትሮች	-6905
▁አስተላልፈዋል	-6906
ልኮ	-6907
▁ለማስገባት	-6908
ራሚ	-6909
▁ከየ	-6910
ደረገውን	-6911
▁የሀብት	-6912
▁ያወጣው	-6913
and	-6914
ያችን	-6915
▁ፈል	-6916
መንግስ	-6917
▁ሀሰተኛ	-6918
▁ውስብስብ	-6919
▁ተመራማሪ	-6920
ዚያን	-6921
▁ስፔ	-6922
▁አጥብ	-6923
▁የአደጋ	-6924
▁የዱ	-6925
▁የሲቪል	-6926
▁ገፃቸው	-6927
▁መሰብሰብ	-6928
▁ብድ	-6929
▁ያነሰ	-6930
▁በከፊል	-6931
▁የጀመሩት	-6932
▁በመከላከያ	-6933
ሁል	-6934
ፉትን	-6935
ዎቻችን	-6936
▁ማስተካከያ	-6937
75	-6938
ጥሎ	-6939
▁ውሳኔው	-6940
▁የሁሉም	-6941
ከተሉ	-6942
ፈራው	-6943
▁ቅርንጫፎች	-6944
ገፍ	-6945
▁በቅን	-6946
▁አመፅ	-6947
▁የሙዚቃ	-6948
▁ለመም	-6949
▁አንዳር	-6950
▁አሳስቧል	-6951
▁የክልሉን	-6952
መጣው	-6953
▁በቃ	-6954
▁እዝ	-6955
▁የመግ	-6956
▁በእርግ	-6957
▁በየትኛውም	-6958
▁ከጀመረ	-6959
▁ውድድሩ	-6960
▁የመንግስትን	-6961
▁የኮንስትራክሽን	-6962
▁ተዳ	-6963
▁በእኔ	-6964
▁አመቱን	-6965
▁የተያዘ	-6966
▁የሞባይል	-6967
ንጆ	-6968
ገሪቷ	-6969
ሮባንድ	-6970
▁ፕላን	-6971
ሽከርካሪዎች	-6972
ርም	-6973
ጨበ	-6974
▁ቅዱ	-6975
▁ብክ	-6976
▁ደራ	-6977
ላለፉት	-6978
▁በአሉ	-6979
▁መስቀል	-6980
▁አርባምንጭ	-6981
ሪስት	-6982
▁ማራ	-6983
ቃወሚያ	-6984
▁ከእነዚህም	-6985
ቲቭ	-6986
ረከብ	-6987
▁ልታ	-6988
▁ኮሮና	-6989
op	-6990
ቀደው	-6991
ቧቸው	-6992
▁እሸ	-6993
መሰግና	-6994
▁ያካት	-6995
▁በተባለው	-6996
ዌይ	-6997
በረታታ	-6998
▁ማሰል	-6999
ሮስ	-7000
▁ኪራይ	-7001
▁ሲናገሩ	-7002
▁ይኖራል	-7003
▁መዘገባችን	-7004
65	-7005
ፅህና	-7006
መዘገበ	-7007
▁ፈንታ	-7008
ወያዩ	-7009
▁ሞክ	-7010
▁ገመ	-7011
▁ጨር	-7012
▁ተላል	-7013
▁ጥሬ	-7014
▁ሜትሪክ	-7015
▁ከነዚህ	-7016
▁ለመቀበል	-7017
▁መንቀሳቀስ	-7018
▁እንዲፈጠር	-7019
በመ	-7020
ኢንጂነር	-7021
▁በአካል	-7022
▁የሻ	-7023
▁ምናልባትም	-7024
▁በዘላቂነት	-7025
ርታ	-7026
▁ያካተተ	-7027
▁ታጣቂዎች	-7028
ጥታው	-7029
ርስዎ	-7030
▁75	-7031
▁በምክር	-7032
▁ተጨዋቾች	-7033
ላሳ	-7034
▁ዘውዴ	-7035
▁ለመጫወት	-7036
▁ትችላለህ	-7037
ጣዊ	-7038
▁ለረ	-7039
▁አዛዥ	-7040
▁ፍቃድ	-7041
▁በአፋር	-7042
▁ተቀይሮ	-7043
ዘመን	-7044
▁ደግሞ፣	-7045
ሰነ	-7046
ሟቸው	-7047
ራዊት	-7048
▁ይሞ	-7049
ቲያ	-7050
ትመት	-7051
▁በጥንቃቄ	-7052
ሰማራት	-7053
▁በቤት	-7054
▁ጠቅሶ	-7055
▁ሲደርስ	-7056
ሲሲ	-7057
ቅድሚያ	-7058
ሬው	-7059
የቱን	-7060
ዎንታዊ	-7061
▁ጎሎች	-7062
▁ይጠቁማል	-7063
▁ለማስጠበቅ	-7064
ቶችም	-7065
▁ሀጢአት	-7066
▁የአባይ	-7067
▁ቅዱስን	-7068
▁የሚንቀሳቀሱ	-7069
ካቲት	-7070
▁እፈልጋ	-7071
▁የሚታየው	-7072
▁የሀገሪቱን	-7073
▁እንደሚያደርጉ	-7074
ሆኗ	-7075
በን	-7076
▁ጋዝ	-7077
▁400	-7078
▁ማለፍ	-7079
▁በሪፖር	-7080
▁የሌሎች	-7081
ገፋ	-7082
ጠናከረ	-7083
▁የጥራት	-7084
▁በማሳደግ	-7085
▁ፋብሪካው	-7086
▁የሚችለውን	-7087
ጠናቅ	-7088
▁ከለ	-7089
▁ተማሪዎችን	-7090
ረሱን	-7091
▁ማጠናከር	-7092
▁ኮርፖሬት	-7093
▁የተደረጉ	-7094
▁መሳሪያዎችን	-7095
ሯዊ	-7096
▁ተይዞ	-7097
▁መከላከ	-7098
ማች	-7099
ዜጎች	-7100
▁የፈረ	-7101
▁ፌዴራ	-7102
▁ቡናዎች	-7103
▁ይባላል	-7104
▁ለሁለተኛ	-7105
▁ቢኖሩ	-7106
▁ድምፃ	-7107
ኖርም	-7108
▁በለ	-7109
▁ተመልሶ	-7110
▁ይታያል	-7111
ጋድ	-7112
▁ቅስ	-7113
▁ድክ	-7114
▁ለኢን	-7115
▁በመመ	-7116
▁የአፍ	-7117
መናል	-7118
▁በመመር	-7119
▁የተካሄደ	-7120
▁ትኩረ	-7121
▁ጥቆማ	-7122
▁ሽመልስ	-7123
▁እንደሚካሄድ	-7124
ረሚያ	-7125
ሳተፈ	-7126
▁ተቆጥ	-7127
ድዋ	-7128
▁ምእ	-7129
▁አድና	-7130
▁አይነቱ	-7131
▁የተጠቀ	-7132
▁ለብሄራዊ	-7133
▁እንደታ	-7134
▁የቅጣት	-7135
▁የተሰሩ	-7136
ጂዎች	-7137
▁ቅጥር	-7138
▁ይዟል	-7139
▁ተካሂዷል	-7140
▁የሚያቀርቡ	-7141
▁ጠን	-7142
ከፍሉ	-7143
▁በእኛ	-7144
▁አክር	-7145
▁ድልድ	-7146
fanab	-7147
▁ፕሪሚየር	-7148
▁ሚኒስትሮች	-7149
▁የደህንነት	-7150
ተም	-7151
ከባድ	-7152
▁ቀለ	-7153
▁በደል	-7154
▁ከማን	-7155
▁የአሁኑ	-7156
ቃለሁ	-7157
▁አዎ	-7158
▁በህዝ	-7159
▁ወንድሙ	-7160
▁ናቸው፤	-7161
ቤን	-7162
▁ክምችት	-7163
▁የሚደረገውን	-7164
ub	-7165
▁ወረራ	-7166
▁ግፊት	-7167
▁ሂደቱን	-7168
▁ለጋዜጠኞች	-7169
ሂም	-7170
ደጋፊ	-7171
ቀበሉ	-7172
ቃቱ	-7173
▁ረድ	-7174
▁ነባር	-7175
▁አስከ	-7176
▁ይፈጥ	-7177
▁ሰላምን	-7178
▁በአመቱ	-7179
▁በዘመነ	-7180
▁እንደሚቀ	-7181
91	-7182
ሪታንያ	-7183
▁ይኸው	-7184
▁የሚኖር	-7185
▁በተጠናቀቀው	-7186
በእ	-7187
ፀድቅ	-7188
▁ቀረ	-7189
▁አበባና	-7190
▁ዲዛይን	-7191
▁በመገንባት	-7192
.)	-7193
▁ጢ	-7194
ብዳቤ	-7195
▁በመዝ	-7196
▁ከምን	-7197
▁የመቀ	-7198
▁በመድረኩ	-7199
he	-7200
ለር	-7201
▁ለመል	-7202
▁ሰነዱ	-7203
▁አቤል	-7204
▁ርብርብ	-7205
▁አጨዋወት	-7206
▁በማህበራዊ	-7207
እዝ	-7208
▁ይል	-7209
▁ደቀ	-7210
ቪስ	-7211
ቻለም	-7212
▁ቡናን	-7213
ኖት	-7214
ከፍል	-7215
▁እንዳሳ	-7216
▁የሚቻል	-7217
▁ቄ	-7218
ፈፅም	-7219
▁ለቢቢሲ	-7220
▁መንገደ	-7221
▁መጥተው	-7222
▁አስተናግ	-7223
▁የማሳ	-7224
▁የጎላ	-7225
▁ብዙውን	-7226
▁ማስታወሻ	-7227
▁ማድረጋቸው	-7228
▁የቀረበውን	-7229
ክሎ	-7230
▁ልጃ	-7231
ኞቻቸው	-7232
▁በስድስት	-7233
▁የካፒታል	-7234
▁ቁርጠኝነት	-7235
ርጅ	-7236
ሮቹን	-7237
ሽናል	-7238
▁ሰሌዳ	-7239
▁ተመድ	-7240
▁መዝሙር	-7241
ተረ	-7242
▁ለእኔ	-7243
▁የጎል	-7244
▁ፎረም	-7245
▁ማስቆጠር	-7246
▁መስፈርቶች	-7247
ብዛም	-7248
▁መጥቶ	-7249
▁ከማእ	-7250
▁ያለን	-7251
ታቸውንም	-7252
▁የሁለቱን	-7253
ጋን	-7254
▁W	-7255
▁በኬንያ	-7256
ፈፀሚያ	-7257
▁የግራ	-7258
▁የሚቀርብ	-7259
▁ዳይሬክቶ	-7260
▁ማሰብ	-7261
▁ትእዛ	-7262
▁የአዋ	-7263
▁የሚነሱ	-7264
ፍትህ	-7265
▁የወቅ	-7266
▁ማስተማር	-7267
ነን	-7268
ዛቀ	-7269
▁የዝ	-7270
ጀንሲው	-7271
▁ማምጣት	-7272
▁የዩቲዩብ	-7273
▁በነበረበት	-7274
▁ተግባራትን	-7275
▁መጀመሩ	-7276
▁እርግጥ	-7277
▁ማከናወን	-7278
▁መጠቀ	-7279
▁ቦታው	-7280
▁ያእቆብ	-7281
ይድ	-7282
▁በግራ	-7283
▁ብይን	-7284
▁ነበረው	-7285
▁ያለበትን	-7286
▁በአንድነት	-7287
ሚን	-7288
አቱ	-7289
ቃለን	-7290
▁ሴራ	-7291
▁የጂ	-7292
▁ማቋቋ	-7293
▁አዲሱን	-7294
▁ከሚገኘው	-7295
▁ለቆ	-7296
▁ጥበ	-7297
▁ሩሲያ	-7298
▁አሳልፎ	-7299
▁ገለፃ፤	-7300
▁የተውጣጡ	-7301
▁የአመራር	-7302
ጫን	-7303
ሪዎቹ	-7304
መዘገቡ	-7305
▁የፕሮ	-7306
▁ጠዋት	-7307
▁ቪዲዮ	-7308
▁ተንታ	-7309
▁ተዋህ	-7310
▁የቱሪዝም	-7311
▁በየደረጃው	-7312
▁ኢትዮጵያና	-7313
ተሮች	-7314
▁ፎር	-7315
▁የድጋፍ	-7316
▁ያረጋግ	-7317
▁ለማሳየት	-7318
▁ከነበሩት	-7319
▁የሚሳተፉ	-7320
ንቀት	-7321
ክሌ	-7322
ደሮች	-7323
▁44	-7324
▁አምላክን	-7325
▁አትሌቲክስ	-7326
ሮኮ	-7327
ኮቹ	-7328
▁ግን፣	-7329
▁የተጠየ	-7330
▁ቁጥራቸው	-7331
▁ኮሚሽነሩ	-7332
▁የስደተኞች	-7333
!"	-7334
ኝታ	-7335
ፍረት	-7336
▁ተና	-7337
▁በእግር	-7338
▁ከክልሉ	-7339
▁የእለት	-7340
▁ኦሊምፒክ	-7341
▁ከብሄራዊ	-7342
▁ዲሞክራሲ	-7343
▁ዛፍ	-7344
▁የመነ	-7345
▁ውዝግብ	-7346
▁ደረጃን	-7347
▁ብጥብ	-7348
▁እንደሚያመለክ	-7349
ክን	-7350
ቃለች	-7351
ላለፈው	-7352
▁ኮሌጅ	-7353
▁ጂቡቲ	-7354
ለቁ	-7355
ርጎ	-7356
ሳ፣	-7357
▁ወራ	-7358
▁ሳህለ	-7359
▁ኢንቨስትመን	-7360
▁ይው	-7361
ዘርላንድ	-7362
▁ካሳሁን	-7363
ልታ	-7364
ሳኤ	-7365
ማንድ	-7366
በርት	-7367
▁በኮን	-7368
▁አስፍ	-7369
▁በፀጥታ	-7370
▁አዋጁን	-7371
▁የተሰኘው	-7372
▁ኢያ	-7373
▁ተቀማጭ	-7374
▁በመቃወም	-7375
▁ማፅ	-7376
▁በማጥ	-7377
▁በሞት	-7378
▁የጎደ	-7379
▁ለማውጣት	-7380
▁በኢትዮጵያና	-7381
ይነ	-7382
▁ይገኝ	-7383
▁በጥናት	-7384
▁በትብብር	-7385
▁ኦፕ	-7386
▁የሚቃ	-7387
▁ከታክስ	-7388
fanate	-7389
▁በተገቢው	-7390
ወከል	-7391
▁ተሟ	-7392
▁አግኝቷል	-7393
▁እናደርጋ	-7394
ከበሩ	-7395
ውያንን	-7396
▁ቢቢሲ	-7397
▁የቀን	-7398
▁የገለፁ	-7399
▁የግብር	-7400
ፀድ	-7401
▁ኤስ	-7402
ታደራዊ	-7403
▁እንዳላ	-7404
▁እናመሰግና	-7405
ካሄዱት	-7406
▁የበጎ	-7407
fanatele	-7408
ቸገሩ	-7409
ዘጋጃ	-7410
▁ደሴ	-7411
ሰባቸው	-7412
▁ሊትር	-7413
▁ስላሉ	-7414
▁ፍራን	-7415
ሰባቸውን	-7416
▁ገም	-7417
▁አለመረጋጋት	-7418
ደላ	-7419
ፈቱ	-7420
ደግፍ	-7421
▁አልጋ	-7422
▁አሊያም	-7423
▁በመስመር	-7424
አቀፍ	-7425
▁ለምክር	-7426
▁ምንጊዜም	-7427
▁ብሄረሰቦችና	-7428
ሜል	-7429
ታቸው፣	-7430
▁በወጣ	-7431
▁ሊደረግ	-7432
▁በነገው	-7433
▁ከግብፅ	-7434
ባቱ	-7435
ቼን	-7436
ነተኛ	-7437
▁ከዚሁ	-7438
▁ጀርመን	-7439
▁ለአገሪቱ	-7440
▁አንዳንዶች	-7441
▁የሚሆነውን	-7442
ለዱ	-7443
▁የአምስት	-7444
▁ይቀጥላል	-7445
ሰሱ	-7446
ብል	-7447
ፈጥ	-7448
▁ልደታ	-7449
▁የመስኖ	-7450
▁በእንዲህ	-7451
▁እንደምታ	-7452
ብርሀን	-7453
▁ኦዲት	-7454
▁ጅፋር	-7455
▁የሶማሌ	-7456
▁በመለየት	-7457
▁በግንባሩ	-7458
▁አገልግሎቱ	-7459
ቨስተ	-7460
▁ሚዛ	-7461
▁መገን	-7462
ዋስ	-7463
ናችን	-7464
▁ለመግታት	-7465
▁በቅርበት	-7466
▁የእምነት	-7467
▁የማህበራዊ	-7468
ዘውም	-7469
▁ውጥረት	-7470
▁ፖሊሶች	-7471
▁በአገራችን	-7472
▁የሚችሉት	-7473
▁ፍሰት	-7474
▁ከጠ	-7475
▁በተሰ	-7476
▁ወጥተው	-7477
▁የሚታወቅ	-7478
▁ይፈልጋሉ	-7479
▁ስምምነቶች	-7480
▁አደርጋለሁ	-7481
▁የኮሮናቫይረስ	-7482
ካሂድ	-7483
ደውን	-7484
▁ዋነኛው	-7485
▁የተሟሉ	-7486
▁ለማስቀጠል	-7487
ኝን	-7488
ጓዳ	-7489
▁መጠጥ	-7490
▁ይላኩ	-7491
▁አድርገ	-7492
▁እምብዛም	-7493
▁ከተደረገ	-7494
▁ከእኔ	-7495
▁የአረ	-7496
▁55	-7497
▁አውጥቶ	-7498
ሌን	-7499
▁ሄደ	-7500
▁በንግ	-7501
▁የእጅ	-7502
▁የተቃውሞ	-7503
ደቢ	-7504
ሺዎች	-7505
▁አሰባ	-7506
▁ከሰማ	-7507
▁ለህዝቡ	-7508
▁የኮንት	-7509
ሪና	-7510
300	-7511
▁ሄኖክ	-7512
▁ታቅዶ	-7513
▁የሊጉ	-7514
ation	-7515
▁በህይወ	-7516
▁ባቀረበው	-7517
▁ቴሌግራም	-7518
ካፈል	-7519
▁የሪ	-7520
▁እናመሰግናለን	-7521
ig	-7522
ላጆ	-7523
ፒታሉ	-7524
ዘርጋት	-7525
▁የመድን	-7526
▁አክለውም	-7527
▁ኤርሚያስ	-7528
ፍታ	-7529
▁ታፈሰ	-7530
▁በመነሳት	-7531
▁በወንጀል	-7532
▁ድርጊቶች	-7533
ደዱ	-7534
▁ካሜ	-7535
▁ጠላ	-7536
▁ባሉበት	-7537
▁ጥንታዊ	-7538
▁ፕሬዚደንት	-7539
▁ይወ	-7540
▁ለመሳተፍ	-7541
▁የሰራተኛ	-7542
▁የተቀላቀ	-7543
▁የንብረት	-7544
▁በማዘጋጀት	-7545
▁እንዲኖራቸው	-7546
36	-7547
id	-7548
▁ፑ	-7549
አቸው	-7550
ጡረታ	-7551
ኩን	-7552
ንጉሱ	-7553
▁አለመቻ	-7554
▁አይቀርም	-7555
▁ክሊ	-7556
▁አፅድ	-7557
▁ትውልደ	-7558
▁ምክንያቱ	-7559
▁እየተባለ	-7560
▁ዜናዎችን	-7561
ች፣	-7562
ዮስ	-7563
ዛቸው	-7564
▁ከዳ	-7565
▁ቆይቶ	-7566
▁ፊልም	-7567
▁ይገመታል	-7568
▁ሁከት	-7569
▁ተጫዋቹ	-7570
▁በማንሳት	-7571
▁የሚታወቀው	-7572
ማርኛ	-7573
▁ሰጠ	-7574
▁ሸቀ	-7575
▁ተከፍ	-7576
ሽና	-7577
▁ቀጣና	-7578
▁የአስ	-7579
▁መቅረብ	-7580
▁የግድቡ	-7581
▁አይገባም	-7582
▁እርምጃዎችን	-7583
▁39	-7584
▁ኔት	-7585
▁መውሰ	-7586
▁ብሩክ	-7587
▁ውጤቱ	-7588
▁ግራም	-7589
ሙኒኬሽን	-7590
▁ወስደው	-7591
▁ህግና	-7592
▁ተስተውሏል	-7593
▁በእርግጠኝነት	-7594
ወትር	-7595
ፈልግም	-7596
▁ከሆኑት	-7597
▁ኮርፖሬ	-7598
▁አረንጓዴ	-7599
▁ባለሙያዎችን	-7600
2006	-7601
2015	-7602
▁አበር	-7603
▁መረጃው	-7604
▁ታላላቅ	-7605
▁የደረሱ	-7606
▁ዝግጅቶች	-7607
▁የኮሚሽኑ	-7608
ሻሽ	-7609
▁የአው	-7610
▁ይጎብኙ፤	-7611
▁ለማጠናቀቅ	-7612
▁የተመለከተ	-7613
▁በእያንዳንዱ	-7614
▁የዩኒቨርሲቲ	-7615
ህጉ	-7616
▁አበረታ	-7617
▁በድሬዳዋ	-7618
ሀራ	-7619
ጡበት	-7620
▁198	-7621
▁እጥፍ	-7622
▁የተፋ	-7623
▁በታሪክ	-7624
ደራደር	-7625
▁ሻምፒ	-7626
▁ውጤቱን	-7627
▁የምክክር	-7628
ምስ	-7629
▁ሁኔታው	-7630
▁ይካሄዳል	-7631
▁ተገናኝተው	-7632
▁የብልፅግና	-7633
▁ከሚመለከታቸው	-7634
ዉን	-7635
ገራዊ	-7636
▁ማእከሉ	-7637
▁የሚጠጉ	-7638
▁ወጣቶችን	-7639
ፁን	-7640
ሳችንን	-7641
ድሀኒት	-7642
▁ስራን	-7643
▁በስብሰባ	-7644
ዘበ	-7645
መበት	-7646
እለት	-7647
▁መኮን	-7648
▁ኢብራ	-7649
▁ራሳቸው	-7650
▁ቅስቀሳ	-7651
▁ከሱዳን	-7652
▁ጠቅሷል	-7653
▁ሚንስትር	-7654
▁በማሀበራዊ	-7655
▁በዘንድሮው	-7656
▁መመለ	-7657
ባለሁ	-7658
ንኦት	-7659
ግበሪያ	-7660
▁ኦባማ	-7661
▁በፅሁፍ	-7662
▁ለዘላለም	-7663
▁ሩብ	-7664
▁ለያህዌ	-7665
▁አይመስ	-7666
▁ይልቁንም	-7667
em	-7668
ia	-7669
ባትና	-7670
ላለፊያ	-7671
▁ለማምረት	-7672
▁ተንቀሳቃሽ	-7673
▁በመጀመርያው	-7674
ድረው	-7675
▁የኔ	-7676
▁በግለ	-7677
▁ወጣቱ	-7678
/2013	-7679
▁ባንክ፣	-7680
▁ጠበቆች	-7681
▁እቃዎችን	-7682
ዙን	-7683
ፍር	-7684
▁ንድ	-7685
▁ከሲ	-7686
▁ፍሰ	-7687
መሰረት	-7688
ፈረንስ	-7689
▁ቅርብ	-7690
▁መጠለያ	-7691
▁ለመመስረት	-7692
ደቀው	-7693
▁ሊቃ	-7694
▁መቁ	-7695
▁ለማዳ	-7696
▁በቀኝ	-7697
▁እንዲያገኝ	-7698
ሪሁን	-7699
▁ውብ	-7700
▁ከወጣ	-7701
▁ተቀላቅ	-7702
ላ፣	-7703
ላለሁ	-7704
መወዝ	-7705
▁ለካ	-7706
▁...	-7707
▁መውጣ	-7708
▁ውሳኔውን	-7709
ስተዋሉ	-7710
▁ሌሊት	-7711
▁ምሁራ	-7712
▁ራስን	-7713
▁የባህ	-7714
▁የጥፋት	-7715
▁እንደነበርም	-7716
▁ሚያ	-7717
▁በመፅሀፍ	-7718
▁አዝማሚያ	-7719
ምኑ	-7720
ቀዱ	-7721
ቋር	-7722
በሻ	-7723
ወያየ	-7724
▁እብ	-7725
▁ከካ	-7726
▁ድርቅ	-7727
▁በዚያን	-7728
▁እንድና	-7729
▁የተሟላ	-7730
▁የማምረት	-7731
ራቶን	-7732
ጂንግ	-7733
ጎልበት	-7734
▁መደረ	-7735
▁በቋሚ	-7736
▁ውጊያ	-7737
▁የራስ	-7738
▁ጴጥሮስ	-7739
▁ሀገራቸው	-7740
▁ለመሰብሰብ	-7741
ቂዎች	-7742
ታወስ	-7743
▁ሲሰጥ	-7744
▁በትናንት	-7745
▁አቀባበል	-7746
▁ለማስፈፀም	-7747
ቀመጠ	-7748
ፈረም	-7749
▁ግዢ	-7750
ገምገም	-7751
▁ድንገተኛ	-7752
▁*	-7753
ገራሚ	-7754
▁ቢጫ	-7755
▁የከፈ	-7756
▁የደም	-7757
▁የተከለ	-7758
▁በተካሄደ	-7759
▁ብሄረሰብ	-7760
▁ተከታዮች	-7761
▁ጠቅሰው፣	-7762
▁ፕሮግራሞች	-7763
▁ተቃው	-7764
▁ትላልቅ	-7765
▁አመሰ	-7766
▁ጉድጓ	-7767
▁አስቆጥሮ	-7768
▁አይሆንም	-7769
ማኒ	-7770
▁አቃ	-7771
▁መጠኑ	-7772
▁ሳያስ	-7773
▁አስከፊ	-7774
ቋቸው	-7775
ተናዊ	-7776
ጅቡቲ	-7777
▁የወረ	-7778
▁ሊያደርግ	-7779
▁አይችሉም	-7780
▁ስምምነቱን	-7781
▁የያዘው	-7782
▁ወቅታዊ፣	-7783
▁ደረጃውን	-7784
▁የመጨረሻው	-7785
▁ጥፋተኛ	-7786
▁ለመቀየር	-7787
▁ክልከላ	-7788
▁የትብብር	-7789
▁መሆናቸውንም	-7790
fanatelev	-7791
ዘና	-7792
▁ወስኗል	-7793
▁አቅርበው	-7794
ዘዋል	-7795
▁ምልክቶች	-7796
▁ተጠቅመው	-7797
ጥም	-7798
ቤትነት	-7799
▁ለመሸ	-7800
▁መቻሉ	-7801
▁ቢባል	-7802
▁ኮማን	-7803
▁ተወዳጅ	-7804
▁ለተጨማሪ	-7805
▁ቀጣይነት	-7806
▁ግብአቶች	-7807
▁የበላይነትን	-7808
መች	-7809
▁ለድር	-7810
▁ስትል	-7811
▁የሰዎች	-7812
▁የእሳት	-7813
▁የወደፊት	-7814
▁ለማስከበር	-7815
▁በማጠናከር	-7816
ችሁት	-7817
▁መንጋ	-7818
▁አርቲ	-7819
▁መምራት	-7820
▁አስተዳደርና	-7821
ደቁ	-7822
ከትና	-7823
▁ዮናስ	-7824
▁ግሩም	-7825
▁ፅሁፎች	-7826
▁በጉባኤው	-7827
▁አስከባሪ	-7828
ጋዴ	-7829
መስረ	-7830
ሰቡት	-7831
▁ተባብ	-7832
▁የግሉ	-7833
▁ያህሉ	-7834
▁የተመሰረተው	-7835
▁ኦፍ	-7836
....	-7837
ግባቸው	-7838
▁ከገባ	-7839
▁ይደር	-7840
▁በህዝቡ	-7841
▁የአለማችን	-7842
▁የእግዚአብሄር	-7843
ሎም	-7844
ቃን	-7845
ኳቸው	-7846
▁በፓ	-7847
▁አንጋ	-7848
▁መቋቋም	-7849
▁ማድረስ	-7850
▁ባለመኖሩ	-7851
ራኒው	-7852
ኒክስ	-7853
ፈፅሙ	-7854
▁ማለዳ	-7855
▁ቢሮው	-7856
ሪያቸውን	-7857
▁ተፋሰስ	-7858
▁በማካሄድ	-7859
▁እንዲያቀርቡ	-7860
ብላ	-7861
ፖርቱ	-7862
ከናውኑ	-7863
▁በላይ፣	-7864
▁አባላቱ	-7865
▁አድራሻ	-7866
▁#	-7867
▁በቴሌ	-7868
▁የእነዚህ	-7869
ቸዋ	-7870
ከነ	-7871
▁ትች	-7872
▁ከተቀ	-7873
▁መቃወሚያ	-7874
▁ፓርላማው	-7875
ፈስ	-7876
ቸዋለሁ	-7877
▁አክርሮ	-7878
▁ዲፕሎማ	-7879
▁የቴሌኮም	-7880
▁በሜ	-7881
▁በደብዳቤ	-7882
▁ቢያስ	-7883
▁ተገን	-7884
ርፖሬሽኑ	-7885
▁የሚደር	-7886
▁ሳይንሳዊ	-7887
▁ተሰጥቷል	-7888
▁ሰፈር	-7889
▁ኪንግ	-7890
▁ቀጥሏል	-7891
▁እመ	-7892
▁ሹመት	-7893
ለንተናዊ	-7894
▁አስኪያጁ	-7895
▁የመጣውን	-7896
ቀሩ	-7897
ቋረጡ	-7898
በዚህ	-7899
▁of	-7900
▁ሶማሌ	-7901
▁በማለት፣	-7902
▁ከትናንት	-7903
34	-7904
ጫሉ	-7905
▁ቬ	-7906
▁ሚስጥ	-7907
▁ፍጆታ	-7908
▁የድሬዳዋ	-7909
un	-7910
us	-7911
▁እኩ	-7912
▁የፈጠራ	-7913
▁የተሳሳተ	-7914
▁ለማግኘት፡	-7915
ልያ	-7916
ወርክ	-7917
ጅምላ	-7918
ጣሚያ	-7919
▁ህንድ	-7920
▁በአመ	-7921
▁ኳስን	-7922
▁ዝርዝ	-7923
▁የተሾ	-7924
ገኝም	-7925
▁ጫፍ	-7926
▁የትራፊክ	-7927
▁ኤክስፖርት	-7928
ፍለ	-7929
ዲንግ	-7930
▁ኮር	-7931
▁ሳንቲ	-7932
▁ቆንጆ	-7933
▁እቅዱ	-7934
▁ለጥቂት	-7935
▁ሴቶችን	-7936
▁በቦታው	-7937
▁መመዘ	-7938
▁ንግግ	-7939
▁እህት	-7940
▁ወደተ	-7941
▁ዳይሬክቶሬት	-7942
አያ	-7943
የእ	-7944
ክንያ	-7945
▁ሲመጣ	-7946
▁ከሆነው	-7947
▁አገልጋዮች	-7948
ሪፍ	-7949
▁ወርቁ	-7950
▁ፈቃደ	-7951
▁አክሏል	-7952
▁የሚረዳ	-7953
▁ለመጀመርያ	-7954
▁አያይዘውም	-7955
▁አስተያየቶች	-7956
▁ባስተ	-7957
▁ይወዳ	-7958
▁የተሰጣቸው	-7959
ተስ	-7960
▁ቀና	-7961
▁ኛው	-7962
▁የተረ	-7963
▁በአስር	-7964
▁አድራጎት	-7965
ሳይያስ	-7966
ኢድ	-7967
ተርስ	-7968
▁ኮም	-7969
▁መኖሩ	-7970
▁ከነበሩ	-7971
▁ጉልበት	-7972
▁አመስ	-7973
▁ለሀገር	-7974
▁በተባለ	-7975
▁ሳይጠብቁ	-7976
32	-7977
▁ሀውል	-7978
▁አይቻልም	-7979
▁ዌ	-7980
ነርሱ	-7981
ዷቸው	-7982
▁48	-7983
▁ቦር	-7984
▁ተወልደ	-7985
▁በመንገድ	-7986
▁ያስተናገ	-7987
ለፉ	-7988
ከፈት	-7989
▁ተም	-7990
▁ወደዚህ	-7991
▁ከጨዋታው	-7992
▁ድርጅቶችን	-7993
▁ድንጋጌዎች	-7994
ወጡት	-7995
▁መቀየር	-7996
▁ሰንጠረ	-7997
▁ለመወጣት	-7998
▁አዎንታዊ	-7999
▁ማስፈፀሚያ	-8000
▁እንዳስታወቀው	-8001
ጭቱ	-8002
▁ነግ	-8003
▁በመሰ	-8004
▁ቱርክ	-8005
▁አርብቶ	-8006
▁ጌታሁን	-8007
▁በጥልቀት	-8008
▁እንዲፈቱ	-8009
▁ህብረተሰብ	-8010
▁ጠብቆ	-8011
▁መምሪያ	-8012
▁የሚሰማ	-8013
▁ለማሟላት	-8014
▁ይመልከቱ	-8015
▁ጉባኤውን	-8016
ደሙ	-8017
ህዴድ	-8018
▁ልጁ	-8019
▁አብረ	-8020
ለታ	-8021
ስካ	-8022
ኖም	-8023
▁ቀኝ	-8024
▁ቢል	-8025
▁መጥቷል	-8026
▁ኦዲተር	-8027
▁ደሞ	-8028
ላቸው፣	-8029
ስተናግድ	-8030
ታቸውንና	-8031
▁መስማማ	-8032
▁መፈናቀ	-8033
▁ባለፈም	-8034
▁ያነሱት	-8035
▁የምንችለው	-8036
▁ለማስተካከል	-8037
▁አንዳርጋቸው	-8038
ሪያል	-8039
▁ህዝበ	-8040
▁አያው	-8041
▁ውክልና	-8042
▁እፈልጋለሁ	-8043
ቅለ	-8044
111	-8045
በላሸ	-8046
▁በመላክ	-8047
▁የሚጠቁ	-8048
▁ቦታዎችን	-8049
▁አስገዳጅ	-8050
▁አድርገን	-8051
▁ጥያቄውን	-8052
▁በቴክኖሎጂ	-8053
▁እንዲቀርብ	-8054
▁ገፆች	-8055
▁መታየት	-8056
▁የሚመረ	-8057
▁ተቋማትና	-8058
ዘሩ	-8059
ከሪያ	-8060
ጅነት	-8061
▁ሩጫ	-8062
▁ግኝ	-8063
▁ደራሲ	-8064
▁ስትሆን	-8065
▁መስጠቱን	-8066
▁መብታቸው	-8067
▁መንገዶችን	-8068
ፍስ	-8069
ምቀት	-8070
ሾፍቱ	-8071
ንተን	-8072
▁ያነ	-8073
▁ትግበራ	-8074
ፊቱ	-8075
▁ጎብኝ	-8076
ስተናገዱ	-8077
▁በሂሳብ	-8078
▁አልፏል	-8079
▁የማግኘት	-8080
▁የሚያደርገውን	-8081
ታቱ	-8082
ባችሁ	-8083
ገቡን	-8084
▁መመርያው	-8085
▁ይጠይቃል	-8086
38	-8087
ላለን	-8088
▁ታክሲ	-8089
▁እኔን	-8090
▁ጀማል	-8091
▁አደጋዎች	-8092
ለምዶ	-8093
ሸነፉ	-8094
ገባደ	-8095
ላቸውና	-8096
ዘዋወር	-8097
▁የተቋ	-8098
▁አጠቃቀ	-8099
▁የታየው	-8100
▁ውይይቶች	-8101
የስ	-8102
▁በአዋጅ	-8103
▁አስተዳደራዊ	-8104
▁እንደማይቻል	-8105
2)	-8106
የሚ	-8107
▁ለውጡ	-8108
▁የልኡ	-8109
▁የሚያሰ	-8110
▁ቀበሌዎች	-8111
▁ክፍተቶች	-8112
ሯን	-8113
ባች	-8114
▁ይፋዊ	-8115
▁በመስጠ	-8116
▁በመቶ፣	-8117
▁አሸንፎ	-8118
ንሽ	-8119
ጓደ	-8120
▁ቀጣዩ	-8121
▁የገቡት	-8122
▁ከእረፍት	-8123
▁የቢዝነስ	-8124
ከስ	-8125
▁ምላ	-8126
▁በሸ	-8127
▁ውሎ	-8128
▁ገጥ	-8129
ገነዘቡ	-8130
▁አባተ	-8131
▁እገዳ	-8132
▁በዘመናዊ	-8133
▁የህፃናት	-8134
▁በተቃራኒው	-8135
▁እናደርጋለን	-8136
▁መወሰኑ	-8137
▁ውድመት	-8138
▁ሀይማኖታዊ	-8139
▁ኮርፖሬትን	-8140
ur	-8141
ዞን	-8142
ስቱም	-8143
▁ሰለባ	-8144
▁ቤቱም	-8145
▁የክለ	-8146
▁ምርጫውን	-8147
▁በነበራቸው	-8148
▁አግኝተዋል	-8149
ደጉ	-8150
▁፳	-8151
▁በቀስ	-8152
▁ጊዜ፣	-8153
▁የተጠበቀ	-8154
▁በበኩላቸው፤	-8155
ረጠ	-8156
ንድር	-8157
▁ለኤ	-8158
▁ማበረታቻ	-8159
▁ወሬ	-8160
▁የስልክ	-8161
ዝቃ	-8162
ቆጠብ	-8163
▁ወደኋላ	-8164
ደረገባቸው	-8165
▁ህንፃዎች	-8166
▁ማስገባት	-8167
▁በትናንትናው	-8168
አሉ	-8169
ረርሽኙ	-8170
ንግዲህ	-8171
▁ተገኝቶ	-8172
▁በስልክዎ	-8173
ኩበት	-8174
▁መሰና	-8175
▁እንዳት	-8176
▁የታየበት	-8177
▁ያስታወቀው	-8178
ለመደ	-8179
ምራል	-8180
ኖሩን	-8181
▁የአቃቤ	-8182
▁ያደረግ	-8183
▁ግሽበት	-8184
▁ፌዴራል	-8185
▁በዩናይትድ	-8186
ሀም	-8187
እድ	-8188
▁ማቴዎስ	-8189
▁አንድን	-8190
▁ወልቂጤ	-8191
▁መስመሮች	-8192
ሙያ	-8193
ቦራቶ	-8194
▁መጠናቀቅ	-8195
▁አስመዝግ	-8196
▁የፋብሪካ	-8197
▁በሚካሄደው	-8198
ደቡ	-8199
ደግፉ	-8200
▁ተዋጊ	-8201
▁በሚባል	-8202
▁በነበረ	-8203
▁ደንበኛ	-8204
▁የሚጠበቀው	-8205
ራስ	-8206
▁ሲስተ	-8207
▁መረጃና	-8208
▁ማጥፋት	-8209
▁የምድር	-8210
▁ገዛኸኝ	-8211
ማቾች	-8212
ዎቹም	-8213
ጋጣሚ	-8214
▁ለሽ	-8215
ገልፀው	-8216
▁መርሆ	-8217
ሉ፤	-8218
ታኔ	-8219
ባቸው፣	-8220
▁በጥቂት	-8221
▁አካላዊ	-8222
ኮራ	-8223
ያንም	-8224
▁ግዜ	-8225
ሮቻቸው	-8226
▁ሀይቅ	-8227
▁ይሄን	-8228
▁ፍተሻ	-8229
▁መግዛት	-8230
▁ማርቆስ	-8231
▁አባቶች	-8232
▁የሚመስ	-8233
▁የእድሜ	-8234
ሳዩ	-8235
ጫወተ	-8236
ፈቅድ	-8237
▁OK	-8238
መቻቸት	-8239
▁ለእኛ	-8240
▁ተቋማቱ	-8241
▁ዘመናት	-8242
▁እንዲውል	-8243
▁የእንስሳት	-8244
77	-8245
ነቀ	-8246
ከመ	-8247
ሰሩት	-8248
ሻውን	-8249
▁ሙዚ	-8250
▁እልባት	-8251
▁የኤሌክትሮ	-8252
በረከተ	-8253
▁እወዳ	-8254
▁በመቶው	-8255
▁የቆዩት	-8256
▁ግድቡን	-8257
▁ዲሲ	-8258
▁መላክ	-8259
▁መሰጠ	-8260
▁ይቀር	-8261
▁ከክለቡ	-8262
▁የተሰበ	-8263
▁አስቆጥሯል	-8264
ወጫ	-8265
ዋና	-8266
▁ከህግ	-8267
▁ከስልጣን	-8268
▁መናገራቸውን	-8269
ካሚ	-8270
ድስ	-8271
ሸንፍ	-8272
ክሳይ	-8273
▁ለቅ	-8274
ቋቋመው	-8275
▁ፅዮን	-8276
▁በርከት	-8277
▁ኦርቶዶክስ	-8278
▁እንዲደርስዎ	-8279
▁የባለስልጣኑ	-8280
▁54	-8281
▁ሳት	-8282
ሙያዎች	-8283
▁ሆይ፣	-8284
▁8111	-8285
▁ለዘመናት	-8286
▁የተቀመጡ	-8287
▁የአእምሮ	-8288
ዘም	-8289
▁ሀዘን	-8290
▁በወጣው	-8291
▁በውድድሩ	-8292
▁እንደሚሆኑ	-8293
ጭቶ	-8294
▁ሲገቡ	-8295
▁መጠነኛ	-8296
▁የዜጎችን	-8297
▁አውሮፕላኖች	-8298
▁እንዲያቀርብ	-8299
ችና	-8300
ፈፃፀ	-8301
▁ተዛ	-8302
▁ያዳ	-8303
▁ለሰው	-8304
▁ቅርስ	-8305
▁ያስታወቁት	-8306
▁ቤተክርስቲያን	-8307
▁ኡማ	-8308
▁የቪ	-8309
▁ለቤተ	-8310
▁ወይንም	-8311
▁መታወቂያ	-8312
ለችው	-8313
▁ሚስ	-8314
መልከቻ	-8315
▁አውደ	-8316
▁የዘርፉ	-8317
▁ስርአቶች	-8318
▁በተፈጠረ	-8319
▁ይኖርብናል	-8320
ላይት	-8321
▁ቴክኒ	-8322
▁ትርኢት	-8323
ፋሪ	-8324
▁በሮ	-8325
▁150	-8326
▁አቡነ	-8327
▁ውህደት	-8328
▁የቱርክ	-8329
▁ተቀብለው	-8330
▁ምክንያታዊ	-8331
um	-8332
ሷቸው	-8333
▁ታች	-8334
▁የር	-8335
▁ትርጉ	-8336
▁የኳስ	-8337
▁ለረዥም	-8338
▁ብቸኛው	-8339
▁የመጡት	-8340
▁አማራጮችን	-8341
ag	-8342
ሰሳ	-8343
ያውያን	-8344
▁የአዳማ	-8345
ay	-8346
ቸር	-8347
አድ	-8348
ዝን	-8349
▁2018	-8350
▁ሲገልፁ	-8351
▁ዜግነት	-8352
▁ዳኝነት	-8353
▁ማስወገድ	-8354
▁ቁሳቁሶች	-8355
▁አሸንፏል	-8356
ብሩ	-8357
▁በወር	-8358
▁የበረራ	-8359
▁ተነስተው	-8360
▁በዶ	-8361
▁ወሎ	-8362
▁ንረት	-8363
▁ሽፈራው	-8364
▁የሰጠውን	-8365
ዝናብ	-8366
▁ሄዶ	-8367
▁ቆዳ	-8368
▁ኢዜአ	-8369
▁ከፌዴራል	-8370
▁የእድገት	-8371
ልቆ	-8372
▁ብቅ	-8373
ስፈላጊ	-8374
▁አናት	-8375
▁ግብዣ	-8376
▁መስኖና	-8377
▁ሶማሊያ	-8378
▁አስገብ	-8379
▁በማሳየት	-8380
▁ይመስለኛል	-8381
ሸጡ	-8382
ጊዮርጊ	-8383
▁ሙላቱ	-8384
▁ፍራፍሬ	-8385
▁በመገኘት	-8386
▁የሚያስፈልጉ	-8387
▁ባላ	-8388
▁ጠላት	-8389
▁ከፈለጉ	-8390
▁እያከናወነ	-8391
ጓጓዝ	-8392
▁ለመሄድ	-8393
▁አዳነች	-8394
▁በመደበኛ	-8395
▁በተናጠል	-8396
▁ፈተናዎች	-8397
ኩሪ	-8398
ባትን	-8399
ምምነቱ	-8400
▁የሙከራ	-8401
▁የሆነችው	-8402
ማቅ	-8403
ባለን	-8404
ጅተው	-8405
▁ሲተ	-8406
▁ደረቅ	-8407
55	-8408
ቋም	-8409
▁ሀዋ	-8410
▁ምሽ	-8411
▁ከኦ	-8412
▁ይዛ	-8413
▁አቀፋዊ	-8414
▁በመቀየር	-8415
▁ንክ	-8416
ልስፍና	-8417
▁በግማሽ	-8418
▁ባሻገር፣	-8419
▁የተፈፀመው	-8420
▁አስፈላጊነት	-8421
ፕሮ	-8422
▁አፀ	-8423
▁ጣፋ	-8424
▁አርማ	-8425
▁ስራቸው	-8426
▁በተቻለ	-8427
▁መተግበር	-8428
▁በሶማሊያ	-8429
▁ተነሳሽነት	-8430
ሌክ	-8431
ንጎ	-8432
▁አሮ	-8433
▁ሄደው	-8434
▁የሚበ	-8435
ፈለገውን	-8436
▁በመሀል	-8437
▁ባለሜዳ	-8438
▁ባለቤቶች	-8439
ልፉ	-8440
ሳቱ	-8441
ባበቅ	-8442
▁ማት	-8443
▁ኤን	-8444
▁ዋቢ	-8445
▁መከሰ	-8446
▁በስልጣን	-8447
▁ከመስመር	-8448
▁የሲሚንቶ	-8449
ገላ	-8450
ለባቸው	-8451
▁ይኖሩ	-8452
ጭበርበር	-8453
▁በፓርላማ	-8454
▁ያስረዱት	-8455
67	-8456
ችኋለሁ	-8457
▁ንጉሴ	-8458
▁የመካ	-8459
▁የቅር	-8460
▁ማእቀብ	-8461
▁በሱ	-8462
▁አንዴ	-8463
▁ወዳጅ	-8464
▁በሙስና	-8465
▁ውይይቱ	-8466
▁ስለዚህም	-8467
ሊዝም	-8468
▁በደስታ	-8469
▁ተዋህዶ	-8470
▁መገኘቱን	-8471
▁ተቀምጧል	-8472
▁ሀላፊነታቸውን	-8473
ማመጥ	-8474
ገኙም	-8475
▁ሰማይ	-8476
▁አቅሙ	-8477
▁መፅሄት	-8478
▁ማሳሰቢያ	-8479
▁በውይይት	-8480
▁የሁለትዮሽ	-8481
አአ	-8482
▁ለየት	-8483
▁በአቅ	-8484
▁አጋጥ	-8485
▁ኮምፒ	-8486
▁ያቀረ	-8487
▁መሰረትም	-8488
▁በቅድሚያ	-8489
ወሀ	-8490
በከር	-8491
▁ከፋዮች	-8492
▁ማስፋፊያ	-8493
▁የኢየሱስ	-8494
▁ጳጳ	-8495
▁ሀረር	-8496
▁የተነ	-8497
▁በእሳት	-8498
▁በፓርቲ	-8499
▁ቤቶች፣	-8500
▁ከመጀመሪያው	-8501
▁እንደተናገሩት፤	-8502
ቀቁ	-8503
ገግ	-8504
ሸናፊ	-8505
በልጡ	-8506
በርግ	-8507
▁ቀው	-8508
▁ለወደ	-8509
▁ከብዙ	-8510
▁የልዩ	-8511
▁በታላቁ	-8512
▁የአመቱ	-8513
▁ገለፃ፣	-8514
▁አቪዬሽን	-8515
▁ተወያይተዋል	-8516
▁ባለአክሲዮኖች	-8517
▁ፆ	-8518
ግዚቢ	-8519
▁ሪል	-8520
ነጋገሩ	-8521
▁በመው	-8522
▁እህል	-8523
▁መዛሙር	-8524
▁አክብሮ	-8525
▁በነበሩት	-8526
▁ጀምረዋል	-8527
መታ	-8528
ጅቶ	-8529
ግሳ	-8530
ደገፈ	-8531
▁ይቆ	-8532
▁ገዱ	-8533
▁ለመን	-8534
▁በአራ	-8535
▁ይፈል	-8536
▁የወቅቱ	-8537
▁አባልነት	-8538
▁ኢንቨስተ	-8539
ጎም	-8540
ዳረጉ	-8541
▁የተን	-8542
▁ክለቡን	-8543
▁ዘሪሁን	-8544
▁ይመጣል	-8545
▁ግዛቶች	-8546
▁አቀራረብ	-8547
ራራ	-8548
ሞከር	-8549
ህይወት	-8550
▁ለሶከር	-8551
▁መተማመን	-8552
▁የሚያሳዩ	-8553
አስ	-8554
ፍ፣	-8555
የፋና	-8556
▁ለሆኑ	-8557
▁ተኮር	-8558
▁ለንግድ	-8559
▁ማሰባሰብ	-8560
▁በሪፖርቱ	-8561
▁ኢሳይያስ	-8562
▁ሁለንተናዊ	-8563
▁የሚገልፁት	-8564
ሜት	-8565
▁ማሻሻል	-8566
▁እነዚያ	-8567
▁የስልጠና	-8568
▁የአውሮፕላን	-8569
▁1,	-8570
▁እጃ	-8571
▁አሻራ	-8572
▁ህዝብና	-8573
▁እንደቀ	-8574
▁የጭነት	-8575
▁ቀርተዋል	-8576
▁ለማዘጋጀት	-8577
▁ቺ	-8578
ጠቃሚ	-8579
▁ሙሌት	-8580
▁ቅብብ	-8581
▁ሀሳቡን	-8582
▁ሲጀምር	-8583
▁የፈጠረ	-8584
▁ተሰምቷል	-8585
ለፈ	-8586
ኦል	-8587
ድጉ	-8588
ሞክር	-8589
ዘዋዋሪ	-8590
▁ተሸን	-8591
▁እጦት	-8592
▁ደህና	-8593
▁ተገድ	-8594
▁ያለማ	-8595
▁በተፈጥሮ	-8596
▁እባክዎን	-8597
▁እነዚህም	-8598
ሻሻለ	-8599
ፖሊስ	-8600
▁ለቦ	-8601
▁2006	-8602
▁መወጣት	-8603
▁ሳይቀር	-8604
▁ተመራጭ	-8605
▁ከአሁን	-8606
▁እንግዶች	-8607
▁ሚኒስቴር፣	-8608
▁እንዲከበር	-8609
ተኮር	-8610
ያውቅ	-8611
▁ሙያዊ	-8612
▁ኳሶችን	-8613
ሊም	-8614
ሀድሶ	-8615
ስተን	-8616
ቲንግ	-8617
ፓርት	-8618
▁ተጣ	-8619
▁ሳይሆኑ	-8620
▁ከርቀት	-8621
▁ከተጀመረ	-8622
ላና	-8623
ተገበር	-8624
▁በአር	-8625
▁ተከስቶ	-8626
▁ድርድሩ	-8627
▁ሳህለወርቅ	-8628
▁ባለቤትነት	-8629
▁አውስተዋል	-8630
ዩተር	-8631
▁አላት	-8632
▁የሀይ	-8633
▁የሞት	-8634
▁የምስክር	-8635
ደቱ	-8636
▁ዚ	-8637
ከሰተ	-8638
ዳማዊ	-8639
ጫቸው	-8640
▁42	-8641
▁መቆጣጠ	-8642
▁በላከው	-8643
▁በሴቶች	-8644
▁ምንድነው	-8645
▁ይፈጥራል	-8646
▁ማነ	-8647
▁በሬ	-8648
▁ትሪ	-8649
▁የኖ	-8650
▁ልጆቹ	-8651
▁ጀመሩ	-8652
▁በህጋዊ	-8653
▁የተሻሉ	-8654
▁ግንባታዎች	-8655
▁46	-8656
▁ከታች	-8657
▁የቆዳ	-8658
▁በመገኘ	-8659
▁የሚወጡ	-8660
▁የተመለከቱ	-8661
ሰራጨት	-8662
▁ፀሎት	-8663
ፌዴሬሽኑ	-8664
▁ንብረቶች	-8665
▁እንዲቀርቡ	-8666
▁የተገኘውን	-8667
ዙት	-8668
ጀርባ	-8669
▁አያሌው	-8670
▁እንፈልጋ	-8671
▁የሚፈጥር	-8672
▁አረጋግጧል	-8673
▁ኮንፈረንስ	-8674
ኒልክ	-8675
▁ተደም	-8676
▁ግብሩ	-8677
▁ቤቶችና	-8678
▁የሚጠይ	-8679
__	-8680
ዛኝ	-8681
▁ቆሮ	-8682
▁ይወጣ	-8683
▁በመምጣቱ	-8684
▁እንዲሰጣቸው	-8685
ረና	-8686
▁እችላለ	-8687
▁በተለምዶ	-8688
▁ከፌስቡክ	-8689
ሲን	-8690
ast	-8691
ሰጡት	-8692
▁(4	-8693
▁ቆር	-8694
▁መሸፈ	-8695
▁ማነስ	-8696
▁ሳኡዲ	-8697
▁ለመቋቋም	-8698
▁የቀረቡት	-8699
ኤአ	-8700
ጴዛ	-8701
ሏቸውን	-8702
▁የሚያጋጥ	-8703
▁እንዳይሆን	-8704
▁መጠበ	-8705
▁ከኢን	-8706
▁መገኘት	-8707
▁በውስጡ	-8708
▁የሰላምና	-8709
▁አቅጣጫዎች	-8710
ቆራ	-8711
ንደቅ	-8712
▁የቡድ	-8713
▁አስጠን	-8714
▁በመልካም	-8715
▁አስገራሚ	-8716
ዮርክ	-8717
▁በስቲያ	-8718
ብረታ	-8719
▁አድን	-8720
▁አጠራ	-8721
▁በእነሱ	-8722
▁በኮቪድ	-8723
▁ብላለች	-8724
▁ለአሜሪካ	-8725
▁ተመልሰው	-8726
▁የሚቻለው	-8727
▁ድርጊቱን	-8728
▁ሚዛን	-8729
▁ሞክሮ	-8730
▁ተጀም	-8731
▁ማሟላት	-8732
▁በመልሶ	-8733
▁በረቂቅ	-8734
▁ባደረገ	-8735
▁ነባራዊ	-8736
▁እውነታ	-8737
▁የመጠቀም	-8738
▁የግንዛቤ	-8739
▁መጠናቀቁን	-8740
▁በሀገራችን	-8741
▁ኢንፎርሜሽን	-8742
ጋጭ	-8743
ረምፕ	-8744
▁ብቻም	-8745
ንቀሳቀሰ	-8746
▁የፍቅር	-8747
ዝሀ	-8748
ካከል	-8749
ዜሽን	-8750
▁47	-8751
▁እሴ	-8752
▁ተጋጣሚ	-8753
▁የአረብ	-8754
▁ጥናትና	-8755
▁በመጀመርያ	-8756
▁ሊሰራ	-8757
▁በሰማ	-8758
▁ለአምላክ	-8759
▁ለማስቆጠር	-8760
ዳይ	-8761
ዳችን	-8762
▁ለደን	-8763
▁ስለሺ	-8764
▁በማው	-8765
▁ዘርፈ	-8766
▁ማግስት	-8767
▁ተቋማዊ	-8768
ec	-8769
ጓሜ	-8770
ፋፍ	-8771
ወይም	-8772
▁ጋራ	-8773
2017	-8774
ላላችሁ	-8775
▁ልደቱ	-8776
▁ካምፕ	-8777
▁ድርጊቱ	-8778
▁በመቀበል	-8779
▁ኢብራሂም	-8780
▁ኮንትራት	-8781
▁አጀንዳዎች	-8782
▁ባለመቻላቸው	-8783
▁የተከሰተውን	-8784
ጅጋ	-8785
▁ባር	-8786
2018	-8787
ከላከሉ	-8788
▁ህጉን	-8789
▁ማስተር	-8790
▁ተደርገው	-8791
▁የሚገመት	-8792
▁ስብሰባዎች	-8793
▁አመላክተዋል	-8794
ገዘ	-8795
ባባቂ	-8796
▁መመዘኛ	-8797
▁ለመክፈል	-8798
▁በመከላከል	-8799
▁አስፈላጊው	-8800
▁የአሜሪካን	-8801
▁ግንባታውን	-8802
2005	-8803
ታወቅም	-8804
▁መካሄድ	-8805
▁እጩዎች	-8806
▁ሁኔታውን	-8807
▁መምህራን	-8808
▁ሲጠናቀቅ	-8809
▁በወቅታዊ	-8810
▁የፀጥታው	-8811
ቀና	-8812
ስትራሊያ	-8813
▁አስራት	-8814
▁የጨረታ	-8815
▁ጥርጣሬ	-8816
▁በመነጋገር	-8817
▁በጨ	-8818
▁ብታ	-8819
▁በአባይ	-8820
▁ባንክና	-8821
▁የታወቀ	-8822
▁አካሂዷል	-8823
▁ከንቲባው	-8824
39	-8825
ጤት	-8826
ምናው	-8827
▁ተጉ	-8828
▁ዘፍ	-8829
▁አውታ	-8830
▁ግድም	-8831
▁በገበያ	-8832
▁የቻሉት	-8833
▁በሚቀጥሉት	-8834
▁የመሳሰሉት	-8835
400	-8836
ከባከብ	-8837
▁መልቀ	-8838
▁ባለን	-8839
▁የጃፓን	-8840
▁ያላግባብ	-8841
▁መተግበሪያ	-8842
ገጃ	-8843
ችግሩ	-8844
ክፈቻ	-8845
ጋለጡ	-8846
▁በፋይናንስ	-8847
ቅዷል	-8848
ቡባዊ	-8849
ነትም	-8850
ግብር	-8851
ታቸውና	-8852
▁ይጀምራል	-8853
▁የተረጋገጠ	-8854
ዳሚው	-8855
▁በጥር	-8856
▁ሚያዚያ	-8857
▁በመቅረ	-8858
▁በምርጫው	-8859
▁በማስቆጠር	-8860
▁መስዋእትነት	-8861
▁የኢንተርኔት	-8862
ቀጣ	-8863
ገኛለን	-8864
ፈረንጆቹ	-8865
▁በጋምቤላ	-8866
▁አመሰግና	-8867
▁እርሳቸው	-8868
▁አለመኖሩን	-8869
ናውያን	-8870
▁የተመለ	-8871
▁የተሳካ	-8872
▁በህክምና	-8873
▁በጠቅላላው	-8874
ሪቃ	-8875
ነጋገ	-8876
ውንዴ	-8877
▁2017	-8878
▁ብዙዎቹ	-8879
▁አይሁዳ	-8880
▁ወጥቷል	-8881
▁ፀድ	-8882
ቀው፣	-8883
▁ልና	-8884
ቀበለው	-8885
ጠቃለያ	-8886
▁ያሳየ	-8887
▁ተፈራር	-8888
▁አድርጌ	-8889
▁የሚተዳ	-8890
▁የኦነግ	-8891
▁በማምረት	-8892
▁እችላለሁ	-8893
ዞር	-8894
ራዊቱ	-8895
ክሲኮ	-8896
▁ናሙና	-8897
▁አደረጉ	-8898
▁ስብሰባው	-8899
▁እንዲነሳ	-8900
▁አቅራቢዎች	-8901
ጣጣ	-8902
መረጥ	-8903
▁ሁለ	-8904
መንጨት	-8905
▁አይታ	-8906
▁በጊዜያዊ	-8907
▁ውጤቶችን	-8908
ብዙ	-8909
ሀለሁ	-8910
▁በማያ	-8911
▁ፈላጊ	-8912
▁ከህዝቡ	-8913
▁የሚውሉ	-8914
▁በህወሀት	-8915
▁በምርመራ	-8916
▁የተቋቋመ	-8917
ገኛለች	-8918
▁ቀረጥ	-8919
ቀረበላቸው	-8920
▁ለከፍተኛ	-8921
▁ማሰልጠኛ	-8922
▁አገሮችን	-8923
▁ከኦሮሚያ	-8924
▁የፕሮጀክት	-8925
▁በዚያም	-8926
▁ተገንዝ	-8927
▁እንደሌላቸው	-8928
ላቻ	-8929
ረሙ	-8930
ካፈ	-8931
por	-8932
▁ሚል	-8933
▁የሺ	-8934
▁አንበሳ	-8935
▁የመልሶ	-8936
▁ጥረቶች	-8937
▁ጥያቄው	-8938
▁በስፍራው	-8939
▁ምክንያት፣	-8940
▁አተ	-8941
▁መልካ	-8942
▁ለመግለፅ	-8943
▁ውድድሩን	-8944
66	-8945
ቆቹ	-8946
ጓጉ	-8947
ርሱም	-8948
▁መጓ	-8949
▁ቻር	-8950
▁2-0	-8951
▁ሊሰጥ	-8952
▁አዋሽ	-8953
▁የደረጃ	-8954
▁እንደሚገባው	-8955
47	-8956
ሹን	-8957
▁በዱ	-8958
▁ዩሮ	-8959
▁መዘግ	-8960
▁የህንፃ	-8961
fanatelevis	-8962
ጀው	-8963
ጠባቂ	-8964
▁ኤፍ	-8965
▁ሰበታ	-8966
▁ንክኪ	-8967
▁ክንድ	-8968
▁ይደረግ	-8969
▁ያለባቸውን	-8970
▁ያደረገውን	-8971
▁መዲና	-8972
▁በአው	-8973
▁ያስቀም	-8974
▁እንዲቆዩ	-8975
▁ከፖለቲካ	-8976
ታወቁት	-8977
ዎችን፣	-8978
ዳደሪያ	-8979
▁የያህዌን	-8980
▁ሀብረተሰብ	-8981
▁ረዳ	-8982
▁ሆነን	-8983
▁ልምም	-8984
▁በእነ	-8985
▁ተረክ	-8986
▁አገና	-8987
▁አግኝተው	-8988
▁ከእናንተ	-8989
ቶን	-8990
ቶታል	-8991
ፕሊን	-8992
▁600	-8993
▁ከሁሉ	-8994
▁ከቀረ	-8995
▁85	-8996
▁ሞዴል	-8997
▁አምላካ	-8998
iv	-8999
ለትም	-9000
ድሮክ	-9001
▁ቀጥታ	-9002
▁ቤትን	-9003
▁የመታ	-9004
▁እየሰጠ	-9005
▁ወንድሞ	-9006
▁ከአውሮፓ	-9007
▁የሚያስከት	-9008
▁የሚያደርጉትን	-9009
▁የሊግ	-9010
▁የገጠር	-9011
▁የሚገባውን	-9012
ለሙ	-9013
the	-9014
▁ሁሌም	-9015
▁በትእ	-9016
▁አሰም	-9017
▁እኤአ	-9018
▁የቀጠ	-9019
ፈልገውን	-9020
▁በምሳሌ	-9021
▁ተወስኗል	-9022
▁ንቁ	-9023
2000	-9024
▁ይዘን	-9025
▁አምስተኛ	-9026
▁እንደሚታ	-9027
▁ከትግራይ	-9028
▁እድሜያቸው	-9029
▁የደረሰውን	-9030
▁የተጀመረውን	-9031
ቅያ	-9032
ፈጣን	-9033
▁2.	-9034
▁ነህ	-9035
▁በሌሎችም	-9036
▁ይፈልጋል	-9037
68	-9038
ነቷ	-9039
ሸመኔ	-9040
▁ጥራ	-9041
▁ቤቶቹ	-9042
▁ማሳካት	-9043
▁ሳምሶን	-9044
▁በአሉን	-9045
▁ከሀገር	-9046
▁አመራሮችና	-9047
ከፈለ	-9048
ጠቢያ	-9049
▁ሰኢድ	-9050
▁ከምር	-9051
▁በክለቡ	-9052
▁በፖሊስ	-9053
▁ከሚያስ	-9054
▁ተረጋግጧል	-9055
▁የሚሰጠውን	-9056
ያተ	-9057
out	-9058
ረምቱ	-9059
ስተላል	-9060
▁አመቺ	-9061
▁አክሊ	-9062
▁የሚቆይ	-9063
▁በስር	-9064
▁ትንታኔ	-9065
▁ወንበር	-9066
▁በመገናኛ	-9067
▁የሚያስፈልገውን	-9068
ህዴን	-9069
ማማት	-9070
▁አጎ	-9071
▁ከቤ	-9072
ከባበር	-9073
▁መአዛ	-9074
▁የኦዲት	-9075
▁የሚቆጠር	-9076
▁የተቃዋሚ	-9077
▁በማስመልከት	-9078
ራ፣	-9079
▁ስልት	-9080
▁ሊደርስ	-9081
▁አገዛዝ	-9082
▁የወይን	-9083
oo	-9084
የትና	-9085
ጎብኘት	-9086
▁በተጨ	-9087
▁አባላትና	-9088
▁የበኩሉን	-9089
▁የተደራጀ	-9090
▁ኩባንያዎችን	-9091
▁ማዋ	-9092
▁የጭ	-9093
▁ሰራሽ	-9094
በረታታት	-9095
▁መርምሮ	-9096
▁የመጠጥ	-9097
ሊድ	-9098
▁ለን	-9099
▁ተጭ	-9100
▁ከማሳ	-9101
▁የመረ	-9102
▁በእኩል	-9103
▁ባንክን	-9104
▁የጠቆመው	-9105
▁በሚፈለገው	-9106
▁ፖለቲከኞች	-9107
▁የአመ	-9108
▁አጥቂው	-9109
▁ይታመናል	-9110
▁አገልግሎትን	-9111
ፌል	-9112
ንቀፅ	-9113
▁ያረ	-9114
▁ዙርያ	-9115
▁የበለ	-9116
▁የግዥ	-9117
▁የሚጠቅ	-9118
▁በቀረበው	-9119
▁በተገናኘ	-9120
▁ሁኔታን	-9121
▁ከኮሮና	-9122
▁ተገኝቷል	-9123
▁ናይጄሪያ	-9124
ል፤	-9125
ቦር	-9126
ሀብት	-9127
▁ተባ	-9128
▁ገፁ	-9129
▁መገልገ	-9130
▁የሽያጭ	-9131
▁የመድሀኒት	-9132
ልህ	-9133
ጥኑ	-9134
ቦራቶሪ	-9135
▁አነሳ	-9136
▁ከአቶ	-9137
▁መያዙን	-9138
▁በቅዱስ	-9139
ርቻ	-9140
ረከቡ	-9141
▁በፈቃ	-9142
▁ወለጋ	-9143
▁ፅንፈ	-9144
▁2016	-9145
▁ሰርቪስ	-9146
▁ከግማሽ	-9147
▁የተቀበ	-9148
▁ተቋራጮች	-9149
▁ከፍተኛውን	-9150
ስትሪ	-9151
▁መሰራ	-9152
▁ሲሰጡ	-9153
▁ሸለቆ	-9154
▁በማህ	-9155
▁በሰራ	-9156
▁ተሰል	-9157
▁አበባው	-9158
▁ያገኛሉ	-9159
▁ማስተላለፍ	-9160
▁እንዲሳተፉ	-9161
▁የሚያስችለውን	-9162
ኮን	-9163
▁ድሪ	-9164
▁ጢሞ	-9165
▁ላለመ	-9166
▁በፍቅር	-9167
▁እያካሄደ	-9168
▁የጀርመን	-9169
▁የጉምሩክ	-9170
▁ያቀረበውን	-9171
ሸባ	-9172
እለ	-9173
ግድ	-9174
ማችን	-9175
2016	-9176
ወዳደሩ	-9177
▁እድሉ	-9178
▁ሰዎችም	-9179
▁ብቻውን	-9180
▁ታስረው	-9181
▁ለመለየት	-9182
▁ለመቀጠል	-9183
▁የምእራብ	-9184
ተህ	-9185
አቶ	-9186
ሳይም	-9187
▁የዘንድሮው	-9188
▁የሚያስፈልገው	-9189
ርፖር	-9190
▁43	-9191
▁2-1	-9192
▁ወለል	-9193
ናይጄሪያ	-9194
▁ለከተማ	-9195
▁መለኪያ	-9196
▁ተቋርጦ	-9197
▁ለማጥፋት	-9198
▁ለእነዚህ	-9199
▁በመደገፍ	-9200
ሩና	-9201
ታ፣	-9202
ጎበኙ	-9203
ስፋፊያ	-9204
▁አላው	-9205
▁በሺዎች	-9206
▁በባንክ	-9207
▁በፌደራል	-9208
ደደ	-9209
ለቀቅ	-9210
▁አፕ	-9211
▁ከንግድ	-9212
▁የዜጎች	-9213
▁የድርጅ	-9214
▁ለጋ	-9215
▁በቦሌ	-9216
▁በብድር	-9217
▁የሚወጣ	-9218
▁ለፓርላማ	-9219
▁በውድድር	-9220
▁የቆየውን	-9221
▁የበርካታ	-9222
ቋረጠ	-9223
▁ነቢ	-9224
▁ዜጎ	-9225
▁በበቂ	-9226
▁ፅንሰ	-9227
▁ለማክበር	-9228
▁ይጠቀሳሉ	-9229
ለጠነ	-9230
ሾችን	-9231
▁ሂሳ	-9232
▁እየሰ	-9233
▁የልብ	-9234
▁ክፍፍል	-9235
▁የመኖር	-9236
▁በአፋጣኝ	-9237
▁አስጠንቅ	-9238
▁አንቀፆች	-9239
▁ከፍተኛው	-9240
▁የማሀበራዊ	-9241
▁ለማስተናገድ	-9242
በዝ	-9243
▁ለሰራ	-9244
▁ልቦና	-9245
▁የመለ	-9246
▁የተዛ	-9247
▁የንግ	-9248
ነታችንን	-9249
▁አርአያ	-9250
▁የተመድ	-9251
▁አስቻለው	-9252
▁የመስጠት	-9253
▁የተዘጋጀው	-9254
ኔን	-9255
የረ	-9256
▁ዝና	-9257
▁ፈን	-9258
▁እስቲ	-9259
▁የክብር	-9260
▁በእውነት	-9261
▁ጭብ	-9262
▁ረዥም	-9263
▁በመፍ	-9264
▁ይጠብ	-9265
▁በመወከል	-9266
▁የሚመሩት	-9267
▁ለመተግበር	-9268
▁እንዲሰጠው	-9269
ሏት	-9270
ኛ፣	-9271
ክም	-9272
ልበት	-9273
ነስር	-9274
▁ቅሬ	-9275
▁ድጎማ	-9276
▁ገብነት	-9277
▁በቅንጅት	-9278
▁የተነሳው	-9279
▁ይጠቀሳል	-9280
ሚካ	-9281
▁በአት	-9282
▁አንተም	-9283
▁ውስጣዊ	-9284
▁በፅህፈት	-9285
▁የሶማሊያ	-9286
ሚሽኑ	-9287
ጠናው	-9288
▁ታወቀ	-9289
▁ከዛሬ	-9290
▁ሰጪዎች	-9291
▁ተቋቁሞ	-9292
▁የተነሱ	-9293
ክላ	-9294
ኚዎች	-9295
▁ዜናዊ	-9296
▁የኒው	-9297
▁ይነሳ	-9298
▁ከተማ፣	-9299
▁ኤርፖርት	-9300
▁የተመረጡ	-9301
▁የተነገረ	-9302
በሰ	-9303
▁s	-9304
ታደር	-9305
▁ተማ	-9306
▁ለግል	-9307
▁ትርጓሜ	-9308
▁K	-9309
ቋቋመ	-9310
▁ከአባ	-9311
▁ገዥው	-9312
▁ትልቁን	-9313
▁እንዲወ	-9314
▁የፍፁም	-9315
ጠመ	-9316
ፁህ	-9317
▁ተስ	-9318
▁ሊኖረው	-9319
▁አመታትን	-9320
▁ይገባዋል	-9321
▁ፈፅመዋል	-9322
▁ይኖርባቸዋል	-9323
ለውጡ	-9324
ነቷን	-9325
▁ክላ	-9326
ከተሉት	-9327
▁ቁጠባ	-9328
▁አብራ	-9329
▁የኋላ	-9330
▁ድርድ	-9331
▁ምልልስ	-9332
▁ተጀምሯል	-9333
▁ወርቅነህ	-9334
ከፈቱ	-9335
ዳኖስ	-9336
▁49	-9337
▁ተቆ	-9338
▁ከሰው	-9339
▁የሩሲያ	-9340
▁የተመዘገበ	-9341
ማካ	-9342
▁ፍላ	-9343
▁ተእለት	-9344
▁ተጠያቂነት	-9345
▁ሽብርተኝነት	-9346
ሞ፣	-9347
ወች	-9348
▁ሊባል	-9349
▁አራቱ	-9350
▁አወጣ	-9351
ካከላቸው	-9352
▁መምጣቱ	-9353
▁ጌታነህ	-9354
▁በመቶውን	-9355
▁የህዝብን	-9356
▁የጨዋታው	-9357
▁ርዝመት	-9358
▁በቡድን	-9359
▁ባህልና	-9360
▁የደመወዝ	-9361
▁ከአካባቢው	-9362
▁የሚመለከት	-9363
▁የሄ	-9364
ሪያቸው	-9365
ወሰደው	-9366
▁መገር	-9367
▁ካውን	-9368
▁ከቡድኑ	-9369
▁የዚህን	-9370
▁በመሆኑና	-9371
▁በጎንደር	-9372
▁ተቆጣጣሪ	-9373
▁ወረርሽኙ	-9374
▁እንዲመለስ	-9375
ይስ	-9376
ሰረዝ	-9377
ይንግ	-9378
▁41	-9379
▁ከፍታ	-9380
▁ፊደል	-9381
▁መሳተፍ	-9382
▁ተዘጋጅቶ	-9383
▁የተሻገረ	-9384
▁የተፈናቀሉ	-9385
▁ተረ	-9386
▁ፓት	-9387
▁አሳድ	-9388
▁ይመለ	-9389
▁ተባባሪ	-9390
▁ኮማንደር	-9391
▁የቁጥጥር	-9392
▁ማሀበረሰቡ	-9393
ቸግ	-9394
ነጥብ	-9395
▁ርቀ	-9396
▁ዘረ	-9397
▁ሀይልና	-9398
▁ማንበብ	-9399
▁ከሰአት	-9400
▁ስልጣንና	-9401
ik	-9402
ርሻ	-9403
ዜና	-9404
ስተዳደሩ	-9405
▁ለማገዝ	-9406
▁መብራት	-9407
▁ምስረታ	-9408
▁ለማገልገል	-9409
ኖቬ	-9410
"""	-9411
▁መመዝ	-9412
▁ለማዋል	-9413
▁ማቋቋሚያ	-9414
▁እወዳለሁ	-9415
▁ከመስጠት	-9416
▁የሚፈልግ	-9417
▁እንዲፈፀም	-9418
▁እንፈልጋለን	-9419
ፀባር	-9420
ፋትና	-9421
▁ቁጣ	-9422
▁ታም	-9423
▁ወኪል	-9424
▁ጣፋጭ	-9425
▁ትረምፕ	-9426
▁የምድብ	-9427
▁በመፈፀም	-9428
▁የእርዳታ	-9429
▁አስታውሷል	-9430
አተ	-9431
ሻሻያ	-9432
ከረው	-9433
ጓዳኝ	-9434
ቀጥለው	-9435
ንዛኒያ	-9436
▁ልኡል	-9437
▁ያምና	-9438
▁በልማት	-9439
▁በተያዘ	-9440
▁የሀሳብ	-9441
▁ተለይተው	-9442
▁የተደነገ	-9443
▁እንደሌለበት	-9444
▁ዲያ	-9445
ገለፀው፣	-9446
▁""""	-9447
▁መስኮት	-9448
▁በመውጣት	-9449
ሬም	-9450
ድማ	-9451
▁ኀ	-9452
ማማች	-9453
ንኮች	-9454
▁በምስ	-9455
▁ኡመር	-9456
▁አፋጣኝ	-9457
▁መክረዋል	-9458
▁ኮንግረስ	-9459
▁ከስምምነት	-9460
▁እንደሚጀምር	-9461
▁ትምህርታቸውን	-9462
ርዶ	-9463
ቪክ	-9464
ቆጥር	-9465
▁መማር	-9466
▁መግለፅ	-9467
▁አውቶቡ	-9468
▁የመሆን	-9469
▁ይረዳል	-9470
▁ዳግመኛ	-9471
▁ዴኤታው	-9472
▁ከአምላክ	-9473
▁መለሰ	-9474
▁ያሳስ	-9475
▁ደደቢ	-9476
▁ጃፓን	-9477
▁በዩኒቨርሲቲ	-9478
▁f	-9479
በውን	-9480
ፌሰር	-9481
▁ማሽን	-9482
▁አየለ	-9483
▁በማግኘት	-9484
ሙትን	-9485
▁ኦፊ	-9486
2003	-9487
ምግባር	-9488
ንድስና	-9489
▁አበረታች	-9490
▁የተቀመጠ	-9491
ልቶ	-9492
ባው	-9493
▁p	-9494
ምቢያ	-9495
ትከል	-9496
▁ታዬ	-9497
ሬዚዳንቱ	-9498
▁የአቅም	-9499
▁ይሰጣሉ	-9500
▁የሚነገር	-9501
▁የዲፕሎማሲ	-9502
▁ያመለከቱት	-9503
ሚር	-9504
ፍሮ	-9505
ገቢያ	-9506
ጓጓዣ	-9507
ስልምና	-9508
ጫወተው	-9509
▁ፖስት	-9510
▁ተወላጅ	-9511
▁በመመስረት	-9512
▁የሚገኙትን	-9513
ቅ፣	-9514
▁ማዘ	-9515
▁ልኡክ	-9516
▁ልደት	-9517
▁ነገስት	-9518
▁አልቻል	-9519
▁የረጅም	-9520
▁ያሳያሉ	-9521
▁መግለፃቸውን	-9522
▁እኮ	-9523
▁ፍጥ	-9524
▁አውጪ	-9525
▁የሚሞ	-9526
▁ያልታ	-9527
▁ለዋልታ	-9528
44	-9529
ማጅ	-9530
▁ከሙ	-9531
ጁንታው	-9532
▁ሶፍት	-9533
▁አቋር	-9534
▁እናው	-9535
▁በግድቡ	-9536
▁ግለሰቡ	-9537
▁በመጫወት	-9538
ተራ	-9539
ቶሪ	-9540
ሁለት	-9541
▁ማማ	-9542
▁የጫ	-9543
▁ይሻ	-9544
▁መቀጠ	-9545
▁አሰራሮች	-9546
▁እስረኞች	-9547
▁የወላይታ	-9548
▁ተግዳሮቶች	-9549
▁የተመዘገቡ	-9550
▁የፕሮጀክቱ	-9551
ምጣ	-9552
ጠሎ	-9553
▁ሹመ	-9554
▁ሲወጣ	-9555
▁ዘዴዎች	-9556
▁የተመለከተው	-9557
ሰላ	-9558
▁ሹም	-9559
▁በማጣ	-9560
▁ተሻጋሪ	-9561
▁አለመኖር	-9562
▁ገልፀው፤	-9563
▁በተከሰተው	-9564
▁ኢትዮጵያ፣	-9565
▁በእግዚአብሄር	-9566
ጅን	-9567
ፍጨ	-9568
▁በደን	-9569
▁ከየት	-9570
▁የታየ	-9571
▁የፕላ	-9572
▁የወጣቶች	-9573
▁እንድትሆን	-9574
▁አስመልክተው	-9575
▁ዲፕሎማሲያዊ	-9576
ቅተኛ	-9577
ታወቁት፣	-9578
▁በአዋጁ	-9579
▁በጥናቱ	-9580
▁እንዲል	-9581
▁ከቫይረሱ	-9582
▁ከኤርትራ	-9583
▁የዳኝነት	-9584
▁የሚችልበት	-9585
63	-9586
ቴር	-9587
▁ይይ	-9588
▁ተረድ	-9589
▁እሸቱ	-9590
▁ህይወቱ	-9591
▁ካደረጉ	-9592
▁በመምጣት	-9593
▁በሰብአዊ	-9594
▁የሚችሉበት	-9595
ሻሻሉ	-9596
ገደሉ	-9597
▁ሮም	-9598
▁ሽጉ	-9599
▁ጥቂ	-9600
▁ሀጢአ	-9601
▁ማሽኖች	-9602
▁አበባን	-9603
▁የሚፈፅ	-9604
▁ተፈናቃዮች	-9605
▁አመሰግናለሁ	-9606
ሙም	-9607
ረሪ	-9608
ጋር	-9609
ፃፉት	-9610
▁ዱቄ	-9611
ችልበት	-9612
▁ተመን	-9613
▁ለሁለቱ	-9614
▁ለመጨረሻ	-9615
▁ታይተዋል	-9616
▁ክስተቶች	-9617
▁በአሰልጣኝ	-9618
▁የሪፖርተር	-9619
▁ግለሰቦችን	-9620
▁እንዳለበትም	-9621
ፎቹ	-9622
▁ቀል	-9623
ገለገሉ	-9624
▁ሰውነት	-9625
▁በህዳሴ	-9626
▁ብጥብጥ	-9627
▁አነጋግ	-9628
▁በመከተል	-9629
▁የተፈቀደ	-9630
▁መያዛቸውን	-9631
78	-9632
▁ለመዋ	-9633
▁መዝና	-9634
▁ከሌላ	-9635
▁ለመሸጥ	-9636
▁ከተባለ	-9637
▁ከያህዌ	-9638
▁ካደረገ	-9639
▁ጀነራል	-9640
▁ወዳጅነት	-9641
▁ያካትታል	-9642
▁ለማስቀረት	-9643
▁በእርግጥም	-9644
ሽር	-9645
ይይቱ	-9646
▁ሳላ	-9647
▁ስዊ	-9648
▁ግጥ	-9649
▁ተጥሎ	-9650
▁ልማቶች	-9651
▁ገቢዎች	-9652
▁እየተንቀሳቀሰ	-9653
ላተ	-9654
▁b	-9655
▁ጀግ	-9656
▁አሳዛኝ	-9657
▁በዝግጅት	-9658
ኞቻችን	-9659
▁መስማት	-9660
▁ቁርጠኛ	-9661
▁ባህርይ	-9662
▁ስርጭትን	-9663
▁ትገኛለች	-9664
ዥው	-9665
▁ሀላ	-9666
▁ኢም	-9667
ባሳደር	-9668
▁የሚዘ	-9669
▁ሆስፒታ	-9670
▁በምግብ	-9671
▁የፅህፈት	-9672
▁ግኝት	-9673
▁ክረምት	-9674
▁የወንድ	-9675
▁በድርጅቱ	-9676
▁እንደሚያሳየው	-9677
ካትት	-9678
▁ቢታ	-9679
▁ከሩ	-9680
▁ገድ	-9681
▁በኒው	-9682
▁ልማት፣	-9683
▁ልጆችን	-9684
▁አደጋው	-9685
▁የወረዳ	-9686
▁ለመምራት	-9687
▁መስፋፋት	-9688
▁በደረሰው	-9689
▁የልኡካን	-9690
▁የባንኩን	-9691
▁የተቀመጠው	-9692
ወን	-9693
ጪዎቹ	-9694
ዋሪዎች	-9695
▁በየእ	-9696
ልተኝነት	-9697
▁ምርቱን	-9698
▁ምኒልክ	-9699
▁በኢትዮ	-9700
▁ቢሆኑም	-9701
▁ቢደረግ	-9702
▁አመላካ	-9703
▁የኪራይ	-9704
▁መመስረት	-9705
▁በመጠበቅ	-9706
▁ነበረበት	-9707
▁አቡበከር	-9708
▁ክፍሎችን	-9709
▁የማቅረብ	-9710
▁የተወሰደ	-9711
▁አመላክቷል	-9712
▁ያቀረቡትን	-9713
ራህ	-9714
ቻች	-9715
▁ካፒታ	-9716
ደርጋቸው	-9717
▁ቅዱሳን	-9718
▁በእድሜ	-9719
▁ወጪዎች	-9720
62	-9721
ራባች	-9722
▁ተኩል	-9723
▁ጥላቻ	-9724
▁በዘንድሮ	-9725
ቡም	-9726
▁ተው	-9727
ለንደን	-9728
▁በሳይ	-9729
▁ከፊት	-9730
▁ላኪዎች	-9731
▁ያገኙት	-9732
▁የተገኘባቸው	-9733
ልናል	-9734
ግጅጋ	-9735
▁ጠረ	-9736
ገነዘብ	-9737
▁ኢዮብ	-9738
▁የሚጥ	-9739
▁መሰራት	-9740
▁ሪፎርም	-9741
▁አይደለ	-9742
▁እንደዘ	-9743
▁ያምናሉ	-9744
▁በሚደረግ	-9745
▁አገልጋይ	-9746
ራዩ	-9747
ነቁ	-9748
ስቷል	-9749
▁የመዋ	-9750
▁የንጉ	-9751
▁ለመኖር	-9752
▁ተለያይ	-9753
▁የህንድ	-9754
▁ለማስጀመር	-9755
፣የ	-9756
▁የዛ	-9757
▁ንጥረ	-9758
▁የሌላ	-9759
▁በማግኘ	-9760
▁አልፈው	-9761
▁ቀርበዋል	-9762
▁በድንገት	-9763
▁የዘንድሮ	-9764
ዶም	-9765
ሰላም	-9766
▁ሳኒ	-9767
▁ከቆ	-9768
▁አማር	-9769
▁የበር	-9770
▁ለሰላም	-9771
▁ማመላለ	-9772
▁በተቃራኒ	-9773
▁ኢኮኖሚው	-9774
ለኞች	-9775
ሉንም	-9776
▁የጅማ	-9777
▁ሲያጋጥ	-9778
▁ቴድሮስ	-9779
▁ፋውንዴ	-9780
▁ተጠርጣሪው	-9781
▁አመራሮችን	-9782
▁የአካባቢውን	-9783
፤በ	-9784
ፈጥሩ	-9785
▁በና	-9786
▁ትሬ	-9787
ቶችንና	-9788
▁በጅማ	-9789
▁ድንኳ	-9790
▁ለውጡን	-9791
▁በደረጃ	-9792
▁እያሳየ	-9793
▁ድጋፍና	-9794
▁አስቀምጧል	-9795
ሱ፣	-9796
ደመ	-9797
ልተን	-9798
▁በሻ	-9799
ፍትሀዊ	-9800
ሞክራቲክ	-9801
▁ለመወሰን	-9802
ማቱ	-9803
ዩቱ	-9804
ቱን፣	-9805
▁ዋል	-9806
▁ናስር	-9807
▁ጃዋር	-9808
▁ጥቃቱ	-9809
▁መከተል	-9810
▁ተከታት	-9811
▁ፈጥሯል	-9812
▁መስተዳድሩ	-9813
▁የነበረበት	-9814
▁የኮሙዩኒኬሽን	-9815
?""	-9816
▁ፈት	-9817
መለክት	-9818
▁በዞኑ	-9819
▁የተተ	-9820
▁በቀረበ	-9821
▁ጥቅሞች	-9822
▁በመካከለኛው	-9823
ሩንዲ	-9824
▁መዝገ	-9825
▁ከመቼ	-9826
▁ዘይቤ	-9827
▁ይሰጥ	-9828
▁ኢየሩሳሌም	-9829
▁በእንግሊዝኛ	-9830
አዴን	-9831
ጋዮች	-9832
▁ከሊ	-9833
▁የኡ	-9834
▁ለምር	-9835
▁ካምፓ	-9836
▁ዋልታ	-9837
▁የጋዜ	-9838
▁በሰዎች	-9839
▁ተጫዋቾ	-9840
▁እንዲመጣ	-9841
▁የአንድነት	-9842
▁እንደሚከተለው	-9843
31	-9844
49	-9845
አክ	-9846
▁ለሙ	-9847
▁ሀጫሉ	-9848
▁አምጥ	-9849
▁የወል	-9850
▁አጠናቆ	-9851
▁ገንዘቡ	-9852
▁ምስክርነት	-9853
▁በተዘጋጀው	-9854
▁እስክንድር	-9855
▁ከመስከረም	-9856
ቂኝ	-9857
▁በሰኔ	-9858
▁ማጣራት	-9859
▁ተካሂዶ	-9860
▁አሳልፏል	-9861
▁የሚሰራው	-9862
▁የስድስት	-9863
▁ይጨምራል	-9864
▁በፈረንሳይ	-9865
▁አልተቻለም	-9866
ላይን	-9867
▁ከሽ	-9868
ገናኘው	-9869
▁ከሌላው	-9870
▁እንዲቆም	-9871
▁የቫይረሱ	-9872
ለፈው	-9873
▁ቅኝ	-9874
ገኝበት	-9875
▁በቶሎ	-9876
▁በጋዜ	-9877
▁ታውቃ	-9878
▁እሳቤ	-9879
▁አስተናጋ	-9880
▁የኩባንያ	-9881
▁የገንዘብና	-9882
72	-9883
ሱና	-9884
ፈፃፀም	-9885
▁ስርወ	-9886
▁አህጉ	-9887
▁በውይይ	-9888
▁ተቀምጦ	-9889
▁አለምን	-9890
▁ፓርቲዎቹ	-9891
▁አካባቢውን	-9892
ካው	-9893
ሊስት	-9894
ምንም	-9895
▁ሆኜ	-9896
▁ነገድ	-9897
▁ከሞት	-9898
▁ሳንቲም	-9899
▁ለማስፈን	-9900
▁ከአገሪቱ	-9901
ቡል	-9902
▁ዘለ	-9903
▁ዳቦ	-9904
▁ድግ	-9905
ሰረታዊ	-9906
ንቀሳቅ	-9907
በራቸውን	-9908
▁የሚረዱ	-9909
▁አውቃለሁ	-9910
▁እንዲቻል	-9911
ሌይ	-9912
ከአ	-9913
ካድ	-9914
ዚል	-9915
ፀዳ	-9916
1892	-9917
▁ግጭቱ	-9918
▁ፋንታ	-9919
▁ተከናው	-9920
▁መቆጣጠሪያ	-9921
▁እንቅስቃሴዎችን	-9922
195	-9923
▁ይጠ	-9924
▁ጎሳ	-9925
▁እንቁ	-9926
▁ክርክ	-9927
▁ወንጌ	-9928
▁የሚነ	-9929
▁የካሳ	-9930
▁ሀሳብን	-9931
▁የሚጠጋ	-9932
▁የምጣኔ	-9933
▁የአፋር	-9934
▁መታሰቢያ	-9935
▁አፍሪካን	-9936
▁የማሀበሩ	-9937
▁እየተከናወኑ	-9938
ያና	-9939
▁ለድ	-9940
▁ተኩስ	-9941
▁ኦነግ	-9942
▁የክል	-9943
▁ምርትና	-9944
▁ተአማኒ	-9945
▁የቦርዱ	-9946
▁ባይሆንም	-9947
▁አጋርነት	-9948
▁የቱሪስት	-9949
▁ስደተኞችን	-9950
▁ዋሽንግተን	-9951
69	-9952
ሎችና	-9953
ውንድ	-9954
▁ሀውስ	-9955
▁እየሰጡ	-9956
▁ያሉበት	-9957
▁ለሶስተኛ	-9958
▁የአማካይ	-9959
ላይነት	-9960
ደርግም	-9961
▁2020	-9962
▁መከበር	-9963
▁ማክበር	-9964
▁ቁሳቁስ	-9965
▁ጌትነት	-9966
▁በክልሎች	-9967
▁አላውቅም	-9968
▁የሚፈፀም	-9969
ናዊው	-9970
ገራቱ	-9971
▁የመማር	-9972
▁የመግባ	-9973
▁ለማሸነፍ	-9974
▁በማለትም	-9975
▁እንዳላት	-9976
▁በሚያደርጉት	-9977
ኛ፦	-9978
ፎቶ	-9979
ንግሊ	-9980
▁መኩ	-9981
▁ሻይ	-9982
▁ኤንድ	-9983
▁የማጣ	-9984
▁ምንዛሬ	-9985
▁ገልፆ፣	-9986
▁መካከልም	-9987
▁ማመልከቻ	-9988
▁ተከላካዩ	-9989
▁ማለታቸውን	-9990
▁የመንግስትና	-9991
▁የማህበረሰብ	-9992
ትስ	-9993
▁ባዶ	-9994
▁ማራኪ	-9995
በረሰቦች	-9996
▁በሰማይ	-9997
▁እዚያው	-9998
▁ማስተካከል	-9999
▁ይገኝበታል	-10000
▁d	-10001
ደመው	-10002
ደረው	-10003
ፋጠን	-10004
▁እንዷ	-10005
▁ጥቅል	-10006
ጊዮርጊስ	-10007
▁ካለፉት	-10008
▁መጠበቂያ	-10009
▁ዝርያዎች	-10010
▁የኢትዮጵያና	-10011
ሪዝ	-10012
ስቱን	-10013
1997	-10014
2019	-10015
▁ሙቀት	-10016
▁አባጅ	-10017
▁ከሚገኙት	-10018
▁እንደነበረው	-10019
▁U	-10020
ube	-10021
ንያም	-10022
▁ወግ	-10023
ምቦልቻ	-10024
▁ተዋና	-10025
▁ተለዋጭ	-10026
▁ለአምስት	-10027
▁በፕሬዚዳንት	-10028
▁እንዳስታወቁት፣	-10029
ረቤ	-10030
ጎና	-10031
ማውን	-10032
ሰብል	-10033
2020	-10034
ክተዋል	-10035
▁ኮቪድ	-10036
▁ስርአተ	-10037
▁በብቃት	-10038
▁ማስተዋል	-10039
▁ያለፉትን	-10040
▁ገንዘቡን	-10041
መጣሉ	-10042
ሻሻለው	-10043
ባልነት	-10044
▁መዋጮ	-10045
▁በተወ	-10046
ርባምንጭ	-10047
▁ጣሊያን	-10048
ሲስ	-10049
ፅር	-10050
▁ሲወ	-10051
▁ስሁል	-10052
▁ተርታ	-10053
▁ወይን	-10054
▁ግንብ	-10055
▁ማህበሩ	-10056
▁በአንዱ	-10057
▁ተይዘው	-10058
▁አቀባዩ	-10059
▁ድብደባ	-10060
▁58	-10061
▁ለዋ	-10062
▁መጡ	-10063
▁በመቀነስ	-10064
▁ነገርግን	-10065
▁ሊቀመንበሩ	-10066
▁ወረርሽኝን	-10067
▁ያደረጉትን	-10068
መድን	-10069
▁መሄ	-10070
ዝግጅት	-10071
▁ሞተር	-10072
▁ደሀን	-10073
▁ሲገለፅ	-10074
▁በቋሚነት	-10075
▁ሲያገለግሉ	-10076
▁አላስፈላጊ	-10077
▁እንደማይችሉ	-10078
ረቱ	-10079
600	-10080
ላላፊ	-10081
▁In	-10082
▁ለወጣ	-10083
▁እናስ	-10084
▁ዲዛይ	-10085
▁መመስረ	-10086
▁መሸፈኛ	-10087
▁አስመጪ	-10088
▁አድርጓ	-10089
▁መመሪያዎች	-10090
▁በአገልግሎት	-10091
▁ዩኒቨርሲቲው	-10092
▁ያድርጉፈጣን	-10093
ሸባብ	-10094
በረው	-10095
▁ፎቅ	-10096
▁the	-10097
▁ትንቢት	-10098
▁በተወሰኑ	-10099
▁የመሪዎች	-10100
▁ያስቆጠረው	-10101
▁እንቅስቃሴን	-10102
▁፪	-10103
ብራት	-10104
ፈናቀ	-10105
▁ትራ	-10106
ለመደው	-10107
▁ማጣት	-10108
▁ችለናል	-10109
▁እሴቶች	-10110
▁ያለፈው	-10111
▁እየቀነሰ	-10112
▁ከትምህርት	-10113
▁የተገነባው	-10114
ሳለች	-10115
ውተር	-10116
ደበኛ	-10117
ገረው	-10118
▁ትዝ	-10119
▁መርከብ	-10120
▁ማልማት	-10121
▁ለአብነትም	-10122
▁እንዳደረገው	-10123
ጠናክር	-10124
▁መሳይ	-10125
▁በአባ	-10126
▁በሽብር	-10127
▁ከአንተ	-10128
ቶት	-10129
ኗኗ	-10130
ባለች	-10131
ካሂዱ	-10132
ጢአት	-10133
▁በሄ	-10134
▁በየት	-10135
▁ትጥቅ	-10136
▁አስገድ	-10137
▁ከሀምሌ	-10138
▁በግንባታ	-10139
▁የተረጋጋ	-10140
ሏን	-10141
ማኝ	-10142
ዟቸው	-10143
▁ፈለ	-10144
ሚኒስት	-10145
▁አምባሳደሩ	-10146
ደሰት	-10147
ፆችን	-10148
▁ጄኔ	-10149
ገባደጃ	-10150
▁ለቀው	-10151
▁ማነቆ	-10152
▁ብለህ	-10153
▁አማረ	-10154
▁አምር	-10155
▁ክሱን	-10156
▁ዝርጋ	-10157
▁መኖራቸው	-10158
▁ማድረግ፣	-10159
▁ሰነዶችን	-10160
▁እንዲሰማ	-10161
▁ዘገባዎች	-10162
▁ሲንቀሳቀሱ	-10163
▁በተመለከተም	-10164
ብና	-10165
ከፈሉ	-10166
▁ቁም	-10167
▁ወረቀ	-10168
▁ዋጋው	-10169
ገኘባቸው	-10170
▁ምልከታ	-10171
▁ሏላዊነት	-10172
▁ማገልገል	-10173
▁እንዲፈቀድ	-10174
▁ውሳኔዎችን	-10175
▁በመሆናቸው፣	-10176
ዚን	-10177
ers	-10178
▁በፅኑ	-10179
▁ትችት	-10180
▁አሀዝ	-10181
▁ደበበ	-10182
▁አልያም	-10183
▁አባባል	-10184
▁ፍልስፍና	-10185
▁የሚመለከተው	-10186
ሽሎ	-10187
ራፌል	-10188
ኖራት	-10189
ግስቱ	-10190
▁ምና	-10191
▁ተጓ	-10192
▁እኛን	-10193
▁ለልማት	-10194
▁ማራቶን	-10195
▁ስነስር	-10196
▁ተገዷል	-10197
▁የማይታ	-10198
▁ይኖራሉ	-10199
▁በፌስቡክ	-10200
▁ማሻሻያዎች	-10201
.0	-10202
በረከ	-10203
ከብሩ	-10204
▁ድራ	-10205
▁ሲልም	-10206
▁አስርት	-10207
▁አብዱላ	-10208
▁መፈፀሙን	-10209
▁በቀድሞው	-10210
ዝቀ	-10211
የል	-10212
▁ነዉ	-10213
ተስኖት	-10214
▁በብር	-10215
▁ታደለ	-10216
▁አቀረበ	-10217
▁ከወራት	-10218
▁ክብደት	-10219
▁ለማስቆም	-10220
▁ስለሚችል	-10221
▁የተገነባ	-10222
▁ፕሬዝደንት	-10223
ቴው	-10224
ደረስ	-10225
▁በድረ	-10226
▁ክሶች	-10227
▁በቀዳሚ	-10228
▁አመትም	-10229
▁በሽታዎች	-10230
▁ባለሀብት	-10231
▁ተሽከርካሪዎችን	-10232
ኦኤ	-10233
ሽንና	-10234
▁ቀነ	-10235
▁የገዛ	-10236
▁ፈጥሮ	-10237
▁በባንኩ	-10238
▁የታሰሩ	-10239
▁ትእግስት	-10240
▁መንገደኞች	-10241
▁ተሳትፈዋል	-10242
▁ዲሞክራሲያዊ	-10243
ሳሰሉት	-10244
▁ተጎጂ	-10245
▁የግለ	-10246
▁መለወጥ	-10247
▁ተቋማት፣	-10248
▁የሚያስተዳ	-10249
▁በኢየሩሳሌም	-10250
ወደው	-10251
▁መለዋ	-10252
▁ከግራ	-10253
▁ቀሪዎቹ	-10254
▁ኮማንድ	-10255
▁የአበባ	-10256
▁ማስረጃዎች	-10257
ቀፉ	-10258
ናና	-10259
▁ሬድ	-10260
▁120	-10261
▁በገዛ	-10262
▁ከህገ	-10263
▁የወን	-10264
▁ይኼን	-10265
▁ፍሬው	-10266
▁መቅደስ	-10267
▁መጠሪያ	-10268
▁ማዘጋጀት	-10269
ታም	-10270
ክ፣	-10271
▁ጃን	-10272
▁ጨም	-10273
▁መረጃን	-10274
▁ከባህር	-10275
▁መጨረሻው	-10276
▁የሚሰጡት	-10277
▁አለምአቀፍ	-10278
▁በኢንቨስትመንት	-10279
ለዩ	-10280
ንደኛው	-10281
▁በፕሮ	-10282
▁አሰጣ	-10283
▁የሚጋ	-10284
▁ማቋቋም	-10285
▁በቁጥር	-10286
▁ባልሆነ	-10287
▁ንፁሀን	-10288
▁ከሜዳው	-10289
▁የላቸውም	-10290
▁የሚታየውን	-10291
▁ማስተባበሪያ	-10292
▁አስተዳደሮች	-10293
ዝ፣	-10294
ረናል	-10295
ጠቅም	-10296
ከራከሩ	-10297
▁ላልተ	-10298
▁ዝንባ	-10299
▁እነርሱ	-10300
▁በመምራት	-10301
▁በየእለቱ	-10302
▁የማንነት	-10303
ይር	-10304
▁c	-10305
▁መቆራ	-10306
▁ገነት	-10307
▁የሚጠቀሙ	-10308
▁ማስተናገድ	-10309
ከፈተ	-10310
▁ሰንሰ	-10311
▁ኢንጅ	-10312
▁የዞኑ	-10313
▁በመግባ	-10314
▁ዮናታን	-10315
▁ለውጦችን	-10316
▁ኢትዮጵያም	-10317
▁57	-10318
ኖረውም	-10319
▁ቤትም	-10320
▁አስተማሪ	-10321
▁ለማንኛውም	-10322
43	-10323
▁ችላ	-10324
▁የቃ	-10325
▁የያ	-10326
▁ፈጣ	-10327
▁ሰበብ	-10328
▁ከአን	-10329
▁የክት	-10330
▁ለማለፍ	-10331
▁መቆጠር	-10332
▁ሲጠበቅ	-10333
▁ካህናት	-10334
▁እንደርታ	-10335
▁የአሰልጣኝ	-10336
▁እንደሚገባቸው	-10337
ቀኝ	-10338
▁ኹ	-10339
ቀበሉት	-10340
▁ማለቱ	-10341
▁ሲቀርብ	-10342
▁ከቀናት	-10343
▁የሀሰት	-10344
▁ተፈጥሯዊ	-10345
▁ይጎብኙ፤ተ	-10346
▁ድርጅቶችና	-10347
ላጠ	-10348
ቲቪ	-10349
ፃፉ	-10350
▁ሴክ	-10351
ዋርያው	-10352
▁ሰርቶ	-10353
▁የማዳ	-10354
▁ጭነት	-10355
▁ለቀጣይ	-10356
▁ጥናታዊ	-10357
▁በአነስተኛ	-10358
▁የበኩላቸውን	-10359
▁ቆሞ	-10360
ሯቸውን	-10361
▁ንጉሰ	-10362
▁አወቃ	-10363
ደርገውን	-10364
▁ተለይቶ	-10365
▁እንሰራ	-10366
▁አስታውሰው፣	-10367
ut	-10368
ዳግ	-10369
ግሩ	-10370
▁ተጀ	-10371
ወሰነው	-10372
▁በገቢ	-10373
▁ድሪባ	-10374
▁ማንሳት	-10375
▁ሜዳሊያ	-10376
fanatelevision	-10377
ይንት	-10378
▁ክፍሉ	-10379
▁መለየት	-10380
▁ስፍራው	-10381
▁ከሰባት	-10382
▁ማመላለሻ	-10383
▁በመጠቆም	-10384
▁እንዲቀጥሉ	-10385
ap	-10386
▁ሲመ	-10387
▁በወል	-10388
▁ፍንዳ	-10389
▁በኩልም	-10390
▁አዋሳኝ	-10391
▁የአሰልጣ	-10392
▁አግባብነት	-10393
▁እንደደረሰ	-10394
ህ፣	-10395
ቆም፣	-10396
▁ህሙ	-10397
▁ሀዲያ	-10398
▁ብዙሀ	-10399
▁ልማትን	-10400
▁በረቂቁ	-10401
▁አብያተ	-10402
▁እጃቸውን	-10403
▁መንግስት፣	-10404
▁በማረጋገጥ	-10405
ሪያም	-10406
▁አሶ	-10407
▁ማርያ	-10408
▁አድሀ	-10409
▁ይችል	-10410
▁ገልፃ	-10411
ገራቸውን	-10412
▁መኪኖች	-10413
▁በየመን	-10414
▁ዘላለም	-10415
▁የመብት	-10416
▁የሙቀት	-10417
▁የሚመሩ	-10418
▁ጭንቀት	-10419
▁ማስመዝገብ	-10420
▁እየተነገረ	-10421
ከበረው	-10422
▁ኮንቴ	-10423
▁ህፃናትን	-10424
▁በግንቦት	-10425
▁ቤተሰቦቻቸው	-10426
ያ፣	-10427
▁ህሊና	-10428
▁ሊጉን	-10429
▁ከቀኝ	-10430
▁ካናዳ	-10431
▁ማቆሚያ	-10432
▁የሀብረት	-10433
▁የጎደለው	-10434
▁ማህበረሰቡ	-10435
▁ማቅረባቸውን	-10436
▁የደረሰባቸው	-10437
ሽታ	-10438
▁m	-10439
ለውጥ	-10440
▁ከቀኑ	-10441
▁የቢሮ	-10442
ታቸውን፣	-10443
▁በጊዜው	-10444
▁ከመሆን	-10445
▁ድረስ፣	-10446
▁ምርጫዎች	-10447
▁የሳይንስና	-10448
os	-10449
መጠ	-10450
ሬቻ	-10451
ጃም	-10452
ዳዲስ	-10453
ጠሩት	-10454
▁በኬ	-10455
▁ጆሮ	-10456
መዘገብ	-10457
▁ሀኪም	-10458
▁በመሸ	-10459
▁አሰል	-10460
▁በይሆዋ	-10461
▁ተፈናቅ	-10462
▁ከጠቅላላ	-10463
▁ከእስራኤል	-10464
▁የማእከላዊ	-10465
▁የተጠቀሰው	-10466
ፋቱ	-10467
▁ከይ	-10468
▁መቅደ	-10469
▁ነጥቦችን	-10470
▁አፅንኦት	-10471
▁ግንባታና	-10472
▁መዋላቸውን	-10473
▁የሚያመለክ	-10474
▁ግንኙነትና	-10475
ul	-10476
ቢዎች	-10477
▁በቀይ	-10478
▁ችሎቱ	-10479
▁ነበርና	-10480
▁መኮንኖች	-10481
▁የተጀመሩ	-10482
▁ያገኙትን	-10483
▁ሚኒስቴርና	-10484
▁ይጎብኙ፤ተንቀሳቃሽ	-10485
ጣና	-10486
ክሌር	-10487
▁ምሀ	-10488
▁ከገ	-10489
▁ያፀ	-10490
ነኝነት	-10491
ወስደው	-10492
▁ለሚለው	-10493
▁በፊትም	-10494
▁አሰቃቂ	-10495
▁መካከል፣	-10496
▁በሳምንቱ	-10497
▁በጥቅምት	-10498
▁የሚያገኙ	-10499
ዘጉ	-10500
2004	-10501
▁ለመመ	-10502
▁የሚን	-10503
▁ጊዜን	-10504
▁በየወሩ	-10505
▁በጥብቅ	-10506
▁የአይን	-10507
▁ቅሬታቸውን	-10508
46	-10509
85	-10510
ጐች	-10511
መርመር	-10512
ባቢሎን	-10513
▁ተቃር	-10514
▁ተገም	-10515
▁አለቆች	-10516
▁የፈፀሙ	-10517
▁በኢህአዴግ	-10518
yout	-10519
እነዚህ	-10520
▁የአገ	-10521
▁ለእነሱ	-10522
▁ለክልሉ	-10523
▁ለጉዳዩ	-10524
▁ምግቦች	-10525
▁በምርት	-10526
▁አላማው	-10527
▁እንደሆን	-10528
ሊጥ	-10529
ሳና	-10530
ጃን	-10531
▁ቮ	-10532
ቢያን	-10533
▁ለፀ	-10534
▁ልጄ	-10535
▁ስራም	-10536
▁ከምት	-10537
▁የተበ	-10538
▁ደረጀ	-10539
▁ሰይጣን	-10540
▁ከአማራ	-10541
▁አድናቆት	-10542
▁ከመቼውም	-10543
▁ኮንትራክተሮች	-10544
ir	-10545
ቻው	-10546
ችኹ	-10547
ውድ	-10548
ሳሪያ	-10549
▁ዮሀ	-10550
▁ማርክ	-10551
▁አከባቢ	-10552
▁የአስር	-10553
▁ለመታደግ	-10554
▁አመላካች	-10555
▁ይሆናል፤	-10556
▁በስብሰባው	-10557
▁ይጠበቅባቸዋል	-10558
ot	-10559
▁t	-10560
▁ነብ	-10561
▁ማለፉ	-10562
▁ጥቅማ	-10563
▁በመኖሩ	-10564
▁ከመረብ	-10565
▁የትኛው	-10566
▁ማስቀመጥ	-10567
▁አስባለሁ	-10568
▁ከነበረበት	-10569
▁የተጠርጣሪ	-10570
ዝናኛ	-10571
▁ለመቅ	-10572
▁ሜጀር	-10573
▁ለአራት	-10574
▁ለዴሞክራሲ	-10575
ፍቲ	-10576
▁ከዩ	-10577
▁አጣሪ	-10578
▁የዋና	-10579
▁የብረት	-10580
▁ይጠናቀ	-10581
▁ተመልከት	-10582
▁የተናገረው	-10583
ርኩ	-10584
ነቴ	-10585
ጎለ	-10586
ጠበቅም	-10587
▁ሁንዴ	-10588
▁ችግኝ	-10589
▁ጦርነቱ	-10590
▁ስለሆነ፣	-10591
ፈሩት	-10592
▁ያበ	-10593
▁በሲዳማ	-10594
▁አዳጋች	-10595
▁ያብራራል	-10596
youtube	-10597
▁ከማንኛውም	-10598
ልክት	-10599
▁ብዛ	-10600
▁ከቁ	-10601
▁አስች	-10602
▁ስለሆኑ	-10603
▁የሚሰበ	-10604
▁አፈፃፀሙ	-10605
▁ያገለገሉ	-10606
▁የሰራተኞች	-10607
ኒስ	-10608
ኪዮ	-10609
የታቸው	-10610
▁ክፉኛ	-10611
▁አይኖርም	-10612
▁ፕሮጀክቱን	-10613
▁የተደረገውን	-10614
ሚል	-10615
ዘገ	-10616
▁ሟ	-10617
ሰኞቹ	-10618
ግራት	-10619
▁ሙሳ	-10620
▁በጅ	-10621
ሰልጠን	-10622
▁ማሽነ	-10623
▁ታሪፍ	-10624
▁እንጀ	-10625
▁የእዳ	-10626
▁በደረሰ	-10627
▁ታምራት	-10628
▁የሚያሳየው	-10629
ሰመ	-10630
ጅሙ	-10631
▁ጩ	-10632
▁ህፃን	-10633
▁ተርሚ	-10634
▁ውለው	-10635
ጠናቀቂያ	-10636
▁ሂደቶች	-10637
▁ሲደርሱ	-10638
▁ስምሪት	-10639
▁እንዲመ	-10640
▁ጎረቤት	-10641
▁የእግርኳስ	-10642
ሟን	-10643
ፕቴ	-10644
ሳካም	-10645
▁ጂኦ	-10646
▁ጠጅ	-10647
▁ቀልጣ	-10648
▁አደረ	-10649
▁ዝንባሌ	-10650
▁ለማስቻል	-10651
▁ተመልካች	-10652
▁ኔትወርክ	-10653
▁የፌ	-10654
ነኛነት	-10655
▁ሊያሳ	-10656
▁ተከራ	-10657
▁ከመጡ	-10658
▁በገጠር	-10659
▁እቅዶች	-10660
▁ማናቸውም	-10661
▁አፍሪካውያን	-10662
▁ሸኔ	-10663
ኢህዴን	-10664
ዋቸዋል	-10665
▁ፈቃዱ	-10666
▁ለሆኑት	-10667
▁ለመሆኑ	-10668
▁በጨረታ	-10669
▁ብሄራት	-10670
▁ለእናንተ	-10671
▁የምንዛሪ	-10672
▁የተመዘገበው	-10673
42	-10674
መልካ	-10675
ባቶች	-10676
▁ውጣ	-10677
ደረግን	-10678
▁ህያው	-10679
▁መቆም	-10680
▁እስኪያ	-10681
▁ከተማና	-10682
▁የለም፤	-10683
▁በግንባር	-10684
▁የድርድር	-10685
▁እንደሚፈጥር	-10686
መተ	-10687
ቅደው	-10688
ብንም	-10689
▁ሲኖ	-10690
▁ቢቂ	-10691
▁አብዮት	-10692
▁የቋንቋ	-10693
▁ደርሰዋል	-10694
▁ሞተ	-10695
▁ሀሳቡ	-10696
▁የነገ	-10697
▁ሀይለኛ	-10698
▁አመራሩ	-10699
▁ደረሰኝ	-10700
▁ለማስፋት	-10701
▁ለእርስዎ	-10702
ስራኤላውያን	-10703
ኢማ	-10704
መደው	-10705
▁ባያ	-10706
▁ፊሊ	-10707
ፈቀደው	-10708
▁ወልዴ	-10709
▁ይጫወ	-10710
▁ግደይ	-10711
ኢህአዴግ	-10712
▁ልኡካን	-10713
▁ተመላክ	-10714
▁ወስዷል	-10715
▁ለመናገር	-10716
▁በሶስተኛ	-10717
▁እናንተም	-10718
▁እየወሰደ	-10719
▁በበላይነት	-10720
▁የማስፋፊያ	-10721
▁የፕሪምየር	-10722
▁እንደገለፀው	-10723
ነነ	-10724
ዦች	-10725
▁78	-10726
▁አቅዶ	-10727
▁እጁን	-10728
▁ለሚሆኑ	-10729
▁ሮበርት	-10730
▁ያሳለፈው	-10731
▁ፍላጎቶች	-10732
▁የቴሌቪዥን	-10733
ረቡ	-10734
▁ያዋ	-10735
▁250	-10736
▁ካገኘ	-10737
▁የሚው	-10738
▁ድህረ	-10739
▁አላገኘ	-10740
▁አውራጃ	-10741
▁የአራት	-10742
▁ሀላፊዎቹ	-10743
▁የዝውውር	-10744
▁ለእያንዳንዱ	-10745
▁የጌ	-10746
▁ዲቪ	-10747
ሰበሰቡ	-10748
ኖርበት	-10749
▁በጂቡቲ	-10750
▁ተነጋግ	-10751
▁አመስግ	-10752
▁የጀመሩ	-10753
▁ሀይሎችን	-10754
▁እንዳብራ	-10755
▁ባለሜዳዎቹ	-10756
ሀቅ	-10757
ሊፎር	-10758
▁ማወ	-10759
▁ጠፍ	-10760
▁ተወካ	-10761
▁ከግል	-10762
▁ማስጨበ	-10763
▁ሳይቆይ	-10764
▁በምንም	-10765
▁ካለበት	-10766
▁የሰነድ	-10767
▁መንገዱን	-10768
▁የተቀማጭ	-10769
▁የተዘጋጁ	-10770
▁የተገነቡ	-10771
41	-10772
ዋቱ	-10773
▁ለጎ	-10774
ደባባይ	-10775
▁ለህል	-10776
▁መፍጠ	-10777
▁በህጉ	-10778
▁ትሆና	-10779
▁በመንፈስ	-10780
▁የራሳቸው	-10781
▁መዘጋጀቱን	-10782
▁የሚከተለውን	-10783
ሎቹን	-10784
▁ስመ	-10785
▁ግሎ	-10786
▁ምላሽ፣	-10787
▁ሲናገር	-10788
▁በሚቻል	-10789
▁ተገልፆ	-10790
▁ከቀረጥ	-10791
▁እንዲራዘም	-10792
▁በመንግስትና	-10793
ኖተ	-10794
ፈኑ	-10795
ጠቃል	-10796
▁ከቢ	-10797
ፈንቅለ	-10798
▁ተፈሪ	-10799
▁ጋርም	-10800
▁የተፃፈ	-10801
▁ባህርዳር	-10802
▁እንደሚፈልጉ	-10803
ንገ	-10804
እስ	-10805
▁ጡ	-10806
ሙበት	-10807
ገርም	-10808
▁በምታ	-10809
▁አዘጋ	-10810
▁ሊካሄድ	-10811
▁ይናገር	-10812
▁ነበራቸው	-10813
▁የህዝብና	-10814
▁የሚያረጋግጥ	-10815
ካፋ	-10816
በደር	-10817
ክሬን	-10818
▁ሶዶ	-10819
መጣቸው	-10820
▁በመጋ	-10821
▁በግሉ	-10822
▁ቢኖርም	-10823
ደረግባቸው	-10824
▁አንዳንዴ	-10825
▁ጉዳተኞች	-10826
61	-10827
ገባኛል	-10828
▁መሸጥ	-10829
▁ሲሄድ	-10830
▁በበጎ	-10831
▁ይታይ	-10832
ክስፖርት	-10833
▁ለመላክ	-10834
▁ተቋራጭ	-10835
▁ተደረገ	-10836
▁እድሉን	-10837
▁ያለንን	-10838
▁ለመክፈት	-10839
▁ተመልክቶ	-10840
▁ተነስቷል	-10841
▁አቅማቸው	-10842
▁አጥቂዎች	-10843
ነፃ	-10844
ግራፍ	-10845
ጥበብ	-10846
ፐብሊ	-10847
▁የሂ	-10848
ክልትና	-10849
▁ሱፐር	-10850
▁ተዘር	-10851
▁የአቻ	-10852
▁ህጎችን	-10853
▁በመሸጥ	-10854
▁የሚያመ	-10855
▁የበለፀ	-10856
▁ይመስል	-10857
▁በመገንዘብ	-10858
▁እንደሚችልም	-10859
ረካ	-10860
ታሽ	-10861
ኩኝ	-10862
ሰቦቹ	-10863
ቃጠል	-10864
▁ኮድ	-10865
▁ኦሮሞ	-10866
▁የውል	-10867
▁ጋዜጠ	-10868
▁ሰንደቅ	-10869
▁በመሬት	-10870
▁ከቅጣት	-10871
▁ያሻገረ	-10872
▁ማስታወቁ	-10873
▁ስለነበረ	-10874
▁አመለካከ	-10875
▁የሚከናወን	-10876
3)	-10877
ዋጭ	-10878
ራችሁ	-10879
ሳሰር	-10880
ትን፣	-10881
ብርኤል	-10882
▁የታዩ	-10883
▁ሀብትና	-10884
▁ከወለድ	-10885
▁የተኩስ	-10886
▁ለመጨመር	-10887
▁ያገኘውን	-10888
▁የሚገነባው	-10889
ፅደቅ	-10890
▁ስእ	-10891
ኖረውን	-10892
▁አይነ	-10893
ነበራቸው	-10894
▁በሽታው	-10895
▁በእቅድ	-10896
▁የህዝቡ	-10897
ብረተሰቡን	-10898
▁ማግኘቱን	-10899
▁ተዘግቧል	-10900
▁እንዲችል	-10901
▁የተነገረው	-10902
▁ባስተላለፉት	-10903
ድሪ	-10904
ሰማው	-10905
▁ተጫ	-10906
▁ሂሩት	-10907
▁ምስጋ	-10908
▁አካሄ	-10909
▁ደሴት	-10910
▁መርዳት	-10911
▁በአስራ	-10912
▁በጉጉት	-10913
▁ተመላሽ	-10914
▁ይቀላቀሉ	-10915
▁በዋነኝነት	-10916
ቅሉ	-10917
ድረክ	-10918
ሎምፒክ	-10919
ሰበውን	-10920
▁ቀሪው	-10921
▁በድል	-10922
▁ነጋሽ	-10923
▁ሚዛናዊ	-10924
▁ኤግዚቢ	-10925
▁ሊያደርጉ	-10926
▁ሰርተዋል	-10927
▁የመስራት	-10928
▁ልጆቻቸውን	-10929
▁ፕሬዝዳንቱ	-10930
▁እንደሚገኝም	-10931
ዮቹን	-10932
▁ማቆም	-10933
▁ቃሊቲ	-10934
▁ከሰራ	-10935
▁ጆርጅ	-10936
▁ቅርበት	-10937
▁ይደነግ	-10938
▁የወጣውን	-10939
▁ይጠቅሳሉ	-10940
▁ምስክሮችን	-10941
▁ለአገልግሎት	-10942
ዮብ	-10943
ታል፤	-10944
ውረድ	-10945
ረጃጅም	-10946
▁ሰላሳ	-10947
▁ቅነሳ	-10948
▁ቱሪስ	-10949
▁ለቡድኑ	-10950
▁በከባድ	-10951
▁አድራጊ	-10952
▁ያሳለፈ	-10953
▁ጊዜውን	-10954
▁ማመንጨት	-10955
▁ብርቱካን	-10956
▁ቁሳቁሶችን	-10957
በሬ	-10958
ብራይ	-10959
ክራል	-10960
▁59	-10961
ፀባረቅ	-10962
▁መውደ	-10963
▁ተጠብ	-10964
▁ከእነ	-10965
▁ውበት	-10966
▁ጎልቶ	-10967
▁ማለፉን	-10968
▁ሲጀመር	-10969
▁እናቶች	-10970
▁የተቀረ	-10971
▁የተዘረ	-10972
▁ምግባርና	-10973
▁በማረሚያ	-10974
▁በማከናወን	-10975
▁የአሜሪካው	-10976
▁በኤሌክትሪክ	-10977
ግቡ	-10978
ፍሉ	-10979
፣በ	-10980
org	-10981
ጫወቻ	-10982
ደኝነት	-10983
▁አዳራ	-10984
▁ፍሳሽ	-10985
▁በተገኘ	-10986
▁ያደርጉ	-10987
▁ለሚፈልጉ	-10988
▁ሰራተኞቹ	-10989
▁በመጨመር	-10990
▁ከስምንት	-10991
▁የሚጠቀስ	-10992
▁ጠቁመው፤	-10993
▁ሊያስከትል	-10994
▁በስምምነት	-10995
▁ተመላክቷል	-10996
▁የሚያገለግሉ	-10997
ኗቸው	-10998
ግመው	-10999
▁ጳጉ	-11000
▁እራሱን	-11001
ፀባ	-11002
ቴዎስ	-11003
▁3.	-11004
▁ለፋ	-11005
▁የኛ	-11006
ማኑኤል	-11007
▁800	-11008
▁መጠይ	-11009
▁የፆታ	-11010
▁ዴቪድ	-11011
▁አገርን	-11012
▁ዲጂታል	-11013
▁የሚመጣው	-11014
▁እንዲቋረጥ	-11015
▁ከመከላከያ	-11016
ሪኩ	-11017
ቶ፣	-11018
ገነዘ	-11019
▁ይር	-11020
▁ቁርጥ	-11021
▁በአፍ	-11022
▁ሸቀጦች	-11023
▁ትንበያ	-11024
▁እንጨት	-11025
▁የአጥቂ	-11026
▁ጥርጥር	-11027
▁ቻምፒዮን	-11028
▁የሚቀጥል	-11029
▁የመግባቢያ	-11030
09	-11031
ስላሴ	-11032
▁ቅመ	-11033
▁አሽ	-11034
▁ኳሱን	-11035
▁ጅቡቲ	-11036
▁ፕሬዘ	-11037
▁ተስተካ	-11038
▁ከመጠን	-11039
▁ከአመት	-11040
▁አስታውቆ	-11041
▁የድንጋይ	-11042
▁ፌዴራላዊ	-11043
▁የሚከተሉት	-11044
▁እንደነበር፣	-11045
በረክ	-11046
▁ልማድ	-11047
▁መጓዝ	-11048
▁የከረ	-11049
▁ጨርሶ	-11050
▁በመቐለ	-11051
▁በቀድሞ	-11052
▁ጨምሮ፣	-11053
▁ፍልስጤ	-11054
▁መገንዘብ	-11055
▁የተላለፈ	-11056
▁በመጥቀስ፣	-11057
▁ተቃዋሚዎች	-11058
▁ኩባንያዎቹ	-11059
▁አገልግለዋል	-11060
88	-11061
ልባ	-11062
▁መቀሌ	-11063
▁መኝታ	-11064
▁ስለአ	-11065
▁በገለ	-11066
▁ላላቸው	-11067
▁አንተነህ	-11068
▁እንዲታይ	-11069
▁የሚገኝበት	-11070
▁አስተላልፏል	-11071
ህገ	-11072
ረገ	-11073
ቴና	-11074
▁ትው	-11075
▁ትርኢ	-11076
▁ይወሰ	-11077
▁ተከራክ	-11078
▁ተፈላጊ	-11079
▁የማሻሻያ	-11080
▁አብራርቷል	-11081
ህትና	-11082
ሪያን	-11083
ዋወቅ	-11084
▁ጨለማ	-11085
▁የውሀ፣	-11086
▁ያገለግ	-11087
▁አገራችን	-11088
▁ከሳምንት	-11089
▁ኮሚቴዎች	-11090
▁ተሰማርተው	-11091
im	-11092
▁ቢስ	-11093
▁ለጤና	-11094
▁ከሳጥን	-11095
▁ከጉዳት	-11096
▁የሚያን	-11097
▁መገባደጃ	-11098
▁የሚፈልጉትን	-11099
ሾም	-11100
▁መዝሙ	-11101
▁አክራ	-11102
▁መዋእለ	-11103
▁መደገፍ	-11104
▁ተደንግ	-11105
▁ክትባት	-11106
▁የተካተቱ	-11107
▁ሀላፊዎችና	-11108
▁በሀላፊነት	-11109
ሰቃ	-11110
ውሎ	-11111
ደቡብ	-11112
ዳደር	-11113
▁አዱ	-11114
▁ማደግ	-11115
▁ከመጣ	-11116
▁ሊሰጠው	-11117
▁መልክአ	-11118
▁የሶስቱ	-11119
▁አባላት፣	-11120
▁እየሰራን	-11121
▁እየቀረበ	-11122
▁ኪንግደም	-11123
▁ከሪፖርተር	-11124
▁ከእንግዲህ	-11125
ቦታው	-11126
▁ለዳ	-11127
ራዊነት	-11128
▁መደም	-11129
▁በማለ	-11130
▁ክቡር	-11131
▁ዳኛው	-11132
▁የተቋሙ	-11133
▁በተደረጉ	-11134
▁ነዋሪዎቹ	-11135
▁ከመጀመሩ	-11136
▁በዋነኛነት	-11137
▁የሚገልፀው	-11138
oc	-11139
ኒስቴር	-11140
▁1-1	-11141
▁ምደባ	-11142
▁እየሞ	-11143
▁ከመቀ	-11144
▁የጨረ	-11145
▁አለብኝ	-11146
▁የካቢኔ	-11147
▁ስለሚያስ	-11148
▁በመጋቢት	-11149
▁አያውቅም	-11150
▁እየተሰሩ	-11151
▁በመሰብሰብ	-11152
▁የእርስዎን	-11153
64	-11154
መጣም	-11155
ድራል	-11156
▁ሊሰሩ	-11157
▁መትቶ	-11158
▁መፈጠ	-11159
▁ቶማስ	-11160
▁አዳም	-11161
▁ኮንጎ	-11162
▁መብትና	-11163
▁በሆኑት	-11164
▁ተሸላሚ	-11165
▁አለበት፤	-11166
▁የሰራዊት	-11167
▁የገቢዎች	-11168
▁ጉዳያቸው	-11169
▁ተስማምተዋል	-11170
▁የሚከተሉትን	-11171
ፊዎች	-11172
▁in	-11173
▁ቅጣ	-11174
▁ማእድ	-11175
▁ሜዳው	-11176
▁ምኞት	-11177
▁ትንሳኤ	-11178
▁ሀዋርያው	-11179
▁በድርድር	-11180
▁ግብጠባቂ	-11181
▁እንዳደረገ	-11182
▁በቤኒሻንጉል	-11183
▁እንደሚወስድ	-11184
▁እንደሚጀመር	-11185
▁ህመ	-11186
▁ሰራተ	-11187
▁ቀይሮ	-11188
ጣሚያቸው	-11189
▁የፕሬስ	-11190
▁ለመለወጥ	-11191
▁ለመቆየት	-11192
▁ስፖርታዊ	-11193
▁እንደመጣ	-11194
▁መተዳደሪያ	-11195
ሎች፣	-11196
መናን	-11197
ያዙት	-11198
▁የሊዝ	-11199
▁ለመላው	-11200
▁ቀድመው	-11201
▁ኤርፖር	-11202
▁ዘግይቶ	-11203
▁ተሰጥቶት	-11204
▁ዝግጅቱን	-11205
▁የማይችል	-11206
▁በመቀጠልም	-11207
▁የተሽከርካሪ	-11208
ዮተ	-11209
ምነው	-11210
ሬትስ	-11211
ሻለቃ	-11212
ባባስ	-11213
ብሄረ	-11214
ፎይታ	-11215
▁ለቀጣ	-11216
▁ስቃይ	-11217
▁አፋር	-11218
ሊፎርኒያ	-11219
ከፈላቸው	-11220
▁አማካዩ	-11221
▁ወልዲያ	-11222
▁ዳያስፖራ	-11223
▁የአገራችን	-11224
▁የኤጀንሲው	-11225
▁ኢንቨስተሮች	-11226
▁የሚያገለግል	-11227
ፔን	-11228
ሏለም	-11229
ውነት	-11230
▁and	-11231
▁ስብስ	-11232
▁በመዋ	-11233
▁የእሱ	-11234
▁የጂኦ	-11235
▁ማሳወቅ	-11236
▁ብለው፣	-11237
▁የጎዳና	-11238
▁ገቢዎችና	-11239
ም፥	-11240
ብዎት	-11241
▁የሟ	-11242
▁ስንት	-11243
▁የድል	-11244
▁የግንባ	-11245
74	-11246
ከሳ	-11247
ፋለች	-11248
ከፈተው	-11249
ጋጠመው	-11250
▁ታዳሚ	-11251
▁እርቅ	-11252
▁እንዴ	-11253
▁ሀይልን	-11254
▁መንበር	-11255
▁የተለዩ	-11256
▁ህይወቱን	-11257
ሰም	-11258
ክሪ	-11259
ቸዉን	-11260
ካከር	-11261
▁ተክ	-11262
▁ያጣ	-11263
ራሚዎች	-11264
ሰበሰብ	-11265
ከሰተው	-11266
▁ነፍስ	-11267
▁በሀይሉ	-11268
▁ከመሀል	-11269
▁ጄነራል	-11270
fanabc	-11271
▁ስለመሆኑም	-11272
▁በኦሮሚያና	-11273
▁የነበረችው	-11274
ለሽ	-11275
ኋን	-11276
ንጭ	-11277
ክራሉ	-11278
ፈርስ	-11279
ሰቀሰው	-11280
▁ወቀሳ	-11281
▁2005	-11282
▁ለማልማት	-11283
▁በመሳተፍ	-11284
▁የጋምቤላ	-11285
▁ኢንተርፕራይዞች	-11286
ተሩ	-11287
ፌኮ	-11288
ዲያን	-11289
▁ጊዜና	-11290
▁በቅድመ	-11291
▁በቡድኑ	-11292
▁አስመራ	-11293
▁እስከመ	-11294
▁ድልድይ	-11295
▁ለመሙላት	-11296
▁እንዲቆይ	-11297
▁ሎጂስቲክስ	-11298
ew	-11299
ቆና	-11300
ዝያ	-11301
ገደዱ	-11302
▁የቶ	-11303
▁የክር	-11304
▁የዱር	-11305
▁ከጨዋታ	-11306
▁ለስድስት	-11307
▁መርከቦች	-11308
▁በማድረስ	-11309
▁በሳምንት	-11310
▁የማይችሉ	-11311
▁አለመቻሉን	-11312
▁አሰራሮችን	-11313
▁ማስተላለፊያ	-11314
ልዩ	-11315
ዳችሁ	-11316
▁ሲኖር	-11317
▁በሰነ	-11318
▁ቦምብ	-11319
▁አልታ	-11320
▁የአሳ	-11321
▁መዝናኛ	-11322
▁ቅርሶች	-11323
▁በእናንተ	-11324
▁የመሰረት	-11325
▁የነፃነት	-11326
▁ሰብሳቢነት	-11327
▁ሲንቀሳቀስ	-11328
ip	-11329
ሩትን	-11330
ደነገ	-11331
ወትሮው	-11332
ጠብቀው	-11333
▁መመረ	-11334
▁መስኮ	-11335
ሰቦቻቸው	-11336
ፕቴምበር	-11337
▁ማዘጋጀ	-11338
▁ክህሎት	-11339
▁የገለፀ	-11340
▁ያውቃል	-11341
▁ፋውንዴሽን	-11342
ow	-11343
በጥ	-11344
ቃለል	-11345
ከፍት	-11346
▁ብስ	-11347
▁ኦር	-11348
▁ወለደ	-11349
▁የአብ	-11350
ካሄደውን	-11351
▁በማየት	-11352
▁ንፅህና	-11353
▁ወክለው	-11354
▁ያለውና	-11355
▁እንዲሰፍን	-11356
▁እንደነበርና	-11357
ማርክ	-11358
ራመድ	-11359
ደጋው	-11360
▁ኤች	-11361
▁ኢያሱ	-11362
▁ገጭቶ	-11363
▁ጭፍጨ	-11364
▁መገርሳ	-11365
▁ሰልፎች	-11366
▁አምልኮ	-11367
▁ወንዞች	-11368
▁ሁለቱንም	-11369
▁ሚንስትሩ	-11370
▁በእውነቱ	-11371
▁ግብአቶችን	-11372
▁ስልጣናቸውን	-11373
ቀረው	-11374
ፁሀን	-11375
▁ከን	-11376
ቻችሁን	-11377
▁መቻል	-11378
▁መቆየቱ	-11379
▁አብደላ	-11380
▁የአቋም	-11381
▁በመቶዎች	-11382
▁የሚያወጣ	-11383
▁ሙከራዎችን	-11384
▁በተያያዘም	-11385
▁እየተፈፀመ	-11386
▁ገብረሚካኤል	-11387
:-	-11388
ሲም	-11389
▁የኒ	-11390
▁መሰዊ	-11391
▁ተቀና	-11392
▁ሌላውን	-11393
▁ቻምፒዮና	-11394
▁በነበሩበት	-11395
."	-11396
ሰናል	-11397
ሳትና	-11398
▁ሰሎ	-11399
▁ፊደ	-11400
▁ማከማ	-11401
▁አስፈሪ	-11402
▁እንግል	-11403
▁የተመራ	-11404
▁የፀሀይ	-11405
▁ጥሪውን	-11406
▁በቀጣዮቹ	-11407
▁ሁለተኛውን	-11408
▁ኢኮኖሚያዊና	-11409
ራና	-11410
ዊን	-11411
▁ሰፍ	-11412
▁ውር	-11413
ሌቲክስ	-11414
ያዛቸው	-11415
▁በምና	-11416
▁ቢቂላ	-11417
▁ኢራን	-11418
▁ጠያቂ	-11419
▁ክህደት	-11420
▁የትኛውም	-11421
▁ምንተስኖት	-11422
ችሎት	-11423
▁ክሬ	-11424
ቂያዎች	-11425
▁ለእሱ	-11426
▁አስታ	-11427
ፌደሬሽን	-11428
▁በበለጠ	-11429
▁አልቀረ	-11430
▁ከባንክ	-11431
▁ሲያቀርቡ	-11432
▁የፈጠረው	-11433
▁ከተመሰረተ	-11434
ከሙ	-11435
▁ጉም	-11436
ረዳቸው	-11437
ሰባሰቡ	-11438
▁ለቤት	-11439
▁ልጁን	-11440
▁ሰርተ	-11441
▁ዘለቀ	-11442
ብራይስጥ	-11443
▁ከሰሜን	-11444
▁የሚነሳ	-11445
▁የተጫዋቾች	-11446
▁መጀመራቸውን	-11447
▁አሰልጣኝነት	-11448
ter	-11449
ርክና	-11450
ኖበታል	-11451
▁ተዘዋ	-11452
▁የተጣለ	-11453
▁የሚጠይቁ	-11454
▁መልእክተኛ	-11455
▁እንዲጠቀሙ	-11456
ኤች	-11457
ዛዥ	-11458
ታለሁ	-11459
ጋለጥ	-11460
▁ለክ	-11461
▁ይጥ	-11462
ራችንን	-11463
ያዝነው	-11464
▁መረራ	-11465
▁ሯንዳ	-11466
▁ወላጆ	-11467
▁ጨርቃ	-11468
▁መኩሪያ	-11469
▁በክብር	-11470
▁አስቆጣ	-11471
▁ቢያደርጉ	-11472
▁እየተባባ	-11473
▁ይደነግጋል	-11474
▁በመካከላቸው	-11475
76	-11476
79	-11477
ሱበት	-11478
ፈላለ	-11479
▁ነቅ	-11480
▁ደጀ	-11481
ቀመጡት	-11482
▁ማቀነ	-11483
▁በደረ	-11484
▁በመተው	-11485
▁ቢኖሩም	-11486
▁ቤተሰቡ	-11487
▁ይሄዳል	-11488
▁ድህነት	-11489
▁የመክፈቻ	-11490
▁የተሰራው	-11491
ምባሆ	-11492
ባኖስ	-11493
ከንድ	-11494
▁እባ	-11495
ሰራበት	-11496
▁ለህዝ	-11497
▁ነጠላ	-11498
▁የትም	-11499
▁2000	-11500
▁ህዝቡም	-11501
▁አማርኛ	-11502
▁አብረን	-11503
▁መዝገቦች	-11504
▁ማጠናቀቅ	-11505
▁የሰማያዊ	-11506
▁እንደሚለው	-11507
▁ያስተናገደው	-11508
ወጠ	-11509
ጤን	-11510
ቃወሙ	-11511
ናትና	-11512
▁52	-11513
ፈጠሩት	-11514
▁ከነገ	-11515
▁ጁንታ	-11516
▁ቦታውን	-11517
▁የሚተገ	-11518
▁ባለሙያዎቹ	-11519
▁የተመረጡት	-11520
▁መገደላቸውን	-11521
▁ተወዳዳሪዎች	-11522
")	-11523
ጠራቀ	-11524
▁ሼክ	-11525
▁ንድፍ	-11526
▁ደሞዝ	-11527
▁ሀውልት	-11528
▁ባይሆን	-11529
▁የዲጂታል	-11530
▁ያወጣውን	-11531
▁መሆናቸውን፣	-11532
▁በማስመዝገብ	-11533
▁፥	-11534
ቁመው	-11535
ብኛል	-11536
ስርአት	-11537
በርከት	-11538
▁ማሰራ	-11539
▁የእነ	-11540
ያስፖራው	-11541
▁በአመራ	-11542
▁ብረትና	-11543
▁ተዋናይ	-11544
▁እቅዱን	-11545
▁የጥላቻ	-11546
▁የተሾሙት	-11547
▁ለማስተዋወቅ	-11548
ቢው	-11549
መርቱ	-11550
▁በቪ	-11551
▁በአላት	-11552
▁አክሊሉ	-11553
▁የፈለጉ	-11554
▁ጣቢያው	-11555
▁በማምጣት	-11556
▁አባጅፋር	-11557
▁አክብሮት	-11558
▁ተደራሽነት	-11559
▁ተመራማሪዎች	-11560
▁ገረ	-11561
▁መውጫ	-11562
▁ይመራ	-11563
▁አቀረቡ	-11564
▁የይሆዋ	-11565
▁ለውይይት	-11566
▁መቆራረጥ	-11567
▁በድንበር	-11568
▁ገበያውን	-11569
ረታው	-11570
ድርግ	-11571
ሬሽኖች	-11572
▁ከጤና	-11573
▁ይመር	-11574
መዘገበው	-11575
▁በሚኖሩ	-11576
▁ከፀጥታ	-11577
▁የአፈር	-11578
▁ገበየሁ	-11579
▁ጤንነት	-11580
▁መርሀግብር	-11581
▁የአትክልት	-11582
▁ለመከላከልና	-11583
▁ኢንተርፕራይዝ	-11584
ce	-11585
cor	-11586
ሜናዊ	-11587
ጉዳዩ	-11588
▁አከራ	-11589
▁መምረጥ	-11590
▁ተራሮች	-11591
▁አሸባሪ	-11592
▁የስንዴ	-11593
▁የተላከ	-11594
▁ድክመት	-11595
ገቱ	-11596
ግቶ	-11597
ፈሻ	-11598
▁ከሱ	-11599
▁በማዳ	-11600
▁በውል	-11601
▁አጋዥ	-11602
▁እአአ	-11603
▁ከኋላ	-11604
▁ጅምር	-11605
▁በሳኡዲ	-11606
▁መዋቅራዊ	-11607
▁በመግዛት	-11608
▁በመፍታት	-11609
▁በመጨረሻው	-11610
ኩትን	-11611
▁ሲቲ	-11612
▁ማስገባ	-11613
▁ሱራፌል	-11614
▁በጅምላ	-11615
▁ያሳየው	-11616
▁ታዛቢዎች	-11617
▁እንዲፈፅ	-11618
▁እየፈጠረ	-11619
▁ይችላል፤	-11620
ያሪ	-11621
ያዩ	-11622
▁በጌ	-11623
ባችንን	-11624
ገናዘበ	-11625
▁የሰበ	-11626
▁ድጋፉ	-11627
▁በመረጃ	-11628
▁በውሳኔ	-11629
▁የታጠቁ	-11630
▁የእለቱ	-11631
▁የጨርቃ	-11632
▁ተንታኞች	-11633
▁የወሰደው	-11634
▁እንደተጠበቀ	-11635
ሾሙ	-11636
ኸው	-11637
በሮች	-11638
ፈቀዱ	-11639
▁ዲና	-11640
▁መጠና	-11641
▁በመቅ	-11642
▁የማት	-11643
▁የቅን	-11644
▁ይገለ	-11645
▁በነዳጅ	-11646
▁ግብነት	-11647
▁ተፈፅሟል	-11648
▁የአረንጓዴ	-11649
▁ለማስተላለፍ	-11650
▁አሽከርካሪዎች	-11651
ኖረን	-11652
ገጣፎ	-11653
▁መደበ	-11654
▁ቃጠሎ	-11655
▁የሚለ	-11656
▁ፅፏል	-11657
▁ተከተል	-11658
▁ንግስት	-11659
▁አስከት	-11660
▁አልባሳት	-11661
▁የተደገፈ	-11662
▁አስተናግዶ	-11663
▁ስትራቴጂካዊ	-11664
ብ፣	-11665
▁ለየ	-11666
▁ርስት	-11667
▁ሲመጡ	-11668
▁ክህሎ	-11669
▁የቀረው	-11670
▁ቡድኖችን	-11671
▁እንደማይገባ	-11672
▁እያንዳንዱን	-11673
ዘዙ	-11674
ገጣጠ	-11675
▁በሚሊ	-11676
▁አይቀ	-11677
▁የመሸ	-11678
▁በአልን	-11679
▁ትናንሽ	-11680
▁ክትትልና	-11681
▁ስብሰባውን	-11682
▁እንዲቋቋም	-11683
▁የላቦራቶሪ	-11684
ስቦ	-11685
ቃቅ	-11686
ህነግ	-11687
ማኝነት	-11688
▁ማራዘ	-11689
▁ከጥር	-11690
▁የልም	-11691
▁የቫይ	-11692
▁ለማዳን	-11693
▁አስመስ	-11694
▁ለመስማት	-11695
▁ቅሬታዎች	-11696
▁እንዲህም	-11697
▁ለማስፋፋት	-11698
▁የተጠናቀቀ	-11699
ኸር	-11700
ረዳን	-11701
ደናቀ	-11702
▁56	-11703
▁ሳር	-11704
▁ፖር	-11705
▁በወረ	-11706
▁አሟል	-11707
▁አስጨ	-11708
▁ኤርት	-11709
▁የሌለ	-11710
▁ጠይቆ	-11711
▁በአስተ	-11712
▁እንደማት	-11713
▁እየተዘጋጀ	-11714
150	-11715
መሰል	-11716
▁ሽፋ	-11717
ሚኒየም	-11718
▁ሆይ፥	-11719
▁ለባን	-11720
▁ላሉት	-11721
▁በመለ	-11722
▁የለሽ	-11723
▁የእስ	-11724
▁ማጣርያ	-11725
▁አንበጣ	-11726
▁የማያስ	-11727
▁ፈጥረው	-11728
▁ሪፖርት፣	-11729
▁የአረቦን	-11730
▁የአንበጣ	-11731
▁በሚያደርገው	-11732
ዘርጋ	-11733
▁St	-11734
▁ሽያ	-11735
▁አዙ	-11736
▁ፅጌ	-11737
▁ቁጥሩ	-11738
▁በአቻ	-11739
▁የቀኝ	-11740
▁የአክ	-11741
▁የዘረ	-11742
▁እየተቀ	-11743
▁በመመለስ	-11744
▁ለትምህርት	-11745
▁መመርያዎች	-11746
▁ኢትዮጵያውያንን	-11747
ማ፣	-11748
ሬዷ	-11749
ንግል	-11750
▁ባት	-11751
▁195	-11752
▁The	-11753
▁መከል	-11754
▁ምስጢ	-11755
▁ከልብ	-11756
▁ፀባይ	-11757
▁የሳኡዲ	-11758
▁ይጠናቀቃል	-11759
ጨረስ	-11760
ስተዋው	-11761
▁ሀያል	-11762
▁መዘጋ	-11763
▁መልሰው	-11764
▁መራጮች	-11765
▁ግድብን	-11766
▁ሊጠናቀቅ	-11767
▁በመምታት	-11768
▁ወደፊትም	-11769
▁የሚያነሳ	-11770
▁የተበላሸ	-11771
▁ነዋሪዎችን	-11772
▁አስፈፃሚዎች	-11773
ኪን	-11774
ያኔ	-11775
ብላጫ	-11776
ተሚያ	-11777
ዝቃዛ	-11778
▁ዊል	-11779
2002	-11780
ገንዘቡ	-11781
▁መያዣ	-11782
▁የገና	-11783
▁ዮርክ	-11784
▁መብትን	-11785
▁የሚሄዱ	-11786
▁ባዘጋጀው	-11787
▁አሳይተዋል	-11788
▁እንደማያስ	-11789
▁መቆየታቸውን	-11790
▁95	-11791
▁ጥሎ	-11792
ቅርቦት	-11793
▁መነቃ	-11794
▁አወል	-11795
▁የሆቴ	-11796
▁ጠርዝ	-11797
▁ምርጫን	-11798
▁ናቸው፣	-11799
▁የተወለ	-11800
▁ልጆቻቸው	-11801
▁በጀርመን	-11802
▁ተዋናዮች	-11803
▁መፈፀማቸውን	-11804
▁ባለሀብቶችን	-11805
ወስን	-11806
ስለዚህ	-11807
ስተካከ	-11808
ጫወቱት	-11809
▁እየመራ	-11810
▁ከሀላፊ	-11811
▁የሚሄድ	-11812
▁የችግኝ	-11813
▁ያስገባ	-11814
▁በሚጠራው	-11815
▁መግለፃቸው	-11816
▁ይገባቸዋል	-11817
ቸገር	-11818
ዋኢማ	-11819
▁ድህ	-11820
ቆጣጠሩ	-11821
▁እምቅ	-11822
▁አድርጉ	-11823
▁ውድቀት	-11824
▁የወለድ	-11825
▁ሻምፒዮና	-11826
▁ቫይረስን	-11827
▁ታማኝነት	-11828
▁እንሰራለን	-11829
▁እንዳልቻሉ	-11830
▁ከባለድርሻ	-11831
▁ከተጠናቀቀ	-11832
▁የሚያቀርብ	-11833
ዋም	-11834
ይዘው	-11835
ፈተሽ	-11836
▁ብና	-11837
▁ዳዊ	-11838
ሏቸዋል	-11839
▁በዘር	-11840
▁መቆየት	-11841
▁በህንድ	-11842
▁ከክልል	-11843
▁በተጨባጭ	-11844
▁በጦርነቱ	-11845
▁ከተማዋን	-11846
▁የተደራጁ	-11847
▁የግድቡን	-11848
▁እንዳልቻለ	-11849
▁በማስተባበር	-11850
ጂብ	-11851
▁ተሹ	-11852
ፈናቀሉ	-11853
▁700	-11854
▁በቡና	-11855
▁አላስ	-11856
▁ሲስተም	-11857
▁በደብረ	-11858
▁ብርሀነ	-11859
▁ከመሬት	-11860
▁ወደዚያ	-11861
▁የተማሪ	-11862
▁ያውቃሉ	-11863
▁ፀሀፊው	-11864
▁በከተሞች	-11865
▁እንዲመራ	-11866
▁የማስተዳደር	-11867
▁የባለቤትነት	-11868
ዲሪ	-11869
▁=	-11870
ስቲቫ	-11871
ዛወር	-11872
ድረሱ	-11873
ጋዴር	-11874
▁ማል	-11875
▁ረፋ	-11876
▁ቢን	-11877
▁የአካ	-11878
▁ጠየቀ	-11879
▁ምስሎች	-11880
▁አስፋው	-11881
▁እርከን	-11882
▁የይሁዳ	-11883
▁ለተወሰነ	-11884
▁በመሰረተ	-11885
▁አንስተው	-11886
▁የስብሰባ	-11887
▁የተፈጠሩ	-11888
ለፋ	-11889
ሪቲ	-11890
ኤታ	-11891
ሰበት	-11892
ፎርድ	-11893
▁በፌ	-11894
ራቸዋል	-11895
▁አዋጭ	-11896
▁ያክል	-11897
▁አከናው	-11898
▁የትኩረት	-11899
▁አንድነትን	-11900
▁ከመሆናቸው	-11901
ሳም	-11902
ጦሽ	-11903
ደሰቱ	-11904
ጨመሩ	-11905
▁ሳሊ	-11906
▁ምዘና	-11907
▁ሲወጡ	-11908
▁ስሞች	-11909
▁ግብይ	-11910
▁ሊፈጠር	-11911
▁ተጀምሮ	-11912
▁ችላለች	-11913
▁ከረጅም	-11914
▁የተረከ	-11915
▁ግድግዳ	-11916
▁ትሬዲንግ	-11917
▁የእርስዎ	-11918
▁የፍጥነት	-11919
▁ገፃችንን	-11920
▁ለአካባቢው	-11921
▁በማእከላዊ	-11922
▁እንዳይገቡ	-11923
▁የሚመለከቱ	-11924
▁የሶስትዮሽ	-11925
▁ግንኙነቶች	-11926
▁በጊዜያዊነት	-11927
▁V	-11928
ቋርጥ	-11929
ወልድ	-11930
▁4.	-11931
▁ጃኮ	-11932
ደበኛው	-11933
▁ሆኖ፣	-11934
▁ማይል	-11935
▁ሲነሳ	-11936
▁ኦማር	-11937
/2011	-11938
▁ተቀዳሚ	-11939
▁ከምንም	-11940
▁በሚሊዮን	-11941
▁በወላይታ	-11942
▁በዝቅተኛ	-11943
▁እድገትና	-11944
▁ፕሮግራሙ	-11945
▁በተቀመጠው	-11946
▁እንዲቀንስ	-11947
▁ሲን	-11948
▁ሀምሳ	-11949
▁ለሞት	-11950
▁እንጅ	-11951
▁ይከፍ	-11952
ስትራቴጂ	-11953
▁ሁኔታ፣	-11954
▁ወታደር	-11955
▁የፈረን	-11956
▁ጥሰቶች	-11957
▁አብዮታዊ	-11958
▁በመስከረም	-11959
▁የሚያስገድ	-11960
ኝ፣	-11961
ደሩት	-11962
ገገሙ	-11963
▁51	-11964
▁ፓስ	-11965
መዘግብ	-11966
▁መጨና	-11967
▁ብዝሀ	-11968
▁ታሪኩ	-11969
▁የሚጣ	-11970
ረጋገጠው	-11971
▁መሞከር	-11972
▁በጥራት	-11973
▁ተቀናቃ	-11974
▁ይዘዋል	-11975
▁በአንቀፅ	-11976
▁በግለሰብ	-11977
▁ተከትለው	-11978
▁የሚገነቡ	-11979
▁ግልፅነት	-11980
▁በቀዳሚነት	-11981
▁እየተገነባ	-11982
የቀ	-11983
በላሹ	-11984
ዶቹን	-11985
▁ቁጭ	-11986
ሳተፉት	-11987
▁መጠነ	-11988
▁አቤቤ	-11989
▁ፍቅሩ	-11990
▁መግለፁ	-11991
▁ለመልቀቅ	-11992
▁ክፍያዎች	-11993
▁ያስቆጠረ	-11994
▁ይደርሳል	-11995
▁የነበራቸውን	-11996
ሶር	-11997
▁ጮ	-11998
ለትና	-11999
ቅረቡ	-12000
ወቅቱ	-12001
▁የጆ	-12002
▁ሁሉ፣	-12003
▁ሰብል	-12004
▁መቀዛቀ	-12005
▁በነሀሴ	-12006
▁ማስቀጠል	-12007
▁የሚከፈል	-12008
▁የማይቻል	-12009
▁ጠባቂዎች	-12010
▁እየተስፋፋ	-12011
▁የመቆጣጠር	-12012
▁እንዳስታወቁት	-12013
ገናል	-12014
cast	-12015
▁ጠንክ	-12016
▁አገላለ	-12017
▁አግዳሚ	-12018
▁በበሽታው	-12019
▁ምክንያትም	-12020
▁ጊዮርጊሶች	-12021
BC	-12022
ኒካል	-12023
ከሪም	-12024
ዳለች	-12025
ጥበት	-12026
▁ባሰ	-12027
▁ካሌ	-12028
▁ፆታ	-12029
ጆቻቸው	-12030
▁ማዋል	-12031
▁ሁኔታና	-12032
▁ምስክሮ	-12033
▁ሞሀመድ	-12034
▁በሶስቱ	-12035
▁መዛሙርቱ	-12036
▁ይወስዳል	-12037
▁የሚቀርበው	-12038
ሽቱ	-12039
ና፤	-12040
ዛር	-12041
ጉባኤ	-12042
▁ማዶ	-12043
▁የጊ	-12044
ሰበሰበ	-12045
▁በቁር	-12046
▁አላህ	-12047
▁በአንተ	-12048
▁የቤቶች	-12049
▁ደንቦች	-12050
▁በማቋቋም	-12051
▁በትክክለ	-12052
▁ከመጋቢት	-12053
▁በመመልከት	-12054
ቀቀ	-12055
ዳዊ	-12056
ጋባ	-12057
ber	-12058
ለቀው	-12059
የንስ	-12060
ይህን	-12061
ባውያን	-12062
ኖርዌይ	-12063
▁ረቂቁ	-12064
▁አመለ	-12065
▁አደም	-12066
▁እክል	-12067
▁ከምርጫ	-12068
▁በጦርነት	-12069
▁በማሰባሰብ	-12070
ጋኒ	-12071
ርቻሮ	-12072
በጀት	-12073
ኖቹን	-12074
ፉበት	-12075
▁ሊተ	-12076
▁አጨ	-12077
እናንተ	-12078
▁መሀን	-12079
▁አዋቂ	-12080
▁የስጋ	-12081
▁ሳይንቲ	-12082
▁በእርሻ	-12083
▁እስካል	-12084
▁ጠረጴዛ	-12085
▁ስህተቶች	-12086
▁ለመወያየት	-12087
▁የተደረገበት	-12088
95	-12089
ደንቅ	-12090
ሟቸውን	-12091
▁ለራሱ	-12092
▁ከለላ	-12093
▁ስላልተ	-12094
▁በፃፈው	-12095
▁ቢሮዎች	-12096
▁ተናጋሪ	-12097
▁የጥበቃ	-12098
▁ሰንጠረዥ	-12099
▁ድርጅቶቹ	-12100
▁ሚኒስትሩን	-12101
▁ከአጠቃላይ	-12102
▁ምሰ	-12103
▁በሪ	-12104
መረምር	-12105
▁መሻሻ	-12106
▁ስንታ	-12107
▁በቃል	-12108
▁በመሆኗ	-12109
▁አሏቸው	-12110
▁ኬሚካል	-12111
▁የግጭት	-12112
▁በክረምቱ	-12113
▁አፍሪካዊ	-12114
▁እየደረሰ	-12115
▁ተናግራለች	-12116
▁ወረርሽኙን	-12117
ችሉት	-12118
ዘሩት	-12119
ያዎቹ	-12120
ጋገብ	-12121
▁88	-12122
▁በለጠ	-12123
▁ናትና	-12124
▁ፈፃሚ	-12125
ፕሮፌሰር	-12126
▁በማደግ	-12127
▁አገናኝ	-12128
▁የሚከለ	-12129
በኢትዮጵያ	-12130
▁አለመኖሩ	-12131
▁የሁለቱም	-12132
▁ያሏቸውን	-12133
▁ኮሙኒኬሽን	-12134
ist	-12135
ቶሊክ	-12136
ዋለን	-12137
▁ላቀ	-12138
▁ሞላ	-12139
▁ስው	-12140
▁በቻ	-12141
ረዳው፣	-12142
ጠናቅቅ	-12143
▁ለአም	-12144
▁መቼም	-12145
▁በደም	-12146
▁ትንተ	-12147
▁አባላ	-12148
▁አፍቃ	-12149
▁ያመጣ	-12150
▁ጋብቻ	-12151
▁የተሰጡ	-12152
▁ድጋፎች	-12153
▁ማለታቸው	-12154
▁አዘጋጅቶ	-12155
▁ይገባል፤	-12156
▁መስተዳደር	-12157
▁እንዳይኖር	-12158
▁አሜሪካውያን	-12159
ጆችን	-12160
ፏቸው	-12161
▁ለሳ	-12162
▁አነጋ	-12163
▁የሴት	-12164
▁በተመሳ	-12165
▁በትንሹ	-12166
▁ከባንኩ	-12167
▁ድቻዎች	-12168
▁ሞክረዋል	-12169
▁ተግዳሮት	-12170
▁የሚካሄዱ	-12171
▁ሀላፊነቶች	-12172
▁የፕሬዚዳንት	-12173
ጮቹ	-12174
መዳን	-12175
ራዎች	-12176
ንያን	-12177
ኢአድ	-12178
▁ሞገ	-12179
▁ሳተ	-12180
▁ኤሊ	-12181
▁እማ	-12182
road	-12183
▁አመጣ	-12184
▁ብሄሮች	-12185
▁ከከፍተኛ	-12186
▁እስካሁንም	-12187
▁ከየትኛውም	-12188
▁የሚያስችለው	-12189
ማና	-12190
ጥሬ	-12191
▁ሊወጣ	-12192
▁መስሎ	-12193
▁አባቱ	-12194
ጠቃሚዎች	-12195
▁መገመት	-12196
▁በጉብኝ	-12197
▁ተቃራኒ	-12198
▁ጥቃቱን	-12199
▁ሌሎችንም	-12200
▁በማሻሻል	-12201
▁በእምነት	-12202
▁ሀላፊዎች፣	-12203
▁የፌዴሬሽኑ	-12204
▁የኮንትሮባንድ	-12205
ፁእ	-12206
▁68	-12207
▁በከ	-12208
▁የሬ	-12209
ንጀለኛ	-12210
▁(19	-12211
▁በዋጋ	-12212
▁ካለመ	-12213
▁የተሞ	-12214
▁ሁከትና	-12215
▁የተጣራ	-12216
▁የጥገና	-12217
▁ይሰራሉ	-12218
▁ዘመናቸው	-12219
▁የቡድኑን	-12220
▁አጠናክረው	-12221
▁የተጠየቁት	-12222
ካኔ	-12223
ንም፤	-12224
▁ይነ	-12225
▁ጠባብ	-12226
▁በማለፍ	-12227
▁በግሩም	-12228
▁የጂቡቲ	-12229
▁ጭፍጨፋ	-12230
▁የሚገባቸው	-12231
▁ለህብረተሰቡ	-12232
ሸፍ	-12233
ናፍ	-12234
ዴን	-12235
ቅያኖስ	-12236
▁በገባ	-12237
▁ከመን	-12238
▁የቋሚ	-12239
▁በጥቅሉ	-12240
▁የእቅድ	-12241
▁ለሚገኘው	-12242
▁ይችላል፣	-12243
▁እንመልከት	-12244
ሜትር	-12245
ፈረው	-12246
▁(1	-12247
ላችሁም	-12248
ተርማል	-12249
▁የሞቱ	-12250
▁በግጭቱ	-12251
▁የዛሬው	-12252
▁ይከናወ	-12253
▁ተጠባባቂ	-12254
▁እንዲመሩ	-12255
▁እንደተደረገ	-12256
-4	-12257
ምድና	-12258
ሰለፍ	-12259
▁መወ	-12260
▁ቀበ	-12261
▁ቀዶ	-12262
▁ተሽ	-12263
▁ፕሪ	-12264
▁እትም	-12265
▁መከናወ	-12266
▁በመጠቀ	-12267
▁በታላቅ	-12268
▁እስከተ	-12269
▁ወርሀዊ	-12270
▁ያለፉት	-12271
▁ይልቃል	-12272
▁ይገባሉ	-12273
▁ለመምረጥ	-12274
▁በሚደረጉ	-12275
ሊኮ	-12276
ሶ፣	-12277
ኳታር	-12278
የዜና	-12279
▁ጊኒ	-12280
▁ኪዳኔ	-12281
▁ያጠና	-12282
▁መስጠቱ	-12283
▁መነሳት	-12284
▁አስረክ	-12285
▁አለመቻሉ	-12286
▁አወቃቀር	-12287
▁የመግዛት	-12288
▁አድርጋለች	-12289
▁እንደሚኖሩ	-12290
▁እንዲወስድ	-12291
▁አገልግሎት፣	-12292
ሲብ	-12293
በክ	-12294
ጢፋ	-12295
▁ህልም	-12296
▁ህብረ	-12297
▁ባለሞ	-12298
▁አፈር	-12299
▁ይመረ	-12300
▁ጨዋነት	-12301
▁ራሳችንን	-12302
▁የጣሊያን	-12303
▁ማጭበርበር	-12304
▁የደረሰበት	-12305
roadcast	-12306
ይነር	-12307
▁ደጃ	-12308
▁ርምጃ	-12309
▁ከሰኔ	-12310
▁የቃል	-12311
▁ጉድለ	-12312
ንሻንጉል	-12313
▁እድሳት	-12314
▁የብቃት	-12315
▁ፍልሚያ	-12316
porate	-12317
▁መግባቱን	-12318
▁የሚያግዝ	-12319
▁የተያዘው	-12320
▁አስተዳደርን	-12321
▁የተሰጣቸውን	-12322
roadcasting	-12323
ምቢ	-12324
ሞቱ	-12325
ዎቿ	-12326
ኪዎች	-12327
▁72	-12328
ሪታኒያ	-12329
ሸነፈው	-12330
▁በእጁ	-12331
▁በውጤ	-12332
▁ያቀፈ	-12333
▁ወንድሜ	-12334
▁የሆቴል	-12335
▁ያመጣል	-12336
▁የክረምት	-12337
▁ያብራሩት	-12338
▁ጥቃቶችን	-12339
▁በተዘዋዋሪ	-12340
73	-12341
ኬድ	-12342
ዳኑ	-12343
ዶን	-12344
ጎድ	-12345
ቡበት	-12346
ኙነት	-12347
ገኛል	-12348
ዮሀንስ	-12349
▁በክል	-12350
▁ወተት	-12351
▁መፈለግ	-12352
▁በፊት፣	-12353
▁እርሱም	-12354
▁እየታዩ	-12355
▁ክልሉን	-12356
▁ጉድጓድ	-12357
▁እንዲጠናቀቅ	-12358
▁ኮንፌዴሬሽን	-12359
ኮስ	-12360
መርጡ	-12361
ብተው	-12362
▁ሽግ	-12363
▁ገፀ	-12364
▁ምግባ	-12365
▁ንዋይ	-12366
ከላካዮች	-12367
▁ተከታይ	-12368
▁አምስቱ	-12369
▁ኢንስፔ	-12370
▁የጉዳት	-12371
▁የጎርፍ	-12372
▁በቅርቡም	-12373
▁ተደራጅተው	-12374
▁እንዳሉት፣	-12375
▁የሚናገረው	-12376
▁መከላከያዎች	-12377
▁98	-12378
▁ከፈ	-12379
▁ሶከር	-12380
▁ማቅረቡ	-12381
▁ተከሳሹ	-12382
▁ገልጧል	-12383
▁ለራሳቸው	-12384
▁በማእድን	-12385
▁በመግለጫቸው	-12386
corporate	-12387
በዙ	-12388
ኝና	-12389
ዋሉ	-12390
ላዎች	-12391
ኛቸው	-12392
▁ጩኸ	-12393
""""	-12394
ሪዎችን	-12395
ብራቶሪ	-12396
▁መሆና	-12397
▁መጣጥ	-12398
▁ተዳር	-12399
▁ኬሚካ	-12400
▁ዱቄት	-12401
▁ጉዳቱ	-12402
▁ታሪኮች	-12403
▁የረዥም	-12404
▁የእስር	-12405
▁ጠንከር	-12406
▁ፓውንድ	-12407
▁በመክፈል	-12408
▁መከራከሪያ	-12409
▁በመተላለፍ	-12410
▁አልተሳካም	-12411
▁ለማስመዝገብ	-12412
ሁሉም	-12413
▁ከቡ	-12414
▁ነገሩ	-12415
▁አልፋ	-12416
▁አንቶ	-12417
▁የቦታ	-12418
▁ጉግሳ	-12419
▁ፋይል	-12420
▁በሰባት	-12421
▁ተገቢው	-12422
▁ስድስተኛ	-12423
▁በመንግስ	-12424
▁አውጥቷል	-12425
▁ከገንዘብ	-12426
▁የተገናኙ	-12427
▁የሚኖረውን	-12428
fanabroadcasting	-12429
ራሪ	-12430
ዛሉ	-12431
ፉም	-12432
ቆጠቡ	-12433
ገደብ	-12434
ጣልያን	-12435
▁እንባ	-12436
▁ያሳዩ	-12437
ኖራቸውም	-12438
▁ይሁንታ	-12439
▁ለመጠየቅ	-12440
▁አስፍሯል	-12441
▁የፈፀመው	-12442
▁ያስፈልጋ	-12443
▁እንደሚሰጡ	-12444
▁እንዲጨምር	-12445
▁የኢትዮጵያውያን	-12446
ዋ፣	-12447
በናል	-12448
አንተ	-12449
ፅዮን	-12450
▁ታጅ	-12451
ካሂደው	-12452
ዘጋጁት	-12453
ዶክተር	-12454
▁ማሰባ	-12455
▁ማዳን	-12456
▁የበዛ	-12457
▁ጅማሮ	-12458
▁ፑቲን	-12459
▁መወያየ	-12460
▁በተቋሙ	-12461
▁በዘለለ	-12462
▁ተወስዶ	-12463
▁አድርግ	-12464
▁ክልል፣	-12465
▁ይስተዋ	-12466
▁የማጣራት	-12467
▁የጎንደር	-12468
▁የሚደረግበት	-12469
99	-12470
▁ከጣ	-12471
▁ማሳደ	-12472
▁እግድ	-12473
▁መወሰን	-12474
▁በሀምሌ	-12475
▁እመቤት	-12476
▁እንግሊ	-12477
▁ይጠቀሙ	-12478
▁በተጓዳኝ	-12479
▁ተንቀሳቅ	-12480
▁እንደሚተ	-12481
▁አስቀድመው	-12482
▁ክፍተቶችን	-12483
ርጂ	-12484
ቃድ	-12485
▁ሀር	-12486
▁ከጋ	-12487
▁ገላ	-12488
1990	-12489
▁ቀመር	-12490
▁ቆይተው	-12491
▁ይውላል	-12492
▁የማምረቻ	-12493
▁በሀይማኖት	-12494
▁እንደሚያቀርብ	-12495
ቃዊ	-12496
ካሪ	-12497
ዞታ	-12498
ፖሊ	-12499
ላጎት	-12500
ስትሮ	-12501
ምንታት	-12502
▁ቀልጣፋ	-12503
▁ደርሰው	-12504
▁በሚደርስ	-12505
▁በየቦታው	-12506
▁የፊታችን	-12507
eb	-12508
ዋኔ	-12509
ዶስ	-12510
ፌዲሪ	-12511
▁በበረ	-12512
▁ነቢያ	-12513
▁ማይክሮ	-12514
▁ተምሳሌ	-12515
▁አፈወር	-12516
▁ከቅዱስ	-12517
▁ማቅረቡን	-12518
▁አቀማመጥ	-12519
▁የመፍጠር	-12520
▁ስጋታቸውን	-12521
▁በምትገኘው	-12522
▁በስምምነቱ	-12523
▁አክሲዮኖች	-12524
▁እናውቃለን	-12525
▁እየተሳተፉ	-12526
▁የተከለከለ	-12527
▁የተጠቀሱት	-12528
ግዝ	-12529
ሳለሁ	-12530
ስተጓ	-12531
ቪኦኤ	-12532
፲፱፻	-12533
▁ማግ	-12534
▁ዳይ	-12535
▁የመም	-12536
▁የታች	-12537
▁ማስመዝ	-12538
▁በጥቁር	-12539
▁አዋጆች	-12540
▁ጠብቀው	-12541
▁መነጋገር	-12542
▁አፅድቋል	-12543
▁አይሁዳውያን	-12544
ዋለ	-12545
▁ድሀ	-12546
ፖርታዊ	-12547
▁መሰን	-12548
▁ፀጉር	-12549
▁ባልንጀ	-12550
▁መያዛቸው	-12551
▁ያልተገባ	-12552
▁ግጭቶችን	-12553
▁የሀላፊነት	-12554
▁የአፈፃፀም	-12555
▁በትራንስፖርት	-12556
ሄም	-12557
ንጮ	-12558
ውዲ	-12559
ግራፊ	-12560
▁ልቦ	-12561
▁ለማሀ	-12562
እንግሊዝ	-12563
▁ለሚያስ	-12564
▁ስጋቶች	-12565
▁የመታው	-12566
▁ልዩነቶች	-12567
▁የሚጠራው	-12568
▁የባህልና	-12569
▁አስተዳደር፣	-12570
▁የሚፈለገውን	-12571
ቀዱን	-12572
▁ፍቅረ	-12573
▁በተባሉ	-12574
▁አቅምን	-12575
▁እለታት	-12576
▁ከኬንያ	-12577
▁የመያዝ	-12578
▁አልቀረም	-12579
▁የሚፈፀሙ	-12580
▁ኗ	-12581
ላቀቅ	-12582
ማከለ	-12583
ሰባል	-12584
ዘዘው	-12585
▁ሰበ	-12586
▁ታካ	-12587
▁ዮር	-12588
ይተርስ	-12589
▁በረሀ	-12590
▁በአሰ	-12591
▁ይለያ	-12592
▁በእጥፍ	-12593
▁ጠቁሞ፣	-12594
▁በንብረት	-12595
▁አካውንት	-12596
▁እየተሰጠ	-12597
▁ምርታማነት	-12598
▁የሚያከናው	-12599
ርቆስ	-12600
ሰብኩ	-12601
ሳታፊ	-12602
ገልጋ	-12603
ፀዳጃ	-12604
▁ቀኑ	-12605
▁ሬስቶ	-12606
▁ከአስ	-12607
▁በተጫዋ	-12608
▁አለመስ	-12609
▁የጥበብ	-12610
▁ትችላላችሁ	-12611
ናገኝ	-12612
ረጋግጡ	-12613
▁ማክሮ	-12614
▁በስሩ	-12615
▁አከፋ	-12616
▁የላይ	-12617
ስተናገደ	-12618
▁ሀብቶች	-12619
▁በይሁዳ	-12620
▁ከወንድ	-12621
▁ቫይረሱን	-12622
▁የሚስተዋ	-12623
▁የሚሰጣቸው	-12624
▁የጀመረውን	-12625
▁ጊዜያቸውን	-12626
▁እንደዘገበው	-12627
ማሌ	-12628
ነባ	-12629
ሰማራ	-12630
ተኩር	-12631
▁በጊ	-12632
▁2019	-12633
▁ሆናለች	-12634
▁ሲሞክሩ	-12635
▁ዳኛቸው	-12636
▁ግብፅና	-12637
▁ለመሸፈን	-12638
▁ተመልሷል	-12639
▁እንዲኖሩ	-12640
▁የፍልስጤ	-12641
▁ያሉበትን	-12642
▁ገልፃለች	-12643
▁አሰምተዋል	-12644
▁ክርስቲያናት	-12645
ዋቀር	-12646
▁ሊሰ	-12647
▁ንስ	-12648
▁ከቱ	-12649
መጣጠነ	-12650
▁መባሉ	-12651
▁ሰፋፊ	-12652
▁ይቀን	-12653
ግራቸውን	-12654
▁መፈፀሙ	-12655
▁በጃፓን	-12656
▁በፈጣን	-12657
▁አመቻች	-12658
▁ከጠዋቱ	-12659
▁የብረታ	-12660
▁የዳይሬ	-12661
▁ሪፖርቶች	-12662
▁በተፈፀመ	-12663
▁አርበኞች	-12664
▁የቻይናው	-12665
▁ተፈፃሚነት	-12666
▁እንቅስቃሴው	-12667
ሰራም	-12668
▁ይሉ	-12669
ጀምረው	-12670
▁ህወሀ	-12671
▁ተሰባ	-12672
▁ከጦር	-12673
▁መምህራ	-12674
▁አበባ፤	-12675
▁አንጋፋ	-12676
▁የኖቤል	-12677
▁የሰውነት	-12678
▁የፈፀሙት	-12679
▁ያረጋግጡ	-12680
▁በሚያስችል	-12681
▁ተሰጥቷቸው	-12682
▁በተመሳሳይም	-12683
ንጅ	-12684
ያሌ	-12685
ፃዊ	-12686
▁ባቢ	-12687
▁ኢብ	-12688
▁ሬዲዮ	-12689
▁ቃሉን	-12690
▁በፀረ	-12691
▁አይና	-12692
▁የሰላ	-12693
▁ደማቅ	-12694
▁ለምግብ	-12695
▁ቀድሞው	-12696
▁ባወጡት	-12697
▁ከሌሎቹ	-12698
▁በመጪዎቹ	-12699
▁ተከትሎ፣	-12700
▁የሚወስድ	-12701
ov	-12702
መሩን	-12703
ነስቲ	-12704
ኩርት	-12705
▁ከሆ	-12706
በረከቱ	-12707
▁ሱቆች	-12708
▁አይቶ	-12709
▁ከሚል	-12710
▁አንባቢ	-12711
▁የሚቀር	-12712
▁ያገለገ	-12713
▁ሰራተኛው	-12714
▁በማስረጃ	-12715
▁አቋርጠው	-12716
▁አፈወርቂ	-12717
▁የሚጠቀሱ	-12718
▁መድሀኒቶች	-12719
▁ኢንተርኔት	-12720
▁ውጤታማነት	-12721
▁የኮርፖሬሽኑ	-12722
በሱ	-12723
ያፊ	-12724
800	-12725
▁1.5	-12726
▁ናችሁ	-12727
ክርስቲያ	-12728
▁ሙሏለም	-12729
▁በሩሲያ	-12730
▁ተብራር	-12731
▁ያደርግ	-12732
▁በሚባለው	-12733
▁በማድረጉ	-12734
▁በፓርቲው	-12735
▁አማካዮች	-12736
▁ከህወሀት	-12737
▁ፍላጎትና	-12738
▁ኤርፖርቶች	-12739
▁እንዳብራሩት	-12740
ጎላ	-12741
▁የትን	-12742
▁ይስማ	-12743
▁ሀገራቱ	-12744
▁የእህል	-12745
▁መገልገያ	-12746
▁የሚናገሩ	-12747
▁ዳይሬክተ	-12748
▁የቫይረሱን	-12749
▁ለቀረበላቸው	-12750
▁የመሳሰሉትን	-12751
▁የመጀመሪያዎቹ	-12752
ጠኑ	-12753
ለን፣	-12754
▁እኚ	-12755
▁ለዚሁ	-12756
▁ስሪት	-12757
▁ንፋስ	-12758
▁የኪነ	-12759
▁ገንዳ	-12760
▁ለዘርፉ	-12761
▁ሲገልፅ	-12762
▁በላቸው	-12763
▁በዜጎች	-12764
▁ባይደን	-12765
▁አሰራርን	-12766
▁ደህንነቱ	-12767
▁ተሰጥቶታል	-12768
ሸር	-12769
ሻዎች	-12770
▁ያካ	-12771
ነቃቸው	-12772
▁በሮች	-12773
▁አሮጌ	-12774
▁ውሀና	-12775
▁ጥለው	-12776
▁ሳይሳካ	-12777
▁በጉባኤ	-12778
▁ቡድንን	-12779
▁አድማስ	-12780
▁ከእርሱ	-12781
▁የትዳር	-12782
▁የወሰዱ	-12783
▁ህይወትን	-12784
▁ለመገናኛ	-12785
▁ሊኖራቸው	-12786
▁እኩልነት	-12787
▁የተከናወኑ	-12788
ቁና	-12789
ባህ	-12790
ዦር	-12791
መቻቸ	-12792
ሪኮች	-12793
ንቶስ	-12794
▁ኖት	-12795
▁ጎብ	-12796
ረዱት፣	-12797
ብርሀም	-12798
▁ስምን	-12799
▁አራዳ	-12800
▁የተዘ	-12801
▁ያግኙ	-12802
▁መብራቱ	-12803
▁ተሰላፊ	-12804
▁ተማሪዎቹ	-12805
▁የከተማዋን	-12806
▁ያስመዘገበው	-12807
ra	-12808
ራረ	-12809
ከሩት	-12810
ህጉሪቱ	-12811
አቸውን	-12812
▁ገመቹ	-12813
▁ፍኖተ	-12814
▁ችግርን	-12815
▁እርካታ	-12816
▁ግሎባል	-12817
▁ጥያቄም	-12818
▁ለመዋጋት	-12819
▁አንፃራዊ	-12820
▁የሚደነግ	-12821
▁አቅርቦትና	-12822
ቀቱ	-12823
ችሎቱ	-12824
ንባብ	-12825
▁አሌ	-12826
▁የጃ	-12827
ግባባት	-12828
▁ዘነበ	-12829
▁ግሪክ	-12830
▁ለማቆም	-12831
▁ማከናወ	-12832
▁ሰርተው	-12833
▁በምድብ	-12834
▁አፍንጫ	-12835
▁የተጎዱ	-12836
▁የጠየቁ	-12837
▁ግምታዊ	-12838
▁ፈርኦን	-12839
▁ማስጨበጫ	-12840
▁በመረዳት	-12841
▁የይገባኛል	-12842
ናድ	-12843
ዝሩ	-12844
▁ካፒ	-12845
▁ጋብ	-12846
ስፈፃሚ	-12847
ዝረዋል	-12848
ገጠመው	-12849
▁ሰውን	-12850
▁ሺዎች	-12851
▁ከግቡ	-12852
▁ፍላጐ	-12853
▁ለአደጋ	-12854
▁የኮምፒ	-12855
▁ለነበረው	-12856
▁መዘግየት	-12857
▁በመደረጉ	-12858
▁አጠራጣሪ	-12859
▁ድርጅት፣	-12860
▁በኢኮኖሚው	-12861
▁እንዲወስዱ	-12862
▁የሚከናወኑ	-12863
▁መግባታቸውን	-12864
▁የሎጂስቲክስ	-12865
▁ይጠበቅበታል	-12866
▁እየተንቀሳቀሱ	-12867
ምሳ	-12868
ኪያስ	-12869
▁53	-12870
▁ሲዲ	-12871
ካርያስ	-12872
▁(1)	-12873
▁ከገቡ	-12874
ሬዝዳንት	-12875
▁ህሙማን	-12876
▁አምርቶ	-12877
▁እንጀራ	-12878
▁ሊቃውንት	-12879
▁በተከሰተ	-12880
▁ባልደረባ	-12881
▁ተመልክተ	-12882
▁ክልሎችና	-12883
▁የሀገራችን	-12884
▁የፖለቲካና	-12885
▁መሆናቸውንና	-12886
▁ዲግሪያቸውን	-12887
ዛብ	-12888
ረንስ	-12889
ጩነት	-12890
ቀጥልም	-12891
▁ምሁር	-12892
▁ራሴን	-12893
▁ቃሲም	-12894
▁ተቀይ	-12895
▁ወዳድ	-12896
▁የታሸ	-12897
▁የታተ	-12898
▁ጣሪያ	-12899
▁ጭንቅ	-12900
▁በማመን	-12901
▁እንዳን	-12902
▁ከማድረ	-12903
አምባሳደር	-12904
▁ማጠናቀቁ	-12905
▁አራተኛው	-12906
▁ድርጅታዊ	-12907
▁የማስታወቂያ	-12908
▁የተደረገላቸው	-12909
ሯት	-12910
ጎበ	-12911
መንጃ	-12912
ቅርታ	-12913
ገደድ	-12914
ጠበቁት	-12915
▁ምትኩ	-12916
▁ሻለቃ	-12917
▁ቀረበ	-12918
▁ባራክ	-12919
▁የጥሬ	-12920
▁ፓርኩ	-12921
▁በረጅሙ	-12922
▁አንዳች	-12923
▁የአጭር	-12924
▁ዩጋንዳ	-12925
▁ድጋፉን	-12926
▁ተቀምጠው	-12927
▁እንዲፈታ	-12928
▁ፖሊሲዎች	-12929
▁ምርመራውን	-12930
▁ትክክለኛው	-12931
▁ኤጀንሲዎች	-12932
▁እንዲያድግ	-12933
▁ጊዮርጊስን	-12934
▁በመንቀሳቀስ	-12935
ኬል	-12936
▁63	-12937
▁ጎራ	-12938
መስገን	-12939
ቤታቸው	-12940
ገኝነት	-12941
▁ሲራጅ	-12942
▁ቦጋለ	-12943
▁ድክመ	-12944
▁መሪዎቹ	-12945
▁መታሰራ	-12946
▁ጠይቀው	-12947
▁መዝገቡን	-12948
▁ተጫዋቾቹ	-12949
▁አለመረጋጋ	-12950
▁እንደተገለፀው	-12951
ሞክ	-12952
700	-12953
ምርያ	-12954
ካልኝ	-12955
▁ስማ	-12956
▁ምርቱ	-12957
▁ሲገኝ	-12958
▁በሚታ	-12959
▁አጀማ	-12960
▁ተጠባቂ	-12961
▁አለው፦	-12962
▁ክፍላተ	-12963
▁የቁጠባ	-12964
▁ትሪሊዮን	-12965
▁አለማቀፍ	-12966
▁አጠናቋል	-12967
▁ኢየሱስን	-12968
▁ኩባንያ፣	-12969
▁የሚኖሩት	-12970
▁እራሳቸውን	-12971
▁ስምምነቶችን	-12972
▁ተጠርጣሪዎችን	-12973
▁ይቀላቀሉከዚህ	-12974
ጫት	-12975
ሰጥም	-12976
▁64	-12977
▁መሸጫ	-12978
▁ከፊል	-12979
▁ለስላሳ	-12980
▁እስጢፋ	-12981
▁ከሀዋሳ	-12982
▁በባህላዊ	-12983
▁ከጥቅምት	-12984
▁ለመመልከት	-12985
▁በሚኒስቴሩ	-12986
▁ስለመሆናቸው	-12987
▁ሙሌ	-12988
▁ሲሄዱ	-12989
▁የተራ	-12990
▁መገለፁ	-12991
▁በመኪና	-12992
▁ከዘርፉ	-12993
▁የአስተ	-12994
▁በምክንያ	-12995
▁እንደቻለ	-12996
▁የጦርነት	-12997
▁በዴሞክራሲ	-12998
ቾት	-12999
ዳሽ	-13000
፤የ	-13001
▁ሌሊ	-13002
▁ማውጣ	-13003
▁አዱኛ	-13004
▁ይሁኑ	-13005
▁መጠኑን	-13006
▁የሚጠራ	-13007
▁ኢንጅነር	-13008
▁በታማኝነት	-13009
ዩስ	-13010
ዮት	-13011
▁ለሲ	-13012
ሆንበት	-13013
▁ማይክ	-13014
▁ኤርም	-13015
▁ከደን	-13016
▁ደንቡ	-13017
ገልግሎቱ	-13018
▁መረጋጋ	-13019
▁ቀደምት	-13020
▁በብሄር	-13021
▁ከነሀሴ	-13022
▁ጥያቄን	-13023
▁እንዲሻሻል	-13024
▁ዳይሬክተሩ፣	-13025
ርሞ	-13026
ዛኙ	-13027
thi	-13028
▁67	-13029
▁በኡ	-13030
ጠየቀው	-13031
▁ሙሴን	-13032
▁ካህና	-13033
▁ውሀን	-13034
▁የቢራ	-13035
▁በኮንት	-13036
▁ተጭነው	-13037
▁አይገባ	-13038
▁ድንገት	-13039
▁ግርግር	-13040
▁በአብላጫ	-13041
▁ኤርምያስ	-13042
▁በማጠናቀቅ	-13043
▁እየተደረጉ	-13044
▁የሚኒስቴሩ	-13045
▁የቴሌግራም	-13046
ሊንግ	-13047
መልሱ	-13048
መንድ	-13049
ማንት	-13050
ዛጋቢ	-13051
▁እየጣ	-13052
▁ትራፊክ	-13053
▁ችግኞች	-13054
▁እጃቸው	-13055
▁ፍርሀት	-13056
▁በመተካት	-13057
▁ተገናኝቶ	-13058
▁አምባገነ	-13059
▁ምህንድስና	-13060
▁እንዲለቀቁ	-13061
▁ለማበረታታት	-13062
ሻን	-13063
▁ላስ	-13064
▁መበ	-13065
▁ሙፈ	-13066
▁አሚ	-13067
▁ዎቹ	-13068
ሳውያን	-13069
▁ክፍሌ	-13070
▁የቻሉ	-13071
▁ይከተ	-13072
▁በተሳካ	-13073
▁በእርሱ	-13074
▁በዘጠኝ	-13075
▁አቋራጭ	-13076
▁አቻቸው	-13077
▁ጥቃቅን	-13078
▁በህዝቦች	-13079
▁የተጫዋች	-13080
▁የጉባኤው	-13081
▁በመቆጣጠር	-13082
▁በመንፈሳዊ	-13083
▁የተጠናከረ	-13084
▁በኮሮናቫይረስ	-13085
ለምን	-13086
▁ሀሪ	-13087
▁የሎ	-13088
▁ያት	-13089
ሲፕሊን	-13090
ግሬሽን	-13091
▁መስቀ	-13092
▁ብሩህ	-13093
▁ንግዱ	-13094
▁የየራ	-13095
▁የጥር	-13096
▁ይህች	-13097
ሆናቸውን	-13098
▁ስለሌለ	-13099
▁በድምፅ	-13100
▁ጉዳቶች	-13101
▁ፌስቲቫ	-13102
▁በሌለበት	-13103
▁በመክፈት	-13104
▁በተደራጀ	-13105
▁ተገቢነት	-13106
▁አይመስልም	-13107
▁እያደረገች	-13108
▁የእስልምና	-13109
▁ያስታውሳሉ	-13110
ሀር	-13111
ምፖ	-13112
ዳዳ	-13113
▁አፋ	-13114
▁ብልሹ	-13115
▁ተመዝ	-13116
▁ነፃና	-13117
▁አባቴ	-13118
▁ከውሀ	-13119
▁ጥይት	-13120
▁ሲነገር	-13121
▁የዝናብ	-13122
▁ይሻላል	-13123
▁በማግስቱ	-13124
▁አሰባሰብ	-13125
▁እንዲመጡ	-13126
▁የወዳጅነት	-13127
ልካ	-13128
መቻች	-13129
ሩበት	-13130
ታለን	-13131
▁ክሪ	-13132
▁ዳዋ	-13133
▁ጨው	-13134
▁ለመጠ	-13135
▁በአክ	-13136
▁ሊያጋጥ	-13137
▁ሳይችሉ	-13138
▁የመሩት	-13139
▁ባለንብረ	-13140
▁ተርሚናል	-13141
▁ከግብርና	-13142
▁ግንባታን	-13143
▁ፅሁፎችን	-13144
▁በማስታወስ	-13145
ሰዱ	-13146
ኒን	-13147
▁ላከ	-13148
▁ታክ	-13149
▁ሲመለስ	-13150
▁በጨዋታ	-13151
▁የተጠረ	-13152
▁ለመቀላቀል	-13153
▁ተደርገዋል	-13154
▁የመካከለኛው	-13155
ተቱ	-13156
ተነ	-13157
ኛና	-13158
(1)	-13159
ቆይም	-13160
ዮኖችን	-13161
▁ማሳወ	-13162
▁አሸነ	-13163
▁ፖስቱ	-13164
▁ሴክሬታ	-13165
▁በፍትህ	-13166
▁ብድርና	-13167
ፓርትመንት	-13168
▁በኢየሱስ	-13169
▁ናትናኤል	-13170
▁የተጠቀሱ	-13171
▁ለመነጋገር	-13172
▁የተሞላበት	-13173
od	-13174
ታዲ	-13175
ጋሉ	-13176
ሻቸው	-13177
ንዳር	-13178
▁ለአባ	-13179
▁ረዘም	-13180
▁ቆመው	-13181
▁ያለች	-13182
ኞቻቸውን	-13183
▁ሀይል፣	-13184
▁ለአንተ	-13185
▁አልሆነ	-13186
▁የአርሶ	-13187
▁ድንኳን	-13188
▁እንደሚመ	-13189
▁የወረዳው	-13190
▁እንደሚረዳ	-13191
▁እንዲከፍሉ	-13192
▁የሚያገኙት	-13193
▁እንደሚፈልግ	-13194
የታ	-13195
ቀቀው	-13196
ንም፣	-13197
▁ማቲ	-13198
▁ሜካ	-13199
▁በጂ	-13200
▁ያኔ	-13201
ደንጋጭ	-13202
▁አክብ	-13203
▁አውሎ	-13204
▁ወላጅ	-13205
▁ገበሬ	-13206
▁መፅሀፉ	-13207
▁ምርትን	-13208
▁ንግድን	-13209
▁ኡጋንዳ	-13210
▁ለመተካት	-13211
▁ወጥተዋል	-13212
▁የምትገኝ	-13213
▁ጠቅሰው፤	-13214
▁የስምምነት	-13215
ሆች	-13216
በህ	-13217
▁97	-13218
▁ኪም	-13219
▁ስራና	-13220
▁መጥፋት	-13221
▁ማብቂያ	-13222
▁ረጃጅም	-13223
▁ወጣቶቹ	-13224
▁የሚገጥ	-13225
▁የያዙት	-13226
▁መከታተል	-13227
▁በማስታወ	-13228
▁አሳውቋል	-13229
▁የምግብና	-13230
▁በማድረግና	-13231
▁እገ	-13232
ወሰዱት	-13233
▁ራሷን	-13234
▁ስሙን	-13235
▁ተባለ	-13236
▁የልጅ	-13237
▁የበጋ	-13238
▁ያነጣ	-13239
▁ግልጋ	-13240
ጠራቀሚያ	-13241
▁መስተጋ	-13242
▁ማሳለፍ	-13243
▁ተሀድሶ	-13244
▁ተናገረ	-13245
▁ክልልን	-13246
▁የፊልም	-13247
▁ያገኛል	-13248
▁ለማጣራት	-13249
▁የኬሚካል	-13250
ጫዊ	-13251
ፋማ	-13252
ርያን	-13253
▁ውሉ	-13254
▁በይነ	-13255
▁አናሳ	-13256
▁እሷም	-13257
▁ኩራት	-13258
▁የእና	-13259
▁በመቀሌ	-13260
▁ከሚለው	-13261
▁የሚመነ	-13262
▁የማክሮ	-13263
▁ስላላቸው	-13264
▁የገጠመው	-13265
▁ፍሬህይወት	-13266
▁ተከራክረዋል	-13267
▁እንደሚያደርገው	-13268
52	-13269
ልኩ	-13270
ጊት	-13271
▁ሊኖሩ	-13272
▁ቴሌኮ	-13273
▁እራስ	-13274
▁የማጥ	-13275
▁ተጠብቆ	-13276
▁ታደርጋ	-13277
▁የሚከፍ	-13278
▁የትኞቹ	-13279
▁የአድዋ	-13280
▁ይስሀቅ	-13281
▁ተመሰረተ	-13282
▁የሚባሉት	-13283
▁ያቀርባሉ	-13284
▁በፈረንጆቹ	-13285
▁ያስመዘገበ	-13286
▁መንግስታቸው	-13287
▁የተቀላቀለው	-13288
ገየ	-13289
ልምና	-13290
▁--	-13291
▁በሉ	-13292
ነሳሳት	-13293
▁ሰልፈ	-13294
▁ለሰዎች	-13295
▁ከተመረ	-13296
▁የወሰን	-13297
▁ያሏቸው	-13298
▁ተወያይቶ	-13299
▁የሚሰሩት	-13300
▁የባንኮች	-13301
▁በማገልገል	-13302
▁እንደሆነች	-13303
▁ይኖራቸዋል	-13304
ፅፅር	-13305
▁ሀጂ	-13306
ደርሰው	-13307
▁ኢራቅ	-13308
▁ይሁዳ	-13309
ጠራቸውን	-13310
▁ተሟጋች	-13311
▁የታቀደ	-13312
▁ይታያሉ	-13313
▁መንገድ፣	-13314
ሰባዊ	-13315
▁ሞቱ	-13316
▁ባዮ	-13317
▁መረዳ	-13318
▁ተሟጋ	-13319
▁ዛፎች	-13320
ስተናገድ	-13321
የታቸውን	-13322
▁ሊከሰት	-13323
▁መረጃ፣	-13324
▁ሳላዲን	-13325
▁ቀዳማዊ	-13326
▁ተከፍሎ	-13327
▁እድሜው	-13328
▁ከኢትዮ	-13329
▁መብቶችን	-13330
▁አውጥተው	-13331
▁እነርሱም	-13332
▁የሚወጣው	-13333
▁የተፈፀሙ	-13334
▁መብታቸውን	-13335
▁በትእግስት	-13336
▁ተናግረው፣	-13337
▁የተማሪዎች	-13338
▁እንደሚሆንም	-13339
ንሳ	-13340
ጣለች	-13341
▁እላ	-13342
▁በሊዝ	-13343
▁ብፁእ	-13344
▁አሳር	-13345
▁ከሚታ	-13346
▁ጥምር	-13347
▁ብክለት	-13348
▁ብድሮች	-13349
▁ዘመቻው	-13350
▁ጥናቱን	-13351
መንግስታዊ	-13352
▁መስራችና	-13353
▁ሰንሰለት	-13354
▁አሜሪካዊ	-13355
▁አንችልም	-13356
▁የኢንተር	-13357
▁በማስቀመጥ	-13358
▁የፕላስቲክ	-13359
▁በኢትዮጵያውያን	-13360
ዱላ	-13361
▁("	-13362
▁ስሌት	-13363
▁ስንል	-13364
▁በወን	-13365
▁የማር	-13366
▁ፋሲካ	-13367
ዶሚኒየም	-13368
▁መልአክ	-13369
▁በገባው	-13370
▁ቆይታቸው	-13371
▁አርቲስት	-13372
▁አትክልት	-13373
▁ዘፍጥረት	-13374
▁የውድድሩ	-13375
▁ማስተዳደር	-13376
▁ተደምጠዋል	-13377
▁አይደለሁም	-13378
ራዝ	-13379
ሮ፣	-13380
ጠጣ	-13381
በልፀ	-13382
ቢነት	-13383
ኗኗር	-13384
መላክት	-13385
ስክሌት	-13386
ሻቸውን	-13387
▁ተክል	-13388
▁ይርጋ	-13389
▁ጀልባ	-13390
▁ጠርቶ	-13391
▁ለንደን	-13392
▁መስመሩ	-13393
▁ማስፈራ	-13394
▁ሱዳንን	-13395
▁ከነዚህም	-13396
▁በተጠቀሰው	-13397
▁አመልክተው	-13398
▁አንድነትና	-13399
▁አይደለም፣	-13400
▁ፕሬዚዳንታዊ	-13401
og	-13402
ለየ	-13403
ሎና	-13404
ደራሉ	-13405
ሎቻቸው	-13406
ኪስታን	-13407
▁መሳተ	-13408
▁ተፈት	-13409
▁እዮብ	-13410
▁የቀይ	-13411
▁ጎጃም	-13412
▁ለምርጫ	-13413
▁ቦይንግ	-13414
▁አሳማኝ	-13415
▁አተገባ	-13416
▁ካንሰር	-13417
▁የምእራ	-13418
▁ማጠቃለያ	-13419
▁በያዝነው	-13420
▁አልነበሩ	-13421
▁የአማርኛ	-13422
▁ያስፈልግ	-13423
▁ሚኒስትርና	-13424
▁የሚገባቸውን	-13425
▁እንደገለፀው፣	-13426
ተኑ	-13427
ፃል	-13428
ሲንግ	-13429
ነበት	-13430
ነገሩ	-13431
ኒያም	-13432
ይናን	-13433
▁62	-13434
ሀብቶች	-13435
ህወሀት	-13436
▁መቅጫ	-13437
▁ባህሩ	-13438
▁ዉስጥ	-13439
▁1990	-13440
▁ለችግሩ	-13441
▁ቴክኒክ	-13442
▁ፓትርያ	-13443
ፈልጋቸውን	-13444
▁ተጠይቀው	-13445
▁መስፈርቶችን	-13446
▁የመጀመርያውን	-13447
ሮጥ	-13448
ገፉ	-13449
ጊቱ	-13450
ጫኑ	-13451
ልጣል	-13452
ቧንቧ	-13453
▁5.	-13454
▁በጎች	-13455
▁በጥሬ	-13456
▁ትተው	-13457
▁የሚባ	-13458
▁ይጀመ	-13459
▁በሌላው	-13460
▁ባህሪያት	-13461
▁አልችልም	-13462
▁አድሀኖም	-13463
▁የሆነበት	-13464
▁የተናገረ	-13465
▁በእንቅስቃሴ	-13466
ሀስ	-13467
ቃው	-13468
ቨን	-13469
▁ነቀ	-13470
ሰማቸው	-13471
ተገበሩ	-13472
▁ህግ፣	-13473
▁አመቷ	-13474
▁አጥፊ	-13475
▁ክንው	-13476
/2006	-13477
▁ሬድዋን	-13478
▁በግምት	-13479
▁አንቶኒ	-13480
▁አጋሮች	-13481
▁የሚገዛ	-13482
▁ጥያቄ፣	-13483
▁ብርጋዴር	-13484
▁አብዱላሂ	-13485
▁የሴቶችን	-13486
▁የዝግጅት	-13487
▁ፈቃደኞች	-13488
▁ለመሰማራት	-13489
▁በሶስተኛው	-13490
▁አድርገናል	-13491
ራጌ	-13492
ዳድ	-13493
ess	-13494
ራውን	-13495
ደስት	-13496
▁66	-13497
ዳሪነት	-13498
▁አክሎ	-13499
▁ከሳሽ	-13500
▁ደመወ	-13501
▁ቅዳሜና	-13502
▁ከጂቡቲ	-13503
▁የዳሰሳ	-13504
▁ደረጃም	-13505
▁ገዥዎች	-13506
▁መፈጠሩን	-13507
▁የህዳሴው	-13508
▁የተቀሩት	-13509
ብያ	-13510
ምገማ	-13511
ኋቸው	-13512
ጋራት	-13513
ጠናል	-13514
ፓርኩ	-13515
▁ፖል	-13516
ላለፉም	-13517
▁ሊመጣ	-13518
▁ተሻለ	-13519
▁አርሲ	-13520
▁ከሆን	-13521
▁ጭብጥ	-13522
▁መቃብር	-13523
▁ሳይኖር	-13524
▁በአሁን	-13525
▁በጥይት	-13526
▁ተወስኖ	-13527
▁የዘለቀ	-13528
▁መልቀቂያ	-13529
▁ተለዋዋጭ	-13530
▁እንዲነሱ	-13531
▁ድምፃቸውን	-13532
▁ማቀነባበሪያ	-13533
▁እንደሚደርስ	-13534
ይ፣	-13535
በራቱ	-13536
▁ኮሪ	-13537
▁ወፍ	-13538
▁ሞሮኮ	-13539
▁ስፔሻ	-13540
▁በአካ	-13541
▁ታይም	-13542
▁ዘጋቢ	-13543
▁የሚቆ	-13544
▁የሪል	-13545
▁ሱዳንና	-13546
▁እድልን	-13547
▁መላእክት	-13548
▁በተዘጋጀ	-13549
▁ግንባታቸው	-13550
▁የዳይሬክተሮች	-13551
ሚት	-13552
ሸሽ	-13553
wik	-13554
ክራሲ	-13555
ፕሪል	-13556
▁ሄዱ	-13557
▁ሌዋ	-13558
▁ቪዛ	-13559
▁በተጠ	-13560
▁ከዋና	-13561
▁የላከ	-13562
thiop	-13563
▁ለሆነው	-13564
▁ሰከንድ	-13565
▁ሀገሪቱን	-13566
▁ማድረግና	-13567
▁ብዙዎችን	-13568
▁ኤሌክትሮ	-13569
▁ሆስፒታሎች	-13570
▁በመመርያው	-13571
▁እንደሚውል	-13572
▁የሁለተኛው	-13573
▁ትራንስፖርትና	-13574
ብዱ	-13575
ጅና	-13576
ቀትና	-13577
ዛይን	-13578
▁ቁስ	-13579
ላችንን	-13580
ራውያን	-13581
▁መጪው	-13582
▁ረሀብ	-13583
▁አውግ	-13584
▁እስረ	-13585
▁ለመሳብ	-13586
▁ምድርን	-13587
▁በቱርክ	-13588
▁የተስፋ	-13589
▁የፈፀመ	-13590
▁ፈፅመው	-13591
▁መንገድና	-13592
▁መጨናነቅ	-13593
▁ማምሻውን	-13594
▁በስምንት	-13595
▁ኢኮኖሚውን	-13596
▁የማስጠንቀቂያ	-13597
ምፕ	-13598
ተሪ	-13599
ጠየቀ	-13600
▁በጆ	-13601
▁ጣል	-13602
▁ወዲያ	-13603
▁በወረዳ	-13604
▁አኳኋን	-13605
▁የንግዱ	-13606
▁የጉባኤ	-13607
▁ቱሪስቶች	-13608
▁ድጋፎችን	-13609
▁ደንበኞችን	-13610
▁ማስረጃዎችን	-13611
▁በሚኒስትሮች	-13612
▁የምታደርገውን	-13613
በሪ	-13614
ian	-13615
ማከር	-13616
ባታል	-13617
ንሽን	-13618
ጋችሁ	-13619
ጋችን	-13620
▁ለሞ	-13621
▁ሻን	-13622
▁ትቶ	-13623
▁ከዲ	-13624
ሰሩበት	-13625
▁መፃፍ	-13626
▁ቀኑን	-13627
▁ይኼም	-13628
▁ጀግና	-13629
▁ፍሰሀ	-13630
ቶቻችንን	-13631
▁ሁንዴሳ	-13632
▁መዝገቡ	-13633
▁በነዚህ	-13634
▁ከምድር	-13635
▁የሚያበቃ	-13636
▁ያብራራሉ	-13637
▁ይሰማኛል	-13638
▁አድርጓቸዋል	-13639
▁የደረሰበትን	-13640
ረሳ	-13641
ላሎች	-13642
▁ስጦ	-13643
▁አጫ	-13644
▁ከሴ	-13645
▁ይግ	-13646
▁ለመጥ	-13647
▁መሸጋ	-13648
▁መፈረ	-13649
▁ሲኖሩ	-13650
▁ሳልቫ	-13651
▁ባንድ	-13652
ቀርባለን	-13653
▁ረገድም	-13654
▁በመስኖ	-13655
▁ናሽናል	-13656
▁ከምክር	-13657
▁ያግዛል	-13658
▁ማሀበር፣	-13659
▁ማስጠበቅ	-13660
▁ይቀርባል	-13661
ስሀ	-13662
ኗን	-13663
ጨር	-13664
ፀን	-13665
▁ቀኙን	-13666
▁በተራ	-13667
▁ዘሮች	-13668
▁ይቻል	-13669
ሮቻቸውን	-13670
▁በሙከራ	-13671
▁በወንድ	-13672
▁ዝርፊያ	-13673
▁ሀገራችን	-13674
▁ስርአትና	-13675
▁ለማሰባሰብ	-13676
መሪያ	-13677
ከርድ	-13678
▁እይ	-13679
▁ማውጫ	-13680
▁በቀጠ	-13681
▁ባደረ	-13682
▁እሰጣ	-13683
▁ከአም	-13684
▁የስም	-13685
▁የከተ	-13686
▁ጥቅስ	-13687
ደጋፊዎች	-13688
▁ሀኪሞች	-13689
▁መዳረጋ	-13690
▁እየገቡ	-13691
▁ህፃናትና	-13692
▁በተመረጡ	-13693
▁የሚፈጠሩ	-13694
▁ተብራርቷል	-13695
▁አመራሮች፣	-13696
▁ምርታማነትን	-13697
ሊየ	-13698
ነታ	-13699
ጎስ	-13700
ራለን	-13701
ቲካል	-13702
ናጀት	-13703
▁የጀ	-13704
▁ጥግ	-13705
▁አመተ	-13706
▁የመዝ	-13707
▁የጎን	-13708
▁ይከራ	-13709
ማንኛውም	-13710
▁ሀያላን	-13711
▁ለፍትህ	-13712
▁መቀመጥ	-13713
▁ቀሪውን	-13714
▁እፎይታ	-13715
▁መሰጠቱን	-13716
▁አላማዎች	-13717
▁እንደሚገቡ	-13718
▁እንደፈጠረ	-13719
▁የክልልነት	-13720
▁ጨዋታቸውን	-13721
▁በህብረተሰቡ	-13722
▁የማሀበረሰብ	-13723
ቡላ	-13724
ን፤	-13725
ካራ	-13726
ግራሙ	-13727
▁ስቲ	-13728
▁ፋና	-13729
▁ሊቢያ	-13730
▁ምሰሶ	-13731
▁ከማይ	-13732
▁መንገሻ	-13733
▁ቅድስት	-13734
▁የግእዝ	-13735
▁እንዲያሳ	-13736
▁ከግንቦት	-13737
ቲቱ	-13738
ኩር	-13739
የሀ	-13740
መረቱ	-13741
ራረስ	-13742
▁መሾ	-13743
ለተኛው	-13744
ክሳይዝ	-13745
▁ለአቶ	-13746
▁አስፋ	-13747
▁ከመው	-13748
▁ፔትሮ	-13749
▁በዙሪያ	-13750
▁ባደረጉ	-13751
▁አረጋዊ	-13752
▁በየካቲት	-13753
▁ችግኞችን	-13754
▁አስከሬን	-13755
▁እየገለፁ	-13756
▁የከተሞች	-13757
▁መከላከልና	-13758
▁በኢትዮጵያም	-13759
ርግ	-13760
ፀና	-13761
ዚያም	-13762
ደሙት	-13763
ፖንሰር	-13764
▁ለመዝ	-13765
▁መስህ	-13766
▁አእም	-13767
▁እስያ	-13768
▁ዋዜማ	-13769
▁የስዊ	-13770
▁ጣእም	-13771
ገባቸውን	-13772
▁ለሴቶች	-13773
▁መሆኑ፣	-13774
▁አገኘሁ	-13775
▁ዝምድና	-13776
▁ለህልፈት	-13777
▁መመርመር	-13778
▁የሚመስል	-13779
▁በመጠቆም፣	-13780
▁በተመጣጣኝ	-13781
▁ግለሰቦችና	-13782
ኔጋል	-13783
▁ሳሉ	-13784
▁ዘጠ	-13785
▁ግፍ	-13786
▁ሰውየው	-13787
▁ቀጣናዊ	-13788
▁የታገዘ	-13789
▁ለህክምና	-13790
▁በመካሄድ	-13791
▁በስፖርት	-13792
▁ከሁለቱም	-13793
▁የሚገነባ	-13794
▁የአንደኛ	-13795
▁በመኖራቸው	-13796
▁ተጨዋቾችን	-13797
▁እየተጠባበ	-13798
▁የተመሰረቱ	-13799
▁የመጨረሻውን	-13800
ሄዳ	-13801
ረፉ	-13802
ንጉስ	-13803
▁ሀና	-13804
▁ሽታ	-13805
▁ቅጂ	-13806
ኖቻቸው	-13807
▁መሀላ	-13808
▁በተቋ	-13809
▁ለኮሮና	-13810
▁ሲያልፍ	-13811
▁መቀጠሉን	-13812
▁ሲያቀርብ	-13813
▁ስልጣንን	-13814
▁ባለማግኘ	-13815
▁እርስዎን	-13816
▁እናገኛለን	-13817
ሪጅ	-13818
በቁ	-13819
ጋቡ	-13820
፤እ	-13821
▁ዎ	-13822
ቅያስ	-13823
ጋጠሙ	-13824
▁ርክ	-13825
▁ከጅ	-13826
መለከታ	-13827
▁አቃቂ	-13828
▁እንቅልፍ	-13829
▁ኮምቦልቻ	-13830
▁የማረጋገጥ	-13831
▁ባለሙያዎችና	-13832
ልበስ	-13833
ልኛል	-13834
ቂያው	-13835
ቅዱስ	-13836
ታይን	-13837
▁09	-13838
▁ሰጭ	-13839
▁አጉ	-13840
▁የቲ	-13841
1999	-13842
ልቃይት	-13843
▁ከቡና	-13844
▁ሁኔታም	-13845
▁ከተገኘ	-13846
▁ውለዋል	-13847
▁ዝግጅቱ	-13848
▁የችግሩ	-13849
▁የግማሽ	-13850
▁ቃላቸውን	-13851
▁ተቋማትም	-13852
▁ውይይቱን	-13853
▁የተፈራረ	-13854
▁የእንኳን	-13855
▁መናገራቸው	-13856
▁የማዳበሪያ	-13857
▁ያስታወሰው	-13858
▁ህብረተሰቡን	-13859
▁እየተደረገላቸው	-13860
▁እንደሚያስፈልገው	-13861
ረዝ	-13862
ጥለው	-13863
▁ከቴ	-13864
▁ካፍ	-13865
1996	-13866
ሰባችን	-13867
▁3-0	-13868
▁መገኛ	-13869
▁ረፋድ	-13870
▁የማነ	-13871
▁ለደንበ	-13872
▁ነበሩ፤	-13873
▁እየገባ	-13874
▁ከጀመሩ	-13875
▁የደንበ	-13876
▁ይደርስ	-13877
▁ባህርያት	-13878
▁የእውቀት	-13879
▁በመተግበር	-13880
▁እየተባባሰ	-13881
▁የፌዴራልና	-13882
▁በየአካባቢው	-13883
71	-13884
ለጠኑ	-13885
መጣት	-13886
ኔስኮ	-13887
ዞችን	-13888
▁ኳሱ	-13889
▁ዘፋ	-13890
▁ጥጥ	-13891
ዘወትር	-13892
▁ስደት	-13893
▁ብሎግ	-13894
▁ነፋስ	-13895
▁ከስር	-13896
▁ከአል	-13897
▁ገዳይ	-13898
ነገራቸው	-13899
▁ተካቷል	-13900
▁ተጀመረ	-13901
▁ትንተና	-13902
▁እያገኘ	-13903
▁የሚጠቀ	-13904
▁የታዳጊ	-13905
▁ለፖለቲካ	-13906
▁መፍጠሩን	-13907
▁እንዲሄድ	-13908
▁የሚያቀር	-13909
▁የምትገኘው	-13910
▁በአንፃራዊነት	-13911
ኞቼ	-13912
እንዲ	-13913
ኦነግ	-13914
ያንግ	-13915
ገምገ	-13916
▁ታሳ	-13917
ሰናበቱ	-13918
▁መቀበ	-13919
▁ቦንድ	-13920
▁እስቴ	-13921
▁ከንቱ	-13922
▁ከእን	-13923
▁ኮርያ	-13924
▁ወቅቱ	-13925
▁የካር	-13926
▁ለዜጎች	-13927
▁ዶላር፣	-13928
▁ግብሮች	-13929
▁ሀላፊው፣	-13930
▁ሳይንስና	-13931
▁አዳማዎች	-13932
▁ከማእዘን	-13933
▁ከተከሰተ	-13934
▁ማስታወሻዎች	-13935
▁የባለሙያዎች	-13936
▁ከሀላፊነታቸው	-13937
ልጥ	-13938
ዋጋ	-13939
ደፈ	-13940
ጡም	-13941
ጭሩ	-13942
▁w	-13943
▁፫	-13944
ity	-13945
▁ሀዘ	-13946
▁ጎበ	-13947
ቦቻቸው	-13948
▁ጠንቅ	-13949
በረከቱት	-13950
ገራችንን	-13951
▁ተይዟል	-13952
▁የሰብል	-13953
▁ፊልሞች	-13954
▁ተፈጥሯል	-13955
▁ከአመታት	-13956
▁አካባቢያዊ	-13957
▁እንዲወሰድ	-13958
▁ረጋ	-13959
▁በስም	-13960
▁እጥረ	-13961
▁መጠይቅ	-13962
▁ሲመለሱ	-13963
▁በምእራ	-13964
▁በበአሉ	-13965
▁ተሰርቶ	-13966
▁እየሆኑ	-13967
▁ይልቅ፣	-13968
▁ጨዋታም	-13969
▁ለማንሳት	-13970
▁በመድረስ	-13971
▁በማሳተፍ	-13972
▁አሜሪካን	-13973
▁የሚሸፍን	-13974
▁ድርጅትን	-13975
▁ገብረመድ	-13976
▁በተያዘለት	-13977
▁ተመዝግቧል	-13978
▁ትምህርቶች	-13979
▁አስመዝግቧል	-13980
▁እግዚአብሄርን	-13981
ግተው	-13982
ፍነው	-13983
▁ለቡ	-13984
▁ያገ	-13985
ንላይን	-13986
▁ለአን	-13987
▁ከተወ	-13988
▁ሰዎች፣	-13989
▁በሚችል	-13990
▁አቅሙን	-13991
▁የቀብር	-13992
▁ይይዛል	-13993
▁ግጭትና	-13994
▁አጠባበቅ	-13995
▁እርምጃው	-13996
▁የሚሉትን	-13997
▁የሚጠቅም	-13998
▁በወታደራዊ	-13999
▁ውድድሮችን	-14000
▁ሀይለማሪያም	-14001
ሞና	-14002
ሩ፤	-14003
ሮት	-14004
ጎቴ	-14005
በሩን	-14006
ጠቀመ	-14007
▁ሸሽ	-14008
▁የሉ	-14009
ስፒታሉ	-14010
ኒስትር	-14011
▁ሙገር	-14012
▁ስእል	-14013
▁አጥር	-14014
▁ሰርቷል	-14015
▁ተካልኝ	-14016
▁ታዋቂው	-14017
▁የሚፈታ	-14018
▁የቀበሌ	-14019
▁ያስከት	-14020
▁አገላለፅ	-14021
▁የድርጅቱን	-14022
▁እንደሚያመለክተው	-14023
ሽቆ	-14024
ጩን	-14025
ሰማት	-14026
▁ረብ	-14027
▁የፔ	-14028
መሳጠር	-14029
ነተኛው	-14030
▁የጥጥ	-14031
▁ይፈፅ	-14032
ሸናፊነት	-14033
▁ለወራት	-14034
▁ሚዲያው	-14035
▁በፅናት	-14036
▁አብዲሳ	-14037
▁ህዝቦችን	-14038
▁ማሳየቱን	-14039
▁የልማትና	-14040
▁የሚያወጡ	-14041
▁በወረርሽኙ	-14042
59	-14043
ለሉ	-14044
ሻር	-14045
ሽ፣	-14046
ቦል	-14047
ክና	-14048
ገሳ	-14049
ዋለች	-14050
▁ኢኒ	-14051
▁ያፈ	-14052
▁ይን	-14053
ስተኞች	-14054
▁2.5	-14055
▁ላፍቶ	-14056
▁ምግብና	-14057
▁ትርጉሙ	-14058
▁አንተን	-14059
▁እድገቱ	-14060
▁የመቐለ	-14061
▁አመራሮቹ	-14062
▁እስልምና	-14063
▁እየተመራ	-14064
▁ከተሞችን	-14065
▁ፕሮፌሰሩ	-14066
▁የተወሰኑት	-14067
▁ፕሬዚዳንቷ	-14068
▁ባለሙያዎች፣	-14069
▁የሚያስፈልግ	-14070
▁የደረሰባቸውን	-14071
ቁበት	-14072
ቭዥን	-14073
አለሁ	-14074
ጎናፀ	-14075
▁ሊወ	-14076
ካተቱት	-14077
▁ባንዲ	-14078
▁ታመነ	-14079
▁አዘው	-14080
▁ለይሆዋ	-14081
▁ማለቱን	-14082
▁ቢችሉም	-14083
▁አጨዋወ	-14084
▁የወሰደ	-14085
▁የዘመን	-14086
▁የፋሲል	-14087
▁ጓደኞች	-14088
▁ማኔጂንግ	-14089
▁ምርመራው	-14090
▁አደሮችን	-14091
▁እያቀረቡ	-14092
▁ከበርካታ	-14093
▁የመግለፅ	-14094
▁ደብዳቤ፣	-14095
▁በአለማችን	-14096
▁ለማስተዳደር	-14097
▁በዋሽንግተን	-14098
ማም	-14099
ጣጌ	-14100
ፎን	-14101
ሬቶች	-14102
▁ያጡ	-14103
▁በጠበ	-14104
▁አቢሲ	-14105
▁ኢዜማ	-14106
▁ከልክ	-14107
▁ጣሰው	-14108
▁ፍንጭ	-14109
▁ቀዝቃዛ	-14110
▁እያስተ	-14111
▁ዝርጋታ	-14112
▁የዋሉት	-14113
▁ያገገሙ	-14114
▁ድምዳሜ	-14115
▁መለዋወጫ	-14116
▁ስልጣኑን	-14117
▁በተገኘው	-14118
▁ትኩረቱን	-14119
▁አምባሳደ	-14120
▁ከመግለፅ	-14121
▁የሌለበት	-14122
▁የክትትል	-14123
▁የተቀመጠውን	-14124
▁የሚያስችላቸውን	-14125
ላኑ	-14126
ባ፣	-14127
ሳልፍ	-14128
ሳት፣	-14129
ትረፍ	-14130
ነቱም	-14131
▁ከሜ	-14132
ብሪካው	-14133
▁መካሄ	-14134
▁ማሳለ	-14135
▁ከሌለ	-14136
▁የጣና	-14137
▁ያለአ	-14138
ጋጠማቸው	-14139
▁ከአቅም	-14140
▁ገረመው	-14141
▁ህይወትና	-14142
▁ቀጥለዋል	-14143
▁በመጠየቅ	-14144
▁የሰዎችን	-14145
▁የጠየቀው	-14146
▁ስነስርአት	-14147
▁በፕሪምየር	-14148
▁እንደሚታይ	-14149
▁ይስተዋላል	-14150
58	-14151
ልውና	-14152
▁ለገ	-14153
▁ሜት	-14154
▁ሰልጣ	-14155
▁ከሞላ	-14156
▁ጎርፍ	-14157
ዮርዳኖስ	-14158
▁ለክለቡ	-14159
▁በሰአት	-14160
▁ከነበረ	-14161
▁ወንጀለ	-14162
▁ድልድል	-14163
▁ሰምተናል	-14164
▁እያቀረበ	-14165
▁የተግባር	-14166
▁ግንባታ፣	-14167
▁ማጠራቀሚያ	-14168
▁አስደንጋጭ	-14169
▁ተሰጥቷቸዋል	-14170
▁የተካሄደውን	-14171
ደፍ	-14172
ለቀቀ	-14173
ሪቱን	-14174
ቃችሁ	-14175
▁ባዬ	-14176
ደናቀፍ	-14177
▁አረም	-14178
▁እኔና	-14179
▁ከማሀ	-14180
▁መግባቱ	-14181
▁ሰላም፣	-14182
▁ሻሸመኔ	-14183
▁ትፈልጋ	-14184
▁ከሚኖሩ	-14185
▁በሽታውን	-14186
▁ከመኖሪያ	-14187
▁የሚያመጣ	-14188
▁እየተከታተ	-14189
▁የሚታወቁት	-14190
▁እንደሚሉት፣	-14191
▁ለእግዚአብሄር	-14192
▁በኢንዱስትሪው	-14193
▁የኤሌክትሮኒክስ	-14194
ማቹ	-14195
ንያሁ	-14196
▁ኔታ	-14197
▁ኪር	-14198
▁በሚመ	-14199
▁በምድ	-14200
▁አቁም	-14201
▁ይቀበ	-14202
▁መክፈቻ	-14203
▁ማዳበር	-14204
▁ርእዮተ	-14205
▁ቆይታው	-14206
▁ቢንያም	-14207
▁ተፈፅሞ	-14208
▁ታቅዷል	-14209
▁አድማሱ	-14210
▁የዋለው	-14211
▁ይላል፦	-14212
▁በመታገዝ	-14213
▁ባለሀብቱ	-14214
▁አምናለሁ	-14215
▁የመራጮች	-14216
▁ለሚደረገው	-14217
መረው	-14218
ሜይል	-14219
▁ሞዴ	-14220
▁ዲላ	-14221
▁ሰሞን	-14222
▁ቅደም	-14223
▁ባልና	-14224
▁ችለው	-14225
▁ነገሰ	-14226
▁አመን	-14227
▁ዘመድ	-14228
▁በሚችሉ	-14229
▁አባልና	-14230
▁ያነሳሉ	-14231
▁ስላለበት	-14232
▁በርሳቸው	-14233
▁የመጫወት	-14234
▁ንብረታቸው	-14235
▁ዲፕሎማቶች	-14236
▁አብዱልከሪም	-14237
▁እንደማይሆን	-14238
ገኑ	-14239
የሞች	-14240
▁ዋስ	-14241
ዶቻቸው	-14242
ጠራቸው	-14243
▁በፈረ	-14244
▁ማፍራት	-14245
▁በትጋት	-14246
▁የቀጥታ	-14247
▁የትግል	-14248
▁ባንኪንግ	-14249
▁እንደቆየ	-14250
▁የንፅህና	-14251
▁የገባውን	-14252
▁ያነጋገር	-14253
▁ይጀመራል	-14254
▁ያደረግነው	-14255
▁ጎብኝተዋል	-14256
54	-14257
መቀ	-14258
መኝ	-14259
ርጌ	-14260
ard	-14261
ፍራሽ	-14262
▁ርስ	-14263
▁ፃድ	-14264
ሮቻችን	-14265
▁ተጠም	-14266
▁አለ፤	-14267
▁ጉምዝ	-14268
▁ፀድቆ	-14269
ስተዳድር	-14270
▁ማተሚያ	-14271
▁በጎርጎ	-14272
▁አስገኝ	-14273
▁ኤሌክት	-14274
▁እንግሊዝኛ	-14275
▁ዳይሬክተሯ	-14276
▁ለኢንዱስትሪ	-14277
ሮም	-14278
ባና	-14279
ሄደው	-14280
ህተት	-14281
▁ታት	-14282
▁ታድ	-14283
▁ለአስር	-14284
▁ፍንዳታ	-14285
▁ታራሚዎች	-14286
▁ከቀረቡት	-14287
▁የአቪዬሽን	-14288
▁ያስፈልገዋል	-14289
ያለን	-14290
2001	-14291
▁በማር	-14292
▁ተከል	-14293
▁አንቺ	-14294
▁አካሉ	-14295
▁2003	-14296
▁በተሟላ	-14297
▁የሚጎዳ	-14298
▁የትጥቅ	-14299
▁የጀመር	-14300
▁ያስገነ	-14301
▁ጎሎችን	-14302
▁ልማቶችን	-14303
▁አምላክህ	-14304
▁ክርስትና	-14305
▁ዘካርያስ	-14306
▁የሚጠቀም	-14307
▁የሚጫወቱ	-14308
▁እንዳለብን	-14309
▁ክብረወሰን	-14310
ረዚ	-14311
ርፉ	-14312
ቻቸ	-14313
ጋሜ	-14314
ቆጥሩ	-14315
▁መቸ	-14316
▁ኤክ	-14317
▁ፍሎ	-14318
ሆናችን	-14319
▁መቋቋ	-14320
▁ተረት	-14321
ስተካከሉ	-14322
▁መፃህፍ	-14323
▁የሚጥል	-14324
▁የእሱን	-14325
▁ጠበቆቹ	-14326
▁ለማጥቃት	-14327
▁በቤተሰብ	-14328
▁የሳይበር	-14329
▁ደረጃቸውን	-14330
▁ፕሬዚዳንትና	-14331
▁በመጀመሪያዎቹ	-14332
ሽነ	-14333
FBC	-14334
ፋት፣	-14335
▁83	-14336
▁ማቅ	-14337
ፓጋንዳ	-14338
▁ሽንፈ	-14339
▁በበር	-14340
▁የመደ	-14341
ክርስቶስ	-14342
▁ሊያገኝ	-14343
▁ማከማቻ	-14344
▁እየመጣ	-14345
▁እጅጉን	-14346
▁ከፓርቲ	-14347
▁የቦንድ	-14348
▁የታሪፍ	-14349
▁ለግብርና	-14350
▁ሪፖርቱን	-14351
▁ሲያሸንፍ	-14352
▁ስንታየሁ	-14353
▁ሶፍትዌር	-14354
▁ተቆጣጥሮ	-14355
▁ወጣቶችና	-14356
▁እንዳይደርስ	-14357
▁የተፈፀመውን	-14358
▁እንዳለባቸውም	-14359
ht	-14360
ሜኑ	-14361
ሪ፣	-14362
▁ኋ	-14363
▁የፒ	-14364
ዮቻቸው	-14365
▁ማካሄ	-14366
▁ገርባ	-14367
▁ገንቢ	-14368
▁ጎረቤ	-14369
▁ቅንጅት	-14370
▁ተቀራር	-14371
▁የለኝም	-14372
▁የመላው	-14373
▁ለክልሎች	-14374
▁መመዝገብ	-14375
▁መቅረቡን	-14376
▁የሰጡትን	-14377
▁እስጢፋኖስ	-14378
▁የሚያገኘው	-14379
▁መደረጋቸውን	-14380
▁እንደምትችል	-14381
▁የተመሰረተባቸው	-14382
ሁሩ	-14383
ዱም	-14384
ጅራ	-14385
ግት	-14386
▁፩	-14387
ቤቶች	-14388
ከራሉ	-14389
ያለው	-14390
▁ማቻ	-14391
▁በጁ	-14392
▁እጁ	-14393
▁ፀሎ	-14394
▁ወርቃ	-14395
▁የካፍ	-14396
▁ያስቀ	-14397
▁ድባብ	-14398
▁ለበለጠ	-14399
▁የመነጨ	-14400
▁ጋምቤላ	-14401
▁ጨምሯል	-14402
▁ስማቸውን	-14403
▁በአማርኛ	-14404
▁እንግልት	-14405
▁ከድህነት	-14406
▁መካከለኛው	-14407
▁የዳያስፖራ	-14408
▁የፋብሪካው	-14409
▁መመሪያዎችን	-14410
ሩክ	-14411
ሰሰ	-14412
በቀ	-14413
/60	-14414
ንግዶ	-14415
ገደለ	-14416
▁ጫካ	-14417
▁(2)	-14418
▁ሴንት	-14419
▁ቁመና	-14420
▁ታምሩ	-14421
▁አለች	-14422
▁ወርዶ	-14423
▁ለሽያጭ	-14424
▁ባንኩን	-14425
▁አልሲሲ	-14426
▁አርከበ	-14427
▁ግጥሚያ	-14428
▁ለወጣቶች	-14429
▁መከሰቱን	-14430
▁አለማግኘ	-14431
▁እንደሚወ	-14432
▁ከተሰጠው	-14433
▁ተመልሰዋል	-14434
▁አዘጋጅነት	-14435
▁ፕሬዘዳንት	-14436
▁ለሚመለከተው	-14437
▁የሚያስተላል	-14438
▁እንዳስረዱት፣	-14439
▁የሚያመለክተው	-14440
ናማ	-14441
ዳፊ	-14442
▁ኛ	-14443
አትር	-14444
▁ሱቅ	-14445
▁ቼክ	-14446
▁አዶ	-14447
▁ግማ	-14448
▁መጋዘ	-14449
▁በሆቴ	-14450
▁የኦሮ	-14451
▁ለቪኦኤ	-14452
▁ባንኮቹ	-14453
▁ብራንድ	-14454
▁ዘወትር	-14455
▁መደረሱን	-14456
▁ማስተናገ	-14457
▁ስለሚሆን	-14458
▁አባላትም	-14459
▁የመዝናኛ	-14460
▁የፌስቡክ	-14461
▁ይወዳጁን	-14462
▁መስተካከል	-14463
▁በተጀመረው	-14464
▁ተዘጋጅቷል	-14465
▁መድረሳቸውን	-14466
▁በመጨረሻዎቹ	-14467
▁የሚካሄደውን	-14468
ሊኮፕ	-14469
በለጠ	-14470
ወጣም	-14471
▁አልማ	-14472
▁ከሀያ	-14473
▁ግርጌ	-14474
▁ለሰባት	-14475
▁በለይቶ	-14476
▁ትላለች	-14477
▁የእኛን	-14478
▁ጥልቀት	-14479
▁ለሰብአዊ	-14480
▁ታዳጊዎች	-14481
▁በመሳሰሉት	-14482
▁የተወሰደው	-14483
ሺያ	-14484
▁69	-14485
▁ኢት	-14486
▁የጄ	-14487
▁ይኑ	-14488
በተለይ	-14489
ተገበረ	-14490
ፈላለግ	-14491
▁ተገኘ	-14492
▁የምህ	-14493
▁ሙሀመድ	-14494
▁ቢኒያም	-14495
▁አካታች	-14496
▁እንደየ	-14497
▁የሊጉን	-14498
ንቀሳቀሰው	-14499
▁ሽንኩርት	-14500
▁እየሰራች	-14501
▁በአደባባይ	-14502
▁ከተባበሩት	-14503
▁በቁርጠኝነት	-14504
▁ይወዳጁንዘወትር	-14505
ለላ	-14506
ደታ	-14507
ፎም	-14508
ተሪያ	-14509
ፍሰስ	-14510
▁ርካ	-14511
▁አቁ	-14512
ዛቸውን	-14513
▁በግድ	-14514
▁ተተኪ	-14515
▁ወሰነ	-14516
▁ግዛው	-14517
▁ሊወስድ	-14518
▁መሰዊያ	-14519
▁በቅጣት	-14520
▁አልባሳ	-14521
▁እግርኳ	-14522
▁መታቀዱን	-14523
▁ከየካቲት	-14524
▁ይረዳናል	-14525
▁ለማድረግና	-14526
▁መግለጫዎች	-14527
▁እንደሚያስችል	-14528
ct	-14529
ልዎ	-14530
ሎግ	-14531
ንዲ	-14532
ራዘመ	-14533
ኛለሁ	-14534
ደራጅ	-14535
▁ለቱ	-14536
▁ልጇ	-14537
▁አአ	-14538
▁130	-14539
▁3-1	-14540
▁ታቦት	-14541
▁አስብ	-14542
▁አንዲ	-14543
▁የሚጨ	-14544
▁ፈሳሽ	-14545
▁መምርያ	-14546
▁መቅደሱ	-14547
▁በቦርዱ	-14548
▁በዛብህ	-14549
▁ቢችልም	-14550
▁አብነት	-14551
▁የኢራቅ	-14552
▁የኮርፖ	-14553
▁ጥሩነህ	-14554
▁በመናገር	-14555
▁ነፃነትን	-14556
▁ከቀዳሚው	-14557
▁ይታሰባል	-14558
▁የሚባለውን	-14559
ረቅ	-14560
ቢን	-14561
ገራት	-14562
ፅዋት	-14563
ድሬሽን	-14564
ገደኞች	-14565
▁ተረፈ	-14566
▁ከጅማ	-14567
▁ጉልበ	-14568
▁ማግባት	-14569
▁ሞባይል	-14570
▁በሰራው	-14571
▁አህጉር	-14572
▁ጳጉሜን	-14573
▁አማልክት	-14574
▁አከባበር	-14575
▁እንዳገኘ	-14576
▁እያደረሰ	-14577
▁ገበሬዎች	-14578
▁ተደንግጓል	-14579
▁እንዳልሆኑ	-14580
▁ለሚመለከታቸው	-14581
▁ኢንዱስትሪውን	-14582
▁የኢንፎርሜሽን	-14583
ቅሮ	-14584
ፖች	-14585
ባረክ	-14586
ይህም	-14587
▁99	-14588
▁ልሂ	-14589
▁ኢራ	-14590
ላችኋል	-14591
▁ማረፊ	-14592
▁ሰይፍ	-14593
▁አመር	-14594
▁ያጠፋ	-14595
▁ለአርሶ	-14596
▁ቀለሞች	-14597
▁ትርፋማ	-14598
▁ሳይደረግ	-14599
▁ወታደሮችን	-14600
▁ፓርቲዎችን	-14601
56	-14602
መሙ	-14603
ፈግ	-14604
ባብዌ	-14605
ኒዚያ	-14606
ይሁን	-14607
▁ርቆ	-14608
▁ቆስ	-14609
▁ታቦ	-14610
▁ዜማ	-14611
ፋሪዎች	-14612
▁ሲመራ	-14613
▁በተዋ	-14614
▁በዋስ	-14615
▁በጨረ	-14616
▁ደምሴ	-14617
▁ሰሎሞን	-14618
▁በስኬት	-14619
▁በውስጥ	-14620
▁ተፈቅዶ	-14621
▁ከምሽቱ	-14622
▁የደስታ	-14623
▁ለሀገሪቱ	-14624
▁ኢኮኖሚክ	-14625
▁የሶስተኛ	-14626
▁ለተከታታይ	-14627
▁ወንድወሰን	-14628
▁የተወሰነው	-14629
▁የእንቅስቃሴ	-14630
ጂን	-14631
ሽከረ	-14632
ዳግም	-14633
▁አሲ	-14634
▁ወጭ	-14635
▁ያየ	-14636
▁ብረታ	-14637
▁ከተሰ	-14638
▁የተቆ	-14639
▁መረጋገ	-14640
▁አስረኛ	-14641
▁መነቃቃት	-14642
▁ምእመናን	-14643
▁አሳልፈው	-14644
▁የሚበልጡ	-14645
▁የማሸነፍ	-14646
▁መከላከያን	-14647
▁ከተጠቀሱት	-14648
▁የፓርቲውን	-14649
▁የሚችሉበትን	-14650
▁የሚጠበቅባቸውን	-14651
ቀሻ	-14652
ሰቀሰ	-14653
ባበል	-14654
ገፆች	-14655
▁ለምታ	-14656
▁በሸራ	-14657
▁ተመላ	-14658
▁ተጠል	-14659
▁ትዳር	-14660
▁የኖረ	-14661
ቆጣጠረው	-14662
▁መቋረጥ	-14663
▁ሲጫወት	-14664
▁በንቃት	-14665
▁ክልልና	-14666
▁ለጨዋታው	-14667
▁በሜዳቸው	-14668
▁ተደርሷል	-14669
▁ንግግሮች	-14670
▁ደስተኞች	-14671
እግዚአብሄር	-14672
▁በአንደኛው	-14673
▁ቴክኖሎጂን	-14674
▁እንዳይገባ	-14675
▁በፈቃደኝነት	-14676
▁አለመሆናቸውን	-14677
ድሎ	-14678
ጓዘ	-14679
ገልፀ	-14680
▁ዶላ	-14681
▁ፀጉ	-14682
ስብሰባ	-14683
ያችንን	-14684
▁መጣል	-14685
▁ከራሱ	-14686
▁ወጪን	-14687
▁ያነሱ	-14688
▁ይዞት	-14689
▁ለመማር	-14690
▁ሽረዎች	-14691
▁በኦሮሞ	-14692
▁አባዱላ	-14693
▁እባክህ	-14694
▁የታክሲ	-14695
▁የንፁህ	-14696
▁ያለችው	-14697
▁በንግድና	-14698
▁እንዲውሉ	-14699
▁የአለምን	-14700
▁አቅማቸውን	-14701
▁በተመለከተ፣	-14702
▁በንግግራቸው	-14703
ለአ	-14704
ዘት	-14705
▁74	-14706
▁የሾ	-14707
ለዋወጥ	-14708
ችርቻሮ	-14709
▁ሊገኝ	-14710
▁ወልድ	-14711
▁የሱፍ	-14712
▁ያሳድ	-14713
▁ገቢው	-14714
▁1000	-14715
▁ሴቶችና	-14716
▁ሸማቾች	-14717
▁ከአንዱ	-14718
▁የበረሀ	-14719
▁የቪዲዮ	-14720
▁ያለብን	-14721
▁በኢንተር	-14722
▁አላለፉም	-14723
▁በመመሳጠር	-14724
▁ተፈናቅለው	-14725
▁እየተካሄዱ	-14726
▁የሚደርሰው	-14727
▁ጥያቄያቸውን	-14728
ሀዱ	-14729
ሊዮ	-14730
ምግ	-14731
▁l	-14732
ሰራጩ	-14733
▁ካፕ	-14734
▁ውበቱ	-14735
▁ይሳተ	-14736
▁ይኼው	-14737
▁ተከፋፍ	-14738
▁አዋጅን	-14739
▁ካርዶች	-14740
▁የታሰበ	-14741
▁ያልቻሉ	-14742
▁ማደያዎች	-14743
▁የህብረት	-14744
▁የኢፌዲሪ	-14745
▁ለመከታተል	-14746
▁በመገምገም	-14747
▁እንደሚመጣ	-14748
▁እንዲጀመር	-14749
▁ድርጊቶችን	-14750
▁ግንኙነትን	-14751
▁ማሻሻያዎችን	-14752
▁እንደሚጠናቀቅ	-14753
▁የሚያስፈልጋቸው	-14754
ep	-14755
ዥያ	-14756
ዴታ	-14757
መክት	-14758
ሶማሊ	-14759
ታውስ	-14760
▁79	-14761
▁ኮሜ	-14762
ሬሽኑን	-14763
ከራከር	-14764
▁በብቸ	-14765
▁የሀዋ	-14766
▁ሀገርን	-14767
▁ምስራች	-14768
▁ቅብብል	-14769
▁አሳታፊ	-14770
▁እንደራ	-14771
▁ከሰማይ	-14772
▁ከተያዘ	-14773
▁ዘንድ፣	-14774
▁ያለው፣	-14775
▁በሚሰጠው	-14776
▁በአመዛኙ	-14777
▁አነጋጋሪ	-14778
▁የነበሩና	-14779
▁የእውቅና	-14780
▁ለእስራኤል	-14781
▁ያልተለመደ	-14782
▁አጋጣሚዎችን	-14783
ak	-14784
ኖን	-14785
ዶር	-14786
▁ቡክ	-14787
መልመል	-14788
▁ለትር	-14789
▁እለተ	-14790
▁ከሰል	-14791
▁አንብብ	-14792
▁ከሆነም	-14793
▁የቆሻሻ	-14794
▁በእጩነት	-14795
▁አለመሆን	-14796
▁አዲግራት	-14797
▁የተጨማሪ	-14798
▁የታሰበው	-14799
▁የወጣበት	-14800
▁ያስተናግ	-14801
▁ፍላጎትን	-14802
▁መልእክቶች	-14803
▁አማካሪዎች	-14804
▁ዳይሬክተሮች	-14805
▁እንዲፈቀድለት	-14806
▁እንዳስታወቀው፣	-14807
ሀጉ	-14808
ህራ	-14809
ኝ፤	-14810
ከባከ	-14811
ይሆዋ	-14812
ፀያፊ	-14813
▁ሻም	-14814
▁በያ	-14815
▁ገቡ	-14816
ዘዋወሩ	-14817
▁ሙፍቲ	-14818
▁በእድ	-14819
ደርሳቸው	-14820
▁ተጨዋች	-14821
▁ወቅቶች	-14822
▁ዘመኑን	-14823
▁ድንኳኑ	-14824
▁ቢሆንም፤	-14825
▁ውስንነት	-14826
▁የሁሉንም	-14827
▁ግልጋሎት	-14828
▁የሚቻልበት	-14829
▁የሚፈልገውን	-14830
ቃጠ	-14831
ዝድ	-14832
ለችም	-14833
ስማን	-14834
▁ተቋራ	-14835
▁አድዋ	-14836
▁ያረፈ	-14837
▁በመጓዝ	-14838
▁አሞላል	-14839
▁የሰውን	-14840
▁ለማዘመን	-14841
▁በአእምሮ	-14842
▁አካላትና	-14843
▁የሚታወቁ	-14844
▁የተወሰዱ	-14845
▁ያለፈውን	-14846
▁ይቀንሳል	-14847
▁መደረጉንም	-14848
▁በቴሌቪዥን	-14849
▁የሚስተዋሉ	-14850
▁የማመንጨት	-14851
se	-14852
ሚስ	-14853
ቀበለ	-14854
ወርዱ	-14855
▁ቆጣ	-14856
▁ኩማ	-14857
▁ያድ	-14858
ኤምኤፍ	-14859
▁ሀረግ	-14860
▁ማገገ	-14861
▁በወጪ	-14862
▁ተቀን	-14863
▁አብቅ	-14864
▁ኪዩብ	-14865
▁ውሉን	-14866
▁የሰሩ	-14867
ነጋገሪያ	-14868
▁አያይዘው	-14869
▁ወገኖችን	-14870
▁የመጠበቅ	-14871
▁የግብአት	-14872
▁የጥንቃቄ	-14873
▁የኤክስፖርት	-14874
ሊሙ	-14875
ኩ፣	-14876
ቀደም	-14877
▁ዋን	-14878
በረክት	-14879
▁ባልቻ	-14880
▁አየሁ	-14881
▁ከአር	-14882
▁ውሏል	-14883
▁ዜጐች	-14884
▁እናምና	-14885
▁ካልሆኑ	-14886
▁የሚሰነ	-14887
▁ይቀራሉ	-14888
▁ደንብና	-14889
▁ግርማይ	-14890
▁ፍትህና	-14891
▁የተባሉትን	-14892
▁አካባቢዎችን	-14893
ቀብ	-14894
ዶክ	-14895
ቃዋሚ	-14896
ቲኤም	-14897
▁ትናገ	-14898
▁የራቀ	-14899
▁የተጨ	-14900
▁ግብፃ	-14901
▁አቋቋም	-14902
▁የእነሱ	-14903
▁መንገድን	-14904
▁ማስተላለ	-14905
▁እውቀትና	-14906
▁የሰለጠነ	-14907
▁ተስተካካይ	-14908
▁እንደተፈፀመ	-14909
▁እንዳይፈጠር	-14910
▁እንደሚኖርበት	-14911
ክሬ	-14912
ለህ፤	-14913
ቻልን	-14914
ደገፉ	-14915
▁ይጎ	-14916
▁መፅና	-14917
▁ሲመሩ	-14918
▁በረዶ	-14919
▁ፅድቅ	-14920
ናቸውንም	-14921
▁ሲደረጉ	-14922
▁አረቦን	-14923
▁አስተሳ	-14924
▁አውቶሞ	-14925
▁አጥነት	-14926
▁የሞተር	-14927
▁በማክበር	-14928
▁በጠንካራ	-14929
▁ብሪታንያ	-14930
▁እነዚያን	-14931
▁ሰራተኞችና	-14932
▁በመቀናጀት	-14933
▁በምሳሌነት	-14934
▁እንደሚጠቁ	-14935
▁ድርጅቶች፣	-14936
▁በባለቤትነት	-14937
▁የእስራኤልን	-14938
▁ፋብሪካዎችን	-14939
▁ኢትዮጵያውያንና	-14940
ሚዝ	-14941
ሸረ	-14942
ቦ፣	-14943
ፀል	-14944
ከሉት	-14945
ፃቸው	-14946
▁በጄ	-14947
▁ናፍ	-14948
▁እደ	-14949
በረታቱ	-14950
በአሁኑ	-14951
▁መስጊ	-14952
▁በሰይ	-14953
▁በአፄ	-14954
▁በካይ	-14955
▁ከአቅ	-14956
▁ፕሮፖ	-14957
▁ሏላዊው	-14958
▁ምክኒያ	-14959
▁በተስፋ	-14960
▁ብርሀኔ	-14961
▁የቴሌኮ	-14962
▁መዘርጋት	-14963
▁ተምሳሌት	-14964
▁ከበሽታው	-14965
▁የዘገበው	-14966
▁ገብርኤል	-14967
▁አልነበሩም	-14968
▁መስጠታቸውን	-14969
ዋሽ	-14970
ዘዘ	-14971
250	-14972
ደውሉ	-14973
ዲናዋ	-14974
▁ማጉ	-14975
▁ቁል	-14976
▁ምድረ	-14977
▁እያሱ	-14978
▁ፃድቅ	-14979
▁ተካፋይ	-14980
▁ሀዋሳዎች	-14981
▁ስለነበሩ	-14982
▁አሸንፈው	-14983
▁እውነትን	-14984
▁ከአምናው	-14985
▁የሚያምር	-14986
▁የያዘውን	-14987
▁ድህነትን	-14988
▁ትምህርቱን	-14989
▁የአቅርቦት	-14990
▁እንደሚቀርብ	-14991
▁ያስፈልጋቸዋል	-14992
ደነ	-14993
ፅፍ	-14994
፰፻	-14995
ባረብ	-14996
ክላል	-14997
ገገም	-14998
▁ለማም	-14999
▁ተሸክ	-15000
▁ከወጪ	-15001
▁የቁም	-15002
▁ይችሉ	-15003
▁ሀላፊ፣	-15004
▁ሪከርድ	-15005
▁የሚጣል	-15006
▁ስላልሆነ	-15007
▁ውቅያኖስ	-15008
▁መሰብሰቡን	-15009
▁የሚችሉትን	-15010
▁በማድረጋቸው	-15011
▁የሚያመለክት	-15012
▁እንዲያገለግሉ	-15013
ቀሱ	-15014
ዛዊ	-15015
▁ለሆ	-15016
▁ሲኒ	-15017
▁ፈሪ	-15018
ቆጠሩት	-15019
▁መሀሪ	-15020
▁በቆሎ	-15021
▁ቦርሳ	-15022
▁አተር	-15023
ገጥማቸው	-15024
▁ለፖሊስ	-15025
▁ሲጀምሩ	-15026
▁በተሞላ	-15027
▁አስበው	-15028
▁እውነቱ	-15029
▁ይሆዋን	-15030
▁በሆነችው	-15031
▁በመተከል	-15032
▁በስልጠና	-15033
▁ኦፕሬሽን	-15034
▁የታቀደው	-15035
▁ያለማቋረጥ	-15036
▁እናቀርባለን	-15037
▁እንደሚቻለው	-15038
ዶኔ	-15039
ተመድ	-15040
ኒንግ	-15041
ዚዮን	-15042
▁ቤል	-15043
▁ታጥ	-15044
ሯቸዋል	-15045
ጠይቀው	-15046
▁መተማ	-15047
▁ተፈታ	-15048
▁አገዳ	-15049
▁ኦፕሬ	-15050
▁ከተጋ	-15051
▁መፈጠር	-15052
▁የካናዳ	-15053
▁አንፃር፣	-15054
▁ከራሳቸው	-15055
▁የበለፀገ	-15056
▁ኤግዚቢሽን	-15057
▁እንደነበራቸው	-15058
ላድ	-15059
ሺፕ	-15060
▁n	-15061
ዊያው	-15062
▁ስቶ	-15063
▁የእቃ	-15064
▁ይበሉ	-15065
▁ገቢያ	-15066
▁ፍጥረ	-15067
▁2004	-15068
▁ባልሆኑ	-15069
▁ከመግባ	-15070
▁ከሶማሌ	-15071
▁ክርስቶ	-15072
▁ዳግማዊ	-15073
▁ተጫውቷል	-15074
▁ከተባለው	-15075
▁የመሳሪያ	-15076
▁የሚገናኙ	-15077
▁ይመክራሉ	-15078
▁ደረጃዎችን	-15079
▁እንዳልነበረ	-15080
ሰሉ	-15081
ኩራ	-15082
ሉልታ	-15083
ፈልጉት	-15084
▁ሊገባ	-15085
▁አውጭ	-15086
▁ወሰኑ	-15087
ሺንግተን	-15088
▁ማድረጓ	-15089
▁በቦርድ	-15090
▁አነጋገር	-15091
▁እድገትን	-15092
▁የመመለስ	-15093
▁በክርስቶስ	-15094
▁የተከናወነ	-15095
▁የኮንትራት	-15096
▁ፕሮጀክቶቹ	-15097
ማኔ	-15098
ራኔ	-15099
ሸሸ	-15100
አህ	-15101
አቀ	-15102
ዚዝ	-15103
ጠጋ	-15104
▁ለኪ	-15105
▁ግባ	-15106
ደባቸው	-15107
▁ሜቴክ	-15108
▁ርኩስ	-15109
▁ቀልብ	-15110
▁በሚፈ	-15111
▁አንጀ	-15112
▁ከምድ	-15113
▁ደረጄ	-15114
ሚግሬሽን	-15115
▁መብላት	-15116
▁በሚያሳ	-15117
▁በቪዲዮ	-15118
▁ወልድያ	-15119
▁ማእድናት	-15120
▁ባንኮችን	-15121
▁ካደረጉት	-15122
▁የሚጠቁም	-15123
▁የኦህዴድ	-15124
▁መግባታቸው	-15125
▁በማደራጀት	-15126
▁አይመስለኝ	-15127
▁እንዲከናወን	-15128
57	-15129
ልፌ	-15130
ሚኒ	-15131
ሳለን	-15132
ጀሪያ	-15133
▁አጃ	-15134
▁ወሳ	-15135
ንጋፖር	-15136
ኳንንት	-15137
▁ሊፈጥር	-15138
▁ሜክሲኮ	-15139
▁በተነሳ	-15140
▁አስችሎ	-15141
▁እየወጡ	-15142
▁ክፍያው	-15143
▁የለንም	-15144
▁የግሪክ	-15145
▁በብዙዎች	-15146
▁ቢሆኑም፣	-15147
▁አስተባብ	-15148
▁ከጎረቤት	-15149
▁የተፋሰሱ	-15150
▁የክርስቶስ	-15151
▁እንዲጠናከር	-15152
▁የዩኒቨርሲቲው	-15153
ቦላ	-15154
ኮሳ	-15155
ጉዳ	-15156
▁ለመው	-15157
▁እኩይ	-15158
▁ከውጪ	-15159
▁የእቅ	-15160
▁ፈራሚ	-15161
▁ባለቤቱ	-15162
▁ተሻሽሎ	-15163
▁እያገኙ	-15164
▁ከመላው	-15165
▁የውይይቱ	-15166
▁ያካሄደው	-15167
▁ሀላፊዎችን	-15168
▁ለማጎልበት	-15169
▁መረጋገጡን	-15170
▁ፓርቲያቸው	-15171
▁እግዚአብሄርም	-15172
ቆሎ	-15173
est	-15174
ገሩን	-15175
▁ሳራ	-15176
▁ኦሊ	-15177
ጓቸውን	-15178
▁ለሆነ	-15179
▁ሊታይ	-15180
▁መዋል	-15181
▁የፍራ	-15182
▁ያስደ	-15183
▁ጡረታ	-15184
▁ሀይሉን	-15185
▁ስምኦን	-15186
▁ብላችሁ	-15187
▁የመስክ	-15188
▁ፌደራል	-15189
▁በማካተት	-15190
▁አስፀያፊ	-15191
▁የሚፈጥሩ	-15192
▁ገበያዎች	-15193
▁ቴክኖሎጂዎችን	-15194
▁የህብረተሰቡን	-15195
co	-15196
if	-15197
ዳብ	-15198
ላኩት	-15199
መጡት	-15200
ሲያን	-15201
ቻቻል	-15202
▁ቀዬ	-15203
ኖቻችን	-15204
ከራቸው	-15205
▁ባለፀ	-15206
▁ተደብ	-15207
▁የተላ	-15208
ዘውተሪያ	-15209
ገጠማቸው	-15210
▁ለሌላው	-15211
▁ተወያዩ	-15212
▁የምታስ	-15213
▁የደብረ	-15214
▁ገንብቶ	-15215
▁ጉዳይ፣	-15216
▁ለማቆየት	-15217
▁ተዋጊዎች	-15218
▁የተጠቃሚ	-15219
▁ለማስተማር	-15220
▁የለባቸውም	-15221
▁ያሻገረውን	-15222
ጋቱ	-15223
ሊንጦ	-15224
ቅናት	-15225
በተን	-15226
ጉዳት	-15227
▁2,	-15228
▁3,	-15229
▁መቋ	-15230
▁የጤ	-15231
▁ላለማ	-15232
▁መፈተ	-15233
▁ማሸነ	-15234
▁አርክ	-15235
▁የስብ	-15236
▁ጋር፣	-15237
▁ፈልጎ	-15238
▁መገኘቱ	-15239
▁ሚስጥር	-15240
▁ቀይረው	-15241
▁በምድረ	-15242
▁ተለያዩ	-15243
▁ተላልፎ	-15244
▁ተመለሰ	-15245
▁እፅዋት	-15246
▁ካርቱም	-15247
▁ያለነው	-15248
▁መቀላቀል	-15249
▁መከናወን	-15250
▁ስፖርቶች	-15251
▁በመምረጥ	-15252
▁አወዛጋቢ	-15253
▁ዝግጁነት	-15254
▁የእረፍት	-15255
▁የዘላለም	-15256
▁ድርጅትና	-15257
▁መቀመጫውን	-15258
▁ንብረቶችን	-15259
▁ወልዋሎዎች	-15260
▁ያስቀምጣል	-15261
▁የተሰበሰበው	-15262
ላጫ	-15263
ሸጠ	-15264
ናባ	-15265
ማችሁ	-15266
እቢያ	-15267
▁በኔ	-15268
▁በጃ	-15269
▁ዘብ	-15270
▁ይድ	-15271
▁መጫወ	-15272
▁ቅኝት	-15273
▁ከወል	-15274
▁መቅረቡ	-15275
▁ችግር፣	-15276
▁አገሪቷ	-15277
▁ከአዳማ	-15278
▁የወደብ	-15279
▁ፖሊስና	-15280
▁አካላትም	-15281
▁የሚያሳስ	-15282
▁ለማድረግም	-15283
▁እንገኛለን	-15284
▁የቴክኒክና	-15285
▁የሚያቀርበው	-15286
ሳነ	-15287
ዛቱ	-15288
ልግና	-15289
ቦቹን	-15290
ዎትን	-15291
ፅዳት	-15292
ፈነው	-15293
▁84	-15294
▁ለቁ	-15295
▁ተዘ	-15296
▁፣የ	-15297
ሰረቱት	-15298
ገበያው	-15299
▁ለህገ	-15300
▁ለማይ	-15301
▁ከረጢ	-15302
▁የኖሩ	-15303
▁የአራ	-15304
▁ለመጓዝ	-15305
▁አደሩን	-15306
▁ጥበቃና	-15307
▁ለማቃለል	-15308
▁ለመከላከያ	-15309
▁እየተወሰደ	-15310
▁ኢትዮጵያዊው	-15311
▁የሚንቀሳቀስ	-15312
▁ለኢትዮጵያውያን	-15313
ተካ	-15314
ኖች፣	-15315
ዞርት	-15316
ጠረው	-15317
▁ኦሞ	-15318
▁ልጅ፣	-15319
▁በአጋ	-15320
▁አጣጥ	-15321
▁ከባቢ	-15322
▁የጠራ	-15323
▁ሂደትን	-15324
▁በእቅዱ	-15325
▁ተወለደ	-15326
▁አቅምና	-15327
▁እየሰፋ	-15328
▁ከአየር	-15329
▁የሰራው	-15330
▁የተክሉ	-15331
▁ፖሊሲው	-15332
▁የሚፈቅድ	-15333
▁ማሀበራዊና	-15334
▁እንደምንም	-15335
▁ወደሚገኘው	-15336
▁ማህበረሰቦች	-15337
▁አምባሳደሮች	-15338
ዘነ	-15339
ፋፋ	-15340
ሁለቱ	-15341
ላሊት	-15342
ታውቅ	-15343
ቻሉት	-15344
▁ቱሉ	-15345
▁ይለ	-15346
▁ማስወ	-15347
▁ነው፡	-15348
▁አምላ	-15349
▁አተኩ	-15350
▁አንበ	-15351
▁እያየ	-15352
▁ይሰሩ	-15353
▁ጠቋሚ	-15354
▁ህዝብም	-15355
▁ሊያመጣ	-15356
▁መተላለ	-15357
▁መጠንና	-15358
▁በፃፉት	-15359
▁ተመለሱ	-15360
▁አመርቂ	-15361
▁አይተው	-15362
▁ደቡባዊ	-15363
▁በመግጨት	-15364
▁በእጃቸው	-15365
▁ተያይዘው	-15366
▁ይገለፃል	-15367
▁በተሰጣቸው	-15368
▁እንዲጠበቅ	-15369
▁የሚያበረታታ	-15370
▁ግንኙነታቸውን	-15371
ጥ፣	-15372
ፋሮ	-15373
ሙርት	-15374
▁01	-15375
ነርሱም	-15376
ዳንኤል	-15377
▁በአፅ	-15378
▁ባህረ	-15379
▁ብርና	-15380
▁ተቀር	-15381
▁ያለቀ	-15382
40/60	-15383
▁ሲፈፀም	-15384
▁አሸንፈ	-15385
▁የፌዴራ	-15386
▁ሲያስረዱ	-15387
▁ስለሚችሉ	-15388
▁ትእይንት	-15389
▁የማውጣት	-15390
▁የባለሙያ	-15391
▁መፍትሄዎች	-15392
▁እየተፈጠረ	-15393
▁መጠየቃቸውን	-15394
▁የሚያቀርቡት	-15395
ያማ	-15396
ባትም	-15397
▁ቅጥ	-15398
▁ዋሻ	-15399
▁የዮ	-15400
1998	-15401
ለምሳሌ	-15402
ምባብዌ	-15403
▁ሆነች	-15404
▁በረከ	-15405
▁በተሳ	-15406
▁ፒተር	-15407
ስተካከለ	-15408
▁እየሄደ	-15409
▁ከሰሀራ	-15410
▁ገበያን	-15411
▁ጥናት፣	-15412
▁ተካተዋል	-15413
▁ታውቃለህ	-15414
▁ለማድረግ፣	-15415
▁ያልተጠበቀ	-15416
▁አገልግሎትና	-15417
▁ያነጋገርናቸው	-15418
ቢስ	-15419
ጠፍ	-15420
ፌት	-15421
▁፻	-15422
ሀገር	-15423
መሰግ	-15424
▁ለዲ	-15425
▁ተኝ	-15426
▁ዛቻ	-15427
____	-15428
ቆቻቸው	-15429
ገኛቸው	-15430
▁ስለታ	-15431
▁በግቡ	-15432
▁አልሚ	-15433
▁ጎደል	-15434
/2005	-15435
▁ምክሮች	-15436
▁በጥንት	-15437
▁መታጠቢያ	-15438
▁በሆነበት	-15439
▁በመካከላ	-15440
▁የመብራት	-15441
▁የሚከሰቱ	-15442
▁የዲሲፕሊን	-15443
▁እንደሚሰራም	-15444
ዚሁም	-15445
▁ማና	-15446
▁ባቡ	-15447
▁350	-15448
▁ለገሰ	-15449
▁ምቾት	-15450
▁ቡና፣	-15451
▁ተሰራ	-15452
▁ክምች	-15453
▁ኳታር	-15454
▁ዝውው	-15455
▁የሚሹ	-15456
▁የሚዋ	-15457
▁ያመነ	-15458
▁ድቻን	-15459
ከተላቸው	-15460
▁መጋዘን	-15461
▁ማይክል	-15462
▁በአማካ	-15463
▁የወጡት	-15464
▁የጠበቁ	-15465
▁በቤታቸው	-15466
▁አንጋፋው	-15467
▁በመከታተል	-15468
▁የሚከፈለው	-15469
▁እንደተናገረው	-15470
▁ኢንቨስትመንትን	-15471
ሙ፣	-15472
ይሉ	-15473
ary	-15474
ልቦና	-15475
ገቡም	-15476
▁ልእ	-15477
▁ዘፈ	-15478
▁ምረቃ	-15479
▁ነቢዩ	-15480
▁አሉ፤	-15481
▁አገባ	-15482
▁ሁለገብ	-15483
▁ልማታዊ	-15484
▁ማሰራጫ	-15485
▁ሳይችል	-15486
▁በመቆም	-15487
▁አምበል	-15488
▁እህቶች	-15489
▁በሸራተን	-15490
▁ቢያደርጉም	-15491
▁አተገባበር	-15492
▁ለተጠቃሚዎች	-15493
▁የቀረበለትን	-15494
iz	-15495
ይዩ	-15496
ጭን	-15497
ላትም	-15498
ንስላ	-15499
ንስና	-15500
▁ነፋ	-15501
ስተዋለ	-15502
ገጥመው	-15503
▁ልጃገረ	-15504
▁መልቀቅ	-15505
▁አስነብ	-15506
▁አይቀሬ	-15507
▁በማስፋት	-15508
▁አለብዎት	-15509
▁አውታሮች	-15510
▁አይነተኛ	-15511
▁እስከዛሬ	-15512
▁የሚያግዙ	-15513
▁የተናገሩ	-15514
▁በመወያየት	-15515
▁አቅርቦትን	-15516
▁ተጠቃሚነትን	-15517
▁እንደማይኖር	-15518
▁ያስችላቸዋል	-15519
ዷን	-15520
ምጣቱ	-15521
ቆችን	-15522
▁ብረ	-15523
▁ጎድ	-15524
▁ጥን	-15525
ሳምንቱ	-15526
ቀርቡት	-15527
▁ሰለሞ	-15528
▁ኡሁሩ	-15529
▁ወከፍ	-15530
▁ውረድ	-15531
▁የአሰ	-15532
▁ሚልዮን	-15533
▁ነግረው	-15534
▁አፍሪቃ	-15535
▁ጀኔራል	-15536
▁ታንዛኒያ	-15537
▁አስተባባ	-15538
▁ከምርጫው	-15539
▁ለማነጋገር	-15540
▁እየተጫወተ	-15541
▁የቀድሞውን	-15542
▁የሚደርሰውን	-15543
▁የአትሌቲክስ	-15544
▁በኮንስትራክሽን	-15545
ሀና	-15546
ቆጭ	-15547
ኬሽ	-15548
ፍሩ	-15549
ሌቶች	-15550
ቻርድ	-15551
ነበብ	-15552
▁86	-15553
▁ሞቃ	-15554
▁ከጫ	-15555
▁ዳም	-15556
----	-15557
ተርጎም	-15558
ክትሬት	-15559
▁ሁነኛ	-15560
▁ሙጂብ	-15561
▁አጣብ	-15562
▁ይገነ	-15563
▁ጠየቁ	-15564
ጋኒስታን	-15565
▁ሀረርጌ	-15566
▁ሀብታም	-15567
▁መጠየቁ	-15568
▁እንዲዳ	-15569
▁የመነሻ	-15570
▁ደሴቶች	-15571
▁መዛሙርት	-15572
▁ተወስዷል	-15573
▁አፈወርቅ	-15574
▁ይጠቅሳል	-15575
▁ለማስቀመጥ	-15576
▁በመጠባበቅ	-15577
▁በአባልነት	-15578
▁እንደሚያመለክተው፣	-15579
ኪኪ	-15580
ህንፃ	-15581
ባህር	-15582
▁የጁ	-15583
▁ሊወጡ	-15584
▁መብቱ	-15585
▁ቅጣቱ	-15586
▁በሰባ	-15587
▁አሉን	-15588
▁ይነግ	-15589
▁ዳሽን	-15590
▁በዋናው	-15591
▁በጥልቅ	-15592
▁እንከን	-15593
▁ከዘጠኝ	-15594
▁የዘጠኝ	-15595
▁ፓርቲን	-15596
▁ለማዳበር	-15597
▁ሰብሳቢው	-15598
▁በቀጣናው	-15599
▁በይበልጥ	-15600
▁ቡድናችን	-15601
▁ኮሚሽን፣	-15602
▁ደደቢቶች	-15603
▁በሚቻልበት	-15604
▁በደረሰበት	-15605
▁የናይጄሪያ	-15606
▁ለሀብረተሰቡ	-15607
▁ቴክኖሎጂዎች	-15608
53	-15609
ጋግ	-15610
ላቀለ	-15611
ማለች	-15612
ርካቶ	-15613
ደሚያ	-15614
▁ወጡ	-15615
-3-3	-15616
ችልም፤	-15617
ገመገመ	-15618
▁ሀላባ	-15619
▁ከፋይ	-15620
▁ደጀኔ	-15621
▁ለመጣል	-15622
▁ሙዚየም	-15623
▁ቁጥሮች	-15624
▁ችግርና	-15625
▁ክሳቸው	-15626
▁የዘይት	-15627
▁የጥቁር	-15628
▁ከሚባሉት	-15629
▁የሀብረቱ	-15630
▁የሪፎርም	-15631
▁ጢሞቴዎስ	-15632
▁ጥናቶችን	-15633
▁ፈረሰኞቹ	-15634
▁ላልተወሰነ	-15635
▁ያረጋግጣል	-15636
▁ባለስልጣናትን	-15637
ሆዋን	-15638
ልሄም	-15639
መለካ	-15640
ደበት	-15641
▁ሾፌ	-15642
▁ቆም	-15643
▁ዳታ	-15644
▁ጫኔ	-15645
ከፋፈያ	-15646
▁ርካሽ	-15647
▁ስራ፣	-15648
▁አባባ	-15649
▁ይባል	-15650
▁ጭምብ	-15651
ርስቲያን	-15652
▁በተመድ	-15653
▁በጭራሽ	-15654
▁አላችሁ	-15655
▁አድርጐ	-15656
▁የተገባ	-15657
▁ያትታል	-15658
▁ይመጣሉ	-15659
▁ጀምሮ፣	-15660
▁ፖሊሲና	-15661
▁በንፁሀን	-15662
▁በኮሚሽኑ	-15663
▁አሰራርና	-15664
▁እስላማዊ	-15665
▁ባለመሆናቸው	-15666
▁እንደሚከናወን	-15667
ቴጌ	-15668
ጢአ	-15669
▁x	-15670
ሁበት	-15671
ፅሀፉ	-15672
▁ተላ	-15673
▁ኩባ	-15674
ችለውን	-15675
▁ተጋላ	-15676
▁አትር	-15677
▁ከመካ	-15678
▁የመው	-15679
▁የወር	-15680
▁ይሰጡ	-15681
▁ሊያገኙ	-15682
▁መደንገ	-15683
▁ስደተኛ	-15684
▁አስተው	-15685
▁አክሱም	-15686
▁የምስራ	-15687
▁ያደረሰ	-15688
▁ገዢዎች	-15689
▁ከባለፈው	-15690
▁ስልጠናዎች	-15691
▁የመገንባት	-15692
▁ተፈራርመዋል	-15693
▁የቤኒሻንጉል	-15694
ረኝ	-15695
ሳድ	-15696
ፋትን	-15697
▁ማሸ	-15698
▁ሲሰ	-15699
▁ጃፓ	-15700
▁ጫላ	-15701
ብራዚል	-15702
▁መሪው	-15703
▁ቡናው	-15704
▁የጠፋ	-15705
▁ለቀጣዩ	-15706
▁በቋንቋ	-15707
▁አስፈር	-15708
▁አሸብር	-15709
▁ከሳኡዲ	-15710
▁አጎራባች	-15711
▁እንደገባ	-15712
▁እየገነባ	-15713
▁ካሌንዳር	-15714
▁የተፃፈው	-15715
▁ማስተዋወቅ	-15716
▁ትምህርትና	-15717
▁ከፈረንሳይ	-15718
▁ወንድማማች	-15719
▁የሚወስደው	-15720
▁የብሪታንያ	-15721
▁ዴሞክራሲን	-15722
▁በባለስልጣኑ	-15723
▁ፕሬዚዳንቶች	-15724
▁ሩቅ	-15725
▁ከቶ	-15726
▁በፍር	-15727
▁ኤልሳ	-15728
▁ወዴት	-15729
▁የመመ	-15730
▁ጩኸት	-15731
▁ሚድሮክ	-15732
▁ማዘጋጃ	-15733
▁ተክተው	-15734
▁ተዛማጅ	-15735
▁ነገሩን	-15736
▁አቋርጦ	-15737
▁ከአስራ	-15738
▁ጀመርኩ	-15739
▁ስልጠናው	-15740
▁በቢሾፍቱ	-15741
▁ኢየሱስም	-15742
▁ካልተቻለ	-15743
▁የምስጋና	-15744
▁የተጋነነ	-15745
▁ፍጥረታት	-15746
▁ለማስረዳት	-15747
▁ተመዝግበው	-15748
▁እውነተኛው	-15749
▁በማስተናገድ	-15750
▁የተጠናቀቀው	-15751
ሊካ	-15752
ስጋ	-15753
ይሩ	-15754
ፉ፣	-15755
ሊበላ	-15756
ረኛው	-15757
ድርና	-15758
▁ማጨ	-15759
▁ትብ	-15760
▁ፊን	-15761
ምግልና	-15762
ጥታለች	-15763
▁ሰቅል	-15764
▁ሶሪያ	-15765
▁ባነሰ	-15766
▁ናይሮ	-15767
▁እየመ	-15768
▁ገዝቶ	-15769
ጠናቀዋል	-15770
▁ልጃቸው	-15771
▁ቁጥርም	-15772
▁በሚሆኑ	-15773
▁አድናቆ	-15774
▁ወዳለው	-15775
▁የቦምብ	-15776
▁መፈንቅለ	-15777
▁ሲገባቸው	-15778
▁በመኖሪያ	-15779
▁አስችሏል	-15780
▁የተከሰተ	-15781
▁የነበራት	-15782
▁ለማስመለስ	-15783
▁በተጠቀሱት	-15784
▁በገለልተኛ	-15785
▁እየተጠበቀ	-15786
▁አውስትራሊያ	-15787
ሬ፣	-15788
ine	-15789
ሪካዊ	-15790
ታውም	-15791
ዝማች	-15792
ግቷል	-15793
▁ታን	-15794
▁1.2	-15795
▁ሰላጤ	-15796
▁ከዛም	-15797
▁የአፄ	-15798
ከታተለው	-15799
▁በችግር	-15800
▁ቢቆይም	-15801
▁አበይት	-15802
▁እለታዊ	-15803
▁እነማን	-15804
▁ከተቻለ	-15805
▁ከገበያ	-15806
▁ውድነት	-15807
▁የሆነች	-15808
▁በአማራና	-15809
▁ዲቪዚዮን	-15810
▁ተጠናክረው	-15811
▁ንግግራቸው	-15812
▁አብዱልፈታ	-15813
▁የከተማውን	-15814
▁ይከናወናል	-15815
▁ከፕሬዚዳንት	-15816
▁ፕሮግራሞችን	-15817
ሪዳ	-15818
ይዘ	-15819
ፃህ	-15820
መረቀ	-15821
ቴሪያ	-15822
▁76	-15823
▁ሰጡ	-15824
ቸውንም	-15825
▁ምንኛ	-15826
▁ሳለ፣	-15827
▁ይከፈ	-15828
▁አይደል	-15829
▁መሀመድ፣	-15830
▁ቆይታለች	-15831
▁በእውቀት	-15832
▁ችግሮቹን	-15833
▁አቢሲኒያ	-15834
▁ለማረጋጋት	-15835
▁ማሰባሰቢያ	-15836
▁በማስተማር	-15837
▁ኤርትራውያን	-15838
ሮቢ	-15839
▁ሰላማ	-15840
▁ቅንጅ	-15841
▁ከጓደ	-15842
▁ዲባባ	-15843
ስተናግዱ	-15844
▁ለውጥን	-15845
▁ሊወሰድ	-15846
▁መዋእል	-15847
▁ሲያብራ	-15848
▁በሶሪያ	-15849
▁ከዚያን	-15850
▁የሲቪክ	-15851
▁ያተኮሩ	-15852
▁መነሻነት	-15853
▁መዘጋጀት	-15854
▁አመራርና	-15855
▁አስመላሽ	-15856
▁እንደምና	-15857
▁ዘንድሮም	-15858
▁የምስረታ	-15859
▁የሽልማት	-15860
▁የችግሩን	-15861
▁ይገንዘቡ	-15862
▁ገንዘብና	-15863
▁በመመርመር	-15864
▁ተሰብስበው	-15865
▁እንዳይሆኑ	-15866
▁እውነታዎች	-15867
▁እንዳልተቻለ	-15868
▁ፍላጎታቸውን	-15869
▁መስማማታቸውን	-15870
ኑሮ	-15871
ፊክ	-15872
!!!	-15873
ሀዋሳ	-15874
ለት፣	-15875
ደበው	-15876
▁አሜ	-15877
▁የዚ	-15878
ሞክርም	-15879
ነጋገረ	-15880
▁ሰልፉ	-15881
▁ሰዎቹ	-15882
▁ቅመም	-15883
▁አንገ	-15884
▁ውሀው	-15885
▁የኤል	-15886
▁ለእስር	-15887
▁ለጥያቄ	-15888
▁መወሰድ	-15889
▁በተሰጠ	-15890
▁እስከማ	-15891
▁እየተን	-15892
▁ወጥነት	-15893
▁የተከሳ	-15894
▁የነፍስ	-15895
▁ፋሲሎች	-15896
▁ለሁለቱም	-15897
▁እንደውም	-15898
▁ወይዘሪት	-15899
▁ያሳስባሉ	-15900
▁በመስጠት፣	-15901
▁ያስከትላል	-15902
▁ባለስልጣን፣	-15903
ቆሮ	-15904
ኙት	-15905
ደሉ	-15906
ዲሳ	-15907
ፍተ	-15908
▁a	-15909
ብንን	-15910
ታደስ	-15911
ካፈሉ	-15912
ሪዎችና	-15913
ንስቲት	-15914
▁ቀለል	-15915
▁በማቀ	-15916
▁ከአይ	-15917
▁ውጫዊ	-15918
▁ይሰበ	-15919
▁ይቆጠ	-15920
▁ፈገግ	-15921
ፈፀማቸው	-15922
▁መሰረቱ	-15923
▁ሶስቱም	-15924
▁ናይሮቢ	-15925
▁አለብህ	-15926
▁የቀሩት	-15927
▁መቀዛቀዝ	-15928
▁በለንደን	-15929
▁በመገኘቱ	-15930
▁በአቅራቢ	-15931
▁አጠናቀው	-15932
▁ያሻማውን	-15933
▁ለፓርላማው	-15934
▁ትናገራለች	-15935
▁አምስተኛው	-15936
▁አገራቸውን	-15937
▁የሚከተለው	-15938
▁የሚገኙበት	-15939
▁በጎርጎርያን	-15940
▁እንደሚገልፁ	-15941
▁ከመጀመርያው	-15942
▁የሚጠበቅበትን	-15943
ማህ	-15944
ታሪ	-15945
ኑስ	-15946
ንሱ	-15947
እት	-15948
ካፍ	-15949
ራለሁ	-15950
▁አዜ	-15951
▁የዴ	-15952
▁ጎጂ	-15953
▁በካር	-15954
▁በክር	-15955
▁እመር	-15956
▁ከቦታ	-15957
▁ካይሮ	-15958
▁የዩኒ	-15959
▁ዲኤታ	-15960
▁ጥገኛ	-15961
ሳተላይት	-15962
ኮትላንድ	-15963
ጀመራቸው	-15964
▁በማዋል	-15965
▁አዘገጃ	-15966
▁አድናቂ	-15967
▁ይመለከ	-15968
▁በማጥቃት	-15969
▁በዙሪያው	-15970
▁አህጉራዊ	-15971
▁እንዲሄዱ	-15972
▁የተጣለው	-15973
▁ያስገነዝ	-15974
▁ድንጋዮች	-15975
▁ማብራሪያ፣	-15976
▁ተከናውኗል	-15977
▁የሚያስቀም	-15978
▁መገኘታቸውን	-15979
ልግል	-15980
መሳሰል	-15981
መስቀል	-15982
▁ሊሰጡ	-15983
▁ቀደሙ	-15984
▁የሙሉ	-15985
▁ይወድ	-15986
▁ፍስሀ	-15987
▁ማገልገ	-15988
▁በሀሳብ	-15989
▁ተባብሮ	-15990
▁የአፍና	-15991
▁ሙስሊሞች	-15992
▁በአደጋው	-15993
▁አካባቢን	-15994
▁ኤምሬትስ	-15995
▁እንዲረዳ	-15996
▁የመድረክ	-15997
▁የፀደቀው	-15998
▁ይዞታዎች	-15999
▁ለመመርመር	-16000
▁ለመገናኘት	-16001
▁ማረጋገጡን	-16002
▁እንዳለውም	-16003
▁እንደሚሉት፤	-16004
▁የሚያመላክት	-16005
ሶም	-16006
all	-16007
ሳቁስ	-16008
▁71	-16009
▁77	-16010
▁ልኮ	-16011
▁ከሸ	-16012
▁ያዩ	-16013
▁ጋና	-16014
▁አዝና	-16015
▁ወሰደ	-16016
▁ውጥን	-16017
▁መለያየ	-16018
▁በንጉሱ	-16019
▁ከቀረቡ	-16020
▁የዳኞች	-16021
▁ጠላቶች	-16022
▁መጠቀሚያ	-16023
▁ተመዝግቦ	-16024
▁አይነቱን	-16025
▁ከፌደራል	-16026
▁ይጫወታል	-16027
▁በመሰረታዊ	-16028
▁አልቻልንም	-16029
▁እንዳሉት፤	-16030
▁የግንኙነት	-16031
▁ፕሮፌሽናል	-16032
▁የሚሳተፉበት	-16033
**	-16034
እር	-16035
ዘኛ	-16036
ህደት	-16037
ሳውቅ	-16038
ክሮች	-16039
▁ራም	-16040
▁ሰፈ	-16041
ታችንም	-16042
▁ሳኦል	-16043
▁በመረ	-16044
▁ትንን	-16045
▁አማን	-16046
▁አውድ	-16047
▁ከመታ	-16048
▁ኪዳነ	-16049
▁ስሜታዊ	-16050
▁በጠበቀ	-16051
▁የተዛባ	-16052
▁ድፍረት	-16053
▁ለመትከል	-16054
▁አምነስቲ	-16055
▁አስገድዶ	-16056
▁ከድሬዳዋ	-16057
▁የፕሮጀክ	-16058
▁ጥገኝነት	-16059
▁በፓርላማው	-16060
▁አስተዳደግ	-16061
▁እየተገነቡ	-16062
▁የፓርላማው	-16063
▁በማስተዋወቅ	-16064
▁ተጠያቂነትን	-16065
▁አስጠንቅቀዋል	-16066
ሲካ	-16067
ትመ	-16068
▁ሀዲ	-16069
▁በጫ	-16070
▁ዞሮ	-16071
▁ጎማ	-16072
ጊዜውም	-16073
▁ትዝታ	-16074
▁አሀጉ	-16075
▁ካለፈ	-16076
▁የታጀ	-16077
▁ያሳው	-16078
▁ገጥሞ	-16079
▁ፕረዚ	-16080
▁ርክክብ	-16081
▁ሰማያት	-16082
▁አሳፋሪ	-16083
▁አስከሬ	-16084
▁ጀግኖች	-16085
▁ማራዘሚያ	-16086
▁በወንዶች	-16087
▁አላቸው፦	-16088
▁የማጣሪያ	-16089
▁የተመለሱ	-16090
▁ተመልካቾች	-16091
▁ከክርስቶስ	-16092
ሂብ	-16093
መደቡ	-16094
በርከ	-16095
ነጋዴ	-16096
ንተው	-16097
የም፣	-16098
▁6.	-16099
▁ሀቅ	-16100
ደረገም	-16101
▁ከቆየ	-16102
▁ጨረቃ	-16103
▁መሰጠት	-16104
▁ማእከላ	-16105
▁ቸርነት	-16106
▁ክሬዲት	-16107
▁የልደት	-16108
▁የቀለም	-16109
▁የአዋሽ	-16110
▁ፍቅርና	-16111
▁እጥረትና	-16112
▁ኦሎምፒክ	-16113
▁ከድርጅቱ	-16114
▁ከተሰጣቸው	-16115
▁አስቆጥረዋል	-16116
▁እንደሚያገኙ	-16117
ዬ፣	-16118
ብኝት	-16119
ኸሪያ	-16120
ደነግ	-16121
▁ኢድ	-16122
▁መፍቻ	-16123
▁ተደጋ	-16124
▁ዙፋን	-16125
▁የፎቶ	-16126
▁ድራማ	-16127
▁ግምጃ	-16128
ኖቬሽንና	-16129
▁ለቦርዱ	-16130
▁ለደቡብ	-16131
▁ሲሞክር	-16132
▁ስለምን	-16133
▁በሊቢያ	-16134
▁በባቡር	-16135
▁በፖሊሲ	-16136
▁ወቅቱን	-16137
▁ወንጌል	-16138
▁የሰሩት	-16139
▁የዋንጫ	-16140
▁ያዘጋጀ	-16141
▁ፈፅሟል	-16142
▁በተቀናጀ	-16143
▁የሌሎችን	-16144
▁ጉባኤዎች	-16145
▁መቻላቸውን	-16146
▁በየሳምንቱ	-16147
▁ከእንግሊዝ	-16148
▁አቅጣጫዎችን	-16149
ቀጠ	-16150
ቶቼ	-16151
እሰ	-16152
ዌት	-16153
ባቱን	-16154
ንቀቅ	-16155
አይቪ	-16156
ጡንቻ	-16157
▁መታገ	-16158
▁ማክስ	-16159
▁አካቶ	-16160
▁ከእር	-16161
▁ክንፍ	-16162
▁የሚዳ	-16163
▁ገበታ	-16164
▁ፕሮጄ	-16165
/2001	-16166
▁ለክልል	-16167
▁ሙስናን	-16168
▁ማቀዱን	-16169
▁ባለፈ፣	-16170
▁ያጠቃል	-16171
▁ጉዳይም	-16172
▁ግጭቱን	-16173
▁ፖሊስን	-16174
▁መርሆዎች	-16175
▁አመታቸው	-16176
▁ይጀምራሉ	-16177
▁ይጠይቃሉ	-16178
▁በማስመሰል	-16179
▁በተፈፀመው	-16180
▁ኢንስፔክተር	-16181
98	-16182
ጋብ	-16183
▁g	-16184
art	-16185
ለልኝ	-16186
ሰረዙ	-16187
የመው	-16188
▁ሱዳ	-16189
ካተተው	-16190
ገጣጠም	-16191
▁ልማቱ	-16192
▁መታወ	-16193
▁ካህኑ	-16194
▁የዚያ	-16195
▁2091	-16196
▁መስርቶ	-16197
▁በመስራ	-16198
▁በችሎት	-16199
▁ባቢሎን	-16200
▁ተሳክቶ	-16201
▁ተግባሩ	-16202
▁የሚመሰ	-16203
▁በአሰልጣ	-16204
▁በጣሊያን	-16205
▁ከመደበኛ	-16206
▁የሚጫወት	-16207
▁የሚፈጠር	-16208
▁ድርጅቱን	-16209
▁ግለሰቦቹ	-16210
▁በመቀላቀል	-16211
▁ዝግጅቶችን	-16212
▁የኦሊምፒክ	-16213
ናፈ	-16214
ልቀው	-16215
ራት፣	-16216
ከባለ	-16217
ክሯል	-16218
▁ሎዛ	-16219
▁መፀ	-16220
▁ትጥ	-16221
▁ደዌ	-16222
▁ፍቺ	-16223
2091	-16224
ቃቅንና	-16225
ቸዋለን	-16226
▁ሰው፣	-16227
▁ጉጉት	-16228
▁ጳጳስ	-16229
▁ለችግር	-16230
▁በበኩሏ	-16231
▁ክብርና	-16232
▁የድርቅ	-16233
ከናወናቸው	-16234
▁ለመቅረብ	-16235
▁ማመቻቸት	-16236
▁የትራንስ	-16237
▁የወታደራዊ	-16238
▁ያገለግላል	-16239
▁መምጣታቸውን	-16240
▁እንደሚቀጥሉ	-16241
▁የመጀመሪያዋ	-16242
ንኮ	-16243
ድረጉ	-16244
▁ራሴ	-16245
▁በፎ	-16246
ርተዋል	-16247
ጦርነት	-16248
▁ነውም	-16249
▁አታው	-16250
▁አድሮ	-16251
▁እርባ	-16252
▁እሰራ	-16253
▁ከገቢ	-16254
ከታተልና	-16255
▁ማግኘቱ	-16256
▁የጥርስ	-16257
▁ሀገራትን	-16258
▁መቐለዎች	-16259
▁በወረዳው	-16260
▁የሰራዊቱ	-16261
▁የትውልድ	-16262
▁ያካትታሉ	-16263
▁ያዘጋጀው	-16264
▁ለሚካሄደው	-16265
▁ተስማምተው	-16266
▁አፈፃፀሙን	-16267
▁የሚመጣውን	-16268
▁የነበረበትን	-16269
▁ማኑፋክቸሪንግ	-16270
▁የማኑፋክቸሪንግ	-16271
ረመ	-16272
ነፍ	-16273
ገሬ	-16274
ቆልቆ	-16275
ንግዳ	-16276
ፋዮች	-16277
▁61	-16278
▁ከኪ	-16279
ወጣበት	-16280
▁የዋሉ	-16281
▁ለሚኖሩ	-16282
▁ለገጣፎ	-16283
▁መዘርጋ	-16284
▁ሲጫወቱ	-16285
▁በወጣት	-16286
▁ይወጣል	-16287
▁ለምንድነው	-16288
▁ተገድለዋል	-16289
▁ወንጀሎችን	-16290
▁የሚተዳደሩ	-16291
▁የተመለሰው	-16292
▁የደንበኞች	-16293
-5	-16294
ምያ	-16295
ies	-16296
ለው፣	-16297
ሩንና	-16298
ሳኤል	-16299
ኢዜአ	-16300
▁ራማ	-16301
▁ሲሲ	-16302
▁ቅቤ	-16303
▁ከላ	-16304
▁180	-16305
▁ይፈጠ	-16306
▁ግእዝ	-16307
ደረሳቸው	-16308
▁መጠን፣	-16309
▁ሴክተር	-16310
▁በምስራ	-16311
▁ቡድናቸው	-16312
▁ተሹመዋል	-16313
▁እየታወቀ	-16314
▁የተባለች	-16315
▁የታችኛው	-16316
▁በአፅንኦት	-16317
▁የፍልስጤም	-16318
▁ያደረጋቸው	-16319
▁እንደምንችል	-16320
▁ከህብረተሰቡ	-16321
ሌ፣	-16322
ቃዱ	-16323
ዱና	-16324
ርቷል	-16325
ከውን	-16326
ዳደሩ	-16327
ገኘቱ	-16328
▁ቡታ	-16329
ረስላሴ	-16330
▁110	-16331
▁በክለ	-16332
▁ወራሽ	-16333
▁ያሰባ	-16334
▁ያጋጥ	-16335
▁ይገደ	-16336
▁መቆጠብ	-16337
▁በረጅም	-16338
▁በተሰራ	-16339
▁እየገፋ	-16340
▁ኬንያታ	-16341
▁የሶሪያ	-16342
▁ሁልጊዜም	-16343
▁መኳንንት	-16344
▁መዋቅሮች	-16345
▁በባንኮች	-16346
▁ባካሄዱት	-16347
▁ተጎጂዎች	-16348
▁የተገናኘ	-16349
▁ያስገኛል	-16350
▁ሀላፊነትን	-16351
▁በባህርዳር	-16352
▁የሚሰጥበት	-16353
እነ	-16354
ጡና	-16355
ላታል	-16356
ሰማኮ	-16357
ባት፣	-16358
ደናቂ	-16359
ፈርም	-16360
▁በቃሉ	-16361
▁አኩሪ	-16362
▁ከመር	-16363
▁ከወር	-16364
▁ሰብስቦ	-16365
▁ቀንሷል	-16366
▁አባወራ	-16367
▁የሚገር	-16368
▁የሚጠብ	-16369
▁የተማረ	-16370
▁የደርግ	-16371
▁ፍላጎቱ	-16372
▁ለማፍረስ	-16373
▁ማሻሻያው	-16374
▁ምስራቹን	-16375
▁ሮይተርስ	-16376
▁ሲያካሂድ	-16377
▁በሀይማኖ	-16378
▁በድርድሩ	-16379
▁የመለየት	-16380
▁የመምረጥ	-16381
▁የፀጥታና	-16382
▁ያልታወቀ	-16383
▁ተመርጠዋል	-16384
▁ሀብረተሰቡን	-16385
▁እንዳልነበር	-16386
መቅ	-16387
ቀኛ	-16388
ብቃ	-16389
ኖና	-16390
ሰብን	-16391
ቀየር	-16392
ቆመው	-16393
ጣጣም	-16394
▁ማካ	-16395
▁ለራስ	-16396
▁ማስኬ	-16397
▁ርእይ	-16398
▁አምል	-16399
▁የገለ	-16400
▁ያበቃ	-16401
▁ይገጥ	-16402
▁ፌደራ	-16403
▁መፍጠሩ	-16404
▁ሱዳን፣	-16405
▁እለትም	-16406
▁ወደቦች	-16407
▁ጀምረው	-16408
▁በሚገኙት	-16409
▁ኔታንያሁ	-16410
▁አስቆጣሪ	-16411
▁ከቤተሰብ	-16412
▁አቅራቢዎቹ	-16413
▁የመንግስታቱ	-16414
▁እንደተገኘባቸው	-16415
▁የሚያስፈልጋቸውን	-16416
ኑና	-16417
ህራሄ	-16418
ቤሪያ	-16419
ታዊው	-16420
ደራስ	-16421
▁7.	-16422
ስተዳደ	-16423
▁ልጥፍ	-16424
▁በገጠ	-16425
▁ከፍሎ	-16426
▁የሉም	-16427
ገጣጠሚያ	-16428
▁መጠንም	-16429
▁ማቆየት	-16430
▁በስራው	-16431
▁አውታር	-16432
▁ወዳጆች	-16433
▁የተሰና	-16434
▁ስለጉዳዩ	-16435
▁ሻምፒዮን	-16436
▁በውሳኔው	-16437
▁አጣብቂኝ	-16438
▁እንዳለን	-16439
▁ማጠናቀቁን	-16440
▁ተቃውመዋል	-16441
▁እንደሚሄድ	-16442
▁በበኩላቸው፥	-16443
ቅላ	-16444
ቪዥ	-16445
ፀት	-16446
ቀንስ	-16447
በላሽ	-16448
ቸግር	-16449
ክብት	-16450
ድረኩ	-16451
▁ቋት	-16452
▁ሚስቱ	-16453
▁በልም	-16454
▁በስዊ	-16455
▁እምቢ	-16456
▁እያን	-16457
▁እግሩ	-16458
▁መክፈት	-16459
▁መፍቀድ	-16460
▁በሚዲያ	-16461
▁በምትኩ	-16462
▁ታይምስ	-16463
▁አመኔታ	-16464
▁ከቀድሞ	-16465
▁የተጨዋ	-16466
▁ገዝተው	-16467
▁ሊሰጣቸው	-16468
▁መደፍረስ	-16469
▁መዳረሻዎች	-16470
▁ፌዴሬሽኖች	-16471
▁የሚከናወነው	-16472
!)	-16473
ጣፍ	-16474
ህንም	-16475
ጀንቲ	-16476
▁ማሪ	-16477
▁ዶሮ	-16478
ምህራን	-16479
ፀባርቅ	-16480
ፓርታማ	-16481
▁ለበአ	-16482
▁አምድ	-16483
▁እናቴ	-16484
▁ከቆዩ	-16485
▁ከፍቶ	-16486
▁ያለፉ	-16487
▁ማስቆም	-16488
▁በፋሲል	-16489
▁ተከራይ	-16490
▁የሚነካ	-16491
▁የጅምላ	-16492
▁ያሳዩት	-16493
▁ፍፃሜው	-16494
▁ምሳሌዎች	-16495
▁ምግቦችን	-16496
▁አሰሪዎች	-16497
▁የመዋቅር	-16498
▁የሚመጥን	-16499
▁የተከሰቱ	-16500
▁ለመገምገም	-16501
▁በአክሲዮን	-16502
▁አስታውቀው	-16503
▁አድርጋችሁ	-16504
▁የምታደርገው	-16505
▁አስተዳዳሪዎች	-16506
ex	-16507
ከወ	-16508
ዞት	-16509
ስትን	-16510
ችንም	-16511
ያትር	-16512
ጓጎል	-16513
▁ቡር	-16514
ላችሁ፤	-16515
መንበር	-16516
ኢየሱስ	-16517
▁ሄዷል	-16518
▁ቆጣቢ	-16519
▁በሚሉ	-16520
▁ዘግይ	-16521
▁የግቡ	-16522
ደረጃጀት	-16523
▁ሰሜናዊ	-16524
▁ስልኮች	-16525
▁በስደት	-16526
▁በጀመረ	-16527
▁አንዱና	-16528
▁ከዋናው	-16529
▁የፍትሀ	-16530
▁ያምናል	-16531
▁ይሄንን	-16532
▁ከቀድሞው	-16533
▁ይበልጣል	-16534
▁በማናቸውም	-16535
▁እንዳይወጡ	-16536
▁የጨዋታውን	-16537
▁ደብረፅዮን	-16538
▁መልእክቶችን	-16539
▁መፍትሄዎችን	-16540
▁ሴክሬታሪያት	-16541
▁አመስግነዋል	-16542
▁እንደሚሳተፉ	-16543
ክሊ	-16544
ሳሰሉ	-16545
በጣም	-16546
ግሟል	-16547
ጎብኘ	-16548
ፍንት	-16549
▁ማኀ	-16550
▁ኤፌ	-16551
▁ኮት	-16552
▁ዘፀ	-16553
ከራየት	-16554
ዳማዊት	-16555
▁ምንጩ	-16556
▁ሰይድ	-16557
▁ቅጠል	-16558
▁በልጅ	-16559
▁በቆይ	-16560
▁ንስሀ	-16561
▁አግሮ	-16562
▁እዚሁ	-16563
▁ካሚል	-16564
▁ክንፈ	-16565
▁የበግ	-16566
▁ሰዎችና	-16567
▁አብላጫ	-16568
▁እስራኤ	-16569
▁ከእቅዱ	-16570
▁የማየት	-16571
▁የሰባት	-16572
▁ይደውሉ	-16573
▁ፅንፈኛ	-16574
▁መከፋፈል	-16575
▁ማሽቆልቆ	-16576
▁በመስቀል	-16577
▁አብረውት	-16578
▁የምዝገባ	-16579
▁የወሰዱት	-16580
▁መስተጋብር	-16581
▁በማስረዳት	-16582
▁እየተገለፀ	-16583
▁የተደረጉት	-16584
▁የአፍሪካን	-16585
▁ባለስልጣናትና	-16586
ሴይ	-16587
ሻማ	-16588
በጅ	-16589
ትረ	-16590
ይራ	-16591
ጓሚ	-16592
ive	-16593
ለጠፍ	-16594
ኖችና	-16595
ጨርስ	-16596
▁..	-16597
▁81	-16598
▁ዋይ	-16599
▁ጉር	-16600
ዘረጋው	-16601
ያቂነት	-16602
▁በእስ	-16603
▁ያዳም	-16604
▁ይደግ	-16605
▁ግዥና	-16606
ሸነፈበት	-16607
ጠበቀውን	-16608
▁ርእሶች	-16609
▁ሲኖዶስ	-16610
▁ቀዳሚው	-16611
▁ከለውጡ	-16612
▁የሚገድ	-16613
▁ጠንክሮ	-16614
▁መዝሙሮች	-16615
▁መጥተዋል	-16616
▁ማንነትን	-16617
▁በስራቸው	-16618
▁አጥብቀው	-16619
▁ከእርስዎ	-16620
▁የግንቦት	-16621
▁ይጠቅማል	-16622
▁ፎቶግራፍ	-16623
▁ባለቤታቸው	-16624
▁እንዲከፍል	-16625
▁የኢኮኖሚና	-16626
▁ሊቀመንበርና	-16627
▁ኢንስቲትዩቱ	-16628
▁በፕሬዚዳንትነት	-16629
ንዶ	-16630
ስቲን	-16631
ቆምና	-16632
ድሮች	-16633
ስፒታል	-16634
▁ሌተና	-16635
▁ነፍሰ	-16636
▁የፈጀ	-16637
መለካከት	-16638
ናገራቸው	-16639
▁ሲቀርቡ	-16640
▁ቡድን፣	-16641
▁ነገስቱ	-16642
▁አሰራሩ	-16643
▁አትራፊ	-16644
▁የፀደቀ	-16645
▁ለአካባቢ	-16646
▁ባለባቸው	-16647
▁ክለቦችን	-16648
▁የሚውለው	-16649
▁የሞከረው	-16650
▁የዘመናዊ	-16651
▁መነጋገሪያ	-16652
ራቂ	-16653
ሳር	-16654
ዳ፣	-16655
ለኛው	-16656
ራንት	-16657
ሲኤል	-16658
ታወት	-16659
▁ሴን	-16660
▁በቲ	-16661
ራህማን	-16662
ጠናክሩ	-16663
▁ለማእ	-16664
▁ቀን፣	-16665
▁በአብ	-16666
▁የማታ	-16667
▁ይጠፋ	-16668
▁ደራሽ	-16669
▁ደፋር	-16670
ስተላልፍ	-16671
▁መመልከ	-16672
▁በመጠን	-16673
▁ባለቤቴ	-16674
▁ባንክም	-16675
▁አቅዷል	-16676
▁ውብሸት	-16677
▁የበረዶ	-16678
▁የኢጋድ	-16679
▁የውሀና	-16680
▁የይዞታ	-16681
▁የፍፃሜ	-16682
▁ሳተላይት	-16683
▁በመፍቀድ	-16684
▁አልሆነም	-16685
▁ከከተማው	-16686
▁የጥምቀት	-16687
▁ይቆጠራል	-16688
▁እንደሚወጣ	-16689
▁እንዲረጋገጥ	-16690
▁የእግዚአብሄርን	-16691
ሸሹ	-16692
ቅሶ	-16693
ዎቼ	-16694
ማታዊ	-16695
ብሊክ	-16696
ቲስት	-16697
ገሩት	-16698
▁89	-16699
▁ተኩ	-16700
▁ቢመስ	-16701
▁ተለው	-16702
▁አስጊ	-16703
▁ወድቆ	-16704
ጠናቀቅም	-16705
▁ለነበሩ	-16706
▁መውረድ	-16707
▁ያላነሰ	-16708
▁ጥቅምና	-16709
▁ማድረግን	-16710
▁በመመደብ	-16711
▁በማሳወቅ	-16712
▁የፈጠሩት	-16713
▁ዮርዳኖስ	-16714
▁እንዳደረጉ	-16715
▁ኮንትራክተር	-16716
▁የሚያስገድድ	-16717
ኤት	-16718
ዛቅ	-16719
ብቃት	-16720
ክክለ	-16721
ዝቀዣ	-16722
▁ድሮ	-16723
▁ጌዲ	-16724
1983	-16725
ሬዚዳን	-16726
ሰራቸው	-16727
ችላቸው	-16728
▁የፍል	-16729
መንግስቱ	-16730
▁ማቋረጥ	-16731
▁በሀዳር	-16732
▁አቀፍና	-16733
▁ከሲዳማ	-16734
▁የበአል	-16735
ጠረጠሩበት	-16736
▁ሆስፒታሉ	-16737
▁መንደሮች	-16738
▁አይናለም	-16739
▁እንዲቀር	-16740
▁የለብንም	-16741
▁ድርድሮች	-16742
▁ለፕሮጀክቱ	-16743
▁ሰራተኞች፣	-16744
▁በማስወገድ	-16745
▁እንደደረሰባቸው	-16746
ሙድ	-16747
ሺድ	-16748
ፖል	-16749
ሀሳብ	-16750
ዊነት	-16751
ያችሁ	-16752
ፈረሙ	-16753
▁73	-16754
▁ሳቢ	-16755
▁ያጋ	-16756
▁ዲስ	-16757
▁ጥይ	-16758
ቋቋሙት	-16759
ኤርትራ	-16760
ገመተው	-16761
▁ካሁን	-16762
▁ሲፈፅሙ	-16763
▁ባገኘው	-16764
▁ምእራባዊ	-16765
▁ትሆናለች	-16766
▁አሜሪካና	-16767
▁ፌደሬሽን	-16768
▁ለማሸጋገር	-16769
▁አስታውቃለች	-16770
▁ዲፓርትመንት	-16771
▁ፕሬዚዳንትነት	-16772
ሀኔ	-16773
ሀዲን	-16774
መረጠ	-16775
ሶቹን	-16776
አብን	-16777
▁ቨር	-16778
▁ፓኬ	-16779
ያውቀው	-16780
ጎለብት	-16781
▁www	-16782
▁ፍልሰ	-16783
▁ሲጠይቁ	-16784
▁በጎርፍ	-16785
▁ባንዲራ	-16786
▁ብሄርን	-16787
▁ከቀጠለ	-16788
▁ከተማም	-16789
▁ይነሳል	-16790
▁ለትግራይ	-16791
▁ከክልሎች	-16792
▁የታሰሩት	-16793
▁የእቅዱን	-16794
▁የጠቅላላ	-16795
▁በብቸኝነት	-16796
▁ተአማኒነት	-16797
▁እላችኋለሁ	-16798
▁የላብራቶሪ	-16799
▁ያስመዘገቡ	-16800
▁ጉዳያቸውን	-16801
▁ምስጋናቸውን	-16802
▁እንደማይቀር	-16803
▁የቀረበላቸው	-16804
▁የአሰልጣኞች	-16805
▁ገብረመድህን	-16806
▁በዩኒቨርሲቲው	-16807
▁እንደተለመደው	-16808
51	-16809
up	-16810
ሎፕ	-16811
ቡ፣	-16812
ዲፒ	-16813
ሊየም	-16814
መርጥ	-16815
ቃብር	-16816
ገሪያ	-16817
ጊያው	-16818
▁ለኦ	-16819
▁መሻ	-16820
▁ታጋ	-16821
▁ፊፋ	-16822
ንደዚህ	-16823
ገበያያ	-16824
▁ማንሳ	-16825
▁በአሳ	-16826
▁ኢሰመ	-16827
▁እየነ	-16828
▁ከመተ	-16829
▁ውህደ	-16830
▁የመጠ	-16831
▁የድሮ	-16832
▁የጌታ	-16833
▁ይበል	-16834
▁ማተኮር	-16835
▁ቀጠናው	-16836
▁በመቆየ	-16837
▁በኮምፒ	-16838
▁ነበርኩ	-16839
▁የቀጠለ	-16840
እንግሊዝኛ	-16841
▁በሚመስል	-16842
▁በሚያዝያ	-16843
▁በእሳቸው	-16844
▁ከምስራቅ	-16845
▁የሚስማማ	-16846
▁ይጠቀማል	-16847
▁በእንስሳት	-16848
▁የመሰብሰብ	-16849
▁የሚተላለፉ	-16850
▁የሚፈልገው	-16851
▁ያመለከተው	-16852
▁ፓርቲዎችና	-16853
▁ባለንብረቶች	-16854
▁ተመልክተናል	-16855
83	-16856
ቀለ	-16857
ቅቦ	-16858
ጃል	-16859
ረከበ	-16860
ተርፍ	-16861
▁93	-16862
▁ፐር	-16863
ኝነትን	-16864
▁ለመሰ	-16865
▁ርቀው	-16866
▁በካፍ	-16867
▁ቱሪዝ	-16868
▁የተካ	-16869
▁የዚሁ	-16870
▁ለወንድ	-16871
▁ሙስሊም	-16872
▁ሪዞርት	-16873
▁ነቢያት	-16874
▁አጥንት	-16875
▁የተሰነ	-16876
▁ማስታወስ	-16877
▁ሰራዊቱን	-16878
▁በጥንታዊ	-16879
▁በፈፀሙት	-16880
▁ከመፍጠር	-16881
▁የሚደግፍ	-16882
▁የቅርንጫ	-16883
▁የይሆዋን	-16884
▁የጁንታው	-16885
▁የፌዴራሉ	-16886
▁ፕሬዝዳን	-16887
▁አደረሳችሁ	-16888
▁የሚከበረው	-16889
▁መመለሳቸውን	-16890
▁በማስታወስ፣	-16891
▁በኢንተርኔት	-16892
ማያ	-16893
▁Ch	-16894
▁ስፓ	-16895
▁ማነው	-16896
▁ቀንሶ	-16897
▁ግዙፉ	-16898
▁ፊሊፕ	-16899
▁ሊቀርብ	-16900
▁ባቀረቡ	-16901
▁ተጠቆመ	-16902
▁እንደሰ	-16903
▁ከነአን	-16904
▁የኢራን	-16905
▁የክፍለ	-16906
▁ያስባሉ	-16907
▁ድረስም	-16908
▁ግኝቶች	-16909
▁በተቃዋሚ	-16910
▁ታካሚዎች	-16911
▁እንዲቆሙ	-16912
▁ክላስተር	-16913
▁ውይይትና	-16914
▁የመምራት	-16915
▁የሚቃጠል	-16916
▁ማብራሪያ፤	-16917
▁በግለሰቦች	-16918
▁ባለስልጣናቱ	-16919
▁ተከላካዮችን	-16920
▁ያደርጋቸዋል	-16921
▁የተሻገረለትን	-16922
ህት	-16923
ተኝ	-16924
ኳል	-16925
በት፤	-16926
ቶኛል	-16927
ፍተው	-16928
▁ማመ	-16929
▁ማድ	-16930
▁ሳኦ	-16931
▁ዞር	-16932
ከፋፈለ	-16933
▁ለመለ	-16934
▁ሳይታ	-16935
▁ተቆር	-16936
▁ተቋር	-16937
▁ከመል	-16938
▁ኮምፕ	-16939
▁የማም	-16940
▁መከሰት	-16941
▁ማስኬጃ	-16942
▁ስብእና	-16943
▁ብርታት	-16944
▁አይኖር	-16945
▁ካውንቲ	-16946
▁የመልስ	-16947
▁የቀረጥ	-16948
▁ጉባኤ፣	-16949
▁ጣልያን	-16950
▁መረጃውን	-16951
▁መሪዎችና	-16952
▁ስርአት፣	-16953
▁በተሰኘው	-16954
▁ደጋግመው	-16955
▁መደምደሚያ	-16956
▁ተቆጥበዋል	-16957
▁ይከራከራሉ	-16958
▁በተጨማሪም፣	-16959
▁በአውሮፕላን	-16960
▁ከዩኒቨርሲቲ	-16961
▁የሚያስከትለውን	-16962
ለውም	-16963
መረተ	-16964
ራቾች	-16965
ሴላዊ	-16966
▁ህዋ	-16967
▁ማባ	-16968
▁ሞል	-16969
ብዛኛው	-16970
ገለገለ	-16971
▁በጥቂ	-16972
▁አውቆ	-16973
▁ከብት	-16974
ፌደሬሽኑ	-16975
▁ለአዲሱ	-16976
▁መሬቱን	-16977
▁በደርግ	-16978
▁በድብቅ	-16979
▁ተርፎም	-16980
▁የዘርፍ	-16981
▁ፖሊስ፣	-16982
▁በስፖርቱ	-16983
▁እየጠበቀ	-16984
▁የመወሰን	-16985
▁የምርጫው	-16986
▁ይሰጠዋል	-16987
▁ገበታቸው	-16988
▁የሚጠበቀውን	-16989
ለተ	-16990
ሊላ	-16991
በቅ	-16992
ዴኦ	-16993
▁ይጋ	-16994
ቀርብም	-16995
ታወቅ፣	-16996
ከፋፈሉ	-16997
▁ሌላም	-16998
▁ሰብሮ	-16999
▁ቀዳዳ	-17000
▁በማወ	-17001
▁በኳስ	-17002
▁ተጋባ	-17003
▁አበል	-17004
▁ከመነ	-17005
▁የስደ	-17006
▁መካሄዱ	-17007
▁ማእበል	-17008
▁በትንሽ	-17009
▁አለው፤	-17010
▁አጋጥሞ	-17011
▁ዋንጫን	-17012
▁መውጣቱን	-17013
▁በማስገባ	-17014
▁አላግባብ	-17015
▁እስራትና	-17016
▁እናንተን	-17017
▁ሀይለስላሴ	-17018
▁ባስቆጠረው	-17019
▁እንደሚያገኝ	-17020
▁የተከናወነው	-17021
ለኹ	-17022
▁ፏ	-17023
ሪቲሽ	-17024
ናጋት	-17025
▁ማሊ	-17026
▁በፒ	-17027
ልጥፍና	-17028
ርፖርት	-17029
ቀጥሉት	-17030
ነሷቸው	-17031
ፈርኦን	-17032
▁በቤቱ	-17033
▁ነገሪ	-17034
▁ኢዴፓ	-17035
▁የማው	-17036
▁ህግጋት	-17037
▁ለግብፅ	-17038
▁አካውን	-17039
▁ሳይጨምር	-17040
▁በትላንት	-17041
▁በእርዳታ	-17042
▁በክረምት	-17043
▁በድፍረት	-17044
▁ተገምቷል	-17045
▁የብርሀን	-17046
▁የተመደበ	-17047
▁የድርጅት	-17048
▁ገፅታዎች	-17049
▁ስትራቴጂክ	-17050
▁በፕሮጀክቱ	-17051
▁አቅርቦት፣	-17052
▁እንደጀመረ	-17053
▁እየተሻሻለ	-17054
▁ክፍያዎችን	-17055
▁እንዲተላለፍ	-17056
▁አስተናጋጅነት	-17057
▁እንደሚያስፈልጋቸው	-17058
ሮፕ	-17059
ገታ	-17060
ላትና	-17061
ላጠፈ	-17062
ቁረጥ	-17063
እስከ	-17064
ኪዳን	-17065
ዋሀድ	-17066
▁ሂድ	-17067
▁ሰዶ	-17068
▁ንግስ	-17069
▁ከምታ	-17070
ፕሎማቲክ	-17071
▁መፈራረ	-17072
▁ማህበረ	-17073
▁ሪቻርድ	-17074
▁አጥጋቢ	-17075
▁ከተነሳ	-17076
▁ዋናዎቹ	-17077
▁የሚይዙ	-17078
▁የብሄረ	-17079
▁የአውቶ	-17080
ጠቀምባቸው	-17081
▁መጠየቁን	-17082
▁ንግግር፣	-17083
▁እርሻዎች	-17084
▁እንዳያስ	-17085
▁ከሀገሪቱ	-17086
▁ከተባሉት	-17087
▁ከተፈለገ	-17088
▁ከተፈፀመ	-17089
▁ዘዴዎችን	-17090
▁የመታውን	-17091
▁ለመወዳደር	-17092
▁የህዝቦችን	-17093
አለ	-17094
ለሁ፣	-17095
▁ላሳ	-17096
▁ፍጡ	-17097
ሽንፈት	-17098
በልፀግ	-17099
▁ለማቀ	-17100
▁በመጡ	-17101
▁ወረር	-17102
▁ይከብ	-17103
▁ዳሸን	-17104
ስተካከያ	-17105
▁ሊቀጥል	-17106
▁ሰላምታ	-17107
▁በዳዊት	-17108
▁ብድሩን	-17109
▁አስናቀ	-17110
▁እንጠይ	-17111
▁ከደረሰ	-17112
▁የሞራል	-17113
▁ደረጃና	-17114
▁ድምፆች	-17115
▁ህዝባችን	-17116
▁በማጥናት	-17117
▁በደቡባዊ	-17118
▁ታዳሚዎች	-17119
▁የመስሪያ	-17120
▁የመስቀል	-17121
▁ያልፈለጉ	-17122
▁ጠንካራና	-17123
▁እንዲሰማሩ	-17124
▁ስልጠናዎችን	-17125
▁በቤንሻንጉል	-17126
▁እንደሚገኙም	-17127
▁እንዳለበት፣	-17128
▁ገንዘባቸውን	-17129
▁ፍልስጤማውያን	-17130
82	-17131
97	-17132
ማክ	-17133
ውን፣	-17134
▁8.	-17135
▁ሞቅ	-17136
▁የፎ	-17137
ፈረንሱ	-17138
▁ሰይፉ	-17139
▁ኢብሳ	-17140
▁የኮሌ	-17141
▁ያላስ	-17142
▁ሀዋርያ	-17143
▁ማስፋት	-17144
▁ቀጣዩን	-17145
▁ቢሾፍቱ	-17146
▁ተዘዋው	-17147
▁ወኪሎች	-17148
▁ወደግብ	-17149
▁የሞከረ	-17150
▁መጠናከር	-17151
▁መፈናቀል	-17152
▁በምርምር	-17153
▁በወጣቶች	-17154
▁አንስቷል	-17155
▁የመማሪያ	-17156
▁የጠየቁት	-17157
▁አትክልትና	-17158
▁አንዱአለም	-17159
▁እናምናለን	-17160
▁የምፈልገው	-17161
▁ሳይጠቀምበት	-17162
▁እንዳልሆነም	-17163
▁ድንጋጌዎችን	-17164
▁ያስፈልግዎታል	-17165
81	-17166
ሀላ	-17167
ያየ	-17168
ዲቅ	-17169
ዛቀዘ	-17170
ጣችሁ	-17171
▁በዜ	-17172
[...]
