[UNK]	0
[PAD]	0
[SOS]	0
[EOS]	0
▁የ	-0
▁በ	-1
▁አ	-2
▁እ	-3
▁መ	-4
▁።	-5
▁ከ	-6
▁እን	-7
▁ተ	-8
▁ለ	-9
ቸው	-10
▁ይ	-11
▁ወ	-12
▁ያ	-13
▁የሚ	-14
▁ነ	-15
▁ስ	-16
ዎች	-17
ላይ	-18
▁ማ	-19
▁እንደ	-20
▁ም	-21
▁የተ	-22
▁ብ	-23
ዋል	-24
ነት	-25
▁ው	-26
▁በመ	-27
▁ግ	-28
▁ላይ	-29
▁ባ	-30
ስት	-31
▁ሰ	-32
▁ሲ	-33
▁እንዲ	-34
▁አስ	-35
▁እና	-36
ውን	-37
▁ሀ	-38
▁ደ	-39
ንግ	-40
▁በአ	-41
▁ነው	-42
▁በተ	-43
▁ጥ	-44
ቶች	-45
▁ገ	-46
ሆኑ	-47
በት	-48
▁የአ	-49
▁ክ	-50
ሆን	-51
▁ቀ	-52
▁ድ	-53
▁የመ	-54
ለው	-55
ንድ	-56
▁ት	-57
ኢት	-58
ኢትዮ	-59
▁"	-60
▁ህ	-61
ደረ	-62
ሆነ	-63
ጵያ	-64
ዚህ	-65
ኢትዮጵያ	-66
ችን	-67
▁ወደ	-68
በር	-69
ቸውን	-70
▁ሁ	-71
▁ለመ	-72
▁ሚ	-73
▁ለማ	-74
▁ቤ	-75
▁አመ	-76
ስጥ	-77
ገር	-78
▁በማ	-79
▁እንደሚ	-80
ደር	-81
▁ጋ	-82
▁1	-83
▁ውስጥ	-84
▁ል	-85
▁2	-86
ተኛ	-87
▁ዘ	-88
▁ቢ	-89
▁ጉ	-90
ረት	-91
ሪያ	-92
▁ግን	-93
▁ከተ	-94
▁ጠ	-95
ለት	-96
▁ሊ	-97
ጊዜ	-98
▁ጋር	-99
ራት	-100
▁(	-101
▁ባለ	-102
▁እየ	-103
ድር	-104
▁ታ	-105
▁ሳ	-106
ድረ	-107
▁የሚያ	-108
▁እንዳ	-109
ንግስት	-110
▁ጊዜ	-111
▁ካ	-112
▁ኢ	-113
በረ	-114
ንም	-115
▁ይህ	-116
▁አን	-117
ለም	-118
ስተ	-119
▁ምክ	-120
ሮች	-121
▁ስራ	-122
ርት	-123
ንያ	-124
▁አቶ	-125
▁ፍ	-126
▁አገ	-127
ትን	-128
▁በሚ	-129
ንት	-130
▁የማ	-131
▁ኮ	-132
ሎች	-133
ረጃ	-134
ዲስ	-135
ቱን	-136
▁መሆኑ	-137
▁አይ	-138
00	-139
ራዊ	-140
ገባ	-141
ጀመ	-142
▁ስለ	-143
▁ጉዳ	-144
▁ዋ	-145
ሪካ	-146
▁እስ	-147
ላቸው	-148
▁ፕ	-149
▁መስ	-150
▁ሚኒ	-151
▁የም	-152
▁አካ	-153
▁ች	-154
▁ቅ	-155
ከል	-156
▁ጨ	-157
ዎችን	-158
መለ	-159
▁ቤት	-160
ግባ	-161
▁ነበር	-162
ታት	-163
▁አለ	-164
ታው	-165
ሁን	-166
▁የነ	-167
ማሪ	-168
ያን	-169
ይም	-170
▁ሲሆን	-171
ዮን	-172
ተር	-173
▁መን	-174
▁አስተ	-175
▁ድር	-176
▁መንግስት	-177
▁ቡ	-178
ሰራ	-179
ማት	-180
▁መሰ	-181
▁ፈ	-182
▁ያለ	-183
ታወ	-184
ገድ	-185
ባቸው	-186
ጠና	-187
ላል	-188
▁አበ	-189
01	-190
ድረግ	-191
▁መሆኑን	-192
ሰብ	-193
▁ሆ	-194
ታል	-195
▁ከአ	-196
ሉት	-197
▁ገል	-198
▁ከፍ	-199
ከተ	-200
▁ከተማ	-201
ረው	-202
▁ኢትዮጵያ	-203
▁ዳ	-204
ብር	-205
ንስ	-206
▁ሌ	-207
ለያ	-208
ኛው	-209
▁ከመ	-210
▁እየተ	-211
ልጣ	-212
ላት	-213
በሩ	-214
▁ነገር	-215
▁አንድ	-216
ናት	-217
▁በእ	-218
ስራ	-219
ደረገ	-220
ናቸው	-221
ቅር	-222
▁ሙ	-223
ናል	-224
▁አል	-225
ገለ	-226
▁ብር	-227
ተዋል	-228
ገኘ	-229
▁አም	-230
▁የእ	-231
ልግ	-232
▁ቀን	-233
ኋላ	-234
▁አመት	-235
ግር	-236
▁የኢትዮጵያ	-237
▁ደግ	-238
▁የህ	-239
ገኙ	-240
▁ሀይ	-241
ታቸው	-242
ሊዮን	-243
ሚያ	-244
ሽን	-245
▁አባ	-246
▁በዚህ	-247
▁አበባ	-248
▁ክፍ	-249
▁ደግሞ	-250
▁ምር	-251
ድን	-252
▁ሚኒስት	-253
ለዋል	-254
ጠር	-255
ባቢ	-256
▁ቦ	-257
▁የው	-258
▁ክል	-259
▁ስር	-260
▁ኤ	-261
ርድ	-262
▁በኋላ	-263
▁ቁ	-264
ተው	-265
ፊት	-266
ሁም	-267
▁መል	-268
ትና	-269
▁ሁሉ	-270
ከላ	-271
▁በላይ	-272
ቷል	-273
▁ወይም	-274
▁የግ	-275
መን	-276
▁ምን	-277
ራል	-278
ክል	-279
ጥር	-280
▁ገልፀ	-281
▁ምክንያ	-282
▁እያ	-283
ጠቀ	-284
▁የሰ	-285
ዳን	-286
ዎቹ	-287
▁ዝ	-288
▁እር	-289
ረስ	-290
▁የወ	-291
ፓር	-292
▁ሳይ	-293
▁ከፍተኛ	-294
ክት	-295
ዝብ	-296
ኔታ	-297
ኞች	-298
▁አብ	-299
▁መካ	-300
▁ወቅ	-301
▁በቀ	-302
ቦች	-303
▁3	-304
ምሮ	-305
ናግ	-306
▁እንዲሁም	-307
▁ጠቅ	-308
መር	-309
▁ዶ	-310
ላፊ	-311
ረዋል	-312
▁ን	-313
ረጋ	-314
▁ሁኔታ	-315
ለያዩ	-316
▁እስከ	-317
▁ለአ	-318
▁ባን	-319
▁ሰዎች	-320
ከት	-321
▁ያስ	-322
ልግሎ	-323
ካሄ	-324
ላለ	-325
ቀረ	-326
ጨማሪ	-327
ችል	-328
▁ጨዋ	-329
ቅም	-330
ገን	-331
ዮች	-332
ታዊ	-333
▁ደረጃ	-334
ብረ	-335
ጠበ	-336
አት	-337
ገል	-338
▁እድ	-339
▁አዲስ	-340
▁ማስ	-341
ረዳ	-342
ፈል	-343
▁ገልፀዋል	-344
▁ኢን	-345
▁ያለው	-346
▁ብቻ	-347
▁ተናግ	-348
▁መሰረት	-349
ቀር	-350
▁እንደሆነ	-351
▁ሀላፊ	-352
ጠቃ	-353
ያስ	-354
▁ሆነ	-355
መራ	-356
ምህ	-357
▁መካከል	-358
▁ተቋ	-359
▁ድርጅ	-360
ጣት	-361
▁ብለዋል	-362
▁ወቅት	-363
ሳይ	-364
ናገ	-365
▁201	-366
▁ኩ	-367
▁፣	-368
▁ብዙ	-369
▁ከዚህ	-370
ቶችን	-371
▁አድር	-372
▁ፖ	-373
ፍሪካ	-374
ንግድ	-375
ወሰ	-376
ቃል	-377
▁ይህን	-378
ገሪ	-379
ሏል	-380
ግለ	-381
▁ኮሚ	-382
▁አገልግሎ	-383
ያው	-384
▁ጀ	-385
▁ፕሮ	-386
የት	-387
ባት	-388
ሩት	-389
ይት	-390
ያቄ	-391
ም፣	-392
▁የኢ	-393
ገኝ	-394
▁ጨዋታ	-395
ርስ	-396
▁አቀ	-397
▁በሰ	-398
ደረጉ	-399
▁ክልል	-400
▁መረጃ	-401
መል	-402
▁ስም	-403
▁;	-404
▁ጥያቄ	-405
ታቸውን	-406
ርካ	-407
▁የነበረ	-408
▁መንገድ	-409
▁ፓር	-410
ግራ	-411
▁አማ	-412
▁ናቸው	-413
▁ዋና	-414
▁በመሆኑ	-415
ሪዎች	-416
▁እነ	-417
ፌዴ	-418
▁ግብ	-419
ምር	-420
▁ጎ	-421
▁ተናግረዋል	-422
▁ምክንያት	-423
ወት	-424
▁ሶ	-425
ዘብ	-426
ባንያ	-427
▁ዘር	-428
▁ጉዳይ	-429
የር	-430
ኖች	-431
▁የሀ	-432
ምና	-433
▁የሆነ	-434
▁ተብ	-435
▁የት	-436
▁መጠ	-437
▁አካባቢ	-438
▁በተለ	-439
""	-440
▁አመታት	-441
▁ሰው	-442
▁ፕሬ	-443
▁አስታው	-444
ምን	-445
ገና	-446
ዘጋ	-447
ቢያ	-448
ፈፀ	-449
▁ሚሊዮን	-450
ላክ	-451
▁:	-452
ደው	-453
ቋል	-454
▁4	-455
▁ቆ	-456
ጠው	-457
ነሳ	-458
▁ሽ	-459
▁ሆኖ	-460
▁ፅ	-461
ፈው	-462
▁ሚኒስትር	-463
ሪፖ	-464
▁ያህ	-465
▁ሺ	-466
በው	-467
▁ብሄ	-468
ጀመሪያ	-469
▁ምክር	-470
መው	-471
▁""	-472
▁ሜ	-473
▁በኢትዮጵያ	-474
ለን	-475
ሪክ	-476
መድ	-477
ኩል	-478
ለቱ	-479
▁ተወ	-480
▁የሚያስ	-481
ወጣ	-482
ገሪቱ	-483
ለቲ	-484
▁አስተዳ	-485
ንግስ	-486
ራቸው	-487
▁በፊት	-488
▁እንዲያ	-489
ፍት	-490
ላሉ	-491
▁በግ	-492
▁በህ	-493
ለሁ	-494
▁ኩባንያ	-495
▁ይች	-496
▁ቦታ	-497
▁5	-498
▁በመቶ	-499
ቀው	-500
ልቅ	-501
ችሁ	-502
▁ከእ	-503
ብት	-504
ኖር	-505
▁የስ	-506
ሰው	-507
▁ጠቅላይ	-508
▁ከሚ	-509
▁ቢሆን	-510
ኤል	-511
▁አሰ	-512
ምህርት	-513
ግኘ	-514
▁የበ	-515
ስፋ	-516
▁ፋ	-517
ላማ	-518
ዛሬ	-519
ት፣	-520
ክር	-521
▁ኦ	-522
ለቲካ	-523
ርያ	-524
ሩን	-525
ነው	-526
▁ችግር	-527
ስቴ	-528
ዚያ	-529
▁ህግ	-530
▁ያል	-531
ከና	-532
ይና	-533
▁በሀ	-534
ደጋ	-535
▁ውጤ	-536
ደም	-537
▁አስፈ	-538
▁አው	-539
ቅረ	-540
ረድ	-541
▁የታ	-542
▁የባ	-543
ክስ	-544
▁ቤቱ	-545
▁ያሉ	-546
ሳብ	-547
▁ድረስ	-548
▁ራ	-549
▁አገልግሎት	-550
▁አሁን	-551
▁ዜ	-552
መስ	-553
ገው	-554
ውያን	-555
▁በተጨማሪ	-556
▁ተግባ	-557
ምነት	-558
ሳኔ	-559
ኮኖ	-560
▁ወር	-561
▁ሌሎች	-562
▁ፓርቲ	-563
▁ሲሆን፣	-564
ክተር	-565
▁ባንክ	-566
ሉም	-567
ንና	-568
ጠቅ	-569
▁ሂ	-570
▁ሞ	-571
ጣም	-572
ገኘው	-573
ጀት	-574
▁ሁለት	-575
ሜሪካ	-576
▁ረ	-577
▁ችግ	-578
▁እንደተ	-579
▁ተቀ	-580
▁አጋ	-581
▁አለም	-582
▁አሳ	-583
ሰማ	-584
ዳንት	-585
ቅስ	-586
ባል	-587
ጨረ	-588
▁በስ	-589
ላም	-590
ሱን	-591
▁ወን	-592
ገኛ	-593
▁ግንባ	-594
ገቡ	-595
▁መንግስ	-596
▁በም	-597
ወቅ	-598
ኝነት	-599
▁የውጭ	-600
ቃት	-601
▁ር	-602
▁ሺህ	-603
▁ሴ	-604
▁ኳ	-605
ሳት	-606
▁በኩል	-607
▁መር	-608
ግብ	-609
ጆች	-610
▁ለው	-611
ዶች	-612
ለች	-613
▁)	-614
ቃሴ	-615
ሞች	-616
▁ሲያ	-617
▁በት	-618
▁ማእ	-619
ቅስቃሴ	-620
▁አዋ	-621
▁ፕሬዚ	-622
▁በየ	-623
▁ሚኒስቴ	-624
▁ድጋ	-625
▁ሀይል	-626
▁ተከ	-627
ያዘ	-628
ብረት	-629
ጦር	-630
ደረገው	-631
ገለፁ	-632
▁ነገ	-633
ሰባ	-634
▁አቀፍ	-635
ግኘት	-636
▁ቡድን	-637
ነስ	-638
ስልጣ	-639
▁አለመ	-640
▁ልማት	-641
▁የስራ	-642
▁ቴ	-643
▁መግለ	-644
▁በሁ	-645
▁በርካ	-646
201	-647
ፈት	-648
ነበረ	-649
▁አር	-650
▁ሌላ	-651
▁ቡድ	-652
▁በጣም	-653
▁ፖሊ	-654
▁የተባ	-655
ፈጠ	-656
▁ውሳኔ	-657
ንቀ	-658
ሰቡ	-659
▁ፀ	-660
ደረግ	-661
ጡት	-662
▁ህዝብ	-663
▁ህዝ	-664
▁6	-665
▁እንቅስቃሴ	-666
▁ዲ	-667
▁ባህ	-668
▁በማለት	-669
ቤት	-670
መጣ	-671
በል	-672
▁ገን	-673
ሻሻ	-674
ትል	-675
ሀን	-676
▁የቀ	-677
ጠናቀ	-678
ባኤ	-679
▁የኮ	-680
▁ጀምሮ	-681
▁ልዩ	-682
▁ያሉት	-683
ልክ	-684
ብሄ	-685
▁አገር	-686
▁ፍርድ	-687
▁ለሚ	-688
▁የተለያዩ	-689
▁የፖ	-690
▁ቁጥር	-691
▁ኪ	-692
ሪፖር	-693
▁ውድ	-694
▁እንደሚያ	-695
በያ	-696
ዩኒ	-697
▁ይሆ	-698
ቸዋል	-699
ፖርት	-700
ጫዋ	-701
▁ለተ	-702
▁-	-703
ሰጥ	-704
▁በሌ	-705
▁ከማ	-706
▁መሆ	-707
▁ምንም	-708
▁ቢሊዮን	-709
▁ምርጫ	-710
▁እንዳለ	-711
▁ለማስ	-712
ከራ	-713
▁ማሀ	-714
▁ጭ	-715
ክራ	-716
ጥታ	-717
ከናወ	-718
ፉት	-719
ኮኖሚ	-720
ሬት	-721
ጋት	-722
▁በበ	-723
▁ማድረግ	-724
▁ሚኒስቴር	-725
▁7	-726
▁በው	-727
ቡብ	-728
▁በርካታ	-729
▁ማን	-730
▁በጥ	-731
▁ጉዳዮች	-732
▁እንዲህ	-733
▁አስረድ	-734
ላር	-735
▁ፕሮጀ	-736
ጨረሻ	-737
መረ	-738
ድሞ	-739
ጠት	-740
▁አይነት	-741
ሰሩ	-742
▁አዳ	-743
ደት	-744
ደራ	-745
ምንት	-746
ንን	-747
ጿል	-748
▁ላ	-749
▁አስተዳደር	-750
ያዎች	-751
▁አቅ	-752
ቫይ	-753
ምጃ	-754
መለከተ	-755
ጤና	-756
▁ዙ	-757
ኮች	-758
▁ድጋፍ	-759
ማይ	-760
ረጋገ	-761
▁የነበሩ	-762
ቅድ	-763
ቀዋል	-764
ብራ	-765
ችሉ	-766
ክልሉ	-767
ቂቃ	-768
▁የመንግስት	-769
▁አቅር	-770
ለተኛ	-771
ከር	-772
▁ግንኙ	-773
▁አገሮች	-774
ባይ	-775
▁ህይ	-776
▁ያለውን	-777
▁እንዳይ	-778
መሳ	-779
▁እነዚህ	-780
▁ብሄራዊ	-781
ዱስት	-782
▁እንደነ	-783
ንዳ	-784
ሳተ	-785
▁ለማድረግ	-786
▁አመራ	-787
ፈለ	-788
▁መግለጫ	-789
▁ጣ	-790
ቋቋ	-791
ሰረ	-792
ሳል	-793
ቀመ	-794
▁ደቂቃ	-795
▁?	-796
▁አንዱ	-797
▁ሙሉ	-798
▁ጠቁ	-799
▁8	-800
ካይ	-801
ሁኑ	-802
▁የማይ	-803
▁ዶላር	-804
19	-805
▁ብሎ	-806
▁ድርጅት	-807
ዱስ	-808
ጠቀም	-809
▁ተቋማት	-810
ሮችን	-811
▁አክ	-812
ተኞች	-813
ናቸውን	-814
ከተማ	-815
ጋራ	-816
ቀት	-817
ፌዴራል	-818
▁አባላት	-819
ያዊ	-820
▁በደ	-821
▁ዘመን	-822
▁ቤቶች	-823
▁በማድረግ	-824
▁ባለስልጣ	-825
በትን	-826
ሙሉ	-827
▁ግንባታ	-828
▁ድን	-829
ከፍ	-830
▁ያህል	-831
▁ሀገ	-832
▁እው	-833
▁ኳስ	-834
▁እርምጃ	-835
ቱም	-836
ቻቸው	-837
ራንስ	-838
ን፣	-839
▁ሰራ	-840
▁ግድ	-841
▁ጥሩ	-842
ደርግ	-843
▁ስርአት	-844
200	-845
▁ትኩ	-846
ከላከ	-847
▁ዘርፍ	-848
▁200	-849
▁ተጫዋ	-850
ጠበቅ	-851
▁በታ	-852
▁ቃል	-853
▁በተለይ	-854
ደርጉ	-855
▁ቤተ	-856
ፋት	-857
▁የሆኑ	-858
▁ቀደም	-859
▁ዝግ	-860
▁አይደ	-861
ጥብ	-862
▁ዋጋ	-863
▁ጉባኤ	-864
ነቱ	-865
ቀጥ	-866
ረም	-867
ጠቃላይ	-868
ህን	-869
▁እንጂ	-870
▁ተፈ	-871
▁ተብሎ	-872
▁ማለት	-873
▁ዘመ	-874
ላቸውን	-875
▁ውይ	-876
ሉን	-877
▁ትምህርት	-878
▁ምስ	-879
▁መድረ	-880
▁የሚል	-881
ጎች	-882
▁ዛሬ	-883
▁ነፃ	-884
ላጊ	-885
▁የደ	-886
ከሰ	-887
ዱስትሪ	-888
▁ሊያ	-889
▁ተጠ	-890
ሯል	-891
▁ባለሙ	-892
ሳቸው	-893
ቾች	-894
ገነ	-895
▁ይታወ	-896
▁የነበረው	-897
ይሬ	-898
▁የተሰ	-899
▁አስረድተዋል	-900
▁ይችላል	-901
▁ኮሚቴ	-902
ቻል	-903
ልማት	-904
▁ፕሬዚዳንት	-905
▁ንግድ	-906
▁19	-907
▁ሚኒስትሩ	-908
ኦሮ	-909
▁ግንኙነት	-910
▁ስብ	-911
ታይ	-912
ደግ	-913
ፍራ	-914
ቆጣ	-915
ዛት	-916
ገቢ	-917
▁ጨምሮ	-918
መዋል	-919
ጨዋ	-920
ነጋ	-921
▁ገንዘብ	-922
▁ሱ	-923
▁መጠን	-924
ኖሩ	-925
▁የሚገኙ	-926
ላሽ	-927
▁ይሁን	-928
▁በተለያዩ	-929
ነሱ	-930
ኑን	-931
▁ማሳ	-932
▁ሀሳብ	-933
▁ጥቅም	-934
ዘር	-935
ዴት	-936
▁ሳምንት	-937
ዳጅ	-938
▁ክለ	-939
▁ሲሉ	-940
ረን	-941
ላጎ	-942
▁ቡና	-943
መሳሳይ	-944
▁ሶስት	-945
▁በማስ	-946
▁ዳይሬ	-947
ክለ	-948
▁በቅር	-949
▁ለእ	-950
▁የንግድ	-951
▁እድል	-952
ልፅ	-953
▁ተስፋ	-954
ጀል	-955
▁የፖለቲካ	-956
▁ማህ	-957
▁እንኳ	-958
▁ከሆነ	-959
▁ሳይሆን	-960
ሪፖርተር	-961
ቨር	-962
▁በአዲስ	-963
▁በአንድ	-964
▁አካላት	-965
▁ልጆች	-966
የው	-967
▁ጥረት	-968
▁ገቢ	-969
▁አፈ	-970
ስር	-971
ሳሌ	-972
▁ዘንድ	-973
▁ዴ	-974
▁ክፍል	-975
ፃሚ	-976
ካባቢ	-977
▁ሰብ	-978
▁ይገኛ	-979
▁አንዳ	-980
ትር	-981
ያዝ	-982
ለውን	-983
▁9	-984
▁እጅ	-985
▁እንደነበር	-986
ሞክራ	-987
▁ይህም	-988
በዋል	-989
ውም	-990
▁እንዴት	-991
▁ፍላጎ	-992
▁ቆይ	-993
▁መቀ	-994
▁የኤ	-995
▁ያሳ	-996
ገለፁት	-997
▁የፀ	-998
ጋል	-999
▁ምክትል	-1000
ስና	-1001
▁በወ	-1002
ፅሀ	-1003
▁የመጀመሪያ	-1004
መት	-1005
▁መሳ	-1006
ገንዘብ	-1007
ሄድ	-1008
▁በነ	-1009
ህፈት	-1010
ገብ	-1011
ከላከያ	-1012
ጀመር	-1013
ችንን	-1014
▁በአሁኑ	-1015
▁የጥ	-1016
▁ይህንን	-1017
ካሄድ	-1018
▁ቀናት	-1019
ብረተ	-1020
ቅረብ	-1021
▁ይሆናል	-1022
▁ጉዳት	-1023
▁ሰጥ	-1024
ጠራ	-1025
ቦት	-1026
ነር	-1027
ካም	-1028
ናዊ	-1029
▁ተከት	-1030
ሎጂ	-1031
▁ቅዱስ	-1032
▁ከባ	-1033
ንጫ	-1034
▁የምር	-1035
ግራይ	-1036
▁ለመስ	-1037
▁ውጤት	-1038
▁ሄ	-1039
▁ተጨማሪ	-1040
ሮና	-1041
ውል	-1042
▁ወራት	-1043
▁ፈቃ	-1044
ገለፀ	-1045
ንቀሳ	-1046
ቹን	-1047
ለጠ	-1048
▁ስምምነት	-1049
ቡን	-1050
ገደ	-1051
ከለ	-1052
ንተ	-1053
ስተኛ	-1054
▁በሙሉ	-1055
ላዊ	-1056
▁ሲል	-1057
▁አፍሪካ	-1058
▁ቀር	-1059
ችው	-1060
▁የአለም	-1061
ዲያ	-1062
ሲቲ	-1063
▁መሆን	-1064
ቅና	-1065
▁ህገ	-1066
ቧል	-1067
ከላከል	-1068
▁ጌ	-1069
▁አስፈላጊ	-1070
▁አት	-1071
▁የፋ	-1072
ዳር	-1073
▁አድ	-1074
▁ቋ	-1075
▁በፍ	-1076
▁ፖሊስ	-1077
ልና	-1078
አዊ	-1079
▁በመስ	-1080
▁አሸ	-1081
▁እስካ	-1082
▁ያላቸው	-1083
▁አይደለም	-1084
ሌክት	-1085
ደረሰ	-1086
▁ምላሽ	-1087
ቀረቡ	-1088
▁የቆ	-1089
ስተዳ	-1090
ሻለ	-1091
▁እኔ	-1092
ማሽ	-1093
መንት	-1094
▁አህ	-1095
▁ተደር	-1096
▁እንዳል	-1097
▁ገለ	-1098
ኛውም	-1099
ላላ	-1100
▁10	-1101
ነዚህ	-1102
▁ዩኒ	-1103
▁ይገባ	-1104
ሰቦች	-1105
▁ከዚያ	-1106
..	-1107
ማራ	-1108
ጥጥር	-1109
▁ተከትሎ	-1110
▁ትር	-1111
ሶች	-1112
▁ተጠቃ	-1113
ሽኑ	-1114
▁መብት	-1115
▁ሸ	-1116
▁ጫ	-1117
ቨርሲቲ	-1118
▁በኢ	-1119
▁የህዝብ	-1120
መዘ	-1121
ርስቲ	-1122
ገት	-1123
▁ደን	-1124
ጭት	-1125
ብሪካ	-1126
▁የአዲስ	-1127
▁ውይይት	-1128
ሬሽን	-1129
▁ተገል	-1130
▁እንደማይ	-1131
ረር	-1132
ቆጠ	-1133
ሞክራሲ	-1134
▁አጥ	-1135
ቀረበ	-1136
▁ዮ	-1137
በቃ	-1138
▁ጦር	-1139
▁በድ	-1140
▁ዞ	-1141
▁መሪ	-1142
▁መሆናቸውን	-1143
▁15	-1144
ቂያ	-1145
▁ልጅ	-1146
▁ለውጥ	-1147
▁የሁ	-1148
▁ሁሉም	-1149
▁ለህ	-1150
▁ለማግኘት	-1151
ነትን	-1152
ጋሚ	-1153
▁ትኩረት	-1154
▁አካል	-1155
▁ስራዎች	-1156
▁ወጣ	-1157
ሙት	-1158
▁ትልቅ	-1159
▁ለም	-1160
▁ሆነው	-1161
▁አሰራ	-1162
▁ባለፈው	-1163
▁የኢን	-1164
▁አቅም	-1165
ቨስት	-1166
▁የአፍሪካ	-1167
በታል	-1168
▁በተጨማሪም	-1169
ፃፀ	-1170
ጠል	-1171
▁የካ	-1172
▁ዶክተር	-1173
▁ፅህፈት	-1174
ዝር	-1175
▁በሚል	-1176
▁እንድ	-1177
▁መሳሪያ	-1178
ጥሮ	-1179
▁ድም	-1180
▁አደጋ	-1181
▁መንገ	-1182
ናገሩት	-1183
▁ሰአት	-1184
ጓል	-1185
▁12	-1186
▁አስታውቋል	-1187
ጅት	-1188
▁በተመለከተ	-1189
ደርስ	-1190
ምት	-1191
▁አምላክ	-1192
ሰር	-1193
▁ቻ	-1194
▁ነጥብ	-1195
▁ምርት	-1196
▁ስልጣ	-1197
ክሮ	-1198
▁ወጪ	-1199
ወስ	-1200
▁ወይ	-1201
▁20	-1202
▁ግለ	-1203
▁በዚህም	-1204
ፍጠር	-1205
▁ቢሮ	-1206
▁አዋጅ	-1207
እራ	-1208
▁ማስተ	-1209
ታወቀ	-1210
▁በባ	-1211
ሎችን	-1212
በራዊ	-1213
▁ነዋ	-1214
ተት	-1215
▁ውጪ	-1216
▁ማድረ	-1217
ጣይ	-1218
ቃቤ	-1219
ፎች	-1220
ከታ	-1221
▁ብለው	-1222
ስታ	-1223
ንካ	-1224
▁የህግ	-1225
ዘው	-1226
ሱም	-1227
▁አሰልጣ	-1228
▁ፕሮጀክ	-1229
ክምና	-1230
▁ይችላሉ	-1231
▁መሀ	-1232
ካዮች	-1233
▁የሚሰ	-1234
ኦሮሚያ	-1235
ጣሪ	-1236
ላው	-1237
ታደ	-1238
▁ንጉ	-1239
ፅሀፍ	-1240
▁በበኩ	-1241
ተን	-1242
ራን	-1243
▁አደ	-1244
▁መደ	-1245
ታማ	-1246
ጮች	-1247
▁ወንድ	-1248
▁አንዳንድ	-1249
▁የዋ	-1250
▁ተቃ	-1251
ዳማ	-1252
▁መብ	-1253
▁ከወ	-1254
ሁንም	-1255
ሱስ	-1256
▁ቫይ	-1257
▁በአለም	-1258
መለስ	-1259
ብርና	-1260
ማር	-1261
ደረጉት	-1262
▁ጠቁመዋል	-1263
ነገ	-1264
▁በመሆኑም	-1265
▁አስፈፃሚ	-1266
▁ሂደት	-1267
▁ትእ	-1268
20	-1269
▁ከሰ	-1270
▁ያልተ	-1271
ዘጋጀ	-1272
▁11	-1273
ክኖ	-1274
▁ህይወት	-1275
▁ችግሮች	-1276
▁ስል	-1277
▁አያ	-1278
ጣሚ	-1279
ድስት	-1280
▁ገበያ	-1281
▁የገ	-1282
ርፖ	-1283
ከፍተኛ	-1284
▁ተመል	-1285
የሱስ	-1286
▁በቅርቡ	-1287
▁ገብ	-1288
▁አስታውቀዋል	-1289
▁ውሀ	-1290
▁ይፋ	-1291
▁ቅር	-1292
ወጥ	-1293
▁ኩባንያዎች	-1294
▁ባለመ	-1295
▁እቅድ	-1296
▁ስብሰባ	-1297
▁በተለይም	-1298
ው፣	-1299
▁አካባቢዎች	-1300
▁ይታወሳል	-1301
▁አሉ	-1302
▁የግብ	-1303
ሟል	-1304
▁ድርጅቶች	-1305
ቀስ	-1306
▁ስርአ	-1307
ካል	-1308
ንባ	-1309
▁የብ	-1310
▁በዘ	-1311
ፈር	-1312
▁ና	-1313
ዳሚ	-1314
የም	-1315
▁ፊ	-1316
▁መለ	-1317
▁እንደሚገባ	-1318
▁ዙሪያ	-1319
▁እስካሁን	-1320
▁የፌዴራል	-1321
▁ተገልጿል	-1322
▁ባለው	-1323
ያዙ	-1324
▁ቢሆንም	-1325
▁አንፃ	-1326
▁በብ	-1327
▁መሰረ	-1328
▁አባል	-1329
ማቸው	-1330
▁ያህዌ	-1331
ንፃ	-1332
ጠየ	-1333
▁ተፅ	-1334
ካሄደው	-1335
▁ጊ	-1336
ላን	-1337
▁ነው፤	-1338
ኤፍ	-1339
▁የራ	-1340
▁ፋብሪካ	-1341
ሌሎች	-1342
▁ተጠቃሚ	-1343
ነግ	-1344
▁በዋ	-1345
▁በሆነ	-1346
ጠይ	-1347
▁መው	-1348
▁አላማ	-1349
▁ዜጎች	-1350
▁ታው	-1351
እክት	-1352
▁ጋዜ	-1353
▁አስተያ	-1354
ሰጣ	-1355
ሰዋል	-1356
▁አሁንም	-1357
በሩት	-1358
▁ጥናት	-1359
ሶስት	-1360
ባቸውን	-1361
ሌክትሪክ	-1362
ብኝ	-1363
ዎችና	-1364
▁አማካ	-1365
▁ርእ	-1366
ክኖሎጂ	-1367
ይናንስ	-1368
ልም	-1369
ያያዘ	-1370
ርክ	-1371
▁ፍላጎት	-1372
▁ሁለቱ	-1373
ሸነ	-1374
▁አድርጎ	-1375
▁የቻ	-1376
ፈፀም	-1377
▁ተማሪ	-1378
▁ቶ	-1379
ላቀ	-1380
ፍትሄ	-1381
▁የምት	-1382
ክቶ	-1383
ሀት	-1384
መለከ	-1385
▁ዳር	-1386
▁ስለዚህ	-1387
▁በራ	-1388
ራሉ	-1389
ሜን	-1390
ቢት	-1391
▁በረ	-1392
▁አንቀ	-1393
▁ኢንዱስትሪ	-1394
▁ስለሚ	-1395
ሳቢ	-1396
እኖ	-1397
ሱት	-1398
▁ምርመራ	-1399
ሰን	-1400
▁ስት	-1401
▁የሆነው	-1402
▁በሌላ	-1403
ሷል	-1404
ታችን	-1405
▁ቡድኑ	-1406
ዲህ	-1407
▁ሁለተኛ	-1408
▁ሜትር	-1409
▁አህመድ	-1410
▁ወጥ	-1411
ጀመረ	-1412
▁ሰላም	-1413
▁አምስት	-1414
ቀርብ	-1415
ማን	-1416
▁መጥ	-1417
▁ውጭ	-1418
▁የዘ	-1419
ይል	-1420
▁አንፃር	-1421
ብን	-1422
▁ባል	-1423
▁መም	-1424
▁14	-1425
▁ከሁ	-1426
ኞቹ	-1427
▁አቃቤ	-1428
ቂት	-1429
▁ዩኒቨርሲቲ	-1430
▁ሰነ	-1431
ስን	-1432
▁ኮሚሽን	-1433
▁የክልሉ	-1434
▁ታሪክ	-1435
▁አማራ	-1436
ረጋግ	-1437
▁ጠይ	-1438
▁ሀገራት	-1439
ናው	-1440
ሰረተ	-1441
▁አግ	-1442
▁በኮ	-1443
▁ተጠር	-1444
▁2012	-1445
ምድ	-1446
ብሄር	-1447
▁አቋ	-1448
▁የባን	-1449
▁መዝ	-1450
ወጡ	-1451
▁ቃ	-1452
▁ተፅእኖ	-1453
ነበረው	-1454
▁አመልክ	-1455
ጠብ	-1456
ዎን	-1457
▁ዳይሬክተር	-1458
▁መልኩ	-1459
ክተ	-1460
▁ለዚህ	-1461
▁ካል	-1462
▁መታ	-1463
ቶቹ	-1464
ደን	-1465
▁ወረዳ	-1466
▁እለት	-1467
መዝ	-1468
ዱን	-1469
▁በጉ	-1470
ውሮ	-1471
▁ሊግ	-1472
ኗል	-1473
▁አራት	-1474
ብሄራዊ	-1475
▁የተቀ	-1476
▁ጥቃት	-1477
ጠቅላይ	-1478
▁ነገሮች	-1479
ከብ	-1480
ሀብ	-1481
ጥነት	-1482
▁ንግ	-1483
ንቲ	-1484
ከበር	-1485
▁ትን	-1486
▁አሰራር	-1487
▁የተወሰ	-1488
▁አላ	-1489
▁ይገኛል	-1490
ዲሱ	-1491
▁የአሜሪካ	-1492
ሜዳ	-1493
ረጥ	-1494
▁ጥሪ	-1495
ሎት	-1496
ረብ	-1497
▁በጀት	-1498
▁ወንጀል	-1499
▁ቢሆንም፣	-1500
▁ይዞ	-1501
▁ተብሏል	-1502
ከርካ	-1503
ቨስትመንት	-1504
ሊዝ	-1505
▁ሰራዊ	-1506
ፈልግ	-1507
▁ኢኮኖሚ	-1508
ፎር	-1509
▁ተግባር	-1510
ደገ	-1511
▁ኮን	-1512
▁ኬ	-1513
ምፒ	-1514
▁13	-1515
በኛ	-1516
▁ከነ	-1517
ራር	-1518
በብ	-1519
ዛዝ	-1520
▁በመሆን	-1521
▁ሜዳ	-1522
ዋሳ	-1523
ረጋገጥ	-1524
▁መኖ	-1525
ንሲ	-1526
▁በሚያ	-1527
ማኖ	-1528
የን	-1529
▁ሙከራ	-1530
ዮር	-1531
▁እጅግ	-1532
▁የፍ	-1533
▁የተመ	-1534
ደሩ	-1535
ገራ	-1536
▁ባይ	-1537
ሊያ	-1538
ጋቸው	-1539
ምሩ	-1540
ግል	-1541
ኪያ	-1542
ሳስ	-1543
ግና	-1544
ፈረ	-1545
ቦችን	-1546
▁ሀብት	-1547
▁የከተማ	-1548
▁ድርጊ	-1549
▁አየር	-1550
▁ከው	-1551
አዴ	-1552
ካባቢው	-1553
▁የገንዘብ	-1554
ኖረው	-1555
▁ስታ	-1556
▁እንኳን	-1557
ቀርቡ	-1558
▁በቁ	-1559
ካት	-1560
▁ለማሳ	-1561
▁መሬት	-1562
ስማ	-1563
ነትና	-1564
ግዚ	-1565
ባሳ	-1566
▁የሌ	-1567
▁መንግስታት	-1568
▁የቡ	-1569
ዚሁ	-1570
▁የምን	-1571
▁ደር	-1572
▁ክስ	-1573
ያንዳን	-1574
ደኛ	-1575
▁ተገቢ	-1576
▁ስነ	-1577
▁የገለፁት	-1578
ቁት	-1579
▁እድገት	-1580
ይን	-1581
▁በመግለ	-1582
▁ባለሙያዎች	-1583
▁የሞ	-1584
▁መስመር	-1585
▁ጅ	-1586
ሳቸውን	-1587
▁ተግባራዊ	-1588
ባባ	-1589
▁መዋ	-1590
▁ይገባል	-1591
▁የግል	-1592
ርትራ	-1593
ቤተ	-1594
▁አስተዋ	-1595
ሪፖርት	-1596
ለፍ	-1597
▁ስፍራ	-1598
▁ባለፉት	-1599
ስትና	-1600
ሽከርካ	-1601
▁ሰራተኞች	-1602
ሙን	-1603
ፒታል	-1604
▁ካለ	-1605
▁ታውቋል	-1606
▁ጨዋታዎች	-1607
ወር	-1608
▁ባንኮች	-1609
ነቱን	-1610
▁ዝር	-1611
ልፍ	-1612
▁የጎ	-1613
▁18	-1614
ዳት	-1615
ሰበ	-1616
ስቲ	-1617
▁በር	-1618
▁በአገሪቱ	-1619
ግባት	-1620
▁ወል	-1621
ጥረት	-1622
▁16	-1623
ካሄደ	-1624
▁ሪፖርት	-1625
▁አመራሮች	-1626
▁እንደሚችል	-1627
▁ሀሳ	-1628
▁በሽ	-1629
▁ፓ	-1630
ንቋ	-1631
▁ገልጿል	-1632
▁አለበት	-1633
▁ሆኖም	-1634
▁የፕ	-1635
▁ሀገር	-1636
ፍታት	-1637
ገናኛ	-1638
ስብ	-1639
ገባው	-1640
ዳሴ	-1641
▁ፈቃድ	-1642
መለክ	-1643
▁የተሻለ	-1644
ሰብአዊ	-1645
▁ሊቀ	-1646
ያይ	-1647
ረርሽ	-1648
▁መተ	-1649
ዛሪ	-1650
▁ፕሮግራ	-1651
ቆጣጠር	-1652
ረሱ	-1653
▁በበኩላቸው	-1654
በረሰብ	-1655
▁እቃ	-1656
▁የቀድሞ	-1657
ቻቸውን	-1658
ብረተሰቡ	-1659
ዋን	-1660
▁በተያያዘ	-1661
▁አጋጣሚ	-1662
ዷል	-1663
▁የተለ	-1664
▁ድምፅ	-1665
▁ከሀ	-1666
ስቱ	-1667
▁ሚና	-1668
ከፈ	-1669
ራንስፖርት	-1670
▁አሜሪካ	-1671
▁ስላ	-1672
▁የጤና	-1673
▁ድርሻ	-1674
ፊያ	-1675
ገዋል	-1676
▁የውሀ	-1677
ራቸውን	-1678
ዱት	-1679
ዳታ	-1680
▁የቴ	-1681
▁ነበሩ	-1682
ምላክ	-1683
▁ኮርፖ	-1684
▁ሱዳን	-1685
▁ክፍያ	-1686
▁ጎል	-1687
ከፋ	-1688
ለማ	-1689
▁ይልቅ	-1690
ጀመርያ	-1691
ዎች፣	-1692
ቆም	-1693
▁ዞን	-1694
ወጣው	-1695
▁ሀላፊነት	-1696
▁ስልጣን	-1697
ሰጡ	-1698
▁በጋራ	-1699
ሻገር	-1700
ፈልጉ	-1701
ዮርጊ	-1702
▁ሰር	-1703
▁አንቀፅ	-1704
ስራቅ	-1705
▁ሪ	-1706
▁ትክ	-1707
ንካራ	-1708
▁አስታወቀ	-1709
ኛል	-1710
▁17	-1711
▁ያደር	-1712
▁በወቅ	-1713
▁ተወካዮች	-1714
▁ለሪፖርተር	-1715
ጅም	-1716
ኛውን	-1717
▁መፍትሄ	-1718
▁አለው	-1719
▁ባህር	-1720
▁አፈፃፀ	-1721
ድሩ	-1722
ቋቋም	-1723
▁እንዲሆን	-1724
ቀም	-1725
▁መመር	-1726
ረዳት	-1727
▁ስጋት	-1728
▁ፕሮጀክት	-1729
▁መልካም	-1730
ያህ	-1731
▁በመቀ	-1732
ጀንሲ	-1733
▁30	-1734
▁2013	-1735
▁ቫይረስ	-1736
▁የሙ	-1737
▁እኛ	-1738
ናፊ	-1739
▁ክልሎች	-1740
▁የመስ	-1741
▁የልማት	-1742
ህአዴ	-1743
ደጋጋሚ	-1744
ቲት	-1745
▁ሊሆን	-1746
▁ውድድር	-1747
▁ቱ	-1748
▁የሚለው	-1749
▁ለሁ	-1750
50	-1751
▁አብዛ	-1752
መቱ	-1753
ፅኦ	-1754
▁የድ	-1755
ጋዊ	-1756
▁እንደሚያስ	-1757
▁አጋማሽ	-1758
ክሲ	-1759
ተና	-1760
ኞችን	-1761
ወሀት	-1762
▁የኢኮኖሚ	-1763
▁ሀይሎች	-1764
▁መመ	-1765
▁ከህ	-1766
▁የሚገኘው	-1767
ደረጃ	-1768
▁የፀጥታ	-1769
▁ዝግጅት	-1770
ባሉ	-1771
▁በአጠቃላይ	-1772
▁አብይ	-1773
▁ወታደ	-1774
▁ተመሳሳይ	-1775
▁እንግ	-1776
▁ኢየሱስ	-1777
ማል	-1778
▁የተነሳ	-1779
▁ትእዛዝ	-1780
▁ማእከል	-1781
ባለ	-1782
▁ክፍለ	-1783
▁ሆቴ	-1784
▁የሚያስችል	-1785
▁ከኢትዮጵያ	-1786
▁ብድር	-1787
▁ብሏል	-1788
ሁፍ	-1789
▁ፊት	-1790
ህር	-1791
▁የሰው	-1792
ጫወ	-1793
▁እግር	-1794
ቻችን	-1795
▁ማሻሻ	-1796
▁መስራት	-1797
▁ከተሞች	-1798
ረታ	-1799
▁በመንግስት	-1800
▁መስሪያ	-1801
▁ተጫዋቾች	-1802
ዳሪ	-1803
▁ስለመ	-1804
ገንባት	-1805
ጠን	-1806
▁ስቴ	-1807
ዊት	-1808
ያቸው	-1809
▁አገራት	-1810
▁ክርስቲ	-1811
▁ስን	-1812
ህአዴግ	-1813
▁ምንዛሪ	-1814
▁ንብረት	-1815
ባቂ	-1816
▁ያላ	-1817
▁አጠቃላይ	-1818
ፈጠረ	-1819
▁ግብር	-1820
ጫወት	-1821
▁የለ	-1822
▁የአገሪቱ	-1823
▁በይ	-1824
▁አስተዋፅኦ	-1825
▁ኢትዮጵያን	-1826
▁መፅሀፍ	-1827
▁ማግኘት	-1828
ውጣት	-1829
ጠናቀቅ	-1830
▁በእር	-1831
▁ተሳት	-1832
▁ፖለቲካ	-1833
ወዳ	-1834
▁እንደሌ	-1835
▁እንዳለበት	-1836
▁የበለጠ	-1837
ፈቀ	-1838
▁የጋራ	-1839
ጣን	-1840
▁ከግ	-1841
▁ቀጥ	-1842
▁የምርጫ	-1843
▁ቅድ	-1844
▁ህይወ	-1845
ም፤	-1846
ፈራ	-1847
ሰት	-1848
ሸን	-1849
▁ከዚያም	-1850
▁የነበሩት	-1851
▁መጋ	-1852
▁የሚመ	-1853
ደብ	-1854
ልን	-1855
▁የሚሆኑ	-1856
ሰጠው	-1857
ርማ	-1858
▁ተሳ	-1859
ሰድ	-1860
▁ህዝቦች	-1861
ቱት	-1862
ውና	-1863
▁ጤና	-1864
ስቶ	-1865
▁መቆ	-1866
▁ሮ	-1867
▁ለመቀ	-1868
ላማዊ	-1869
ስትራ	-1870
▁ተጠና	-1871
▁በተመሳሳይ	-1872
▁ከቀ	-1873
ሰል	-1874
▁ከባድ	-1875
▁አገሪ	-1876
ዘን	-1877
▁ፓርቲዎች	-1878
▁አልተ	-1879
ያል	-1880
▁ገፅ	-1881
ጋሪ	-1882
ዳቤ	-1883
▁ቦርድ	-1884
ምረት	-1885
ዩት	-1886
ያህዌ	-1887
ግዚአ	-1888
▁ጣቢያ	-1889
▁ጊዮርጊ	-1890
▁ይጠበ	-1891
▁የነበረውን	-1892
ቤቱ	-1893
▁መነ	-1894
▁ከስ	-1895
ግዚአብሄር	-1896
ባብ	-1897
▁ጠንካራ	-1898
▁ደብ	-1899
▁ነበረ	-1900
ቶችና	-1901
▁ሰፊ	-1902
▁አሰልጣኝ	-1903
ዘጋጅ	-1904
▁ድንጋ	-1905
▁ሀብ	-1906
ራይ	-1907
ጉን	-1908
▁ምድር	-1909
▁መሆኑንም	-1910
▁ኡ	-1911
▁ጉዳዩ	-1912
ጭር	-1913
ጠረ	-1914
ፁም	-1915
ኳይ	-1916
ጣጫ	-1917
ፈን	-1918
▁ወረርሽ	-1919
ዳቸው	-1920
ርያም	-1921
▁የወጣ	-1922
▁ስሜ	-1923
▁ባለስልጣን	-1924
▁አመቱ	-1925
▁ይጠበቃል	-1926
▁ምእራ	-1927
▁የክ	-1928
▁ጎን	-1929
▁በጎ	-1930
ከናወን	-1931
▁ረገድ	-1932
▁ዴሞክራሲ	-1933
▁በከፍተኛ	-1934
ቸኳይ	-1935
▁ቴክኖሎጂ	-1936
▁ስለሆነ	-1937
ነኛ	-1938
▁ነዋሪዎች	-1939
▁የአገር	-1940
ውሞ	-1941
ቻሉ	-1942
ገነባ	-1943
ራም	-1944
ቂቅ	-1945
▁እምነት	-1946
▁በክ	-1947
▁የለም	-1948
//	-1949
ሊየን	-1950
▁ቋንቋ	-1951
ሀል	-1952
▁ከታ	-1953
ታፊ	-1954
▁24	-1955
▁ሰላ	-1956
ጠቁ	-1957
▁አመራር	-1958
በልጥ	-1959
መለከት	-1960
▁ዩ	-1961
▁ላለ	-1962
▁ለሰ	-1963
▁ተጠቅ	-1964
ከታተ	-1965
▁ተከላ	-1966
▁በወቅቱ	-1967
▁ይናገ	-1968
ሱዳን	-1969
▁በታች	-1970
▁አምባሳ	-1971
▁የማስ	-1972
ናገር	-1973
▁የል	-1974
በረታ	-1975
▁መከላከያ	-1976
▁መጨረሻ	-1977
▁ጦርነት	-1978
▁ፍት	-1979
▁በቂ	-1980
▁ግጭት	-1981
ላንድ	-1982
ብብር	-1983
ቀረበው	-1984
ከረም	-1985
ሆናቸው	-1986
በራት	-1987
▁አውሮ	-1988
ሪም	-1989
▁ነጋ	-1990
▁ስልጠና	-1991
ኒያ	-1992
ግባር	-1993
▁ያላቸውን	-1994
▁ልብ	-1995
▁በሌሎች	-1996
▁ቴሌ	-1997
▁መድረክ	-1998
▁አግኝ	-1999
ገኙት	-2000
▁የቦ	-2001
▁ባለሀብ	-2002
▁ባሻገር	-2003
ግባብ	-2004
▁ቢያ	-2005
▁ኖ	-2006
▁ኢትዮጵያውያን	-2007
ነቶች	-2008
ታር	-2009
ደርገው	-2010
▁የሚችል	-2011
▁አቅጣጫ	-2012
▁ጄ	-2013
▁አሸናፊ	-2014
ድድር	-2015
▁አድርጓል	-2016
▁25	-2017
ስተዋ	-2018
▁ኪሎ	-2019
ጀመረው	-2020
ል፣	-2021
▁ክፍሎች	-2022
▁ተቋም	-2023
▁የኮሮና	-2024
▁አስተያየት	-2025
▁ዝቅ	-2026
▁የሽ	-2027
▁ከበ	-2028
▁ድል	-2029
ላቅ	-2030
ገልፃ	-2031
▁በል	-2032
ሳተፉ	-2033
ስራኤል	-2034
▁አማካይ	-2035
▁የትምህርት	-2036
ውሮፓ	-2037
▁ጥር	-2038
▁ወጣቶች	-2039
ሬሽኑ	-2040
▁በአፍሪካ	-2041
▁በሰጡት	-2042
▁በክልሉ	-2043
▁ፌዴ	-2044
▁በቀጣይ	-2045
▁ሴቶች	-2046
▁ገብረ	-2047
ጫው	-2048
ንቀሳቀ	-2049
▁ፎ	-2050
▁የቅ	-2051
▁ጫና	-2052
▁መንግስቱ	-2053
ገዛ	-2054
ናይት	-2055
▁አለማ	-2056
▁ግድብ	-2057
ባዊ	-2058
▁መልእክት	-2059
ርቶ	-2060
▁ንጉስ	-2061
▁የጠ	-2062
▁መንፈ	-2063
ፉን	-2064
ቻለ	-2065
▁ቡድኖች	-2066
▁የጦር	-2067
▁ሻ	-2068
▁ፀሀ	-2069
▁ጭምር	-2070
ሶማ	-2071
▁መርሀ	-2072
▁የሚታ	-2073
▁መድ	-2074
ሬዳ	-2075
▁ወስ	-2076
ነስተኛ	-2077
▁ከአንድ	-2078
ጠናከር	-2079
▁እርዳታ	-2080
▁ተገኝ	-2081
▁ዋንጫ	-2082
▁አሳስ	-2083
▁ኤጀንሲ	-2084
▁ጉዞ	-2085
ንቃ	-2086
▁መንገዶች	-2087
▁ምት	-2088
▁ተች	-2089
▁የጉ	-2090
▁ለመስጠት	-2091
ሬታ	-2092
▁ማብራ	-2093
▁ተከሳ	-2094
▁የኦ	-2095
▁የድር	-2096
▁የሚታወ	-2097
▁በአል	-2098
▁ደጋ	-2099
▁ቦታዎች	-2100
ክልል	-2101
ፌደ	-2102
▁ሰራዊት	-2103
▁የሰብአዊ	-2104
ጣል	-2105
▁ፕሬዝ	-2106
ሳዊ	-2107
▁በቅ	-2108
ጧል	-2109
ላለፍ	-2110
11	-2111
ጠቀሙ	-2112
▁ስቴት	-2113
▁የሚፈ	-2114
▁የፋይናንስ	-2115
ምስት	-2116
▁የሲ	-2117
▁ግለሰቦች	-2118
ጀመሩ	-2119
▁አራ	-2120
▁በመተ	-2121
ስ፣	-2122
ዝም	-2123
▁ጥያቄዎች	-2124
▁ግልፅ	-2125
ድሮ	-2126
ፏል	-2127
ይወት	-2128
▁ይመስ	-2129
▁ማለ	-2130
▁እንዳለው	-2131
▁ስድስት	-2132
▁ተዋ	-2133
▁በሁለቱ	-2134
ነህ	-2135
▁በፍጥነት	-2136
▁ሀይለ	-2137
▁መክ	-2138
▁መስጠት	-2139
ከባ	-2140
▁ያመለክ	-2141
▁አዳዲስ	-2142
ጠበቀ	-2143
ጠሩ	-2144
መሰ	-2145
▁ሩ	-2146
ስተካ	-2147
▁ደቡብ	-2148
▁ለመከላከል	-2149
ባበ	-2150
▁ምክንያቱም	-2151
ንጉ	-2152
ስተር	-2153
▁ይገልፃ	-2154
▁ያደረገ	-2155
▁ህጋዊ	-2156
▁ፖሊሲ	-2157
▁ወገ	-2158
ጠኛ	-2159
ርባ	-2160
ደሰ	-2161
ናሽ	-2162
ሬዳዋ	-2163
ገም	-2164
▁ሀላፊዎች	-2165
▁የዳ	-2166
▁እጥረት	-2167
ውው	-2168
ችለው	-2169
30	-2170
▁እንዳስ	-2171
ልስ	-2172
ብዛ	-2173
▁ትክክለ	-2174
ቀረቡት	-2175
▁አስመል	-2176
▁ዙር	-2177
▁ጆ	-2178
▁ጥበቃ	-2179
▁ተደርጎ	-2180
ንታ	-2181
▁ሌላው	-2182
ቀበ	-2183
ለህ	-2184
ሳኝ	-2185
▁እየሰራ	-2186
▁የሆኑት	-2187
▁ዝርዝር	-2188
▁የሚችሉ	-2189
▁ካሳ	-2190
ጠኝ	-2191
▁የሰላም	-2192
▁የተባለው	-2193
▁ይኼ	-2194
▁የመጨረሻ	-2195
ዎቹን	-2196
ሸነፍ	-2197
▁ተከታ	-2198
▁ለማወቅ	-2199
▁ኮሚሽ	-2200
ልቁ	-2201
ቀጥል	-2202
▁ያው	-2203
▁የፍት	-2204
▁ተማሪዎች	-2205
ለቀ	-2206
ናይትድ	-2207
▁ማብራሪያ	-2208
▁መቶ	-2209
▁2010	-2210
▁እንደሚገኝ	-2211
▁የአየር	-2212
ሞን	-2213
ካሂ	-2214
▁ጃ	-2215
ምህር	-2216
▁ሂደ	-2217
▁ፕሮጀክቶች	-2218
ፋር	-2219
▁ደብዳቤ	-2220
▁ተሳትፎ	-2221
▁ከሌሎች	-2222
▁በተደጋጋሚ	-2223
ካተ	-2224
ውስ	-2225
ሀንስ	-2226
▁፤	-2227
▁ይላል	-2228
▁ከም	-2229
▁ለኢትዮጵያ	-2230
ያት	-2231
▁ለመፍታት	-2232
▁በኤ	-2233
▁አበባ፣	-2234
▁አዲሱ	-2235
▁በቁጥጥር	-2236
▁ምል	-2237
▁ማሀበር	-2238
ዳል	-2239
2012	-2240
▁ተሰ	-2241
▁በደቡብ	-2242
▁የወደ	-2243
ላችሁ	-2244
▁ያገኘ	-2245
ከረ	-2246
000	-2247
ያንዳንዱ	-2248
ነታቸው	-2249
▁የመን	-2250
▁በአገር	-2251
▁ሀም	-2252
▁የአማራ	-2253
▁ምግብ	-2254
ማኖት	-2255
10	-2256
ዛሬው	-2257
▁ኢንተር	-2258
ንቲባ	-2259
▁አድርገው	-2260
▁መሀመድ	-2261
ኪና	-2262
ምጣት	-2263
ድብ	-2264
▁አስር	-2265
ፈፀመ	-2266
▁ህንፃ	-2267
▁ገለፃ	-2268
▁አትሌ	-2269
ፍን	-2270
▁በመግለፅ	-2271
▁ባለሙያ	-2272
▁የመጣ	-2273
▁መግባ	-2274
15	-2275
▁2011	-2276
▁አመልክተዋል	-2277
▁ዜና	-2278
ንቶ	-2279
▁ተችሏል	-2280
▁ጠባቂ	-2281
ሩም	-2282
▁እዚህ	-2283
▁ወዲህ	-2284
ታን	-2285
▁ተጋ	-2286
ፓርቲ	-2287
ባለው	-2288
ላቁ	-2289
▁ህፃ	-2290
▁ቁጥጥር	-2291
ላቂ	-2292
▁አስኪያ	-2293
ሻሻል	-2294
ወያ	-2295
ፖር	-2296
ምባ	-2297
▁ባለስልጣናት	-2298
▁ከውጭ	-2299
ይቶ	-2300
▁አልፎ	-2301
▁ጥና	-2302
▁በከተማ	-2303
ጨዋታው	-2304
▁እንድት	-2305
▁መሪዎች	-2306
▁ትና	-2307
▁ሊቀመን	-2308
ኬሽን	-2309
ዲት	-2310
▁መደረጉ	-2311
▁ሆኗል	-2312
▁ተሳታፊ	-2313
▁ከሚያ	-2314
ሾች	-2315
▁ለምን	-2316
▁አፈፃፀም	-2317
ግጥ	-2318
መጡ	-2319
18	-2320
▁የበላይ	-2321
▁በመጀመሪያ	-2322
▁ኔ	-2323
▁ምንጮች	-2324
ላኩ	-2325
▁እሱ	-2326
ያቂ	-2327
▁ጊዮርጊስ	-2328
▁የለው	-2329
▁በስተ	-2330
▁22	-2331
ኖራቸው	-2332
ማማ	-2333
▁ንግግር	-2334
ገልግሎ	-2335
ቆጠር	-2336
ሀኒ	-2337
ርዱ	-2338
▁ጓ	-2339
ዝና	-2340
ራች	-2341
የሁ	-2342
ንደ	-2343
▁ጋዜጣ	-2344
ፈልጋ	-2345
ባቸዋል	-2346
▁ባንኩ	-2347
▁ተሽከርካ	-2348
▁ዘግ	-2349
ጨት	-2350
ገረ	-2351
▁ረቂቅ	-2352
ስተዋል	-2353
ርቅ	-2354
ቃወ	-2355
▁ግብፅ	-2356
ታወቁ	-2357
▁ፈተና	-2358
▁አረ	-2359
▁በመጠቀም	-2360
ሳተፍ	-2361
ንጀል	-2362
▁ባለቤት	-2363
▁አጠና	-2364
▁የምግብ	-2365
ችላለ	-2366
ፈረን	-2367
▁ገበ	-2368
ክሽን	-2369
▁እርስ	-2370
▁ይላሉ	-2371
▁የሴ	-2372
▁ሴት	-2373
▁እንደሚሆን	-2374
▁መልክ	-2375
▁ችሏል	-2376
▁በዚሁ	-2377
ቡር	-2378
▁21	-2379
▁ግጭ	-2380
▁ወለ	-2381
ኒክ	-2382
▁ይሁንና	-2383
▁ማንኛውም	-2384
▁ለመስራት	-2385
▁የአንድ	-2386
▁ወረርሽኝ	-2387
ግባቡ	-2388
▁በስራ	-2389
ህና	-2390
▁እነዚህን	-2391
▁በህገ	-2392
▁ከጥ	-2393
▁ምርቶች	-2394
ናቀ	-2395
▁ጥቂት	-2396
▁መረጃዎች	-2397
ራቢ	-2398
ገውን	-2399
▁ሪፖርተር	-2400
▁አብራር	-2401
መለሱ	-2402
ብረተሰብ	-2403
▁ውጤታማ	-2404
ኳስ	-2405
▁ብዙሀን	-2406
▁አዋጁ	-2407
ሀሴ	-2408
ድረስ	-2409
▁ቋሚ	-2410
▁ሰባት	-2411
▁ከእነዚህ	-2412
▁መመሪያ	-2413
▁ሰኔ	-2414
▁መመርያ	-2415
በራቸው	-2416
▁ርእሰ	-2417
▁መሰረታዊ	-2418
ኬት	-2419
ገለፀው	-2420
▁ኢትዮጵያዊ	-2421
በራ	-2422
ኮኖሚያ	-2423
ሪምየር	-2424
▁ሰዎችን	-2425
▁ክለቦች	-2426
▁ቀላል	-2427
▁ተራ	-2428
▁ብል	-2429
ሀንነት	-2430
▁የቀረበ	-2431
▁አቋም	-2432
▁'	-2433
▁ሰለ	-2434
ካታ	-2435
ቡቲ	-2436
በኞች	-2437
▁ይዘ	-2438
▁የዩ	-2439
▁ልክ	-2440
መነ	-2441
▁ጨዋታው	-2442
▁ሲሆኑ	-2443
መደ	-2444
▁23	-2445
▁ልማ	-2446
▁የደቡብ	-2447
ጉም	-2448
▁ፕሮግራም	-2449
▁ህዝቡ	-2450
ተኛው	-2451
ሮቹ	-2452
▁ቆይታ	-2453
▁ባሉ	-2454
መሩ	-2455
ፈፀሙ	-2456
▁ተቃውሞ	-2457
▁አገሪቱ	-2458
▁ይበልጥ	-2459
▁ቅጣት	-2460
ለኝ	-2461
ንቃቄ	-2462
ታሉ	-2463
▁ማስረጃ	-2464
▁ልጆ	-2465
▁ጥቃ	-2466
▁ልምድ	-2467
▁የሚገኝ	-2468
.5	-2469
▁ውል	-2470
▁ተሰጥ	-2471
ቪድ	-2472
▁ሰነድ	-2473
▁ይገኛሉ	-2474
▁በኦሮሚያ	-2475
▁መልስ	-2476
▁ማክ	-2477
ሹራንስ	-2478
ቆጠሩ	-2479
▁በሁለት	-2480
▁ችሎ	-2481
▁ጠቅላላ	-2482
ገሪቱን	-2483
ገናኘ	-2484
▁መነሻ	-2485
▁የተፈ	-2486
▁በማሳ	-2487
▁የትግራይ	-2488
▁ዋስትና	-2489
▁በምር	-2490
ህንነት	-2491
ጠዋል	-2492
ገበ	-2493
▁አምባሳደር	-2494
ዲዮ	-2495
ጠፋ	-2496
▁ባለፈ	-2497
▁አቅርቦት	-2498
▁በዋና	-2499
ፌደራል	-2500
▁ከንቲባ	-2501
▁በየአ	-2502
▁እንዲፈ	-2503
ድኑ	-2504
▁ቅሬታ	-2505
ሄዱ	-2506
▁ምሳሌ	-2507
ሞት	-2508
ፕሎ	-2509
▁ሰብሳቢ	-2510
ጥን	-2511
በትና	-2512
ናገሩ	-2513
ቆጥ	-2514
▁እድሜ	-2515
ገባት	-2516
ፈጠረው	-2517
▁ህክምና	-2518
ታዎች	-2519
▁ተግባራት	-2520
▁ብሄር	-2521
ዘርፉ	-2522
▁ሁሉንም	-2523
▁በቀጥታ	-2524
▁በመጨረሻ	-2525
መልከት	-2526
▁ክት	-2527
ሳሰ	-2528
▁ማር	-2529
▁ገና	-2530
▁ለሀ	-2531
▁አቅርበዋል	-2532
ዥን	-2533
ረዱ	-2534
▁ስምም	-2535
▁የተናገሩት	-2536
ማቸውን	-2537
▁በአግባቡ	-2538
በሌ	-2539
▁ሹ	-2540
ኮኖሚያዊ	-2541
ርፍ	-2542
ጦች	-2543
ይቱ	-2544
▁አስቀ	-2545
▁በሁለተኛ	-2546
▁አድርገዋል	-2547
▁ዛ	-2548
▁ማሻሻያ	-2549
▁አነስተኛ	-2550
▁ያስረዳ	-2551
▁የውድድር	-2552
ጥቃት	-2553
▁እውነ	-2554
▁ዮሀንስ	-2555
▁ማረ	-2556
▁አማራጭ	-2557
ወደ	-2558
ሰጣቸው	-2559
ጠውን	-2560
ጣቸው	-2561
▁መግ	-2562
▁ሊሆኑ	-2563
▁ይታ	-2564
▁አስመልክቶ	-2565
▁አንተ	-2566
ስቸኳይ	-2567
▁አጥቂ	-2568
▁የዚህ	-2569
ጊዜው	-2570
▁የዋጋ	-2571
▁የሚለውን	-2572
ጅቱ	-2573
ንግሊዝ	-2574
ስተዳደር	-2575
ሆኑም	-2576
▁መኮ	-2577
▁ለህዝብ	-2578
▁መንግስታዊ	-2579
▁ተለ	-2580
▁እንደገለፁት	-2581
▁መወሰ	-2582
▁28	-2583
▁በማን	-2584
▁የደረ	-2585
▁ብርሀ	-2586
▁በህግ	-2587
▁መስከረም	-2588
▁በመሆኑ፣	-2589
▁ደጋፊ	-2590
▁ይታወቃል	-2591
▁የኦሮሚያ	-2592
▁ዘገባ	-2593
ኒው	-2594
▁ይናገራሉ	-2595
ርስቶ	-2596
▁እስራ	-2597
▁ጠይቀዋል	-2598
▁እየተደረገ	-2599
ገሩ	-2600
▁ጳ	-2601
▁በዚያ	-2602
▁አግባብ	-2603
▁ወሳኝ	-2604
▁ከሁለት	-2605
▁ትናንት	-2606
▁ወይዘ	-2607
▁ድርጊት	-2608
▁ካር	-2609
▁ወረ	-2610
ቷን	-2611
▁ጌታ	-2612
▁ሀብረት	-2613
ዛቤ	-2614
▁ጥቅምት	-2615
▁ደመ	-2616
▁ተያይ	-2617
▁ሚሊየን	-2618
▁ክለብ	-2619
ነጋገር	-2620
▁27	-2621
ያጭ	-2622
▁እም	-2623
ለያየ	-2624
▁መረጃዎችን	-2625
▁ይደ	-2626
ሪው	-2627
▁ደረ	-2628
▁ባለሀብቶች	-2629
▁አላቸው	-2630
▁ፍሬ	-2631
▁ስራዎችን	-2632
▁ሊቀመንበር	-2633
ሪት	-2634
▁የሚያደርጉ	-2635
▁ይኖ	-2636
ገመ	-2637
ዋሚ	-2638
▁በውጭ	-2639
ንብ	-2640
▁ተደራ	-2641
▁ኢንቨስትመንት	-2642
ግም	-2643
ቻላል	-2644
▁ልዩነት	-2645
▁ተቀባይ	-2646
▁አጀ	-2647
▁ዘመቻ	-2648
▁ፕሬዚዳን	-2649
▁ወገኖች	-2650
▁ተስፋዬ	-2651
▁የህክምና	-2652
▁አኳ	-2653
▁ጂ	-2654
ሮው	-2655
ጡን	-2656
ዮችን	-2657
▁ስጋ	-2658
▁ሶስተኛ	-2659
ጣጥ	-2660
▁አማካኝነት	-2661
ፍና	-2662
▁ወደፊት	-2663
▁መሸ	-2664
▁ፍቅር	-2665
▁በነበረው	-2666
▁አስደ	-2667
▁ቀጠ	-2668
ከሉ	-2669
ኳር	-2670
ሀዊ	-2671
ሊስ	-2672
ንባታ	-2673
▁ለምሳሌ	-2674
▁ያመለክታል	-2675
ገራችን	-2676
ፕሎማ	-2677
▁ለፍ	-2678
▁ይቻላል	-2679
ስትራክሽን	-2680
▁ወቅታዊ	-2681
ላከ	-2682
▁በሁሉም	-2683
ደል	-2684
▁ስህ	-2685
▁በትግራይ	-2686
▁የሆነውን	-2687
▁በዛሬው	-2688
▁ለብ	-2689
▁አቢ	-2690
ጠናቀቁ	-2691
ኢን	-2692
ቃቸው	-2693
ሳካ	-2694
▁ለመፍጠር	-2695
ከናወኑ	-2696
▁ይሄ	-2697
ዶችን	-2698
▁ያስተ	-2699
ነታቸውን	-2700
▁ማጣ	-2701
▁ትውል	-2702
▁ይዘው	-2703
▁እንደገለፁ	-2704
ላትን	-2705
▁የግብርና	-2706
▁ኤሌክትሪክ	-2707
ባበር	-2708
ለበት	-2709
ጋና	-2710
▁የመከላከያ	-2711
▁ዘመናዊ	-2712
ጀር	-2713
▁ጥቅ	-2714
▁አወ	-2715
ላይታ	-2716
▁ህብረት	-2717
▁()	-2718
▁ያደረገው	-2719
▁ትንሽ	-2720
▁ይኖር	-2721
▁መደበኛ	-2722
▁የደረሰ	-2723
▁እንደተናገሩት	-2724
ኒስት	-2725
ልጋ	-2726
▁26	-2727
▁ወገን	-2728
▁በቀላሉ	-2729
▁እንደገና	-2730
ስፋት	-2731
▁ማስታወ	-2732
ዳዩ	-2733
▁ተመ	-2734
ዳና	-2735
▁የቤት	-2736
የአ	-2737
▁አፍ	-2738
▁ጉብኝ	-2739
ሆነው	-2740
▁የባለ	-2741
▁የኤሌክትሪክ	-2742
▁ድርድር	-2743
▁ዴሞክራሲያዊ	-2744
ዳረ	-2745
▁ተጠርጣሪ	-2746
▁ስሜት	-2747
▁በግልፅ	-2748
▁ግንቦት	-2749
▁እየተሰራ	-2750
ኖችን	-2751
ፈጠሩ	-2752
▁የይ	-2753
▁ከአዲስ	-2754
▁አርብ	-2755
▁የምታ	-2756
▁ቶን	-2757
▁ግም	-2758
▁አውሮፕ	-2759
ካሄዱ	-2760
▁ሀዋሳ	-2761
▁የተደረገ	-2762
▁ኢኮኖሚያዊ	-2763
▁የመጀመሪያው	-2764
▁!	-2765
▁ሬ	-2766
▁የሚተ	-2767
ንፈ	-2768
ቫይረሱ	-2769
ኩት	-2770
▁ያስፈል	-2771
ሰስ	-2772
▁እንደማ	-2773
▁የባንኩ	-2774
ገልግሎት	-2775
▁ባደረጉት	-2776
ጣቱ	-2777
ፋሉ	-2778
ቀፍ	-2779
ጠኞች	-2780
ንድን	-2781
▁መዘ	-2782
ራዘ	-2783
▁አማካይነት	-2784
ክተሩ	-2785
▁ኩባንያው	-2786
ዝቡ	-2787
ቀመጥ	-2788
▁የባንክ	-2789
▁ደስታ	-2790
▁ወይዘሮ	-2791
▁የተሰማ	-2792
▁ፈፅ	-2793
▁መጀመሪያ	-2794
ፋን	-2795
199	-2796
ቴጂ	-2797
ገበያ	-2798
▁እያደረገ	-2799
ቻለው	-2800
▁ያሉትን	-2801
▁በፖ	-2802
በርካታ	-2803
▁ነጋዴ	-2804
ቀል	-2805
▁የሰራ	-2806
▁እንደገለፁት፣	-2807
▁የተመሰረተ	-2808
▁አሳስበዋል	-2809
▁ቅርንጫ	-2810
▁ትብብር	-2811
ጋጠ	-2812
ያዘው	-2813
▁ተቋማ	-2814
▁አለባቸው	-2815
▁አብራርተዋል	-2816
▁አርሶ	-2817
▁ከዚህም	-2818
ደርሱ	-2819
▁የተገኘ	-2820
▁በአካባቢው	-2821
ቀሳ	-2822
ጨዋታ	-2823
▁ሲሆን፤	-2824
ችልም	-2825
ብርሀ	-2826
▁ዘርፎች	-2827
▁በፅ	-2828
▁በቦ	-2829
ቅርብ	-2830
▁ነጥ	-2831
ለካ	-2832
▁ወጣት	-2833
ሎቹ	-2834
▁ጭማሪ	-2835
▁በፕ	-2836
-1	-2837
▁የብሄራዊ	-2838
ከናው	-2839
▁በቀጣ	-2840
ሎስ	-2841
▁ራሱን	-2842
▁በሀላ	-2843
ሁድ	-2844
▁አቤቱ	-2845
ራሽ	-2846
▁የመጀመርያ	-2847
▁ነፃነት	-2848
ስቡ	-2849
▁የዲ	-2850
▁የተባበሩት	-2851
▁ስፖርት	-2852
ልፅግና	-2853
▁አስኪያጅ	-2854
▁በአማራ	-2855
▁የቱ	-2856
▁ስደ	-2857
▁ሆቴል	-2858
▁ቀድሞ	-2859
▁አብዱ	-2860
ነሰ	-2861
▁ያመ	-2862
ከላዊ	-2863
▁ነው፣	-2864
ዳሜ	-2865
▁መስተዳ	-2866
▁/	-2867
ሮጀ	-2868
ሳሉ	-2869
▁ልም	-2870
▁ወታደራዊ	-2871
ገልፁ	-2872
ህል	-2873
▁ለአንድ	-2874
ረጋጋት	-2875
ለል	-2876
ውሰድ	-2877
▁ያስታወ	-2878
▁ክር	-2879
▁ችሎት	-2880
▁እውቅና	-2881
▁አንድነት	-2882
ሪዝም	-2883
▁አንዳን	-2884
▁የአምላክ	-2885
ጎችን	-2886
▁የሚገባ	-2887
ተኝነት	-2888
▁የዜ	-2889
ሂሳብ	-2890
ክታር	-2891
▁ሆስ	-2892
▁ኑ	-2893
...	-2894
ስተው	-2895
መለከተው	-2896
▁የፅ	-2897
▁ምንጭ	-2898
▁ቀዳሚ	-2899
▁አረጋግ	-2900
▁በቀለ	-2901
▁በመስጠት	-2902
-0	-2903
ክሩ	-2904
ዋቂ	-2905
ጋዜ	-2906
▁እንደሆኑ	-2907
በትም	-2908
▁ፕሬዝዳንት	-2909
▁ድንጋጌ	-2910
ንቀሳቀሱ	-2911
▁ይቀ	-2912
▁ምሁ	-2913
▁ተያይዞ	-2914
▁የተለየ	-2915
▁አለመሆኑ	-2916
ጋጥ	-2917
12	-2918
▁ፀሀፊ	-2919
▁ያደረጉት	-2920
ርስቶስ	-2921
▁ጠቅሰዋል	-2922
▁የእር	-2923
▁አክሲ	-2924
▁ፍፁም	-2925
ጀመርያው	-2926
▁ሰጥተዋል	-2927
▁ጥላ	-2928
▁ጥራት	-2929
ሰጠ	-2930
▁እንዳለባቸው	-2931
▁50	-2932
ካን	-2933
ሜሽን	-2934
▁ኤል	-2935
▁ተጠያቂ	-2936
▁የምርመራ	-2937
▁የተከሰ	-2938
▁የተወሰነ	-2939
አብ	-2940
▁በኢን	-2941
▁በድጋሚ	-2942
ሲል	-2943
ሯቸው	-2944
▁ግዛት	-2945
ድርሻ	-2946
▁አክለዋል	-2947
▁ስትራ	-2948
▁2009	-2949
▁መሆናቸው	-2950
▁ቪ	-2951
ሳን	-2952
በላ	-2953
▁ይፈ	-2954
▁0	-2955
▁ሳቢያ	-2956
ትም	-2957
ናልባት	-2958
▁የማእ	-2959
ቢሲ	-2960
▁እንዳልሆነ	-2961
ችሁን	-2962
▁ሰላማዊ	-2963
▁ፅሁፍ	-2964
እና	-2965
ወሰን	-2966
▁ይሰጣ	-2967
▁ግዴ	-2968
ሊን	-2969
▁ተብለው	-2970
ይታ	-2971
▁የሚያሳ	-2972
▁ኮርፖሬሽን	-2973
ቐለ	-2974
▁የሚሰራ	-2975
▁መቆየ	-2976
▁ፕሮፌ	-2977
በአ	-2978
▁ስለተ	-2979
▁ካለው	-2980
ፈዋል	-2981
▁ስራው	-2982
ጣሪዎች	-2983
▁ዝግጁ	-2984
▁መጋቢት	-2985
▁እንዳሉት	-2986
ገለግ	-2987
▁ከሌ	-2988
▁አኳያ	-2989
▁ተጫዋች	-2990
▁በመሆናቸው	-2991
▁የቢ	-2992
▁ትራንስፖርት	-2993
▁ሳያ	-2994
▁ለስ	-2995
ሰልጣ	-2996
ፈለጉ	-2997
▁ስቴትስ	-2998
▁የሁለቱ	-2999
17	-3000
▁ተመስ	-3001
ቸጋሪ	-3002
▁ብሄረ	-3003
▁ዝቅተኛ	-3004
▁ሰጪ	-3005
▁ስራውን	-3006
ክለቡ	-3007
ናይ	-3008
▁ሰጥቷል	-3009
ላችን	-3010
▁ላይም	-3011
▁መጠቀም	-3012
ቾችን	-3013
ሰኞ	-3014
▁ብቃት	-3015
▁ቻይና	-3016
▁29	-3017
ኮም	-3018
▁ዳዊት	-3019
▁ጅማ	-3020
▁ተመራ	-3021
▁ድረ	-3022
▁ካሉ	-3023
ዘጋጀት	-3024
ፈልገው	-3025
ጀምር	-3026
▁ተል	-3027
▁ተወዳ	-3028
ዘዋ	-3029
▁እንደምት	-3030
ላቸዋል	-3031
▁የሚመራ	-3032
▁ቁር	-3033
▁ኢንጂ	-3034
ኔት	-3035
▁ሳምን	-3036
▁የነዳጅ	-3037
▁ተቀባይነት	-3038
ንቀሳቀስ	-3039
መና	-3040
ጥረው	-3041
▁የሚሉት	-3042
ሴን	-3043
▁ሰብአዊ	-3044
▁ከሳ	-3045
▁አጀንዳ	-3046
▁በፀ	-3047
▁ከት	-3048
60	-3049
▁እስኪ	-3050
ሶችን	-3051
▁በካ	-3052
ቪዥን	-3053
▁ቀጠሮ	-3054
▁እቅ	-3055
ይማኖት	-3056
▁መፈ	-3057
▁ነዋሪ	-3058
▁ይኸ	-3059
ጣኝ	-3060
▁ሰን	-3061
ከተል	-3062
▁ሪፖር	-3063
▁አዳማ	-3064
▁የብድር	-3065
▁የኢንዱስትሪ	-3066
▁ጀም	-3067
ቶች፣	-3068
ያንስ	-3069
▁ታስ	-3070
▁እናንተ	-3071
▁ጉል	-3072
▁ቅድመ	-3073
▁40	-3074
▁ኮሚቴው	-3075
ኩባንያ	-3076
▁የቻይና	-3077
ሴት	-3078
▁ኤር	-3079
▁መገኘ	-3080
ጓዝ	-3081
ቻይና	-3082
▁ርቀት	-3083
▁ችግሮችን	-3084
ሙስ	-3085
ጀም	-3086
▁እንደሚገኙ	-3087
ንክ	-3088
ሬዚ	-3089
▁ከመስ	-3090
▁2008	-3091
ተኮ	-3092
▁አሻ	-3093
ቲክ	-3094
▁ግርማ	-3095
ኦሮሞ	-3096
ችኋ	-3097
▁የእድ	-3098
▁ፖለቲካዊ	-3099
▁ጉድ	-3100
ፎርሜሽን	-3101
▁በግብ	-3102
ቆይ	-3103
▁በአሜሪካ	-3104
▁ክርስቲያ	-3105
▁ድርጅቱ	-3106
▁በሀገሪቱ	-3107
▁ተቀብ	-3108
▁ከተለያዩ	-3109
▁ዱ	-3110
ካኤል	-3111
▁የስነ	-3112
▁ሁኔታዎች	-3113
▁ምናልባት	-3114
▁ማለትም	-3115
▁ሀምሌ	-3116
ጠኝነት	-3117
ባር	-3118
ረፍት	-3119
▁የሊ	-3120
▁ታደሰ	-3121
▁ማርያም	-3122
14	-3123
ከናወነ	-3124
ላእክት	-3125
▁ፕሪምየር	-3126
▁.	-3127
ጠቀሱት	-3128
▁ባወጣው	-3129
▁፲	-3130
▁በመም	-3131
▁የገቢ	-3132
▁መፍጠር	-3133
መም	-3134
ግግር	-3135
▁ዳን	-3136
▁ገደ	-3137
▁ታላቅ	-3138
▁ብዬ	-3139
ገራቸው	-3140
▁ገፃ	-3141
▁የወንጀል	-3142
ተናል	-3143
▁የሚሉ	-3144
▁መስጠ	-3145
▁ማሀበራት	-3146
▁በውይ	-3147
▁ተደርጓል	-3148
▁ነሀሴ	-3149
▁ከደ	-3150
▁ከፋ	-3151
ገናኝ	-3152
▁ለዘ	-3153
▁://	-3154
ኔራል	-3155
ፓርላማ	-3156
ኤስ	-3157
▁መርማሪ	-3158
▁በሚገኘው	-3159
▁ጊዜያት	-3160
▁መፍ	-3161
▁ማቅረብ	-3162
ቱ፣	-3163
▁ደንብ	-3164
ነገር	-3165
ዶቹ	-3166
▁አብሮ	-3167
▁እግዚአብሄር	-3168
▁ደም	-3169
ፆች	-3170
▁ለወ	-3171
▁የን	-3172
▁በህዝብ	-3173
▁የጠቆ	-3174
▁አቅራቢ	-3175
ራው	-3176
▁መጣ	-3177
▁በመጥ	-3178
▁ምክንያቶች	-3179
ዴሞክራሲ	-3180
▁የግድ	-3181
▁አገራዊ	-3182
▁ጠቁመው	-3183
ወሰነ	-3184
▁ይሆዋ	-3185
በሪያ	-3186
▁ሄክታር	-3187
▁ስትራቴጂ	-3188
ቪል	-3189
ጊያ	-3190
▁ጉዳዩን	-3191
▁አንስቶ	-3192
ወስድ	-3193
▁ለማሳደግ	-3194
▁በሁለተኛው	-3195
▁ሉ	-3196
▁የምና	-3197
ቆች	-3198
▁የተቀመ	-3199
▁እንዳሉ	-3200
▁ነኝ	-3201
▁ታማ	-3202
▁ግዥ	-3203
▁ውድድ	-3204
ጁን	-3205
ዎችም	-3206
▁የወሰ	-3207
▁ሲባል	-3208
▁የገበያ	-3209
▁በሳ	-3210
▁የተባሉ	-3211
▁ለፍርድ	-3212
▁የሚኖሩ	-3213
አይ	-3214
▁ተገ	-3215
▁የሚባል	-3216
▁የፋና	-3217
የሩ	-3218
▁አመለካ	-3219
ልቃ	-3220
▁ተስማ	-3221
ረከ	-3222
ጥሩ	-3223
▁ነዳጅ	-3224
▁የሀይል	-3225
▁መጨ	-3226
▁የመል	-3227
▁የቁ	-3228
▁የካቲት	-3229
ሞላ	-3230
▁ገዥ	-3231
▁ለዚህም	-3232
▁አስቸጋሪ	-3233
ሌት	-3234
▁ለመገንባት	-3235
▁ክርስቲያን	-3236
መለከታቸው	-3237
ሊክ	-3238
▁እንደመ	-3239
▁የሚሆን	-3240
▁ተነ	-3241
▁ፍቃ	-3242
▁አቅርቦ	-3243
ሏቸው	-3244
▁እንደሚችሉ	-3245
ሲያ	-3246
▁ሆይ	-3247
ናቂ	-3248
▁ምርጥ	-3249
▁ካፒታል	-3250
▁ህፃናት	-3251
ድቅ	-3252
▁እየታ	-3253
▁ቀይ	-3254
▁የባህር	-3255
▁ተሸ	-3256
ወገድ	-3257
ኬንያ	-3258
▁ያደርጋል	-3259
▁የያህዌ	-3260
▁ዋነኛ	-3261
2013	-3262
▁አስተያየ	-3263
▁መቅ	-3264
▁አስተዳደሩ	-3265
▁ቀጣይ	-3266
▁ደቂቃዎች	-3267
መቻ	-3268
▁ገልፀው	-3269
ሊሞች	-3270
▁የፓርቲ	-3271
ዘጋጁ	-3272
▁ደስ	-3273
▁ድንበር	-3274
▁ጌታቸው	-3275
ቋረጥ	-3276
▁የሚጠ	-3277
▁መድሀኒ	-3278
ሪስ	-3279
▁ቲ	-3280
▁ይመስላል	-3281
ግዳ	-3282
▁እንደሆነም	-3283
▁መንፈስ	-3284
▁የተከ	-3285
▁ዘዴ	-3286
▁በድር	-3287
ችግ	-3288
ሮድ	-3289
▁ህገወጥ	-3290
እክ	-3291
▁ወርቅ	-3292
40	-3293
ምረ	-3294
▁ባስ	-3295
▁ሰአ	-3296
ቤል	-3297
▁በዝ	-3298
ደርጋ	-3299
▁ስምንት	-3300
▁አልነበረ	-3301
▁ዝግጅ	-3302
▁የተደረገው	-3303
▁በእርግጥ	-3304
▁ቆይቷል	-3305
▁በአጭር	-3306
▁መገናኛ	-3307
▁ፒ	-3308
▁ሁለተኛው	-3309
▁ቀውስ	-3310
▁የሚደረግ	-3311
▁የመሬት	-3312
▁በየአመቱ	-3313
▁ድቻ	-3314
▁በይፋ	-3315
▁ጨረታ	-3316
ማሉ	-3317
ገነቡ	-3318
ሪንግ	-3319
ባባሪ	-3320
▁በሙ	-3321
▁መኖሪያ	-3322
▁ወዳ	-3323
▁አሳል	-3324
▁ሲሉም	-3325
ጪው	-3326
▁በነፃ	-3327
▁ለማቅረብ	-3328
▁ትክክለኛ	-3329
▁መሰረተ	-3330
▁ለመግ	-3331
ዋእ	-3332
▁ክትትል	-3333
▁ለማረጋገጥ	-3334
▁ክስተ	-3335
▁ለመሆን	-3336
ልጣን	-3337
▁ማረጋገ	-3338
▁አድራ	-3339
▁ላለፉት	-3340
ላጆች	-3341
▁ምስራቅ	-3342
▁ቀጣ	-3343
ዩኒኬሽን	-3344
▁ምእራፍ	-3345
▁ያለበት	-3346
▁ታሪካ	-3347
▁መብቶች	-3348
ገቡት	-3349
▁እንስ	-3350
▁ምህ	-3351
▁ፈጣን	-3352
▁በራሱ	-3353
▁ኬንያ	-3354
▁የምክር	-3355
▁ሊያስ	-3356
▁ከመንግስት	-3357
ገማ	-3358
▁ለጥ	-3359
ፓን	-3360
ዘጋጀው	-3361
▁100	-3362
▁አስቀድሞ	-3363
ሟላ	-3364
25	-3365
2011	-3366
▁ለግ	-3367
▁ምቹ	-3368
▁ደሳ	-3369
▁አማካሪ	-3370
▁የሀገሪቱ	-3371
ሰቦ	-3372
▁የሳ	-3373
▁በኋላ፣	-3374
በተ	-3375
ይጣ	-3376
▁ጠቃ	-3377
▁ኮንት	-3378
▁እንዳላቸው	-3379
ገባቸው	-3380
▁የኢትዮጵያን	-3381
▁ደህንነት	-3382
ፍሬ	-3383
▁ደሀንነት	-3384
ሽት	-3385
▁መልሶ	-3386
▁የአውሮፓ	-3387
ሳቁ	-3388
▁መኮንን	-3389
▁ነበር፤	-3390
▁ስርአቱ	-3391
ክኒክ	-3392
▁ግዙ	-3393
▁ሎ	-3394
ማግ	-3395
▁በሶ	-3396
▁መሀል	-3397
▁አቻ	-3398
▁ንብረ	-3399
▁ዘንድሮ	-3400
▁ወንጀ	-3401
▁የሚሰጥ	-3402
ክክር	-3403
▁በዳ	-3404
▁አደረጃ	-3405
ንዳንድ	-3406
▁የቤተ	-3407
▁ትርጉም	-3408
▁እንድን	-3409
▁ኮሚሽነር	-3410
▁የሶ	-3411
▁የተመረ	-3412
ቋረ	-3413
ዲያው	-3414
▁በአብዛ	-3415
ጨመረ	-3416
ዎት	-3417
▁የተገኘው	-3418
▁ማህበረሰብ	-3419
ወጣት	-3420
▁እንዲሆኑ	-3421
ሁዳ	-3422
▁የቆየ	-3423
▁በአንፃ	-3424
▁ማህበራዊ	-3425
▁ለሚያ	-3426
▁ትርፍ	-3427
▁ጠቃሚ	-3428
ረጅም	-3429
▁በትክ	-3430
▁ኢትዮ	-3431
▁1.	-3432
▁የተወ	-3433
▁የክልል	-3434
ጠነ	-3435
ቁር	-3436
▁ይቅር	-3437
▁በቡ	-3438
ያቸውን	-3439
▁ተከታታይ	-3440
▁ማክሰኞ	-3441
ዚቃ	-3442
▁ደሳለኝ	-3443
ሳሰብ	-3444
▁ይገልፃሉ	-3445
▁ቀበሌ	-3446
ሸጥ	-3447
▁ትስ	-3448
ጎብ	-3449
ነት፣	-3450
▁ምድብ	-3451
13	-3452
▁ባደረገው	-3453
ራምፕ	-3454
ሚንቶ	-3455
ፌዴሪ	-3456
ፈፅ	-3457
▁ያደረጉ	-3458
በታ	-3459
እራብ	-3460
▁በቴ	-3461
▁መጠየ	-3462
▁በመጠ	-3463
▁ብዛት	-3464
ከሩ	-3465
▁የህዳሴ	-3466
ዋት	-3467
ሚዎች	-3468
▁ዳይሬክተሩ	-3469
▁ኢንስ	-3470
ላለች	-3471
ሰና	-3472
▁አጠቃ	-3473
▁ታክስ	-3474
▁ዘላቂ	-3475
▁ብርሀኑ	-3476
▁የቴሌ	-3477
▁መከላከል	-3478
ሀሳስ	-3479
ሶማሌ	-3480
ቃሉ	-3481
▁ጠብ	-3482
ከቱ	-3483
▁በገ	-3484
▁በማቅረብ	-3485
▁ናት	-3486
?"	-3487
▁መፃ	-3488
▁ከብ	-3489
ልማ	-3490
ተኞችን	-3491
▁በእጅ	-3492
▁ሰሞ	-3493
▁በፌዴራል	-3494
▁ትልቁ	-3495
▁ክብር	-3496
▁አመታዊ	-3497
ረክ	-3498
ገበው	-3499
▁አቤቱታ	-3500
▁ዘግቧል	-3501
ውጣ	-3502
▁የተቋቋ	-3503
▁የጠቅላይ	-3504
ዮቹ	-3505
ማግሌ	-3506
ነበር	-3507
ይህ	-3508
ጃሉ	-3509
▁ፌ	-3510
▁ተር	-3511
▁ሰለሞን	-3512
▁ያስፈልጋል	-3513
▁የተሻ	-3514
ራፊ	-3515
ዳጊ	-3516
▁ቢያንስ	-3517
▁የግንባታ	-3518
▁በተካሄደው	-3519
▁የኢንቨስትመንት	-3520
▁መጀመ	-3521
▁በዋናነት	-3522
▁የትራንስፖርት	-3523
ክቷል	-3524
▁መሰል	-3525
▁የእስራኤል	-3526
▁ቅዳሜ	-3527
ሰቢያ	-3528
▁ሰኞ	-3529
ገኘውን	-3530
ጌታ	-3531
ለቱን	-3532
▁ምግባር	-3533
▁ሀይሉ	-3534
▁ማቆ	-3535
▁ቀሪ	-3536
▁በሊ	-3537
ቁሟል	-3538
ላቱ	-3539
▁ሰማ	-3540
▁ያሸን	-3541
ናሽናል	-3542
▁በስተቀር	-3543
▁የተቃ	-3544
▁ተገለፀ	-3545
▁የሚቆጠሩ	-3546
ጋቸውን	-3547
▁እያለ	-3548
▁ማሀበረሰብ	-3549
መለከቱ	-3550
▁ሰላምና	-3551
▁ጥንቃቄ	-3552
▁ተናግሯል	-3553
▁የወደቁ	-3554
▁ከበደ	-3555
▁ግምት	-3556
▁የአገሪቱን	-3557
▁እኩል	-3558
▁ሰራተኛ	-3559
▁የመንገድ	-3560
▁ስህተት	-3561
ጣኔ	-3562
▁ግንዛቤ	-3563
▁አቢይ	-3564
▁ጉብኝት	-3565
▁ስርጭት	-3566
ኖስ	-3567
ህሳስ	-3568
ምባሲ	-3569
ገልፅ	-3570
▁እንደም	-3571
▁በሽታ	-3572
▁ይደረ	-3573
ደገፍ	-3574
ጠይቅ	-3575
▁የቡና	-3576
▁ኮሚሽኑ	-3577
▁እየተካሄደ	-3578
▁ሚዲያ	-3579
▁አብርሀ	-3580
▁ሳምንታት	-3581
ዲን	-3582
▁አልቻ	-3583
▁የጣ	-3584
▁ምስክ	-3585
▁በተደረገው	-3586
▁ማመን	-3587
▁ወንዶች	-3588
▁ስታዲ	-3589
ዳቸውን	-3590
ሟላት	-3591
▁ችግሩን	-3592
▁እህ	-3593
መዝገብ	-3594
16	-3595
በት፣	-3596
ውውር	-3597
ሬን	-3598
ዝገባ	-3599
▁በብዙ	-3600
▁ተልእ	-3601
▁ተቀም	-3602
▁ሲነ	-3603
▁የህወሀት	-3604
ገንዝ	-3605
▁የሀገር	-3606
ረጋጋ	-3607
▁ህዳሴ	-3608
▁ገልፀው፣	-3609
▁እጩ	-3610
▁በሚመለከት	-3611
▁ባለቤ	-3612
▁ያለመ	-3613
▁በእነዚህ	-3614
እምሮ	-3615
ሰበው	-3616
▁የሚወ	-3617
ችውን	-3618
▁ካልተ	-3619
▁የተጣ	-3620
▁ለቀ	-3621
▁መስክ	-3622
▁የመላእክት	-3623
▁እራ	-3624
▁ዳኛ	-3625
▁አሳይ	-3626
▁የሚገ	-3627
ፍራሉ	-3628
▁የግብፅ	-3629
ፋቸው	-3630
▁የአካባቢ	-3631
ቆዩ	-3632
▁ያድር	-3633
▁የተባለ	-3634
ሆኑት	-3635
▁ታይ	-3636
▁የሚሰሩ	-3637
▁በን	-3638
በረሰቡ	-3639
ናገድ	-3640
▁ቤተሰብ	-3641
ይጣንም	-3642
ዥም	-3643
▁በመል	-3644
▁ልኡ	-3645
መስረት	-3646
▁የፍትወት	-3647
▁ብልጫ	-3648
▁የሚገኙት	-3649
▁ተይ	-3650
▁ያሸንፋሉ	-3651
ለትን	-3652
▁እቃዎች	-3653
▁ዘርፉ	-3654
▁የፊ	-3655
▁ግዴታ	-3656
▁የሚያደርግ	-3657
▁በዚ	-3658
ሙዩኒኬሽን	-3659
▁ታዋቂ	-3660
▁ያውጃሉ	-3661
▁የያዘ	-3662
▁የእግር	-3663
▁የምርት	-3664
▁በምን	-3665
▁ስኬ	-3666
▁እነሱ	-3667
▁እንዲቀ	-3668
ካካ	-3669
▁ተወስ	-3670
▁ቅድሚያ	-3671
▁እንዳያ	-3672
▁ይደፍራሉ	-3673
▁ወንዝ	-3674
▁ገደብ	-3675
ልድ	-3676
ሰለ	-3677
▁ኔፊ	-3678
▁እንዲያስ	-3679
▁ራሳቸውን	-3680
▁መቀመ	-3681
▁ተነግ	-3682
▁ተሰማ	-3683
▁ኔፊሊሞች	-3684
ታወቅ	-3685
▁አሸን	-3686
▁ለሰይጣንም	-3687
ጠናቀቀ	-3688
▁ማየት	-3689
▁ለመጀመሪያ	-3690
▁ሲያስ	-3691
▁የቀድሞው	-3692
▁የህዝ	-3693
ሙና	-3694
▁ክለቡ	-3695
ጎል	-3696
▁ሁለቱም	-3697
ርነት	-3698
▁አገልጋ	-3699
▁መሆኑን፣	-3700
ለመ	-3701
▁ትግል	-3702
▁በሚገኙ	-3703
▁ያሳያል	-3704
▁እያንዳንዱ	-3705
▁አፅ	-3706
▁ክፍተት	-3707
ሳው	-3708
ድሮስ	-3709
▁አክሲዮን	-3710
▁የጊዜ	-3711
▁መስዋእ	-3712
ዳው	-3713
▁የመሳሰ	-3714
▁ኦሮ	-3715
▁ሀሳቦች	-3716
▁ፀጋ	-3717
▁ነገሮችን	-3718
▁የፌደራል	-3719
ሴቶች	-3720
▁ማዳ	-3721
▁በስፋት	-3722
ሉ፣	-3723
▁ማንም	-3724
▁ሰሞኑን	-3725
ሾቹ	-3726
ኖሪያ	-3727
▁ብርሀን	-3728
ጣቂ	-3729
▁2007	-3730
▁በኋላም	-3731
ኑት	-3732
ውሎስ	-3733
▁ፈር	-3734
ላካ	-3735
▁መቻ	-3736
▁በምት	-3737
▁ተሞ	-3738
ፈፀመው	-3739
▁ብቸ	-3740
▁አልባ	-3741
▁አዘጋጅ	-3742
▁70	-3743
ጠቅላላ	-3744
▁ችግሩ	-3745
▁ሽማግሌ	-3746
▁መሳሪያዎች	-3747
ጋንዳ	-3748
ከን	-3749
▁ዴኤ	-3750
ጎን	-3751
▁ሰጥቶ	-3752
▁ህጉ	-3753
▁ግንባር	-3754
▁የተፈጥሮ	-3755
▁እሁድ	-3756
▁ምልክት	-3757
▁ሌሎችም	-3758
▁መኪና	-3759
▁ለአዲስ	-3760
▁ሽልማት	-3761
▁ይሰራ	-3762
▁ከላይ	-3763
▁ከሶስት	-3764
ኤም	-3765
ፃሜ	-3766
▁የእርስ	-3767
▁ፕሮፌሰር	-3768
▁ብለን	-3769
▁በሶስት	-3770
▁ለመመለስ	-3771
ቴን	-3772
▁ታሪ	-3773
▁ለሁለት	-3774
ረግ	-3775
▁ማሽ	-3776
▁መደረጉን	-3777
▁አውጥ	-3778
▁የሂሳብ	-3779
▁ዳግም	-3780
▁ተልእኮ	-3781
ከፊ	-3782
▁ሲዳማ	-3783
▁አንደ	-3784
▁እያስ	-3785
▁ታሪካዊ	-3786
▁ክርክር	-3787
▁ትምህር	-3788
ናቃ	-3789
ጠንቀ	-3790
ስተካከል	-3791
▁ጉባኤው	-3792
ንጀ	-3793
ካከ	-3794
▁የተሳ	-3795
▁ሊጉ	-3796
▁ጄኔራል	-3797
ዮኖች	-3798
▁ትስስር	-3799
ገዝ	-3800
▁ጠቅሰው	-3801
▁ባለድርሻ	-3802
▁መልእክ	-3803
▁መኖር	-3804
▁ተመር	-3805
▁የኦሮሞ	-3806
▁ቀርቦ	-3807
▁ዘጠኝ	-3808
▁መባ	-3809
ፈቀደ	-3810
▁ይሆን	-3811
▁ከኢ	-3812
ሮድካ	-3813
ቅረፍ	-3814
ፈለግ	-3815
▁የሰጡት	-3816
ዝነስ	-3817
ፕሎማሲ	-3818
▁ሀሙስ	-3819
▁ለመቆጣጠር	-3820
▁ተሽከርካሪዎች	-3821
▁ውይይ	-3822
ህበራዊ	-3823
▁፡	-3824
▁ባህል	-3825
ቅናቄ	-3826
▁ትኩስ	-3827
ምራት	-3828
▁ንፁ	-3829
▁አምራ	-3830
▁አመልክቷል	-3831
▁ይጠቁ	-3832
▁ዳንኤል	-3833
80	-3834
ዋለሁ	-3835
▁ኢህአዴግ	-3836
▁ማጥ	-3837
▁የተሰጠው	-3838
▁ተጨዋ	-3839
ፈረንሳይ	-3840
▁አሰፋ	-3841
ሏላዊ	-3842
ከተለው	-3843
▁በአብዛኛው	-3844
ሞችን	-3845
ቱና	-3846
ደስ	-3847
ኘው	-3848
▁ግዛ	-3849
▁የፌዴ	-3850
ሊት	-3851
▁ፉ	-3852
▁ያገኘነው	-3853
▁የሆ	-3854
ምቤ	-3855
ወዝ	-3856
▁ምርምር	-3857
▁ፌዴሬሽን	-3858
▁በማይ	-3859
ላለፉ	-3860
ድና	-3861
▁እዳ	-3862
▁ሆስፒታል	-3863
ቃሽ	-3864
ጋለ	-3865
ገለፅ	-3866
▁ጥበብ	-3867
▁ማህበር	-3868
▁በድን	-3869
▁የሱዳን	-3870
▁ግለሰብ	-3871
▁ከኮ	-3872
▁ለት	-3873
▁በሚያስ	-3874
ብሮ	-3875
ዘቡ	-3876
ፎችን	-3877
▁ፓርክ	-3878
▁አዛ	-3879
▁ተነስ	-3880
ናሉ	-3881
▁ድሬዳዋ	-3882
ስቡክ	-3883
ያኑ	-3884
▁ኤርትራ	-3885
▁አገልግሎቶች	-3886
▁አቀፉ	-3887
ልኝ	-3888
▁ሁል	-3889
▁ታዲያ	-3890
▁የተመዘ	-3891
ፃፀር	-3892
▁ሽያጭ	-3893
▁በእው	-3894
▁ህብረተሰቡ	-3895
▁በጥሩ	-3896
▁ግራ	-3897
ብብ	-3898
ከም	-3899
▁አለመሆኑን	-3900
▁ፅሁ	-3901
ሆንም	-3902
▁የሸ	-3903
▁ቁሳቁ	-3904
▁ፋብሪካዎች	-3905
ቀቅ	-3906
▁እሱም	-3907
ደቢት	-3908
▁ቁጥ	-3909
▁የተሰራ	-3910
▁ቦርዱ	-3911
▁በመን	-3912
▁ምስክር	-3913
▁በኦ	-3914
▁የአን	-3915
ምሩክ	-3916
ንነት	-3917
▁ትራምፕ	-3918
▁እንደሌለ	-3919
▁የወጪ	-3920
▁ከአለም	-3921
▁ፍትሀዊ	-3922
▁ተጠርጣሪዎች	-3923
▁ጁ	-3924
▁ሞት	-3925
▁እርሻ	-3926
▁እንዲያው	-3927
ጭነት	-3928
▁በሞ	-3929
▁ህል	-3930
ዮሽ	-3931
▁ያድርጉ	-3932
ከለኛ	-3933
▁ህዝባዊ	-3934
▁መስተዳድር	-3935
▁እያሳ	-3936
መጥ	-3937
ብቅ	-3938
ንታል	-3939
▁በኮሮና	-3940
▁ተጠቁሟል	-3941
ኡዲ	-3942
2010	-3943
▁ብዙም	-3944
▁መከራ	-3945
ሸጋ	-3946
▁199	-3947
▁አክል	-3948
ርሶ	-3949
ናንተ	-3950
.2	-3951
▁በሜዳ	-3952
▁የሁለት	-3953
▁መምጣ	-3954
▁ጥፋት	-3955
ትነት	-3956
▁አጠ	-3957
▁ዝና	-3958
▁በመጥቀስ	-3959
▁የኤርትራ	-3960
ሬድ	-3961
ባባይ	-3962
▁ተቃዋሚ	-3963
▁በተቃ	-3964
▁በአመት	-3965
ፈጠር	-3966
▁[	-3967
▁ወጥቶ	-3968
▁ትውልድ	-3969
ዟል	-3970
▁አክልበ	-3971
▁እንዲሰጥ	-3972
▁የሚታወስ	-3973
ችበት	-3974
▁በቤ	-3975
ረፍ	-3976
ባክ	-3977
▁በእን	-3978
▁ዋናው	-3979
ማስ	-3980
▁መረ	-3981
ላውያን	-3982
▁ከል	-3983
▁በባለ	-3984
▁ኢንሹራንስ	-3985
ጥፍ	-3986
ጠብቁ	-3987
ረጋገጠ	-3988
ዎቻቸው	-3989
▁የሚሆነው	-3990
ማካይ	-3991
▁ካርድ	-3992
ገስ	-3993
▁ጨዋታውን	-3994
ያሜ	-3995
፱፻	-3996
ራቱ	-3997
ሙኤል	-3998
▁ትራንስ	-3999
▁በትክክል	-4000
ለድ	-4001
ምረው	-4002
▁ግዙፍ	-4003
▁ግምገማ	-4004
ፐብ	-4005
ገናኙ	-4006
ጥረ	-4007
ርሱ	-4008
▁ግብረ	-4009
▁እንዳልተ	-4010
ግበር	-4011
▁ለሙሉ	-4012
▁ሰብስ	-4013
ነበረበት	-4014
▁ያስች	-4015
ፈታ	-4016
70	-4017
▁ብት	-4018
▁መዛ	-4019
መዝግ	-4020
ሉትን	-4021
▁የተጀመረው	-4022
▁ርእስ	-4023
▁ሰይ	-4024
▁በተደረገ	-4025
▁እየጨመረ	-4026
ቅድመ	-4027
ጠየቁ	-4028
ምፒክ	-4029
ቋሚ	-4030
▁አቡ	-4031
▁አካሄድ	-4032
▁የሚሰጠው	-4033
▁ፍትህ	-4034
▁ክፉ	-4035
ገልገል	-4036
▁የሚች	-4037
ዞች	-4038
▁አዲ	-4039
▁ማቅረ	-4040
▁የማያ	-4041
ሊያን	-4042
▁በሰጠው	-4043
▁ተካ	-4044
▁አለቃ	-4045
▁በሰሜን	-4046
▁የአካል	-4047
▁ጳውሎስ	-4048
▁የሚቀ	-4049
▁የድን	-4050
▁አደሮች	-4051
ሰባሰብ	-4052
▁ገለፁ	-4053
ውንም	-4054
.6	-4055
▁ውድቅ	-4056
ዩኒቨርሲቲ	-4057
ደበ	-4058
▁ማሀበራዊ	-4059
▁የአስቸኳይ	-4060
ደራጀ	-4061
▁በቆ	-4062
ኛውንም	-4063
▁ልማትና	-4064
.3	-4065
ይይት	-4066
▁ደካ	-4067
▁ይገልፃል	-4068
ነሱት	-4069
ታችንን	-4070
▁እንቅ	-4071
ጣው	-4072
▁ሽን	-4073
▁በአስ	-4074
▁የኢፌዴሪ	-4075
▁የቤ	-4076
ሙር	-4077
በስ	-4078
ፋና	-4079
▁ከግብ	-4080
▁እንችላለ	-4081
▁ሙስና	-4082
/200	-4083
▁ፈጠራ	-4084
▁ማስከበር	-4085
▁እንዲያደርጉ	-4086
ፈለገው	-4087
▁የማሀ	-4088
▁ያልሆነ	-4089
▁በሰላም	-4090
▁የጨዋታ	-4091
ራቶ	-4092
▁በመጀመሪያው	-4093
▁የሚያሳይ	-4094
▁የኢህአዴግ	-4095
▁ብረት	-4096
▁ደንበኞች	-4097
▁በሚቀጥ	-4098
▁ኢንተርናሽናል	-4099
▁በአንፃሩ	-4100
▁በሲ	-4101
የሩሳሌ	-4102
▁ሶማ	-4103
ሳሽ	-4104
▁ለሌሎች	-4105
▁ፋይ	-4106
ያዛ	-4107
▁ኢንቨስት	-4108
▁እስራኤል	-4109
ኩስ	-4110
ክተሮች	-4111
ዩም	-4112
▁እውነት	-4113
▁አበበ	-4114
▁ማረጋገጫ	-4115
ነዋል	-4116
▁የፈ	-4117
ርና	-4118
ሴፍ	-4119
▁በመስራት	-4120
ጠየቅ	-4121
የተ	-4122
▁ኖሮ	-4123
▁የስፖርት	-4124
▁የመስመር	-4125
▁በተሻለ	-4126
▁አመለካከት	-4127
ንዴ	-4128
▁ባሉት	-4129
▁ኮንስትራክሽን	-4130
▁ቀጥሎ	-4131
▁ከነበረው	-4132
▁ከዋ	-4133
▁እንዲሁ	-4134
ሎን	-4135
ምም	-4136
▁አክለው	-4137
▁አቅርቧል	-4138
▁አስፈላጊውን	-4139
▁ካስ	-4140
▁ሂሳብ	-4141
▁የሀይማኖት	-4142
.7	-4143
▁ብሎም	-4144
ጋቢ	-4145
▁ሽፋን	-4146
▁መፅ	-4147
▁ይጠቀ	-4148
ገኙበት	-4149
▁በርስ	-4150
▁የበጀት	-4151
▁በባህር	-4152
ደቀ	-4153
▁ስላል	-4154
▁ሀላፊው	-4155
▁እንችላለን	-4156
▁በጠቅላይ	-4157
ገዳ	-4158
▁60	-4159
▁እነሱም	-4160
▁ፋይናንስ	-4161
▁ክፍት	-4162
▁እድገ	-4163
▁ይሰማ	-4164
ዘረ	-4165
▁ካም	-4166
▁ግብይት	-4167
▁የጠቆሙት	-4168
▁ይደረጋል	-4169
▁መቅረ	-4170
▁ጉዳዮችን	-4171
▁በቅርብ	-4172
▁ማግኘ	-4173
ደረሰው	-4174
▁ምዝገባ	-4175
▁ከተማን	-4176
ቸዉ	-4177
▁እንደሚደረግ	-4178
▁ጣልቃ	-4179
▁ተደራሽ	-4180
ንቅ	-4181
▁ፀረ	-4182
▁መቼ	-4183
▁የተጠቀ	-4184
▁አንስተዋል	-4185
ገዙ	-4186
▁ስታዲየም	-4187
▁አዝ	-4188
▁የሌለው	-4189
▁ይረዳ	-4190
▁እንደሚሰራ	-4191
መልስ	-4192
▁ብሩ	-4193
▁የኮን	-4194
ሆዋ	-4195
▁ኒ	-4196
▁ቤቱን	-4197
ጨምር	-4198
▁ብሮድካ	-4199
▁የቀረበው	-4200
▁እንዲደረግ	-4201
ቁን	-4202
ቶቹን	-4203
▁አስታውሰዋል	-4204
ዬን	-4205
▁ባሳ	-4206
▁ስፖር	-4207
▁የምስ	-4208
ፐር	-4209
▁ተወዳዳሪ	-4210
▁ልደ	-4211
▁ሀብታ	-4212
▁ለመቀነስ	-4213
ላቸውም	-4214
▁በዘርፉ	-4215
▁ስለሚያ	-4216
▁ግብርና	-4217
▁ከሜዳ	-4218
▁ስለመሆኑ	-4219
ላለም	-4220
ሪን	-4221
▁ባለስልጣኑ	-4222
▁አሀ	-4223
▁ይሰጣል	-4224
▁የመረጃ	-4225
▁በንግድ	-4226
▁እርምጃዎች	-4227
▁የቦርድ	-4228
▁ሰል	-4229
▁አስረድቷል	-4230
▁የብር	-4231
▁ለማስተ	-4232
ኖቹ	-4233
ደሪያ	-4234
▁ግቦች	-4235
ድም	-4236
ያዝያ	-4237
▁ሲነፃፀር	-4238
100	-4239
ለየት	-4240
ሻው	-4241
▁የላ	-4242
▁ያን	-4243
ባበሩት	-4244
▁ቻናል	-4245
▁የሚገኘውን	-4246
ህነት	-4247
▁መሆኑንና	-4248
▁ንቅናቄ	-4249
ጅማ	-4250
▁ለውጭ	-4251
ንዱ	-4252
ጉት	-4253
ሟሉ	-4254
▁እርግ	-4255
ሻንጉ	-4256
▁እግ	-4257
▁ነጥቦች	-4258
▁ጠይቋል	-4259
▁እንደሚቻል	-4260
ስኮ	-4261
ክሲዮን	-4262
▁የማድረግ	-4263
▁አንደኛ	-4264
▁ክልላዊ	-4265
▁ተጨ	-4266
▁ደርሷል	-4267
ጋይ	-4268
ደንት	-4269
▁ተጫዋቾችን	-4270
▁ከባለ	-4271
ነበ	-4272
▁ዘይት	-4273
ሊሲ	-4274
▁ተነግሯል	-4275
.4	-4276
▁ያቀ	-4277
▁ስያሜ	-4278
▁መግባት	-4279
▁ኤምባሲ	-4280
ባጭ	-4281
ጠራው	-4282
▁ራስ	-4283
ቁም	-4284
ጄሪያ	-4285
▁ግር	-4286
▁አብዛኞቹ	-4287
ራጮች	-4288
ዝርዝር	-4289
▁ለሌ	-4290
ራቅ	-4291
ዎስ	-4292
▁የለውም	-4293
▁አስተሳሰብ	-4294
▁በተለየ	-4295
▁ብልፅግና	-4296
.8	-4297
ኩባንያው	-4298
ክብ	-4299
ትናንት	-4300
ቫይረስ	-4301
ማጭ	-4302
▁በሚገባ	-4303
▁ብሄረሰቦች	-4304
ህዴ	-4305
▁ግድያ	-4306
▁እንዲያገኙ	-4307
▁የአገልግሎት	-4308
ፌስቡክ	-4309
▁ቫይረሱ	-4310
▁በፋ	-4311
ናገረው	-4312
ዋር	-4313
▁500	-4314
▁2014	-4315
▁መሰብ	-4316
▁መንገዱ	-4317
▁ያስረዳል	-4318
ከሰቱ	-4319
▁ችለዋል	-4320
ሮጀክ	-4321
▁መሆኗ	-4322
▁ማሳያ	-4323
▁በእለቱ	-4324
2009	-4325
▁ማወቅ	-4326
▁በህይወት	-4327
▁የሚሸ	-4328
▁ማረጋገጥ	-4329
▁አስተዳደ	-4330
▁በማስተ	-4331
▁የሚደረገው	-4332
ናቱ	-4333
ማሪዎች	-4334
▁ያለፈ	-4335
▁መቀመጫ	-4336
▁ቡድኑን	-4337
▁ተጠናቋል	-4338
ቢኔ	-4339
ባን	-4340
ግስት	-4341
▁በሂ	-4342
ከታተል	-4343
▁የገባ	-4344
▁ሳሙኤል	-4345
ሮን	-4346
ቀጠል	-4347
▁ታሀሳስ	-4348
ደቅ	-4349
ወሰደ	-4350
▁ለነ	-4351
▁በጉዳዩ	-4352
ባረ	-4353
ምቤላ	-4354
▁ቁልፍ	-4355
▁የሚፈልጉ	-4356
--	-4357
ኒስቴ	-4358
▁ፋሲል	-4359
ኤላውያን	-4360
▁የቆየው	-4361
▁መለስ	-4362
ኡስ	-4363
▁ተቆጣ	-4364
▁እንቅስቃሴዎች	-4365
ጎዳ	-4366
▁እውነተኛ	-4367
▁በጨዋታው	-4368
መታት	-4369
▁ሀዳር	-4370
ሶማሊያ	-4371
▁የሚሆኑት	-4372
▁እያንዳን	-4373
▁ተመልክቷል	-4374
▁አልነበረም	-4375
24	-4376
ያሉ	-4377
▁ዘው	-4378
▁እንደሚያደርግ	-4379
ግራም	-4380
▁እንደሚያስፈልግ	-4381
/2012	-4382
ራጭ	-4383
▁ጋዜጣዊ	-4384
ለጋ	-4385
▁ማእከላዊ	-4386
▁ኢንስቲት	-4387
ረኛ	-4388
▁ሳይንስ	-4389
▁ምስክሮች	-4390
ከሰት	-4391
▁አስተላል	-4392
▁መጥፎ	-4393
▁በብዛት	-4394
▁ሳይሆን፣	-4395
▁በየጊዜው	-4396
▁ወረዳዎች	-4397
▁35	-4398
▁ታጣቂ	-4399
▁ማድረጉን	-4400
▁ለራ	-4401
ለቅ	-4402
▁ከኤ	-4403
ቸውም	-4404
ቃቂ	-4405
▁አርባ	-4406
ነገረ	-4407
ጠበቁ	-4408
ስቲክስ	-4409
▁ሏላዊ	-4410
ዊው	-4411
▁በመያዝ	-4412
▁የሚከተ	-4413
▁ስለነበር	-4414
▁የሚጠበቅ	-4415
▁በሰው	-4416
▁የሚያስችሉ	-4417
▁የአካባቢው	-4418
ተገ	-4419
ረዳው	-4420
▁ወሰ	-4421
▁ኤክስ	-4422
▁አለመግባ	-4423
▁ወታደሮች	-4424
▁ደጋፊዎች	-4425
▁ጠቀ	-4426
▁ፓርላማ	-4427
▁አስተባባሪ	-4428
▁አና	-4429
ነቅ	-4430
መንግስት	-4431
▁የመሰረተ	-4432
▁የመገናኛ	-4433
ሳች	-4434
ገሉ	-4435
▁ወልደ	-4436
▁የሩ	-4437
▁ምሽት	-4438
▁አውቶ	-4439
ረበ	-4440
ጫወቱ	-4441
▁በአንዳንድ	-4442
▁መስፈር	-4443
ጠለ	-4444
ጦታ	-4445
▁መና	-4446
▁ለማካሄድ	-4447
ይሮ	-4448
▁ተነሳ	-4449
ገነባው	-4450
ፍቶ	-4451
ላንት	-4452
▁ከአገር	-4453
ገጥ	-4454
ችሉም	-4455
▁እውቀት	-4456
▁ወላይታ	-4457
▁ለማጠናከር	-4458
21	-4459
ቻለሁ	-4460
▁የሚያደር	-4461
▁እየሰሩ	-4462
▁የኮሚ	-4463
▁ውጤቶች	-4464
ገለግሉ	-4465
▁አምራች	-4466
▁እግርኳስ	-4467
ስተናግ	-4468
▁አሰጣጥ	-4469
ፕራይ	-4470
▁ደካማ	-4471
▁ግድቡ	-4472
▁አዳነ	-4473
▁ይበ	-4474
▁ወደብ	-4475
-19	-4476
▁ሙያ	-4477
▁ታማኝ	-4478
▁በመግባት	-4479
▁ጣቢያዎች	-4480
▁ባልተ	-4481
▁ለመንግስት	-4482
▁በቀን	-4483
ወሰድ	-4484
▁አውሮፕላን	-4485
ቲን	-4486
▁በግል	-4487
▁በግብፅ	-4488
▁ማቀ	-4489
▁ከጊዜ	-4490
▁የሚሰጡ	-4491
ጓዴ	-4492
ናትን	-4493
2008	-4494
▁በፈ	-4495
ሸት	-4496
▁ነን	-4497
ሰብሰብ	-4498
▁አብረው	-4499
ያስፖ	-4500
ሰልጣኝ	-4501
ሻንጉል	-4502
▁የኢትዮ	-4503
ቡእ	-4504
▁ታህሳስ	-4505
ብነት	-4506
▁ተሰጥቶ	-4507
▁ክፍተ	-4508
▁ማኔ	-4509
22	-4510
ፈቀድ	-4511
▁የህገ	-4512
▁ኮሪያ	-4513
▁ፔ	-4514
▁የሽብር	-4515
ረፈ	-4516
▁አቀባይ	-4517
▁በአዲሱ	-4518
ራችን	-4519
▁የሚችለው	-4520
▁የተፈጠረ	-4521
▁ስደተኞች	-4522
▁ሆና	-4523
▁ሲሆን፥	-4524
▁ተሽከርካሪ	-4525
▁ህወሀት	-4526
ተኩ	-4527
▁መሰረት፣	-4528
▁ለታ	-4529
▁ወደሚ	-4530
▁ሀይማኖ	-4531
▁የቴክኒክ	-4532
▁መሬ	-4533
▁ማቴ	-4534
▁ማይ	-4535
▁ተሻ	-4536
▁በመቀጠል	-4537
▁አስራ	-4538
ሳራ	-4539
ረንጓዴ	-4540
▁አስደናቂ	-4541
ሀይ	-4542
ሺህ	-4543
ባይል	-4544
ሬዚዳንት	-4545
▁ተደ	-4546
ጆቹ	-4547
ፍያ	-4548
ዘነጋ	-4549
▁ቴሌቪዥን	-4550
ጥቅ	-4551
ንስት	-4552
▁መቐለ	-4553
▁ይኸውም	-4554
▁በራሳቸው	-4555
▁ሰሜን	-4556
▁ያቀረቡት	-4557
▁በመተባበር	-4558
▁በፊ	-4559
ኒስትሮች	-4560
ችት	-4561
▁የተወሰኑ	-4562
▁መገደ	-4563
▁በሀገር	-4564
ዘግ	-4565
▁ሚኒስቴሩ	-4566
▁የጀመረው	-4567
ፈለገ	-4568
▁ለማምጣት	-4569
▁መላኩ	-4570
▁መጠበቅ	-4571
▁ማድረጉ	-4572
▁የሚገቡ	-4573
▁የበላይነት	-4574
ክርስቲ	-4575
▁በግንባ	-4576
▁እንደነበረ	-4577
▁ማእቀ	-4578
▁ሆኑ	-4579
▁በጊዜ	-4580
▁ሀጢ	-4581
▁በትምህርት	-4582
▁በዩ	-4583
▁የጋ	-4584
▁ጠቀሜ	-4585
▁ያስረዳሉ	-4586
▁ፕሬዚዳንቱ	-4587
ዋሎ	-4588
ከፈል	-4589
▁ጥረ	-4590
ወሰኑ	-4591
▁ኋላ	-4592
ምምነት	-4593
▁ተሞክሮ	-4594
▁ሚስተር	-4595
▁ምእራብ	-4596
ሪታ	-4597
▁በማሰብ	-4598
ይዝ	-4599
ስተናገ	-4600
▁በስልክ	-4601
▁አስቆጥ	-4602
▁ተጠቅሷል	-4603
▁ሰልፍ	-4604
▁ዲግ	-4605
▁አምና	-4606
▁ያልሆኑ	-4607
ማው	-4608
ቆሙ	-4609
ከው	-4610
▁ክብ	-4611
▁ህጎች	-4612
▁በቫይረሱ	-4613
▁ውስጥም	-4614
▁ጥፋ	-4615
ታወቀው	-4616
▁ለማየት	-4617
ፋስ	-4618
▁ትግራይ	-4619
▁ሀያ	-4620
▁ጊዜያዊ	-4621
ሁት	-4622
▁ትግ	-4623
▁አንድም	-4624
▁በመፍጠር	-4625
ነሳት	-4626
ሪሚ	-4627
▁እናም	-4628
▁ካለፈው	-4629
▁በብሄራዊ	-4630
▁እንዲሰጡ	-4631
▁በሆነው	-4632
▁በከተማዋ	-4633
▁ሳለ	-4634
በሳ	-4635
ጠባ	-4636
ሪነት	-4637
▁አታ	-4638
ንቀሳቃሽ	-4639
ንግተን	-4640
▁ኩንታል	-4641
ገዱ	-4642
ስቲንግ	-4643
▁ልት	-4644
ንድሮው	-4645
▁ተፈጥሮ	-4646
▁ለመቅረፍ	-4647
▁አብርሀም	-4648
ሆና	-4649
▁ክርስቶስ	-4650
ማዊ	-4651
▁መውሰድ	-4652
ንጋ	-4653
ጠናቀቀው	-4654
▁እውን	-4655
▁በመግ	-4656
ዲና	-4657
ገጠ	-4658
▁ቸ	-4659
ወሰዱ	-4660
ጠንቀቂያ	-4661
ላስ	-4662
▁እል	-4663
▁በመላው	-4664
ስፋፋ	-4665
▁መዳረ	-4666
▁ስኳር	-4667
ባኤው	-4668
▁ቢኖር	-4669
▁የመፅሀፍ	-4670
የትኛውም	-4671
▁ለሁሉም	-4672
▁ጠበ	-4673
ገኘት	-4674
▁ቃለ	-4675
▁ማው	-4676
▁ተቋሙ	-4677
▁የተሰማሩ	-4678
.9	-4679
▁የበኩ	-4680
ውሉ	-4681
አን	-4682
ኳን	-4683
▁የረ	-4684
▁ህዳር	-4685
▁ለመጠቀም	-4686
ድድሩ	-4687
▁ፍጥነት	-4688
ቆጣጠ	-4689
▁ይመ	-4690
▁ተከላካይ	-4691
▁መግባባት	-4692
▁ደርሶ	-4693
ብረቱ	-4694
▁የሚያስች	-4695
▁ከጎ	-4696
▁መድረሱን	-4697
▁ነጋዴዎች	-4698
ህም	-4699
▁ተካሂ	-4700
መኑ	-4701
▁ተሾ	-4702
▁ጓደ	-4703
ፎካካ	-4704
▁ቤቶችን	-4705
ናዳ	-4706
ደርጉት	-4707
▁ለማን	-4708
▁ስብስብ	-4709
ር፣	-4710
▁መስፈ	-4711
▁ፀጥታ	-4712
▁ምስጋና	-4713
▁የውሳኔ	-4714
▁ይገኙ	-4715
▁ማረፊያ	-4716
ፈተ	-4717
ንታዊ	-4718
▁ግብአ	-4719
▁ለአገር	-4720
▁ቱሪዝም	-4721
▁አሊ	-4722
▁ባለበት	-4723
▁ተወያይ	-4724
▁ራሱ	-4725
▁የሳይ	-4726
ልተኛ	-4727
▁ሚዛ	-4728
ዳሪዎች	-4729
▁የስልጣን	-4730
▁የኪ	-4731
▁አስገንዝ	-4732
ኮት	-4733
ወሩ	-4734
ከበረ	-4735
ወርቅ	-4736
▁ኢንጂነር	-4737
▁ለመግባት	-4738
ኑኤል	-4739
ጨረታ	-4740
▁የቡድኑ	-4741
ምረቻ	-4742
▁አደራ	-4743
▁ግንባታው	-4744
ኖረ	-4745
▁ፎቶ	-4746
▁የአል	-4747
▁የማእድን	-4748
▁ከስራ	-4749
ራፊክ	-4750
▁ዲዛ	-4751
ምንጭ	-4752
ጠበቀው	-4753
▁ከነማ	-4754
▁ጠቁሟል	-4755
ፍል	-4756
ደረሱ	-4757
▁ምልክ	-4758
▁ፈቃደኛ	-4759
▁እንዲሰሩ	-4760
ነጋግ	-4761
▁ለአለም	-4762
▁ሽብር	-4763
▁በዝርዝር	-4764
አል	-4765
▁በቢ	-4766
▁አረቢያ	-4767
▁የሚመጣ	-4768
▁ቅርንጫፍ	-4769
▁ምድ	-4770
▁በተቀ	-4771
ከለኛው	-4772
▁አባት	-4773
▁በረከት	-4774
▁ማንኛውንም	-4775
ድየም	-4776
ፈጥር	-4777
▁ለሶ	-4778
▁ጠበቃ	-4779
▁የተገኙ	-4780
▁መፃህ	-4781
▁እኔም	-4782
▁ቴዎ	-4783
▁የሰጠው	-4784
ሞኑ	-4785
ቱንና	-4786
▁ክህ	-4787
▁በአዋ	-4788
▁አደረገ	-4789
ያያ	-4790
ኩረት	-4791
▁ልን	-4792
▁ምጣኔ	-4793
ብስ	-4794
▁መንግስትና	-4795
▁ያም	-4796
▁ዜጎችን	-4797
▁መዝገብ	-4798
▁አምራቾች	-4799
▁ድንቅ	-4800
▁ሰአታት	-4801
▁ከሚገኙ	-4802
▁የለውጥ	-4803
▁ካሬ	-4804
▁ሀይሌ	-4805
▁ወዲያው	-4806
▁መኖራቸውን	-4807
▁ብሮድካስቲንግ	-4808
ኛዎቹ	-4809
▁በመታ	-4810
▁መኖሩን	-4811
▁በእጅጉ	-4812
▁ካላቸው	-4813
ክፈል	-4814
ቃቸውን	-4815
▁ሚያዝያ	-4816
▁ደግሞም	-4817
ፋቸውን	-4818
▁ፍፃሜ	-4819
▁ቀርበው	-4820
ቀን	-4821
ቀበል	-4822
ለሁ፤	-4823
▁ራእ	-4824
ጣቸውን	-4825
▁መዋቅር	-4826
▁ስላለ	-4827
ቲክስ	-4828
▁ውድድሮች	-4829
ጓዙ	-4830
▁ይሆናሉ	-4831
▁ዮና	-4832
ከላካይ	-4833
▁ዝውውር	-4834
▁ገበያው	-4835
▁እንደነበሩ	-4836
▁በፖለቲካ	-4837
23	-4838
ራኒ	-4839
የበት	-4840
▁የሚያደርገው	-4841
ሰሙ	-4842
ታለች	-4843
▁ነፍ	-4844
▁በተለያየ	-4845
▁ግማሽ	-4846
ሀድ	-4847
▁የሚውል	-4848
▁የዩናይትድ	-4849
▁ከጉ	-4850
ነቶችን	-4851
▁ዊ	-4852
▁የህይወት	-4853
ዴፓ	-4854
▁ሙሴ	-4855
!!	-4856
ክረው	-4857
የሩሳሌም	-4858
ራዘም	-4859
▁ስለማይ	-4860
▁በጋ	-4861
ቻችንን	-4862
▁ተጠናክሮ	-4863
▁ንኡስ	-4864
▁ወይስ	-4865
▁፲፱፻	-4866
▁በመካ	-4867
▁በዲ	-4868
▁ተገናኝ	-4869
▁ማድረጋቸውን	-4870
▁መምህ	-4871
▁የሚጠቀ	-4872
ስለ	-4873
ጃቸው	-4874
:00	-4875
ቨርስቲ	-4876
ክልሎች	-4877
▁አጋር	-4878
▁የመጡ	-4879
▁ሆነዋል	-4880
▁ምርቶችን	-4881
▁ሲሆኑ፣	-4882
▁ተዘጋጅ	-4883
ቆስ	-4884
ግን	-4885
ቱንም	-4886
▁እጣ	-4887
▁መለያ	-4888
▁ሀገሪቱ	-4889
▁ሚንስት	-4890
▁ተገቢውን	-4891
▁ቢራ	-4892
▁ተን	-4893
▁መመለስ	-4894
▁እንዲታ	-4895
▁በበኩሉ	-4896
▁ከቅ	-4897
ቶቻቸው	-4898
ከታታይ	-4899
▁በሱዳን	-4900
▁ያወጣ	-4901
▁የበረ	-4902
▁የሴቶች	-4903
ኙን	-4904
ወቀ	-4905
▁እንድታ	-4906
▁የድርጅቱ	-4907
ሉና	-4908
እን	-4909
ፋል	-4910
ጠረጠሩ	-4911
▁ረጅም	-4912
▁ፈፅሞ	-4913
▁የእን	-4914
ካተቱ	-4915
▁ሳህ	-4916
▁ችሎታ	-4917
▁አዳራሽ	-4918
▁ይዞታ	-4919
▁አብዱል	-4920
▁ያደርጋ	-4921
ናጀ	-4922
▁ይሰ	-4923
▁የወጣው	-4924
ግባኝ	-4925
▁መጫወት	-4926
▁ሾ	-4927
▁የፀረ	-4928
▁ዳኞች	-4929
ቡት	-4930
▁ረዳት	-4931
▁በምስራቅ	-4932
▁እንደሚሉት	-4933
▁የደን	-4934
▁መምህር	-4935
▁ሚካኤል	-4936
▁በማንኛውም	-4937
ታወቂያ	-4938
▁በደንብ	-4939
▁ከቅርብ	-4940
▁እያደረጉ	-4941
ከፋፈል	-4942
▁የፍርድ	-4943
▁በማሀ	-4944
ወቁ	-4945
▁ኢሳ	-4946
▁አቀባ	-4947
ኮችን	-4948
▁መሞ	-4949
▁ፕሮጀክቱ	-4950
ግለፅ	-4951
▁አዘ	-4952
▁የእኛ	-4953
▁ተፈፃሚ	-4954
▁ትክክል	-4955
ርን	-4956
ድግ	-4957
▁የተጋ	-4958
▁ይጠበቅ	-4959
▁አውሮፕላ	-4960
ዋሪ	-4961
▁://..	-4962
▁ገልፆ	-4963
ጋዜጠኞች	-4964
▁እንዲደርስ	-4965
▁የመጀመርያው	-4966
ለታል	-4967
ምፅ	-4968
ያም	-4969
▁ገደማ	-4970
▁ሀይለማ	-4971
መናዊ	-4972
▁ባህላዊ	-4973
▁አደባባይ	-4974
▁የዴሞክራሲ	-4975
ታቸውም	-4976
▁አለኝ	-4977
▁በምርጫ	-4978
▁ጥላሁን	-4979
ረዱት	-4980
ትሪክ	-4981
▁ዴኤታ	-4982
▁ህዝቡን	-4983
▁ኳሶች	-4984
ተው፣	-4985
▁መግለጫው	-4986
ስፈ	-4987
ቡና	-4988
▁ባላቸው	-4989
ጂቡቲ	-4990
▁በቤተ	-4991
▁አስተዳዳሪ	-4992
ኑም	-4993
መጣል	-4994
▁እሳቸው	-4995
▁ተከሳሾች	-4996
▁እንዲኖር	-4997
ዛው	-4998
ቀመጠው	-4999
▁ያመላክ	-5000
▁ሚኒስትሯ	-5001
ጠብቅ	-5002
ሌክትሮ	-5003
▁በአይ	-5004
ግዳሮ	-5005
ዩን	-5006
▁ያቀር	-5007
▁የፍትህ	-5008
▁እንዲገቡ	-5009
▁ያቀረበ	-5010
▁ለምንድን	-5011
ምብ	-5012
ላከው	-5013
ዘነጋም	-5014
▁ካልሆነ	-5015
▁ሼ	-5016
▁በመጪው	-5017
▁ፓርኮች	-5018
ሪል	-5019
ርቃ	-5020
ዩብ	-5021
ድቡ	-5022
▁በሆ	-5023
▁ትል	-5024
▁ያብራ	-5025
▁አስቸኳይ	-5026
▁አሳሳቢ	-5027
▁አስቀም	-5028
ኝት	-5029
ጀርመን	-5030
▁አለማየሁ	-5031
▁ያለባቸው	-5032
▁የየ	-5033
▁ደብረ	-5034
▁ሽግግር	-5035
ክትል	-5036
▁አረጋግጠዋል	-5037
ቦን	-5038
▁ሲታይ	-5039
▁ከአምስት	-5040
ውሮፕ	-5041
▁ይተ	-5042
▁አረጋ	-5043
ፋው	-5044
ንድሮ	-5045
▁ሰባ	-5046
▁ካሉት	-5047
ናልድ	-5048
▁መጀመሩን	-5049
▁የሶስት	-5050
ራክ	-5051
ፒታ	-5052
▁ይባ	-5053
▁ዩናይትድ	-5054
▁ጥገና	-5055
▁ማሀበሩ	-5056
ፐብሊክ	-5057
▁ያገኛ	-5058
▁ተወካይ	-5059
ብናል	-5060
▁አይዘነጋም	-5061
መስል	-5062
ስልጣኑ	-5063
▁ለስራ	-5064
▁ለመተ	-5065
ዮና	-5066
▁ለኮ	-5067
ቀጥሉ	-5068
▁ስላሴ	-5069
▁አባይ	-5070
▁ይህንኑ	-5071
ርተው	-5072
▁እንዲወጡ	-5073
በቱ	-5074
ወድ	-5075
▁የዝ	-5076
ጉር	-5077
ላጭ	-5078
ችኋል	-5079
▁32	-5080
▁የተያዙ	-5081
▁ያተኮ	-5082
▁ለማሻሻል	-5083
▁አደረጃጀት	-5084
ስል	-5085
▁ጤ	-5086
ምቦ	-5087
ክሉ	-5088
ደረሰባቸው	-5089
▁ከሆነ፣	-5090
▁መስመ	-5091
▁የትርፍ	-5092
▁33	-5093
▁ፈጥ	-5094
▁ባለማ	-5095
▁በማስገባት	-5096
ኖክ	-5097
ኝም	-5098
ሰውን	-5099
▁የኑ	-5100
ርጦ	-5101
ሻል	-5102
ነርጂ	-5103
▁የዘር	-5104
▁ደስተኛ	-5105
▁በመግለጫው	-5106
▁ቅን	-5107
ሊምፒክ	-5108
▁ተራራ	-5109
▁ተግዳሮ	-5110
▁ያቀረበው	-5111
ላለፈ	-5112
ዋልታ	-5113
▁ህመም	-5114
▁ምርጫው	-5115
▁ግጭቶች	-5116
▁አንደኛው	-5117
▁ባለአ	-5118
▁የፅሁፍ	-5119
▁ጠቁመው፣	-5120
ቴክ	-5121
ንዛ	-5122
▁ለማድረስ	-5123
ቅዶ	-5124
እቆ	-5125
▁እያደገ	-5126
▁ኮሚሽነ	-5127
ኘት	-5128
ንደር	-5129
ቀድ	-5130
▁ውህ	-5131
▁መድን	-5132
▁መፈፀ	-5133
▁አበባ፡	-5134
▁ለመጠበቅ	-5135
▁ገለፀ	-5136
▁ፓርቲው	-5137
ጠይቁ	-5138
ዳጅነት	-5139
▁በመጨረሻም	-5140
ፈሩ	-5141
▁እገዛ	-5142
▁ቤታቸው	-5143
ያያዙ	-5144
▁በሆኑ	-5145
▁ተስማም	-5146
▁መሄድ	-5147
▁እንደሚያሳ	-5148
ካቤ	-5149
ላቀሉ	-5150
▁በጦር	-5151
▁መሆኑም	-5152
▁እንደዚህ	-5153
▁የመልካም	-5154
ይወ	-5155
▁እሷ	-5156
▁ከድር	-5157
▁ከሁሉም	-5158
ካተተ	-5159
ኔል	-5160
ስተኛው	-5161
▁የመከላከል	-5162
▁ያሳለ	-5163
▁አለብን	-5164
መልከ	-5165
ቃወም	-5166
▁ዝርያ	-5167
▁ስኬታማ	-5168
-2	-5169
▁ፍር	-5170
መጣጣኝ	-5171
▁ሂደቱ	-5172
▁በማእ	-5173
▁ገፅታ	-5174
▁የከፍተኛ	-5175
ወረ	-5176
▁የእው	-5177
▁የራሱን	-5178
▁መያዝ	-5179
▁ታላቁ	-5180
▁መንፈሳዊ	-5181
198	-5182
ንበት	-5183
▁45	-5184
▁ያንን	-5185
▁ፈረን	-5186
▁ቤተሰቦች	-5187
▁ባህሪ	-5188
▁የሜዳ	-5189
ኤን	-5190
▁በመድረ	-5191
▁ስርአቱን	-5192
ያለሁ	-5193
▁ጎንደር	-5194
ቀርበው	-5195
▁እንዲሰ	-5196
ደባ	-5197
አብመድ	-5198
▁ስለማ	-5199
▁ሲደረግ	-5200
▁አስደሳች	-5201
በበ	-5202
▁ስልክ	-5203
ጨመር	-5204
▁በቀል	-5205
▁ገንዘ	-5206
▁ክስተት	-5207
▁ልውው	-5208
▁የሚወስ	-5209
▁የባቡር	-5210
▁በውይይቱ	-5211
▁ደንበ	-5212
▁መዳረሻ	-5213
▁ዳርቻ	-5214
ጥል	-5215
▁መውጣት	-5216
▁የተገኙት	-5217
እኔ	-5218
▁ዜጋ	-5219
▁ገብተው	-5220
▁አጠቃቀም	-5221
▁የፓርቲው	-5222
ማሩ	-5223
ከማ	-5224
▁እያሉ	-5225
▁ያነሳ	-5226
▁ቀስ	-5227
▁ውዝ	-5228
▁እየቀ	-5229
▁መስፍን	-5230
▁በመውሰድ	-5231
▁አስታወቁ	-5232
ሰራው	-5233
ነውን	-5234
▁በምድር	-5235
▁ለአብነት	-5236
አለም	-5237
▁ተቋማትን	-5238
-3	-5239
ዳንቱ	-5240
▁ማጥቃት	-5241
▁በሁለቱም	-5242
ጣሉ	-5243
▁ቻምፒ	-5244
▁ለጉ	-5245
▁አጭር	-5246
▁አያያዝ	-5247
ባችን	-5248
▁ጓደኛ	-5249
▁ጥልቅ	-5250
ዲያዎች	-5251
▁ማሳደግ	-5252
▁የፖሊስ	-5253
▁ክን	-5254
▁ይኼንን	-5255
ላቀል	-5256
▁ተአ	-5257
▁ኮሎ	-5258
▁ብራ	-5259
▁በሀዋሳ	-5260
▁የታክስ	-5261
▁የሚናገሩት	-5262
▁ወለድ	-5263
▁ገብቶ	-5264
▁የሚያው	-5265
▁መንስ	-5266
▁በውስ	-5267
▁እሱን	-5268
ለኛ	-5269
ሰተኛ	-5270
▁ኢዮ	-5271
ማመን	-5272
▁መፅሀ	-5273
▁ሲሚንቶ	-5274
▁ሙከራዎች	-5275
▁አጣ	-5276
▁በገንዘብ	-5277
▁የኢንሹራንስ	-5278
ዛል	-5279
▁80	-5280
▁ምንድን	-5281
▁አበራ	-5282
▁ከአፍሪካ	-5283
ረምት	-5284
▁ሸዋ	-5285
▁ፈንድ	-5286
▁መቀነስ	-5287
▁በመር	-5288
▁የቀረቡ	-5289
▁ከመሆኑም	-5290
ገጣ	-5291
ሪያው	-5292
ሳችን	-5293
▁መቃ	-5294
▁ሶስቱ	-5295
▁የእንግሊዝ	-5296
▁ከራ	-5297
ታኝ	-5298
ራትና	-5299
▁ከዘ	-5300
▁የከ	-5301
▁ያነጋ	-5302
▁ያደረ	-5303
▁በራስ	-5304
▁ሰም	-5305
ዞኑ	-5306
ማማኝ	-5307
▁አመላክ	-5308
ለይ	-5309
▁ማመንጫ	-5310
ክፈ	-5311
▁ተፋ	-5312
ፖለቲካ	-5313
▁ህግን	-5314
▁ያስመዘ	-5315
▁ስታድየም	-5316
45	-5317
▁ቅናሽ	-5318
▁ንፁህ	-5319
▁ሀብታሙ	-5320
▁ምክክር	-5321
90	-5322
ፈልጋቸው	-5323
▁በህገወጥ	-5324
▁ተደጋጋሚ	-5325
▁አውሮፓ	-5326
ራለች	-5327
▁ኦዲ	-5328
▁ከፊ	-5329
ላፊነት	-5330
▁የአይ	-5331
▁በተግባር	-5332
▁ጋዜጠኞች	-5333
ኦን	-5334
ችሁም	-5335
▁ኤም	-5336
▁የግን	-5337
▁የውስጥ	-5338
▁ተጠቃሚነት	-5339
ፃፈ	-5340
▁ሜጋ	-5341
ባቸውም	-5342
▁ደመቀ	-5343
▁ይጠቅ	-5344
▁ሀገራዊ	-5345
ክተው	-5346
▁ልብስ	-5347
▁ሁልጊዜ	-5348
▁አብዛኛው	-5349
ፍረስ	-5350
▁መቆጣጠር	-5351
ቪዬ	-5352
▁በምእራብ	-5353
▁ማእከ	-5354
▁ቆይተዋል	-5355
▁ታሳቢ	-5356
▁ኮከብ	-5357
▁ቢሊየን	-5358
ሰማሩ	-5359
ካተት	-5360
▁ምህረት	-5361
▁ክልሉ	-5362
ለናል	-5363
ገናኘት	-5364
▁ለመታ	-5365
▁ወሰን	-5366
▁አያይ	-5367
▁የቻለው	-5368
▁የሚደርስ	-5369
▁መንስኤ	-5370
▁ለማሳካት	-5371
ደራጀት	-5372
▁ተከሳሾቹ	-5373
ቀደ	-5374
ዳም	-5375
ኖሩት	-5376
▁ኮሌ	-5377
▁መስኮች	-5378
ፊው	-5379
ክበር	-5380
ላችንም	-5381
▁ያገለ	-5382
▁ተገኝተው	-5383
▁ጥሰት	-5384
▁የእርሻ	-5385
▁ተጎ	-5386
ገባም	-5387
▁ንጉሱ	-5388
▁ዞኖች	-5389
▁ሪፖርቱ	-5390
▁ዘይ	-5391
ለማችን	-5392
▁ከሆኑ	-5393
▁ክርስቲያኖች	-5394
▁በኢኮኖሚ	-5395
▁ኮሙዩኒኬሽን	-5396
ብህ	-5397
▁ግብአት	-5398
▁ትራንስፎርሜሽን	-5399
▁መላ	-5400
ፎካካሪ	-5401
▁በቻይና	-5402
▁የንግድና	-5403
ሊቲ	-5404
ጅመንት	-5405
▁መካከለኛ	-5406
ጃፓን	-5407
▁ስራቸውን	-5408
ብቶ	-5409
▁ድንጋይ	-5410
ረቤት	-5411
▁ቴሌኮም	-5412
▁ቴዎድሮስ	-5413
ዜአ	-5414
ገሰ	-5415
ይብ	-5416
▁ስሙ	-5417
▁በልዩ	-5418
▁ደረሰ	-5419
▁ሲያደርግ	-5420
ራጅ	-5421
▁ሲቀ	-5422
ፈልገውን	-5423
▁ሲያደርጉ	-5424
▁ተመስገን	-5425
▁ጀር	-5426
▁ግቢ	-5427
▁አሉት	-5428
▁የሙስና	-5429
ናጋ	-5430
ሪሚየር	-5431
▁ማደ	-5432
▁ጴ	-5433
▁በረራ	-5434
▁ይህንንም	-5435
ድል	-5436
▁በመደ	-5437
▁ትክክለኛውን	-5438
ሮች፣	-5439
▁እባክ	-5440
▁ለኢ	-5441
▁መናገ	-5442
ስክ	-5443
ራቢያ	-5444
▁ፈጣሪ	-5445
ላጅ	-5446
ቆጠረ	-5447
ነራል	-5448
▁የአር	-5449
▁ይቅርታ	-5450
ጮችን	-5451
▁ኢንተርፕራይ	-5452
▁ዳር፡	-5453
▁በበኩላቸው፣	-5454
▁የሱ	-5455
▁አያስ	-5456
▁ልምምድ	-5457
▁ስጦታ	-5458
▁የላቀ	-5459
▁አይችልም	-5460
ለስ	-5461
ጂታል	-5462
ስያ	-5463
ግራቸው	-5464
▁አደር	-5465
▁መድሀኒት	-5466
ቆየ	-5467
ፋጣኝ	-5468
▁ሀይማኖት	-5469
▁ያሻ	-5470
▁ከማስ	-5471
▁ተረጋግ	-5472
▁እድሎች	-5473
▁በዝግ	-5474
▁ታዳጊ	-5475
▁የከፋ	-5476
▁መረጋጋት	-5477
▁ግሩ	-5478
▁የሚያደርጉት	-5479
▁አስገንዝበዋል	-5480
ፈሰ	-5481
▁ማሸነፍ	-5482
ዛቢ	-5483
▁መንግስትን	-5484
▁የቅርብ	-5485
▁የሚመራው	-5486
▁የማጥቃት	-5487
▁ምክረ	-5488
▁ጠየ	-5489
▁የቴክኖሎጂ	-5490
ናገረ	-5491
ሮጀክቱ	-5492
▁ለረጅም	-5493
▁ምሁራን	-5494
▁በሰላማዊ	-5495
▁ይናገራል	-5496
▁ብቸኛ	-5497
▁አሉታዊ	-5498
በጣ	-5499
እቆብ	-5500
▁ረቡእ	-5501
▁የሚዲያ	-5502
▁የፈጠ	-5503
▁እየታየ	-5504
▁ኦሮሚያ	-5505
ካር	-5506
ያያዥ	-5507
ማውያን	-5508
▁ይነገ	-5509
▁ማእቀፍ	-5510
▁የመጣው	-5511
▁አባላትን	-5512
ቀኑ	-5513
ለን፤	-5514
ዊተር	-5515
▁አየ	-5516
▁ከፀ	-5517
▁መገንባት	-5518
ወራ	-5519
ሮችና	-5520
▁ጠቀሜታ	-5521
▁አጋጣሚዎች	-5522
ድያ	-5523
ፃፈው	-5524
▁ለይ	-5525
▁ገዢ	-5526
ልት	-5527
ቂጤ	-5528
ለቲከ	-5529
ባሉት	-5530
▁በጭ	-5531
2007	-5532
መራው	-5533
▁ሚሊ	-5534
ምራ	-5535
▁ያለም	-5536
▁መሪነት	-5537
ብሰባ	-5538
▁እንዲያደርግ	-5539
▁37	-5540
▁ከር	-5541
▁በክሱ	-5542
▁የጀመረ	-5543
▁የነበሩትን	-5544
ክልና	-5545
ሰቀ	-5546
ፈራረ	-5547
▁ስኬት	-5548
▁ስለሆነም	-5549
▁ህይወታቸው	-5550
▁ጥያቄዎችን	-5551
▁እናት	-5552
▁ለሶስት	-5553
▁ተነስቶ	-5554
▁ይገኙበታል	-5555
ኦት	-5556
▁የአቶ	-5557
▁የተገለፀ	-5558
▁የአስተዳደር	-5559
▁ፈረ	-5560
ጀመሩት	-5561
▁ላይ፣	-5562
ፎርም	-5563
▁34	-5564
▁የሚገልፁ	-5565
▁ማስታወቂያ	-5566
▁እንዲቀጥል	-5567
▁ኮንትራ	-5568
▁ዝናብ	-5569
▁የተቋ	-5570
▁በእስር	-5571
▁ሆቴሎች	-5572
.1	-5573
ቅምት	-5574
▁መቻሉን	-5575
▁ከመሆኑ	-5576
▁ከሰሞኑ	-5577
▁ባለመሆኑ	-5578
▁የመኖሪያ	-5579
ቀመጡ	-5580
▁ሆን	-5581
ሰረተው	-5582
▁የያዙ	-5583
▁እንደሆነና	-5584
ፋዊ	-5585
ሉበት	-5586
▁ቶሎ	-5587
▁ይዘት	-5588
▁የወርቅ	-5589
▁የውይይት	-5590
▁ገዛ	-5591
▁ለማከናወን	-5592
▁የምስራቅ	-5593
▁የዋስትና	-5594
▁እየሆነ	-5595
▁ባካሄደው	-5596
በለ	-5597
ለወጥ	-5598
መረጡ	-5599
ሳእና	-5600
ታችሁ	-5601
▁አጨዋ	-5602
▁ኢንዱስት	-5603
▁እድሎችን	-5604
▁ዋት	-5605
▁የፓ	-5606
▁ሌላኛው	-5607
▁ያገኘው	-5608
▁መስፈርት	-5609
▁መት	-5610
▁የገቡ	-5611
መለከቱት	-5612
▁እርግጠኛ	-5613
▁የሌላቸው	-5614
▁በአስቸኳይ	-5615
ተኞቹ	-5616
ተውን	-5617
▁እይታ	-5618
▁ጎዳና	-5619
▁ተሰም	-5620
▁አረብ	-5621
▁የታላቁ	-5622
ፀው	-5623
▁ክሱ	-5624
ፃፍ	-5625
▁የሮ	-5626
▁መስራች	-5627
ሪቱ	-5628
ገለግል	-5629
▁ገፃችን	-5630
▁የተጀመረ	-5631
▁የጠቀሱት	-5632
▁ከመቶ	-5633
▁እንግሊዝ	-5634
ንዶች	-5635
▁የተዋ	-5636
▁ሀብረተሰቡ	-5637
▁የአመራ	-5638
▁የሚገባው	-5639
ሄደ	-5640
▁ሙስ	-5641
▁በማሸነፍ	-5642
ቅን	-5643
ስቲክ	-5644
▁የችግ	-5645
▁ጉልህ	-5646
▁የገለፀው	-5647
▁ኢንስቲትዩት	-5648
▁ላለው	-5649
▁ብርቱ	-5650
▁የአት	-5651
ጨው	-5652
ገትና	-5653
▁የሚደረጉ	-5654
▁አብዲ	-5655
▁ያሬድ	-5656
▁እንደተናገሩት፣	-5657
ቦና	-5658
ምበር	-5659
ቡድኑ	-5660
▁ስለም	-5661
ምሌ	-5662
ፅና	-5663
▁መገለ	-5664
▁እኛም	-5665
▁የቆዩ	-5666
▁የእኔ	-5667
▁ጥቁር	-5668
▁በበጀት	-5669
▁ዶናልድ	-5670
ዎታል	-5671
▁በእርስ	-5672
▁የሚታይ	-5673
▁እስር	-5674
▁ነበር፣	-5675
መኛ	-5676
ንካሬ	-5677
ጦችን	-5678
▁ያደ	-5679
▁ተሾመ	-5680
▁እነሆ	-5681
▁ኢትዮጵያዊያን	-5682
ቴል	-5683
ካዊ	-5684
አሁን	-5685
ነሪንግ	-5686
▁እንደሌለው	-5687
የመ	-5688
▁በፍርድ	-5689
▁መቀጠል	-5690
▁መዘጋጀ	-5691
▁አትሌት	-5692
ፃናት	-5693
▁ተበ	-5694
▁በሀይ	-5695
ጋው	-5696
▁ያቀረቡ	-5697
▁ባለሙያው	-5698
▁ተሳታፊዎች	-5699
ፆታ	-5700
▁ሀኪ	-5701
▁ከአስር	-5702
▁ማህበራት	-5703
ልጠና	-5704
▁የአባ	-5705
▁ጥምረት	-5706
▁የተዘጋጀ	-5707
ቸት	-5708
▁የፖሊሲ	-5709
▁አትሌቶች	-5710
ጀምሩ	-5711
▁ወድ	-5712
ዎችንና	-5713
▁ማስፋ	-5714
▁የስር	-5715
▁ፉክክር	-5716
▁ሀገሮች	-5717
▁ክም	-5718
▁ላኪ	-5719
▁የአክሲዮን	-5720
▁ጀመረ	-5721
▁ብዙዎች	-5722
▁ይነገራል	-5723
▁31	-5724
▁በሊጉ	-5725
▁ካህ	-5726
▁ስላለው	-5727
ጠላ	-5728
▁300	-5729
▁ትችላለ	-5730
▁ሰብስክራ	-5731
ቻላቸው	-5732
▁የሰሜን	-5733
▁ማሞ	-5734
ሶን	-5735
ናን	-5736
▁ተጠቃሽ	-5737
▁መግለጫ፣	-5738
▁ሌሎችን	-5739
▁ለመፈፀም	-5740
▁ራእይ	-5741
▁ይኖረዋል	-5742
▁የመፍትሄ	-5743
▁ግሩፕ	-5744
▁ሰብስክራይብ	-5745
▁የታሪክ	-5746
▁ለጠቅላይ	-5747
▁አንዳንዶቹ	-5748
ደድ	-5749
መለሰ	-5750
▁መስኖ	-5751
ንስሳት	-5752
▁በሚለው	-5753
▁ተያያዥ	-5754
ለዋ	-5755
▁ለል	-5756
▁ውስ	-5757
▁ከጥቂት	-5758
▁መንግስትም	-5759
ግነት	-5760
ጧቸው	-5761
▁አቆጣጠር	-5762
▁በእንግሊዝ	-5763
▁ለመር	-5764
35	-5765
ለደ	-5766
ቢያው	-5767
▁ወንድም	-5768
▁የተገደ	-5769
▁ንግድና	-5770
▁እንደሚኖር	-5771
▁ብን	-5772
▁ያሰ	-5773
▁ያግ	-5774
▁ለቢ	-5775
ሽነት	-5776
▁በተከሰ	-5777
▁ቤተሰቦ	-5778
▁ወንድሞች	-5779
ትንና	-5780
27	-5781
▁ዳግ	-5782
▁የማህ	-5783
▁እርስዎ	-5784
▁ፕላ	-5785
▁ቀርቧል	-5786
ቪዬሽን	-5787
▁ኪሳራ	-5788
▁ማምረት	-5789
▁ለመጀመር	-5790
ዲሁ	-5791
ናቀሉ	-5792
▁36	-5793
▁ያመላክታል	-5794
ትሮ	-5795
ሰራር	-5796
▁በመሄድ	-5797
▁በአምላክ	-5798
ንኩ	-5799
▁ፊል	-5800
▁ስፋት	-5801
▁በአምስት	-5802
▁በሚቀጥለው	-5803
▁በተገኙበት	-5804
የውን	-5805
ወያየት	-5806
▁ሁሉን	-5807
ያስፖራ	-5808
▁የግብይት	-5809
ለጥ	-5810
ማረ	-5811
▁እዚያ	-5812
▁ይሰራል	-5813
ሙዝ	-5814
▁አካዳሚ	-5815
መላለ	-5816
▁ከአራት	-5817
ከተለ	-5818
▁መዳ	-5819
▁በአውሮፓ	-5820
▁አሳይቷል	-5821
ዜማ	-5822
ክለው	-5823
▁እንስሳት	-5824
▁ምስራ	-5825
▁በውሀ	-5826
▁እሴት	-5827
▁የገጠ	-5828
▁እንዲወጣ	-5829
ቅል	-5830
▁ዉ	-5831
▁ጀርባ	-5832
▁ለመረዳት	-5833
▁የተለያየ	-5834
▁አንዷ	-5835
▁ስፍራዎች	-5836
▁ተገኝተዋል	-5837
▁እስራኤላውያን	-5838
▁በጤና	-5839
▁በቀጣይም	-5840
ላሴ	-5841
የሙ	-5842
▁የማስተ	-5843
▁በነበሩ	-5844
▁እረፍት	-5845
ልስጤ	-5846
ስበው	-5847
▁ሰሚ	-5848
ቆት	-5849
▁ስርጭ	-5850
ዘተ	-5851
ጠቀሙበት	-5852
▁ተጠቅሞ	-5853
▁አይነቶች	-5854
▁አይደሉም	-5855
▁ወኪ	-5856
▁የተቋቋመው	-5857
▁ግል	-5858
ወግ	-5859
ደተኞች	-5860
▁ሚስት	-5861
▁ለመውሰድ	-5862
ራረብ	-5863
▁ተፈራ	-5864
ላምና	-5865
ከትል	-5866
ውያኑ	-5867
▁ለብዙ	-5868
▁ኪዳን	-5869
▁የከተማው	-5870
ሽታው	-5871
ቀረት	-5872
▁የሚመጡ	-5873
▁ስርአትን	-5874
ጓጓ	-5875
▁ስምምነቱ	-5876
▁ገብተዋል	-5877
▁የዶ	-5878
▁ጠር	-5879
▁ሰበር	-5880
▁ለማቋቋም	-5881
ፈነ	-5882
ከዚህ	-5883
▁ይጠይ	-5884
▁እንዲተ	-5885
ታውን	-5886
▁በዛ	-5887
ሽከርካሪ	-5888
▁ቤት፣	-5889
▁ተወል	-5890
▁አደገኛ	-5891
እኛ	-5892
▁ቫ	-5893
▁መረዳት	-5894
▁አልቻለም	-5895
ክቸ	-5896
▁ማብ	-5897
ሚካኤል	-5898
▁የማን	-5899
▁የራሱ	-5900
▁ጠባቂው	-5901
▁የተባለውን	-5902
▁ዮሴፍ	-5903
▁አድርጎታል	-5904
▁ይኖርበታል	-5905
ተሻ	-5906
ኒስቴሩ	-5907
ኒኬሽን	-5908
▁ተመዝግ	-5909
▁አሰልጣኞች	-5910
▁በአቶ	-5911
▁ያገኙ	-5912
▁በአራት	-5913
ዳሉ	-5914
▁ህዝብን	-5915
▁ከወዲሁ	-5916
እንደ	-5917
▁ከቤተ	-5918
▁በግብርና	-5919
ጎት	-5920
ረኞች	-5921
▁መጀመርያ	-5922
ቆማ	-5923
ቾቹ	-5924
ጋፍ	-5925
▁የቅድመ	-5926
▁ደደቢት	-5927
▁አገልግሎቶችን	-5928
ስማማ	-5929
▁ሲሰራ	-5930
▁ማንነት	-5931
▁በሚገኝ	-5932
▁በሚደረገው	-5933
28	-5934
▁ፌዴሬሽኑ	-5935
▁እንደሚጠበቅ	-5936
▁ለማጥ	-5937
▁ዘርፉን	-5938
▁እንደሚሰጥ	-5939
▁መንቀሳ	-5940
ጓቸው	-5941
▁በሴ	-5942
▁ትልልቅ	-5943
▁ለመደገፍ	-5944
▁ለፕ	-5945
ረጋግጥ	-5946
▁አስቆ	-5947
▁በኤርትራ	-5948
▁መያዙ	-5949
ርጋ	-5950
ጎዱ	-5951
▁መስዋእት	-5952
▁የተፈፀመ	-5953
ቷቸው	-5954
ገመት	-5955
▁ውስን	-5956
▁የተጫዋ	-5957
▁እንቅፋት	-5958
▁በተጨማሪ፣	-5959
▁አለሙ	-5960
▁በክልል	-5961
▁ኤልያስ	-5962
▁የተሰጠ	-5963
በኙ	-5964
ልቀት	-5965
ቅዱ	-5966
ሰቦችን	-5967
▁መፍታት	-5968
▁የከተማዋ	-5969
▁ማስጠንቀቂያ	-5970
▁የመሰ	-5971
ሽንግተን	-5972
▁መግቢያ	-5973
▁መፃህፍት	-5974
▁ከድ	-5975
▁ለውጦች	-5976
▁አጠናክሮ	-5977
▁አስከባ	-5978
▁የተሰኘ	-5979
▁ዲፕሎማሲ	-5980
▁ላል	-5981
▁ሲሞ	-5982
▁ዲግሪ	-5983
ቶቻቸውን	-5984
▁ወቅትም	-5985
▁የገባው	-5986
▁ከተማዎች	-5987
ነበሩ	-5988
▁ከሞ	-5989
ቶቻችን	-5990
▁ቀለም	-5991
▁ፀጋዬ	-5992
▁አውራ	-5993
▁ይቀጥ	-5994
500	-5995
ምንቱ	-5996
▁ከእኛ	-5997
▁ነበረች	-5998
ሸራ	-5999
▁ስንዴ	-6000
▁አማራጮች	-6001
ቆየት	-6002
▁ግሽ	-6003
ናቸውም	-6004
▁ማረሚያ	-6005
▁በአማካይ	-6006
አም	-6007
ቻልም	-6008
ለፍነው	-6009
▁ስድ	-6010
▁ጥናቶች	-6011
▁ባቀረቡት	-6012
በባ	-6013
ሊያም	-6014
ቻችሁ	-6015
▁መዋቅ	-6016
▁አንዲት	-6017
▁የተባሉት	-6018
▁በእስራኤል	-6019
ድሞው	-6020
▁ከፕ	-6021
▁ታከለ	-6022
▁ሚዲያዎች	-6023
▁የሚባለው	-6024
ነሳው	-6025
▁ገዳ	-6026
▁የተገለፀው	-6027
ለብ	-6028
▁ለአመታት	-6029
▁የፓርላማ	-6030
ሪያት	-6031
▁ተጠርጥረው	-6032
▁ያላት	-6033
▁የሁለተኛ	-6034
▁ለጎን	-6035
▁ሙዚቃ	-6036
▁የጠየ	-6037
▁በመግለፅ፣	-6038
▁በላ	-6039
▁ነገስ	-6040
▁አብዛኛዎቹ	-6041
▁ያነጋገራቸው	-6042
▁በሩ	-6043
▁ወዘተ	-6044
▁የተደ	-6045
ጠቀምበት	-6046
▁መግለፃ	-6047
▁ከግምት	-6048
▁አገልግሎቱን	-6049
▁አድርጋ	-6050
ጋቢት	-6051
▁ወላጆች	-6052
▁ብቃ	-6053
▁ጊዜም	-6054
▁ገባ	-6055
▁1-0	-6056
▁በአም	-6057
▁ለመግዛት	-6058
▁ያለምንም	-6059
▁አስተማማኝ	-6060
▁አድማ	-6061
▁በያህዌ	-6062
ምርጫ	-6063
▁የመተ	-6064
ዎቻቸውን	-6065
▁አግኝቶ	-6066
▁38	-6067
▁በጠ	-6068
▁መድረኩ	-6069
▁የተውጣ	-6070
▁ገለልተኛ	-6071
▁ፕሮጀክቶችን	-6072
መላ	-6073
▁ተከላካ	-6074
▁በቀር	-6075
▁የሲዳማ	-6076
▁ተጠይ	-6077
ውንና	-6078
▁መረብ	-6079
ከናወነው	-6080
ሯንዳ	-6081
▁90	-6082
▁ለበ	-6083
▁ሳጥን	-6084
▁የጥናት	-6085
▁አብዮ	-6086
▁2015	-6087
▁ከደቡብ	-6088
▁መሆኗን	-6089
▁መክፈል	-6090
▁ተለዋ	-6091
▁ማስተካከ	-6092
ድሀኒ	-6093
ፀባረ	-6094
▁ነባ	-6095
▁ከክ	-6096
▁መነሳ	-6097
▁ጀመር	-6098
▁መደረግ	-6099
▁መምጣቱን	-6100
▁ምስሎችን	-6101
▁አካላትን	-6102
▁ከማድረግ	-6103
▁የሚያስተ	-6104
እም	-6105
▁ጫማ	-6106
▁አምባ	-6107
▁ጥናቱ	-6108
▁ዘገባው	-6109
አዲስ	-6110
ደረሰበት	-6111
▁እንክብ	-6112
▁ተወላጆች	-6113
ሷን	-6114
ቧን	-6115
ቿን	-6116
▁እለ	-6117
▁ዝም	-6118
▁በስነ	-6119
▁ባቡር	-6120
▁የተካሄደው	-6121
▁ታግ	-6122
ኮል	-6123
▁በመላ	-6124
▁በጠቅላላ	-6125
▁ሽማግሌዎች	-6126
▁እንደሚገባም	-6127
ሚያስ	-6128
▁ቀጥተኛ	-6129
▁የራሳቸውን	-6130
▁እሳ	-6131
▁ባለመቻሉ	-6132
ንሰ	-6133
▁ባልደረ	-6134
▁እንዲያውም	-6135
ህረ	-6136
ሬሽ	-6137
▁መደብ	-6138
▁ፖለቲከ	-6139
▁የተሳተፉ	-6140
አንድ	-6141
ጣራት	-6142
▁የህብረተሰብ	-6143
ገተኛ	-6144
ውሮፕላን	-6145
▁እንደማይችል	-6146
ፍቱ	-6147
ፍራት	-6148
▁የሚታዩ	-6149
▁ያደርገዋል	-6150
▁ህይወታቸውን	-6151
ለለ	-6152
ጠባበ	-6153
▁ፋሲ	-6154
ስልጣን	-6155
▁አንዱን	-6156
የኢትዮጵያ	-6157
ና፣	-6158
ረጋገጡ	-6159
▁ብር፣	-6160
▁ለአፍሪካ	-6161
▁እንዲሰራ	-6162
▁የኩባንያው	-6163
37	-6164
ኔታው	-6165
▁ጋዜጠኛ	-6166
ስም	-6167
▁ያወ	-6168
▁አስመ	-6169
▁ለሚገኙ	-6170
▁ተስተው	-6171
▁ኮርፖሬሽኑ	-6172
▁በኩ	-6173
ባማ	-6174
ኮር	-6175
ዘረጋ	-6176
▁በሀይል	-6177
ክርስቲያን	-6178
በዛ	-6179
ሰረቱ	-6180
▁ቃላት	-6181
▁አሳው	-6182
▁ጦ	-6183
▁ላሉ	-6184
▁ሀላፊነቱ	-6185
ጣራ	-6186
▁መስጫ	-6187
▁መክፈ	-6188
▁ጨዋታዎችን	-6189
ጦት	-6190
▁መጠናቀቁ	-6191
▁መጨመር	-6192
ጆታ	-6193
▁ለመውጣት	-6194
ከታተሉ	-6195
▁አደሩ	-6196
▁መቀበል	-6197
ኸኝ	-6198
ውንት	-6199
▁ተፈናቃ	-6200
▁የስኳር	-6201
▁ለህግ	-6202
▁ቀርቷል	-6203
▁በከተማው	-6204
▁ብላ	-6205
ቀውን	-6206
▁አቤ	-6207
▁ለፊት	-6208
▁የኮቪድ	-6209
▁መያዛ	-6210
▁በተሰጠው	-6211
▁አሸናፊነት	-6212
▁ያስታወሱት	-6213
▁መፅሄ	-6214
▁ያህዌን	-6215
▁አፄ	-6216
▁የተያያዘ	-6217
▁ይጠቁማሉ	-6218
ፈፀሙት	-6219
▁ሊኖር	-6220
▁እስክ	-6221
▁ማውጣት	-6222
▁የደረሰው	-6223
ላልቅ	-6224
ቷቸዋል	-6225
▁ያጋጠ	-6226
▁ቋንቋዎች	-6227
▁ፈረንሳይ	-6228
▁በቱ	-6229
▁ተዘግ	-6230
▁ሰጥተው	-6231
ቋቋሙ	-6232
▁በዙ	-6233
▁ሽልማ	-6234
▁ቤትና	-6235
▁የተፈጠረው	-6236
▁ዩኒቨርስቲ	-6237
▁ተመልካ	-6238
▁አራተኛ	-6239
26	-6240
▁በአን	-6241
▁ሆሳእና	-6242
▁በሶማሌ	-6243
▁ከቻይና	-6244
▁የመንግስ	-6245
ሰቡን	-6246
ገልገ	-6247
▁ኑሮ	-6248
▁ስለሌ	-6249
▁በኢንዱስትሪ	-6250
▁ብቁ	-6251
▁ማቆያ	-6252
▁እንደመሆኑ	-6253
▁መናገር	-6254
▁መርከ	-6255
▁ጊዜው	-6256
▁ተጠርጣሪዎቹ	-6257
▁ማሰ	-6258
▁እነሱን	-6259
አር	-6260
ገፅ	-6261
▁መኪ	-6262
▁ነጭ	-6263
▁ከዛ	-6264
▁ቀርቶ	-6265
▁በአዳማ	-6266
▁በርካቶች	-6267
▁መንግስቱን	-6268
ጠቀሰው	-6269
▁መብራ	-6270
▁የቻለ	-6271
ኒሻንጉል	-6272
▁የነበራቸው	-6273
▁ፈታኝ	-6274
▁ትላንት	-6275
▁ኤፍሬ	-6276
▁አሰላለፍ	-6277
▁አሞ	-6278
▁በከፊ	-6279
▁በሂደት	-6280
ጠም	-6281
▁ኢሳያስ	-6282
▁እንግዳ	-6283
▁እንደገለፁት፤	-6284
▁ሲታ	-6285
▁በጣ	-6286
▁ነች	-6287
▁ልውውጥ	-6288
▁ታይቷል	-6289
ሊና	-6290
ነኛው	-6291
▁ክብረ	-6292
▁ለመድረስ	-6293
▁የኢንተር	-6294
▁ያደርጋሉ	-6295
▁መርህ	-6296
▁የሰጡ	-6297
▁ምርታማ	-6298
▁ሽረ	-6299
▁ለባለ	-6300
▁የዛሬ	-6301
▁የክፍያ	-6302
▁እንክብካቤ	-6303
ቃስ	-6304
ዚያው	-6305
▁ፅኑ	-6306
▁ህልውና	-6307
▁የቡድን	-6308
▁የሰማ	-6309
▁የመር	-6310
▁ደመወዝ	-6311
▁ተከላካዮች	-6312
ቂቁ	-6313
ይዙ	-6314
▁ምትክ	-6315
ያዣ	-6316
ሬዝ	-6317
ድሜ	-6318
▁አደርጋ	-6319
▁የጠበቀ	-6320
▁ማም	-6321
▁ሳል	-6322
ፌዴሬሽን	-6323
ሩ፣	-6324
ጠሉ	-6325
▁ለባ	-6326
▁ርዝ	-6327
▁በጀ	-6328
▁ፍል	-6329
▁አይን	-6330
ታች	-6331
ናል፤	-6332
ነብ	-6333
▁ተክለ	-6334
▁የቀረ	-6335
▁ማሳየት	-6336
ዘዝ	-6337
▁ፍቃዱ	-6338
▁ይግባኝ	-6339
▁ሚኒስትሩ፣	-6340
▁መሻሻል	-6341
▁የኬንያ	-6342
የቱ	-6343
ባንድ	-6344
ጎብኙ	-6345
▁ለይቶ	-6346
ታትን	-6347
▁አያሌ	-6348
ወል	-6349
▁ሳን	-6350
▁እውቀ	-6351
▁ፍለጋ	-6352
▁ጥሰ	-6353
▁ያላትን	-6354
ዋይ	-6355
▁ይስ	-6356
ስተዋወቅ	-6357
▁የመሳሰሉ	-6358
▁ለማለት	-6359
▁እንደማያ	-6360
ሬዎች	-6361
▁ከቦ	-6362
ማርያም	-6363
▁ሲገባ	-6364
▁የክስ	-6365
▁በተባበሩት	-6366
ደረጋቸው	-6367
▁መጀመር	-6368
▁ማኔጅመንት	-6369
▁ነክ	-6370
▁ፋይዳ	-6371
▁ጨምረው	-6372
▁መቆየቱን	-6373
ለቆ	-6374
▁በትኩረት	-6375
▁ናይ	-6376
▁አለን	-6377
▁ጥንካሬ	-6378
▁የድንበር	-6379
ታና	-6380
▁ይጎብኙ	-6381
ደራጁ	-6382
▁://.	-6383
▁ከእነሱ	-6384
▁ወቅት፣	-6385
▁የሀዋሳ	-6386
ሞቹ	-6387
ካቸው	-6388
ወስዱ	-6389
▁ተሰር	-6390
▁ጴጥሮ	-6391
▁እስከሚ	-6392
▁ተጠሪ	-6393
▁ተጠናቆ	-6394
▁ጉምሩክ	-6395
▁አይደለም፤	-6396
ዌር	-6397
▁የተጠ	-6398
▁አጠገብ	-6399
▁የሳይንስ	-6400
ዊያን	-6401
▁ፍራ	-6402
▁አለመግባባት	-6403
▁ነገስታት	-6404
▁ዩኒቨርሲቲዎች	-6405
▁ተናግረው	-6406
ንሳዊ	-6407
ከናውን	-6408
ወዳደር	-6409
▁በድምሩ	-6410
▁የቅዱስ	-6411
ስማሙ	-6412
▁የነፃ	-6413
▁ኢነርጂ	-6414
▁እንዲካሄድ	-6415
▁ሀይለማርያም	-6416
▁ስና	-6417
▁ባሪያ	-6418
▁ነውና	-6419
▁እሳት	-6420
▁የፊት	-6421
▁በመንፈ	-6422
▁ማዳበሪያ	-6423
▁የሀብረተሰብ	-6424
ንድነው	-6425
▁ሁሴን	-6426
▁ዛሬም	-6427
▁ያመለክታሉ	-6428
ኒየም	-6429
▁ሰሌ	-6430
▁ኮሎኔል	-6431
▁አካባቢው	-6432
ጠጥ	-6433
▁ሀሰን	-6434
▁ለተለያዩ	-6435
ማች	-6436
▁የሰጠ	-6437
▁ማካሄድ	-6438
ንቱ	-6439
▁የሜ	-6440
▁ተፈጥ	-6441
▁የባህል	-6442
ጋች	-6443
▁ሲሳይ	-6444
▁ምስል	-6445
▁በበርካታ	-6446
▁የሽግግር	-6447
ርቶዶ	-6448
▁ከተማዋ	-6449
▁የክለቡ	-6450
▁የሚደርሱ	-6451
▁ሀላፊነቱን	-6452
ባሪ	-6453
▁በማድረ	-6454
▁በየቀኑ	-6455
▁በማውጣት	-6456
▁የተለመደ	-6457
▁ዘመነ	-6458
ሎጂስቲክስ	-6459
▁እንደምን	-6460
ነገረው	-6461
ገገ	-6462
መናት	-6463
▁ኮንግ	-6464
▁ይልቁ	-6465
▁ሰማያዊ	-6466
▁ከእሱ	-6467
▁ለመያዝ	-6468
መውን	-6469
▁በቀረ	-6470
▁ሁለቱን	-6471
ረጡ	-6472
▁ሞዴ	-6473
ቆጠረው	-6474
▁ካቢኔ	-6475
▁የተሞላ	-6476
▁ተፎካካሪ	-6477
▁እንግዲህ	-6478
▁መስተ	-6479
▁ሀሳቦችን	-6480
▁የቤተሰብ	-6481
ኪንግ	-6482
▁በየነ	-6483
▁የኬ	-6484
▁ጤናማ	-6485
▁የሚገልፅ	-6486
▁የተከላካይ	-6487
ስቶች	-6488
ፋክቸ	-6489
▁በቶ	-6490
▁የእድገትና	-6491
ላሚ	-6492
ክሲዮኖች	-6493
▁መድረኮች	-6494
ፍራው	-6495
▁ምኞ	-6496
▁ጉሙዝ	-6497
▁እንስሳ	-6498
▁ውስጥና	-6499
▁ቆሻሻ	-6500
▁የኑሮ	-6501
ኞቹን	-6502
▁ቴክ	-6503
▁እንደሚቀጥል	-6504
▁አስተያየታቸውን	-6505
ገቢው	-6506
▁ካላ	-6507
▁በትን	-6508
▁አካሂ	-6509
▁የተሸ	-6510
ባበሪያ	-6511
▁አስታውሰው	-6512
ክፈት	-6513
ጭበር	-6514
▁መራ	-6515
ስብስብ	-6516
▁ተሰብ	-6517
▁በጉዳት	-6518
▁የተፈረ	-6519
▁አማኑኤል	-6520
ቦቹ	-6521
ጥቂ	-6522
ሚካል	-6523
ንሰር	-6524
ድመው	-6525
▁ማምረቻ	-6526
▁ሲካሄድ	-6527
▁የሚካሄደው	-6528
ለኛል	-6529
▁የጨ	-6530
▁ሽንፈት	-6531
▁ወዲያውኑ	-6532
ሬስ	-6533
ብርብ	-6534
ሸጋገር	-6535
▁በዘላቂ	-6536
▁የድምፅ	-6537
▁የደሀንነት	-6538
በሉ	-6539
▁የና	-6540
▁በተከታታይ	-6541
ችሎ	-6542
▁የሰነ	-6543
▁ወረቀት	-6544
▁የምርምር	-6545
▁የተሰጠውን	-6546
▁ኢንዱስትሪው	-6547
▁ሰነዶች	-6548
▁ግቦችን	-6549
▁ጐ	-6550
ማሪያ	-6551
▁ተቀብሎ	-6552
▁እንዲመለሱ	-6553
▁ቼ	-6554
▁ፃ	-6555
▁ተመስርቶ	-6556
▁እየተከናወነ	-6557
መሰረተ	-6558
▁የሙያ	-6559
▁የዜና	-6560
▁ሳም	-6561
▁መጠየቅ	-6562
ልቻ	-6563
▁ምግ	-6564
▁ታስቦ	-6565
▁ደህን	-6566
▁የአምላክን	-6567
▁ተተ	-6568
▁ይጨ	-6569
▁መድረሱ	-6570
▁ከሁለቱ	-6571
▁ማእከላት	-6572
▁ኤጀንሲው	-6573
▁በሜዳው	-6574
▁ያስችላል	-6575
ነሽ	-6576
ፈጥሮ	-6577
▁የሚደ	-6578
▁ከአሜሪካ	-6579
ፋይ	-6580
ቲዩብ	-6581
ከፋፈ	-6582
ክልት	-6583
▁ኢላማ	-6584
▁እርሱ	-6585
▁ሰራዊቱ	-6586
▁እስራት	-6587
▁ከመጀመሪያ	-6588
▁ከረ	-6589
▁በአካባቢ	-6590
ኑፋክቸ	-6591
▁ሞገስ	-6592
▁ማጣሪያ	-6593
▁የተያያዙ	-6594
▁ወስዶ	-6595
▁ማበረታ	-6596
▁ተጨባጭ	-6597
▁ውሳኔዎች	-6598
▁ሰራተኞችን	-6599
▁65	-6600
ባቸውና	-6601
▁መድረስ	-6602
▁አቅራቢያ	-6603
▁የተከፈለ	-6604
▁ተጠቃሚዎች	-6605
ንቦት	-6606
ጂነር	-6607
ነታችን	-6608
ገባችን	-6609
▁የሚሆነ	-6610
▁የሚያግ	-6611
▁የሚካሄድ	-6612
▁ድብ	-6613
▁ቅርፅ	-6614
▁ተናገሩ	-6615
▁አይቀር	-6616
▁በትዊተር	-6617
▁ሁኔታዎችን	-6618
ከባቢ	-6619
ጠርጣሪ	-6620
▁አልበ	-6621
ረቃ	-6622
ቁሞ	-6623
ዋቸው	-6624
▁ሲሰሩ	-6625
▁ቆጠራ	-6626
▁ጀምሯል	-6627
ሮጀክት	-6628
▁ከጠቅላይ	-6629
▁ፍቅ	-6630
▁አስፈፃሚው	-6631
▁በነፃነት	-6632
▁የፈረንሳይ	-6633
▁የሆኑትን	-6634
እል	-6635
▁አገኘ	-6636
▁አገልግ	-6637
▁ሀሳባቸውን	-6638
▁ይመል	-6639
▁የሚቀርቡ	-6640
▁ቀጠና	-6641
▁በባህ	-6642
▁የብዙ	-6643
▁ቢዝነስ	-6644
▁አልቻሉም	-6645
▁ያቀርባል	-6646
▁ሪፖርተር፡	-6647
▁ኢንዱስትሪዎች	-6648
▁ይሸ	-6649
▁ከእስር	-6650
▁ጉድለት	-6651
▁የተጠረጠሩ	-6652
ሙላት	-6653
▁ለጊዜው	-6654
▁ሁላችንም	-6655
▁ተመጣጣኝ	-6656
ቃይ	-6657
▁ይገመ	-6658
▁አገሪቱን	-6659
▁እንዲችሉ	-6660
29	-6661
ጎማ	-6662
▁ዘመኑ	-6663
▁የጉዞ	-6664
▁ከሶ	-6665
ስፋፋት	-6666
▁ሙሉጌታ	-6667
▁በአየር	-6668
▁በተያዘው	-6669
▁ሉቃስ	-6670
▁ተፈፅ	-6671
▁አእምሮ	-6672
▁ኢንጂነሪንግ	-6673
ሶቹ	-6674
ነቃ	-6675
ኩም	-6676
ድ፣	-6677
ርያት	-6678
ሸነፈ	-6679
ናጠል	-6680
▁ኪዳ	-6681
▁ገዝ	-6682
▁መምጣት	-6683
▁በሰፊው	-6684
▁ከስድስት	-6685
▁የለበትም	-6686
▁የመጀመሪያውን	-6687
ግሮ	-6688
ከፈለው	-6689
▁የተቀናጀ	-6690
▁ለደ	-6691
▁ማታ	-6692
▁ሰፋ	-6693
▁ሌሎቹ	-6694
▁ፀሀይ	-6695
▁በተወሰነ	-6696
▁ጥቃቶች	-6697
▁ተጋላጭ	-6698
ደይ	-6699
▁የውጪ	-6700
▁በቀጣዩ	-6701
▁የአሰራር	-6702
▁ቅፅ	-6703
▁መስራ	-6704
ግሞ	-6705
▁ሲቪል	-6706
▁የሚባሉ	-6707
▁ሶስተኛው	-6708
▁ይጀም	-6709
▁ወልዋሎ	-6710
▁ለግብ	-6711
▁ጨርቅ	-6712
▁ፕሬስ	-6713
ርቶዶክስ	-6714
▁ባሳለፍነው	-6715
ሳችሁ	-6716
▁በኪ	-6717
▁ስዩም	-6718
▁በምክትል	-6719
▁ሊታ	-6720
▁ተከሳሽ	-6721
▁የህዝቡን	-6722
▁መወሰኑን	-6723
▁ሪፐብሊክ	-6724
ላላቅ	-6725
▁ታይቶ	-6726
▁የወጡ	-6727
▁ያተኮረ	-6728
ጠፉ	-6729
▁በመጣ	-6730
▁የመኪና	-6731
▁የብሄር	-6732
ችም	-6733
▁ቂ	-6734
ውልድ	-6735
▁አስገ	-6736
▁ማእድን	-6737
▁ስማቸው	-6738
▁አሰልጣኙ	-6739
ናቅ	-6740
▁ጥብቅ	-6741
▁ፊርማ	-6742
▁በመባል	-6743
▁እንጂ፣	-6744
▁የሚጠይቅ	-6745
33	-6746
▁የአም	-6747
▁ለገበያ	-6748
▁በፍፁም	-6749
ኑፋክቸሪንግ	-6750
▁ለማስወገድ	-6751
ከብር	-6752
▁ጆን	-6753
▁ተለይ	-6754
▁ኤፍሬም	-6755
▁እንዲገባ	-6756
▁ቤን	-6757
ከተሞች	-6758
▁ቀንድ	-6759
▁መፈፀም	-6760
▁የመሀል	-6761
▁ለመርዳት	-6762
ከበ	-6763
ለቀቁ	-6764
▁መንደር	-6765
▁ወንጀሎች	-6766
▁ደረጃዎች	-6767
▁እንደሚኖረው	-6768
▁በእሱ	-6769
▁አመፅ	-6770
▁ካርታ	-6771
▁ያስታው	-6772
አዛ	-6773
2014	-6774
▁ለሌላ	-6775
▁መስፋ	-6776
▁ተጫው	-6777
▁ታዛቢ	-6778
▁ከቤት	-6779
▁ገፃቸው	-6780
▁የተፈጠረውን	-6781
▁የኩ	-6782
▁መላው	-6783
▁ማእረግ	-6784
ብቻ	-6785
▁ለበርካታ	-6786
▁አገራቸው	-6787
▁አስተላልፈዋል	-6788
ቆመ	-6789
▁ያዘ	-6790
▁400	-6791
▁በዚያው	-6792
▁ተከትሎም	-6793
▁የማስከበር	-6794
ያውቁ	-6795
ጊዜም	-6796
▁ተመራማሪ	-6797
▁አደረጃጀ	-6798
▁እያንዳንዳቸው	-6799
▁የሚመለከታቸው	-6800
▁ኒው	-6801
▁ይወስ	-6802
▁ተስማሚ	-6803
▁ከከተማ	-6804
▁ለፌዴራል	-6805
1)	-6806
▁ቦሌ	-6807
▁ይካሄ	-6808
▁ውስጥ፣	-6809
▁የመንግስትን	-6810
መዱ	-6811
ርም	-6812
ነካ	-6813
▁ቢሆኑ	-6814
▁ከተማው	-6815
▁የአደጋ	-6816
▁የሞባይል	-6817
▁የሚኖረው	-6818
▁እፅ	-6819
▁ከየ	-6820
▁ገብቷል	-6821
▁አብዛኛውን	-6822
▁እንደሆነ፣	-6823
ደለ	-6824
ችግር	-6825
ፈልጋሉ	-6826
▁ከህዝብ	-6827
▁ማስተካከያ	-6828
▁በመከላከያ	-6829
▁የተከሰተው	-6830
ራሚ	-6831
ለያይ	-6832
▁ስህተ	-6833
▁አጥብ	-6834
ሌም	-6835
ሀመድ	-6836
ቋንቋ	-6837
ደረጃው	-6838
መኔ	-6839
መንግስ	-6840
▁መገለጫ	-6841
▁በከፊል	-6842
▁ውድድሩ	-6843
ገፍ	-6844
ደረገውን	-6845
▁ሀሰተኛ	-6846
▁የሲቪል	-6847
▁ውስብስብ	-6848
▁የክልሉን	-6849
▁ለማስገባት	-6850
▁እንዲኖረው	-6851
ሁል	-6852
ልኮ	-6853
ቆር	-6854
▁መመልከት	-6855
መጣው	-6856
ሪስት	-6857
ከተሉ	-6858
ዎቻችን	-6859
▁ፕላን	-6860
▁የሁሉም	-6861
▁አሳስቧል	-6862
▁አርባምንጭ	-6863
▁ያወጣው	-6864
92	-6865
▁ለመም	-6866
▁የጀመሩት	-6867
▁የፌዴሬሽን	-6868
▁ብድ	-6869
▁በአፋር	-6870
ንጆ	-6871
ስታን	-6872
ዚያን	-6873
▁በአሉ	-6874
▁በማድረግ፣	-6875
▁የሚኒስትሮች	-6876
▁ጨር	-6877
▁ያነሰ	-6878
▁በተባለው	-6879
ሽከርካሪዎች	-6880
▁እንደሚሰሩ	-6881
▁ስፔ	-6882
▁በእኔ	-6883
▁መዘገባችን	-6884
▁ከእነዚህም	-6885
▁እዝ	-6886
▁አንዳር	-6887
▁የሀብት	-6888
▁መንቀሳቀስ	-6889
ዌይ	-6890
ፈራው	-6891
▁ፈል	-6892
▁://./	-6893
▁በየትኛውም	-6894
48	-6895
ያችን	-6896
▁ቅዱ	-6897
▁ያካት	-6898
▁የኮንስትራክሽን	-6899
ላህ	-6900
ቲቭ	-6901
ጣሬ	-6902
▁ልታ	-6903
ሮባንድ	-6904
▁ማሰል	-6905
▁ተላል	-6906
ጥሎ	-6907
▁የተያዘ	-6908
▁ቅርንጫፎች	-6909
ገሪቷ	-6910
▁ብክ	-6911
▁የዱ	-6912
ላለፉት	-6913
መሰግና	-6914
▁መሰብሰብ	-6915
▁በተፈጠረው	-6916
▁ለረ	-6917
▁ውሳኔው	-6918
ረከብ	-6919
ቀደው	-6920
▁ኪራይ	-6921
▁በእርግ	-6922
ቧቸው	-6923
▁የመግ	-6924
▁ተቀይሮ	-6925
75	-6926
ፉትን	-6927
ሰማራት	-6928
▁መጠቀ	-6929
▁ሀጢአት	-6930
▁ይኖራል	-6931
ቶችም	-6932
ጥታው	-6933
▁ተዳ	-6934
▁ገመ	-6935
መዘገበ	-6936
በረታታ	-6937
▁በቅን	-6938
▁ሜትሪክ	-6939
▁ተጨዋቾች	-6940
ጥና	-6941
ቃወሚያ	-6942
▁የጥራት	-6943
▁መስቀል	-6944
▁በአካል	-6945
ቲያ	-6946
ጣዊ	-6947
▁ሲናገሩ	-6948
▁ማራ	-6949
▁ደራ	-6950
▁ለመቀበል	-6951
▁በዘላቂነት	-6952
▁በጥንቃቄ	-6953
▁ትችላለህ	-6954
ፅህና	-6955
▁እሸ	-6956
▁አዛዥ	-6957
▁ፍቃድ	-6958
▁ከጀመረ	-6959
▁ያካተተ	-6960
▁ይጠቁማል	-6961
በመ	-6962
▁ማለፍ	-6963
▁ፋብሪካው	-6964
▁ለማስጠበቅ	-6965
ርታ	-6966
ጨበ	-6967
▁ሞክ	-6968
▁ቅዱስን	-6969
▁ለመጫወት	-6970
ቅድሚያ	-6971
▁ከነዚህ	-6972
▁የሙዚቃ	-6973
ሰነ	-6974
ራዊት	-6975
ርስዎ	-6976
▁በቃ	-6977
ኢንጂነር	-6978
65	-6979
ሆኗ	-6980
ሮስ	-6981
የህ	-6982
▁ኮሮና	-6983
▁ፈንታ	-6984
▁አመቱን	-6985
ገፋ	-6986
▁እንዲፈጠር	-6987
▁የአባይ	-6988
▁የሚንቀሳቀሱ	-6989
▁ከለ	-6990
▁በቤት	-6991
▁ምናልባትም	-6992
ሲሲ	-6993
▁ጠን	-6994
▁ከማን	-6995
▁ዘውዴ	-6996
▁ድምፃ	-6997
▁የሌሎች	-6998
▁የሚታየው	-6999
ሬው	-7000
በን	-7001
ዘመን	-7002
የቱን	-7003
▁ተማሪዎችን	-7004
▁በለ	-7005
ወያዩ	-7006
▁እንደታ	-7007
▁ታጣቂዎች	-7008
▁የሚያቀርቡ	-7009
ዜጎች	-7010
▁ቡናዎች	-7011
ጠናቅ	-7012
▁ይሞ	-7013
▁ደግሞ፣	-7014
▁የሚችለውን	-7015
▁ቢኖሩ	-7016
▁ሽመልስ	-7017
▁በምክር	-7018
▁በሪፖር	-7019
▁ጠቅሶ	-7020
ሟቸው	-7021
▁ጥሬ	-7022
▁ማጠናከር	-7023
▁ተይዞ	-7024
▁ጎሎች	-7025
ሳተፈ	-7026
ካቲት	-7027
▁75	-7028
▁ምእ	-7029
▁የሻ	-7030
▁ጋዝ	-7031
▁አዝማ	-7032
▁እንዳላ	-7033
▁የደህንነት	-7034
ድዋ	-7035
ጠናከረ	-7036
ረሱን	-7037
▁የአፍ	-7038
▁እፈልጋ	-7039
▁እንደሚያደርጉ	-7040
▁ይባላል	-7041
▁በእኛ	-7042
▁በማሳደግ	-7043
ሯዊ	-7044
▁ለሁለተኛ	-7045
▁አድና	-7046
▁መዝሙር	-7047
▁የቅጣት	-7048
▁ለብሄራዊ	-7049
▁የተካሄደ	-7050
ጋድ	-7051
▁ናቸው፤	-7052
▁መሳሪያዎችን	-7053
ትመት	-7054
ኖርም	-7055
▁በደል	-7056
▁ወረራ	-7057
▁የተደረጉ	-7058
▁የሀገሪቱን	-7059
ቻለም	-7060
ዎንታዊ	-7061
▁አይነቱ	-7062
▁ክምችት	-7063
▁ለኢን	-7064
▁ቅጥር	-7065
▁ሲደርስ	-7066
▁በመመር	-7067
▁ለመል	-7068
▁ከምን	-7069
▁ተመልሶ	-7070
▁ወንድሙ	-7071
ልታ	-7072
▁በዘመነ	-7073
▁ሚኒስትሮች	-7074
ሂም	-7075
▁ረድ	-7076
▁ሰነዱ	-7077
▁ተቆጥ	-7078
▁ሂደቱን	-7079
▁ርብርብ	-7080
▁የተሰሩ	-7081
▁ይታያል	-7082
▁በተጠናቀቀው	-7083
▁መከላከ	-7084
▁ኮርፖሬት	-7085
ለር	-7086
መናል	-7087
▁ይዟል	-7088
▁ጢ	-7089
▁ቀረ	-7090
▁ቅስ	-7091
▁ድልድ	-7092
▁ድክ	-7093
▁ፌዴራ	-7094
ጂዎች	-7095
▁ቀለ	-7096
▁በህዝ	-7097
▁በመመ	-7098
▁የፈረ	-7099
▁እንዳሳ	-7100
▁እንደሚካሄድ	-7101
ተም	-7102
▁አዎ	-7103
ሪታንያ	-7104
▁ዲዛይን	-7105
▁ተካሂዷል	-7106
▁ለጋዜጠኞች	-7107
ደጋፊ	-7108
ፈፅም	-7109
ኞቻቸው	-7110
▁አስከ	-7111
▁አክር	-7112
▁የጎል	-7113
▁ይፈጥ	-7114
▁የካፒታል	-7115
▁የሚደረገውን	-7116
91	-7117
ቃቱ	-7118
በእ	-7119
▁መጥቶ	-7120
▁ትኩረ	-7121
▁የመቀ	-7122
▁ግፊት	-7123
ከፍሉ	-7124
▁ከማእ	-7125
▁መጥተው	-7126
▁ፕሪሚየር	-7127
ቃለሁ	-7128
ፀድቅ	-7129
▁የወቅ	-7130
▁የሚነሱ	-7131
▁ማስታወሻ	-7132
ርጅ	-7133
ቀበሉ	-7134
ከባድ	-7135
▁ይል	-7136
▁የማሳ	-7137
▁በአመቱ	-7138
▁አዲሱን	-7139
▁አጨዋወት	-7140
▁ጥቆማ	-7141
▁ገለፃ፤	-7142
▁በመገንባት	-7143
ቃለን	-7144
▁የአዋ	-7145
▁የጎላ	-7146
▁ማስቆጠር	-7147
▁አስተናግ	-7148
.)	-7149
▁ደቀ	-7150
▁በስድስት	-7151
ሳ፣	-7152
ረሚያ	-7153
▁ብዙውን	-7154
▁የአሁኑ	-7155
▁በማህበራዊ	-7156
▁የቀረበውን	-7157
▁ግን፣	-7158
▁ሰላምን	-7159
▁የሚኖር	-7160
▁በመድረኩ	-7161
▁ከሚገኘው	-7162
ኖት	-7163
ጋን	-7164
ሮቹን	-7165
ከፍል	-7166
▁ዛፍ	-7167
ፈፀሚያ	-7168
▁ማሰብ	-7169
▁ያእቆብ	-7170
▁ማድረጋቸው	-7171
▁ተግባራትን	-7172
ቤን	-7173
ሽናል	-7174
▁44	-7175
▁ተና	-7176
▁ቡናን	-7177
▁ነባር	-7178
▁የአመራር	-7179
▁በአንድነት	-7180
▁አቤል	-7181
▁በእግር	-7182
▁ለማሳየት	-7183
▁እንደሚቀ	-7184
▁የሚቀርብ	-7185
ብዳቤ	-7186
▁ተመድ	-7187
▁መንገደ	-7188
▁ማምጣት	-7189
▁በኬንያ	-7190
▁ልጃ	-7191
▁ለቢቢሲ	-7192
▁ነበረው	-7193
▁የተውጣጡ	-7194
ቪስ	-7195
▁ቄ	-7196
ጀንሲው	-7197
▁ቁርጠኝነት	-7198
▁ኢትዮጵያና	-7199
▁የሚቻል	-7200
▁ኦሊምፒክ	-7201
▁ደሴ	-7202
▁ማስተማር	-7203
▁ማከናወን	-7204
▁ዳይሬክቶ	-7205
ተረ	-7206
ክሌ	-7207
ብዛም	-7208
ፍረት	-7209
▁ትእዛ	-7210
▁መስፈርቶች	-7211
▁ለቆ	-7212
▁የጂ	-7213
▁በመዝ	-7214
▁ቦታው	-7215
▁ያለን	-7216
ፍትህ	-7217
▁ኢያ	-7218
▁ጥበ	-7219
▁ፎር	-7220
▁ሰሌዳ	-7221
▁ይኸው	-7222
ነን	-7223
አቱ	-7224
ታቸውንም	-7225
▁የእለት	-7226
ኮቹ	-7227
ሪዎቹ	-7228
ላለፈው	-7229
▁አበባና	-7230
▁የሁለቱን	-7231
▁አትሌቲክስ	-7232
እዝ	-7233
ሰባቸው	-7234
▁በግራ	-7235
▁የድጋፍ	-7236
▁በነበረበት	-7237
ተሮች	-7238
▁አሳልፎ	-7239
ዛቀ	-7240
▁ተንታ	-7241
▁ተዋህ	-7242
▁ቁጥራቸው	-7243
▁የዩቲዩብ	-7244
▁ሊትር	-7245
▁ፎረም	-7246
▁ዲሞክራሲ	-7247
▁በየደረጃው	-7248
ክሎ	-7249
ጫን	-7250
▁ወራ	-7251
▁ብይን	-7252
▁የቱሪዝም	-7253
▁ያለበትን	-7254
ሮኮ	-7255
▁በኮን	-7256
▁መጀመሩ	-7257
▁እርግጥ	-7258
▁የሚሳተፉ	-7259
▁ኢንቨስትመን	-7260
ንቀት	-7261
▁ሴራ	-7262
▁የግራ	-7263
ዘርላንድ	-7264
▁አግኝቷል	-7265
▁እናደርጋ	-7266
▁ኮሚሽነሩ	-7267
▁ስላሉ	-7268
▁የሚቃ	-7269
▁ጠዋት	-7270
▁ካሳሁን	-7271
▁ለማውጣት	-7272
ቃለች	-7273
መዘገቡ	-7274
▁ኮሌጅ	-7275
▁በጥናት	-7276
▁በፀጥታ	-7277
▁የስደተኞች	-7278
▁እንደሚያመለክ	-7279
ሚን	-7280
▁ለእኔ	-7281
▁ሩሲያ	-7282
▁ቪዲዮ	-7283
▁ከነበሩት	-7284
▁ማቋቋ	-7285
▁ደረጃን	-7286
ክን	-7287
ፈቱ	-7288
▁አዋጁን	-7289
▁የተጠየ	-7290
ለቁ	-7291
▁ብጥብ	-7292
ሰባቸውን	-7293
▁ከክልሉ	-7294
▁እናመሰግና	-7295
!"	-7296
ከበሩ	-7297
ደሮች	-7298
▁ኦፕ	-7299
▁ተቀማጭ	-7300
▁ከታክስ	-7301
▁በትብብር	-7302
ይድ	-7303
ታቸው፣	-7304
▁በሞት	-7305
▁ከግብፅ	-7306
▁ከብሄራዊ	-7307
▁አንዳንዶች	-7308
▁የጎደ	-7309
▁ያረጋግ	-7310
▁ሳህለ	-7311
▁ጀርመን	-7312
▁አለመረጋጋት	-7313
ወከል	-7314
▁ውዝግብ	-7315
▁በተገቢው	-7316
ሳኤ	-7317
▁ይው	-7318
▁በማጥ	-7319
▁ቢቢሲ	-7320
▁ትውልደ	-7321
▁ወጥተው	-7322
▁ለአገሪቱ	-7323
▁የእምነት	-7324
ላ፣	-7325
ርጎ	-7326
ኝታ	-7327
ዛቸው	-7328
▁ካሜ	-7329
▁ይላኩ	-7330
▁ሊደረግ	-7331
▁በመቃወም	-7332
▁በወጣ	-7333
▁ፍራን	-7334
▁የመስኖ	-7335
▁አምላክን	-7336
በርት	-7337
ቸገሩ	-7338
ብርሀን	-7339
▁አስፍ	-7340
▁የፕሮ	-7341
▁በኢትዮጵያና	-7342
ዋስ	-7343
▁ልደታ	-7344
▁የግብር	-7345
ነተኛ	-7346
▁የገለፁ	-7347
▁የሰራተኛ	-7348
ሪና	-7349
ጋዴ	-7350
▁ማፅ	-7351
▁አድርገ	-7352
▁በቅርበት	-7353
ካሄዱት	-7354
▁መጠጥ	-7355
▁ኦዲት	-7356
▁ጂቡቲ	-7357
▁በተቋ	-7358
▁ከዚሁ	-7359
▁የቀን	-7360
▁የበጎ	-7361
▁የእጅ	-7362
▁ፖሊሶች	-7363
▁ምንጊዜም	-7364
▁በመለየት	-7365
▁አገልግሎቱ	-7366
ሰሱ	-7367
ቼን	-7368
ናችን	-7369
▁ኤስ	-7370
▁የሚሆነውን	-7371
▁የማህበራዊ	-7372
ብል	-7373
▁የሶማሌ	-7374
▁እንደምታ	-7375
▁ዜናዎችን	-7376
ካሂድ	-7377
ዘጋጃ	-7378
▁198	-7379
▁በእንዲህ	-7380
▁ብሄረሰቦችና	-7381
▁መገን	-7382
▁የመነ	-7383
▁አሊያም	-7384
▁በመስመር	-7385
ሌን	-7386
ታደራዊ	-7387
▁ተከፍ	-7388
▁ውጥረት	-7389
▁እናመሰግናለን	-7390
ባቱ	-7391
ይነ	-7392
ቨስተ	-7393
▁ሄደ	-7394
▁ተሟ	-7395
ውያንን	-7396
▁አልጋ	-7397
▁በነገው	-7398
ህጉ	-7399
ሺዎች	-7400
▁አይቀርም	-7401
300	-7402
▁ከጠ	-7403
▁ጅፋር	-7404
▁ፍሰት	-7405
▁በወንጀል	-7406
▁ከተደረገ	-7407
▁የተሰኘው	-7408
ለዱ	-7409
ሜል	-7410
ች፣	-7411
ማንድ	-7412
▁ዋነኛው	-7413
ላጆ	-7414
ደቢ	-7415
ፀድ	-7416
▁ገም	-7417
▁ይገኝ	-7418
▁የተሟሉ	-7419
ደግፍ	-7420
▁55	-7421
▁ቆይቶ	-7422
▁ስምምነቶች	-7423
ጓዳ	-7424
አቀፍ	-7425
▁የሊጉ	-7426
▁ምክንያቱ	-7427
ደዱ	-7428
ማርኛ	-7429
▁ይወ	-7430
▁በተሰ	-7431
▁በንግ	-7432
▁ከሰማ	-7433
▁ለምክር	-7434
▁ኤርሚያስ	-7435
▁ይቀጥላል	-7436
▁ለማስቀጠል	-7437
▁አደርጋለሁ	-7438
አቸው	-7439
ዘውም	-7440
ሙኒኬሽን	-7441
▁እምብዛም	-7442
▁በአገራችን	-7443
▁39	-7444
▁ከዳ	-7445
▁ኮርፖሬ	-7446
▁በግንባሩ	-7447
▁ፕሬዚደንት	-7448
▁ጠላ	-7449
ሳችንን	-7450
▁ሄኖክ	-7451
▁አሰባ	-7452
ኝን	-7453
ኩን	-7454
ፈጥ	-7455
▁አፅድ	-7456
▁ከእኔ	-7457
▁የአረ	-7458
▁ለህዝቡ	-7459
▁ባሉበት	-7460
▁የአምስት	-7461
ንጉሱ	-7462
ጡረታ	-7463
ፈልግም	-7464
▁ታፈሰ	-7465
▁የኮንት	-7466
▁የሚችሉት	-7467
▁በማዘጋጀት	-7468
▁የኮሮናቫይረስ	-7469
ዮስ	-7470
▁ፊልም	-7471
▁ፑ	-7472
ፒታሉ	-7473
▁ለመግታት	-7474
ምስ	-7475
▁መውሰ	-7476
▁የግድቡ	-7477
▁የተቃውሞ	-7478
▁ድርጊቶች	-7479
▁ሰጠ	-7480
ዘርጋት	-7481
▁ግራም	-7482
▁የተቀላቀ	-7483
▁እንዲኖራቸው	-7484
▁የሪ	-7485
▁ቴሌግራም	-7486
▁አረንጓዴ	-7487
▁የሚታወቅ	-7488
▁በህይወ	-7489
▁ከሱዳን	-7490
▁የመድን	-7491
▁ይፈልጋሉ	-7492
36	-7493
▁ጥንታዊ	-7494
▁በድሬዳዋ	-7495
ላሳ	-7496
ካፈል	-7497
▁ሸቀ	-7498
ግበሪያ	-7499
▁ቀጣና	-7500
▁የአስ	-7501
▁ተጫዋቹ	-7502
▁አውጥቶ	-7503
▁ለመሳተፍ	-7504
▁እየተባለ	-7505
ደውን	-7506
▁ታቅዶ	-7507
▁ወጣቱ	-7508
▁የዩኒቨርሲቲ	-7509
2006	-7510
▁ብሩክ	-7511
▁ሁኔታው	-7512
▁አበረታ	-7513
▁ውጤቱን	-7514
▁በማንሳት	-7515
▁ባቀረበው	-7516
▁የንብረት	-7517
▁ተገናኝተው	-7518
ደራደር	-7519
▁ሁከት	-7520
▁ውጤቱ	-7521
▁አለመቻ	-7522
▁ወስደው	-7523
▁የተመለከተ	-7524
2015	-7525
▁በፅሁፍ	-7526
▁የሚጠጉ	-7527
▁ይገመታል	-7528
▁ባለሙያዎችን	-7529
▁በእርግጠኝነት	-7530
ሽና	-7531
ወትር	-7532
▁መመለ	-7533
▁አበር	-7534
▁መጠለያ	-7535
▁ጠቅሷል	-7536
▁በመነሳት	-7537
▁የሚታወቀው	-7538
▁የብልፅግና	-7539
▁እርምጃዎችን	-7540
▁መቁ	-7541
▁መረጃው	-7542
▁ራሳቸው	-7543
ዘበ	-7544
ዙን	-7545
▁ንድ	-7546
▁ከካ	-7547
▁ክሊ	-7548
▁ይካሄዳል	-7549
ላለሁ	-7550
ንኦት	-7551
▁ግዢ	-7552
▁ስራን	-7553
▁ለዘላለም	-7554
▁የኮሚሽኑ	-7555
ደቀው	-7556
ገራዊ	-7557
▁ኔት	-7558
ላለፊያ	-7559
ድሀኒት	-7560
▁ህግና	-7561
▁ቅርብ	-7562
▁በታሪክ	-7563
▁በመጀመርያው	-7564
▁ከሚመለከታቸው	-7565
ምኑ	-7566
ፍታ	-7567
▁ሊቃ	-7568
ጎልበት	-7569
▁እጥፍ	-7570
▁ኦባማ	-7571
▁ባንክ፣	-7572
▁ከሆኑት	-7573
▁አክለውም	-7574
▁ወጣቶችን	-7575
መበት	-7576
ራቶን	-7577
▁ኢብራ	-7578
▁ፍጆታ	-7579
▁ውክልና	-7580
▁ዝግጅቶች	-7581
▁በማሀበራዊ	-7582
▁ፍሰ	-7583
▁ታላላቅ	-7584
▁የጥፋት	-7585
▁ጠበቆች	-7586
▁በስብሰባ	-7587
▁አቅርበው	-7588
▁ውሳኔውን	-7589
▁ለመሰብሰብ	-7590
ድረው	-7591
ጡበት	-7592
▁ይልቁንም	-7593
ፁን	-7594
▁ሩብ	-7595
▁ሻምፒ	-7596
▁መቅረብ	-7597
▁የደረሱ	-7598
▁የምክክር	-7599
▁ይጎብኙ፤	-7600
▁ለማጠናቀቅ	-7601
እለት	-7602
▁የአው	-7603
▁የከፈ	-7604
▁ተስተውሏል	-7605
▁በእያንዳንዱ	-7606
▁መኮን	-7607
▁ምሁራ	-7608
▁ማእከሉ	-7609
▁ሀገራቸው	-7610
▁እቃዎችን	-7611
ዉን	-7612
ሻሽ	-7613
ዘና	-7614
▁እብ	-7615
▁የኔ	-7616
ፈረንስ	-7617
▁ለማምረት	-7618
▁አይገባም	-7619
▁ተቀላቅ	-7620
▁ትላልቅ	-7621
▁እንድና	-7622
▁ከሲ	-7623
▁የተፋ	-7624
▁በዘንድሮው	-7625
ማኒ	-7626
ገራሚ	-7627
▁በዚያን	-7628
▁አይመስ	-7629
▁ጴጥሮስ	-7630
▁ሊያደርግ	-7631
ፍር	-7632
▁መደረ	-7633
መሰረት	-7634
▁ሌሊት	-7635
▁የወረ	-7636
▁ደረጃውን	-7637
▁ለመመስረት	-7638
መወዝ	-7639
▁ሳያስ	-7640
▁በቋሚ	-7641
▁የደም	-7642
በሻ	-7643
ቀመጠ	-7644
▁ለካ	-7645
▁ኦፍ	-7646
ግባቸው	-7647
▁ለማስፈፀም	-7648
ሀራ	-7649
▁የግሉ	-7650
▁ጥፋተኛ	-7651
▁በትናንት	-7652
▁የማምረት	-7653
ለንተ	-7654
ወያየ	-7655
▁ውብ	-7656
▁መውጣ	-7657
▁ራስን	-7658
▁ከወጣ	-7659
▁ቅስቀሳ	-7660
▁ሚንስትር	-7661
▁እንዲያገኝ	-7662
ቋር	-7663
ከናውኑ	-7664
▁ለማዳ	-7665
▁በግለ	-7666
▁ድርቅ	-7667
▁አስከፊ	-7668
▁ተከታዮች	-7669
▁ተንቀሳቃሽ	-7670
▁አመሰ	-7671
▁የራስ	-7672
▁ቀጣይነት	-7673
▁አስቆጥሮ	-7674
▁ስምምነቱን	-7675
ቀዱ	-7676
ደላ	-7677
▁ሲሰጥ	-7678
▁በጉባኤው	-7679
ባትና	-7680
▁መጠኑ	-7681
▁በተካሄደ	-7682
▁የአለማችን	-7683
▁ፕሮግራሞች	-7684
ሪሁን	-7685
ታወስ	-7686
▁ኮማን	-7687
▁የባህ	-7688
▁በመፅሀፍ	-7689
▁መሆናቸውንም	-7690
ቂዎች	-7691
ጂንግ	-7692
▁ተቃው	-7693
▁ዮናስ	-7694
▁ለያህዌ	-7695
▁አይችሉም	-7696
ስተዋሉ	-7697
▁ውጊያ	-7698
▁ግሩም	-7699
▁መምራት	-7700
▁አድራሻ	-7701
▁የያዘው	-7702
▁የወደፊት	-7703
▁የድሬዳዋ	-7704
ቋቸው	-7705
ጅቡቲ	-7706
▁ሚያ	-7707
▁ቢጫ	-7708
▁በቀኝ	-7709
/2013	-7710
▁ክልከላ	-7711
▁አይሆንም	-7712
▁የእነዚህ	-7713
ባለሁ	-7714
▁አቃ	-7715
▁ቢባል	-7716
▁ጉድጓ	-7717
▁ወቅታዊ፣	-7718
▁ድንገተኛ	-7719
▁አስተዳደርና	-7720
▁የበላይነትን	-7721
ከትና	-7722
▁የሚደር	-7723
▁ለመቀየር	-7724
▁በማካሄድ	-7725
▁ጠቅሰው፣	-7726
▁ለማስከበር	-7727
▁በማጠናከር	-7728
34	-7729
▁መንጋ	-7730
▁ማለዳ	-7731
▁ተወዳጅ	-7732
▁ብሄረሰብ	-7733
▁አዝማሚያ	-7734
ቸዋ	-7735
▁ለመሸ	-7736
▁ከተቀ	-7737
▁ያህሉ	-7738
▁ማድረስ	-7739
▁አቀባበል	-7740
▁ሰፈር	-7741
ደቁ	-7742
ዘዋል	-7743
ጠቀስ	-7744
ፈፅሙ	-7745
▁ኪንግ	-7746
▁መቋቋም	-7747
▁በቦታው	-7748
▁የተሟላ	-7749
ጥም	-7750
ፈረም	-7751
▁የመጨረሻው	-7752
ኳቸው	-7753
▁ጫፍ	-7754
▁ስትል	-7755
▁ባለመኖሩ	-7756
▁የትብብር	-7757
▁እንደነበርም	-7758
መች	-7759
ብላ	-7760
ቋረጡ	-7761
▁ለተጨማሪ	-7762
▁ተጠቅመው	-7763
ገምገም	-7764
▁ቢሮው	-7765
▁የእሳት	-7766
▁የፈጠራ	-7767
▁ተሰጥቷል	-7768
ሰቡት	-7769
▁አንጋ	-7770
▁ኳስን	-7771
▁የተሾ	-7772
ለንተናዊ	-7773
▁የተከለ	-7774
▁እንዲያቀርቡ	-7775
ችሁት	-7776
▁ትች	-7777
▁ባስተ	-7778
▁አርቲ	-7779
▁በላይ፣	-7780
መስረ	-7781
▁እኩ	-7782
▁መቻሉ	-7783
▁ተባብ	-7784
▁ግብአቶች	-7785
ራኒው	-7786
▁ተገን	-7787
▁ንግግ	-7788
▁ተፋሰስ	-7789
▁አባላቱ	-7790
▁ወስኗል	-7791
▁መቃወሚያ	-7792
▁ሳይጠብቁ	-7793
▁የትራፊክ	-7794
▁ምልክቶች	-7795
▁አስከባሪ	-7796
ልያ	-7797
ፈስ	-7798
ክንያ	-7799
ፖርቱ	-7800
▁48	-7801
▁ለድር	-7802
▁ሲመጣ	-7803
▁እቅዱ	-7804
▁ለጥቂት	-7805
▁ዲፕሎማ	-7806
ቃን	-7807
ጫሉ	-7808
▁በፓ	-7809
ርፖሬሽኑ	-7810
ሎም	-7811
ጅምላ	-7812
▁ቆንጆ	-7813
▁በቴሌ	-7814
ቤትነት	-7815
ሪያቸውን	-7816
▁መስማማ	-7817
▁ፅሁፎች	-7818
▁የተመሰረተው	-7819
▁የእግዚአብሄር	-7820
ቀሩ	-7821
▁ቬ	-7822
ቸዋለሁ	-7823
▁በህዝቡ	-7824
▁ፓርላማው	-7825
▁ኤክስፖርት	-7826
▁አክሏል	-7827
▁ሳይንሳዊ	-7828
▁አስኪያጁ	-7829
▁የቴሌኮም	-7830
▁ቀኝ	-7831
▁እመ	-7832
ሳይያስ	-7833
▁ሶማሌ	-7834
▁ወርቁ	-7835
▁ይደር	-7836
▁ሴቶችን	-7837
▁ቀጥሏል	-7838
▁በአስር	-7839
▁የሰዎች	-7840
▁ከትናንት	-7841
ፍለ	-7842
111	-7843
▁በመሰ	-7844
▁በደብዳቤ	-7845
▁ለመጀመርያ	-7846
ለፉ	-7847
▁ሹመት	-7848
▁ቢያስ	-7849
▁እህት	-7850
▁አክርሮ	-7851
▁ድርጅቶችን	-7852
ከነ	-7853
▁መመዘ	-7854
▁ከገባ	-7855
▁ተወልደ	-7856
▁ኦዲተር	-7857
▁አድራጎት	-7858
▁ለማግኘት፡	-7859
ነርሱ	-7860
▁የሚረዳ	-7861
▁የሚሰማ	-7862
▁ኛው	-7863
▁ህንድ	-7864
▁ሚስጥ	-7865
▁ይወዳ	-7866
▁በማለት፣	-7867
▁አስተያየቶች	-7868
▁ተም	-7869
▁ሀውል	-7870
▁ሳንቲ	-7871
▁ከጨዋታው	-7872
▁ማስፈፀሚያ	-7873
በላሸ	-7874
▁በአመ	-7875
▁ፈቃደ	-7876
▁ቦር	-7877
▁መጥቷል	-7878
▁በመንገድ	-7879
▁በጥልቀት	-7880
▁የተሳሳተ	-7881
▁አገልጋዮች	-7882
▁ድንጋጌዎች	-7883
▁ልጁ	-7884
▁በሜ	-7885
▁ኮር	-7886
▁ዝርዝ	-7887
▁መፈናቀ	-7888
▁አርብቶ	-7889
2)	-7890
ተርስ	-7891
ኒክስ	-7892
▁ቢል	-7893
▁ተጀም	-7894
▁የተረ	-7895
▁ያስተናገ	-7896
▁ለማስተካከል	-7897
▁ዳይሬክቶሬት	-7898
ስካ	-7899
ፊቱ	-7900
ስቱም	-7901
ወጡት	-7902
▁ቀና	-7903
▁ከነበሩ	-7904
▁ያነሱት	-7905
▁የመጣውን	-7906
▁የተሰጣቸው	-7907
ተስ	-7908
ጅነት	-7909
ጣሚያ	-7910
▁ለሀገር	-7911
▁ጥያቄውን	-7912
ከፈት	-7913
ስተናግድ	-7914
▁ትግበራ	-7915
▁መንገዶችን	-7916
▁አያይዘውም	-7917
የእ	-7918
ላቸው፣	-7919
▁ቱርክ	-7920
▁የልኡ	-7921
▁ከሆነው	-7922
አያ	-7923
ንተን	-7924
▁በመላክ	-7925
የስ	-7926
ገኝም	-7927
▁ጠብቆ	-7928
▁ወደዚህ	-7929
▁ጉልበት	-7930
38	-7931
ኖም	-7932
ህዴድ	-7933
ላለን	-7934
ዲንግ	-7935
▁አመስ	-7936
▁መቀየር	-7937
▁በቴክኖሎጂ	-7938
▁አንዳርጋቸው	-7939
▁ግኝ	-7940
▁በተባለ	-7941
▁እንዲፈቱ	-7942
▁ይመልከቱ	-7943
▁ኮርፖሬትን	-7944
ቆጠብ	-7945
ዷቸው	-7946
▁ያነ	-7947
▁ህዝበ	-7948
▁መኖሩ	-7949
ታቸውንና	-7950
▁አስገዳጅ	-7951
ደሙ	-7952
▁ሰንጠረ	-7953
▁ታክሲ	-7954
▁አጠቃቀ	-7955
▁ጌታሁን	-7956
▁አድርገን	-7957
ታቱ	-7958
ዘሩ	-7959
በዚህ	-7960
ወርክ	-7961
▁መብታቸው	-7962
ንድር	-7963
▁ሩጫ	-7964
2000	-7965
ስተናገዱ	-7966
▁ህንፃዎች	-7967
▁በስልክዎ	-7968
▁አይቻልም	-7969
ሪፍ	-7970
ንሽ	-7971
ዞን	-7972
▁ዌ	-7973
▁ነግ	-7974
▁ገፆች	-7975
▁ቀበሌዎች	-7976
▁አደጋዎች	-7977
▁ክፍተቶች	-7978
▁እንዲቀርብ	-7979
▁እናደርጋለን	-7980
ያንም	-7981
▁ቀጣዩ	-7982
▁አልፏል	-7983
▁የገቡት	-7984
▁አስተዳደራዊ	-7985
ባች	-7986
ሸነፉ	-7987
▁ባለፈም	-7988
▁ለማሟላት	-7989
▁አዎንታዊ	-7990
▁ያስታወቀው	-7991
ጓደ	-7992
ጭቱ	-7993
ሪያል	-7994
▁አብረ	-7995
▁ወደተ	-7996
▁ይፋዊ	-7997
▁የሚጠቁ	-7998
▁ለመወጣት	-7999
▁ተቋማትና	-8000
▁የማግኘት	-8001
▁ይጠይቃል	-8002
▁እንዳስታወቀው	-8003
▁የሚያደርገውን	-8004
ሾፍቱ	-8005
▁በመስጠ	-8006
▁ከእረፍት	-8007
▁ህብረተሰብ	-8008
▁ለኤ	-8009
▁ደሞ	-8010
ገነዘቡ	-8011
▁ለውጡ	-8012
▁አባተ	-8013
▁የክለ	-8014
▁ደራሲ	-8015
▁መምሪያ	-8016
▁ውይይቶች	-8017
ምቀት	-8018
ቦራቶ	-8019
▁መሰና	-8020
▁የሚያሰ	-8021
▁መመርያው	-8022
ረጠ	-8023
▁ኮም	-8024
▁እኔን	-8025
ደረገባቸው	-8026
ኢድ	-8027
▁በሂሳብ	-8028
▁ጉባኤውን	-8029
▁እንደማይቻል	-8030
ለምዶ	-8031
ንግዲህ	-8032
▁በቀስ	-8033
▁መወሰኑ	-8034
▁ማቴዎስ	-8035
▁የታየው	-8036
▁ማስገባት	-8037
ለታ	-8038
▁በሸ	-8039
ገልፀው	-8040
▁አያው	-8041
▁መጠናቀቅ	-8042
▁ከስልጣን	-8043
▁እፈልጋለሁ	-8044
▁የምንችለው	-8045
ሯን	-8046
▁ምላ	-8047
▁ቤቱም	-8048
▁በአዋጅ	-8049
ቅለ	-8050
ገቡን	-8051
▁ገጥ	-8052
▁ሰለባ	-8053
▁ጀማል	-8054
▁ተቋማቱ	-8055
▁ገዛኸኝ	-8056
▁ምርጫውን	-8057
▁የተጠበቀ	-8058
▁የታየበት	-8059
77	-8060
ደጉ	-8061
ገባደ	-8062
ላቸውና	-8063
▁ማርቆስ	-8064
▁እንዳት	-8065
▁ወልቂጤ	-8066
▁በትናንትናው	-8067
▁ሀይቅ	-8068
▁8111	-8069
▁በተቃራኒው	-8070
▁በበኩላቸው፤	-8071
▁እንዲደርስዎ	-8072
ማቾች	-8073
▁መታየት	-8074
▁አንድን	-8075
▁ቦታዎችን	-8076
▁የህፃናት	-8077
▁አግኝተዋል	-8078
ብሩ	-8079
ነቀ	-8080
ደቡ	-8081
▁ውሎ	-8082
ረርሽኙ	-8083
▁ይሄን	-8084
▁መረጃና	-8085
▁አሸንፎ	-8086
▁የሚመረ	-8087
▁መስመሮች	-8088
▁ሀይማኖታዊ	-8089
ሙያ	-8090
አሉ	-8091
ዘም	-8092
ሰሩት	-8093
ከሪያ	-8094
ባቸው፣	-8095
ዘዋወር	-8096
▁ውድመት	-8097
ታኔ	-8098
ሷቸው	-8099
ባችሁ	-8100
▁ወሬ	-8101
▁ግዜ	-8102
▁መርሆ	-8103
▁ጎብኝ	-8104
▁አስመዝግ	-8105
32	-8106
ከስ	-8107
ዎቹም	-8108
▁የቪ	-8109
▁ተዋጊ	-8110
▁እገዳ	-8111
▁ስትሆን	-8112
▁በርከት	-8113
▁በዘመናዊ	-8114
ሉ፤	-8115
ጋጣሚ	-8116
ፈቅድ	-8117
▁የቱርክ	-8118
▁መስጠቱን	-8119
▁የፋብሪካ	-8120
▁የእንስሳት	-8121
▁እንዲያቀርብ	-8122
▁ዲሲ	-8123
▁መግዛት	-8124
▁ከክለቡ	-8125
▁ግድቡን	-8126
▁በሚካሄደው	-8127
▁በዩናይትድ	-8128
ደግፉ	-8129
▁መሰጠ	-8130
▁ማበረታቻ	-8131
▁በውድድሩ	-8132
▁የዜጎችን	-8133
ሳዩ	-8134
እድ	-8135
ፍስ	-8136
▁ሲስተ	-8137
▁ወደኋላ	-8138
▁እንዲውል	-8139
▁የቢዝነስ	-8140
▁ለሽ	-8141
▁መላክ	-8142
▁ከህግ	-8143
▁በጥቂት	-8144
▁የተሰበ	-8145
▁የሚጠበቀው	-8146
ጫወተ	-8147
▁ለሰው	-8148
▁አቡነ	-8149
▁አውደ	-8150
▁ተገኝቶ	-8151
ካሚ	-8152
▁54	-8153
▁ኡማ	-8154
ሮቻቸው	-8155
▁ሆይ፣	-8156
▁አባቶች	-8157
▁ደንበኛ	-8158
▁ያዳ	-8159
በረከተ	-8160
▁ሲገቡ	-8161
▁ቅርስ	-8162
▁በሚባል	-8163
▁አካላዊ	-8164
▁የእድሜ	-8165
▁በነበራቸው	-8166
ምራል	-8167
ሻውን	-8168
መልከቻ	-8169
ያውያን	-8170
▁ማጥፋት	-8171
▁ያደረግ	-8172
▁አስቆጥሯል	-8173
ቸር	-8174
▁ወሎ	-8175
▁ለቤተ	-8176
▁ጊዜ፣	-8177
ራስ	-8178
ዝቃ	-8179
ሙያዎች	-8180
▁ለእኛ	-8181
▁ለረዥም	-8182
የሚ	-8183
ኩበት	-8184
ፈፃፀ	-8185
▁በዶ	-8186
መቻቸት	-8187
▁ይቀር	-8188
▁እልባት	-8189
ለችው	-8190
ስፈላጊ	-8191
▁ለመን	-8192
▁አስገብ	-8193
▁የስልክ	-8194
▁ማስወገድ	-8195
▁መናገራቸውን	-8196
ሀም	-8197
ሸንፍ	-8198
▁ሳት	-8199
▁መስኖና	-8200
▁እንደሚሆኑ	-8201
ሰሳ	-8202
ፋሪ	-8203
▁ብቅ	-8204
▁በመቶ፣	-8205
▁ከፌዴራል	-8206
▁ምክንያታዊ	-8207
▁አውሮፕላኖች	-8208
ለመደ	-8209
▁ሙዚ	-8210
▁በሮ	-8211
▁2018	-8212
▁አሸንፏል	-8213
▁የሲሚንቶ	-8214
ቋቋመው	-8215
▁ሶማሊያ	-8216
▁ወይንም	-8217
▁የሙከራ	-8218
▁ስርአቶች	-8219
▁በሶማሊያ	-8220
▁ተቀብለው	-8221
ኮራ	-8222
ኖሩን	-8223
▁ንጉሴ	-8224
▁ፍተሻ	-8225
▁ሲገልፁ	-8226
▁አቀፋዊ	-8227
▁የሚመስ	-8228
▁ለዘመናት	-8229
▁ቁሳቁሶች	-8230
▁ለቅ	-8231
▁ታች	-8232
▁ትርጉ	-8233
▁አናት	-8234
▁ኢዜአ	-8235
▁በመቶው	-8236
▁በነበረ	-8237
▁ብቸኛው	-8238
▁የቆዩት	-8239
▁የዘርፉ	-8240
▁ግሽበት	-8241
▁ፌዴራል	-8242
▁በተፈጠረ	-8243
▁በወጣው	-8244
▁የምድር	-8245
▁የአቃቤ	-8246
▁የአዳማ	-8247
▁ማሰባሰብ	-8248
▁ኦርቶዶክስ	-8249
▁የኳስ	-8250
▁ዘመናት	-8251
▁መተግበር	-8252
▁የሰጠውን	-8253
▁ፈተናዎች	-8254
ዋና	-8255
ድስ	-8256
▁የሚበ	-8257
▁ውህደት	-8258
▁የኤሌክትሮ	-8259
▁የባለስልጣኑ	-8260
ኩሪ	-8261
ጭቶ	-8262
▁ተዛ	-8263
▁የር	-8264
ጊዮርጊ	-8265
▁ሙላቱ	-8266
▁እወዳ	-8267
▁ትርኢት	-8268
▁መታወቂያ	-8269
▁ይኖርብናል	-8270
▁ፍራፍሬ	-8271
▁ባሻገር፣	-8272
▁://..//	-8273
አድ	-8274
ዝን	-8275
ላይት	-8276
▁ባላ	-8277
▁ዋቢ	-8278
▁ሙሌት	-8279
▁ቴክኒ	-8280
▁ዜግነት	-8281
▁ዳኝነት	-8282
▁የተቀመጡ	-8283
ልቆ	-8284
ችና	-8285
ወጫ	-8286
ባለን	-8287
ዝናብ	-8288
ጅተው	-8289
▁ሀዘን	-8290
▁ጠላት	-8291
▁ሽፈራው	-8292
▁በማሳየት	-8293
▁እያከናወነ	-8294
▁ቤተክርስቲያን	-8295
▁ማእቀብ	-8296
▁ስራቸው	-8297
▁ተነሳሽነት	-8298
▁ያስታወቁት	-8299
▁ቆዳ	-8300
▁ንክ	-8301
▁መከሰ	-8302
▁መፅሄት	-8303
▁ሀዋ	-8304
▁ይዛ	-8305
▁አሻራ	-8306
▁የቅር	-8307
▁ፅዮን	-8308
▁የመጡት	-8309
ሸጡ	-8310
▁150	-8311
▁አዳነች	-8312
▁በፓርላማ	-8313
▁አሮ	-8314
▁ባለሜዳ	-8315
▁የአእምሮ	-8316
ከመ	-8317
▁ፆ	-8318
▁ሚስ	-8319
▁ጳጳ	-8320
▁በወር	-8321
▁ለመሄድ	-8322
▁በመሀል	-8323
▁በግማሽ	-8324
▁በመቀየር	-8325
▁በስልጣን	-8326
▁ግብዣ	-8327
▁ክለቡን	-8328
▁የበረራ	-8329
▁በተናጠል	-8330
ማቅ	-8331
ወሀ	-8332
ግሳ	-8333
በከር	-8334
▁ሄደው	-8335
▁የልዩ	-8336
▁ግዛቶች	-8337
ክሳይ	-8338
ጓጓዝ	-8339
▁ማት	-8340
▁ሲተ	-8341
▁አፀ	-8342
▁ከኦ	-8343
ምምነቱ	-8344
▁በህጋዊ	-8345
▁ከፈለጉ	-8346
▁በመገኘት	-8347
▁ተነስተው	-8348
ባትን	-8349
▁ለወደ	-8350
▁ህዝብና	-8351
▁ኳሶችን	-8352
▁ባለቤቶች	-8353
ፍ፣	-8354
▁46	-8355
▁ሄዶ	-8356
▁የእድገት	-8357
▁አማራጮችን	-8358
ልፉ	-8359
ሳቱ	-8360
▁አቅሙ	-8361
ፈለገውን	-8362
▁የወቅቱ	-8363
▁የኢየሱስ	-8364
ሌክ	-8365
▁ኤን	-8366
▁ደረቅ	-8367
▁አክብሮ	-8368
▁ውይይቱ	-8369
▁የሆነችው	-8370
▁ያስረዱት	-8371
▁የተፈፀመው	-8372
ግጅ	-8373
ጎም	-8374
▁ጣፋ	-8375
ለባቸው	-8376
ልስፍና	-8377
▁ለየት	-8378
▁በአቅ	-8379
▁ንረት	-8380
▁በፓርቲ	-8381
▁ተመራጭ	-8382
▁ይመጣል	-8383
▁እንዲከበር	-8384
▁የሁለትዮሽ	-8385
ላና	-8386
▁አርማ	-8387
▁ያቀረ	-8388
▁በእሳት	-8389
▁በመደበኛ	-8390
▁በቅድሚያ	-8391
▁ይመስለኛል	-8392
ሊም	-8393
▁እጃ	-8394
ችኋለሁ	-8395
▁በመው	-8396
▁ከብዙ	-8397
▁የመካ	-8398
▁አቪዬሽን	-8399
▁ሁለንተናዊ	-8400
▁ከመጀመሪያው	-8401
▁ሀላፊነታቸውን	-8402
ራራ	-8403
ገግ	-8404
ማመጥ	-8405
ባበቅ	-8406
▁መጠነኛ	-8407
▁በነበሩት	-8408
▁በውይይት	-8409
▁የሚገልፁት	-8410
ፕሮ	-8411
▁ሀረር	-8412
▁ለሆኑ	-8413
▁በአራ	-8414
▁ሲጀምር	-8415
▁ተዋህዶ	-8416
▁ኢሳይያስ	-8417
▁ከመስመር	-8418
▁ለማዘጋጀት	-8419
▁ባለቤትነት	-8420
ቀቁ	-8421
▁እሴ	-8422
ዘዋዋሪ	-8423
▁በሙስና	-8424
▁ከፋዮች	-8425
▁የአመቱ	-8426
▁የሚያስፈልጉ	-8427
▁ባለአክሲዮኖች	-8428
ድጉ	-8429
ጅቶ	-8430
▁ቅብብ	-8431
▁አጋጥ	-8432
▁ወዳጅ	-8433
▁የሀይ	-8434
▁ደህና	-8435
▁በተቻለ	-8436
▁መገኘቱን	-8437
▁ተሰምቷል	-8438
▁የአውሮፕላን	-8439
ኦል	-8440
ሸናፊ	-8441
▁ሪል	-8442
▁የሚሞ	-8443
▁መዛሙር	-8444
▁በታላቁ	-8445
▁ቤቶች፣	-8446
▁ስለዚህም	-8447
ከሰተ	-8448
▁ቀርተዋል	-8449
በልጡ	-8450
በርግ	-8451
ገኙም	-8452
ግዚቢ	-8453
▁85	-8454
▁ተሸን	-8455
▁በደስታ	-8456
▁ማስፋፊያ	-8457
▁አቀራረብ	-8458
▁እንደተናገሩት፤	-8459
መታ	-8460
ዳረጉ	-8461
ፓርት	-8462
▁በሱ	-8463
▁አላት	-8464
▁ይኖሩ	-8465
▁ይፈል	-8466
▁እነዚህም	-8467
▁ጀምረዋል	-8468
ኮን	-8469
▁ቺ	-8470
ዳማዊ	-8471
▁ቀው	-8472
▁ሰማይ	-8473
▁እነዚያ	-8474
▁እንግዶች	-8475
▁የሚያጋጥ	-8476
▁ገዱ	-8477
▁ያለማ	-8478
▁እንደቀ	-8479
▁መተማመን	-8480
▁ኢንቨስተ	-8481
▁ዚ	-8482
ስተን	-8483
ብረታ	-8484
▁ይቆ	-8485
ህይወት	-8486
ነጋገሩ	-8487
ጭበርበር	-8488
▁ለንግድ	-8489
▁ተቀምጧል	-8490
▁ሚኒስቴር፣	-8491
▁ተወያይተዋል	-8492
▁አስፈላጊነት	-8493
ገላ	-8494
▁ለቦ	-8495
▁ተገድ	-8496
▁ሳይቀር	-8497
▁መሰረትም	-8498
▁አባልነት	-8499
አአ	-8500
ዛን	-8501
ደገፈ	-8502
▁አንዴ	-8503
▁እጦት	-8504
▁የተነ	-8505
▁ፀሎት	-8506
▁ሀሳቡን	-8507
▁ቤቶችና	-8508
▁የሚያሳዩ	-8509
▁በመጀመርያ	-8510
የፋና	-8511
▁ተጣ	-8512
▁እህል	-8513
▁የፈጠረ	-8514
▁ከተጀመረ	-8515
▁47	-8516
▁ምሽ	-8517
▁ለሶከር	-8518
▁ማሳሰቢያ	-8519
▁በሪፖርቱ	-8520
▁የስልጠና	-8521
ያውቅ	-8522
▁42	-8523
▁ሙያዊ	-8524
▁ተደም	-8525
▁መቆጣጠ	-8526
▁ባደረገ	-8527
ለፈ	-8528
▁የኖ	-8529
▁የሞት	-8530
▁ማሻሻል	-8531
▁በላከው	-8532
▁ዘሪሁን	-8533
▁የጭነት	-8534
▁በተፈጥሮ	-8535
ሜት	-8536
ሊዝም	-8537
▁ማነ	-8538
▁ተኮር	-8539
▁ከታች	-8540
▁መገኘት	-8541
▁ሳይሆኑ	-8542
▁በመልካም	-8543
▁ግንባታዎች	-8544
ሞከር	-8545
▁ተከስቶ	-8546
▁ከአሁን	-8547
▁በሀገራችን	-8548
▁የተገኘውን	-8549
ሲን	-8550
▁(4	-8551
ሰራጨት	-8552
▁ማነስ	-8553
▁ኮምፒ	-8554
▁በእነሱ	-8555
▁ገለፃ፣	-8556
▁ለመቋቋም	-8557
ዛኝ	-8558
▁የተን	-8559
▁የሚጠይ	-8560
▁የሚፈጥር	-8561
67	-8562
ሰጡት	-8563
▁ቆር	-8564
▁ስለሺ	-8565
▁ግብሩ	-8566
▁መወጣት	-8567
▁እባክዎን	-8568
▁የቀረቡት	-8569
▁እንዳይሆን	-8570
ሀድሶ	-8571
▁እንፈልጋ	-8572
▁ድርጊቱን	-8573
▁አውስተዋል	-8574
ጫቸው	-8575
▁በአር	-8576
▁በረቂቅ	-8577
▁አስጠን	-8578
▁እችላለ	-8579
▁ለአምላክ	-8580
▁የመጠቀም	-8581
▁እንዲቀርቡ	-8582
ፖሊስ	-8583
▁ሚዛን	-8584
▁የሚወጡ	-8585
▁በመምጣቱ	-8586
▁በመቀበል	-8587
▁ይፈጥራል	-8588
ደቱ	-8589
ጓሜ	-8590
ኒልክ	-8591
ካከል	-8592
▁ብቻም	-8593
▁የምስክር	-8594
▁መጠናቀቁን	-8595
▁ሳህለወርቅ	-8596
▁ኮንፈረንስ	-8597
ቀና	-8598
ረምፕ	-8599
ቲንግ	-8600
ወይም	-8601
ከላከሉ	-8602
▁ለደን	-8603
▁ጀመሩ	-8604
▁ምንድነው	-8605
አስ	-8606
▁በሬ	-8607
ተገበር	-8608
▁ሞክሮ	-8609
▁አድን	-8610
▁2006	-8611
▁በመልሶ	-8612
ሻሻለ	-8613
▁ቆሮ	-8614
▁ልጆቹ	-8615
▁ከኢን	-8616
▁በስቲያ	-8617
▁ከርቀት	-8618
▁የተመለ	-8619
▁ንብረቶች	-8620
ንደቅ	-8621
ጀርባ	-8622
▁መጠበ	-8623
▁የቆዳ	-8624
▁አስገራሚ	-8625
▁የፀጥታው	-8626
▁ኢንፎርሜሽን	-8627
ጠቃሚ	-8628
▁ልና	-8629
▁ማግስት	-8630
ዩተር	-8631
▁ድርድሩ	-8632
▁ጥናትና	-8633
▁የሚገመት	-8634
ጋጭ	-8635
ቡባዊ	-8636
▁ህጉን	-8637
▁ልደቱ	-8638
▁በማው	-8639
▁የቡድ	-8640
▁በሴቶች	-8641
▁ከፌስቡክ	-8642
▁የግንዛቤ	-8643
▁መተግበሪያ	-8644
▁አረጋግጧል	-8645
ኤአ	-8646
ፋፍ	-8647
ዮርክ	-8648
▁ብላለች	-8649
▁እውነታ	-8650
▁የተሻሉ	-8651
▁በተለምዶ	-8652
▁እንዲሰጣቸው	-8653
ቆራ	-8654
▁በጨ	-8655
ታወቅም	-8656
▁ክንድ	-8657
▁በመገኘ	-8658
▁ነባራዊ	-8659
▁አያሌው	-8660
▁ኢብራሂም	-8661
▁የሰላምና	-8662
▁ለማስቆጠር	-8663
▁የተመለከቱ	-8664
▁መሸፈ	-8665
ፌዴሬሽኑ	-8666
▁በኮቪድ	-8667
▁አካሂዷል	-8668
▁የሚቻለው	-8669
▁ጋራ	-8670
▁የአረብ	-8671
▁ተመልሰው	-8672
▁አስፈላጊው	-8673
ገዘ	-8674
2017	-8675
▁ሳኡዲ	-8676
▁በሰማ	-8677
▁ካምፕ	-8678
▁በውስጡ	-8679
▁አቅጣጫዎች	-8680
ዳሚው	-8681
▁ትሪ	-8682
▁ይወጣ	-8683
▁ወጥቷል	-8684
▁ሁኔታውን	-8685
▁ኮንትራት	-8686
▁ያላግባብ	-8687
ዙት	-8688
ገጃ	-8689
ተኮር	-8690
▁ሊሰራ	-8691
▁ከንቲባው	-8692
▁የአሜሪካን	-8693
ረና	-8694
ግብር	-8695
ሏቸውን	-8696
ታቸውና	-8697
ከባከብ	-8698
▁ባንክና	-8699
▁በምርጫው	-8700
▁ግንባታውን	-8701
ዝሀ	-8702
ዳይ	-8703
ጴዛ	-8704
ውንዴ	-8705
ዳችን	-8706
▁መመዘኛ	-8707
▁ተቋማዊ	-8708
▁ተጋጣሚ	-8709
▁አስራት	-8710
▁ከኦሮሚያ	-8711
▁አመላክተዋል	-8712
▁ዘፍ	-8713
ላላችሁ	-8714
▁600	-8715
▁መካሄድ	-8716
▁የፍቅር	-8717
▁ድርጊቱ	-8718
▁ለአሜሪካ	-8719
▁በወቅታዊ	-8720
▁አጀንዳዎች	-8721
▁የተረጋገጠ	-8722
39	-8723
55	-8724
ነትም	-8725
▁ተጉ	-8726
2005	-8727
▁አጠራ	-8728
▁መስዋእትነት	-8729
ቅዷል	-8730
ክፈቻ	-8731
▁መልቀ	-8732
ስትራሊያ	-8733
▁በገበያ	-8734
▁ማሰልጠኛ	-8735
▁በመከላከል	-8736
▁በማስቆጠር	-8737
ፈረንጆቹ	-8738
▁በመቅረ	-8739
▁እጩዎች	-8740
▁የታወቀ	-8741
ገኛለች	-8742
▁አውታ	-8743
▁ዘርፈ	-8744
▁ማሟላት	-8745
▁ይጀምራል	-8746
▁በፋይናንስ	-8747
▁የመሳሰሉት	-8748
▁ባር	-8749
▁መልካ	-8750
▁ማስተር	-8751
▁ለመግለፅ	-8752
▁በጊዜያዊ	-8753
▁እንዲነሳ	-8754
▁የተከሰተውን	-8755
ሪቃ	-8756
ቀጣ	-8757
ችግሩ	-8758
ዜሽን	-8759
▁ብታ	-8760
2018	-8761
ጠቃለያ	-8762
▁አይሁዳ	-8763
▁እችላለሁ	-8764
▁ስብሰባዎች	-8765
▁ባለመቻላቸው	-8766
▁የኢንተርኔት	-8767
ባባቂ	-8768
ገኛለን	-8769
▁አይታ	-8770
▁ተገንዝ	-8771
▁የቻሉት	-8772
▁የኦነግ	-8773
▁ተደርገው	-8774
ካፈ	-8775
ምናው	-8776
ነጋገ	-8777
ድሮክ	-8778
ቀበለው	-8779
▁ያሳየ	-8780
▁ግድም	-8781
▁ሚያዚያ	-8782
▁ከህዝቡ	-8783
▁የተሳካ	-8784
▁የገጠር	-8785
▁የጨረታ	-8786
▁መምህራን	-8787
▁አመሰግና	-8788
▁ውጤቶችን	-8789
▁በጠቅላላው	-8790
▁የፕሮጀክት	-8791
ላቻ	-8792
መረጥ	-8793
ቀው፣	-8794
ናውያን	-8795
▁በማያ	-8796
▁ጥርጣሬ	-8797
"""	-8798
ፕሊን	-8799
ብዙ	-8800
▁ሁለ	-8801
▁የደረጃ	-8802
▁በጋምቤላ	-8803
ጤት	-8804
▁ሰበታ	-8805
ንቀሳቀሰ	-8806
▁በህወሀት	-8807
▁በምርመራ	-8808
▁አቅራቢዎች	-8809
ራዊቱ	-8810
▁ሚል	-8811
▁ሲጠናቀቅ	-8812
▁ስብሰባው	-8813
▁በሚቀጥሉት	-8814
66	-8815
▁የሺ	-8816
▁በአው	-8817
▁ባለን	-8818
▁ናሙና	-8819
▁2017	-8820
▁ተፈራር	-8821
▁ለከፍተኛ	-8822
▁በህክምና	-8823
▁አግኝተው	-8824
ርሱም	-8825
▁ብዙዎቹ	-8826
▁ጥያቄው	-8827
▁እርሳቸው	-8828
▁ምክንያት፣	-8829
ሊድ	-8830
ንጎ	-8831
▁ቻር	-8832
▁ፀድ	-8833
▁ፈላጊ	-8834
▁""""	-8835
▁በአባይ	-8836
▁አደረጉ	-8837
▁የሚተዳ	-8838
▁አገሮችን	-8839
▁ከፖለቲካ	-8840
ረሙ	-8841
▁2-0	-8842
▁ቀረጥ	-8843
▁አገና	-8844
▁እንደሌላቸው	-8845
ጋለጡ	-8846
▁ረዳ	-8847
▁ዩሮ	-8848
መንጨት	-8849
▁የጃፓን	-8850
▁የሚያስከት	-8851
ሀለሁ	-8852
ጠባቂ	-8853
ታወቁት	-8854
▁ቀጥታ	-8855
▁የሚውሉ	-8856
▁በመነጋገር	-8857
▁የደረሰውን	-8858
▁የሚያደርጉትን	-8859
47	-8860
ሹን	-8861
ቶታል	-8862
▁ንክኪ	-8863
ቀረበላቸው	-8864
▁ሀብረተሰብ	-8865
▁ከቤ	-8866
ዳደሪያ	-8867
▁መዲና	-8868
▁በጥር	-8869
▁አዋሽ	-8870
▁ያለባቸውን	-8871
▁ሊሰጥ	-8872
▁ሞዴል	-8873
▁ከቀረ	-8874
▁በማምረት	-8875
▁ከአውሮፓ	-8876
ዞር	-8877
ጀው	-8878
ለትም	-8879
▁ጥራ	-8880
▁ሆነን	-8881
▁በትእ	-8882
▁አገዛዝ	-8883
▁ጥረቶች	-8884
▁ለመክፈል	-8885
ቆቹ	-8886
ጣጣ	-8887
▁መጓ	-8888
▁በዱ	-8889
▁ቤትን	-8890
▁የቀጠ	-8891
▁አምላካ	-8892
▁ይደረግ	-8893
▁ከትግራይ	-8894
▁አለመኖሩን	-8895
ጓጉ	-8896
▁በምሳሌ	-8897
▁በዚያም	-8898
▁አንበሳ	-8899
ቅያ	-8900
▁አተ	-8901
▁በስር	-8902
▁የመታ	-8903
▁የመልሶ	-8904
▁ያስቀም	-8905
▁ከእናንተ	-8906
68	-8907
▁2.	-8908
▁ተረክ	-8909
▁የሊግ	-8910
▁ትንታኔ	-8911
▁ይፈልጋል	-8912
▁ተረጋግጧል	-8913
▁ማዋ	-8914
▁ንቁ	-8915
▁ከማሳ	-8916
▁ይዘን	-8917
▁ወንድሞ	-8918
▁በስፍራው	-8919
▁ተወስኗል	-8920
▁አባላትና	-8921
▁የያህዌን	-8922
▁://../	-8923
▁በሚፈለገው	-8924
▁አክሊ	-8925
▁በሌሎችም	-8926
▁እንዲቆዩ	-8927
▁የተቋቋመ	-8928
▁የሚገባውን	-8929
ፈጣን	-8930
▁አድርጌ	-8931
▁ከሚያስ	-8932
▁እንደሚገባው	-8933
▁ኩባንያዎችን	-8934
▁የሚያስችለውን	-8935
▁ከሁሉ	-8936
▁ማሳካት	-8937
▁ያደረገውን	-8938
▁ፖለቲከኞች	-8939
ጠቢያ	-8940
▁መአዛ	-8941
▁መዘግ	-8942
▁በእነ	-8943
▁አመቺ	-8944
▁አሰም	-8945
▁ሊደርስ	-8946
▁ከሀገር	-8947
▁የሚቆጠር	-8948
▁የተቃዋሚ	-8949
▁በማስመልከት	-8950
ለሙ	-8951
ራ፣	-8952
▁እኤአ	-8953
▁የህንፃ	-8954
▁የሚቆይ	-8955
▁የሚጠቅ	-8956
▁የኦዲት	-8957
▁የተደራጀ	-8958
ቋም	-8959
ህዴን	-8960
ማችን	-8961
▁ተጭ	-8962
ስተላል	-8963
▁በተገናኘ	-8964
ከባበር	-8965
▁አጥቂው	-8966
▁በመገናኛ	-8967
▁ናይጄሪያ	-8968
▁ውድድሩን	-8969
▁አገልግሎትን	-8970
▁አጎ	-8971
▁ዙርያ	-8972
▁ድጎማ	-8973
▁በቅዱስ	-8974
▁የተቀበ	-8975
▁የወይን	-8976
▁አመራሮችና	-8977
▁እድሜያቸው	-8978
ያተ	-8979
ስትሪ	-8980
ከፈለ	-8981
▁ጢሞ	-8982
▁የበኩሉን	-8983
▁ከፍተኛውን	-8984
▁የተጀመረውን	-8985
ል፤	-8986
ቶን	-8987
▁ለን	-8988
▁ኤፍ	-8989
ቦራቶሪ	-8990
▁መርምሮ	-8991
▁ሳምሶን	-8992
▁በአሉን	-8993
▁ከግማሽ	-8994
ልህ	-8995
ረምቱ	-8996
ረናል	-8997
የትና	-8998
▁ዜጎ	-8999
▁የጭ	-9000
▁ገፁ	-9001
▁ከአቶ	-9002
▁ታስረው	-9003
ፌል	-9004
ንቀፅ	-9005
▁ነህ	-9006
▁ቤቶቹ	-9007
▁በክለቡ	-9008
▁እየሰጠ	-9009
▁አምስተኛ	-9010
▁የሚሰጠውን	-9011
ነቷ	-9012
▁..	-9013
▁ላለመ	-9014
▁ስልት	-9015
▁የጀርመን	-9016
▁ማስተላለፍ	-9017
▁የመድሀኒት	-9018
ርቻ	-9019
▁ለሰራ	-9020
▁ሰራሽ	-9021
▁አነሳ	-9022
▁የበለ	-9023
▁የድርጅ	-9024
በዝ	-9025
▁ቅሬ	-9026
2016	-9027
▁ልምም	-9028
▁መሰራ	-9029
ናይጄሪያ	-9030
▁መያዙን	-9031
▁በእኩል	-9032
▁የሚያስፈልገውን	-9033
400	-9034
▁ድሪ	-9035
ስፋፊያ	-9036
▁ሁሌም	-9037
▁በቦሌ	-9038
▁የመረ	-9039
በረታታት	-9040
▁በብድር	-9041
▁ባንክን	-9042
▁የመጠጥ	-9043
▁የሽያጭ	-9044
▁የጉምሩክ	-9045
▁የጠቆመው	-9046
ሸባ	-9047
ሀብት	-9048
ሸመኔ	-9049
ቋረጠ	-9050
▁በተጨ	-9051
▁ከምር	-9052
▁የመኖር	-9053
▁እንዲሳተፉ	-9054
▁አላው	-9055
▁በፖሊስ	-9056
▁ያገኛሉ	-9057
▁እያካሄደ	-9058
ኛ፣	-9059
እለ	-9060
ደደ	-9061
ማማት	-9062
ጎብኘት	-9063
▁ሸለቆ	-9064
▁ወለጋ	-9065
▁የልብ	-9066
▁ፅንፈ	-9067
▁ለእነዚህ	-9068
▁አስቻለው	-9069
▁እንደሚታ	-9070
ወዳደሩ	-9071
▁ሲሰጡ	-9072
▁ከፍታ	-9073
▁የአመ	-9074
▁ከኮሮና	-9075
▁አስጠንቅ	-9076
ጥኑ	-9077
▁ተባ	-9078
▁ሰኢድ	-9079
▁ፅንሰ	-9080
▁በፍቅር	-9081
▁የዘንድሮው	-9082
ለቀቅ	-9083
ሾችን	-9084
ወርድ	-9085
▁ያረ	-9086
▁ሁኔታን	-9087
▁ለከተማ	-9088
▁መለኪያ	-9089
▁የሚወጣ	-9090
▁የዜጎች	-9091
▁ለመለየት	-9092
▁ለፓርላማ	-9093
▁በቀረበው	-9094
▁በፌደራል	-9095
▁ይታመናል	-9096
ቦር	-9097
የረ	-9098
▁49	-9099
▁ለጋ	-9100
▁በበቂ	-9101
▁በፈቃ	-9102
▁2016	-9103
▁ለማጥፋት	-9104
▁ይጠቀሳል	-9105
ዎችን፣	-9106
▁ልቦና	-9107
▁ተሰል	-9108
▁መገልገ	-9109
▁ትርጓሜ	-9110
ሩና	-9111
አቶ	-9112
▁2-1	-9113
▁እድሉ	-9114
▁ወለል	-9115
▁ሰዎችም	-9116
▁አበባው	-9117
▁የሩሲያ	-9118
▁በፅህፈት	-9119
▁ተቋራጮች	-9120
ሚካ	-9121
▁አፕ	-9122
▁በማህ	-9123
▁በሺዎች	-9124
▁ብቻውን	-9125
▁ተገኝቷል	-9126
▁የመስጠት	-9127
ግድ	-9128
ርፖር	-9129
ነስር	-9130
▁43	-9131
▁የመለ	-9132
ካከላቸው	-9133
▁ለመቀጠል	-9134
▁የተዘጋጀው	-9135
ተህ	-9136
▁ፈን	-9137
▁ወንበር	-9138
▁ውስጣዊ	-9139
▁በመወከል	-9140
▁ያቀረበውን	-9141
▁የሚያስፈልገው	-9142
▁ክፍፍል	-9143
▁በውድድር	-9144
▁የቆየውን	-9145
▁ለማስተናገድ	-9146
ጠናው	-9147
▁በሰራ	-9148
▁የተዛ	-9149
▁የኒው	-9150
▁ሰርቪስ	-9151
▁የክብር	-9152
▁አንቀፆች	-9153
ዜና	-9154
▁ነቢ	-9155
▁መሳተፍ	-9156
▁በባንክ	-9157
▁በመደገፍ	-9158
▁የህዝብን	-9159
▁ተማ	-9160
▁ከአባ	-9161
▁ሊኖረው	-9162
▁ከንግድ	-9163
▁በአፋጣኝ	-9164
▁ከአምላክ	-9165
▁የምእራብ	-9166
▁ይጠቀሳሉ	-9167
ማካ	-9168
ረከቡ	-9169
ክሲኮ	-9170
▁የሄ	-9171
▁ያምና	-9172
ነታችንን	-9173
▁መብራት	-9174
▁አርአያ	-9175
▁የተነሱ	-9176
▁የበርካታ	-9177
ሰፋ	-9178
▁በመፍ	-9179
▁እስቲ	-9180
▁የንግ	-9181
▁ይጠብ	-9182
▁ተቋርጦ	-9183
▁ከተማ፣	-9184
▁ከፍተኛው	-9185
ይስ	-9186
▁ሂሳ	-9187
▁ተረ	-9188
▁ለግል	-9189
▁ረዥም	-9190
▁ቁጠባ	-9191
▁በአት	-9192
▁አራቱ	-9193
▁ለማዋል	-9194
▁ርዝመት	-9195
▁ትልቁን	-9196
▁በቅንጅት	-9197
▁ተቆጣጣሪ	-9198
▁የሚመሩት	-9199
▁የማሀበራዊ	-9200
ሏት	-9201
ፁህ	-9202
ኚዎች	-9203
▁ጭብ	-9204
▁ከዛሬ	-9205
▁ዜናዊ	-9206
▁የፍፁም	-9207
▁ለማክበር	-9208
ለጠነ	-9209
▁ገዥው	-9210
▁ሰጪዎች	-9211
▁አመታትን	-9212
▁ተጠያቂነት	-9213
▁እንዲሰጠው	-9214
▁ይኖርባቸዋል	-9215
ቸግ	-9216
ኔን	-9217
ክላ	-9218
ልበት	-9219
ሳይም	-9220
ቋቋመ	-9221
ነቷን	-9222
▁ተስ	-9223
▁ፓት	-9224
▁የኋላ	-9225
▁የግዥ	-9226
▁ፊደል	-9227
▁ምልልስ	-9228
▁ተቋቁሞ	-9229
▁ተባባሪ	-9230
▁ገብነት	-9231
▁ይገባዋል	-9232
▁ተቆ	-9233
▁ዘረ	-9234
ሪያቸው	-9235
ከተሉት	-9236
▁አንተም	-9237
▁ኮማንደር	-9238
▁ወርቅነህ	-9239
▁የተነሳው	-9240
ወች	-9241
ከፈቱ	-9242
ጎበኙ	-9243
▁ያሳስ	-9244
▁ምስረታ	-9245
▁በልማት	-9246
▁በተያዘ	-9247
▁ባህልና	-9248
▁የተነገረ	-9249
▁ክላ	-9250
▁ካውን	-9251
▁አውቶቡ	-9252
▁የዚህን	-9253
▁የጨዋታው	-9254
ሚሽኑ	-9255
ዳኖስ	-9256
▁አሳድ	-9257
▁ሀይልና	-9258
▁የተመዘገበ	-9259
▁ሽብርተኝነት	-9260
ኖቬ	-9261
ሰረዝ	-9262
▁በምስ	-9263
▁ትረምፕ	-9264
▁ነገስት	-9265
▁ከቡድኑ	-9266
▁የተመድ	-9267
▁በእውነት	-9268
▁ተጀምሯል	-9269
▁ወረርሽኙ	-9270
▁ፈፅመዋል	-9271
ሙም	-9272
ክም	-9273
ታደር	-9274
▁አብራ	-9275
▁አወጣ	-9276
▁ከሰው	-9277
▁ተእለት	-9278
▁የተሻገረ	-9279
▁የሚመለከት	-9280
ርሻ	-9281
ከረው	-9282
▁ርቀ	-9283
▁ማንበብ	-9284
▁አበረታች	-9285
▁የሶማሊያ	-9286
▁ለመተግበር	-9287
ድማ	-9288
ለውጡ	-9289
ወሰደው	-9290
▁ሊባል	-9291
▁መገር	-9292
▁በቡድን	-9293
▁ይሰጣሉ	-9294
▁በመቶውን	-9295
▁የተመረጡ	-9296
▁የተደነገ	-9297
በሰ	-9298
ጠመ	-9299
▁ይመለ	-9300
ገለፀው፣	-9301
▁አፋጣኝ	-9302
▁ተዘጋጅቶ	-9303
▁ከስምምነት	-9304
▁ከአካባቢው	-9305
▁እንደሌለበት	-9306
ጓዳኝ	-9307
▁ፍላ	-9308
ንዛኒያ	-9309
▁ስልጣንና	-9310
▁በጎንደር	-9311
▁ተለይተው	-9312
▁ኤርፖርት	-9313
▁ተግዳሮቶች	-9314
▁የተፈናቀሉ	-9315
ምጣ	-9316
ስልምና	-9317
▁ታወቀ	-9318
▁የመሆን	-9319
▁እንፈልጋለን	-9320
▁ኡመር	-9321
▁መምጣቱ	-9322
▁በግድቡ	-9323
▁የደመወዝ	-9324
▁እንዲመለስ	-9325
አተ	-9326
▁41	-9327
ቀጥለው	-9328
ጫወተው	-9329
▁መማር	-9330
▁ይነሳ	-9331
▁ይረዳል	-9332
▁በመሆኑና	-9333
▁በመፈፀም	-9334
▁ከመስጠት	-9335
▁ማሀበረሰቡ	-9336
▁እንድትሆን	-9337
ማጅ	-9338
ሻሻያ	-9339
ይንግ	-9340
ጓጓዣ	-9341
▁አየለ	-9342
▁ወኪል	-9343
▁ድርድ	-9344
▁ተወላጅ	-9345
▁ከሰአት	-9346
▁የአቅም	-9347
▁ዴኤታው	-9348
▁ማቋቋሚያ	-9349
▁በመውጣት	-9350
▁እንዲፈፀም	-9351
ንኮች	-9352
▁ልኡል	-9353
ስተዳደሩ	-9354
▁እንደሚጀምር	-9355
ርዶ	-9356
ቆጥር	-9357
ፋትና	-9358
▁ዲያ	-9359
▁መመዝ	-9360
▁እናው	-9361
▁በአዋጁ	-9362
▁ባህርይ	-9363
▁አልቻል	-9364
▁መክረዋል	-9365
▁በዩኒቨርሲቲ	-9366
ታ፣	-9367
ነጥብ	-9368
▁ቁጣ	-9369
▁መስኮት	-9370
▁እወዳለሁ	-9371
▁የወጣቶች	-9372
▁በአሰልጣኝ	-9373
▁አስታውሷል	-9374
▁ኢትዮጵያ፣	-9375
ሚር	-9376
ሙትን	-9377
ሞክር	-9378
ቅተኛ	-9379
ትከል	-9380
▁ጣፋጭ	-9381
▁የቁጥጥር	-9382
▁ለማገልገል	-9383
ባው	-9384
ምቢያ	-9385
በውን	-9386
ፀባር	-9387
▁ሀጢአ	-9388
▁ጃፓን	-9389
▁መግለፅ	-9390
▁በህዳሴ	-9391
▁አነጋግ	-9392
▁ጌታነህ	-9393
▁በኢንተር	-9394
▁የሚችሉበት	-9395
▁የሚገኙትን	-9396
78	-9397
ማማች	-9398
▁ማዘ	-9399
▁ስዊ	-9400
▁መለሰ	-9401
▁ተረድ	-9402
▁እንዲል	-9403
▁የምድብ	-9404
ሞ፣	-9405
▁ይይ	-9406
▁ልደት	-9407
▁መቀጠ	-9408
▁ከቫይረሱ	-9409
▁ኮንግረስ	-9410
▁መያዛቸውን	-9411
ላተ	-9412
▁ሽጉ	-9413
▁ሶፍት	-9414
▁ተሻጋሪ	-9415
▁ለመጨረሻ	-9416
▁በመጫወት	-9417
▁በማግኘት	-9418
▁የልኡካን	-9419
▁የእርዳታ	-9420
ልቶ	-9421
ሱ፣	-9422
ጠሎ	-9423
▁እኮ	-9424
ምግባር	-9425
▁ልኡክ	-9426
▁ደደቢ	-9427
▁ለማገዝ	-9428
▁በድርጅቱ	-9429
▁እንዳለበትም	-9430
44	-9431
63	-9432
ቅ፣	-9433
ግቡ	-9434
ችልበት	-9435
▁የፕላ	-9436
▁አለመኖር	-9437
▁የዳኝነት	-9438
ገቢያ	-9439
▁ይሻ	-9440
▁ማሽን	-9441
▁ፖስት	-9442
▁የሚፈልግ	-9443
▁የወላይታ	-9444
▁ገልፀው፤	-9445
▁ተፈናቃዮች	-9446
▁መግለፃቸውን	-9447
ረሪ	-9448
ጅን	-9449
▁ሮም	-9450
▁የጫ	-9451
▁ፍጥ	-9452
ጁንታው	-9453
▁በማጣ	-9454
▁ትገኛለች	-9455
▁አስመልክተው	-9456
ቪክ	-9457
ስቷል	-9458
ፌሰር	-9459
▁ሹም	-9460
▁ከሙ	-9461
▁ድንኳ	-9462
▁ለመሸጥ	-9463
▁በእድሜ	-9464
▁ያምናሉ	-9465
▁ግለሰቡ	-9466
▁በመከተል	-9467
▁ከኤርትራ	-9468
▁ግለሰቦችን	-9469
▁እንደሚያሳየው	-9470
ፍጨ	-9471
ይይቱ	-9472
▁ከየት	-9473
▁ያልታ	-9474
▁የሀሳብ	-9475
▁የረጅም	-9476
▁አሰራሮች	-9477
▁ክስተቶች	-9478
▁የተቀመጠ	-9479
▁የፅህፈት	-9480
▁ለማስቀረት	-9481
▁የፕሮጀክቱ	-9482
▁የተመለከተው	-9483
ፃፉት	-9484
▁ማማ	-9485
▁ጥቂ	-9486
▁ሲወጣ	-9487
▁ለሁለቱ	-9488
▁በጥናቱ	-9489
▁አልፈው	-9490
▁ያሳያሉ	-9491
▁የሚነገር	-9492
▁ያመለከቱት	-9493
ሰላ	-9494
▁ለመዋ	-9495
▁ለዋልታ	-9496
▁ማሽኖች	-9497
▁የወረዳ	-9498
▁ያካትታል	-9499
▁ታዬ	-9500
▁ኦፊ	-9501
▁ልማት፣	-9502
▁አበባን	-9503
▁የባንኩን	-9504
▁በተከሰተው	-9505
▁የሚችልበት	-9506
▁በእግዚአብሄር	-9507
▁ትምህርታቸውን	-9508
ቶሪ	-9509
ፍሮ	-9510
▁ዱቄ	-9511
ንድስና	-9512
▁በደን	-9513
ሬዚዳንቱ	-9514
▁አሳዛኝ	-9515
▁በእርግጥም	-9516
ሽር	-9517
ልናል	-9518
▁እሸቱ	-9519
▁ልጆችን	-9520
▁አመላካ	-9521
▁ለመምራት	-9522
▁በመጠበቅ	-9523
▁አቡበከር	-9524
▁ወዳጅነት	-9525
▁የተመዘገቡ	-9526
▁ዲፕሎማሲያዊ	-9527
ዥው	-9528
ሻሻሉ	-9529
▁የዛ	-9530
▁ኢዮብ	-9531
▁የታየ	-9532
ታወቁት፣	-9533
▁ከያህዌ	-9534
▁ገቢዎች	-9535
▁እስረኞች	-9536
▁ታም	-9537
▁መዝና	-9538
▁በኒው	-9539
▁መሰራት	-9540
▁አይደለ	-9541
▁ወጪዎች	-9542
▁የሚፈፅ	-9543
▁የሪፖርተር	-9544
▁የዲፕሎማሲ	-9545
ካትት	-9546
▁ተመን	-9547
▁አማር	-9548
▁አውጪ	-9549
▁ግኝት	-9550
▁ካደረጉ	-9551
▁ክረምት	-9552
▁የማቅረብ	-9553
▁ሳላ	-9554
▁አቋር	-9555
▁ከሌላ	-9556
▁ከተባለ	-9557
▁ዳግመኛ	-9558
▁ነበረበት	-9559
ማቱ	-9560
▁ለሙ	-9561
▁ሹመ	-9562
▁ከሩ	-9563
ገለገሉ	-9564
▁ጥላቻ	-9565
▁ካደረገ	-9566
▁በሰብአዊ	-9567
▁በዘንድሮ	-9568
▁የተወሰደ	-9569
▁በመመስረት	-9570
▁ያቀረቡትን	-9571
ሬም	-9572
ተራ	-9573
▁ኢም	-9574
ባሳደር	-9575
▁መዝገ	-9576
▁ሆስፒታ	-9577
▁መስማት	-9578
▁ምኒልክ	-9579
▁ብጥብጥ	-9580
▁በመምጣት	-9581
▁አመላክቷል	-9582
ቴር	-9583
ቻች	-9584
▁ቀል	-9585
▁ናስር	-9586
ደርጋቸው	-9587
▁ህይወቱ	-9588
▁ሰውነት	-9589
▁እንደዘ	-9590
▁ዘዴዎች	-9591
▁ጀነራል	-9592
▁ታይተዋል	-9593
ራባች	-9594
ኞቻችን	-9595
ዋሪዎች	-9596
▁በጅማ	-9597
▁ተጥሎ	-9598
▁ቁርጠኛ	-9599
▁ያገኙት	-9600
▁የሚሰራው	-9601
▁አመሰግናለሁ	-9602
ፎቹ	-9603
▁ከቆ	-9604
▁ግጥ	-9605
ገናኘው	-9606
▁የሚዘ	-9607
▁ቅዱሳን	-9608
▁በምግብ	-9609
▁አደጋው	-9610
▁በደረሰው	-9611
▁መስተዳድሩ	-9612
▁ከፊት	-9613
▁ምርቱን	-9614
▁መስፋፋት	-9615
▁ስርጭትን	-9616
▁በሚደረግ	-9617
▁በዝግጅት	-9618
ደመ	-9619
፤በ	-9620
ሉንም	-9621
ግጅጋ	-9622
▁ቢታ	-9623
▁ገድ	-9624
2003	-9625
▁ካፒታ	-9626
ልተኝነት	-9627
▁ቢሆኑም	-9628
ነቁ	-9629
ሩንዲ	-9630
ለንደን	-9631
▁በቶሎ	-9632
▁የተተ	-9633
▁የንጉ	-9634
▁ተለያይ	-9635
▁ፋውንዴ	-9636
▁ለማስጀመር	-9637
▁አልተቻለም	-9638
▁የተቀመጠው	-9639
ጋር	-9640
ሁለት	-9641
ገደሉ	-9642
▁ሀላ	-9643
▁ተው	-9644
▁ጀግ	-9645
▁የኪራይ	-9646
▁ገንዘቡ	-9647
ፍቲ	-9648
፣የ	-9649
ገነዘብ	-9650
▁የመዋ	-9651
▁የጅማ	-9652
▁ላኪዎች	-9653
▁የተፈቀደ	-9654
▁የተገኘባቸው	-9655
▁ከሽ	-9656
ፍትሀዊ	-9657
▁መከተል	-9658
▁ማጣራት	-9659
▁ሲያጋጥ	-9660
▁በሰዎች	-9661
▁በደረጃ	-9662
▁መመስረት	-9663
▁ቀርበዋል	-9664
▁አገልጋይ	-9665
▁እየተንቀሳቀሰ	-9666
ወን	-9667
ዶም	-9668
ጪዎቹ	-9669
▁ከሊ	-9670
▁የበር	-9671
▁ፋንታ	-9672
▁ልማቶች	-9673
▁በማግኘ	-9674
▁በኢትዮ	-9675
▁ቢደረግ	-9676
▁ለመወሰን	-9677
▁በድንገት	-9678
▁እስክንድር	-9679
ራዩ	-9680
ዩቱ	-9681
ለፈው	-9682
ቶችንና	-9683
▁በሳይ	-9684
▁በየእ	-9685
▁አምጥ	-9686
▁ጥቃቱ	-9687
▁እያሳየ	-9688
▁የወንድ	-9689
▁ፓርቲዎቹ	-9690
195	-9691
▁ምና	-9692
▁ሳኒ	-9693
▁ሀጫሉ	-9694
▁እሳቤ	-9695
ሞክራቲክ	-9696
▁ድጋፍና	-9697
አክ	-9698
▁ተጫዋቾ	-9699
▁ለማስፈን	-9700
▁በመካከለኛው	-9701
▁የአካባቢውን	-9702
▁ጠረ	-9703
ፈፃፀም	-9704
▁በዞኑ	-9705
▁አህጉ	-9706
▁የጋዜ	-9707
▁ለውጡን	-9708
▁ፈጥሯል	-9709
▁የቫይረሱ	-9710
▁ተጠርጣሪው	-9711
▁አመራሮችን	-9712
▁የአንድነት	-9713
ሰላም	-9714
አዴን	-9715
▁ይጠ	-9716
▁ተኩል	-9717
▁ታውቃ	-9718
▁ማመላለ	-9719
▁ተከታት	-9720
▁ማመልከቻ	-9721
▁አስተናጋ	-9722
▁የኩባንያ	-9723
▁እንደሚከተለው	-9724
72	-9725
ፈጥሩ	-9726
▁ፈት	-9727
ንቀሳቅ	-9728
▁በጋዜ	-9729
▁ንጥረ	-9730
▁ኤንድ	-9731
▁ከመቼ	-9732
▁የሌላ	-9733
▁ለሰላም	-9734
▁በቀረበ	-9735
▁ቴድሮስ	-9736
▁ጥቅሞች	-9737
▁በመቀነስ	-9738
▁አጋርነት	-9739
▁ኢኮኖሚው	-9740
▁የቱሪስት	-9741
▁በተዘጋጀው	-9742
▁ኢየሩሳሌም	-9743
▁የኮሙዩኒኬሽን	-9744
ካድ	-9745
ለኞች	-9746
ቱን፣	-9747
ጋዮች	-9748
መለክት	-9749
▁ለምር	-9750
▁ተካሂዶ	-9751
▁ካለፉት	-9752
▁አላውቅም	-9753
▁አሳልፏል	-9754
▁የዘንድሮ	-9755
▁ማስተካከል	-9756
▁በፈረንሳይ	-9757
▁አስቀምጧል	-9758
62	-9759
ጢአት	-9760
▁58	-9761
▁ከሞት	-9762
▁ጃዋር	-9763
▁በውይይ	-9764
▁እንዲቻል	-9765
▁ከመስከረም	-9766
ሎችና	-9767
▁ካምፓ	-9768
▁የሚነ	-9769
▁የወል	-9770
▁በተቃራኒ	-9771
ሱና	-9772
▁በሻ	-9773
▁በና	-9774
▁2020	-9775
▁ምርትና	-9776
▁የአፋር	-9777
▁የሚፈፀም	-9778
▁ዋሽንግተን	-9779
▁የነበረበት	-9780
ራህ	-9781
ቡል	-9782
▁ዋል	-9783
▁ዳቦ	-9784
▁ስርወ	-9785
▁ዘይቤ	-9786
▁ግጭቱ	-9787
▁ለመኖር	-9788
▁ቁሳቁስ	-9789
▁የመግባ	-9790
▁በክልሎች	-9791
▁ዝርያዎች	-9792
▁አካባቢውን	-9793
ፎቶ	-9794
ልተን	-9795
▁መኩ	-9796
ገኝበት	-9797
▁ወንጌ	-9798
▁መቆጣጠሪያ	-9799
▁በሚያደርጉት	-9800
49	-9801
ሊስት	-9802
▁ወግ	-9803
▁የሚጥ	-9804
▁ተቀምጦ	-9805
▁ተአማኒ	-9806
▁እዚያው	-9807
▁እየሰጡ	-9808
▁የምጣኔ	-9809
▁ክፍሎችን	-9810
▁ይጨምራል	-9811
▁ምስክርነት	-9812
▁የገንዘብና	-9813
▁በእንግሊዝኛ	-9814
▁መሳይ	-9815
▁ተኩስ	-9816
▁የካሳ	-9817
▁ሪፎርም	-9818
▁የሚረዱ	-9819
▁እንዲመጣ	-9820
▁እንዳላት	-9821
▁ከሚገኙት	-9822
▁ማለታቸውን	-9823
ፀዳ	-9824
?""	-9825
ንያም	-9826
▁በሰኔ	-9827
▁የሚጠጋ	-9828
▁ባይሆንም	-9829
ቂኝ	-9830
ያና	-9831
ላይን	-9832
ንግሊ	-9833
ደረው	-9834
▁የኡ	-9835
ክተዋል	-9836
▁ይሰጥ	-9837
ጊዮርጊስ	-9838
▁ስርአተ	-9839
▁የህንድ	-9840
▁ያሉበት	-9841
▁ከአገሪቱ	-9842
ደመው	-9843
ገራቱ	-9844
▁ጎሳ	-9845
ላይነት	-9846
ምቦልቻ	-9847
▁ዋልታ	-9848
▁ሳንቲም	-9849
▁ገልፆ፣	-9850
▁መታሰቢያ	-9851
▁እየተከናወኑ	-9852
▁የመንግስትና	-9853
ሌይ	-9854
ትስ	-9855
ዚል	-9856
ሰብል	-9857
▁ለድ	-9858
▁ከሌላው	-9859
▁የቦርዱ	-9860
▁በማለትም	-9861
▁ቅኝ	-9862
▁ሀውስ	-9863
▁ኮቪድ	-9864
በራቸውን	-9865
▁ሀሳብን	-9866
▁አለምን	-9867
▁ለማሸነፍ	-9868
▁በቋሚነት	-9869
▁የማሀበሩ	-9870
▁አላስፈላጊ	-9871
▁ዩኒቨርሲቲው	-9872
▁እንቅስቃሴዎችን	-9873
ብራት	-9874
▁ሻይ	-9875
▁ትሬ	-9876
▁ድግ	-9877
▁ማጣት	-9878
በረሰቦች	-9879
▁በብቃት	-9880
▁አውቃለሁ	-9881
▁እንዲቆም	-9882
▁የስድስት	-9883
31	-9884
ናዊው	-9885
1892	-9886
▁ተለዋጭ	-9887
▁አጠናቆ	-9888
▁ጌትነት	-9889
▁መካከልም	-9890
69	-9891
ረቤ	-9892
ከአ	-9893
ደርግም	-9894
▁ትጥቅ	-9895
▁ክርክ	-9896
▁ድብደባ	-9897
▁አፍሪካን	-9898
▁የአማካይ	-9899
▁ያስቆጠረው	-9900
▁እንቅስቃሴን	-9901
▁ባዶ	-9902
▁ዘለ	-9903
▁ለወጣ	-9904
▁መዋጮ	-9905
▁ማራኪ	-9906
▁ስሁል	-9907
▁በተወ	-9908
▁እንቁ	-9909
▁የማጣ	-9910
▁ማክበር	-9911
▁ትንቢት	-9912
▁ለአምስት	-9913
▁መጠበቂያ	-9914
▁ስደተኞችን	-9915
▁የኢትዮጵያና	-9916
ካው	-9917
ፈናቀ	-9918
ለመደው	-9919
▁ሙቀት	-9920
▁ተዋና	-9921
▁የክል	-9922
▁ማልማት	-9923
▁ተከናው	-9924
▁የመማር	-9925
ባለች	-9926
2020	-9927
ሰረታዊ	-9928
▁መከበር	-9929
▁ተይዘው	-9930
▁ከሀምሌ	-9931
▁ለሶስተኛ	-9932
▁ማገልገል	-9933
▁በተወሰኑ	-9934
▁ዘገባዎች	-9935
▁እንደነበረው	-9936
▁እንዳደረገው	-9937
ቡም	-9938
ሸባብ	-9939
ፋጠን	-9940
▁ያመጣ	-9941
▁ገንዘቡን	-9942
▁የሚመለከተው	-9943
▁የማህበረሰብ	-9944
ረቱ	-9945
ሪዝ	-9946
ጎና	-9947
ስቱን	-9948
▁ተሰና	-9949
▁አባጅ	-9950
ርባምንጭ	-9951
▁ለልማት	-9952
▁በሰማይ	-9953
▁ችለናል	-9954
▁ያደረጉትን	-9955
▁እንዳስታወቁት፣	-9956
ጠቀሱ	-9957
▁በሄ	-9958
▁ትዝ	-9959
ሚኒስት	-9960
▁ሞተር	-9961
▁ሲልም	-9962
▁እንዷ	-9963
▁ዝርጋ	-9964
▁ጥቅል	-9965
▁በመግባ	-9966
▁አስመጪ	-9967
▁ሲያገለግሉ	-9968
ውንድ	-9969
▁ድራ	-9970
▁ደሀን	-9971
▁በቁጥር	-9972
▁አድርጓ	-9973
▁ተከላካዩ	-9974
▁መመሪያዎች	-9975
▁እንደማይችሉ	-9976
▁ያድርጉፈጣን	-9977
ሲስ	-9978
ምንም	-9979
ሳለች	-9980
ገረው	-9981
ሻሻለው	-9982
▁ነገድ	-9983
▁አምር	-9984
▁ምንዛሬ	-9985
▁በአንዱ	-9986
ጠናክር	-9987
▁ማነቆ	-9988
▁ተርታ	-9989
▁ምልከታ	-9990
▁አስርት	-9991
▁ነገርግን	-9992
▁ያለፉትን	-9993
▁በፕሬዚዳንት	-9994
ሏን	-9995
ኛ፦	-9996
ላላፊ	-9997
መድን	-9998
ሽንና	-9999
▁ግንብ	-10000
▁አቀረበ	-10001
ማኝ	-10002
ፅር	-10003
ማውን	-10004
ካሂዱ	-10005
▁ለዋ	-10006
2019	-10007
▁ኦነግ	-10008
▁ማራቶን	-10009
▁ስነስር	-10010
▁አቀባዩ	-10011
▁ሰነዶችን	-10012
▁ለአብነትም	-10013
ኖራት	-10014
ወደው	-10015
0000	-10016
1997	-10017
▁ንጉሰ	-10018
▁አማረ	-10019
▁ወይን	-10020
▁ሊቀመንበሩ	-10021
▁ሲንቀሳቀሱ	-10022
▁በአገልግሎት	-10023
የል	-10024
በረከ	-10025
▁መሄ	-10026
▁ፎቅ	-10027
▁ለቀው	-10028
▁ክሱን	-10029
▁መመስረ	-10030
▁በቀድሞው	-10031
▁በግንባታ	-10032
▁ማሻሻያዎች	-10033
▁ፕሬዝደንት	-10034
▁ማስተባበሪያ	-10035
▁በመሆናቸው፣	-10036
▁ተሽከርካሪዎችን	-10037
ደበኛ	-10038
ፆችን	-10039
▁በየት	-10040
▁ዲዛይ	-10041
▁መቅደስ	-10042
▁በሽብር	-10043
▁አስገድ	-10044
▁እንዲፈቀድ	-10045
▁ይገኝበታል	-10046
ገባደጃ	-10047
▁እኛን	-10048
▁የገዛ	-10049
▁መጠሪያ	-10050
▁ማህበሩ	-10051
▁ቀሪዎቹ	-10052
▁ከወራት	-10053
▁ስለሚችል	-10054
▁በፌስቡክ	-10055
▁እየቀነሰ	-10056
ኦኤ	-10057
ዝ፣	-10058
ዟቸው	-10059
ደረስ	-10060
ግጅት	-10061
▁መሸፈኛ	-10062
▁አብዱላ	-10063
▁ጣሊያን	-10064
ራፌል	-10065
ደሰት	-10066
▁ቁም	-10067
▁ፈለ	-10068
ኖረውም	-10069
▁በብር	-10070
▁በገዛ	-10071
▁ከአንተ	-10072
▁የመብት	-10073
▁ያለፈው	-10074
▁የሚያስተዳ	-10075
ቶት	-10076
▁ትችት	-10077
▁ኢንጅ	-10078
▁የሚጋ	-10079
ገኘባቸው	-10080
▁ንፁሀን	-10081
▁አልያም	-10082
▁የአበባ	-10083
▁ሏላዊነት	-10084
▁ማድረግ፣	-10085
▁ዲሞክራሲያዊ	-10086
ሽሎ	-10087
▁57	-10088
▁ትራ	-10089
▁ጨም	-10090
ንደኛው	-10091
▁ብለህ	-10092
▁እናስ	-10093
▁የማይታ	-10094
▁ይኖራሉ	-10095
▁ባለሀብት	-10096
▁ተሳትፈዋል	-10097
▁ውሳኔዎችን	-10098
▁በኢየሩሳሌም	-10099
▁በኢንቨስትመንት	-10100
ዝቀ	-10101
▁ተጎጂ	-10102
▁ዋጋው	-10103
▁የወን	-10104
▁ደበበ	-10105
▁አባባል	-10106
▁ከባህር	-10107
▁ማስተዋል	-10108
▁የላቸውም	-10109
▁የመሪዎች	-10110
▁ከትምህርት	-10111
▁ድርጅቶችና	-10112
ታም	-10113
ዚን	-10114
▁መለወጥ	-10115
▁መርከብ	-10116
ለዩ	-10117
ቀፉ	-10118
በረው	-10119
▁መጡ	-10120
▁ቀነ	-10121
▁ነዉ	-10122
ተስኖት	-10123
▁አሀዝ	-10124
▁ገነት	-10125
▁ጭነት	-10126
▁ሲገለፅ	-10127
▁ባልሆነ	-10128
▁መፈፀሙን	-10129
▁የተገነባ	-10130
.0	-10131
ከፈሉ	-10132
▁በፅኑ	-10133
▁ክሶች	-10134
▁ለማለፍ	-10135
▁ሲቀርብ	-10136
▁ካህናት	-10137
▁ለማስቆም	-10138
▁ትእግስት	-10139
▁እንዲሰማ	-10140
▁የተረጋጋ	-10141
▁ፍልስፍና	-10142
▁ወረርሽኝን	-10143
▁የተገነባው	-10144
▁እንደሚገባቸው	-10145
▁ኹ	-10146
▁ሰበብ	-10147
▁በአባ	-10148
▁የማዳ	-10149
▁ከሜዳው	-10150
▁ተፈጥሯዊ	-10151
ቀኝ	-10152
ከብሩ	-10153
▁አሶ	-10154
▁ይኼን	-10155
▁በቀዳሚ	-10156
▁ክብደት	-10157
▁ዮናታን	-10158
▁መኖራቸው	-10159
▁በሽታዎች	-10160
▁በተመለከተም	-10161
ኗኗ	-10162
ውተር	-10163
▁ሬድ	-10164
▁ተጓ	-10165
▁ተገዷል	-10166
▁አመትም	-10167
ናና	-10168
▁ጄኔ	-10169
▁በድረ	-10170
▁የግለ	-10171
▁ፈጥሮ	-10172
▁አዋሳኝ	-10173
▁መጨረሻው	-10174
▁ተቋማት፣	-10175
▁በአነስተኛ	-10176
▁የሚታየውን	-10177
▁የአሰልጣኝ	-10178
ይር	-10179
▁የያ	-10180
▁ወረቀ	-10181
▁ልማትን	-10182
▁አለምአቀፍ	-10183
▁አስተዳደሮች	-10184
ችኹ	-10185
ግስቱ	-10186
ጠቅም	-10187
▁ዝንባ	-10188
▁ማቋቋም	-10189
▁የታሰሩ	-10190
▁የማንነት	-10191
▁ማስረጃዎች	-10192
▁ፈጣ	-10193
▁ታደለ	-10194
▁ማንሳት	-10195
43	-10196
ቴው	-10197
▁ሰንሰ	-10198
▁ድረስ፣	-10199
▁ማዘጋጀት	-10200
▁አስተማሪ	-10201
▁እጃቸውን	-10202
▁የበኩላቸውን	-10203
ክ፣	-10204
▁መለዋ	-10205
▁መቆራ	-10206
▁እንሰራ	-10207
▁የሀሰት	-10208
▁በመምራት	-10209
▁የአሰልጣ	-10210
▁ቅሬታቸውን	-10211
▁ኢትዮጵያም	-10212
▁ይጎብኙ፤ተ	-10213
▁ሴክ	-10214
▁የቃ	-10215
ባልነት	-10216
ከራከሩ	-10217
▁ማለቱ	-10218
▁በቀይ	-10219
▁ብዙሀ	-10220
▁አሰጣ	-10221
▁ክፍሉ	-10222
▁ድሪባ	-10223
▁ሜዳሊያ	-10224
▁እንደርታ	-10225
▁አምባሳደሩ	-10226
▁እንዲቀጥሉ	-10227
ንገ	-10228
▁ቆሞ	-10229
▁ጃን	-10230
ሯቸውን	-10231
ሳሰሉት	-10232
▁ላልተ	-10233
▁በፕሮ	-10234
▁አወቃ	-10235
▁ከህገ	-10236
▁የዞኑ	-10237
▁በባንኩ	-10238
▁ዘላለም	-10239
▁በግንቦት	-10240
▁መንገደኞች	-10241
▁ማስተናገድ	-10242
▁የሳይንስና	-10243
ግሩ	-10244
ዋርያው	-10245
▁ሰርቶ	-10246
▁አሰል	-10247
▁ፍሬው	-10248
▁መለየት	-10249
▁እነርሱ	-10250
▁ኮማንድ	-10251
▁ለማንኛውም	-10252
▁በኬ	-10253
▁የክት	-10254
▁ይችል	-10255
▁መቆጠር	-10256
▁ተለይቶ	-10257
▁አከባቢ	-10258
▁የሚሰጡት	-10259
▁አግባብነት	-10260
▁ነብ	-10261
▁ሀኪም	-10262
▁አጣሪ	-10263
▁ፍንዳ	-10264
▁2000	-10265
▁መረጃን	-10266
▁ሲጠበቅ	-10267
▁በኩልም	-10268
▁ተፈናቅ	-10269
▁ለውጦችን	-10270
▁አፅንኦት	-10271
▁የጎደለው	-10272
▁ማስመዝገብ	-10273
▁እንደደረሰ	-10274
ከፈተ	-10275
ወሰነው	-10276
▁ሰይጣን	-10277
▁በየእለቱ	-10278
▁የሚያገኙ	-10279
▁የሚጠቀሙ	-10280
▁ማህበረሰቡ	-10281
▁እየተነገረ	-10282
▁ከእስራኤል	-10283
▁የሚያመለክ	-10284
ያ፣	-10285
ይንት	-10286
ጠሩት	-10287
▁ሲመ	-10288
▁በመሸ	-10289
▁ከግራ	-10290
ገራቸውን	-10291
▁አብያተ	-10292
▁የሚመሩ	-10293
▁ጥናታዊ	-10294
▁ግንባታና	-10295
ውድ	-10296
ሪያም	-10297
▁ለቀጣይ	-10298
▁አመላካች	-10299
▁ከጠቅላላ	-10300
▁ማቅረባቸውን	-10301
ሰመ	-10302
ብና	-10303
ለውጥ	-10304
▁ከዩ	-10305
ነኝነት	-10306
▁በወል	-10307
▁በገቢ	-10308
▁ለእነሱ	-10309
▁በረቂቁ	-10310
▁ከቀናት	-10311
▁ምርጫዎች	-10312
▁ያገኙትን	-10313
▁መዋላቸውን	-10314
ፈሩት	-10315
ባቢሎን	-10316
▁መቅደ	-10317
▁ስፍራው	-10318
▁በጊዜው	-10319
▁በፊትም	-10320
▁አስታውሰው፣	-10321
ሽታ	-10322
ክሌር	-10323
▁ልጄ	-10324
ወስደው	-10325
▁ደረጀ	-10326
▁በምርት	-10327
▁በደረሰ	-10328
▁ከሰባት	-10329
▁ጭንቀት	-10330
▁ማመላለሻ	-10331
ህ፣	-10332
ላጠ	-10333
ፃፉ	-10334
ከበረው	-10335
▁የቢሮ	-10336
ታቸውን፣	-10337
▁በየወሩ	-10338
▁ለማስቻል	-10339
▁መኮንኖች	-10340
▁ሚኒስቴርና	-10341
▁የደረሰባቸው	-10342
46	-10343
ዳግ	-10344
ጣና	-10345
ፋቱ	-10346
▁ምሀ	-10347
▁ችላ	-10348
▁ዮሀ	-10349
▁ጆሮ	-10350
2004	-10351
▁ካናዳ	-10352
▁ለክልሉ	-10353
▁ለጉዳዩ	-10354
▁በይሆዋ	-10355
▁የትኛው	-10356
▁ነጥቦችን	-10357
▁በማረጋገጥ	-10358
ቲቪ	-10359
ዳዲስ	-10360
ደርገውን	-10361
▁ለመሆኑ	-10362
▁ነበርና	-10363
▁በመጠቆም	-10364
▁ይጎብኙ፤ተንቀሳቃሽ	-10365
ጐች	-10366
ቢያን	-10367
▁ሊጉን	-10368
▁ከቀኝ	-10369
▁ጊዜን	-10370
▁አላማው	-10371
▁እሴቶች	-10372
▁ማስቀመጥ	-10373
▁እንደሆን	-10374
▁ከማንኛውም	-10375
▁ቤተሰቦቻቸው	-10376
ኪዮ	-10377
▁ቤትም	-10378
▁ለአራት	-10379
▁መካከል፣	-10380
▁የሀብረት	-10381
▁የተጀመሩ	-10382
▁የሰራተኞች	-10383
▁ይጠበቅባቸዋል	-10384
ሬቻ	-10385
ርኩ	-10386
ጃም	-10387
▁120	-10388
▁ማርያ	-10389
▁ተቃር	-10390
▁አይነ	-10391
▁አድሀ	-10392
▁ጥቅማ	-10393
▁ከመረብ	-10394
▁የሙቀት	-10395
▁የአይን	-10396
▁አፈፃፀሙ	-10397
85	-10398
ቀበሉት	-10399
▁ማርክ	-10400
▁ስራም	-10401
▁ከመጡ	-10402
▁ከቀኑ	-10403
▁ምግቦች	-10404
▁ከመሆን	-10405
▁በጥቅምት	-10406
▁ተመልከት	-10407
▁በስብሰባው	-10408
▁አፍሪካውያን	-10409
▁የተደረገውን	-10410
ሳና	-10411
ቆም፣	-10412
ቢዎች	-10413
▁ለመቅ	-10414
▁ቀልጣ	-10415
▁አስች	-10416
▁በሲዳማ	-10417
▁የሚሰበ	-10418
▁ከመቼውም	-10419
ሊጥ	-10420
ቻው	-10421
ዘጉ	-10422
ጃን	-10423
▁ከገ	-10424
ጠበቅም	-10425
▁ችግኝ	-10426
▁የተበ	-10427
▁መኪኖች	-10428
▁የፈፀሙ	-10429
▁በኢህአዴግ	-10430
▁ከነበረበት	-10431
ጎለ	-10432
ሳሪያ	-10433
ባቶች	-10434
▁ለፀ	-10435
▁ከይ	-10436
▁ሁንዴ	-10437
▁ተገም	-10438
▁ኮንቴ	-10439
▁ለሚለው	-10440
▁በየመን	-10441
▁ጦርነቱ	-10442
▁ለመታደግ	-10443
▁ስለሆነ፣	-10444
▁የተጠቀሰው	-10445
ግራት	-10446
▁ህሙ	-10447
▁ህያው	-10448
▁አደረ	-10449
▁በጥብቅ	-10450
▁ለዴሞክራሲ	-10451
▁የእግርኳስ	-10452
▁ግንኙነትና	-10453
ሚል	-10454
ጅሙ	-10455
ዝናኛ	-10456
▁ያበ	-10457
መዘገብ	-10458
▁እቅዶች	-10459
▁ህፃናትን	-10460
▁ስለነበረ	-10461
▁በሶስተኛ	-10462
▁አይኖርም	-10463
▁መንግስት፣	-10464
▁የፌ	-10465
▁ሀዲያ	-10466
▁ተርሚ	-10467
▁የአገ	-10468
▁የዋና	-10469
▁ለመናገር	-10470
▁በሳምንቱ	-10471
▁ለመመ	-10472
▁ችሎቱ	-10473
▁ገልፃ	-10474
▁ሂደቶች	-10475
▁ማቆሚያ	-10476
▁ስለሆኑ	-10477
▁የብረት	-10478
▁አድናቆት	-10479
ኒስ	-10480
መልካ	-10481
ሰኞቹ	-10482
ሳካም	-10483
▁ከቁ	-10484
ሰልጠን	-10485
ኢህዴን	-10486
▁መቆም	-10487
▁ተወካ	-10488
▁ፈቃዱ	-10489
ኢህአዴግ	-10490
▁ታምራት	-10491
▁አሰቃቂ	-10492
▁የአስር	-10493
▁ይሆናል፤	-10494
▁የማእከላዊ	-10495
▁ፕሮጀክቱን	-10496
ሟን	-10497
▁ቢቂ	-10498
▁ግሎ	-10499
▁ሜጀር	-10500
▁ይመጣ	-10501
▁ሀይለኛ	-10502
▁በመኖሩ	-10503
▁ጎረቤት	-10504
▁የተጠርጣሪ	-10505
ዘገ	-10506
▁ጩ	-10507
ቅደው	-10508
▁በጅ	-10509
▁ያፀ	-10510
መርመር	-10511
▁መፍጠ	-10512
▁ማሽነ	-10513
▁ለሚሆኑ	-10514
▁ስምሪት	-10515
▁አመራሩ	-10516
▁ይጠናቀ	-10517
▁በግንባር	-10518
ፕቴ	-10519
▁ብዛ	-10520
▁ከምት	-10521
▁የእዳ	-10522
▁አለቆች	-10523
▁ከአማራ	-10524
▁ለማስፋት	-10525
▁ያብራራል	-10526
▁ኮንትራክተሮች	-10527
መጠ	-10528
ፈቀደው	-10529
▁ማለፉ	-10530
▁ከተማና	-10531
▁የሰነድ	-10532
▁የአራት	-10533
ደረግባቸው	-10534
▁በመንፈስ	-10535
▁የሚያረጋግጥ	-10536
መተ	-10537
ነነ	-10538
ልክት	-10539
▁ውጣ	-10540
▁ጂኦ	-10541
▁ፊሊ	-10542
የታቸው	-10543
▁ሊያሳ	-10544
▁ወልዴ	-10545
▁ብሄራት	-10546
▁አዳጋች	-10547
▁የማስፋፊያ	-10548
▁ሟ	-10549
▁ጡ	-10550
▁ሙሳ	-10551
▁ጠጅ	-10552
እነዚህ	-10553
▁ክፉኛ	-10554
▁ሲናገር	-10555
▁አብዮት	-10556
▁አውራጃ	-10557
▁ወስዷል	-10558
▁ዝንባሌ	-10559
▁የጀመሩ	-10560
▁እየወሰደ	-10561
▁ያሳለፈው	-10562
▁የሚያሳየው	-10563
▁የተናገረው	-10564
▁ለእያንዳንዱ	-10565
▁እንደሚፈጥር	-10566
መደው	-10567
ራችሁ	-10568
ነኛነት	-10569
▁ለህል	-10570
▁ይጫወ	-10571
▁ግደይ	-10572
▁ካለበት	-10573
▁ለእርስዎ	-10574
▁ለእናንተ	-10575
▁ማናቸውም	-10576
▁ተመልካች	-10577
▁በመገንዘብ	-10578
▁78	-10579
▁ከአን	-10580
▁የሚን	-10581
▁የሚው	-10582
▁እስኪያ	-10583
▁የራሳቸው	-10584
▁ባለሜዳዎቹ	-10585
▁የፕሪምየር	-10586
42	-10587
ሙበት	-10588
▁ደሴት	-10589
▁ሲደርሱ	-10590
▁ሳይቆይ	-10591
▁በገጠር	-10592
▁አጥቂዎች	-10593
▁የድርድር	-10594
ረካ	-10595
ካፋ	-10596
▁ለጎ	-10597
ጠናቀቂያ	-10598
▁እንዲመ	-10599
▁ኔትወርክ	-10600
▁ያገለገሉ	-10601
▁ደርሰዋል	-10602
ረቡ	-10603
ኖተ	-10604
ዋቱ	-10605
ሊፎር	-10606
▁ማወ	-10607
▁ሸኔ	-10608
▁ታሪፍ	-10609
▁እንጀ	-10610
▁ውለው	-10611
▁ለሆኑት	-10612
▁የቋንቋ	-10613
▁የተፃፈ	-10614
▁ደረሰኝ	-10615
▁አስባለሁ	-10616
▁በበላይነት	-10617
▁የቴሌቪዥን	-10618
▁በመንግስትና	-10619
ተሩ	-10620
▁ያዋ	-10621
▁ጠፍ	-10622
ዋቸዋል	-10623
▁ሀሳቡ	-10624
▁እጁን	-10625
▁በጨረታ	-10626
▁ቢኖርም	-10627
ሀቅ	-10628
▁ህሊና	-10629
▁በምታ	-10630
▁ሚዛናዊ	-10631
▁ተደረገ	-10632
▁አላገኘ	-10633
▁የለም፤	-10634
▁ሀላፊዎቹ	-10635
▁የመስራት	-10636
▁በማከናወን	-10637
ኢማ	-10638
▁ስመ	-10639
ኖርበት	-10640
▁ህፃን	-10641
▁ቃሊቲ	-10642
▁በህጉ	-10643
▁ይታይ	-10644
▁ሊካሄድ	-10645
▁ልኡካን	-10646
▁በጂቡቲ	-10647
▁የህዝብና	-10648
▁የተቀማጭ	-10649
ነፃ	-10650
ክሬን	-10651
ግራፍ	-10652
▁ባያ	-10653
▁ተጫ	-10654
ሎምፒክ	-10655
ረጃጅም	-10656
▁ተከራ	-10657
▁ተፈሪ	-10658
▁ከግል	-10659
▁ድህረ	-10660
▁በምንም	-10661
▁ተነጋግ	-10662
▁ያሳለፈ	-10663
▁እንዳብራ	-10664
▁የተገነቡ	-10665
ስራኤላውያን	-10666
3)	-10667
▁አመስግ	-10668
▁ከቀረጥ	-10669
▁የበለፀ	-10670
▁በኤሌክትሪክ	-10671
▁የጌ	-10672
ሰበሰቡ	-10673
▁አካሄ	-10674
▁የፆታ	-10675
▁ሰንደቅ	-10676
▁ተመላክ	-10677
▁ተገልፆ	-10678
▁ጥርጥር	-10679
▁መንገዱን	-10680
▁አገራችን	-10681
▁ፍላጎቶች	-10682
▁ባስተላለፉት	-10683
▁እንደገለፀው	-10684
ብንም	-10685
ደባባይ	-10686
▁ማቆም	-10687
▁በበጎ	-10688
▁በግሉ	-10689
▁የታዩ	-10690
▁ጨርሶ	-10691
▁ሮበርት	-10692
▁ከወለድ	-10693
▁ለመጨመር	-10694
▁ማመንጨት	-10695
▁አቅማቸው	-10696
▁የተነገረው	-10697
ረገ	-10698
ቴና	-10699
ደረግን	-10700
▁መሸጥ	-10701
▁አዘጋ	-10702
▁ምላሽ፣	-10703
▁ተመላሽ	-10704
▁አድራጊ	-10705
▁ከቅጣት	-10706
▁የተቀረ	-10707
▁ነበራቸው	-10708
09	-10709
▁56	-10710
▁ሶዶ	-10711
▁ቢስ	-10712
▁ከቢ	-10713
ብርኤል	-10714
▁የውል	-10715
▁ጋርም	-10716
▁ያለንን	-10717
▁ተመልክቶ	-10718
▁የምንዛሪ	-10719
▁ያገኘውን	-10720
▁ቁሳቁሶችን	-10721
▁በዋነኝነት	-10722
▁እንደሚፈልጉ	-10723
▁የሚከተለውን	-10724
ቅሉ	-10725
ፊዎች	-10726
ፐብሊ	-10727
▁የሂ	-10728
ክልትና	-10729
▁ሀይሎችን	-10730
▁ባህርዳር	-10731
▁እናንተም	-10732
▁የወጣውን	-10733
▁መዘጋጀቱን	-10734
▁በስምምነት	-10735
ፈኑ	-10736
ጠቃል	-10737
▁ሲኖ	-10738
ሰበውን	-10739
ፀባረቅ	-10740
▁አቅዶ	-10741
▁የነገ	-10742
▁ማስጨበ	-10743
▁እድሉን	-10744
▁ያሻገረ	-10745
▁ምግባርና	-10746
▁የዝውውር	-10747
▁ሊያስከትል	-10748
▁እንደሚችልም	-10749
እስ	-10750
ዮብ	-10751
ሳሰር	-10752
ኗቸው	-10753
ኖረውን	-10754
▁ተዘር	-10755
▁ኦሮሞ	-10756
▁ከሰራ	-10757
▁ሸቀጦች	-10758
▁ይናገር	-10759
ድሪ	-10760
ታል፤	-10761
▁ዲቪ	-10762
▁ክቡር	-10763
ክስፖርት	-10764
▁በመሸጥ	-10765
▁በሽታው	-10766
▁በእቅድ	-10767
▁የህዝቡ	-10768
▁የሚያመ	-10769
ብረተሰቡን	-10770
▁አመለካከ	-10771
▁እንዲችል	-10772
▁ይቀላቀሉ	-10773
▁እንዲራዘም	-10774
41	-10775
ሰቦቹ	-10776
ገርም	-10777
ገባኛል	-10778
▁ቁርጥ	-10779
▁ጋዜጠ	-10780
▁በመሬት	-10781
▁በሚቻል	-10782
▁ይመስል	-10783
▁ለመክፈት	-10784
▁ተነስቷል	-10785
▁የአሜሪካው	-10786
ቴዎስ	-10787
ውረድ	-10788
ዮቹን	-10789
▁ትሆና	-10790
ነበራቸው	-10791
▁ሲጀመር	-10792
▁ያደርጉ	-10793
▁ልጆቻቸውን	-10794
▁ፕሬዝዳንቱ	-10795
▁ለአገልግሎት	-10796
▁የተመዘገበው	-10797
ታሽ	-10798
ፍሉ	-10799
▁ተጠብ	-10800
▁ጎልቶ	-10801
▁ህጎችን	-10802
▁ዲጂታል	-10803
▁ሰርተዋል	-10804
▁የሚጠቀስ	-10805
▁በመጥቀስ፣	-10806
ፅደቅ	-10807
▁3.	-10808
▁መበ	-10809
▁ቅጣ	-10810
▁አሽ	-10811
▁250	-10812
▁ማደግ	-10813
▁ምስጋ	-10814
▁ቀሪው	-10815
▁ነጋሽ	-10816
▁ዴቪድ	-10817
▁በአስራ	-10818
▁እናቶች	-10819
▁ከጉዳት	-10820
▁ክትባት	-10821
▁የመድረ	-10822
▁ተዘግቧል	-10823
▁አስታውቆ	-10824
▁የተካተቱ	-10825
▁ጉዳተኞች	-10826
▁እንዲቋረጥ	-10827
▁የመግባቢያ	-10828
ውሎ	-10829
ፈንቅለ	-10830
▁ቅነሳ	-10831
▁ፍሳሽ	-10832
▁ለመላክ	-10833
▁አገርን	-10834
▁የተዘረ	-10835
▁የውሀ፣	-10836
▁በመጨመር	-10837
▁በተደረጉ	-10838
▁የሚመጣው	-10839
▁የተዘጋጁ	-10840
▁ምስክሮችን	-10841
76	-10842
በሬ	-10843
ቶ፣	-10844
ሰማው	-10845
ቃጠል	-10846
ዋወቅ	-10847
▁59	-10848
▁ስእ	-10849
▁አዳራ	-10850
▁ካገኘ	-10851
▁ተቋራጭ	-10852
▁ያገለግ	-10853
▁ከመከላከያ	-10854
▁ኩባንያዎቹ	-10855
▁እንደሚገኝም	-10856
ሎቹን	-10857
▁ሱፐር	-10858
▁ሲሄድ	-10859
▁በገለ	-10860
▁የአቻ	-10861
▁በተገኘ	-10862
▁ኤግዚቢ	-10863
▁የተኩስ	-10864
▁ይደነግ	-10865
▁ጊዜውን	-10866
▁ከስምንት	-10867
▁የሚከናወን	-10868
ብራይ	-10869
ትን፣	-10870
▁ቅመ	-10871
▁በመጋ	-10872
▁ጨለማ	-10873
▁እራሱን	-10874
▁ማግኘቱን	-10875
▁እንዲታይ	-10876
▁የድንጋይ	-10877
▁አብራርቷል	-10878
▁የሚገልፀው	-10879
▁የአገራችን	-10880
ራና	-10881
ዋጭ	-10882
▁ኮድ	-10883
▁ቱሪስ	-10884
▁ላላቸው	-10885
▁መንበር	-10886
▁በከባድ	-10887
▁በጉጉት	-10888
▁የአጥቂ	-10889
▁ማስታወቁ	-10890
▁አንተነህ	-10891
▁በመሰብሰብ	-10892
▁እንደነበር፣	-10893
ክራል	-10894
ገነዘ	-10895
ግመው	-10896
▁በማለ	-10897
▁ሀብትና	-10898
▁ማለፉን	-10899
▁ይጠቅሳሉ	-10900
▁ጉዳያቸው	-10901
▁የኛ	-10902
ማኑኤል	-10903
▁ልማድ	-10904
▁መጓዝ	-10905
▁ምደባ	-10906
▁በድል	-10907
▁ዳኛው	-10908
▁ጆርጅ	-10909
▁ቅርበት	-10910
▁ፍልስጤ	-10911
▁ሊያደርጉ	-10912
▁ቻምፒዮን	-10913
▁አንዳንዴ	-10914
▁እየተሰሩ	-10915
▁ኪንግደም	-10916
▁አስተላልፏል	-10917
▁አገልግለዋል	-10918
▁1-1	-10919
▁ውበት	-10920
▁የከረ	-10921
▁መገንዘብ	-10922
▁ብርቱካን	-10923
▁አባላት፣	-10924
▁ተመላክቷል	-10925
▁የሚከተሉት	-10926
ልባ	-10927
ሎች፣	-10928
▁ለፋ	-10929
ከሰተው	-10930
▁ስለአ	-10931
▁ቦምብ	-10932
▁ኮንጎ	-10933
▁ፕሬዘ	-10934
▁መልክአ	-10935
▁መርዳት	-10936
▁በመቐለ	-10937
▁ተስተካ	-10938
▁ከመጠን	-10939
▁እየሰራን	-10940
▁የሚቀጥል	-10941
▁የማሻሻያ	-10942
▁ፌዴራላዊ	-10943
▁የሚገነባው	-10944
ሾም	-10945
ዮተ	-10946
ማርክ	-10947
በረክ	-10948
ጫወቻ	-10949
▁ይር	-10950
▁800	-10951
▁ሂሩት	-10952
▁መጠይ	-10953
▁በአፍ	-10954
▁ከእነ	-10955
▁ወለደ	-10956
▁መዋእለ	-10957
▁ከአመት	-10958
▁የሰራዊት	-10959
▁የሚያገለግሉ	-10960
ነቴ	-10961
ኩኝ	-10962
ህትና	-10963
ስላሴ	-10964
▁አዱ	-10965
ራዊነት	-10966
ኒስቴር	-10967
▁መውደ	-10968
▁ትርኢ	-10969
▁ለቡድኑ	-10970
▁ተሸላሚ	-10971
▁አለብኝ	-10972
▁መገባደጃ	-10973
▁እንደመጣ	-10974
▁ተቃዋሚዎች	-10975
▁ከእንግዲህ	-10976
▁ሰላሳ	-10977
▁ስብስ	-10978
▁ኳሱን	-10979
▁ለመላው	-10980
▁በቀድሞ	-10981
▁ተከራክ	-10982
▁ትንበያ	-10983
74	-10984
ፀባ	-10985
ሬትስ	-10986
ያዙት	-10987
ጥበብ	-10988
▁ለዳ	-10989
▁ለጤና	-10990
▁መትቶ	-10991
▁መፈጠ	-10992
▁ሜዳው	-10993
▁መብትና	-10994
▁ተደንግ	-10995
▁ተፈላጊ	-10996
▁ጨምሮ፣	-10997
▁ለሚፈልጉ	-10998
▁ነዋሪዎቹ	-10999
▁መተዳደሪያ	-11000
▁የሚገኝበት	-11001
▁የነበረችው	-11002
▁ተስማምተዋል	-11003
88	-11004
ሪኩ	-11005
ሰቃ	-11006
ሪያን	-11007
▁ሊሰሩ	-11008
▁ቶማስ	-11009
▁ከመጣ	-11010
▁ጅቡቲ	-11011
ሊፎርኒያ	-11012
▁እንጨት	-11013
▁ከሳጥን	-11014
▁ሰራተኞቹ	-11015
▁ተሰጥቶት	-11016
▁የገቢዎች	-11017
▁ጠቁመው፤	-11018
▁ተሰማርተው	-11019
▁ከሪፖርተር	-11020
▁የእርስዎን	-11021
ንጭ	-11022
ደቡብ	-11023
▁ጳጉ	-11024
ደኝነት	-11025
▁ምኞት	-11026
▁ከመቀ	-11027
▁መደገፍ	-11028
▁በሆኑት	-11029
▁የሚያን	-11030
▁ስፖርታዊ	-11031
▁በማረሚያ	-11032
▁ከሳምንት	-11033
▁የማይችሉ	-11034
▁ሀላፊዎችና	-11035
▁በሀላፊነት	-11036
▁በዋነኛነት	-11037
▁መኝታ	-11038
▁በመዋ	-11039
▁እየቀረበ	-11040
▁የሚፈልጉትን	-11041
ዳደር	-11042
▁ህመ	-11043
▁ትው	-11044
▁የእሱ	-11045
▁በቅድመ	-11046
▁ኮሚቴዎች	-11047
▁በመቀጠልም	-11048
▁እንደሚጀመር	-11049
ፔን	-11050
መናን	-11051
▁ማእድ	-11052
▁አዳም	-11053
▁እርቅ	-11054
▁የጨረ	-11055
▁በሀይሉ	-11056
▁የሶስቱ	-11057
▁የካቢኔ	-11058
▁የገለፀ	-11059
▁ሀዋርያው	-11060
▁ሚንስትሩ	-11061
▁በሳምንት	-11062
▁አያውቅም	-11063
▁በኦሮሚያና	-11064
ኋን	-11065
▁መቀሌ	-11066
▁ስንት	-11067
▁ተቀና	-11068
▁ታዳሚ	-11069
▁የጂኦ	-11070
▁ብለው፣	-11071
▁ከመሀል	-11072
▁ወክለው	-11073
▁የተላለፈ	-11074
▁አሰራሮችን	-11075
ቦታው	-11076
ከፍት	-11077
ውነት	-11078
▁ይወሰ	-11079
▁ኤርፖር	-11080
▁ዘግይቶ	-11081
▁ጄነራል	-11082
▁ለስድስት	-11083
▁በመሳተፍ	-11084
▁ግብጠባቂ	-11085
ባባስ	-11086
▁መመረ	-11087
▁መደም	-11088
▁ነፍስ	-11089
▁የድል	-11090
▁በቡድኑ	-11091
▁ወልዲያ	-11092
▁ሁለቱንም	-11093
▁ስለሚያስ	-11094
▁የሚከተሉትን	-11095
ክሪ	-11096
ብሄረ	-11097
ድራል	-11098
ራሚዎች	-11099
▁እየሞ	-11100
▁ቀድመው	-11101
▁አስፈሪ	-11102
▁ለመሙላት	-11103
▁የኤጀንሲው	-11104
በጥ	-11105
መጣም	-11106
ሩትን	-11107
ጋጠመው	-11108
▁መዝሙ	-11109
▁አክራ	-11110
▁የክር	-11111
▁ሊሰጠው	-11112
▁ቅርሶች	-11113
▁የግንባ	-11114
▁መርከቦች	-11115
▁ዝግጅቱን	-11116
▁የማይችል	-11117
▁የነፃነት	-11118
▁ሙከራዎችን	-11119
▁በተያያዘም	-11120
▁እንዳደረገ	-11121
▁በቤኒሻንጉል	-11122
79	-11123
ቆና	-11124
▁አልታ	-11125
▁ኢያሱ	-11126
ከፈላቸው	-11127
▁ሌላውን	-11128
▁ማሳወቅ	-11129
▁ትንሳኤ	-11130
▁የፀሀይ	-11131
▁ሎጂስቲክስ	-11132
ዝያ	-11133
ሻለቃ	-11134
▁ሞተ	-11135
ሰቀሰው	-11136
ሰበሰብ	-11137
ከፈተው	-11138
▁ሲኖር	-11139
▁ቀይሮ	-11140
▁ጊዜና	-11141
ሰቦቻቸው	-11142
▁ለማልማት	-11143
▁በማድረስ	-11144
▁ሁለተኛውን	-11145
▁እንደሚወስድ	-11146
▁እንደነበርና	-11147
ሏለም	-11148
▁ሰራተ	-11149
▁አፋር	-11150
▁የሊዝ	-11151
▁አስመራ	-11152
▁እንዲቆይ	-11153
▁ግብአቶችን	-11154
▁የሚያገለግል	-11155
▁የተሽከርካሪ	-11156
▁ገብረሚካኤል	-11157
▁ኢንተርፕራይዞች	-11158
ሰም	-11159
ሳም	-11160
ዲያን	-11161
▁ሰሎ	-11162
▁የቶ	-11163
▁እንዴ	-11164
ፌደሬሽን	-11165
▁መዝናኛ	-11166
▁እንግል	-11167
▁ክህደት	-11168
▁የፕሬስ	-11169
▁ያለውና	-11170
▁መዝገቦች	-11171
▁ከመጀመሩ	-11172
▁ዳያስፖራ	-11173
▁እንዲሰፍን	-11174
▁ኢንቨስተሮች	-11175
ብዎት	-11176
ችሎት	-11177
ክራሉ	-11178
መጣቸው	-11179
ወትሮው	-11180
▁ለቀጣ	-11181
▁ቢቂላ	-11182
▁ሀይልን	-11183
▁አማርኛ	-11184
▁የተለዩ	-11185
▁የተመራ	-11186
▁የጋምቤላ	-11187
."	-11188
ህገ	-11189
ሲም	-11190
ከሳ	-11191
▁ተክ	-11192
▁ውር	-11193
▁ያጣ	-11194
▁መስኮ	-11195
▁ወቀሳ	-11196
ካሄደውን	-11197
ፕቴምበር	-11198
▁ማዘጋጀ	-11199
▁ድልድይ	-11200
▁ለመቆየት	-11201
▁በመጋቢት	-11202
▁የሚያወጣ	-11203
▁ሰብሳቢነት	-11204
▁አለመቻሉን	-11205
▁ማስተላለፊያ	-11206
ወጠ	-11207
ፌኮ	-11208
ደጋው	-11209
ፁሀን	-11210
▁የሟ	-11211
▁ለቤት	-11212
▁ማከማ	-11213
▁በሰነ	-11214
▁ወላጆ	-11215
▁ጭፍጨ	-11216
ጣሚያቸው	-11217
▁2005	-11218
▁መኩሪያ	-11219
▁በበለጠ	-11220
▁አማካዩ	-11221
▁ከመድረ	-11222
▁የተቋሙ	-11223
▁ያውቃሉ	-11224
▁ያውቃል	-11225
▁ለመለወጥ	-11226
▁በድርድር	-11227
▁የመሰረት	-11228
▁ገቢዎችና	-11229
▁ፋውንዴሽን	-11230
600	-11231
ባኖስ	-11232
ቸዉን	-11233
ሌቲክስ	-11234
▁ማቀነ	-11235
▁የአብ	-11236
▁አብረን	-11237
▁የተጣለ	-11238
▁በመካከላቸው	-11239
:-	-11240
ርክና	-11241
ቃለል	-11242
ካከር	-11243
ገደዱ	-11244
▁ደጀ	-11245
ረዳቸው	-11246
▁የጎዳና	-11247
▁በእናንተ	-11248
▁እየተፈፀመ	-11249
▁መጀመራቸውን	-11250
▁ስልጣናቸውን	-11251
64	-11252
ራመድ	-11253
ፋለች	-11254
▁ብስ	-11255
▁ኦር	-11256
▁ከን	-11257
ቂያዎች	-11258
ቻችሁን	-11259
▁ነጠላ	-11260
▁በክብር	-11261
▁እስከመ	-11262
▁ጤንነት	-11263
▁በቀጣዮቹ	-11264
▁ቢያደርጉ	-11265
▁የሰማያዊ	-11266
▁ሲንቀሳቀስ	-11267
▁ስለመሆኑም	-11268
ም፥	-11269
፣በ	-11270
ፈላለ	-11271
ፎይታ	-11272
▁ሰፍ	-11273
▁ክሬ	-11274
▁ይጥ	-11275
ያዛቸው	-11276
▁ሯንዳ	-11277
▁የአሳ	-11278
▁የእነ	-11279
▁መቆየቱ	-11280
▁በመተው	-11281
▁እቅዱን	-11282
▁በመቶዎች	-11283
▁መልእክተኛ	-11284
ሱበት	-11285
ቀረው	-11286
ፈርስ	-11287
▁ለክ	-11288
▁መሰዊ	-11289
▁ጁንታ	-11290
▁ሰልፎች	-11291
▁የአቋም	-11292
▁ህይወቱን	-11293
▁የፈጠረው	-11294
▁እንዲጠቀሙ	-11295
ከሙ	-11296
▁ማሰባ	-11297
▁ከነገ	-11298
▁የዱር	-11299
▁ከጨዋታ	-11300
▁ወንዞች	-11301
▁የተሾሙት	-11302
61	-11303
ልዩ	-11304
ቢው	-11305
ኤች	-11306
ሰናል	-11307
ቃወሙ	-11308
ዳችሁ	-11309
▁ኤች	-11310
▁ጉም	-11311
ራችንን	-11312
▁መቻል	-11313
▁ሰርተ	-11314
▁ለማዳን	-11315
▁በአመራ	-11316
▁ብረትና	-11317
▁ንግስት	-11318
▁አለበት፤	-11319
ብተው	-11320
ጋለጥ	-11321
▁ነቅ	-11322
▁ዲና	-11323
▁ስቃይ	-11324
▁አስታ	-11325
ብራይስጥ	-11326
▁ከባንክ	-11327
▁ድህነት	-11328
▁ምንተስኖት	-11329
▁በነበሩበት	-11330
ዊን	-11331
ምነው	-11332
ቁመው	-11333
▁ፊደ	-11334
ጠብቀው	-11335
▁በምና	-11336
▁ይገለ	-11337
▁በማየት	-11338
▁አምልኮ	-11339
▁የሚነሳ	-11340
▁የጥላቻ	-11341
▁ጣቢያው	-11342
▁የሚጠይቁ	-11343
▁የአረንጓዴ	-11344
ደናቀ	-11345
▁ሽያ	-11346
▁እባ	-11347
▁የኒ	-11348
▁ለእሱ	-11349
▁ኢራን	-11350
▁ቦታውን	-11351
▁ንፅህና	-11352
▁አልቀረ	-11353
▁አቀረቡ	-11354
▁የተላከ	-11355
▁አክብሮት	-11356
▁እንዲፈፅ	-11357
▁የመክፈቻ	-11358
▁ያወጣውን	-11359
ረታው	-11360
ደነገ	-11361
▁የማት	-11362
▁ገጭቶ	-11363
▁ጨርቃ	-11364
▁በመረጃ	-11365
▁ቢኖሩም	-11366
▁በማምጣት	-11367
▁የተሰራው	-11368
▁ይችላል፤	-11369
▁ለመከላከልና	-11370
▁ተመራማሪዎች	-11371
ምባሆ	-11372
ናትና	-11373
ሰራበት	-11374
▁መረራ	-11375
▁ንድፍ	-11376
▁ደሞዝ	-11377
▁ህዝቡም	-11378
▁መምረጥ	-11379
▁ከሰሜን	-11380
▁ከክልል	-11381
▁ክህሎት	-11382
▁የይሆዋ	-11383
▁ጥሪውን	-11384
▁ሲያቀርቡ	-11385
▁እየተባባ	-11386
▁የዲጂታል	-11387
▁እንዲቋቋም	-11388
▁ከተመሰረተ	-11389
▁መገደላቸውን	-11390
▁በማስመዝገብ	-11391
▁፥	-11392
ቀመጡት	-11393
ኖበታል	-11394
▁ለህዝ	-11395
▁መጠና	-11396
▁ድጋፉ	-11397
▁በጅምላ	-11398
▁ቤተሰቡ	-11399
▁አክሊሉ	-11400
▁ያሳየው	-11401
▁በእውነቱ	-11402
▁የትኛውም	-11403
▁ለትምህርት	-11404
▁የተጫዋቾች	-11405
▁ይደነግጋል	-11406
▁ያስተናገደው	-11407
ፈሻ	-11408
ሳትና	-11409
ጉዳዩ	-11410
▁52	-11411
▁ሲቲ	-11412
▁ከሱ	-11413
▁በማዳ	-11414
▁ከልብ	-11415
▁የትም	-11416
▁ይመራ	-11417
▁ሀውልት	-11418
▁ተዋናይ	-11419
▁መርሀግብር	-11420
▁አስተናግዶ	-11421
▁ለማስተዋወቅ	-11422
▁ተወዳዳሪዎች	-11423
ብኛል	-11424
▁በጌ	-11425
▁አዙ	-11426
▁ፖር	-11427
▁ተከተል	-11428
▁ይሄዳል	-11429
▁መቆራረጥ	-11430
▁ማጠናቀቅ	-11431
▁ቻምፒዮና	-11432
▁መሆናቸውን፣	-11433
ድርግ	-11434
▁በቪ	-11435
▁ገረ	-11436
ሚኒየም	-11437
ባችንን	-11438
ገናዘበ	-11439
ፈጠሩት	-11440
▁ልጁን	-11441
▁ዘለቀ	-11442
▁ጅምር	-11443
▁አሰልጣኝነት	-11444
▁እያንዳንዱን	-11445
▁ኢንተርፕራይዝ	-11446
ዛዥ	-11447
ጤን	-11448
ያዝነው	-11449
▁መውጫ	-11450
▁አስጨ	-11451
▁ይመር	-11452
▁ፅፏል	-11453
መዘገበው	-11454
ያስፖራው	-11455
▁ባይሆን	-11456
▁አስቆጣ	-11457
▁እንዲወ	-11458
▁ለውይይት	-11459
▁ተንታኞች	-11460
▁ኢኮኖሚያዊና	-11461
ታለሁ	-11462
ፈቀዱ	-11463
▁ቃጠሎ	-11464
▁በመቅ	-11465
▁በውል	-11466
▁የቅን	-11467
▁የእለቱ	-11468
▁ባለሙያዎቹ	-11469
ጠራቀ	-11470
▁95	-11471
ስርአት	-11472
▁ሲመጡ	-11473
▁በሚሊ	-11474
▁ከጤና	-11475
▁የሌለ	-11476
▁የቀረው	-11477
▁በድንበር	-11478
▁ቡድኖችን	-11479
▁የሚያነሳ	-11480
▁እንደሚለው	-11481
ለሽ	-11482
ስቦ	-11483
ዘዙ	-11484
መርቱ	-11485
ረዳን	-11486
▁ብና	-11487
▁ላሉት	-11488
▁ጠርዝ	-11489
▁ማጣርያ	-11490
▁ሱራፌል	-11491
▁በሚኖሩ	-11492
▁አንበጣ	-11493
▁የችግኝ	-11494
▁በመግዛት	-11495
▁እንዲህም	-11496
▁ስብሰባውን	-11497
▁የተመረጡት	-11498
ኸው	-11499
ያሪ	-11500
▁ሼክ	-11501
2002	-11502
▁በደረ	-11503
▁የዘረ	-11504
▁ጠይቆ	-11505
▁መገርሳ	-11506
▁በሳኡዲ	-11507
▁በአላት	-11508
▁አሸባሪ	-11509
▁የታጠቁ	-11510
▁ገበየሁ	-11511
▁ለመስማት	-11512
▁አባጅፋር	-11513
▁እየፈጠረ	-11514
▁ወደፊትም	-11515
▁አሽከርካሪዎች	-11516
ሜናዊ	-11517
ገጣፎ	-11518
▁ሳሊ	-11519
በርከት	-11520
▁ማሰራ	-11521
▁ምስጢ	-11522
▁አከራ	-11523
▁ጠያቂ	-11524
▁በውሳኔ	-11525
▁ከፀጥታ	-11526
▁የሚተገ	-11527
▁የጨርቃ	-11528
▁ቅሬታዎች	-11529
▁ታዛቢዎች	-11530
▁ተደራሽነት	-11531
▁የላቦራቶሪ	-11532
ሾሙ	-11533
ሬሽኖች	-11534
▁ርስት	-11535
▁በአቻ	-11536
▁ከኋላ	-11537
▁የገና	-11538
▁1000	-11539
▁የሚሄዱ	-11540
▁በመጨረሻው	-11541
በሮች	-11542
ከንድ	-11543
ኩትን	-11544
ገገሙ	-11545
▁አጋዥ	-11546
▁በመፍታት	-11547
▁ገበያውን	-11548
▁ሽፋ	-11549
▁ጥሎ	-11550
▁ተዘዋ	-11551
▁የሚለ	-11552
▁የሰበ	-11553
▁የአካ	-11554
▁ማስገባ	-11555
▁በነዳጅ	-11556
▁አስመስ	-11557
▁አስከት	-11558
▁የፈለጉ	-11559
▁ግብነት	-11560
▁ሪፖርት፣	-11561
▁ክትትልና	-11562
▁የተበላሸ	-11563
▁ለማስፋፋት	-11564
▁በመስከረም	-11565
▁የአትክልት	-11566
▁ስትራቴጂካዊ	-11567
ብላጫ	-11568
ጀምሮ	-11569
▁ሳር	-11570
▁በፌ	-11571
▁ባት	-11572
▁መደበ	-11573
▁ኤርት	-11574
▁የመሸ	-11575
▁የአክ	-11576
▁መራጮች	-11577
▁ተራሮች	-11578
▁ናቸው፣	-11579
▁የሳኡዲ	-11580
▁ፈጥረው	-11581
▁የተደገፈ	-11582
ገቱ	-11583
ገጣጠ	-11584
▁ማራዘ	-11585
▁በአስተ	-11586
▁ትናንሽ	-11587
▁የስንዴ	-11588
▁የአንበጣ	-11589
▁እየተዘጋጀ	-11590
▁አስፈፃሚዎች	-11591
ኸር	-11592
ኖረን	-11593
▁ዳዊ	-11594
▁ሆይ፥	-11595
▁ማይል	-11596
▁በወረ	-11597
▁አይቀ	-11598
▁ዮርክ	-11599
▁አስፋው	-11600
▁ሊጠናቀቅ	-11601
▁መዋቅራዊ	-11602
▁በመመለስ	-11603
▁አልባሳት	-11604
▁ከተማዋን	-11605
▁የእርስዎ	-11606
▁የተጠናቀቀ	-11607
▁ኢትዮጵያውያንን	-11608
ያኔ	-11609
▁ለየ	-11610
▁ድህ	-11611
▁ምዘና	-11612
▁ተወያ	-11613
▁እአአ	-11614
▁ክህሎ	-11615
▁ውድቀት	-11616
▁የተወለ	-11617
▁ድክመት	-11618
▁ግድግዳ	-11619
▁በጀርመን	-11620
▁ተከትለው	-11621
▁እንደማት	-11622
▁የተደራጁ	-11623
▁የወሰደው	-11624
▁መግለፃቸው	-11625
▁አሳይተዋል	-11626
▁የሚያቀርብ	-11627
▁እንደማይገባ	-11628
ቀቀ	-11629
ኤታ	-11630
▁ዊል	-11631
ስለዚህ	-11632
▁መነቃ	-11633
▁መከል	-11634
▁መዘጋ	-11635
▁የለሽ	-11636
▁የአፈር	-11637
▁በሚሊዮን	-11638
▁ነዋሪዎችን	-11639
▁አንድነትን	-11640
▁ለማስተላለፍ	-11641
▁የማስተዳደር	-11642
ዋኢማ	-11643
▁ፅጌ	-11644
ራቸዋል	-11645
▁የቫይ	-11646
▁መልሰው	-11647
▁በህንድ	-11648
▁በአልን	-11649
▁ችላለች	-11650
▁ወደዚያ	-11651
▁ተፈፅሟል	-11652
▁ታማኝነት	-11653
ሬዷ	-11654
ብ፣	-11655
ግቶ	-11656
▁በዘር	-11657
▁አላስ	-11658
▁መብትን	-11659
▁የአረቦን	-11660
▁ገፃችንን	-11661
▁የባለቤትነት	-11662
ማ፣	-11663
ዋም	-11664
ተሚያ	-11665
ቸገር	-11666
ንግል	-11667
▁--	-11668
▁መያዣ	-11669
▁በመለ	-11670
▁አሟል	-11671
▁እምቅ	-11672
▁የቀኝ	-11673
▁የእስ	-11674
▁የማያስ	-11675
▁የተማሪ	-11676
▁ግድብን	-11677
▁ሻምፒዮና	-11678
▁በሚያደርገው	-11679
▁በጊዜያዊነት	-11680
▁እንደተጠበቀ	-11681
ህነግ	-11682
ዘርጋ	-11683
ጨመሩ	-11684
▁ለሞት	-11685
▁ቢሮዎች	-11686
▁ብርሀነ	-11687
▁እየመራ	-11688
▁የሚሄድ	-11689
▁በጦርነቱ	-11690
▁የስብሰባ	-11691
▁ፕሮግራሙ	-11692
▁በተቀመጠው	-11693
▁እንሰራለን	-11694
▁የመቆጣጠር	-11695
▁የሚመለከቱ	-11696
▁ይጠናቀቃል	-11697
ና፤	-11698
ዲሪ	-11699
መሰል	-11700
ይዘው	-11701
▁ቢን	-11702
▁ፓስ	-11703
▁ሁሉ፣	-11704
▁ለባን	-11705
▁መሞከር	-11706
▁እርከን	-11707
▁የይሁዳ	-11708
▁ቫይረስን	-11709
▁አንስተው	-11710
▁ድርጅቶቹ	-11711
▁እንዳልቻለ	-11712
▁ከተጠናቀቀ	-11713
ኪን	-11714
ቅርቦት	-11715
▁ሀያል	-11716
▁ሰብል	-11717
▁ስሞች	-11718
▁ከጥር	-11719
▁የልም	-11720
▁እየተቀ	-11721
▁ከረጅም	-11722
▁በወላይታ	-11723
▁ተዋናዮች	-11724
▁የተፈጠሩ	-11725
▁የግድቡን	-11726
▁ይገባቸዋል	-11727
▁በማስተባበር	-11728
ጨረስ	-11729
▁ረፋ	-11730
▁ሲን	-11731
ደበኛው	-11732
▁አወል	-11733
▁የሆቴ	-11734
▁ከሀላፊ	-11735
▁አብዮታዊ	-11736
▁የሶስትዮሽ	-11737
▁መፈፀማቸውን	-11738
ደሰቱ	-11739
▁ፆታ	-11740
ቆጣጠሩ	-11741
▁መጨና	-11742
▁ምስሎች	-11743
▁ፀሀፊው	-11744
▁በመሰረተ	-11745
▁ባዘጋጀው	-11746
ኝ፣	-11747
ዶቹን	-11748
ጋዴር	-11749
▁(1	-11750
▁51	-11751
ስተካከ	-11752
ገንዘቡ	-11753
▁አዋጭ	-11754
ስትራቴጂ	-11755
▁ምርጫን	-11756
▁ሲስተም	-11757
▁አድርጉ	-11758
▁ልጆቻቸው	-11759
▁ስህተቶች	-11760
▁በመምታት	-11761
▁በማቋቋም	-11762
▁በተጨባጭ	-11763
▁በዝቅተኛ	-11764
▁እድገትና	-11765
▁የማይቻል	-11766
▁መመርያዎች	-11767
▁መስተዳደር	-11768
ለፋ	-11769
▁ሀምሳ	-11770
▁ቁጥሩ	-11771
▁የስጋ	-11772
▁ይከፍ	-11773
ረጋገጠው	-11774
▁በአንተ	-11775
▁በግሩም	-11776
▁በጥራት	-11777
▁ለተወሰነ	-11778
▁በሚጠራው	-11779
▁በአንቀፅ	-11780
▁ከመጋቢት	-11781
▁የሚገነቡ	-11782
▁ለአካባቢው	-11783
▁በማእከላዊ	-11784
▁እንዳልቻሉ	-11785
ዳዊ	-11786
ጦሽ	-11787
ሰበት	-11788
ወልድ	-11789
ዛወር	-11790
ዝቃዛ	-11791
ገናል	-11792
▁4.	-11793
ሏቸዋል	-11794
▁ሲወጡ	-11795
▁አዋቂ	-11796
▁ጠየቀ	-11797
▁አገላለ	-11798
▁ከምንም	-11799
▁የወለድ	-11800
▁የሚከፈል	-11801
▁ሀላፊዎች፣	-11802
▁እንደማያስ	-11803
▁ከመሆናቸው	-11804
▁ከአጠቃላይ	-11805
ሪቲ	-11806
ሶር	-11807
ሱትን	-11808
መዘግብ	-11809
ሳተፉት	-11810
▁መሀን	-11811
▁ስላልተ	-11812
▁የተረከ	-11813
▁የግጭት	-11814
▁በከተሞች	-11815
▁ያስቆጠረ	-11816
▁በመመልከት	-11817
▁እየተገነባ	-11818
▁ከባለድርሻ	-11819
▁://..///	-11820
ጂብ	-11821
ኒካል	-11822
የንስ	-11823
▁ላቀ	-11824
ጫወቱት	-11825
▁አቤቤ	-11826
▁መቆየት	-11827
▁ተቀናቃ	-11828
▁የትኩረት	-11829
▁የሚቀርበው	-11830
▁ለህብረተሰቡ	-11831
ሽቱ	-11832
ደሩት	-11833
ፎርድ	-11834
ኖርዌይ	-11835
ፈናቀሉ	-11836
▁700	-11837
▁ሆኖ፣	-11838
▁ፀባይ	-11839
▁አብደላ	-11840
▁ከመሬት	-11841
▁የፈረን	-11842
▁እንዲመራ	-11843
▁ሚኒስትሩን	-11844
▁የሚያስገድ	-11845
ስቲቫ	-11846
▁ማል	-11847
▁195	-11848
▁ሊወጣ	-11849
▁ያክል	-11850
▁በማደግ	-11851
▁በነሀሴ	-11852
▁ተቀዳሚ	-11853
▁አገናኝ	-11854
▁ያስገባ	-11855
▁ይዘዋል	-11856
▁መዛሙርቱ	-11857
▁በቀዳሚነት	-11858
▁እንዳይገቡ	-11859
▁ጊዮርጊሶች	-11860
▁እንዳስታወቁት	-11861
ለትና	-11862
መዳን	-11863
ቋርጥ	-11864
በላሹ	-11865
ፈተሽ	-11866
ማኝነት	-11867
▁...	-11868
▁ማዋል	-11869
▁በለጠ	-11870
▁ብዝሀ	-11871
▁ናትና	-11872
▁በመሆኗ	-11873
▁ወታደር	-11874
▁ማስቀጠል	-11875
▁አዘጋጅቶ	-11876
▁ክፍያዎች	-11877
▁የፍጥነት	-11878
▁ግንኙነቶች	-11879
▁መቆየታቸውን	-11880
▁ባለሀብቶችን	-11881
ቃቅ	-11882
ዛር	-11883
ላዎች	-11884
ጉባኤ	-11885
ሰበሰበ	-11886
ስተዋው	-11887
▁ሲነሳ	-11888
▁ትንተ	-11889
▁በፃፈው	-11890
▁አግዳሚ	-11891
▁የቤቶች	-11892
▁ደንቦች	-11893
▁እንዳይኖር	-11894
▁ጮ	-11895
ርቻሮ	-11896
የዜና	-11897
ጥበት	-11898
ፉበት	-11899
▁መጠነ	-11900
▁አላህ	-11901
▁ኦማር	-11902
▁ሁኔታና	-11903
▁ሁኔታ፣	-11904
▁ሞሀመድ	-11905
▁በደብረ	-11906
▁ጥሰቶች	-11907
▁ሌሎችንም	-11908
▁ወረርሽኙን	-11909
▁የፌዴሬሽኑ	-11910
ውር	-11911
ችሉት	-11912
ኖቹን	-11913
ዘሩት	-11914
▁ተሹ	-11915
▁በቡና	-11916
▁ጠንክ	-11917
▁አፍሪካዊ	-11918
▁ዘመናቸው	-11919
▁ምክንያትም	-11920
ጋባ	-11921
ፁእ	-11922
ወስን	-11923
ዳለች	-11924
▁ሊተ	-11925
▁ቁጭ	-11926
▁ካሌ	-11927
▁ጃኮ	-11928
▁ለአም	-11929
▁ግብይ	-11930
ጠቃሚዎች	-11931
▁መግለፁ	-11932
▁ይገባሉ	-11933
▁በትክክለ	-11934
▁አለመኖሩ	-11935
▁ጠባቂዎች	-11936
▁እየተስፋፋ	-11937
▁የነበራቸውን	-11938
73	-11939
ጥሬ	-11940
ቅረቡ	-11941
ንም፤	-11942
▁በቻ	-11943
▁የጆ	-11944
መረምር	-11945
▁በቁር	-11946
▁አመጣ	-11947
▁አባላ	-11948
▁በእርሻ	-11949
▁እስከተ	-11950
▁ለመልቀቅ	-11951
▁በበሽታው	-11952
▁በግለሰብ	-11953
▁ተግዳሮት	-11954
▁ይወስዳል	-11955
▁ለመወያየት	-11956
▁የፕሬዚዳንት	-11957
የቀ	-11958
ጮቹ	-11959
ምድና	-11960
▁ሞላ	-11961
▁ቀበ	-11962
▁ባሰ	-11963
ጆቻቸው	-11964
▁በቃል	-11965
▁አፍቃ	-11966
▁ከሰኔ	-11967
▁የተሞ	-11968
▁መቀዛቀ	-11969
▁በማለፍ	-11970
▁ተናጋሪ	-11971
▁አከናው	-11972
▁ከባንኩ	-11973
▁ይደርሳል	-11974
99	-11975
ለቀው	-11976
▁ለሳ	-11977
▁ምሰ	-11978
▁በሪ	-11979
▁በደም	-11980
▁ታሪኩ	-11981
▁እክል	-11982
▁በሶስቱ	-11983
▁ከምርጫ	-11984
▁ራሳችንን	-11985
▁ግልፅነት	-11986
▁ኮሙኒኬሽን	-11987
▁የተደረገበት	-11988
ጢፋ	-11989
ዋለን	-11990
▁የጊ	-11991
▁ስንታ	-11992
▁የሚጣ	-11993
▁ጋብቻ	-11994
▁ፍቅሩ	-11995
▁ኬሚካል	-11996
▁በጦርነት	-11997
▁እንዲቀንስ	-11998
ሰለፍ	-11999
▁68	-12000
▁88	-12001
▁አጨ	-12002
▁ፕሪ	-12003
▁ለራሱ	-12004
/2011	-12005
▁ሊፈጠር	-12006
▁መከናወ	-12007
▁በታላቅ	-12008
▁ተቃራኒ	-12009
▁ጠረጴዛ	-12010
▁ጥቃቱን	-12011
▁ማለታቸው	-12012
▁እየደረሰ	-12013
▁የሁለቱም	-12014
▁በማሰባሰብ	-12015
▁የሚገባቸው	-12016
በጀት	-12017
ኢአድ	-12018
ፏቸው	-12019
▁ገፀ	-12020
ረዳው፣	-12021
ተርማል	-12022
▁አባቱ	-12023
▁እንጅ	-12024
▁ጠባብ	-12025
▁እስካል	-12026
▁ጠንከር	-12027
በኢትዮጵያ	-12028
▁ተናግራለች	-12029
▁እስካሁንም	-12030
▁አሜሪካውያን	-12031
▁አገልግሎት፣	-12032
▁የኮንትሮባንድ	-12033
ሶ፣	-12034
ዴን	-12035
ከሪም	-12036
ጆችን	-12037
▁ቀዶ	-12038
ሟቸውን	-12039
ባውያን	-12040
▁መስሎ	-12041
▁አመለ	-12042
▁ሁከትና	-12043
▁ምስክሮ	-12044
▁በትንሹ	-12045
▁የተሰጡ	-12046
▁ጭፍጨፋ	-12047
▁ሰንጠረዥ	-12048
▁ትሬዲንግ	-12049
▁ከገንዘብ	-12050
▁እንመልከት	-12051
ናፍ	-12052
ወቅቱ	-12053
ይህን	-12054
▁መወ	-12055
▁ረቂቁ	-12056
▁በዋጋ	-12057
▁ከለላ	-12058
▁ካለመ	-12059
▁በፊት፣	-12060
▁አሏቸው	-12061
▁ያመጣል	-12062
▁በእምነት	-12063
▁ይችላል፣	-12064
ዶን	-12065
ቶሊክ	-12066
▁ሞገ	-12067
""""	-12068
ላችሁም	-12069
ቅያኖስ	-12070
▁አደም	-12071
▁የሴት	-12072
ፕሮፌሰር	-12073
▁በመጠቀ	-12074
▁ከማድረ	-12075
▁የሚከለ	-12076
▁የእቅድ	-12077
▁ያለፉት	-12078
▁ለሚገኘው	-12079
▁ከከፍተኛ	-12080
▁የቡድኑን	-12081
▁የክረምት	-12082
▁እንዳሉት፣	-12083
▁እንደተደረገ	-12084
ሊኮ	-12085
ያዎቹ	-12086
ሪታኒያ	-12087
እናንተ	-12088
▁እትም	-12089
▁ሳይንቲ	-12090
▁በጥቅሉ	-12091
▁የጥበቃ	-12092
▁ድጋፎች	-12093
▁አወቃቀር	-12094
▁በተዘዋዋሪ	-12095
▁እንደሚኖሩ	-12096
ሸፍ	-12097
ካኔ	-12098
▁እማ	-12099
▁ደጃ	-12100
----	-12101
▁(19	-12102
▁በገባ	-12103
▁ወርሀዊ	-12104
▁አለመቻሉ	-12105
▁የሚካሄዱ	-12106
▁ከየትኛውም	-12107
ርጂ	-12108
ዳኑ	-12109
ራዎች	-12110
ንያን	-12111
ኳታር	-12112
▁ተሽ	-12113
▁ከቡ	-12114
▁የሬ	-12115
ሸነፈው	-12116
ጠናቅቅ	-12117
▁መሆና	-12118
▁መቼም	-12119
▁በእጁ	-12120
▁ቀልጣፋ	-12121
▁ብሄሮች	-12122
▁ተጀምሮ	-12123
▁የተጣራ	-12124
▁እንደሚተ	-12125
▁ይገባል፤	-12126
▁አጠናክረው	-12127
ጋኒ	-12128
ደንቅ	-12129
▁ሳተ	-12130
▁መሻሻ	-12131
▁መጣጥ	-12132
▁አነጋ	-12133
▁ጉግሳ	-12134
▁በጉብኝ	-12135
▁ተከሳሹ	-12136
▁የሆቴል	-12137
▁የረዥም	-12138
▁የዛሬው	-12139
▁የጂቡቲ	-12140
▁የጥገና	-12141
▁በሚደረጉ	-12142
▁በማሻሻል	-12143
▁ክፍተቶችን	-12144
▁አስተዳደርን	-12145
▁በከ	-12146
▁ጊኒ	-12147
▁ጉዳቱ	-12148
▁ፋይል	-12149
▁ፍቅረ	-12150
▁መገመት	-12151
▁በተመሳ	-12152
▁ድቻዎች	-12153
▁ለመምረጥ	-12154
▁ለራሳቸው	-12155
▁አውጥቷል	-12156
▁የተሰጣቸውን	-12157
ሲብ	-12158
ፈረው	-12159
▁ንስ	-12160
ንጀለኛ	-12161
▁ርምጃ	-12162
▁በክል	-12163
▁እርሱም	-12164
▁እየታዩ	-12165
▁ጉድጓድ	-12166
▁መግባቱን	-12167
▁ሞክረዋል	-12168
▁በክረምቱ	-12169
▁የጎንደር	-12170
▁አድርጋለች	-12171
ዋሉ	-12172
ቡበት	-12173
ናገኝ	-12174
ኛቸው	-12175
ገደብ	-12176
▁ይነ	-12177
ዮሀንስ	-12178
▁ቀመር	-12179
▁ባለሞ	-12180
▁ያጠና	-12181
▁መነሳት	-12182
▁መፈለግ	-12183
▁እድሳት	-12184
▁ክልል፣	-12185
▁የብረታ	-12186
▁የሚያግዝ	-12187
▁የፈፀመው	-12188
▁በመተላለፍ	-12189
▁ተደራጅተው	-12190
▁የደረሰበት	-12191
▁የሚያስችለው	-12192
ኬድ	-12193
ዎቿ	-12194
መርጡ	-12195
ጋገብ	-12196
▁ኤሊ	-12197
▁ከጣ	-12198
▁ንዋይ	-12199
▁ከመን	-12200
▁ኬሚካ	-12201
▁ፈፃሚ	-12202
▁መስጠቱ	-12203
▁በሰባት	-12204
▁የጎርፍ	-12205
▁ተጠባባቂ	-12206
▁የመፍጠር	-12207
▁የተገናኙ	-12208
▁በሀይማኖት	-12209
▁የሚኖረውን	-12210
▁መከላከያዎች	-12211
ምቢ	-12212
ዞታ	-12213
ኙነት	-12214
▁ጩኸ	-12215
▁አንቶ	-12216
▁እንባ	-12217
▁ኪዳኔ	-12218
▁ይመረ	-12219
▁በሀምሌ	-12220
▁አምስቱ	-12221
▁ይሰራሉ	-12222
▁ጨዋነት	-12223
▁የተያዘው	-12224
▁ሀላፊነቶች	-12225
▁ማጭበርበር	-12226
▁አልተሳካም	-12227
▁እንደሚሰጡ	-12228
▁የተጠየቁት	-12229
▁በትራንስፖርት	-12230
ማና	-12231
ግዝ	-12232
ፖሊ	-12233
ገኛል	-12234
▁ሽግ	-12235
ሪዎችን	-12236
ዘጋጁት	-12237
▁ፑቲን	-12238
▁ታሪኮች	-12239
▁ለመጠየቅ	-12240
▁በመንግስ	-12241
▁ተንቀሳቅ	-12242
▁የጣሊያን	-12243
▁ያሏቸውን	-12244
▁እናውቃለን	-12245
▁እንዲጠናቀቅ	-12246
▁ኮንፌዴሬሽን	-12247
ሄም	-12248
ኮስ	-12249
ሜትር	-12250
ይነር	-12251
▁72	-12252
▁ሀር	-12253
▁ከጋ	-12254
▁በውጤ	-12255
▁ተሰባ	-12256
▁ተዳር	-12257
▁የሞቱ	-12258
▁የቋሚ	-12259
▁የቦታ	-12260
▁ያቀፈ	-12261
▁ዱቄት	-12262
ከላካዮች	-12263
▁ተወስዶ	-12264
▁የብቃት	-12265
▁ይከናወ	-12266
▁ያስፈልጋ	-12267
▁የሚያከናው	-12268
▁በመግለጫቸው	-12269
በክ	-12270
ኪዎች	-12271
ፅዮን	-12272
▁ማዶ	-12273
ዶክተር	-12274
ፖርታዊ	-12275
▁ምግባ	-12276
▁አፈር	-12277
▁እግድ	-12278
▁ለሚያስ	-12279
▁ቆይተው	-12280
▁አስረክ	-12281
▁በማእድን	-12282
▁ያብራሩት	-12283
▁እንዲወስድ	-12284
▁ያሳዩ	-12285
▁ጉድለ	-12286
▁በግጭቱ	-12287
▁እለታት	-12288
▁ከሌሎቹ	-12289
▁ይልቃል	-12290
▁ይጠቀሙ	-12291
▁ጥቃቶችን	-12292
▁የኢትዮጵያውያን	-12293
ራሪ	-12294
ጎድ	-12295
▁ድሀ	-12296
ካሂደው	-12297
▁ሶከር	-12298
▁በበረ	-12299
▁አልፋ	-12300
▁የቃል	-12301
▁ተገቢው	-12302
▁አቅምን	-12303
▁አዋጆች	-12304
▁ኢንስፔ	-12305
▁ወንድሜ	-12306
▁የመያዝ	-12307
▁በቅርቡም	-12308
▁በተጓዳኝ	-12309
▁የመግዛት	-12310
▁መከራከሪያ	-12311
▁የተጠቀሱት	-12312
▁የሚደረግበት	-12313
95	-12314
ሞቱ	-12315
ዋለ	-12316
ፉም	-12317
150	-12318
ሁሉም	-12319
ንሻንጉል	-12320
▁መወሰን	-12321
▁እንግሊ	-12322
▁የጉዳት	-12323
▁በመክፈል	-12324
▁የፊታችን	-12325
▁አስቀድመው	-12326
▁እየተሳተፉ	-12327
▁የአፈፃፀም	-12328
ካሪ	-12329
▁ቀኑ	-12330
▁ታጅ	-12331
ምንታት	-12332
▁ማክሮ	-12333
▁ወተት	-12334
▁የታች	-12335
▁ተከታይ	-12336
▁ከኬንያ	-12337
▁ይስተዋ	-12338
▁ፍልሚያ	-12339
▁እንዲመሩ	-12340
▁የሚስተዋ	-12341
▁እንደሚያቀርብ	-12342
ቃዊ	-12343
በዙ	-12344
ቆጠቡ	-12345
ቪኦኤ	-12346
ግራፊ	-12347
ፌዲሪ	-12348
▁98	-12349
▁ህልም	-12350
▁ህብረ	-12351
▁ጅማሮ	-12352
▁ማስመዝ	-12353
▁የሀላፊነት	-12354
▁ታካ	-12355
▁ከፈ	-12356
▁ገላ	-12357
ብራቶሪ	-12358
ጀምረው	-12359
▁ማሳደ	-12360
▁መወያየ	-12361
▁ባልንጀ	-12362
▁ክልሉን	-12363
▁ይውላል	-12364
▁ጠብቀው	-12365
▁ስድስተኛ	-12366
▁የማጣራት	-12367
▁በምትገኘው	-12368
▁የሚናገረው	-12369
▁ለማስመዝገብ	-12370
ቃድ	-12371
ስትሮ	-12372
▁ከአስ	-12373
ስተናገደ	-12374
▁ሀብቶች	-12375
▁ባይደን	-12376
▁የጥበብ	-12377
▁ይሁንታ	-12378
▁ገልጧል	-12379
▁ፓውንድ	-12380
▁መነጋገር	-12381
▁ማቅረቡን	-12382
-4	-12383
ዛሉ	-12384
ፃዊ	-12385
ላቀቅ	-12386
ላጎት	-12387
መቻቸ	-12388
በናል	-12389
▁ሲወ	-12390
▁ህወሀ	-12391
▁ይለያ	-12392
▁በተጫዋ	-12393
▁በጥቁር	-12394
▁አድርግ	-12395
▁የእስር	-12396
▁እንቅስቃሴው	-12397
ኩርት	-12398
ገልጋ	-12399
1990	-12400
▁ለማሀ	-12401
እንግሊዝ	-12402
▁ተምሳሌ	-12403
▁አመቻች	-12404
▁እመቤት	-12405
▁አስፍሯል	-12406
▁የሚናገሩ	-12407
▁በሚያስችል	-12408
ውዲ	-12409
ሰባል	-12410
ጓጎል	-12411
ፀዳጃ	-12412
▁ከቱ	-12413
▁ማዳን	-12414
▁የበዛ	-12415
ኖራቸውም	-12416
▁ማይክሮ	-12417
▁በተቋሙ	-12418
▁በእጥፍ	-12419
▁በዜጎች	-12420
▁አበባ፤	-12421
▁የኖቤል	-12422
▁ደርሰው	-12423
▁ግሎባል	-12424
▁በየቦታው	-12425
▁የሚፈፀሙ	-12426
▁በስምምነቱ	-12427
▁የሚፈለገውን	-12428
ኝና	-12429
ቀዱን	-12430
ዋቀር	-12431
▁ዮር	-12432
▁የላይ	-12433
▁የመም	-12434
▁መብራቱ	-12435
▁ያገለገ	-12436
▁አቀማመጥ	-12437
▁አፅድቋል	-12438
▁የሚወስድ	-12439
▁ግጭቶችን	-12440
▁ምርታማነት	-12441
▁ስጋታቸውን	-12442
▁ትችላላችሁ	-12443
▁የሚሰጣቸው	-12444
ያፊ	-12445
ጣልያን	-12446
▁ነቢያ	-12447
ግራቸውን	-12448
▁ማቅረቡ	-12449
▁በተባሉ	-12450
▁አፈወር	-12451
▁የእህል	-12452
▁ግብፅና	-12453
▁መያዛቸው	-12454
▁ቫይረሱን	-12455
▁ተከትሎ፣	-12456
▁አካውንት	-12457
▁የፈፀሙት	-12458
▁አሰምተዋል	-12459
▁የኮርፖሬሽኑ	-12460
ማሌ	-12461
ማከለ	-12462
ሪኮች	-12463
ርቆስ	-12464
ሳታፊ	-12465
ህጉሪቱ	-12466
ረጋግጡ	-12467
▁(1)	-12468
▁በሮች	-12469
▁ንፋስ	-12470
▁ከጦር	-12471
▁ደማቅ	-12472
▁ለምግብ	-12473
▁አለመስ	-12474
▁ዳኛቸው	-12475
▁ሊኖራቸው	-12476
▁እንዲኖሩ	-12477
▁እየተሰጠ	-12478
▁የሚጠራው	-12479
▁እንዲጨምር	-12480
▁የተከለከለ	-12481
▁የጀመረውን	-12482
▁አይሁዳውያን	-12483
▁እንደዘገበው	-12484
ንጮ	-12485
ዋ፣	-12486
ሰብኩ	-12487
▁ሰበ	-12488
▁ባቢ	-12489
▁ኢብ	-12490
▁ሱቆች	-12491
▁ሲኖዶ	-12492
▁በአሰ	-12493
▁ሲሞክሩ	-12494
▁ከወንድ	-12495
▁ከጠዋቱ	-12496
▁የወሰዱ	-12497
▁ያደርግ	-12498
▁ግምታዊ	-12499
▁ሪፖርቶች	-12500
▁ተመልሷል	-12501
▁ደህንነቱ	-12502
▁ፍላጎትና	-12503
▁በኢኮኖሚው	-12504
ያሌ	-12505
ሰማራ	-12506
አንተ	-12507
▁ጎብ	-12508
ይተርስ	-12509
▁መሰን	-12510
▁ሬስቶ	-12511
▁ሬዲዮ	-12512
▁የሰላ	-12513
▁መፈፀሙ	-12514
▁ስጋቶች	-12515
▁በጃፓን	-12516
▁የሚቀር	-12517
▁የተጎዱ	-12518
▁በንብረት	-12519
▁አልቀረም	-12520
▁ይጠበቅበታል	-12521
ራረ	-12522
ሰራም	-12523
ታለን	-12524
ኪያስ	-12525
መጣጠነ	-12526
▁ሰፋፊ	-12527
▁አከፋ	-12528
▁የኪነ	-12529
▁በዘለለ	-12530
▁በሚደርስ	-12531
▁በማስረጃ	-12532
▁ከህወሀት	-12533
ቀቱ	-12534
ተኩር	-12535
ሰባሰቡ	-12536
በረከቱ	-12537
▁1.5	-12538
▁አይና	-12539
▁ለማቆም	-12540
▁መገለፁ	-12541
▁ሳይሳካ	-12542
▁በምድብ	-12543
▁በድምፅ	-12544
▁አንባቢ	-12545
▁አንጋፋ	-12546
▁እርካታ	-12547
▁ክፍላተ	-12548
▁ፈርኦን	-12549
▁የማምረቻ	-12550
▁የቻይናው	-12551
▁ያሉበትን	-12552
▁ያልተገባ	-12553
▁አክሲዮኖች	-12554
▁ኤርፖርቶች	-12555
▁የመጀመሪያዎቹ	-12556
ሸር	-12557
መሩን	-12558
ረንስ	-12559
በደር	-12560
▁64	-12561
▁በጊ	-12562
▁ዳይ	-12563
▁ለዚሁ	-12564
▁በፀረ	-12565
▁ነገሩ	-12566
▁ጥለው	-12567
▁መምህራ	-12568
▁በይሁዳ	-12569
▁እንዳን	-12570
▁ከቅዱስ	-12571
▁የመታው	-12572
▁ለመሸፈን	-12573
▁ሊቃውንት	-12574
▁በሚባለው	-12575
▁በማድረጉ	-12576
▁አማካዮች	-12577
▁የባህልና	-12578
▁ለቀረበላቸው	-12579
▁የመሳሰሉትን	-12580
▁ያስመዘገበው	-12581
ባህ	-12582
ጎበ	-12583
ሳለሁ	-12584
ነስቲ	-12585
ከሩት	-12586
ገደድ	-12587
▁ስሪት	-12588
▁ቃሉን	-12589
▁አራዳ	-12590
▁ገመቹ	-12591
▁ከእርሱ	-12592
▁መገልገያ	-12593
▁አስተዳደር፣	-12594
▁ክርስቲያናት	-12595
▁አሌ	-12596
▁በረሀ	-12597
▁ዘነበ	-12598
▁ፍኖተ	-12599
▁ቡድንን	-12600
▁ተብራር	-12601
▁ለመዋጋት	-12602
▁ለነበረው	-12603
▁ልዩነቶች	-12604
▁አሰራርን	-12605
▁የፍልስጤ	-12606
▁ተፈፃሚነት	-12607
▁ውጤታማነት	-12608
▁የሀገራችን	-12609
▁የተከናወኑ	-12610
▁ጊዜያቸውን	-12611
▁በመንቀሳቀስ	-12612
▁የተደረገላቸው	-12613
▁ኗ	-12614
ካልኝ	-12615
▁ማግ	-12616
▁ከሚል	-12617
▁የትን	-12618
▁ያግኙ	-12619
▁ይቀን	-12620
▁2019	-12621
▁ቀድሞው	-12622
▁በሩሲያ	-12623
▁የአጭር	-12624
▁ጠቁሞ፣	-12625
▁በመረዳት	-12626
▁በተፈፀመ	-12627
▁በፓርቲው	-12628
▁አርበኞች	-12629
▁በሚኒስቴሩ	-12630
▁ተሰጥቶታል	-12631
▁እንዳብራሩት	-12632
ቀሻ	-12633
▁ይሉ	-12634
▁ናችሁ	-12635
▁ይስማ	-12636
▁አድማስ	-12637
▁የዳይሬ	-12638
▁በመጪዎቹ	-12639
▁እኩልነት	-12640
▁ትክክለኛው	-12641
▁ስምምነቶችን	-12642
ሯት	-12643
ንጅ	-12644
ቅርታ	-12645
▁ጋብ	-12646
▁በሚታ	-12647
▁በስሩ	-12648
▁አሮጌ	-12649
▁አይቶ	-12650
▁ሀገራቱ	-12651
▁መታሰራ	-12652
▁ሰርተው	-12653
አምባሳደር	-12654
▁ባልደረባ	-12655
▁ተማሪዎቹ	-12656
▁አፈወርቂ	-12657
▁የከተማዋን	-12658
▁ተጠርጣሪዎችን	-12659
ዋኔ	-12660
ጠኑ	-12661
▁እኚ	-12662
▁ከሆ	-12663
▁ያካ	-12664
ቀጥልም	-12665
አቸውን	-12666
▁ሰውን	-12667
▁ተቀይ	-12668
▁የተዘ	-12669
▁የጥሬ	-12670
▁በላቸው	-12671
▁በፈጣን	-12672
▁ባወጡት	-12673
▁ችግኞች	-12674
▁እስጢፋ	-12675
▁ጥያቄም	-12676
▁ህይወትን	-12677
▁አራተኛው	-12678
▁አቋርጠው	-12679
▁አጠራጣሪ	-12680
▁ኩባንያ፣	-12681
▁የሚጠቀሱ	-12682
▁ዳይሬክተ	-12683
▁ለመመልከት	-12684
")	-12685
ዛብ	-12686
ንባብ	-12687
መስገን	-12688
ገኝነት	-12689
▁ስምን	-12690
▁ኤርም	-12691
▁ክፍሌ	-12692
▁ለዘርፉ	-12693
▁በረጅሙ	-12694
▁ተሰላፊ	-12695
▁ችግርን	-12696
▁ማስጨበጫ	-12697
▁ማጠናቀቁ	-12698
▁የጉባኤው	-12699
▁ድርጅታዊ	-12700
▁የይገባኛል	-12701
ቁና	-12702
ነባ	-12703
ሰጥም	-12704
ችሎቱ	-12705
▁ሙፈ	-12706
▁ስማ	-12707
▁ኖት	-12708
ረዱት፣	-12709
ነቃቸው	-12710
ካርያስ	-12711
▁ሲሄዱ	-12712
▁ሺዎች	-12713
▁ቀረበ	-12714
▁ገንዳ	-12715
ክርስቲያ	-12716
▁ሆናለች	-12717
▁ሙሏለም	-12718
▁በመክፈት	-12719
▁በምክንያ	-12720
▁ኤርምያስ	-12721
▁ኤጀንሲዎች	-12722
▁እንዲያድግ	-12723
▁የቫይረሱን	-12724
ዝሩ	-12725
መልሱ	-12726
ዘዘው	-12727
▁ልቦ	-12728
ብርሀም	-12729
▁ውሀና	-12730
▁ይሁኑ	-12731
▁ጭንቅ	-12732
▁ፀጉር	-12733
▁ማከናወ	-12734
▁በመኪና	-12735
▁ተጭነው	-12736
▁የትዳር	-12737
▁ተጫዋቾቹ	-12738
▁አለማቀፍ	-12739
▁አቅርቦትና	-12740
▁እንዲወስዱ	-12741
▁ጊዮርጊስን	-12742
▁እየተንቀሳቀሱ	-12743
፤የ	-12744
ሳውያን	-12745
ስፈፃሚ	-12746
▁ራሴን	-12747
▁ቃሲም	-12748
▁ባራክ	-12749
▁ቦጋለ	-12750
▁የታተ	-12751
▁ለአደጋ	-12752
▁ሲገልፅ	-12753
▁በማመን	-12754
▁አለው፦	-12755
▁አፍንጫ	-12756
▁እንጀራ	-12757
▁ከዘርፉ	-12758
▁ተመልክተ	-12759
▁ክልሎችና	-12760
▁ገልፃለች	-12761
▁መድሀኒቶች	-12762
▁ኢንተርኔት	-12763
▁በተመሳሳይም	-12764
ጎላ	-12765
ቆይም	-12766
▁63	-12767
▁ሲዲ	-12768
ሲፕሊን	-12769
ግባባት	-12770
▁መባሉ	-12771
▁ምርቱ	-12772
▁ፍላጐ	-12773
▁አንፃራዊ	-12774
▁ኢንጅነር	-12775
▁እንዲፈታ	-12776
▁ድርጅት፣	-12777
ምሳ	-12778
ምፖ	-12779
ቾት	-12780
ንቶስ	-12781
▁ሙሌ	-12782
▁መሸጫ	-12783
▁ከገቡ	-12784
▁ጣሪያ	-12785
▁ህሙማን	-12786
▁መረጋጋ	-12787
▁አምርቶ	-12788
▁ጠይቀው	-12789
▁ሰራተኛው	-12790
▁አለመረጋጋ	-12791
▁የቴሌግራም	-12792
▁መግባታቸውን	-12793
▁ስለመሆናቸው	-12794
ዳዳ	-12795
፲፱፻	-12796
ዝረዋል	-12797
▁ምሁር	-12798
▁ከግቡ	-12799
▁ወዳድ	-12800
▁የቁጠባ	-12801
▁ለመገናኛ	-12802
▁በመደረጉ	-12803
▁በተደራጀ	-12804
▁በኢየሱስ	-12805
▁የሰውነት	-12806
▁የጦርነት	-12807
▁የሚከናወኑ	-12808
▁የፖለቲካና	-12809
▁ይቀላቀሉከዚህ	-12810
▁ያት	-12811
▁ተመዝ	-12812
▁ይህች	-12813
▁መሪዎቹ	-12814
▁አንዳች	-12815
▁የተጠረ	-12816
▁ከጥቅምት	-12817
▁የሚደነግ	-12818
▁በማጠናቀቅ	-12819
▁መሆናቸውንና	-12820
ሞክ	-12821
ኬል	-12822
መንጃ	-12823
▁ዎቹ	-12824
▁የጃ	-12825
ሆንበት	-12826
▁ለመጠ	-12827
▁ሲራጅ	-12828
▁የቻሉ	-12829
▁ደንቡ	-12830
▁ግሪክ	-12831
▁ኡጋንዳ	-12832
▁ዩጋንዳ	-12833
▁ለመተካት	-12834
▁ኢየሱስን	-12835
▁ከግብርና	-12836
▁ምርመራውን	-12837
▁ተደርገዋል	-12838
▁ዳይሬክተሩ፣	-12839
ልኩ	-12840
▁በኡ	-12841
ገጠመው	-12842
▁መስቀ	-12843
▁ሲገኝ	-12844
▁አዱኛ	-12845
▁ኢራቅ	-12846
▁የተራ	-12847
▁ድክመ	-12848
ሬዝዳንት	-12849
▁መጠኑን	-12850
▁የመሩት	-12851
▁ጥያቄን	-12852
▁በአብላጫ	-12853
▁ናትናኤል	-12854
ሀር	-12855
ዩስ	-12856
መንድ	-12857
ጩነት	-12858
▁ጎራ	-12859
▁ምትኩ	-12860
▁ብልሹ	-12861
▁የታሸ	-12862
▁ሊያጋጥ	-12863
▁ረጃጅም	-12864
▁ስለሌለ	-12865
▁በተሳካ	-12866
▁በጉባኤ	-12867
▁የሚጠራ	-12868
▁ይሻላል	-12869
▁በሌለበት	-12870
▁ተርሚናል	-12871
▁እንደቻለ	-12872
▁ለመቀላቀል	-12873
▁በዴሞክራሲ	-12874
▁አይመስልም	-12875
▁ያስታውሳሉ	-12876
▁የሎጂስቲክስ	-12877
▁ዲግሪያቸውን	-12878
▁እንደተገለፀው	-12879
(1)	-12880
ሊንግ	-12881
ምርያ	-12882
▁ለሲ	-12883
ቤታቸው	-12884
ጠበቁት	-12885
▁ሙሴን	-12886
▁ማውጣ	-12887
▁ረዘም	-12888
▁ሻለቃ	-12889
▁አባቴ	-12890
▁እየጣ	-12891
▁ውሀን	-12892
▁የየራ	-12893
▁በብሄር	-12894
▁የአርሶ	-12895
▁የጠየቁ	-12896
▁በህዝቦች	-12897
▁ተቀምጠው	-12898
▁እንዲመጡ	-12899
▁ፖሊሲዎች	-12900
▁የሚያገኙት	-12901
▁መንግስታቸው	-12902
ተነ	-12903
መቻች	-12904
▁67	-12905
▁ሌሊ	-12906
▁ካፒ	-12907
▁ክሪ	-12908
▁አውሎ	-12909
▁የቢራ	-12910
▁ፓርኩ	-12911
▁ለአንተ	-12912
▁ቀደምት	-12913
▁በእርሱ	-12914
▁አስደን	-12915
▁ከሀዋሳ	-12916
▁መዘግየት	-12917
▁በመተካት	-12918
▁በባህላዊ	-12919
▁በተከሰተ	-12920
▁አምባገነ	-12921
▁የሚኖሩት	-12922
▁ያረጋግጡ	-12923
▁ተሰጥቷቸው	-12924
▁የሚኒስቴሩ	-12925
▁እንደሚፈልግ	-12926
ርሞ	-12927
ተቱ	-12928
ለን፣	-12929
▁አጀማ	-12930
▁ከደን	-12931
▁የጥር	-12932
▁ያለች	-12933
▁ጥይት	-12934
ገልግሎቱ	-12935
▁ትራፊክ	-12936
▁አቻቸው	-12937
▁አይገባ	-12938
▁እጃቸው	-12939
▁ፍርሀት	-12940
▁መዝገቡን	-12941
▁በማስታወስ	-12942
▁የእስልምና	-12943
▁የማስታወቂያ	-12944
ሻቸው	-12945
▁ሀሪ	-12946
▁ላከ	-12947
ጠየቀው	-12948
▁ሰልፈ	-12949
▁ስራና	-12950
▁ቴሌኮ	-12951
▁ከውሀ	-12952
▁ሲመለስ	-12953
▁ሲነገር	-12954
▁ተገናኝቶ	-12955
▁ፅሁፎችን	-12956
▁እንደሚረዳ	-12957
▁እየተደረጉ	-12958
▁የተጠናከረ	-12959
በሱ	-12960
ዮት	-12961
ዳሽ	-12962
ጫት	-12963
▁ታክ	-12964
▁ኪም	-12965
▁ብሩህ	-12966
▁የማር	-12967
ሆናቸውን	-12968
▁ይታያሉ	-12969
▁ድጋፉን	-12970
▁እያደረገች	-12971
▁በኮሮናቫይረስ	-12972
ሰዱ	-12973
ታዲ	-12974
ጋሉ	-12975
ልምና	-12976
ቀቀው	-12977
▁ከሴ	-12978
ወሰዱት	-12979
▁ነፃና	-12980
▁ማስፈራ	-12981
▁ሴክሬታ	-12982
▁በኮንት	-12983
▁ተጠባቂ	-12984
▁አቋራጭ	-12985
▁ከነሀሴ	-12986
▁የሚከፍ	-12987
▁ያሏቸው	-12988
▁ድንገት	-12989
▁ግርግር	-12990
ፓርትመንት	-12991
▁አሳውቋል	-12992
▁የምግብና	-12993
▁የተሞላበት	-12994
▁ለማበረታታት	-12995
ልካ	-12996
ጊት	-12997
▁97	-12998
▁ዳዋ	-12999
ግሬሽን	-13000
▁ንግዱ	-13001
▁አናሳ	-13002
▁እሷም	-13003
▁የእና	-13004
▁ቀዳማዊ	-13005
▁ተናገረ	-13006
▁ተከፍሎ	-13007
▁ዘመቻው	-13008
▁አሰባሰብ	-13009
▁ለመነጋገር	-13010
▁እራሳቸውን	-13011
▁እንዲሻሻል	-13012
▁ፍሬህይወት	-13013
ሩበት	-13014
▁ላስ	-13015
ዮኖችን	-13016
▁ይከተ	-13017
ዶሚኒየም	-13018
▁ለሰዎች	-13019
▁በዘጠኝ	-13020
▁ከሚለው	-13021
▁የሚገጥ	-13022
▁የትኞቹ	-13023
▁የኮምፒ	-13024
▁ጥቃቅን	-13025
▁ተገቢነት	-13026
▁ያቀርባሉ	-13027
▁በመቆጣጠር	-13028
▁አፋ	-13029
▁የሎ	-13030
▁ያነጣ	-13031
▁ገበሬ	-13032
▁ፋሲካ	-13033
▁ሳይችሉ	-13034
▁አጠናቋል	-13035
▁እንደሚመ	-13036
▁የባንኮች	-13037
▁ይኖራቸዋል	-13038
ኛና	-13039
በልፀ	-13040
ይናን	-13041
▁እገ	-13042
ሎቻቸው	-13043
▁ካህና	-13044
ኞቻቸውን	-13045
▁የሚመነ	-13046
▁የአስተ	-13047
▁ያገኛል	-13048
▁የአማርኛ	-13049
▁የወረዳው	-13050
▁በማድረግና	-13051
▁የመካከለኛው	-13052
ገየ	-13053
ማንት	-13054
▁በሉ	-13055
▁ሊኖሩ	-13056
▁ስሙን	-13057
▁ከፊል	-13058
▁ይርጋ	-13059
▁ለንደን	-13060
▁መጥፋት	-13061
▁ተሀድሶ	-13062
▁ተጠብቆ	-13063
▁ታደርጋ	-13064
▁አልሆነ	-13065
▁እያስተ	-13066
▁የማክሮ	-13067
▁የአድዋ	-13068
▁የዝናብ	-13069
▁የያዙት	-13070
▁ጉዳቶች	-13071
▁በማግስቱ	-13072
▁ትሪሊዮን	-13073
▁ወጥተዋል	-13074
▁የተጫዋች	-13075
▁ያስፈልግ	-13076
▁በትእግስት	-13077
▁እንደሚያደርገው	-13078
ጫዊ	-13079
ፃል	-13080
ንሽን	-13081
▁53	-13082
▁ጨው	-13083
▁ማሳወ	-13084
▁ቆመው	-13085
▁በአክ	-13086
▁ኩራት	-13087
▁ዉስጥ	-13088
▁ፌስቲቫ	-13089
▁በማስታወ	-13090
▁የሚወጣው	-13091
▁ግንባታን	-13092
▁መብታቸውን	-13093
▁ምህንድስና	-13094
▁በመንፈሳዊ	-13095
▁እንዲለቀቁ	-13096
52	-13097
ኒን	-13098
ርያን	-13099
ነበት	-13100
▁66	-13101
▁አሚ	-13102
ደርሰው	-13103
▁ለአባ	-13104
▁ማይክ	-13105
▁ብፁእ	-13106
▁ሀይል፣	-13107
▁መፅሀፉ	-13108
▁ምርትን	-13109
▁በመቀሌ	-13110
▁በፍትህ	-13111
▁ብድርና	-13112
▁እድልን	-13113
▁ክልልን	-13114
▁ድንኳን	-13115
▁አውጥተው	-13116
▁እነርሱም	-13117
▁ጠቅሰው፤	-13118
▁እንዲከፍሉ	-13119
▁የስምምነት	-13120
▁የወዳጅነት	-13121
▁ፕሬዚዳንታዊ	-13122
ሻን	-13123
ዛጋቢ	-13124
▁ማቲ	-13125
▁ውሉ	-13126
▁መረዳ	-13127
▁በይነ	-13128
▁አክብ	-13129
▁ከሆን	-13130
▁ዛፎች	-13131
▁ብድሮች	-13132
▁ካንሰር	-13133
▁ፓትርያ	-13134
▁ባለንብረ	-13135
▁አሜሪካዊ	-13136
▁የተፈፀሙ	-13137
▁የገጠመው	-13138
ሆች	-13139
ኒያም	-13140
ንዳር	-13141
ጣለች	-13142
ላለፉም	-13143
▁መሳተ	-13144
▁እራስ	-13145
▁ወላጅ	-13146
▁ጀልባ	-13147
▁ማብቂያ	-13148
▁በጨዋታ	-13149
▁ማጠቃለያ	-13150
▁የመግለፅ	-13151
▁የምትገኝ	-13152
▁ተከራክረዋል	-13153
▁እንደሚሆንም	-13154
ሮ፣	-13155
ይ፣	-13156
መረቱ	-13157
▁ሜካ	-13158
▁በጂ	-13159
▁ያኔ	-13160
▁የሚባ	-13161
▁ግልጋ	-13162
▁ንግድን	-13163
▁የዘለቀ	-13164
▁የፊልም	-13165
መንግስታዊ	-13166
▁ተመሰረተ	-13167
▁የሚባሉት	-13168
▁የኬሚካል	-13169
▁ድጋፎችን	-13170
▁በፈረንጆቹ	-13171
▁ድምፃቸውን	-13172
▁በኢትዮጵያውያን	-13173
ሎና	-13174
ማከር	-13175
ነገሩ	-13176
▁እዮብ	-13177
▁የልጅ	-13178
▁የበጋ	-13179
ጠራቸውን	-13180
▁ለችግሩ	-13181
▁ሊከሰት	-13182
▁ማሳለፍ	-13183
▁በገባው	-13184
▁ከኢትዮ	-13185
ፈልጋቸውን	-13186
▁ለማጣራት	-13187
▁መንገድ፣	-13188
▁የህዳሴው	-13189
▁የተቀሩት	-13190
▁ማስተዳደር	-13191
▁የመጀመርያውን	-13192
ንሳ	-13193
ዛኙ	-13194
ሰባዊ	-13195
▁አጫ	-13196
ስክሌት	-13197
ሻቸውን	-13198
▁በጎች	-13199
▁ተባለ	-13200
▁ተክል	-13201
▁ከሳሽ	-13202
▁ከዋና	-13203
▁አንቶኒ	-13204
▁ተወያይቶ	-13205
▁ዘፍጥረት	-13206
▁አድርገናል	-13207
▁ማቀነባበሪያ	-13208
ራዝ	-13209
ሮጥ	-13210
ብዱ	-13211
ጠጣ	-13212
ፋማ	-13213
ደራሉ	-13214
ጋችን	-13215
ህወሀት	-13216
▁ራሷን	-13217
▁አሸነ	-13218
▁የሪል	-13219
▁የቀይ	-13220
▁ፖስቱ	-13221
▁መልአክ	-13222
▁እድሜው	-13223
▁መስራችና	-13224
▁መከታተል	-13225
▁ሰንሰለት	-13226
▁የሚሰሩት	-13227
▁ተደምጠዋል	-13228
ኋቸው	-13229
ንም፣	-13230
▁ስቲ	-13231
▁እላ	-13232
ሀብቶች	-13233
ሰማቸው	-13234
▁ወዲያ	-13235
▁ይሁዳ	-13236
▁1990	-13237
▁መስተጋ	-13238
▁ተሟጋች	-13239
▁አሳማኝ	-13240
▁የወሰን	-13241
▁መብቶችን	-13242
▁መጨናነቅ	-13243
▁ማሀበር፣	-13244
▁ቆይታቸው	-13245
▁በተዘጋጀ	-13246
▁አንችልም	-13247
▁ለመሰማራት	-13248
▁እንደገለፀው፣	-13249
በሪ	-13250
ገፉ	-13251
ጫኑ	-13252
ምገማ	-13253
ደስት	-13254
▁ሀጂ	-13255
▁ነቀ	-13256
▁መቅጫ	-13257
▁በወን	-13258
▁ዘጋቢ	-13259
ጠራቀሚያ	-13260
▁ብክለት	-13261
▁የሚገዛ	-13262
▁ጥናቱን	-13263
▁የውድድሩ	-13264
▁የተማሪዎች	-13265
▁የፕላስቲክ	-13266
▁ምርታማነትን	-13267
▁ትራንስፖርትና	-13268
ሲንግ	-13269
▁ባዮ	-13270
▁የማጥ	-13271
▁ይጀመ	-13272
▁ደመወ	-13273
/2006	-13274
▁በሌላው	-13275
▁ቴክኒክ	-13276
▁አጋሮች	-13277
▁መፈጠሩን	-13278
▁ከነዚህም	-13279
▁የሴቶችን	-13280
▁በሶስተኛው	-13281
▁በታማኝነት	-13282
▁አይደለሁም	-13283
▁አይደለም፣	-13284
▁ጨዋታቸውን	-13285
ለየ	-13286
ሚት	-13287
ሞራ	-13288
የታ	-13289
ልጣል	-13290
ሰጠን	-13291
▁62	-13292
መላክት	-13293
▁ስንል	-13294
▁በሊዝ	-13295
▁አክሎ	-13296
▁ከሚታ	-13297
▁ጎጃም	-13298
የታቸውን	-13299
▁ለሆነው	-13300
▁ሳላዲን	-13301
▁ሳይኖር	-13302
▁አተገባ	-13303
▁መንገድና	-13304
▁ስርአትና	-13305
▁አትክልት	-13306
▁ያብራራሉ	-13307
▁ያስመዘገበ	-13308
▁የመጨረሻውን	-13309
ጊቱ	-13310
▁5.	-13311
▁ሞቱ	-13312
▁በጆ	-13313
ነሳሳት	-13314
▁ስሌት	-13315
▁ክንው	-13316
ቶቻችንን	-13317
▁መረጃ፣	-13318
▁መቃብር	-13319
▁ሱዳንን	-13320
▁በሙከራ	-13321
▁በጥይት	-13322
▁የታቀደ	-13323
▁ይስሀቅ	-13324
▁ጥያቄ፣	-13325
▁አርቲስት	-13326
▁አብዱላሂ	-13327
▁ፈቃደኞች	-13328
▁በማገልገል	-13329
▁በእንቅስቃሴ	-13330
ቃው	-13331
ቢነት	-13332
ጋችሁ	-13333
▁ቁስ	-13334
▁ቪዛ	-13335
▁ተፈት	-13336
▁አውግ	-13337
▁የመዝ	-13338
▁ተወስኖ	-13339
▁ደረጃም	-13340
▁ብርጋዴር	-13341
▁ተጠይቀው	-13342
▁ችግኞችን	-13343
▁ኤሌክትሮ	-13344
▁የሆነበት	-13345
▁አንድነትና	-13346
▁የተቀላቀለው	-13347
▁የደረሰበትን	-13348
ቨን	-13349
ዳድ	-13350
ጋራት	-13351
ጠየቀ	-13352
ፅፅር	-13353
▁ሻን	-13354
▁ወፍ	-13355
▁ማውጫ	-13356
▁በተጠ	-13357
▁በአካ	-13358
▁ተሟጋ	-13359
▁ትተው	-13360
▁አጥፊ	-13361
▁የስም	-13362
▁ይኼም	-13363
▁ጠርቶ	-13364
▁ጥምር	-13365
▁ለምርጫ	-13366
▁ሱዳንና	-13367
▁ቦይንግ	-13368
▁ወጣቶቹ	-13369
▁የዳሰሳ	-13370
▁የጉባኤ	-13371
▁ገዥዎች	-13372
▁ማምሻውን	-13373
▁ቃላቸውን	-13374
▁በያዝነው	-13375
▁አልነበሩ	-13376
▁የተናገረ	-13377
▁መናገራቸው	-13378
▁በማስቀመጥ	-13379
▁አመልክተው	-13380
▁እንደሆነች	-13381
ለምን	-13382
መሪያ	-13383
ራውን	-13384
ፓርኩ	-13385
▁ሄዱ	-13386
▁እይ	-13387
▁ከዲ	-13388
ላችንን	-13389
ተገበሩ	-13390
▁መሸጋ	-13391
▁ባህሩ	-13392
▁ይቻል	-13393
▁ሁንዴሳ	-13394
▁ምድርን	-13395
▁ሬድዋን	-13396
▁በአሁን	-13397
▁መላእክት	-13398
▁ስላላቸው	-13399
▁አድሀኖም	-13400
▁የሚፈጠሩ	-13401
▁በተጠቀሰው	-13402
▁የሚገባቸውን	-13403
ተሪ	-13404
ዱላ	-13405
ክራሲ	-13406
▁ሊመጣ	-13407
▁ተሻለ	-13408
▁የከተ	-13409
ደጋፊዎች	-13410
▁ቅዳሜና	-13411
▁በመስኖ	-13412
▁በወንድ	-13413
▁ናሽናል	-13414
▁አኳኋን	-13415
▁ከጂቡቲ	-13416
▁የምእራ	-13417
▁የፈፀመ	-13418
▁ለህልፈት	-13419
▁መልቀቂያ	-13420
▁ተናግረው፣	-13421
ሀስ	-13422
ምፕ	-13423
ርግ	-13424
ጅና	-13425
ቀትና	-13426
ኔስኮ	-13427
ንጉስ	-13428
ኗኗር	-13429
▁ለሞ	-13430
▁ሳሉ	-13431
▁በጥሬ	-13432
▁ታይም	-13433
▁አስፋ	-13434
▁ገዳይ	-13435
ገባቸውን	-13436
▁ለስላሳ	-13437
▁ለደንበ	-13438
▁ረገድም	-13439
▁በግምት	-13440
▁ህፃናትና	-13441
▁ማድረግና	-13442
▁የሁለተኛው	-13443
▁ማስረጃዎችን	-13444
ሽ፣	-13445
ብያ	-13446
ቲቱ	-13447
ክና	-13448
ጓጎ	-13449
በራቱ	-13450
▁ኮሪ	-13451
▁ጣል	-13452
▁ፖል	-13453
ኪስታን	-13454
▁ህግ፣	-13455
▁ሞሮኮ	-13456
▁ረሀብ	-13457
▁በተራ	-13458
▁አርሲ	-13459
▁የጎን	-13460
▁ጀግና	-13461
ቀርባለን	-13462
▁መዝገቡ	-13463
▁የተስፋ	-13464
▁የንግዱ	-13465
▁ሀገሪቱን	-13466
▁ማስጠበቅ	-13467
▁ብዙዎችን	-13468
▁ውይይቱን	-13469
▁ሆስፒታሎች	-13470
▁ኢኮኖሚውን	-13471
▁አድርጓቸዋል	-13472
ን፤	-13473
ጨር	-13474
ቧንቧ	-13475
▁ሌዋ	-13476
ክሳይዝ	-13477
ዳሪነት	-13478
▁መጪው	-13479
▁አሳር	-13480
▁አቃቂ	-13481
▁እስረ	-13482
▁ከንቱ	-13483
▁ዋዜማ	-13484
▁ጭብጥ	-13485
▁ፍሰሀ	-13486
▁ዝምድና	-13487
▁ሀገራችን	-13488
▁የማረጋገጥ	-13489
ሊየ	-13490
ራጌ	-13491
በህ	-13492
▁ስጦ	-13493
▁ግፍ	-13494
▁ቀኑን	-13495
▁ባደረ	-13496
▁ከመው	-13497
▁ከስር	-13498
▁ጥቅስ	-13499
▁መስመሩ	-13500
▁በቱርክ	-13501
▁በወረዳ	-13502
▁የሚያበቃ	-13503
▁የዝግጅት	-13504
▁ይሰማኛል	-13505
▁እንደሚደርስ	-13506
ረሳ	-13507
ኩር	-13508
ፕሪል	-13509
▁ይግ	-13510
ሰሩበት	-13511
▁ባንድ	-13512
▁አመቷ	-13513
▁እስያ	-13514
▁የላከ	-13515
▁ለፍትህ	-13516
▁ሰውየው	-13517
▁በነዚህ	-13518
▁በዙሪያ	-13519
▁የግማሽ	-13520
▁ፈፅመው	-13521
▁ኮምቦልቻ	-13522
▁የሚገነባ	-13523
▁ግለሰቦችና	-13524
ሩ፤	-13525
ተኑ	-13526
ቂያው	-13527
ዛይን	-13528
▁ሽታ	-13529
▁ሊቢያ	-13530
▁እሰጣ	-13531
▁የሚቆ	-13532
▁ሀኪሞች	-13533
▁ሀያላን	-13534
▁መዳረጋ	-13535
▁ቀጣናዊ	-13536
▁ከተገኘ	-13537
▁ዝግጅቱ	-13538
▁የታገዘ	-13539
▁ባለማግኘ	-13540
▁ከሁለቱም	-13541
▁ከግንቦት	-13542
▁ሚኒስትርና	-13543
▁ተብራርቷል	-13544
▁የማዳበሪያ	-13545
▁ግንባታቸው	-13546
▁መስፈርቶችን	-13547
▁የዳይሬክተሮች	-13548
ፀና	-13549
▁ከቴ	-13550
ለተኛው	-13551
ፖንሰር	-13552
▁መፃፍ	-13553
▁መፈረ	-13554
▁ስፔሻ	-13555
▁ይከራ	-13556
▁ጣእም	-13557
▁ከተመረ	-13558
▁ዝርፊያ	-13559
▁መፍጠሩን	-13560
▁ተለዋዋጭ	-13561
▁አመራሮች፣	-13562
▁እንደሚውል	-13563
▁በሚኒስትሮች	-13564
▁በየአካባቢው	-13565
▁የማሀበረሰብ	-13566
ከርድ	-13567
ጠናል	-13568
▁09	-13569
▁መሾ	-13570
▁3-0	-13571
▁ለመጥ	-13572
▁ለአቶ	-13573
▁መስህ	-13574
▁ሲኖሩ	-13575
▁ፔትሮ	-13576
▁መንገሻ	-13577
▁ቀሪውን	-13578
▁ቅድስት	-13579
▁ትንተና	-13580
▁እየገቡ	-13581
▁ይደርስ	-13582
▁መመርመር	-13583
▁በየካቲት	-13584
▁ባህሪያት	-13585
▁እንዲነሱ	-13586
▁ይቀርባል	-13587
▁በመኖራቸው	-13588
▁ትምህርቶች	-13589
▁የምትገኘው	-13590
▁እግዚአብሄርን	-13591
59	-13592
ጎስ	-13593
፤እ	-13594
▁ዎ	-13595
ላሎች	-13596
ልኛል	-13597
ራለን	-13598
ባታል	-13599
ጥለው	-13600
▁ከአም	-13601
▁ተካቷል	-13602
▁ያግዛል	-13603
▁ዶላር፣	-13604
▁ሀላፊው፣	-13605
▁መሰጠቱን	-13606
▁ቱሪስቶች	-13607
▁የከተሞች	-13608
▁የክልልነት	-13609
▁ህብረተሰቡን	-13610
ጋቡ	-13611
ናጀት	-13612
ኔጋል	-13613
▁ርክ	-13614
▁ቅጂ	-13615
▁ጥግ	-13616
▁በጠበ	-13617
▁ኮርያ	-13618
▁ከምክር	-13619
▁ስልጣንን	-13620
▁በመካሄድ	-13621
▁በስምንት	-13622
▁በስፖርት	-13623
▁በተመረጡ	-13624
▁የተፈራረ	-13625
▁መከላከልና	-13626
▁በመመርያው	-13627
▁ደንበኞችን	-13628
▁ማስታወሻዎች	-13629
ረፉ	-13630
ነታ	-13631
ራረስ	-13632
ሰማት	-13633
▁ሳልቫ	-13634
▁ብሎግ	-13635
▁አመተ	-13636
ማንኛውም	-13637
▁መሆኑ፣	-13638
▁ተካልኝ	-13639
▁አብዲሳ	-13640
▁እየገባ	-13641
▁ከምድር	-13642
▁የሰብል	-13643
▁መቀጠሉን	-13644
▁እንደሚገቡ	-13645
▁እየተጠባበ	-13646
▁ፕሬዚዳንቷ	-13647
▁በአንፃራዊነት	-13648
ልበስ	-13649
ቅያስ	-13650
ዚያም	-13651
ዞችን	-13652
ደናቀፍ	-13653
▁ዘሮች	-13654
▁መቀመጥ	-13655
▁ምግብና	-13656
▁ሲያልፍ	-13657
▁ነበሩ፤	-13658
▁አረጋዊ	-13659
▁አቅሙን	-13660
▁የችግሩ	-13661
▁ያገገሙ	-13662
▁ሲያቀርብ	-13663
▁አስከሬን	-13664
▁የሚመስል	-13665
▁በወታደራዊ	-13666
▁የሚያስፈል	-13667
▁የፌዴራልና	-13668
▁በኢትዮጵያም	-13669
▁የተቀመጠውን	-13670
▁የማስጠንቀቂያ	-13671
ስሀ	-13672
ቡላ	-13673
ጡም	-13674
ቲካል	-13675
▁ትቶ	-13676
▁ከጅ	-13677
ልቃይት	-13678
ዘወትር	-13679
▁ስደት	-13680
▁ቀኙን	-13681
▁ነፋስ	-13682
▁ከአል	-13683
▁ከእን	-13684
▁ለኮሮና	-13685
▁ሲመለሱ	-13686
▁ተጀመረ	-13687
▁ይይዛል	-13688
▁እየገለፁ	-13689
▁ከተከሰተ	-13690
▁ተመዝግቧል	-13691
▁የድርጅቱን	-13692
▁የምታደርገውን	-13693
ሮት	-13694
ፀን	-13695
ፎን	-13696
ለጠኑ	-13697
መጣት	-13698
▁ሀና	-13699
▁ዘጠ	-13700
▁መገኛ	-13701
▁ሚሊሻ	-13702
▁ወቅቱ	-13703
▁ለመሳብ	-13704
▁ለይሆዋ	-13705
▁እስልምና	-13706
▁እንዲያሳ	-13707
▁የሚያቀር	-13708
▁የአንደኛ	-13709
▁በመተግበር	-13710
▁በተያዘለት	-13711
▁የተመሰረቱ	-13712
ሪጅ	-13713
ኗን	-13714
ግራሙ	-13715
▁ሜት	-13716
ኒስትር	-13717
▁ከማይ	-13718
ስተናገድ	-13719
▁ሁኔታም	-13720
▁ባደረጉ	-13721
▁እፎይታ	-13722
▁የቀብር	-13723
▁ህዝቦችን	-13724
▁ተቋማትም	-13725
▁ተጨዋቾችን	-13726
ማም	-13727
ሽቆ	-13728
▁የጀ	-13729
▁ላፍቶ	-13730
▁ረፋድ	-13731
ሮቻቸውን	-13732
▁በሚችል	-13733
▁የታዳጊ	-13734
▁ጨዋታም	-13735
▁ለፖለቲካ	-13736
▁እየተመራ	-13737
▁የእውቀት	-13738
▁እንደፈጠረ	-13739
▁ባለሙያዎችና	-13740
▁እየተደረገላቸው	-13741
▁እንደሚያስፈልገው	-13742
ሄዳ	-13743
ረዝ	-13744
ሻር	-13745
ካራ	-13746
በሩን	-13747
ዋለች	-13748
ደሙት	-13749
▁ያገ	-13750
ካተቱት	-13751
▁መሀላ	-13752
▁መቀበ	-13753
▁ምሰሶ	-13754
▁በቀጠ	-13755
▁አእም	-13756
▁ከቡና	-13757
▁ፍንጭ	-13758
▁ለዜጎች	-13759
▁ቢችሉም	-13760
▁ትርጉሙ	-13761
▁አገኘሁ	-13762
▁ግጭትና	-13763
▁ተፈጥሯል	-13764
▁የእንኳን	-13765
▁በወረርሽኙ	-13766
▁እናገኛለን	-13767
▁ሀይለማሪያም	-13768
▁በህብረተሰቡ	-13769
▁የባለሙያዎች	-13770
▁የተካሄደውን	-13771
ሞና	-13772
ታይን	-13773
▁ካፍ	-13774
1996	-13775
▁ነገሰ	-13776
▁እስቴ	-13777
በረከቱት	-13778
▁ሰላም፣	-13779
▁በበአሉ	-13780
▁ተይዟል	-13781
▁አጨዋወ	-13782
▁እያገኘ	-13783
▁እያጋጠ	-13784
▁ፊልሞች	-13785
▁አላማዎች	-13786
▁አልችልም	-13787
▁አገላለፅ	-13788
▁እንዲሄድ	-13789
▁ከማእዘን	-13790
▁የሌለበት	-13791
▁የሚሸፍን	-13792
▁እንደሚያመለክተው	-13793
ጣጌ	-13794
ጩን	-13795
ቅዱስ	-13796
▁ለቡ	-13797
▁ረጋ	-13798
▁ታሳ	-13799
ሰናበቱ	-13800
ስተኞች	-13801
ንላይን	-13802
ኖቻቸው	-13803
▁የስዊ	-13804
▁የጥጥ	-13805
ስተዳድር	-13806
ገራችንን	-13807
▁ሰከንድ	-13808
▁ከሚኖሩ	-13809
▁ውለዋል	-13810
▁የዋሉት	-13811
▁ሳይንስና	-13812
▁አደሮችን	-13813
▁እርስዎን	-13814
▁እያቀረቡ	-13815
▁ከአመታት	-13816
▁ፕሮፌሰሩ	-13817
▁እየተባባሰ	-13818
በቁ	-13819
ሬቶች	-13820
ያንግ	-13821
▁የሉ	-13822
1999	-13823
መለከታ	-13824
▁በስም	-13825
▁ጠንቅ	-13826
▁ለክለቡ	-13827
▁የግእዝ	-13828
▁ያስከት	-13829
▁ይላል፦	-13830
▁ማኔጂንግ	-13831
▁በመጠየቅ	-13832
▁ለማሰባሰብ	-13833
▁ያስታወሰው	-13834
▁የደረሰባቸውን	-13835
▁የሚያስችላቸውን	-13836
ሸሽ	-13837
ቦል	-13838
ዋጋ	-13839
የሀ	-13840
ገሳ	-13841
ኦነግ	-13842
▁የቲ	-13843
▁ፋና	-13844
ነተኛው	-13845
▁አጥር	-13846
▁ከልክ	-13847
ነገራቸው	-13848
▁ሰርቷል	-13849
▁ሰዎች፣	-13850
▁በሚችሉ	-13851
▁በምእራ	-13852
▁የፋሲል	-13853
▁ግብሮች	-13854
▁በመታገዝ	-13855
▁ባህርያት	-13856
▁እርምጃው	-13857
▁ከበርካታ	-13858
▁የሚያወጡ	-13859
▁ገብረመድ	-13860
▁ግንባታ፣	-13861
▁በመጠቆም፣	-13862
▁እንዲወሰድ	-13863
▁የተወሰኑት	-13864
ደፍ	-13865
ገኑ	-13866
ሳልፍ	-13867
▁ሀዘ	-13868
▁ረብ	-13869
▁ይን	-13870
▁ጥጥ	-13871
መሳጠር	-13872
▁ለመዝ	-13873
▁ሙገር	-13874
▁ባልና	-13875
▁ርእዮተ	-13876
▁እድገቱ	-13877
▁ዝርጋታ	-13878
▁በመድረስ	-13879
▁አጠባበቅ	-13880
▁አስደንጋጭ	-13881
ኞቼ	-13882
ጎቴ	-13883
ነቱም	-13884
ገምገ	-13885
ጎናፀ	-13886
▁ሸሽ	-13887
▁አጉ	-13888
▁ኳሱ	-13889
▁ዘፋ	-13890
▁ዲላ	-13891
▁ስእል	-13892
▁የማነ	-13893
▁የካር	-13894
▁ያለአ	-13895
▁ይፈፅ	-13896
▁በፅናት	-13897
▁ተፈፅሞ	-13898
▁ከጀመሩ	-13899
▁የደንበ	-13900
▁ህይወትና	-13901
▁በተገኘው	-13902
▁የሚሉትን	-13903
▁ድርጅትን	-13904
▁ስነስርአት	-13905
▁ውድድሮችን	-13906
▁አስመዝግቧል	-13907
ናድ	-13908
ደፈ	-13909
ጭሩ	-13910
ትረፍ	-13911
▁የፔ	-13912
▁ጎበ	-13913
▁መካሄ	-13914
▁አዘው	-13915
▁ጎርፍ	-13916
▁ማለቱን	-13917
▁ቆይታው	-13918
▁ቢንያም	-13919
▁ተሰርቶ	-13920
▁ታቅዷል	-13921
▁ታዋቂው	-13922
▁እየሆኑ	-13923
▁እጅጉን	-13924
▁የሚፈታ	-13925
▁ስልጣኑን	-13926
▁እንቅልፍ	-13927
▁ከመግለፅ	-13928
▁መካከለኛው	-13929
▁በፕሪምየር	-13930
▁እየተከታተ	-13931
ለሉ	-13932
ላኑ	-13933
መኝ	-13934
800	-13935
ለቀቀ	-13936
እንዲ	-13937
ስፒታሉ	-13938
▁ሰሞን	-13939
▁ከሌለ	-13940
▁ኤሌክት	-13941
▁ሰምተናል	-13942
▁ስላለበት	-13943
▁በማሳተፍ	-13944
▁አምባሳደ	-13945
▁ከመኖሪያ	-13946
▁ከተሞችን	-13947
▁የልማትና	-13948
▁የሚጠቅም	-13949
▁አካባቢያዊ	-13950
▁የሚያስፈልግ	-13951
ማቹ	-13952
/60	-13953
ፋት፣	-13954
▁ኢኒ	-13955
ቦቻቸው	-13956
▁(2)	-13957
▁በምድ	-13958
▁በፈረ	-13959
▁ታመነ	-13960
ሸናፊነት	-13961
▁አስገኝ	-13962
▁አድማሱ	-13963
▁የመቐለ	-13964
▁የዋለው	-13965
▁ገረመው	-13966
▁ለህክምና	-13967
▁ማሳየቱን	-13968
▁ምርመራው	-13969
▁አምናለሁ	-13970
▁የንፅህና	-13971
▁ይስተዋላል	-13972
▁ተሰጥቷቸዋል	-13973
▁ከሀላፊነታቸው	-13974
ባ፣	-13975
አለሁ	-13976
ግተው	-13977
▁ሰጭ	-13978
▁ቼክ	-13979
ብሪካው	-13980
▁ቁመና	-13981
▁ቦንድ	-13982
▁አረም	-13983
▁ከተወ	-13984
▁ለወራት	-13985
▁መጠይቅ	-13986
▁አንተን	-13987
▁ይልቅ፣	-13988
▁ለማንሳት	-13989
▁ልማቶችን	-13990
▁አሜሪካን	-13991
▁አዳማዎች	-13992
▁ባለሙያዎች፣	-13993
▁በኢንዱስትሪው	-13994
ረዚ	-13995
ቃችሁ	-13996
ፍነው	-13997
▁ለገ	-13998
▁ፍሎ	-13999
ሮቻችን	-14000
▁ቅደም	-14001
▁አንቺ	-14002
▁ኢዜማ	-14003
▁ማተሚያ	-14004
▁ቅንጅት	-14005
▁ጓደኞች	-14006
▁ቀጥለዋል	-14007
▁አመራሮቹ	-14008
▁ከቀረቡት	-14009
▁የመራጮች	-14010
▁የሚታወቁ	-14011
▁የሰዎችን	-14012
▁የጠየቀው	-14013
▁ይጀመራል	-14014
▁ደብዳቤ፣	-14015
▁ንብረታቸው	-14016
71	-14017
ልጥ	-14018
ርጌ	-14019
700	-14020
ሄደው	-14021
ሪቱን	-14022
ሳት፣	-14023
▁ተከል	-14024
▁አቢሲ	-14025
ዮርዳኖስ	-14026
▁አባልና	-14027
▁ከአቅም	-14028
▁የቀበሌ	-14029
▁የትግል	-14030
▁ጥሩነህ	-14031
▁ባንኪንግ	-14032
▁አባላትም	-14033
▁እያቀረበ	-14034
▁የሚያመጣ	-14035
▁በተመጣጣኝ	-14036
▁ለማስተዳደር	-14037
58	-14038
ሜኑ	-14039
ሜቴክ	-14040
ቤቶች	-14041
ንያሁ	-14042
▁በጁ	-14043
▁ያፈ	-14044
ዶቻቸው	-14045
▁ሰልጣ	-14046
▁አለ፤	-14047
▁አካሉ	-14048
▁መግባቱ	-14049
▁በተሟላ	-14050
▁በትጋት	-14051
▁ተቀራር	-14052
▁ትፈልጋ	-14053
▁የወሰደ	-14054
▁የዘመን	-14055
▁ለክልሎች	-14056
▁ስማቸውን	-14057
▁ክርስትና	-14058
▁ዘካርያስ	-14059
▁የተግባር	-14060
▁የክትትል	-14061
▁እስጢፋኖስ	-14062
▁እንግሊዝኛ	-14063
▁ከተባበሩት	-14064
▁የአቪዬሽን	-14065
▁ዳይሬክተሯ	-14066
▁በመጀመሪያዎቹ	-14067
ሙ፣	-14068
መረው	-14069
▁ኤክ	-14070
▁የፒ	-14071
▁ያጡ	-14072
ሰባችን	-14073
▁ማሳለ	-14074
▁ወርዶ	-14075
▁ጎረቤ	-14076
▁ጣሰው	-14077
▁ማፍራት	-14078
▁ያነሳሉ	-14079
▁በሽታውን	-14080
▁እንደቆየ	-14081
▁ለሚደረገው	-14082
▁እንዳለብን	-14083
▁የሚታወቁት	-14084
▁ደረጃቸውን	-14085
ሜይል	-14086
▁ማቅ	-14087
▁ሱቅ	-14088
▁ፃድ	-14089
2001	-14090
▁ባንዲ	-14091
▁ችለው	-14092
▁አመን	-14093
▁እጥረ	-14094
▁የጣና	-14095
▁ለሴቶች	-14096
▁ሊያገኝ	-14097
▁ሚዲያው	-14098
▁ማከማቻ	-14099
▁የትጥቅ	-14100
▁ታራሚዎች	-14101
▁አምላክህ	-14102
▁ያነጋገር	-14103
▁ዲፕሎማቶች	-14104
▁እንደማይሆን	-14105
54	-14106
ሮም	-14107
ባና	-14108
ልውና	-14109
▁ጫካ	-14110
▁ለአን	-14111
▁መጋዘ	-14112
▁ከሞላ	-14113
▁የካፍ	-14114
▁ፀድቆ	-14115
▁ቀዝቃዛ	-14116
▁የለኝም	-14117
▁የመላው	-14118
▁ትኩረቱን	-14119
▁ፕሬዚዳንትና	-14120
▁የተመሰረተባቸው	-14121
ለላ	-14122
ርፉ	-14123
ቭዥን	-14124
የሞች	-14125
▁("	-14126
▁ማቻ	-14127
▁ታድ	-14128
ጠራቸው	-14129
▁130	-14130
▁ተጠም	-14131
▁መፃህፍ	-14132
▁አርከበ	-14133
▁ጥልቀት	-14134
▁ጨምሯል	-14135
▁ፍንዳታ	-14136
▁መቅረቡን	-14137
▁ስንታየሁ	-14138
▁ሶፍትዌር	-14139
▁በርሳቸው	-14140
▁መድረሳቸውን	-14141
▁እንዳይደርስ	-14142
▁እንዳለባቸውም	-14143
▁ይኑ	-14144
▁ግማ	-14145
▁ታምሩ	-14146
▁ይቀበ	-14147
▁ለሽያጭ	-14148
▁በሰአት	-14149
▁ቢኒያም	-14150
▁የሊጉን	-14151
▁ጎሎችን	-14152
▁ለማጥቃት	-14153
▁መለዋወጫ	-14154
▁ሽንኩርት	-14155
▁የመዝናኛ	-14156
▁የገባውን	-14157
▁ይረዳናል	-14158
▁ለማድረግና	-14159
▁እንደሚታይ	-14160
▁የተወሰደው	-14161
▁በመጨረሻዎቹ	-14162
▁እንደሚሉት፣	-14163
▁የኤሌክትሮኒክስ	-14164
መቀ	-14165
ጅራ	-14166
ወጣም	-14167
ያለን	-14168
▁እጁ	-14169
▁አቁም	-14170
▁ከማሀ	-14171
▁ማዳበር	-14172
▁ወንጀለ	-14173
▁የቀጥታ	-14174
▁ድምዳሜ	-14175
▁በአማርኛ	-14176
▁ባለሀብቱ	-14177
▁የመጫወት	-14178
▁ይወዳጁን	-14179
▁ማጠራቀሚያ	-14180
▁በተጀመረው	-14181
▁በዋሽንግተን	-14182
▁የሚያስተላል	-14183
▁ያስፈልገዋል	-14184
▁ለሚመለከታቸው	-14185
▁ለእግዚአብሄር	-14186
ዱም	-14187
በለጠ	-14188
ከራሉ	-14189
ገደለ	-14190
▁ዋስ	-14191
ፓጋንዳ	-14192
▁2.5	-14193
▁በሚመ	-14194
▁ታቦት	-14195
▁አልማ	-14196
▁እኔና	-14197
▁ጉምዝ	-14198
▁2003	-14199
▁ሀላፊ፣	-14200
▁ለቪኦኤ	-14201
▁በጎርጎ	-14202
▁አልሲሲ	-14203
▁የኢራቅ	-14204
▁የጀመር	-14205
▁ድልድል	-14206
▁ሲያሸንፍ	-14207
▁ታዳጊዎች	-14208
▁እንግልት	-14209
▁የሚባለውን	-14210
▁አብዱልከሪም	-14211
ሁሩ	-14212
ሊኮፕ	-14213
▁ባዬ	-14214
▁ዋሻ	-14215
▁ያስቀ	-14216
▁ሰሎሞን	-14217
▁ባንኮቹ	-14218
▁ከነበረ	-14219
▁የሚጥል	-14220
▁የእሱን	-14221
▁ያስገነ	-14222
▁ለወጣቶች	-14223
▁መደረሱን	-14224
▁በመናገር	-14225
▁በሜዳቸው	-14226
▁እያደረሰ	-14227
▁የሳይበር	-14228
▁በአለማችን	-14229
▁ተመልሰዋል	-14230
▁እንዳልሆኑ	-14231
▁ያደረግነው	-14232
▁ለኢንዱስትሪ	-14233
▁እንደምትችል	-14234
▁የሚካሄደውን	-14235
▁የሚያመለክተው	-14236
▁የኢንፎርሜሽን	-14237
▁ይወዳጁንዘወትር	-14238
ረቅ	-14239
ቅሮ	-14240
ናማ	-14241
ጠቀመ	-14242
▁ርስ	-14243
▁ርቆ	-14244
▁ታት	-14245
▁ኔታ	-14246
ዛቸውን	-14247
▁ተረት	-14248
▁ተገኘ	-14249
▁ትዳር	-14250
▁ገንቢ	-14251
▁መክፈቻ	-14252
▁ሻሸመኔ	-14253
▁ሽረዎች	-14254
▁በለይቶ	-14255
▁በቅጣት	-14256
▁እንደራ	-14257
▁ከፓርቲ	-14258
▁ሪፖርቱን	-14259
▁ከቀዳሚው	-14260
▁ወጣቶችና	-14261
▁የሚጠቀም	-14262
▁የሚያገኘው	-14263
▁መደረጋቸውን	-14264
▁እንዳስረዱት፣	-14265
ቆጥሩ	-14266
ባብዌ	-14267
ይሁን	-14268
▁መቋቋ	-14269
▁በማር	-14270
▁አንዲ	-14271
▁ዘመድ	-14272
▁የመደ	-14273
▁ደምሴ	-14274
▁ለበለጠ	-14275
▁ቀለሞች	-14276
▁እግርኳ	-14277
ንቀሳቀሰው	-14278
▁መታቀዱን	-14279
▁ሳይደረግ	-14280
▁የፌስቡክ	-14281
▁ገበሬዎች	-14282
▁ክብረወሰን	-14283
▁የፋብሪካው	-14284
▁መመሪያዎችን	-14285
▁እንደሚያስችል	-14286
ቻቸ	-14287
ግት	-14288
ፈግ	-14289
ፎም	-14290
ህተት	-14291
ንግዶ	-14292
ደራጅ	-14293
▁83	-14294
▁ቡክ	-14295
▁የጄ	-14296
▁ፀጉ	-14297
ተገበረ	-14298
▁በግድ	-14299
▁ተመላ	-14300
▁አለች	-14301
▁የሀዋ	-14302
▁ጉልበ	-14303
▁ግርጌ	-14304
▁በዛብህ	-14305
▁የቦንድ	-14306
▁የኮርፖ	-14307
▁ጋምቤላ	-14308
▁ከተሰጠው	-14309
▁በመሳሰሉት	-14310
▁የተወሰነው	-14311
▁የፓርቲውን	-14312
በቀ	-14313
ቸገ	-14314
ፅዋት	-14315
▁አሲ	-14316
▁ኪር	-14317
▁ዜማ	-14318
▁ፀሎ	-14319
ፈላለግ	-14320
▁አስብ	-14321
▁የኖረ	-14322
▁ሴቶችና	-14323
▁ሸማቾች	-14324
▁የታሪፍ	-14325
▁በንግድና	-14326
▁ንግግሮች	-14327
▁እንዳገኘ	-14328
▁መልእክቶች	-14329
▁መግለጫዎች	-14330
▁ጎብኝተዋል	-14331
▁ለሚመለከተው	-14332
98	-14333
ቢን	-14334
ራዘመ	-14335
ያለው	-14336
▁አቁ	-14337
▁ለምታ	-14338
▁ሽንፈ	-14339
▁ከራሱ	-14340
▁የምህ	-14341
▁ያጠፋ	-14342
▁ለአስር	-14343
▁መሰዊያ	-14344
▁ማግባት	-14345
▁ሲጫወት	-14346
▁በውስጥ	-14347
▁ብራንድ	-14348
▁ዘወትር	-14349
▁የበረሀ	-14350
▁መመዝገብ	-14351
▁አላለፉም	-14352
▁እየሰራች	-14353
▁በአንደኛው	-14354
▁ተደንግጓል	-14355
▁የዳያስፖራ	-14356
▁የተፈፀመውን	-14357
ልዎ	-14358
ሪ፣	-14359
ዘት	-14360
ጋሜ	-14361
▁ኢራ	-14362
ድሬሽን	-14363
▁ሴንት	-14364
▁ወርቃ	-14365
▁ገርባ	-14366
▁በቦርዱ	-14367
▁ባንኩን	-14368
▁ትላለች	-14369
▁አህጉር	-14370
▁እናምና	-14371
▁የቪዲዮ	-14372
▁የቴሌኮ	-14373
▁ያለብን	-14374
▁ጠበቆቹ	-14375
▁ማስተናገ	-14376
▁ተቆጣጥሮ	-14377
▁የሚጫወቱ	-14378
▁የማሸነፍ	-14379
▁በአደባባይ	-14380
▁የሚፈልገውን	-14381
56	-14382
ሎግ	-14383
ዳፊ	-14384
ባረክ	-14385
ቲኤም	-14386
ይህም	-14387
▁ለቱ	-14388
▁ርካ	-14389
▁ዋን	-14390
▁ማካሄ	-14391
▁ከሀያ	-14392
▁ድባብ	-14393
▁ግዛው	-14394
▁ሊወስድ	-14395
▁ሞባይል	-14396
▁በንቃት	-14397
▁አሞላል	-14398
▁አብነት	-14399
▁አካታች	-14400
▁ክልልና	-14401
▁ድንኳኑ	-14402
▁ለሰብአዊ	-14403
▁መከሰቱን	-14404
▁የሚበልጡ	-14405
▁የሰጡትን	-14406
▁ለተከታታይ	-14407
▁አዘጋጅነት	-14408
▁የሚጠበቅባቸውን	-14409
ኛለሁ	-14410
ላችኋል	-14411
▁ማረፊ	-14412
▁አመር	-14413
▁ወሰነ	-14414
▁ውበቱ	-14415
▁መቅደሱ	-14416
▁ምስራች	-14417
▁ቅብብል	-14418
▁ከምሽቱ	-14419
▁ከሰማይ	-14420
▁ለግብርና	-14421
▁በቤተሰብ	-14422
▁አሳልፈው	-14423
▁ከድህነት	-14424
▁ደስተኞች	-14425
▁ለእስራኤል	-14426
▁መስተካከል	-14427
▁አቅማቸውን	-14428
▁የሚያስፈልጋቸው	-14429
ሰሰ	-14430
ሺያ	-14431
ቋሙ	-14432
ድሎ	-14433
ጓዘ	-14434
▁ኋ	-14435
ዳግም	-14436
▁74	-14437
▁አአ	-14438
▁ኢት	-14439
መልመል	-14440
ገደኞች	-14441
▁በሆቴ	-14442
▁በተዋ	-14443
▁ተተኪ	-14444
▁የሚጨ	-14445
▁ለአርሶ	-14446
▁መቋረጥ	-14447
▁ሙሀመድ	-14448
▁እንደየ	-14449
▁ማደያዎች	-14450
▁ምእመናን	-14451
▁አለማግኘ	-14452
▁የአለምን	-14453
▁ወንድወሰን	-14454
ምግ	-14455
ሽነ	-14456
ኝ፤	-14457
ሽከረ	-14458
ገራት	-14459
ፍሰስ	-14460
▁ታቦ	-14461
▁የሾ	-14462
ኤምኤፍ	-14463
ዘዋወሩ	-14464
▁እለተ	-14465
▁ገቢው	-14466
▁ለሰባት	-14467
▁መረጋገ	-14468
▁በስኬት	-14469
▁በኦሮሞ	-14470
▁አንብብ	-14471
▁እየመጣ	-14472
▁የንፁህ	-14473
▁ያልቻሉ	-14474
▁አማልክት	-14475
▁ከየካቲት	-14476
▁ውስንነት	-14477
▁የተወሰዱ	-14478
▁ለመከታተል	-14479
▁እንደሚመጣ	-14480
▁ከተጠቀሱት	-14481
▁የሚደርሰው	-14482
▁በቁርጠኝነት	-14483
▁ዳይሬክተሮች	-14484
ሊዮ	-14485
ሩክ	-14486
ገልፀ	-14487
▁ልሂ	-14488
▁ቆስ	-14489
▁በያ	-14490
▁ወጭ	-14491
ስብሰባ	-14492
ከራከር	-14493
▁3-1	-14494
▁መጣል	-14495
▁ሰይፍ	-14496
▁ሲመራ	-14497
▁በበር	-14498
▁ተረፈ	-14499
▁የሱፍ	-14500
▁የኦሮ	-14501
▁ፈሳሽ	-14502
▁መምርያ	-14503
▁በሰራው	-14504
▁ከአንዱ	-14505
▁የመነጨ	-14506
▁የሚጎዳ	-14507
▁ግጥሚያ	-14508
▁ለሀገሪቱ	-14509
▁መነቃቃት	-14510
▁አከባበር	-14511
▁አዲግራት	-14512
▁የእውቅና	-14513
▁የግብአት	-14514
▁ይታሰባል	-14515
እግዚአብሄር	-14516
▁ተዘጋጅቷል	-14517
▁ተፈናቅለው	-14518
▁እንዳይገባ	-14519
▁ፓርቲዎችን	-14520
▁ጥያቄያቸውን	-14521
▁ኢንዱስትሪውን	-14522
ዘዘ	-14523
ደታ	-14524
አትር	-14525
ያችንን	-14526
ዮቻቸው	-14527
▁ለትር	-14528
▁ሙፍቲ	-14529
▁ኦፕሬ	-14530
▁ወጪን	-14531
▁ሀገርን	-14532
▁በመጓዝ	-14533
▁ቢችልም	-14534
▁ትርፋማ	-14535
▁አልባሳ	-14536
▁ወቅቶች	-14537
▁ያለችው	-14538
▁ስለሚሆን	-14539
▁አያይዘው	-14540
▁አጋጣሚዎችን	-14541
ዛዊ	-14542
ጩት	-14543
ፖች	-14544
ባበል	-14545
ወርዱ	-14546
ፀያፊ	-14547
▁አዶ	-14548
▁ካፕ	-14549
▁ኮሜ	-14550
▁ከጅማ	-14551
▁ይኼው	-14552
▁ግብፃ	-14553
ስተካከሉ	-14554
▁አባዱላ	-14555
▁ይቀራሉ	-14556
▁በሚሰጠው	-14557
▁አካላትና	-14558
▁የተጨማሪ	-14559
▁የጥንቃቄ	-14560
ሶማሊ	-14561
ተሪያ	-14562
ፍራሽ	-14563
▁ስቶ	-14564
▁ገቡ	-14565
ሆናችን	-14566
▁በዋስ	-14567
▁ወልድ	-14568
▁በተስፋ	-14569
▁አስረኛ	-14570
▁ከተያዘ	-14571
▁የደስታ	-14572
▁በአእምሮ	-14573
▁ከበሽታው	-14574
▁ወገኖችን	-14575
▁ፍላጎትን	-14576
▁በመመሳጠር	-14577
▁እንዲጀመር	-14578
▁የሚችሉበትን	-14579
▁ናፍ	-14580
ሪዎችና	-14581
በተለይ	-14582
▁ሊገኝ	-14583
▁በብቸ	-14584
▁በእድ	-14585
▁በካይ	-14586
▁ትናገ	-14587
▁ውሏል	-14588
▁ለመማር	-14589
▁ተከፋፍ	-14590
▁ተፈቅዶ	-14591
▁ብሪታንያ	-14592
▁ተደርሷል	-14593
▁እድገትን	-14594
▁የህብረት	-14595
▁የሶስተኛ	-14596
▁እየተካሄዱ	-14597
▁የሚችሉትን	-14598
▁የማመንጨት	-14599
▁ፕሬዘዳንት	-14600
▁መስጠታቸውን	-14601
▁ማሻሻያዎችን	-14602
▁አለመሆናቸውን	-14603
ሊሙ	-14604
ዝድ	-14605
▁መጉ	-14606
▁ያድ	-14607
ችርቻሮ	-14608
▁በወጪ	-14609
▁ብረታ	-14610
▁አድዋ	-14611
▁የተቆ	-14612
▁ያሳድ	-14613
▁ያነሱ	-14614
▁አውቶሞ	-14615
▁ዘንድ፣	-14616
▁የሚሰነ	-14617
▁የእኛን	-14618
▁መንገድን	-14619
▁በጠንካራ	-14620
▁እነዚያን	-14621
▁እንዲውሉ	-14622
▁የኢፌዲሪ	-14623
▁በተመለከተ፣	-14624
ቦ፣	-14625
ደነ	-14626
ጂን	-14627
▁ኛ	-14628
መክት	-14629
አይቪ	-14630
ይሆዋ	-14631
▁ቆጣ	-14632
▁ያየ	-14633
ለዋወጥ	-14634
▁መስጊ	-14635
▁በጨረ	-14636
▁ተቋራ	-14637
▁ተፈታ	-14638
▁አብቅ	-14639
▁የራቀ	-14640
▁ፃድቅ	-14641
ነጋገሪያ	-14642
▁አሳታፊ	-14643
▁ካልሆኑ	-14644
▁ካርዶች	-14645
▁የቆሻሻ	-14646
▁የታሰበ	-14647
▁ኢኮኖሚክ	-14648
▁የዘገበው	-14649
▁ወታደሮችን	-14650
▁የተባሉትን	-14651
▁የእንቅስቃሴ	-14652
ዋሽ	-14653
ሰቀሰ	-14654
ኒዚያ	-14655
▁ኦሊ	-14656
▁የዴ	-14657
▁ሀረግ	-14658
▁ማገገ	-14659
▁በሸራ	-14660
ክርስቶስ	-14661
ደርሳቸው	-14662
▁ተካፋይ	-14663
▁ተጨዋች	-14664
▁እባክህ	-14665
▁የታክሲ	-14666
▁ጳጉሜን	-14667
▁ቢሆንም፤	-14668
▁አሸንፈው	-14669
▁እውቀትና	-14670
▁እውነትን	-14671
▁የሚስተዋሉ	-14672
▁የሚቻልበት	-14673
▁ያልተለመደ	-14674
▁ግንኙነትን	-14675
▁ኢትዮጵያውያንና	-14676
ልፌ	-14677
ሚስ	-14678
ዶር	-14679
ስማን	-14680
▁ፈሪ	-14681
▁ለማም	-14682
▁ተቀን	-14683
▁ከሰል	-14684
▁ይሳተ	-14685
▁ሏላዊው	-14686
▁አቋቋም	-14687
▁አዋጅን	-14688
▁የሞተር	-14689
▁መዘርጋት	-14690
▁የሁሉንም	-14691
▁ሰራተኞችና	-14692
▁በመገምገም	-14693
▁በንግግራቸው	-14694
▁እንደሚጠናቀቅ	-14695
ሀዱ	-14696
ኩ፣	-14697
▁እያሱ	-14698
▁ዜጐች	-14699
▁ማስተላለ	-14700
▁ታውቃለህ	-14701
▁ድህነትን	-14702
▁ግልጋሎት	-14703
▁ተስተካካይ	-14704
▁ቴክኖሎጂን	-14705
▁ድርጊቶችን	-14706
▁የእስራኤልን	-14707
ሚዝ	-14708
ቀብ	-14709
ዳብ	-14710
ፃቸው	-14711
▁99	-14712
ሬሽኑን	-14713
ጓቸውን	-14714
▁በሰይ	-14715
▁ተደብ	-14716
▁አንጀ	-14717
▁ከተጋ	-14718
▁የተጨ	-14719
ቆጣጠረው	-14720
▁ወልድያ	-14721
▁ለማዘመን	-14722
▁የታሰበው	-14723
▁መደረጉንም	-14724
▁በቴሌቪዥን	-14725
▁የክርስቶስ	-14726
▁እንደተፈፀመ	-14727
▁እንዲጠናከር	-14728
ሀጉ	-14729
ህራ	-14730
ንዲ	-14731
ለችም	-14732
ታውስ	-14733
ከሉት	-14734
ክላል	-14735
ደውሉ	-14736
▁ቀዬ	-14737
▁አየሁ	-14738
▁የቁም	-14739
▁ያረፈ	-14740
▁ይዞት	-14741
▁ፕሮፖ	-14742
▁ምክኒያ	-14743
▁ካርቱም	-14744
▁ክፍያው	-14745
▁ያለው፣	-14746
▁ሀዋሳዎች	-14747
▁በስልጠና	-14748
▁በእጩነት	-14749
▁ነፃነትን	-14750
▁አለመሆን	-14751
▁ያስተናግ	-14752
▁ለማስተማር	-14753
▁መከላከያን	-14754
▁በምሳሌነት	-14755
▁እንደሚጠቁ	-14756
ሉልታ	-14757
ላኩት	-14758
ደገፉ	-14759
ገፆች	-14760
▁ማጉ	-14761
ቆጠሩት	-14762
▁ምድረ	-14763
▁በአፄ	-14764
▁ከአቅ	-14765
▁መገኘቱ	-14766
▁አጥነት	-14767
▁ከሆነም	-14768
▁ደንብና	-14769
▁ግርማይ	-14770
▁የወጣበት	-14771
▁ያለፈውን	-14772
▁በፈቃደኝነት	-14773
▁አካባቢዎችን	-14774
▁ፋብሪካዎችን	-14775
ለአ	-14776
ኖን	-14777
ቀበለ	-14778
ቃዋሚ	-14779
▁ሲኒ	-14780
▁ሻም	-14781
▁በሚፈ	-14782
▁ባልቻ	-14783
▁አተር	-14784
▁ከወጪ	-14785
▁ፅድቅ	-14786
▁አረቦን	-14787
▁አስተሳ	-14788
▁ስላልሆነ	-14789
▁በብዙዎች	-14790
▁አስተባብ	-14791
▁አነጋጋሪ	-14792
▁የሰለጠነ	-14793
▁የውይይቱ	-14794
▁መሰብሰቡን	-14795
▁በመቀናጀት	-14796
▁በክርስቶስ	-14797
▁ትምህርቱን	-14798
▁አልነበሩም	-14799
▁እንዳይፈጠር	-14800
▁ቴክኖሎጂዎችን	-14801
▁እንደሚኖርበት	-14802
▁እንዲፈቀድለት	-14803
መሙ	-14804
ቀደም	-14805
ቻልን	-14806
▁ታጥ	-14807
ሯቸዋል	-14808
▁በቆሎ	-14809
▁ተጠል	-14810
▁እኩይ	-14811
▁ኪዩብ	-14812
▁ሲጀምሩ	-14813
▁ዘመኑን	-14814
▁የእነሱ	-14815
▁ዳግማዊ	-14816
▁ለጨዋታው	-14817
▁ባንኮችን	-14818
▁ከራሳቸው	-14819
▁ውቅያኖስ	-14820
▁የዘላለም	-14821
▁ወልዋሎዎች	-14822
▁እንደሚቀርብ	-14823
▁የኤክስፖርት	-14824
ሸረ	-14825
ሺፕ	-14826
ኩራ	-14827
ዥያ	-14828
ዴታ	-14829
ከባከ	-14830
▁ዶላ	-14831
▁ከምድ	-14832
▁ከአር	-14833
▁2004	-14834
▁ሊፈጥር	-14835
▁ቀይረው	-14836
▁እያገኙ	-14837
▁የሰውን	-14838
▁ይሆዋን	-14839
▁ደቡባዊ	-14840
▁የሚያምር	-14841
▁እናቀርባለን	-14842
▁እንዲያገለግሉ	-14843
ላድ	-14844
ዚዝ	-14845
ፀል	-14846
▁69	-14847
▁አጃ	-14848
▁ግባ	-14849
ፈልጉት	-14850
▁ሲመሩ	-14851
▁አገዳ	-14852
ሺንግተን	-14853
▁መቅረቡ	-14854
▁መተላለ	-14855
▁ማድረጓ	-14856
▁በቦርድ	-14857
▁ብርሀኔ	-14858
▁የምታስ	-14859
▁ፍትህና	-14860
▁በመተከል	-14861
▁ተምሳሌት	-14862
▁ከተባለው	-14863
▁የበለፀገ	-14864
▁የያዘውን	-14865
▁ገብርኤል	-14866
▁መግባታቸው	-14867
▁እንዲጠበቅ	-14868
▁የተከናወነ	-14869
▁የአቅርቦት	-14870
▁በማድረጋቸው	-14871
▁የሚያመለክት	-14872
▁ያስፈልጋቸዋል	-14873
ቀሱ	-14874
ዛቱ	-14875
ዊያው	-14876
▁እደ	-14877
▁የእቃ	-14878
▁ይበሉ	-14879
▁ይችሉ	-14880
ገጥማቸው	-14881
▁በተነሳ	-14882
▁ከመግባ	-14883
▁ክርስቶ	-14884
▁ፌደራል	-14885
▁አንፃር፣	-14886
▁ከጎረቤት	-14887
▁ካደረጉት	-14888
▁የመሳሪያ	-14889
▁የኦህዴድ	-14890
▁ይቀንሳል	-14891
▁ደረጃዎችን	-14892
▁ድርጅቶች፣	-14893
▁እንዳልነበረ	-14894
▁እንደነበራቸው	-14895
▁እንዳስታወቀው፣	-14896
57	-14897
ቃጠ	-14898
ክሬ	-14899
ዶኔ	-14900
ዶክ	-14901
ቁበት	-14902
ባረብ	-14903
ገገም	-14904
▁ሳራ	-14905
በአሁኑ	-14906
ጠይቀው	-14907
▁ከተሰ	-14908
▁የሰሩ	-14909
▁ይሰሩ	-14910
40/60	-14911
▁ሪከርድ	-14912
▁በተሞላ	-14913
▁ባልሆኑ	-14914
▁አስበው	-14915
▁አገሪቷ	-14916
▁የመስክ	-14917
▁በአመዛኙ	-14918
▁የመጠበቅ	-14919
▁የእረፍት	-14920
▁ሀላፊዎችን	-14921
ሸጠ	-14922
ጋቱ	-14923
ጀሪያ	-14924
▁ቁል	-14925
በረታቱ	-14926
በረክት	-14927
▁ከውጪ	-14928
▁ወሰኑ	-14929
▁ውሉን	-14930
▁የእቅ	-14931
▁ሲደረጉ	-14932
▁በቪዲዮ	-14933
▁እውነቱ	-14934
▁የሚጣል	-14935
▁ጥበቃና	-14936
▁ፖሊስና	-14937
▁ስለነበሩ	-14938
▁አስፀያፊ	-14939
▁የታቀደው	-14940
▁የነበሩና	-14941
▁እንገኛለን	-14942
▁ያለማቋረጥ	-14943
▁እንደሚቻለው	-14944
ሰሉ	-14945
ሸሸ	-14946
ማችሁ	-14947
ዲናዋ	-14948
▁ለቁ	-14949
▁ኩማ	-14950
▁ይጎ	-14951
▁ሊታይ	-14952
▁ርኩስ	-14953
▁ቅኝት	-14954
▁ተሸክ	-14955
▁ደረጄ	-14956
▁ገቢያ	-14957
▁ባለቤቱ	-14958
▁ተላልፎ	-14959
▁አስችሎ	-14960
▁ከአየር	-14961
▁የለንም	-14962
▁ገበያን	-14963
▁በሆነችው	-14964
▁የሚያሳስ	-14965
▁በማደራጀት	-14966
▁እየተፈጠረ	-14967
▁የኮንትራት	-14968
▁እንዲከናወን	-14969
▁የሚያቀርበው	-14970
▁እግዚአብሄርም	-14971
▁ለኢትዮጵያውያን	-14972
ማኔ	-14973
ኮሳ	-14974
▁፻	-14975
ቅናት	-14976
ተመድ	-14977
ዚዮን	-14978
▁ተዘ	-14979
ምባብዌ	-14980
ንጋፖር	-14981
ፋሪዎች	-14982
▁በረዶ	-14983
▁ቦርሳ	-14984
▁አርክ	-14985
▁ጡረታ	-14986
ናቸውንም	-14987
▁ሁለገብ	-14988
▁ህዝብም	-14989
▁እየወጡ	-14990
▁የሰራው	-14991
▁የወደብ	-14992
▁ማእድናት	-14993
▁ይገለፃል	-14994
▁ገበያዎች	-14995
▁መረጋገጡን	-14996
▁ተጠቃሚነትን	-14997
▁የዩኒቨርሲቲው	-14998
ፅፍ	-14999
ሊንጦ	-15000
▁ለሆ	-15001
▁ማሸ	-15002
▁ተኝ	-15003
ኳንንት	-15004
ዳንኤል	-15005
▁ከወል	-15006
▁የስብ	-15007
▁የኖሩ	-15008
▁የአራ	-15009
▁ያስደ	-15010
▁ጋር፣	-15011
▁ጠቋሚ	-15012
▁ፍጥረ	-15013
▁ብላችሁ	-15014
▁የካናዳ	-15015
▁የመመለስ	-15016
▁ይመክራሉ	-15017
▁በኮንስትራክሽን	-15018
ራኔ	-15019
አቀ	-15020
ፋሮ	-15021
ሲያን	-15022
ታውቅ	-15023
▁ለኪ	-15024
▁በጄ	-15025
ነርሱም	-15026
▁ሆነች	-15027
▁ሊገባ	-15028
▁ላለማ	-15029
▁መሀሪ	-15030
▁ባለፀ	-15031
▁መብላት	-15032
▁መጠንና	-15033
▁መፈጠር	-15034
▁በምድረ	-15035
▁አሸንፈ	-15036
▁ስፖርቶች	-15037
▁በማክበር	-15038
▁ተካተዋል	-15039
▁የሚፈጥሩ	-15040
▁ያካሄደው	-15041
▁ለማድረግም	-15042
▁አይመስለኝ	-15043
▁ፕሮጀክቶቹ	-15044
▁የሚንቀሳቀስ	-15045
▁የሚደርሰውን	-15046
ላጫ	-15047
ጥ፣	-15048
ሳለን	-15049
▁ወሳ	-15050
▁ዘፈ	-15051
▁የዮ	-15052
▁፣የ	-15053
ከራቸው	-15054
▁ለህገ	-15055
▁ለማይ	-15056
▁ማስወ	-15057
▁ተቀር	-15058
▁አደሩን	-15059
▁ጉዳይ፣	-15060
▁ቢሆኑም፣	-15061
▁ተዋጊዎች	-15062
▁ኦፕሬሽን	-15063
▁የመብራት	-15064
▁እንደምንም	-15065
▁መጠየቃቸውን	-15066
ቦላ	-15067
ኒንግ	-15068
▁ልእ	-15069
▁ዘብ	-15070
ቆቻቸው	-15071
ደባቸው	-15072
▁ሜቴክ	-15073
▁ቀልብ	-15074
▁ተሻሽሎ	-15075
▁ችግር፣	-15076
▁እንከን	-15077
▁ጥናት፣	-15078
▁ሲያስረዱ	-15079
▁ዝግጁነት	-15080
▁ለመከላከያ	-15081
▁ኤግዚቢሽን	-15082
▁የዲሲፕሊን	-15083
▁የሚያበረታታ	-15084
▁የህብረተሰቡን	-15085
ቆሎ	-15086
አህ	-15087
ጢአ	-15088
ላሊት	-15089
ልቦና	-15090
ኖች፣	-15091
▁መተማ	-15092
▁መጫወ	-15093
▁መፅና	-15094
▁ማሸነ	-15095
▁ቡና፣	-15096
▁አንበ	-15097
▁አውጭ	-15098
▁ዝውው	-15099
▁ያለቀ	-15100
ሚግሬሽን	-15101
▁ሀይሉን	-15102
▁መጋዘን	-15103
▁በእቅዱ	-15104
▁በፃፉት	-15105
▁ከአዳማ	-15106
▁ለማቆየት	-15107
▁በመምረጥ	-15108
▁በማካተት	-15109
▁ተጫውቷል	-15110
▁አነጋገር	-15111
▁ከአምናው	-15112
▁የሚገናኙ	-15113
▁የተፋሰሱ	-15114
▁ይጠቅሳል	-15115
▁ለማስቀመጥ	-15116
▁መቀመጫውን	-15117
▁ቢያደርጉም	-15118
▁ፓርቲያቸው	-15119
ፌት	-15120
ሀገር	-15121
ባትም	-15122
ፅዳት	-15123
ፈነው	-15124
▁በጃ	-15125
▁የጤ	-15126
▁ለሆነ	-15127
▁ምረቃ	-15128
▁ምቾት	-15129
▁ደጀኔ	-15130
▁ሂደትን	-15131
▁ለፖሊስ	-15132
▁በሚያሳ	-15133
▁ተለያዩ	-15134
▁አቅምና	-15135
▁ያለነው	-15136
▁ፖሊሲው	-15137
▁ለማቃለል	-15138
▁አንጋፋው	-15139
▁አካላትም	-15140
▁የሚጠቁም	-15141
▁ለማጎልበት	-15142
▁በደረሰበት	-15143
▁ማህበረሰቦች	-15144
▁የአትሌቲክስ	-15145
▁ኢንቨስትመንትን	-15146
250	-15147
ሙርት	-15148
▁01	-15149
▁ወጡ	-15150
▁ይለ	-15151
ገኛቸው	-15152
▁መዋል	-15153
▁እያየ	-15154
▁ከባቢ	-15155
▁ኳታር	-15156
▁ፈልጎ	-15157
▁ፈራሚ	-15158
▁ሊያመጣ	-15159
▁ስምኦን	-15160
▁እፅዋት	-15161
▁ከሶማሌ	-15162
▁የፌዴራ	-15163
▁መቀላቀል	-15164
▁ስለሚችሉ	-15165
▁አፈወርቅ	-15166
▁የሚያግዙ	-15167
▁የለባቸውም	-15168
▁የቴክኒክና	-15169
▁ለሀብረተሰቡ	-15170
▁እንደሚሰራም	-15171
▁የሚያቀርቡት	-15172
ቢስ	-15173
ተካ	-15174
በተን	-15175
ቻቻል	-15176
▁84	-15177
▁86	-15178
▁ሞቃ	-15179
▁ነፋ	-15180
ገጥመው	-15181
▁350	-15182
▁ለገሰ	-15183
▁በግቡ	-15184
▁አምላ	-15185
▁ከረጢ	-15186
▁ከፋይ	-15187
▁የተላ	-15188
▁ማይክል	-15189
▁በጥንት	-15190
▁አመርቂ	-15191
▁አይተው	-15192
▁ከመላው	-15193
▁የማውጣት	-15194
▁የተናገሩ	-15195
▁የሚከፈለው	-15196
▁ያረጋግጣል	-15197
▁ኢትዮጵያዊው	-15198
ዘነ	-15199
ያማ	-15200
ሆዋን	-15201
ለህ፤	-15202
ልግና	-15203
መጡት	-15204
ድርና	-15205
ገቡም	-15206
▁ማና	-15207
▁ቱሉ	-15208
▁ዛቻ	-15209
ሰረቱት	-15210
ስተዋለ	-15211
ችለውን	-15212
▁ሁነኛ	-15213
▁ሰለሞ	-15214
▁ስለታ	-15215
▁በአጋ	-15216
▁በአፅ	-15217
▁የፍራ	-15218
ገጠማቸው	-15219
▁ቁጥርም	-15220
▁እየሄደ	-15221
▁የምስራ	-15222
▁የደብረ	-15223
▁መታጠቢያ	-15224
▁መከናወን	-15225
▁በመካከላ	-15226
▁ተያይዘው	-15227
▁ትእይንት	-15228
▁አውታሮች	-15229
▁ድርጅትና	-15230
▁ማሀበራዊና	-15231
▁በመከታተል	-15232
▁ለተጠቃሚዎች	-15233
▁የተሰበሰበው	-15234
ሳነ	-15235
ይዩ	-15236
ጭን	-15237
ልሄም	-15238
ቆችን	-15239
ንስና	-15240
▁ሊወ	-15241
▁ቤል	-15242
▁ጫላ	-15243
ኖቻችን	-15244
ገበያው	-15245
▁በተሳ	-15246
▁ነቢዩ	-15247
▁አተኩ	-15248
▁አጣጥ	-15249
▁ፒተር	-15250
/2005	-15251
ከተላቸው	-15252
ዘውተሪያ	-15253
▁ሀብታም	-15254
▁ተመለሱ	-15255
▁ተወለደ	-15256
▁አክሱም	-15257
▁እየሰፋ	-15258
▁ከዘጠኝ	-15259
▁በቤታቸው	-15260
▁የሚከሰቱ	-15261
▁ጥናቶችን	-15262
▁ያስቀምጣል	-15263
▁ያሻገረውን	-15264
▁ግንኙነታቸውን	-15265
ሀና	-15266
ተሽ	-15267
ጠፍ	-15268
ዎትን	-15269
ጫዎች	-15270
▁ቅጥ	-15271
▁ኦሞ	-15272
▁ከጫ	-15273
▁ሊወጡ	-15274
▁አትር	-15275
▁ውረድ	-15276
▁ለመጓዝ	-15277
▁ሚስጥር	-15278
▁ተወያዩ	-15279
▁ችግርና	-15280
▁እነማን	-15281
▁የተክሉ	-15282
▁በይበልጥ	-15283
▁አይነተኛ	-15284
▁የሚፈቅድ	-15285
▁የምስጋና	-15286
▁የባለሙያ	-15287
▁ለማነጋገር	-15288
▁ለማድረግ፣	-15289
▁በመወያየት	-15290
▁በባለቤትነት	-15291
▁የቀረበለትን	-15292
ቴጌ	-15293
ጠጋ	-15294
እቢያ	-15295
ዚሁም	-15296
ፋትን	-15297
▁ብረ	-15298
▁አነ	-15299
1998	-15300
▁ባህረ	-15301
▁ተሰራ	-15302
▁ያመነ	-15303
▁ይገነ	-15304
▁ጠየቁ	-15305
▁አፍሪቃ	-15306
▁ያትታል	-15307
▁በመግጨት	-15308
▁አወዛጋቢ	-15309
▁የተጠቃሚ	-15310
▁ፈረሰኞቹ	-15311
▁በተሰጣቸው	-15312
▁አቅርቦትን	-15313
▁እየተወሰደ	-15314
▁እንደተናገረው	-15315
ሚኒ	-15316
ሁለቱ	-15317
ላቀለ	-15318
ላትም	-15319
መሰግ	-15320
ማለች	-15321
ቦቹን	-15322
ንስላ	-15323
▁[]	-15324
▁በኔ	-15325
▁ባቡ	-15326
▁ጥን	-15327
ቀርቡት	-15328
ጊዜውም	-15329
▁ለመው	-15330
▁ይባል	-15331
▁መሰረቱ	-15332
▁ሚልዮን	-15333
▁ቢቆይም	-15334
▁አቋርጦ	-15335
▁የዘጠኝ	-15336
▁የግሪክ	-15337
▁ሰብሳቢው	-15338
▁ተወስዷል	-15339
▁ታንዛኒያ	-15340
▁አስተባባ	-15341
▁ጢሞቴዎስ	-15342
▁አገራቸውን	-15343
▁የቀድሞውን	-15344
▁በባለስልጣኑ	-15345
▁ያስችላቸዋል	-15346
▁ያነጋገርናቸው	-15347
ኬሽ	-15348
ፉ፣	-15349
▁79	-15350
▁ለዲ	-15351
▁መቋ	-15352
ተርጎም	-15353
▁መሪው	-15354
▁አሉ፤	-15355
▁የመው	-15356
▁የሚዋ	-15357
▁ዳሽን	-15358
▁ለመጣል	-15359
▁መልቀቅ	-15360
▁ሶስቱም	-15361
▁በአማካ	-15362
▁ተዛማጅ	-15363
▁አስነብ	-15364
▁ከሰሀራ	-15365
▁ክሳቸው	-15366
▁የወጡት	-15367
▁ጀኔራል	-15368
▁መዛሙርት	-15369
▁በሆነበት	-15370
▁በመኖሪያ	-15371
▁ከባለፈው	-15372
▁በመመርመር	-15373
▁በገለልተኛ	-15374
▁ተመዝግበው	-15375
▁ንብረቶችን	-15376
▁አገልግሎትና	-15377
▁ባለስልጣናትን	-15378
ይሉ	-15379
ዞርት	-15380
ጠረው	-15381
▁ኩባ	-15382
ሳምንቱ	-15383
▁ክምች	-15384
▁የሚሹ	-15385
▁የጠራ	-15386
▁ሊወሰድ	-15387
▁በመቆም	-15388
▁ተመለሰ	-15389
▁የሀብረቱ	-15390
▁ያሳስባሉ	-15391
▁ማስተዋወቅ	-15392
▁እውነተኛው	-15393
▁እየተጫወተ	-15394
▁አምባሳደሮች	-15395
▁እንደማይኖር	-15396
ህንፃ	-15397
ምጣቱ	-15398
▁ስራ፣	-15399
▁በሰባ	-15400
▁አገባ	-15401
▁ኡሁሩ	-15402
ርስቲያን	-15403
ስተናግዱ	-15404
▁ለሌላው	-15405
▁ምክሮች	-15406
▁ቁጥሮች	-15407
▁በጥልቅ	-15408
▁ተክተው	-15409
▁ነገሩን	-15410
▁አላችሁ	-15411
▁አድርጐ	-15412
▁ከተቻለ	-15413
▁የጠበቁ	-15414
▁ገንብቶ	-15415
▁ለማዳበር	-15416
▁በቀጣናው	-15417
▁ቡድናችን	-15418
▁አለብዎት	-15419
▁ኤምሬትስ	-15420
▁እስከዛሬ	-15421
▁ለማስረዳት	-15422
▁በተጠቀሱት	-15423
▁ከመጀመርያው	-15424
▁እንደሚያመለክተው፣	-15425
ሪዳ	-15426
ዳቱ	-15427
መለካ	-15428
ደሚያ	-15429
-3-3	-15430
ለምሳሌ	-15431
ምግልና	-15432
ክትሬት	-15433
▁መብቱ	-15434
▁በረከ	-15435
▁አሀጉ	-15436
▁አጣብ	-15437
▁ይነግ	-15438
▁ድቻን	-15439
▁መደንገ	-15440
▁መጠየቁ	-15441
▁ሳይችል	-15442
▁አድናቆ	-15443
▁እየገነባ	-15444
▁ከምርጫው	-15445
▁አብዱልፈታ	-15446
▁አተገባበር	-15447
▁የናይጄሪያ	-15448
▁መስማማታቸውን	-15449
ጋግ	-15450
ፋፋ	-15451
ፍሩ	-15452
ሌቶች	-15453
ርካቶ	-15454
▁ሩቅ	-15455
▁ዞሮ	-15456
ችልም፤	-15457
▁ሰላማ	-15458
▁በቃሉ	-15459
▁ብርና	-15460
▁ነው፡	-15461
▁ይሰጡ	-15462
▁ጭምብ	-15463
▁በችግር	-15464
▁እንዲዳ	-15465
▁ያደረሰ	-15466
▁ኮሚሽን፣	-15467
▁የሪፎርም	-15468
▁የተጋነነ	-15469
▁ለማስመለስ	-15470
▁በመጠባበቅ	-15471
▁ከፈረንሳይ	-15472
▁ወደሚገኘው	-15473
▁ያልተጠበቀ	-15474
▁ዴሞክራሲን	-15475
ሊካ	-15476
ሬ፣	-15477
ቆሮ	-15478
ቴሪያ	-15479
ዝማች	-15480
▁ቆም	-15481
▁ትብ	-15482
▁ይድ	-15483
▁ርካሽ	-15484
▁ኤልሳ	-15485
▁የመመ	-15486
▁የአሰ	-15487
▁ጎደል	-15488
▁ልማታዊ	-15489
▁ሚድሮክ	-15490
▁ሲፈፀም	-15491
▁ነግረው	-15492
▁የመነሻ	-15493
▁የተሰና	-15494
▁የተገባ	-15495
▁ጀምሮ፣	-15496
▁ፋሲሎች	-15497
▁ሲገባቸው	-15498
▁በሸራተን	-15499
▁በቢሾፍቱ	-15500
▁በንፁሀን	-15501
▁በእጃቸው	-15502
▁መፍትሄዎች	-15503
▁ትምህርትና	-15504
▁አማካሪዎች	-15505
▁የመገንባት	-15506
▁ቴክኖሎጂዎች	-15507
▁ሾፌ	-15508
▁ዳም	-15509
▁ጎድ	-15510
▁ፊን	-15511
▁ሀላባ	-15512
▁ሰቅል	-15513
ኮትላንድ	-15514
▁ሙዚየም	-15515
▁እህቶች	-15516
▁እለታዊ	-15517
▁ድፍረት	-15518
▁አመራርና	-15519
▁አስችሏል	-15520
▁እንደሚወ	-15521
▁በሚቻልበት	-15522
▁የብሪታንያ	-15523
▁መገኘታቸውን	-15524
▁አውስትራሊያ	-15525
▁እንዳልተቻለ	-15526
▁ከፕሬዚዳንት	-15527
ካፍ	-15528
ዷን	-15529
ፃህ	-15530
ሁበት	-15531
ሊበላ	-15532
ረኛው	-15533
ሪካዊ	-15534
ቻሉት	-15535
▁ሀዲ	-15536
▁ተላ	-15537
▁የጁ	-15538
ሞክርም	-15539
ከፋፈያ	-15540
ገመገመ	-15541
▁ቡናው	-15542
▁ናይሮ	-15543
▁አሉን	-15544
▁ከቆየ	-15545
▁ወዴት	-15546
▁የወር	-15547
▁ይሰበ	-15548
▁ሊያገኙ	-15549
▁በሚሆኑ	-15550
▁አምበል	-15551
▁አይደል	-15552
▁የሆነች	-15553
▁የቦምብ	-15554
▁የዘይት	-15555
▁ጀመርኩ	-15556
▁ገዢዎች	-15557
▁አስመላሽ	-15558
▁አጎራባች	-15559
▁እንደገባ	-15560
▁የችግሩን	-15561
▁ላልተወሰነ	-15562
▁ስልጠናዎች	-15563
▁እንዳለውም	-15564
▁ያስከትላል	-15565
▁ባለመሆናቸው	-15566
▁ተፈራርመዋል	-15567
▁የቤኒሻንጉል	-15568
▁እንደሚከናወን	-15569
ቆጭ	-15570
ደሉ	-15571
▁ታን	-15572
ጥታለች	-15573
▁1.2	-15574
▁ሙጂብ	-15575
▁ሳለ፣	-15576
▁ሶሪያ	-15577
▁አልሚ	-15578
▁አባባ	-15579
▁አካቶ	-15580
▁ወሰደ	-15581
▁ወከፍ	-15582
▁ዲባባ	-15583
ስተካከለ	-15584
▁ለቀጣዩ	-15585
▁ስደተኛ	-15586
▁በተመድ	-15587
▁አይቀሬ	-15588
▁እስከማ	-15589
▁ከገበያ	-15590
▁ኦሎምፒክ	-15591
▁ከሚባሉት	-15592
▁ድንጋዮች	-15593
▁በፓርላማው	-15594
▁ትናገራለች	-15595
▁የሚከተለው	-15596
ኪኪ	-15597
ልግል	-15598
መረቀ	-15599
▁76	-15600
▁77	-15601
▁አዜ	-15602
▁ዳታ	-15603
ነጋገረ	-15604
▁ምንኛ	-15605
▁ቅንጅ	-15606
▁ቅጣቱ	-15607
▁ካይሮ	-15608
▁ጩኸት	-15609
ጠናቀዋል	-15610
▁ሲያብራ	-15611
▁ውድነት	-15612
▁የዳኞች	-15613
▁ይመጣሉ	-15614
▁በማስፋት	-15615
▁ችግሮቹን	-15616
▁የተፃፈው	-15617
▁ለማረጋጋት	-15618
▁ንግግራቸው	-15619
▁የሚመጣውን	-15620
▁ኤርትራውያን	-15621
▁ፍላጎታቸውን	-15622
ሂብ	-15623
ሀዋሳ	-15624
▁ሀቅ	-15625
▁ማጨ	-15626
▁ተጋላ	-15627
▁አቀና	-15628
▁የአፄ	-15629
▁የጠፋ	-15630
ሳተላይት	-15631
▁አድናቂ	-15632
▁ከሳኡዲ	-15633
▁የሚመሰ	-15634
▁ፓርቲን	-15635
▁ፖሊሲና	-15636
▁መነሻነት	-15637
▁ቆይታለች	-15638
▁በኮሚሽኑ	-15639
▁በዙሪያው	-15640
▁አሰራርና	-15641
▁ኢየሱስም	-15642
▁እስላማዊ	-15643
▁እንደምና	-15644
▁ካሌንዳር	-15645
▁ካልተቻለ	-15646
▁የተከሰተ	-15647
▁ደደቢቶች	-15648
▁የተመለሰው	-15649
▁ይከናወናል	-15650
▁ፕሬዚዳንቶች	-15651
▁የሚጠበቅበትን	-15652
ረኝ	-15653
ሳድ	-15654
ስጋ	-15655
ታሪ	-15656
ኑስ	-15657
ባህር	-15658
ደበው	-15659
▁6.	-15660
▁ራም	-15661
▁ጃፓ	-15662
▁ሳኦል	-15663
▁ከአይ	-15664
▁ክንፍ	-15665
▁ገዝቶ	-15666
ጋጠማቸው	-15667
▁ሀረርጌ	-15668
▁ማዘጋጃ	-15669
▁በባቡር	-15670
▁በጠበቀ	-15671
▁ባለፈ፣	-15672
▁ቸርነት	-15673
▁ከድርጅቱ	-15674
▁ከፌደራል	-15675
▁የፀደቀው	-15676
▁ለፓርላማው	-15677
▁ማብራሪያ፣	-15678
▁በአባልነት	-15679
▁እየተጠበቀ	-15680
▁ወንድማማች	-15681
▁የግንኙነት	-15682
▁የተጠናቀቀው	-15683
ፊክ	-15684
መደቡ	-15685
ታውም	-15686
▁ለዝ	-15687
▁ጫኔ	-15688
ታችንም	-15689
ቸውንም	-15690
▁በክር	-15691
▁አንገ	-15692
▁ከጓደ	-15693
▁ውጫዊ	-15694
▁ዙፋን	-15695
▁ማእከላ	-15696
▁በቋንቋ	-15697
▁ናይሮቢ	-15698
▁አስፈር	-15699
▁ወንጌል	-15700
▁ወጥነት	-15701
▁ስልጠናው	-15702
▁በአቅራቢ	-15703
▁ከድሬዳዋ	-15704
▁ወይዘሪት	-15705
▁የምስረታ	-15706
▁ፍጥረታት	-15707
▁ማሰባሰቢያ	-15708
▁ከክርስቶስ	-15709
53	-15710
ቶቼ	-15711
እር	-15712
ፍተ	-15713
ራለሁ	-15714
ደበት	-15715
▁ያዩ	-15716
▁ጎማ	-15717
▁ጎጂ	-15718
▁ቅመም	-15719
▁እየመ	-15720
▁ከመካ	-15721
▁ውሀው	-15722
▁ድራማ	-15723
▁ገጥሞ	-15724
▁ግምጃ	-15725
▁ጳጳስ	-15726
▁ልጃገረ	-15727
▁ማቀዱን	-15728
▁በማዋል	-15729
▁አሸብር	-15730
▁ወዳለው	-15731
▁የቀሩት	-15732
▁የአዋሽ	-15733
▁ጠላቶች	-15734
▁ለሁለቱም	-15735
▁መርሆዎች	-15736
▁በአማራና	-15737
▁ተመዝግቦ	-15738
▁አህጉራዊ	-15739
▁ገንዘብና	-15740
▁ተሰብስበው	-15741
▁እውነታዎች	-15742
▁የከተማውን	-15743
▁በማስተናገድ	-15744
▁ፕሮግራሞችን	-15745
ሲካ	-15746
ቻርድ	-15747
ግቷል	-15748
▁ሰጡ	-15749
▁ከቶ	-15750
▁ሰልፉ	-15751
▁ቀደሙ	-15752
▁ዲኤታ	-15753
▁መሰጠት	-15754
▁ማግኘቱ	-15755
▁ርክክብ	-15756
▁ስሜታዊ	-15757
▁በዋናው	-15758
▁በጭራሽ	-15759
▁አስተው	-15760
▁አዘገጃ	-15761
▁የጥቁር	-15762
▁መቐለዎች	-15763
▁በመገኘቱ	-15764
▁በተቀናጀ	-15765
▁በአደጋው	-15766
▁አምነስቲ	-15767
▁አካባቢን	-15768
▁የሽልማት	-15769
▁ዲቪዚዮን	-15770
▁መቻላቸውን	-15771
▁ተጠናክረው	-15772
▁እንዳሉት፤	-15773
▁የሚወስደው	-15774
▁የሚገኙበት	-15775
▁እንደሚያገኙ	-15776
ቀጠ	-15777
ኙት	-15778
ብንን	-15779
▁አሜ	-15780
ብራዚል	-15781
ንስቲት	-15782
▁በካር	-15783
▁በፍር	-15784
▁ንስሀ	-15785
▁የፎቶ	-15786
▁ጥገኛ	-15787
▁ፕረዚ	-15788
ኖቬሽንና	-15789
▁ለቦርዱ	-15790
▁ለጥያቄ	-15791
▁መለያየ	-15792
▁በሶሪያ	-15793
▁ተባብሮ	-15794
▁ተግባሩ	-15795
▁እየተን	-15796
▁ከአስራ	-15797
▁ለመቅረብ	-15798
▁በለንደን	-15799
▁አጠናቀው	-15800
▁ዘንድሮም	-15801
▁ያስገነዝ	-15802
▁ይገንዘቡ	-15803
▁ይጠይቃሉ	-15804
▁ጥገኝነት	-15805
▁ለመገናኘት	-15806
▁በመስጠት፣	-15807
▁በማስተማር	-15808
▁አምስተኛው	-15809
▁አስቆጥረዋል	-15810
▁እንደሚሉት፤	-15811
▁የሚሳተፉበት	-15812
ሰማኮ	-15813
▁71	-15814
▁ሎዛ	-15815
▁ማክስ	-15816
▁አማን	-15817
▁ከዛም	-15818
▁የሙሉ	-15819
▁የታጀ	-15820
▁የኤል	-15821
▁የዩኒ	-15822
ጀመራቸው	-15823
ጋኒስታን	-15824
▁ለውጥን	-15825
▁መወሰድ	-15826
▁መዋእል	-15827
▁ሜክሲኮ	-15828
▁በተሰራ	-15829
▁በንጉሱ	-15830
▁አሳፋሪ	-15831
▁አስከሬ	-15832
▁የሲቪክ	-15833
▁መቀዛቀዝ	-15834
▁መዘጋጀት	-15835
▁እንዲረዳ	-15836
▁እንዳይሆኑ	-15837
▁እየተገነቡ	-15838
▁ፕሮፌሽናል	-15839
ማህ	-15840
ኑሮ	-15841
ይሩ	-15842
ጋብ	-15843
ታደስ	-15844
ዳደሩ	-15845
መስቀል	-15846
▁ባነሰ	-15847
▁ትዝታ	-15848
▁አውድ	-15849
▁እመር	-15850
▁ያሰባ	-15851
▁ያሳው	-15852
▁ይቆጠ	-15853
▁ይከፈ	-15854
▁ፈገግ	-15855
▁ለደቡብ	-15856
▁ልጃቸው	-15857
▁ሙስናን	-15858
▁በችሎት	-15859
▁በፖሊሲ	-15860
▁ከዚያን	-15861
▁ያተኮሩ	-15862
▁ለመትከል	-15863
▁ማራዘሚያ	-15864
▁አቢሲኒያ	-15865
▁የተመለሱ	-15866
▁የተጣለው	-15867
▁የትውልድ	-15868
▁የነበራት	-15869
▁የፕሮጀክ	-15870
▁ይዞታዎች	-15871
▁ጉባኤዎች	-15872
▁ማረጋገጡን	-15873
▁አልቻልንም	-15874
▁ከእንግሊዝ	-15875
▁የሚያስቀም	-15876
▁በጎርጎርያን	-15877
እት	-15878
ዲሳ	-15879
ንተው	-15880
ካፈሉ	-15881
ክሮች	-15882
ፅሀፉ	-15883
▁ሊሰ	-15884
▁ደዌ	-15885
ገጣጠም	-15886
▁ልማቱ	-15887
▁መታገ	-15888
▁ተደጋ	-15889
▁ትንን	-15890
▁ከመታ	-15891
▁የሚዳ	-15892
▁ይወድ	-15893
ከታተልና	-15894
ፈፀማቸው	-15895
▁በመስራ	-15896
▁ክሬዲት	-15897
▁የተከሳ	-15898
▁የተዛባ	-15899
▁ጉዳይም	-15900
▁ፈፅሟል	-15901
▁ፖሊስን	-15902
▁መፈንቅለ	-15903
▁አስገድዶ	-15904
▁እንዲሄዱ	-15905
▁እጥረትና	-15906
▁የማጣሪያ	-15907
▁የደንበኞች	-15908
ሮቢ	-15909
!!!	-15910
ሳውቅ	-15911
ቸዋለን	-15912
ደረገም	-15913
▁ሰላጤ	-15914
▁ቀለል	-15915
▁ካህኑ	-15916
▁ክንፈ	-15917
/2001	-15918
▁መቆጠብ	-15919
▁ማገልገ	-15920
▁ተሳክቶ	-15921
▁አበይት	-15922
▁ወቅቱን	-15923
▁ጀምረው	-15924
▁በማጥቃት	-15925
▁በእውቀት	-15926
▁በወንዶች	-15927
▁አይነቱን	-15928
▁እየታወቀ	-15929
▁ለመመርመር	-15930
▁ተከናውኗል	-15931
▁እንደሚቀጥሉ	-15932
▁ከህብረተሰቡ	-15933
ሌ፣	-15934
ረመ	-15935
ናፈ	-15936
ንሱ	-15937
ዘኛ	-15938
ዬ፣	-15939
ህደት	-15940
ለት፣	-15941
ሳቁስ	-15942
ቀንስ	-15943
▁በጫ	-15944
▁የዚ	-15945
ርተዋል	-15946
ጦርነት	-15947
▁በመረ	-15948
▁አዝና	-15949
▁ከቦታ	-15950
▁ካለፈ	-15951
▁ሱዳን፣	-15952
▁አለብህ	-15953
▁ደሴቶች	-15954
▁መሀመድ፣	-15955
▁በባንኮች	-15956
▁አመታቸው	-15957
▁ከመደበኛ	-15958
▁የትራንስ	-15959
▁ይጫወታል	-15960
▁ድርጅቱን	-15961
▁በመቀላቀል	-15962
▁ተመልካቾች	-15963
▁የፓርላማው	-15964
▁ሊቀመንበርና	-15965
▁በማስተዋወቅ	-15966
▁ተጠያቂነትን	-15967
▁የሚያመላክት	-15968
ሶም	-15969
ብቃ	-15970
ንኮ	-15971
ለው፣	-15972
ሩንና	-15973
ሰረዙ	-15974
ንቀቅ	-15975
የመው	-15976
ፋዮች	-15977
▁ሀት	-15978
▁ሰፈ	-15979
▁ከሸ	-15980
▁ጋና	-15981
ረስላሴ	-15982
▁ነውም	-15983
▁እርባ	-15984
▁ከቆዩ	-15985
▁ግእዝ	-15986
▁ፕሮጄ	-15987
▁ለሚኖሩ	-15988
▁መስርቶ	-15989
▁ሲጫወቱ	-15990
▁ስለምን	-15991
▁በበኩሏ	-15992
▁በተሰጠ	-15993
▁በወጣት	-15994
▁እየገፋ	-15995
▁ከቀረቡ	-15996
▁የሚገር	-15997
▁የቀለም	-15998
▁ይመለከ	-15999
ከናወናቸው	-16000
▁ሀገራትን	-16001
▁መጠቀሚያ	-16002
▁ያካትታሉ	-16003
▁በየሳምንቱ	-16004
▁አቅጣጫዎችን	-16005
▁እንደሚገልፁ	-16006
ኸሪያ	-16007
ድረጉ	-16008
▁መፀ	-16009
▁ቅቤ	-16010
▁ትጥ	-16011
መሳሰል	-16012
ስተዳደ	-16013
▁ይገደ	-16014
▁ማጣቀሻ	-16015
▁ሰማያት	-16016
▁ሲሞክር	-16017
▁ባቢሎን	-16018
▁የአፍና	-16019
▁በማስመሰል	-16020
▁እንደሚሄድ	-16021
▁ያገለግላል	-16022
ገሬ	-16023
ርቷል	-16024
ባቱን	-16025
ከባለ	-16026
ደነግ	-16027
▁61	-16028
▁ራማ	-16029
▁መታወ	-16030
▁ማስኬ	-16031
▁በሚሉ	-16032
▁አኩሪ	-16033
▁የዋሉ	-16034
▁አባወራ	-16035
▁የዋንጫ	-16036
▁የጥርስ	-16037
▁ሁልጊዜም	-16038
▁አላቸው፦	-16039
▁እንደውም	-16040
▁ያሻማውን	-16041
▁በተፈፀመው	-16042
▁አስተዳደግ	-16043
▁ዝግጅቶችን	-16044
▁አስተዳዳሪዎች	-16045
ልቀው	-16046
ራት፣	-16047
ሰብን	-16048
ኖችና	-16049
ክሯል	-16050
ክብት	-16051
▁ራሴ	-16052
▁ሱዳ	-16053
▁ኢድ	-16054
ቃቅንና	-16055
▁180	-16056
▁ሊሰጡ	-16057
▁በልም	-16058
▁አግሮ	-16059
▁ካሚል	-16060
▁የዚያ	-16061
▁ገበታ	-16062
▁ለገጣፎ	-16063
▁በሀሳብ	-16064
▁ኬንያታ	-16065
▁የልደት	-16066
▁የሶሪያ	-16067
▁መዋቅሮች	-16068
▁በሀይማኖ	-16069
▁የሚፈጠር	-16070
▁ይጀምራሉ	-16071
▁ለምንድነው	-16072
▁ወንጀሎችን	-16073
▁የሚሰጥበት	-16074
▁ሀብረተሰቡን	-16075
▁መምጣታቸውን	-16076
▁ባለስልጣን፣	-16077
▁አስጠንቅቀዋል	-16078
▁የማኑፋክቸሪንግ	-16079
▁የሚያስፈልጋቸውን	-16080
እሰ	-16081
ወይ	-16082
ዌት	-16083
ለልኝ	-16084
ቀየር	-16085
ብኝት	-16086
▁ልኮ	-16087
▁ማካ	-16088
▁ኤፌ	-16089
▁በማቀ	-16090
▁በገጠ	-16091
▁ከገቢ	-16092
▁ውጥን	-16093
▁ይፈጠ	-16094
▁ደራሽ	-16095
▁ፍስሀ	-16096
▁በሊቢያ	-16097
▁የነፍስ	-16098
▁የድርቅ	-16099
▁ፍቅርና	-16100
▁ሊሰጣቸው	-16101
▁ሙስሊሞች	-16102
▁ምስራቹን	-16103
▁በአሰልጣ	-16104
▁የሌሎችን	-16105
▁ያልታወቀ	-16106
▁ያዘጋጀው	-16107
▁ማጠናቀቁን	-16108
▁አፈፃፀሙን	-16109
▁በበኩላቸው፥	-16110
▁የመንግስታቱ	-16111
ምያ	-16112
ጓሚ	-16113
ጡና	-16114
ህንም	-16115
▁ተኩ	-16116
▁ከኪ	-16117
2091	-16118
ካተተው	-16119
ወጣበት	-16120
▁ልጥፍ	-16121
▁ሰዎቹ	-16122
▁እያን	-16123
▁ወራሽ	-16124
▁የገለ	-16125
▁ፌደራ	-16126
▁2091	-16127
▁አትራፊ	-16128
▁ከዋናው	-16129
▁የሰሩት	-16130
▁የደርግ	-16131
▁ማሻሻያው	-16132
▁የመድረክ	-16133
▁የተከሰቱ	-16134
▁የታችኛው	-16135
▁የፀጥታና	-16136
▁ግለሰቦቹ	-16137
▁ለሚካሄደው	-16138
▁በመሰረታዊ	-16139
▁በአፅንኦት	-16140
▁ተቃውመዋል	-16141
▁ከተሰጣቸው	-16142
▁ደብረፅዮን	-16143
▁አመስግነዋል	-16144
ዞት	-16145
ቆልቆ	-16146
ንግዳ	-16147
የም፣	-16148
ደራስ	-16149
ደናቂ	-16150
ገኘቱ	-16151
ላችሁ፤	-16152
▁ሰው፣	-16153
▁በክለ	-16154
▁አምል	-16155
▁አታው	-16156
▁እናቴ	-16157
▁ኪዳነ	-16158
ከታተለው	-16159
▁ለችግር	-16160
▁መመልከ	-16161
▁ሰብስቦ	-16162
▁ቀንሷል	-16163
▁የማየት	-16164
▁የፍፃሜ	-16165
▁ግጭቱን	-16166
▁መደፍረስ	-16167
▁ስለጉዳዩ	-16168
▁በመስቀል	-16169
▁ቡድናቸው	-16170
▁ተጎጂዎች	-16171
▁በማስረዳት	-16172
▁የኦሊምፒክ	-16173
▁የወታደራዊ	-16174
▁ያደረጋቸው	-16175
▁ሴክሬታሪያት	-16176
▁ኢንስፔክተር	-16177
▁ማኑፋክቸሪንግ	-16178
ኖና	-16179
ቆመው	-16180
ነጋዴ	-16181
ኢዜአ	-16182
መንበር	-16183
▁ሚስቱ	-16184
▁ርእይ	-16185
▁የበግ	-16186
▁ለእስር	-16187
▁ለክልል	-16188
▁ወደቦች	-16189
▁የጅምላ	-16190
▁ያምናል	-16191
▁ያጠቃል	-16192
▁ይደውሉ	-16193
▁ፍላጎቱ	-16194
▁ሮይተርስ	-16195
▁በጣሊያን	-16196
▁ባለባቸው	-16197
▁አሰሪዎች	-16198
▁ከቤተሰብ	-16199
▁የሚጫወት	-16200
▁ተስማምተው	-16201
▁ተገድለዋል	-16202
▁እንደምንችል	-16203
97	-16204
በጅ	-16205
ታዊው	-16206
ጀንቲ	-16207
▁7.	-16208
ኢየሱስ	-16209
▁መፍቻ	-16210
▁በስዊ	-16211
▁ነፍሰ	-16212
▁አድሮ	-16213
▁ከወር	-16214
▁መዘርጋ	-16215
▁መፍጠሩ	-16216
▁ተከራይ	-16217
▁አንዱና	-16218
▁ክብርና	-16219
▁የሚነካ	-16220
▁የሚጠብ	-16221
▁የይዞታ	-16222
▁ይወጣል	-16223
▁ለማፍረስ	-16224
▁መኳንንት	-16225
▁ምግቦችን	-16226
▁በወረዳው	-16227
▁የሰራዊቱ	-16228
▁ያስገኛል	-16229
▁ለማሸጋገር	-16230
▁በባህርዳር	-16231
▁አቅራቢዎቹ	-16232
▁መፍትሄዎችን	-16233
▁የምታደርገው	-16234
▁የነበረበትን	-16235
ዎቼ	-16236
ሳኤል	-16237
ስትን	-16238
ቆምና	-16239
ጡንቻ	-16240
▁ሳቢ	-16241
▁ከላ	-16242
▁ቆጣቢ	-16243
▁እሰራ	-16244
▁ያለፉ	-16245
▁ጉጉት	-16246
▁መጠን፣	-16247
▁በስራው	-16248
▁ያዘጋጀ	-16249
▁ገዝተው	-16250
▁መዝሙሮች	-16251
▁ማመቻቸት	-16252
▁ሲያካሂድ	-16253
▁በውሳኔው	-16254
▁እንዳለን	-16255
▁ክለቦችን	-16256
▁የመለየት	-16257
▁የመዋቅር	-16258
▁የተባለች	-16259
▁ሀላፊነትን	-16260
▁በማናቸውም	-16261
▁እንዳይወጡ	-16262
▁የሚከናወነው	-16263
ቪዥ	-16264
ላታል	-16265
ቤሪያ	-16266
ቸግር	-16267
ድሮች	-16268
▁ቡር	-16269
▁ቀን፣	-16270
▁በእስ	-16271
▁ውህደ	-16272
▁ያዳም	-16273
▁ጨረቃ	-16274
▁መጠንም	-16275
▁በሚዲያ	-16276
▁በምስራ	-16277
▁በስደት	-16278
▁ታይምስ	-16279
▁አውታር	-16280
▁ጠንክሮ	-16281
▁ለትግራይ	-16282
▁በሚገኙት	-16283
▁ተሹመዋል	-16284
▁ማብራሪያ፤	-16285
▁የተደረጉት	-16286
▁እንዳልነበር	-16287
ህት	-16288
ቃዱ	-16289
ቅላ	-16290
እነ	-16291
ኳል	-16292
ጣፍ	-16293
ብቃት	-16294
ጣጣም	-16295
▁ሴን	-16296
▁በፎ	-16297
▁ቡታ	-16298
▁ሄዷል	-16299
▁ለበአ	-16300
▁በአብ	-16301
▁ከመር	-16302
▁ከእር	-16303
▁ሴክተር	-16304
▁ቀዳሚው	-16305
እንግሊዝኛ	-16306
▁በጥንታዊ	-16307
▁ባካሄዱት	-16308
▁ይጠቅማል	-16309
▁መነጋገሪያ	-16310
▁ተመርጠዋል	-16311
▁የሚተዳደሩ	-16312
▁የፍልስጤም	-16313
▁መልእክቶችን	-16314
▁ኢንስቲትዩቱ	-16315
▁እንደሚሳተፉ	-16316
▁እንደተገኘባቸው	-16317
ኑና	-16318
በላሽ	-16319
ፈርም	-16320
ፍንት	-16321
▁ዶሮ	-16322
▁ልጅ፣	-16323
▁በልጅ	-16324
▁በቆይ	-16325
▁ይጠፋ	-16326
ሸነፈበት	-16327
ደረሳቸው	-16328
▁ማስቆም	-16329
▁ርእሶች	-16330
▁በድርድሩ	-16331
▁አስቆጣሪ	-16332
▁አጣብቂኝ	-16333
▁የሞከረው	-16334
▁የተገናኘ	-16335
▁የጥምቀት	-16336
▁ፎቶግራፍ	-16337
▁የኢኮኖሚና	-16338
▁በኢንተርኔት	-16339
▁እንዲረጋገጥ	-16340
ሰተ	-16341
መትና	-16342
ሳሰሉ	-16343
በርከ	-16344
ክክለ	-16345
ዝቀዣ	-16346
▁ማሪ	-16347
▁ሲሲ	-16348
▁ጌዲ	-16349
ከራየት	-16350
ያቂነት	-16351
ፀባርቅ	-16352
▁እዚሁ	-16353
▁የድሮ	-16354
▁ያጋጥ	-16355
▁ይደግ	-16356
መለካከት	-16357
ደረጃጀት	-16358
ጠበቀውን	-16359
▁አብላጫ	-16360
▁እለትም	-16361
▁የሚገድ	-16362
▁ፍፃሜው	-16363
▁መረጃውን	-16364
▁ምሳሌዎች	-16365
▁ሻምፒዮን	-16366
▁በማሳወቅ	-16367
▁በስራቸው	-16368
▁አብረውት	-16369
▁የመምረጥ	-16370
▁የምዝገባ	-16371
▁የሚያስገድድ	-16372
ለተ	-16373
መቅ	-16374
ህራሄ	-16375
መርጥ	-16376
ጎብኘ	-16377
▁73	-16378
▁ላሳ	-16379
▁ቨር	-16380
▁ዘፀ	-16381
▁ዲስ	-16382
▁ለማእ	-16383
▁ሰይድ	-16384
▁ከብት	-16385
▁ከፍሎ	-16386
▁ከፍቶ	-16387
▁ዘግይ	-16388
▁የሉም	-16389
ስተላልፍ	-16390
▁ሲጠይቁ	-16391
▁በረጅም	-16392
▁አመኔታ	-16393
▁እስራኤ	-16394
▁ከለውጡ	-16395
▁ያላነሰ	-16396
▁ያሳዩት	-16397
▁ጀግኖች	-16398
▁በመፍቀድ	-16399
▁ከእርስዎ	-16400
▁ይበልጣል	-16401
▁ፌደሬሽን	-16402
▁አስታውቀው	-16403
▁በፕሬዚዳንትነት	-16404
51	-16405
ሺድ	-16406
ቲስት	-16407
▁ኮት	-16408
▁ውሻ	-16409
ጎለብት	-16410
ጠናክሩ	-16411
▁ለመለ	-16412
▁ለራስ	-16413
▁በአሳ	-16414
▁እምቢ	-16415
▁ሰሜናዊ	-16416
▁ሰዎችና	-16417
▁በሀዳር	-16418
▁ነገስቱ	-16419
▁አቅዷል	-16420
▁ወዳጆች	-16421
▁የተማረ	-16422
▁የተጨዋ	-16423
▁ማሽቆልቆ	-16424
▁ኔታንያሁ	-16425
▁አልሆነም	-16426
▁አጥብቀው	-16427
▁የሚመጥን	-16428
▁የዘመናዊ	-16429
▁አድርጋችሁ	-16430
▁በዩኒቨርሲቲው	-16431
ሴይ	-16432
ቀኛ	-16433
ንዶ	-16434
ክሊ	-16435
ዛቅ	-16436
ዲፒ	-16437
ለኛው	-16438
ራንት	-16439
ሶቹን	-16440
በጣም	-16441
ብሊክ	-16442
ችንም	-16443
ነበብ	-16444
ከውን	-16445
ያትር	-16446
ያችሁ	-16447
▁ሰዶ	-16448
▁በቲ	-16449
▁ያጋ	-16450
▁ፊፋ	-16451
▁ፍቺ	-16452
ስፒታል	-16453
▁እግሩ	-16454
▁ከመል	-16455
▁ግዥና	-16456
▁መውረድ	-16457
▁ባገኘው	-16458
▁አቀፍና	-16459
▁ከቀድሞ	-16460
▁ውብሸት	-16461
▁የቀጠለ	-16462
▁የክፍለ	-16463
▁የፀደቀ	-16464
▁ሆስፒታሉ	-16465
▁በመመደብ	-16466
▁የሚቃጠል	-16467
▁ዮርዳኖስ	-16468
▁ባስቆጠረው	-16469
▁የጨዋታውን	-16470
▁የመጀመሪያዋ	-16471
▁ባለስልጣናትና	-16472
▁እንደተለመደው	-16473
!)	-16474
ዱና	-16475
ተርፍ	-16476
▁መከ	-16477
▁ቋት	-16478
▁ቢመስ	-16479
▁ኢሰመ	-16480
▁ይገጥ	-16481
ገጣጠሚያ	-16482
▁ማቆየት	-16483
▁ስልኮች	-16484
▁ቡድን፣	-16485
▁የፍትሀ	-16486
▁ይሄንን	-16487
▁መንደሮች	-16488
▁በትላንት	-16489
▁የይሆዋን	-16490
▁የግንቦት	-16491
▁በእንስሳት	-16492
▁ተአማኒነት	-16493
▁እንደማይቀር	-16494
▁የአሰልጣኞች	-16495
ራቂ	-16496
ቅቦ	-16497
ለውም	-16498
ረከበ	-16499
ግሟል	-16500
▁81	-16501
▁ሞል	-16502
▁ጉር	-16503
▁ጥይ	-16504
ብዛኛው	-16505
ዳማዊት	-16506
▁ምንጩ	-16507
▁ረብሻ	-16508
▁የሚሻ	-16509
▁የፍል	-16510
▁ግዙፉ	-16511
▁ማስኬጃ	-16512
▁በፋሲል	-16513
▁ባንክም	-16514
▁ከሲዳማ	-16515
▁የሰባት	-16516
▁ግኝቶች	-16517
▁ማንነትን	-16518
▁በተቃዋሚ	-16519
▁በእሳቸው	-16520
▁አሜሪካና	-16521
▁ከቀድሞው	-16522
▁ከከተማው	-16523
▁የታሰሩት	-16524
▁የእቅዱን	-16525
▁የወሰዱት	-16526
▁የድርጅት	-16527
▁መስተጋብር	-16528
▁በማስወገድ	-16529
▁እንደሚወጣ	-16530
▁እንዲከፍል	-16531
▁የሚተላለፉ	-16532
▁ፌዴሬሽኖች	-16533
▁አስታውቃለች	-16534
▁ዲፓርትመንት	-16535
▁አስተናጋጅነት	-16536
ፖል	-16537
▁ፏ	-16538
ማታዊ	-16539
ባት፣	-16540
ታወት	-16541
ፈረሙ	-16542
▁መቸ	-16543
▁ድሮ	-16544
▁ፓኬ	-16545
ቋቋሙት	-16546
ችላቸው	-16547
ኤርትራ	-16548
ፓርታማ	-16549
▁ቀዳዳ	-16550
▁የማው	-16551
▁የግቡ	-16552
▁መሬቱን	-16553
▁መፍቀድ	-16554
▁ሙስሊም	-16555
▁ሲፈፅሙ	-16556
▁በምትኩ	-16557
▁አሰራሩ	-16558
▁ለአካባቢ	-16559
▁መከፋፈል	-16560
▁ማስታወስ	-16561
▁ምእራባዊ	-16562
▁እንዳያስ	-16563
▁የመስቀል	-16564
▁የፈጠሩት	-16565
▁የፌዴራሉ	-16566
▁በአክሲዮን	-16567
▁አደረሳችሁ	-16568
▁የሚከበረው	-16569
▁የአፍሪካን	-16570
▁ተመልክተናል	-16571
▁የቀረበላቸው	-16572
▁እንደደረሰባቸው	-16573
▁የእግዚአብሄርን	-16574
ሊላ	-16575
ሸሹ	-16576
ትረ	-16577
ለጠፍ	-16578
ቃብር	-16579
▁ዋይ	-16580
1983	-16581
ዘረጋው	-16582
▁ለመሰ	-16583
▁ቀንሶ	-16584
▁ተቸግ	-16585
▁የማም	-16586
▁የዚሁ	-16587
▁የፈጀ	-16588
▁ይበል	-16589
▁ደፋር	-16590
ናገራቸው	-16591
▁ለነበሩ	-16592
▁በመጠን	-16593
▁በደርግ	-16594
▁ባቀረቡ	-16595
▁ባንዲራ	-16596
▁አጋጥሞ	-16597
▁ከቀጠለ	-16598
▁የተሰነ	-16599
▁የኢጋድ	-16600
▁ጥቅምና	-16601
▁መጠናከር	-16602
▁ሰራዊቱን	-16603
▁አይናለም	-16604
▁ከምስራቅ	-16605
▁የመወሰን	-16606
▁የቅርንጫ	-16607
▁እንደጀመረ	-16608
▁የመሰብሰብ	-16609
▁መመለሳቸውን	-16610
▁እንደሚገኙም	-16611
ኤት	-16612
ላትና	-16613
▁87	-16614
▁ማሊ	-16615
▁ስፓ	-16616
▁ታጋ	-16617
▁ፐር	-16618
ምህራን	-16619
ራህማን	-16620
በልፀግ	-16621
ውያንም	-16622
ገመተው	-16623
ገበያያ	-16624
▁ተለው	-16625
▁አምድ	-16626
▁አስጊ	-16627
▁ዳውድ	-16628
▁ሲቀርቡ	-16629
▁ቀጠናው	-16630
▁በጀመረ	-16631
▁ብሄርን	-16632
▁ዋንጫን	-16633
▁መጥተዋል	-16634
▁ሳይጨምር	-16635
▁በቴክኒክ	-16636
▁ትሆናለች	-16637
▁ከክልሎች	-16638
▁የመምራት	-16639
▁የሚስማማ	-16640
▁የሚውለው	-16641
▁የጁንታው	-16642
▁የጠቅላላ	-16643
▁ይቆጠራል	-16644
▁በብቸኝነት	-16645
▁አንዱአለም	-16646
▁የሚፈልገው	-16647
▁የሚያስከትለውን	-16648
ሀኔ	-16649
ፀት	-16650
ሀዲን	-16651
ሲኤል	-16652
▁መሻ	-16653
▁ሳኦ	-16654
ሰራቸው	-16655
▁ሌተና	-16656
▁ማነው	-16657
▁ርቀው	-16658
▁ቅጠል	-16659
▁ተጋባ	-16660
▁ከምታ	-16661
መንግስቱ	-16662
ፌደሬሽኑ	-16663
▁መክፈት	-16664
▁በመጣስ	-16665
▁በድብቅ	-16666
▁ባለቤቴ	-16667
▁የመልስ	-16668
▁የፈጠሩ	-16669
▁ፅንፈኛ	-16670
▁ፖሊስ፣	-16671
▁ስርአት፣	-16672
▁በሚመስል	-16673
▁በስፖርቱ	-16674
▁ከሀገሪቱ	-16675
▁ከመፍጠር	-16676
▁ደጋግመው	-16677
▁ለፕሮጀክቱ	-16678
▁መዳረሻዎች	-16679
▁በመካከለኛ	-16680
▁እየተገለፀ	-16681
▁ያስመዘገቡ	-16682
▁ያደርጋቸዋል	-16683
ለኹ	-16684
ሀሳብ	-16685
መረተ	-16686
መረጠ	-16687
ሴላዊ	-16688
በት፤	-16689
ብርት	-16690
ጊያው	-16691
ጨርስ	-16692
ከፋፈለ	-16693
▁ንግስ	-16694
▁አውቆ	-16695
▁ያበቃ	-16696
▁ፊሊፕ	-16697
ጠናቀቅም	-16698
▁ህግጋት	-16699
▁ሰላምታ	-16700
▁ሲኖዶስ	-16701
▁በኮምፒ	-16702
▁ከእቅዱ	-16703
▁የቀረጥ	-16704
▁የበአል	-16705
▁የኢራን	-16706
▁ጣልያን	-16707
▁በፈፀሙት	-16708
▁ከተፈፀመ	-16709
▁የመታውን	-16710
▁ይጠቀማል	-16711
▁ገበታቸው	-16712
▁ለመገምገም	-16713
▁መደምደሚያ	-16714
▁ይከራከራሉ	-16715
▁ጉዳያቸውን	-16716
▁ኮንትራክተር	-16717
▁የተከናወነው	-16718
ሎፕ	-16719
ሙድ	-16720
ቀለ	-16721
ስቲን	-16722
▁ሂድ	-16723
ላችሁን	-16724
ኝነትን	-16725
ገለገለ	-16726
▁110	-16727
▁በጥቂ	-16728
▁ኢብሳ	-16729
▁እየነ	-16730
▁ከመተ	-16731
▁የማታ	-16732
▁መከሰት	-16733
▁ተርፎም	-16734
▁ከነአን	-16735
▁ካውንቲ	-16736
▁የበረዶ	-16737
▁የውሀና	-16738
▁ይነሳል	-16739
▁ደረጃና	-16740
ጠረጠሩበት	-16741
▁ሳተላይት	-16742
▁በሚያዝያ	-16743
▁በወጣቶች	-16744
▁ትችላለች	-16745
▁የለብንም	-16746
▁ስትራቴጂክ	-16747
▁አቅርቦት፣	-16748
▁እናምናለን	-16749
▁የህዝቦችን	-16750
▁ፓርቲዎችና	-16751
▁ምስጋናቸውን	-16752
▁የሚጠበቀውን	-16753
▁ገብረመድህን	-16754
▁ያስፈልግዎታል	-16755
▁እንደሚያስፈልጋቸው	-16756
ሳር	-16757
ቅሶ	-16758
ጃል	-16759
▁ዞር	-16760
▁ፍጡ	-16761
ሬዚዳን	-16762
ርፖርት	-16763
ንደዚህ	-16764
ከፋፈሉ	-16765
▁ማንሳ	-16766
▁ከመነ	-16767
▁ወድቆ	-16768
▁የጌታ	-16769
▁ፀንቶ	-16770
▁ሀዋርያ	-16771
▁ማቋረጥ	-16772
▁ብርታት	-16773
▁አስናቀ	-16774
▁አጥጋቢ	-16775
▁በተሰኘው	-16776
▁በክረምት	-16777
▁አንስቷል	-16778
▁እንደሻው	-16779
▁የሚደግፍ	-16780
▁ድርድሮች	-16781
▁ፕሬዝዳን	-16782
▁ተቆጥበዋል	-16783
▁የላብራቶሪ	-16784
▁የምፈልገው	-16785
▁የተጫወተው	-16786
▁መታሰራቸውን	-16787
▁ተከላካዮችን	-16788
▁እንዳለበት፣	-16789
▁እንዳልሆነም	-16790
▁የተሻገረለትን	-16791
▁ፍልስጤማውያን	-16792
▁ፕሬዚዳንትነት	-16793
83	-16794
ማክ	-16795
ይራ	-16796
ሪቲሽ	-16797
ዊነት	-16798
ገሪያ	-16799
▁ለኦ	-16800
▁ማባ	-16801
▁በፒ	-16802
ቀጥሉት	-16803
ታወቅ፣	-16804
▁ሰይፉ	-16805
▁በቤቱ	-16806
▁በካፍ	-16807
▁ተጠቂ	-16808
▁ካሁን	-16809
▁ለአዲሱ	-16810
▁ለወንድ	-16811
▁ማእበል	-16812
▁ከተማም	-16813
▁ድረስም	-16814
▁መውጣቱን	-16815
▁በማስገባ	-16816
▁ተደራዳሪ	-16817
▁እንዲቀር	-16818
▁ክላስተር	-16819
▁የሚያመነ	-16820
▁ሰራተኞች፣	-16821
▁በግለሰቦች	-16822
▁እላችኋለሁ	-16823
▁በአውሮፕላን	-16824
ላጠፈ	-16825
መደበ	-16826
ራቾች	-16827
ቁረጥ	-16828
▁89	-16829
▁93	-16830
▁ሳታ	-16831
ራውያን	-16832
ሳችሁን	-16833
ስትያን	-16834
ያውቀው	-16835
ገብጋቢ	-16836
▁ሌላም	-16837
▁ሰብሮ	-16838
▁ሳይታ	-16839
▁ስብእና	-16840
▁በመቆየ	-16841
▁ብድሩን	-16842
▁የናይል	-16843
▁ግብፅን	-16844
▁ማድረግን	-16845
▁ታካሚዎች	-16846
▁እየጠበቀ	-16847
▁ውይይትና	-16848
▁ዘዴዎችን	-16849
▁የመማሪያ	-16850
▁የብርሀን	-16851
▁ይሰጠዋል	-16852
▁ስልጠናዎችን	-16853
▁ባለንብረቶች	-16854
አለ	-16855
ሊየም	-16856
በሪቾ	-16857
▁ማመ	-16858
▁ዘም	-16859
2021	-16860
ንዳርድ	-16861
ጠይቅም	-16862
ፈርኦን	-16863
▁የስደ	-16864
▁ዳሸን	-16865
▁ማህበረ	-16866
▁ሲያገኝ	-16867
▁በካናዳ	-16868
▁በጎርፍ	-16869
▁ተጠቆመ	-16870
▁ተጣርቶ	-16871
▁አይኖር	-16872
▁እንጠይ	-16873
▁ዋናዎቹ	-16874
▁የዘርፍ	-16875
▁ድምፆች	-16876
▁ፌስቡክ	-16877
▁ህዝባችን	-16878
▁በእርዳታ	-16879
▁በድፍረት	-16880
▁ንግግር፣	-16881
▁እናንተን	-16882
▁እንደራሴ	-16883
▁የሚወሰን	-16884
▁ለደንበኞች	-16885
▁በፕሮጀክቱ	-16886
▁እንዳደረጉ	-16887
▁ሳይጠቀምበት	-16888
▁በማስታወስ፣	-16889
▁ባለስልጣኖች	-16890
▁እንዲተላለፍ	-16891
▁ከዩኒቨርሲቲ	-16892
▁ድንጋጌዎችን	-16893
ሮፕ	-16894
ቡ፣	-16895
ነፍ	-16896
ቃችን	-16897
ቴሽን	-16898
ቶኛል	-16899
ኪዳን	-16900
ጉዳት	-16901
▁82	-16902
▁ሞቅ	-16903
▁ይጋ	-16904
▁በመጡ	-16905
▁በማወ	-16906
▁አጠፋ	-16907
▁የመጠ	-16908
▁ያላስ	-16909
▁ይከብ	-16910
▁ግላዊ	-16911
▁ጭንቀ	-16912
ረጋገጡት	-16913
▁መቁረጥ	-16914
▁መፈራረ	-16915
▁ተደርሶ	-16916
▁ነበርኩ	-16917
▁አለው፤	-16918
▁የሞራል	-16919
ስተናግደው	-16920
▁ለወደፊት	-16921
▁መሪዎችና	-16922
▁በማጥናት	-16923
▁በጥምረት	-16924
▁ታዳሚዎች	-16925
▁እሳቸውም	-16926
▁የመስሪያ	-16927
▁ሀይለስላሴ	-16928
▁ባለቤታቸው	-16929
▁እየተሻሻለ	-16930
▁ገብረስላሴ	-16931
82	-16932
ማያ	-16933
ዳ፣	-16934
(2)	-16935
ቶቹም	-16936
አብን	-16937
እስከ	-16938
ፍተው	-16939
▁ሉዊ	-16940
▁ጤን	-16941
ነሷቸው	-16942
▁ተቆር	-16943
▁ተቋር	-16944
▁ተዳክ	-16945
▁ትይዩ	-16946
▁አሰና	-16947
▁አንብ	-16948
▁አገሩ	-16949
▁ፍልሰ	-16950
▁ለግብፅ	-16951
▁ሊቀጥል	-16952
▁ማስፋት	-16953
▁በመቻሉ	-16954
▁በዳዊት	-16955
▁ነቢያት	-16956
▁አቋሙን	-16957
▁ከደረሰ	-16958
▁ወኪሎች	-16959
▁የሚይዙ	-16960
▁የብሄረ	-16961
▁ለግንባታ	-16962
▁መፈናቀል	-16963
▁ማስወገጃ	-16964
▁በደቡባዊ	-16965
▁ተገምቷል	-16966
▁አድርገህ	-16967
▁የህዝቦች	-16968
▁የማሳደግ	-16969
▁ይታወቃሉ	-16970
▁ገፅታዎች	-16971
▁ጨረታውን	-16972
▁ስፖርተኞች	-16973
▁የተላለፈው	-16974
▁ያመለከተው	-16975
▁ገንዘባቸውን	-16976
ሻማ	-16977
ዚራ	-16978
ዲቅ	-16979
ጡ፣	-16980
▁ብሉ	-16981
▁ታየ	-16982
▁እሰ	-16983
ልጥፍና	-16984
▁ለማቀ	-16985
▁በለስ	-16986
▁ቱሪዝ	-16987
▁ኢዴፓ	-16988
▁የተካ	-16989
▁ድሉን	-16990
ስተካከያ	-16991
▁መሙላት	-16992
▁መታገል	-16993
▁መካሄዱ	-16994
▁መዋሉን	-16995
▁ስልጣኔ	-16996
▁ቀጣዩን	-16997
▁በጨለማ	-16998
▁ያስባሉ	-16999
▁ጉባኤ፣	-17000
ጠቀምባቸው	-17001
▁ለመምጣት	-17002
▁ልዩነቱን	-17003
▁ሚስጥራዊ	-17004
▁በማሟላት	-17005
▁እስራትና	-17006
▁ከተፈለገ	-17007
▁ጠንካራና	-17008
▁መጀመራቸው	-17009
▁በኤሌክትሮ	-17010
▁አሽከርካሪ	-17011
▁አትክልትና	-17012
▁በተጨማሪም፣	-17013
▁የኩባንያውን	-17014
በቅ	-17015
ኑ፣	-17016
ባበሩ	-17017
ናጋት	-17018
ወንድ	-17019
ጣችሁ	-17020
ፊኬት	-17021
▁ህዋ	-17022
▁ሲዘ	-17023
ክሮችን	-17024
▁ሳህሌ	-17025
▁ተፅፎ	-17026
▁አምኖ	-17027
▁ከሰኞ	-17028
▁ጊዜ፥	-17029
▁ሊቀርብ	-17030
▁መምህሩ	-17031
▁ሲከበር	-17032
▁ስለምት	-17033
▁ባስቆጠ	-17034
▁የህይወ	-17035
▁የፍሳሽ	-17036
▁ዳዊትን	-17037
▁በዚህኛው	-17038
▁ታክሲዎች	-17039
▁እርሻዎች	-17040
▁ከተባሉት	-17041
▁የምርጫው	-17042
▁የጠየቁት	-17043
▁ክፍያዎችን	-17044
▁የመንግስቱ	-17045
▁ለሚኒስትሮች	-17046
▁ባለስልጣናቱ	-17047
ጦስ	-17048
ሺያል	-17049
ክንዮ	-17050
ውን፣	-17051
▁ከዝ	-17052
መላለስ	-17053
ሽንፈት	-17054
▁ምክት	-17055
▁ሰንብ	-17056
▁ታጅቦ	-17057
▁ኦይል	-17058
▁ከእው	-17059
ፈቀደለት	-17060
ፕሎማቲክ	-17061
▁ማካተት	-17062
▁ባህሪያ	-17063
▁ተፈርዶ	-17064
▁አራፋት	-17065
▁ወደግብ	-17066
▁ዘርአይ	-17067
▁የአውቶ	-17068
▁የግዛት	-17069
▁ጳጳሳት	-17070
አክሲዮኖች	-17071
▁በምርምር	-17072
▁በራሳችን	-17073
▁በቱሪዝም	-17074
▁ቢኖረውም	-17075
▁አላግባብ	-17076
▁እንዲቆሙ	-17077
▁የእርሻና	-17078
▁ደደቢትን	-17079
▁በአገራቸው	-17080
▁አሸንፈዋል	-17081
▁በቤንሻንጉል	-17082
▁እንደምትገኝ	-17083
ሀላ	-17084
ጉዳ	-17085
ለሁ፣	-17086
▁የቂ	-17087
▁ጃክ	-17088
▁ጋሻ	-17089
1000	-17090
▁ባገኘ	-17091
▁ከድን	-17092
▁ድሎች	-17093
▁ፈለቀ	-17094
▁ለተጫዋ	-17095
▁ሪዞርት	-17096
▁ሲያገኙ	-17097
▁በሲቪል	-17098
▁በኪራይ	-17099
▁ተርባይ	-17100
▁ተሻገር	-17101
▁አዋጅ፣	-17102
▁የሴካፋ	-17103
▁የተገለ	-17104
▁የዘለለ	-17105
▁የግብረ	-17106
▁የተመደበ	-17107
▁ያልፈለጉ	-17108
▁ያነጣጠረ	-17109
▁እንዲገነቡ	-17110
▁ኩባንያቸው	-17111
▁ማድረሳቸውን	-17112
ተኝ	-17113
ቶቿ	-17114
ቬታይ	-17115
ትንሽ	-17116
ዛቀዘ	-17117
▁ሊፈ	-17118
▁ማድ	-17119
መጨረሻ	-17120
ስካሁኑ	-17121
ፕሬሽን	-17122
▁እየሰ	-17123
▁ወደቀ	-17124
▁ጎልማ	-17125
▁ማተኮር	-17126
▁በፀሎት	-17127
▁አካውን	-17128
▁አጥንት	-17129
▁እንዳታ	-17130
▁ድንግል	-17131
▁መፅሀፍት	-17132
▁ሳይደርስ	-17133
▁የተመረጠ	-17134
ያንዳንዳቸው	-17135
▁በማስፋፋት	-17136
▁እንዲሰማሩ	-17137
▁ካደረጋቸው	-17138
[...]
