{
  "version": "1.0",
  "truncation": null,
  "padding": null,
  "added_tokens": [
    {
      "id": 0,
      "content": "[UNK]",
      "single_word": false,
      "lstrip": false,
      "rstrip": false,
      "normalized": false,
      "special": true
    },
    {
      "id": 1,
      "content": "[PAD]",
      "single_word": false,
      "lstrip": false,
      "rstrip": false,
      "normalized": false,
      "special": true
    }
  ],
  "normalizer": null,
  "pre_tokenizer": {
    "type": "ByteLevel",
    "add_prefix_space": true,
    "trim_offsets": true,
    "use_regex": false
  },
  "post_processor": {
    "type": "ByteLevel",
    "add_prefix_space": true,
    "trim_offsets": true,
    "use_regex": true
  },
  "decoder": {
    "type": "ByteLevel",
    "add_prefix_space": true,
    "trim_offsets": true,
    "use_regex": true
  },
  "model": {
    "type": "BPE",
    "dropout": null,
    "unk_token": "[UNK]",
    "continuing_subword_prefix": null,
    "end_of_word_suffix": null,
    "fuse_unk": false,
    "byte_fallback": false,
    "vocab": {
      "[UNK]": 0,
      "[PAD]": 1,
      "!": 2,
      "\"": 3,
      "#": 4,
      "$": 5,
      "%": 6,
      "&": 7,
      "'": 8,
      "(": 9,
      ")": 10,
      "*": 11,
      "+": 12,
      ",": 13,
      "-": 14,
      ".": 15,
      "/": 16,
      "0": 17,
      "1": 18,
      "2": 19,
      "3": 20,
      "4": 21,
      "5": 22,
      "6": 23,
      "7": 24,
      "8": 25,
      "9": 26,
      ":": 27,
      ";": 28,
      "<": 29,
      "=": 30,
      ">": 31,
      "?": 32,
      "@": 33,
      "A": 34,
      "B": 35,
      "C": 36,
      "D": 37,
      "E": 38,
      "F": 39,
      "G": 40,
      "H": 41,
      "I": 42,
      "J": 43,
      "K": 44,
      "L": 45,
      "M": 46,
      "N": 47,
      "O": 48,
      "P": 49,
      "Q": 50,
      "R": 51,
      "S": 52,
      "T": 53,
      "U": 54,
      "V": 55,
      "W": 56,
      "X": 57,
      "Y": 58,
      "Z": 59,
      "[": 60,
      "\\": 61,
      "]": 62,
      "^": 63,
      "`": 64,
      "a": 65,
      "b": 66,
      "c": 67,
      "d": 68,
      "e": 69,
      "f": 70,
      "g": 71,
      "h": 72,
      "i": 73,
      "j": 74,
      "k": 75,
      "l": 76,
      "m": 77,
      "n": 78,
      "o": 79,
      "p": 80,
      "q": 81,
      "r": 82,
      "s": 83,
      "t": 84,
      "u": 85,
      "v": 86,
      "w": 87,
      "x": 88,
      "y": 89,
      "z": 90,
      "{": 91,
      "|": 92,
      "}": 93,
      "~": 94,
      "¡": 95,
      "¢": 96,
      "£": 97,
      "¤": 98,
      "¥": 99,
      "¦": 100,
      "§": 101,
      "¨": 102,
      "©": 103,
      "ª": 104,
      "«": 105,
      "¬": 106,
      "®": 107,
      "¯": 108,
      "°": 109,
      "±": 110,
      "²": 111,
      "³": 112,
      "´": 113,
      "µ": 114,
      "¶": 115,
      "·": 116,
      "¸": 117,
      "¹": 118,
      "º": 119,
      "»": 120,
      "¼": 121,
      "½": 122,
      "¾": 123,
      "¿": 124,
      "Â": 125,
      "Ã": 126,
      "Ä": 127,
      "Å": 128,
      "Ç": 129,
      "É": 130,
      "Ê": 131,
      "Ë": 132,
      "Ì": 133,
      "Î": 134,
      "Ï": 135,
      "Ð": 136,
      "Ñ": 137,
      "×": 138,
      "à": 139,
      "á": 140,
      "â": 141,
      "ã": 142,
      "ä": 143,
      "å": 144,
      "æ": 145,
      "ç": 146,
      "è": 147,
      "é": 148,
      "ï": 149,
      "ð": 150,
      "Ċ": 151,
      "Ġ": 152,
      "Ģ": 153,
      "ģ": 154,
      "Ĥ": 155,
      "ĥ": 156,
      "Ħ": 157,
      "ħ": 158,
      "Ĩ": 159,
      "ĩ": 160,
      "Ī": 161,
      "ī": 162,
      "Ĭ": 163,
      "ĭ": 164,
      "Į": 165,
      "į": 166,
      "İ": 167,
      "ı": 168,
      "Ĳ": 169,
      "ĳ": 170,
      "Ĵ": 171,
      "ĵ": 172,
      "Ķ": 173,
      "ķ": 174,
      "ĸ": 175,
      "Ĺ": 176,
      "ĺ": 177,
      "Ļ": 178,
      "ļ": 179,
      "Ľ": 180,
      "ľ": 181,
      "Ŀ": 182,
      "ŀ": 183,
      "Ł": 184,
      "ł": 185,
      "Ń": 186,
      "ሀ": 187,
      "ሁ": 188,
      "ሂ": 189,
      "ሃ": 190,
      "ሄ": 191,
      "ህ": 192,
      "ሆ": 193,
      "ሇ": 194,
      "ለ": 195,
      "ሉ": 196,
      "ሊ": 197,
      "ላ": 198,
      "ሌ": 199,
      "ል": 200,
      "ሎ": 201,
      "ሏ": 202,
      "ሐ": 203,
      "ሑ": 204,
      "ሒ": 205,
      "ሓ": 206,
      "ሔ": 207,
      "ሕ": 208,
      "ሖ": 209,
      "ሗ": 210,
      "መ": 211,
      "ሙ": 212,
      "ሚ": 213,
      "ማ": 214,
      "ሜ": 215,
      "ም": 216,
      "ሞ": 217,
      "ሟ": 218,
      "ሠ": 219,
      "ሡ": 220,
      "ሢ": 221,
      "ሣ": 222,
      "ሤ": 223,
      "ሥ": 224,
      "ሦ": 225,
      "ሧ": 226,
      "ረ": 227,
      "ሩ": 228,
      "ሪ": 229,
      "ራ": 230,
      "ሬ": 231,
      "ር": 232,
      "ሮ": 233,
      "ሯ": 234,
      "ሰ": 235,
      "ሱ": 236,
      "ሲ": 237,
      "ሳ": 238,
      "ሴ": 239,
      "ስ": 240,
      "ሶ": 241,
      "ሷ": 242,
      "ሸ": 243,
      "ሹ": 244,
      "ሺ": 245,
      "ሻ": 246,
      "ሼ": 247,
      "ሽ": 248,
      "ሾ": 249,
      "ሿ": 250,
      "ቀ": 251,
      "ቁ": 252,
      "ቂ": 253,
      "ቃ": 254,
      "ቄ": 255,
      "ቅ": 256,
      "ቆ": 257,
      "ቇ": 258,
      "ቈ": 259,
      "ቊ": 260,
      "ቋ": 261,
      "ቌ": 262,
      "ቍ": 263,
      "በ": 264,
      "ቡ": 265,
      "ቢ": 266,
      "ባ": 267,
      "ቤ": 268,
      "ብ": 269,
      "ቦ": 270,
      "ቧ": 271,
      "ቨ": 272,
      "ቩ": 273,
      "ቪ": 274,
      "ቫ": 275,
      "ቬ": 276,
      "ቭ": 277,
      "ቮ": 278,
      "ቯ": 279,
      "ተ": 280,
      "ቱ": 281,
      "ቲ": 282,
      "ታ": 283,
      "ቴ": 284,
      "ት": 285,
      "ቶ": 286,
      "ቷ": 287,
      "ቸ": 288,
      "ቹ": 289,
      "ቺ": 290,
      "ቻ": 291,
      "ቼ": 292,
      "ች": 293,
      "ቾ": 294,
      "ቿ": 295,
      "ኀ": 296,
      "ኁ": 297,
      "ኂ": 298,
      "ኃ": 299,
      "ኄ": 300,
      "ኅ": 301,
      "ኆ": 302,
      "ኇ": 303,
      "ኈ": 304,
      "ኊ": 305,
      "ኋ": 306,
      "ኌ": 307,
      "ኍ": 308,
      "ነ": 309,
      "ኑ": 310,
      "ኒ": 311,
      "ና": 312,
      "ኔ": 313,
      "ን": 314,
      "ኖ": 315,
      "ኗ": 316,
      "ኘ": 317,
      "ኙ": 318,
      "ኚ": 319,
      "ኛ": 320,
      "ኜ": 321,
      "ኝ": 322,
      "ኞ": 323,
      "ኟ": 324,
      "አ": 325,
      "ኡ": 326,
      "ኢ": 327,
      "ኣ": 328,
      "ኤ": 329,
      "እ": 330,
      "ኦ": 331,
      "ኧ": 332,
      "ከ": 333,
      "ኩ": 334,
      "ኪ": 335,
      "ካ": 336,
      "ኬ": 337,
      "ክ": 338,
      "ኮ": 339,
      "ኯ": 340,
      "ኰ": 341,
      "ኲ": 342,
      "ኳ": 343,
      "ኴ": 344,
      "ኵ": 345,
      "ኸ": 346,
      "ኹ": 347,
      "ኺ": 348,
      "ኻ": 349,
      "ኼ": 350,
      "ኽ": 351,
      "ኾ": 352,
      "ወ": 353,
      "ዉ": 354,
      "ዊ": 355,
      "ዋ": 356,
      "ዌ": 357,
      "ው": 358,
      "ዎ": 359,
      "ዐ": 360,
      "ዑ": 361,
      "ዒ": 362,
      "ዓ": 363,
      "ዔ": 364,
      "ዕ": 365,
      "ዖ": 366,
      "ዘ": 367,
      "ዙ": 368,
      "ዚ": 369,
      "ዛ": 370,
      "ዜ": 371,
      "ዝ": 372,
      "ዞ": 373,
      "ዟ": 374,
      "ዠ": 375,
      "ዡ": 376,
      "ዢ": 377,
      "ዣ": 378,
      "ዤ": 379,
      "ዥ": 380,
      "ዦ": 381,
      "ዧ": 382,
      "የ": 383,
      "ዩ": 384,
      "ዪ": 385,
      "ያ": 386,
      "ዬ": 387,
      "ይ": 388,
      "ዮ": 389,
      "ደ": 390,
      "ዱ": 391,
      "ዲ": 392,
      "ዳ": 393,
      "ዴ": 394,
      "ድ": 395,
      "ዶ": 396,
      "ዷ": 397,
      "ጀ": 398,
      "ጁ": 399,
      "ጂ": 400,
      "ጃ": 401,
      "ጄ": 402,
      "ጅ": 403,
      "ጆ": 404,
      "ጇ": 405,
      "ገ": 406,
      "ጉ": 407,
      "ጊ": 408,
      "ጋ": 409,
      "ጌ": 410,
      "ግ": 411,
      "ጎ": 412,
      "ጏ": 413,
      "ጠ": 414,
      "ጡ": 415,
      "ጢ": 416,
      "ጣ": 417,
      "ጤ": 418,
      "ጥ": 419,
      "ጦ": 420,
      "ጧ": 421,
      "ጨ": 422,
      "ጩ": 423,
      "ጪ": 424,
      "ጫ": 425,
      "ጬ": 426,
      "ጭ": 427,
      "ጮ": 428,
      "ጯ": 429,
      "ጰ": 430,
      "ጱ": 431,
      "ጲ": 432,
      "ጳ": 433,
      "ጴ": 434,
      "ጵ": 435,
      "ጶ": 436,
      "ጷ": 437,
      "ጸ": 438,
      "ጹ": 439,
      "ጺ": 440,
      "ጻ": 441,
      "ጼ": 442,
      "ጽ": 443,
      "ጾ": 444,
      "ጿ": 445,
      "ፀ": 446,
      "ፁ": 447,
      "ፂ": 448,
      "ፃ": 449,
      "ፄ": 450,
      "ፅ": 451,
      "ፆ": 452,
      "ፇ": 453,
      "ፈ": 454,
      "ፉ": 455,
      "ፊ": 456,
      "ፋ": 457,
      "ፌ": 458,
      "ፍ": 459,
      "ፎ": 460,
      "ፏ": 461,
      "ፐ": 462,
      "ፑ": 463,
      "ፒ": 464,
      "ፓ": 465,
      "ፔ": 466,
      "ፕ": 467,
      "ፖ": 468,
      "፠": 469,
      "፡": 470,
      "።": 471,
      "፣": 472,
      "፤": 473,
      "፥": 474,
      "፦": 475,
      "፧": 476,
      "፨": 477,
      "‘": 478,
      "’": 479,
      "“": 480,
      "”": 481,
      "…": 482,
      "‹": 483,
      "›": 484,
      "áĪ": 485,
      "áĬ": 486,
      "áĭ": 487,
      "áī": 488,
      "áĮ": 489,
      "ĠáĬ": 490,
      "ĠáĪ": 491,
      "Ġáĭ": 492,
      "áĬķ": 493,
      "Ġáī": 494,
      "áį": 495,
      "áīµ": 496,
      "áĭį": 497,
      "áĪĿ": 498,
      "Ġáĭ¨": 499,
      "áĪŃ": 500,
      "áĪį": 501,
      "ĠáĬ¥": 502,
      "Ġáīł": 503,
      "áĪµ": 504,
      "ĠáĬł": 505,
      "áī½": 506,
      "áĪĪ": 507,
      "áĬĵ": 508,
      "áĪĺ": 509,
      "ĠáĮ": 510,
      "áĬķáĭ": 511,
      "áĭŃ": 512,
      "áī°": 513,
      "áĭ«": 514,
      "áĪĭ": 515,
      "áĪħ": 516,
      "áĮĪ": 517,
      "áĬĲ": 518,
      "ĠáĪĺ": 519,
      "áĪ¨": 520,
      "áĮį": 521,
      "áīł": 522,
      "áĪ«": 523,
      "áĭ°": 524,
      "áī¥": 525,
      "ĠáĬ¨": 526,
      "áĪĽ": 527,
      "ĠáĭŃ": 528,
      "áī³": 529,
      "áĭµ": 530,
      "ĠáĬĲ": 531,
      "áĪļ": 532,
      "ĠáĪĪ": 533,
      "áĪ°": 534,
      "ĠáĬ¥áĬķáĭ": 535,
      "áĬŃ": 536,
      "áĮ¥": 537,
      "áī£": 538,
      "áĭİ": 539,
      "áĪī": 540,
      "Ġáĭ«": 541,
      "áįį": 542,
      "ĠáĭĪ": 543,
      "áĮł": 544,
      "áīĢ": 545,
      "áĬł": 546,
      "áĪ³": 547,
      "áĪĨ": 548,
      "áī¸": 549,
      "áĪģ": 550,
      "áīħ": 551,
      "ĠáĪµ": 552,
      "áĬ¨": 553,
      "Ġáī°": 554,
      "áįĪ": 555,
      "áī¸áĭį": 556,
      "áį£": 557,
      "áĬ¥": 558,
      "ĠáĬ¥áĬĵ": 559,
      "áĭİáī½": 560,
      "áĭĪ": 561,
      "áĪª": 562,
      "áĮ£": 563,
      "Ġáĭ¨áĪļ": 564,
      "ĠáĪĿ": 565,
      "ĠáĪĽ": 566,
      "áĮĭ": 567,
      "áĭ³": 568,
      "áĬĽ": 569,
      "áĬ«": 570,
      "áĭļ": 571,
      "áĪįĠ": 572,
      "áĭĭ": 573,
      "ĠáĪ°": 574,
      "ĠáĪĭ": 575,
      "áī¶": 576,
      "áĭ¨": 577,
      "ĠáĬĲáĭį": 578,
      "áī±": 579,
      "ĠáĪĭáĭŃ": 580,
      "ĠáĬ¥áĬķáĭ°": 581,
      "áĪ©": 582,
      "áĪ®": 583,
      "áĪ±": 584,
      "Ġáĭį": 585,
      "Ġáī¥": 586,
      "áīĥ": 587,
      "Ġáĭ¨áī°": 588,
      "áĪİ": 589,
      "áī½áĬķ": 590,
      "ĠáĬ¥áĬķáĭ²": 591,
      "áĬķáĭµ": 592,
      "áĬĲáīµ": 593,
      "áĬĸ": 594,
      "áĬĿ": 595,
      "áįħ": 596,
      "ĠáĪģ": 597,
      "áĪĢ": 598,
      "ĠáĮį": 599,
      "áĬĳ": 600,
      "áĭĿ": 601,
      "áĭįáĬķ": 602,
      "ĠáĪį": 603,
      "Ĭáĭ": 604,
      "áĭļáĪħ": 605,
      "Ġáīµ": 606,
      "áĪŀ": 607,
      "áĭĬ": 608,
      "ĠáĮ¥": 609,
      "áį¡": 610,
      "Ĭáĭľ": 611,
      "áī»": 612,
      "Ġáĭ°": 613,
      "áĪµáĮ¥": 614,
      "ĠáīłáĪĺ": 615,
      "ĠáĭĪáĭ°": 616,
      "Ġáī£": 617,
      "ĠáĭįáĪµáĮ¥": 618,
      "áĪĪáĭį": 619,
      "ĠáĬĲáĮĪ": 620,
      "Ġáį": 621,
      "áīłáĪŃ": 622,
      "áĭĺ": 623,
      "ĠáĮĬáĭľ": 624,
      "áĬĶ": 625,
      "áīµĠáĬł": 626,
      "áĬķáĪĿ": 627,
      "áĮħ": 628,
      "áĬķĠáīł": 629,
      "ĠáĪĪáĪĺ": 630,
      "áĪ½": 631,
      "áĬķĠáĬł": 632,
      "áĮī": 633,
      "ĠáĭŃáĪħ": 634,
      "ĠáīĢ": 635,
      "âĢ": 636,
      "áīłáīµ": 637,
      "áįĭ": 638,
      "áĪĨáĬĲ": 639,
      "ĠáĪµáĪĪ": 640,
      "áĪĮ": 641,
      "ĠáĬĲáĭįĠ": 642,
      "áĪĻ": 643,
      "ĠáĪ²": 644,
      "ĠáĬŃ": 645,
      "áĪµáī°": 646,
      "ĠáĮĭ": 647,
      "áĭĽ": 648,
      "áī¢": 649,
      "áĬ©": 650,
      "ĠáĪĪáĪĽ": 651,
      "ĠáĬ¥áĬķ": 652,
      "áĪªáĭ«": 653,
      "áī¶áī½": 654,
      "áī¡": 655,
      "Ġáĭ¨áĪĺ": 656,
      "áīµĠáīł": 657,
      "Ġáĭµ": 658,
      "ĠáĪĢ": 659,
      "áĭ±": 660,
      "áī¹": 661,
      "áĪ»": 662,
      "Ġáĭ¨áĬł": 663,
      "áĪĿĠáīł": 664,
      "ĠáĪħ": 665,
      "áįĬ": 666,
      "ĠáĬĲáīłáĪŃ": 667,
      "ĠáĮĭáĪŃ": 668,
      "áī½áĪģ": 669,
      "ĠáĬĲáĮĪáĪŃ": 670,
      "ĠáĪĬ": 671,
      "ĠáĬłáĭŃ": 672,
      "áĪĪáĪģ": 673,
      "áĮ¨": 674,
      "áīĨ": 675,
      "ĠáĭĪáĭŃ": 676,
      "ĠáĪĨ": 677,
      "áĮĢ": 678,
      "ĠáĪģáĪī": 679,
      "áĪĿĠ": 680,
      "ĠáĮĪ": 681,
      "áĭĻ": 682,
      "áĭ°áĪŃ": 683,
      "áĬ¤": 684,
      "Ġáĭĺ": 685,
      "áĪ¬": 686,
      "áĪĨáĬĳ": 687,
      "ĠáīłáĬł": 688,
      "Ġáī¤": 689,
      "Ġáī³": 690,
      "áĭ²": 691,
      "áīģ": 692,
      "áĪĿĠáĬł": 693,
      "áīµáĬķ": 694,
      "áĪĦ": 695,
      "áĪĨáĬķ": 696,
      "áĭµáĪŃ": 697,
      "áĭ©": 698,
      "áĮĥ": 699,
      "Ġáĭ¨áĪļáĭ«": 700,
      "ĠáĪĺáĬķ": 701,
      "áĪĿáĪĭ": 702,
      "áī¤": 703,
      "ĠáĬ«": 704,
      "áīµĠáĭ¨": 705,
      "Ġáīħ": 706,
      "ĠáĮįáĬķ": 707,
      "áī½áĪĭ": 708,
      "áĪµáĪ«": 709,
      "ĠáĬ¢": 710,
      "áĭ®": 711,
      "áĭļáĭ«": 712,
      "áī¦": 713,
      "áĪľ": 714,
      "áĭĮ": 715,
      "áĬĺ": 716,
      "áĮİ": 717,
      "Ġáīłáī°": 718,
      "áīĤ": 719,
      "áĮ¡": 720,
      "áī´": 721,
      "ĠáĪ³": 722,
      "áįĥ": 723,
      "ĠáĬķ": 724,
      "áī²": 725,
      "áĪµáīµ": 726,
      "áįĢ": 727,
      "áĪĿáĪĭáĬŃ": 728,
      "Ġáįį": 729,
      "áĭ°áĪ¨": 730,
      "ĠáĪ°áĭİáī½": 731,
      "áī°áĬĽ": 732,
      "ĠáĮł": 733,
      "ĠáĬłáĪĪ": 734,
      "ĠáĪ°áĭį": 735,
      "ĠáīłáĬ¥": 736,
      "áĪĬ": 737,
      "ĠáĬ¥áĬĲ": 738,
      "áĪĪáīµ": 739,
      "áĬ®": 740,
      "áĪ®áī½": 741,
      "áĮŃ": 742,
      "áīłáĪ¨": 743,
      "ĠáĭĪáĭŃáĪĿ": 744,
      "áĪħáĭĮ": 745,
      "áĮĨ": 746,
      "Ġáĭ¨áĪĿ": 747,
      "áĪŃáĪµ": 748,
      "ĠáĬ¥áĬķáĭ°áĪļ": 749,
      "áĬķáĭ³": 750,
      "áĬĭ": 751,
      "Ġáĭ¨áĬ¥": 752,
      "áįĪáĪį": 753,
      "áĪīĠ": 754,
      "ĠáĬłáĪµ": 755,
      "áį¡áį¡": 756,
      "ĠâĢ": 757,
      "áĬķáī°": 758,
      "ĠáĬ¥áĬķáĭ³": 759,
      "áĪĭáī¸áĭį": 760,
      "áĮĪáĪį": 761,
      "Ġáī¢": 762,
      "áĪ´": 763,
      "áĭµáĪ¨": 764,
      "ĠáĬłáĪĺ": 765,
      "Ġáĭ«áĪĪ": 766,
      "áĮ«": 767,
      "Ġáĭ¨áĪĽ": 768,
      "ĠáĭŃáī½áĪĭ": 769,
      "áĬŀ": 770,
      "ĠáĪĮ": 771,
      "ĠáĮī": 772,
      "áĬķĠ": 773,
      "áĪİáī½": 774,
      "áĭ¶": 775,
      "áīµĠáĪĺ": 776,
      "áĬķĠáĪĺ": 777,
      "áĮ£áĪĿ": 778,
      "Ġáī¥áĭĻ": 779,
      "ĠáĬĲáīłáĪŃĠ": 780,
      "ĠáĬłáĬķáĭµ": 781,
      "ĠáĬ¨áī°": 782,
      "áīĭ": 783,
      "ĠáĬ¥áĪµ": 784,
      "áĬķáĭ«": 785,
      "áĮĪáĭµ": 786,
      "áĬĴ": 787,
      "áĪĺáĪĪ": 788,
      "áį¥": 789,
      "ĠáīłáĪĽ": 790,
      "ĠáĬ¥áĭ¨": 791,
      "ĠáĪĿáĬŃ": 792,
      "áĪ¸": 793,
      "ĠáĬĵ": 794,
      "áī¸áĭįáĬķ": 795,
      "áĮĪáī£": 796,
      "áĬĭáĪĭ": 797,
      "ĠáĪĿáĬķ": 798,
      "ĠáĬ¨áĬ¥": 799,
      "áĬ«áĬ¨": 800,
      "áĪ¶": 801,
      "ĠáĬ¥áĬķáĭ²áĪħ": 802,
      "áĭĭáĪįĠ": 803,
      "ĠáįĪ": 804,
      "ĠáīłáĪļ": 805,
      "áĪ²": 806,
      "áĪĭáĭŃ": 807,
      "áĬĻ": 808,
      "ĠáĪµáĪ«": 809,
      "áĪĽáĪª": 810,
      "áĬķáĮį": 811,
      "áĭ«áĬķ": 812,
      "áĬĽáĭį": 813,
      "áĪ¨áīµ": 814,
      "Ġáī¦": 815,
      "Ġáī£áĪĪ": 816,
      "áĬ¢": 817,
      "áĪ¨áĮĥ": 818,
      "ĠáĭŃáĪĨ": 819,
      "áĪĿĠáĭ¨": 820,
      "ĠáĬ¨áĪĺ": 821,
      "áĬª": 822,
      "áįī": 823,
      "áĬ¨áī°": 824,
      "áįİ": 825,
      "ĠáĬ¥áĪŃ": 826,
      "áĪµáī³": 827,
      "áīħáĪŃ": 828,
      "áĪ°áĪ«": 829,
      "ĠáĪĻ": 830,
      "ĠáĬ¨áĬł": 831,
      "ĠáĬłáĪį": 832,
      "áĪĭáĪį": 833,
      "áĪĿáĬķ": 834,
      "áĮĢáĪĺ": 835,
      "ĠáĬ¤": 836,
      "ĠâĢľ": 837,
      "áĮĪáĪŃ": 838,
      "áĪģáĬķ": 839,
      "ĠáīłáĮ£áĪĿ": 840,
      "áĪ°áī¥": 841,
      "áĭİáī½áĬķ": 842,
      "áĪŃáīµ": 843,
      "áĭµáĪ¨áĮį": 844,
      "ĠáĪļ": 845,
      "ĠáĬ¥áĬĶ": 846,
      "ĠáĬ¥áĬķáĭ²áĪģ": 847,
      "ĠáīłáĭļáĪħ": 848,
      "áĬ³": 849,
      "Ġáĭ«áĪħáĭĮ": 850,
      "áīµĠ": 851,
      "áĪĪáĪĿ": 852,
      "Ġáĭ°áĮį": 853,
      "áĭĭáĪį": 854,
      "áī·": 855,
      "áĮĬ": 856,
      "áĭŃáĭĪ": 857,
      "ĠáĬŃáįį": 858,
      "áįķ": 859,
      "áĪ°áĪĽ": 860,
      "áĬĵáĪį": 861,
      "áįħáĪĢ": 862,
      "ĠáĪĺáĪį": 863,
      "áĭįĠáĭ¨": 864,
      "Ġáīģ": 865,
      "áĮłáīĢ": 866,
      "´áīµ": 867,
      "áĬķáĭ±": 868,
      "áĬĶáī³": 869,
      "ĠáĪįáĮĨ": 870,
      "ĠáĭĿ": 871,
      "áį¡áį¡Ċ": 872,
      "Ġáīĥ": 873,
      "áĮĤ": 874,
      "áĭ«áĭį": 875,
      "Ġáī¦áī³": 876,
      "Ġáĭ°áĮįáĪŀ": 877,
      "áī£áī¸áĭį": 878,
      "áĪĺáĪį": 879,
      "áĬķĠáĭ¨": 880,
      "Ġáĭĭ": 881,
      "áīłáĪ©": 882,
      "ĠáĬ¥áĭ«": 883,
      "ĠáĪģáĬĶáī³": 884,
      "ĠáĬĵáī¸áĭį": 885,
      "Ġáī¥áī»": 886,
      "áīĢáĪŃ": 887,
      "ĠáĬłáĪĿáĪĭáĬŃ": 888,
      "ĠáĬ¨áĭļáĭ«": 889,
      "ĠáĭŃáĪħáĬķ": 890,
      "ĠáĪĿáĬŃáĬķáĭ«": 891,
      "áĭ«áĪµ": 892,
      "ĠáĪ«": 893,
      "ĠáĬ¥áĪ±": 894,
      "ĠáĮ¥áĪ©": 895,
      "áĬ¤áĪį": 896,
      "Ġáīħáĭ±": 897,
      "áī½áĪį": 898,
      "áĪįáīħ": 899,
      "áĮįáī£": 900,
      "áĪ¨áĭį": 901,
      "ĠáīłáĬĭáĪĭ": 902,
      "Ġáĭ³": 903,
      "áįħáĪĢáįį": 904,
      "áĮĪáĬĺ": 905,
      "Ġáĭ«áĪĪáĭį": 906,
      "ĠáĪĪáĬ¥": 907,
      "áĪĪáĪģĠ": 908,
      "áīµĠáĭŃ": 909,
      "Ġáĭ¨áĪĨáĬĲ": 910,
      "áĮĵ": 911,
      "áĪ±áĪµ": 912,
      "áī±áĬķ": 913,
      "áĬķáĪµ": 914,
      "áĭ¨áĪ±áĪµ": 915,
      "Ġáī¤áīµ": 916,
      "ĠáĪĨáĬĸ": 917,
      "áĮ¦": 918,
      "áĬĵáĪįĠ": 919,
      "áĬŀáī½": 920,
      "ĠáĪĿáĬķáĪĿ": 921,
      "ĠáĪĪáĬł": 922,
      "áī¥áĪŃ": 923,
      "áĬĸáĪŃ": 924,
      "âĢĿ": 925,
      "ĠáĪĺáĬķáĮĪáĭµ": 926,
      "áĬĲáĪ³": 927,
      "ĠáĬ¨áįį": 928,
      "Ġáī½": 929,
      "áĮĢáĪĺáĪªáĭ«": 930,
      "ĠáĬ¥áĬķáĭµ": 931,
      "ĠáĮīáĭ³": 932,
      "Ġáīħáĭ±áĪµ": 933,
      "áĪħáĬķ": 934,
      "ĠáĪįáĮħ": 935,
      "áĬ«áĬ¨áĪį": 936,
      "áĪ¨áĪµ": 937,
      "áĭ¬": 938,
      "ĠáĬ®": 939,
      "ĠáĪĽáĬķ": 940,
      "ĠáĪĺáĪµ": 941,
      "áĪ«áīµ": 942,
      "áĬ¦": 943,
      "áĪ³áĪĮ": 944,
      "áĮ¨áĪĽáĪª": 945,
      "ĠáĬ¥áĬĵĠáĭ¨": 946,
      "ĠáĪĨáĬĲ": 947,
      "áĪ«áĭĬ": 948,
      "áĮĪáĬĵ": 949,
      "áĪĿáĪħ": 950,
      "áĬĲáīłáĪ¨": 951,
      "áį£Ġáĭ¨": 952,
      "ĠáĮĢ": 953,
      "ĠáĬ¥áĬĲáĭļáĪħ": 954,
      "ĠáĪŀ": 955,
      "áĭİáī¹": 956,
      "ĠáĬłáĬķ": 957,
      "áĪĺáĪŃ": 958,
      "ĠáīĨ": 959,
      "Ġáĭ«áĪī": 960,
      "Ġáĭ«áĪµ": 961,
      "áī¢áĭ«": 962,
      "áĪĺáĪµ": 963,
      "ĠáĪħáĭĿ": 964,
      "áĮįáĬĺ": 965,
      "ĠáįĬ": 966,
      "áĭ´": 967,
      "áīĦ": 968,
      "áī¶áī½áĬķ": 969,
      "ĠáĪĿáĪŃ": 970,
      "ĠáĬ¥áĪµáĬ¨": 971,
      "áĪ³áĭŃ": 972,
      "ĠáĬ¥áĭį": 973,
      "áĬĵáĮĪ": 974,
      "ĠáĬłáĬ«": 975,
      "áĪĪáī½": 976,
      "áĪ°áĭį": 977,
      "áĪĪáĪħ": 978,
      "áĬĸáī½": 979,
      "áĭ¨áīµ": 980,
      "áĮįáī¥": 981,
      "ĠáĬ¥áĬķáĭ´áīµ": 982,
      "áĬĵĠáīł": 983,
      "áĪħáĪį": 984,
      "áĭĪáĪ°": 985,
      "áĪ¨áĭ³": 986,
      "áī¦áī½": 987,
      "ĠáĬ¥áĬĵĠáīł": 988,
      "ĠáĬ¥áĬķáĭ°áĪĨáĬĲ": 989,
      "áĭ«áĪħáĭĮ": 990,
      "áĪĭáī½áĪģ": 991,
      "áĮ¤": 992,
      "áįĬáīµ": 993,
      "ĠáĮ¨": 994,
      "ĠáĬ¢áĭ¨áĪ±áĪµ": 995,
      "áī¼": 996,
      "áĮĪáĪĪ": 997,
      "Ġáį£": 998,
      "áįĸ": 999,
      "ĠáĬłáĬķáĭ³": 1000,
      "áĬĵáīµ": 1001,
      "áĪĺáĮ£": 1002,
      "áĮĪáĪįáĮį": 1003,
      "áĪ°áĮł": 1004,
      "áĭįáĭ«áĬķ": 1005,
      "áĬłáī¥": 1006,
      "áī£áī¢": 1007,
      "áĪ¨áĮĭ": 1008,
      "áĪĪáĬķ": 1009,
      "áĮĮ": 1010,
      "áĬĿáĬĲáīµ": 1011,
      "áĪĺáĬķ": 1012,
      "ĠáĪµáĪŃ": 1013,
      "ĠáīĢáĬķ": 1014,
      "ĠáĪĺáĮł": 1015,
      "Ġáįķ": 1016,
      "áĭĪáĮ£": 1017,
      "ĠáīĥáĪį": 1018,
      "ĠáĪįáĮĨáī½": 1019,
      "áĭİáĬķ": 1020,
      "áĬķáĭ¶": 1021,
      "áĪı": 1022,
      "ĠáĪ³áĭŃ": 1023,
      "ĠáĪĮáĪĭ": 1024,
      "áįģ": 1025,
      "ĠáĭµáĪŃ": 1026,
      "áĭ²áĪµ": 1027,
      "áĮĪáĭį": 1028,
      "ĠáĭµáĪ¨áĪµ": 1029,
      "áĮĪáĬĻ": 1030,
      "áĪĿáĬĵ": 1031,
      "ĠáĪĺáĪ°": 1032,
      "áī³áī¸áĭį": 1033,
      "áĪĪáĬķĠ": 1034,
      "áĮĪáĪįáĮįáĪİ": 1035,
      "áĮģ": 1036,
      "ĠáĬłáĪµáī°": 1037,
      "ĠáĬłáĪĭ": 1038,
      "ĠáĬłáĭµáĪŃ": 1039,
      "ĠáĬ¥áĬķáĭ²áĪģáĪĿ": 1040,
      "áĪļáĭ«": 1041,
      "áĪ¯": 1042,
      "áīłáĪį": 1043,
      "áĪŃáĭµ": 1044,
      "áĪĿáĪ®": 1045,
      "ĠáĪĺáĬ«áĬ¨áĪį": 1046,
      "áįħáĪĢáįįĠáīħáĭ±áĪµ": 1047,
      "ĠáĬĲáĮĪáĪ®áī½": 1048,
      "ĠáĪŃ": 1049,
      "ĠáĬłáī£": 1050,
      "áī³áĭĬ": 1051,
      "ĠáĪµáĪĪáĭļáĪħ": 1052,
      "áĪĪáĭ«": 1053,
      "áĭĪáīħ": 1054,
      "ĠáĬłáĭŃáĭ°": 1055,
      "áīłáĪĪ": 1056,
      "áĭįĠáīł": 1057,
      "áĪŀáī½": 1058,
      "áī³áĪį": 1059,
      "áį£Ġáīł": 1060,
      "áĬĵĠáĭ¨": 1061,
      "áĪīáīµ": 1062,
      "áĪĦáĪŃ": 1063,
      "ĠáĪĢáĭŃ": 1064,
      "ĠáĬ¥áĭµ": 1065,
      "áĭŀ": 1066,
      "ĠáĬ¨áĭļáĪħ": 1067,
      "áĬłáīµ": 1068,
      "áĪĿáĪŃ": 1069,
      "áĮįáĪŃ": 1070,
      "áĮ¨áĪ¨": 1071,
      "áĬŃáĪį": 1072,
      "áĮ¥áĪŃ": 1073,
      "ĠáįĢ": 1074,
      "ĠáĪħáĭŃáĭĪ": 1075,
      "ĠáĬ¨áĪĨáĬĲ": 1076,
      "áĪĻáĪī": 1077,
      "áī»áī¸áĭį": 1078,
      "áĪµáĪ«áĬ¤áĪį": 1079,
      "áī³áī½áĬķ": 1080,
      "áĬķĠáĭŃ": 1081,
      "áĪĭáīµ": 1082,
      "ĠáīµáĬķ": 1083,
      "áĭĺáĮĭ": 1084,
      "ĠáĪĪáĪĿ": 1085,
      "áī³áīµ": 1086,
      "ĠáĪ¨": 1087,
      "ĠáĬ¥áĬķáĬ³": 1088,
      "áĮĪáĬĿ": 1089,
      "áī³áĪįĠ": 1090,
      "áĮįáĭļ": 1091,
      "Ġáĭ°áĪ¨áĮĥ": 1092,
      "áī±áĪĿ": 1093,
      "áĪµáįĭ": 1094,
      "ĠáĭĪáĬķáĭµ": 1095,
      "áĬķáĭĺ": 1096,
      "áĬ¬": 1097,
      "ĠáĪ´": 1098,
      "ĠáĪĺáĬķáĮį": 1099,
      "ĠáĬĲáĮĪáĪŃĠáĮįáĬķ": 1100,
      "áĪĿáīµ": 1101,
      "áĬ¨áīµ": 1102,
      "ĠáĪĽáĭµáĪ¨áĮį": 1103,
      "áī£áīµ": 1104,
      "ĠáĪĿáĪµ": 1105,
      "ĠáĬ¥áĬĲáĪ±": 1106,
      "áī°áĭį": 1107,
      "áĮįáĪ«": 1108,
      "áĮ¨áĪ¨áĪ»": 1109,
      "áĮłáīł": 1110,
      "Ġáĭ¨áĪļáĭ«áĪµ": 1111,
      "áĪŃáĮį": 1112,
      "ĠáĮİ": 1113,
      "ĠáĪĮáĪİáī½": 1114,
      "áĮįáĭļáĬłáī¥": 1115,
      "áĮįáĭļáĬłáī¥áĪĦáĪŃ": 1116,
      "áĪĦáĭµ": 1117,
      "ĠáĬķáĮī": 1118,
      "áĪįáĬŃ": 1119,
      "ĠáĬłáĭį": 1120,
      "ĠáĪ½": 1121,
      "áĮłáīĥ": 1122,
      "áĮįáĪį": 1123,
      "áīµĠáī°": 1124,
      "áĮłáĪŃ": 1125,
      "Ġáĭ«áĪį": 1126,
      "áĪ·": 1127,
      "ĠáĭĽ": 1128,
      "ĠáĬłáĭŃáĬĲáīµ": 1129,
      "áĪįáĮ£": 1130,
      "ĠáĬłáī¥": 1131,
      "Ġáĭ«áĪħáĪį": 1132,
      "ĠáĪĢáĪ³": 1133,
      "áĭ°áĪŃáĮĭ": 1134,
      "áįĪáĪĪ": 1135,
      "ĠáĬ¥áĬķáĭ²áĭ«": 1136,
      "áĬķáĬķ": 1137,
      "áĪŃáĪ±": 1138,
      "ĠáĬŃáĪŃáĪµ": 1139,
      "áĮĪáĬĽ": 1140,
      "áīłáīµĠáĮĬáĭľ": 1141,
      "ĠáĮ¥áīħ": 1142,
      "Ġáī¡": 1143,
      "áĭµáĬķ": 1144,
      "áĮĬáĭľ": 1145,
      "áī½áĪī": 1146,
      "ĠáĪģáĪĪ": 1147,
      "ĠáĭŃáĪģáĬķ": 1148,
      "áįĪáĪįáĮĭ": 1149,
      "áĪ«áī¸áĭį": 1150,
      "Ġáįħ": 1151,
      "áĪªáĬ«": 1152,
      "ĠáĭŃáī½áĪĭáĪįĠ": 1153,
      "Ġáī¤áī°": 1154,
      "ĠáĬ¨áĪļ": 1155,
      "áįĮ": 1156,
      "áĬķáīĢ": 1157,
      "áįĴ": 1158,
      "áīĢáĪ¨": 1159,
      "áĪ°áĮ£": 1160,
      "ĠáĬ¥áĮħ": 1161,
      "ĠáĮ£": 1162,
      "áī°áĪŃ": 1163,
      "áįĪáĪĭ": 1164,
      "áī£áĪį": 1165,
      "ĠáĭŃáĪĨáĭĭ": 1166,
      "ĠáĬłáĬķáĭ³áĬķáĭµ": 1167,
      "áįĵ": 1168,
      "áĮ¢": 1169,
      "Ġáī¥áĪİ": 1170,
      "ĠáĬ¨áįįáī°áĬĽ": 1171,
      "áĪĪáĬĽ": 1172,
      "áīłáĪĪáĮł": 1173,
      "áĮįáĬĺáīµ": 1174,
      "áĪĺáĪ°": 1175,
      "áĭ«áīĦ": 1176,
      "áĪªáĭİáī½": 1177,
      "ĠáĪĦ": 1178,
      "áīĢáĮ¥": 1179,
      "ĠáīµáĪĿáĪħ": 1180,
      "áĬĽáĭįáĪĿ": 1181,
      "ĠáĪĿáĭµáĪŃ": 1182,
      "ĠáĭĪáīħ": 1183,
      "áĪ°áī£": 1184,
      "ĠáĬ¨áĭļáĭ«áĪĿ": 1185,
      "áĬĲáĪ±": 1186,
      "áįįáīµ": 1187,
      "áįĪáĪĭáĮĬ": 1188,
      "áĭ®áī½": 1189,
      "ĠáĪ¶": 1190,
      "ĠáĭµáĬķ": 1191,
      "ĠáĭŃáī½áĪĭáĪį": 1192,
      "ĠáĪµáĪĿ": 1193,
      "ĠáĬ¥áĭ¨áī°": 1194,
      "áĪĿáĬĲáīµ": 1195,
      "áĭ¶áī½": 1196,
      "áĬķáĬĵ": 1197,
      "áĬķáĭĺáī¥": 1198,
      "ĠáĬ¦": 1199,
      "áīµáĬĵ": 1200,
      "áĬ¸": 1201,
      "ĠáĪĻáĪī": 1202,
      "áĭ°áĭį": 1203,
      "áĬķáĭ¶áī½": 1204,
      "áĮłáĪ«": 1205,
      "áī»áī½áĬķ": 1206,
      "Ġáī°áīĢ": 1207,
      "áĬķĠáĪĽ": 1208,
      "Ġáĭ²": 1209,
      "áĪ¨áī¥": 1210,
      "áī³áĭį": 1211,
      "ĠáīłáĪĺáĪĨáĬĳ": 1212,
      "ĠáĭĺáĬķáĭµ": 1213,
      "áįĪáįĢ": 1214,
      "áĬķĠáĪĪáĪĽ": 1215,
      "ĠáĪĬáĭ«": 1216,
      "áĭĪáĪµ": 1217,
      "áīłáī¥": 1218,
      "Ġáī£áĪħ": 1219,
      "ĠáĬŃáįįáĪį": 1220,
      "ĠáĮ¥áĭ«áīĦ": 1221,
      "áĪĿĠáĬ¨": 1222,
      "ĠáĪĪáĪļ": 1223,
      "ĠáĬłáĬķáī°": 1224,
      "áĪªáĬŃ": 1225,
      "ĠáįķáĪ®": 1226,
      "áĬ©áĪį": 1227,
      "ĠáĪįáī¥": 1228,
      "áĮłáĬĵ": 1229,
      "áĬĿĠ": 1230,
      "ĠáĬ¥áĬĽ": 1231,
      "ĠáĬłáĮĪáĪįáĮįáĪİ": 1232,
      "áī¤áīµ": 1233,
      "ĠáĪĽáĪĪáīµ": 1234,
      "Ġáĭ«áĪĪáĭįáĬķ": 1235,
      "ĠáĬłáĪĪáĭį": 1236,
      "áĪŁ": 1237,
      "áĭ°áĬķ": 1238,
      "ĠáĬłáĪģáĬķ": 1239,
      "áīµĠáĪĭáĭŃ": 1240,
      "áĬķĠáĪĪáĪĺ": 1241,
      "áĬ¨áĪŃ": 1242,
      "áĭ¨áĪŃ": 1243,
      "Ġáĭ®": 1244,
      "áĪµáī¥": 1245,
      "áĬķĠáĭ«": 1246,
      "ĠáĬłáĪĽ": 1247,
      "áĪħáĭĿ": 1248,
      "ĠáĮĮ": 1249,
      "ĠáĬ¨áī°áĪĽ": 1250,
      "ĠáĪįáĭ©": 1251,
      "áīµĠáĬ¥áĬĵ": 1252,
      "áĪĺáĪ¨": 1253,
      "ĠáĪĤ": 1254,
      "áĬ¨áĪ«": 1255,
      "áĬĸáĪ©": 1256,
      "áĪŃáĪµáĭİ": 1257,
      "áĬķĠáĬ¨": 1258,
      "áĬĲáĭį": 1259,
      "Ġáĭ¨áĪĽáĭŃ": 1260,
      "áĮª": 1261,
      "áĭĪáĭ³": 1262,
      "áĪĺáĪ«": 1263,
      "áĪĿĠáĭŃ": 1264,
      "ĠáīłáĪĻáĪī": 1265,
      "Ġáĭ¨áĪĿáīµ": 1266,
      "ĠáĪĺáĪ¨áĮĥ": 1267,
      "áĪµáĪĽ": 1268,
      "ĠáĬłáĪ³": 1269,
      "áĪ®áī½áĬķ": 1270,
      "áĬķáĭ°": 1271,
      "ĠáĪĨáĭŃ": 1272,
      "ĠáĪĺáĪĨáĬĳ": 1273,
      "Ġáĭ¨áĬłáĪĿáĪĭáĬŃ": 1274,
      "áĪħáĭŃáĭĪ": 1275,
      "áĭ°áĪ¨áĮĪ": 1276,
      "áĬķĠáī°": 1277,
      "ĠáĬĵáī¸áĭįĠ": 1278,
      "áĪĨáĬĵ": 1279,
      "áĮ£áīµ": 1280,
      "áĬŃáĪŃ": 1281,
      "ĠáĭĪáĪŃ": 1282,
      "ĠáĬª": 1283,
      "Ġáįĸ": 1284,
      "áĪĿĠáī°": 1285,
      "áĬĲáī±": 1286,
      "áĬĲáīłáĪ©": 1287,
      "áĮłáī¥": 1288,
      "ĠáĮŃ": 1289,
      "ĠáĬ©": 1290,
      "áį¦": 1291,
      "ĠáĪĽáĪµ": 1292,
      "áĪĪáĪĿĠ": 1293,
      "áĪįĠáīł": 1294,
      "ĠáĪĺáĪ³": 1295,
      "áĬŃáĪµ": 1296,
      "ĠáĪĺáĬķáįĪ": 1297,
      "áĪĭáĪįĠ": 1298,
      "ĠáĭĪáĭŃáĪĿĠáīł": 1299,
      "áĬķáīµ": 1300,
      "ĠáĬłáīµ": 1301,
      "áĭ°áĪŃáĮį": 1302,
      "áįĪáĪŃ": 1303,
      "áĪģáĪī": 1304,
      "áĬŃáīµ": 1305,
      "áįĪáĭį": 1306,
      "áĪ°áĮ¥": 1307,
      "áī¸áĭĭáĪįĠ": 1308,
      "áĮłáīĢáĪĿ": 1309,
      "áĬķĠáĭ¨áĪļ": 1310,
      "Ġáĭ¨áĭĪ": 1311,
      "áĪĺáĪįáĬ¨": 1312,
      "áīĤáĭ«": 1313,
      "áĪĺáĪ³": 1314,
      "ĠáĬłáĪĿ": 1315,
      "ĠáīłáĪĿ": 1316,
      "áīµĠáĬ¨": 1317,
      "áĬ¨áī³": 1318,
      "áī¥áĪ¨": 1319,
      "ĠáīłáĪĭáĭŃ": 1320,
      "ĠáĬ¥áĬķáĭ°áī°": 1321,
      "ĠáĪģáĪĪáīµ": 1322,
      "áīĢáĭµ": 1323,
      "Ġáĭ¨áĬ¢": 1324,
      "áĪĽáĪŃ": 1325,
      "ĠáĬłáĬķáĭ±": 1326,
      "áī¤áī°": 1327,
      "ĠáīµáĪįáīħ": 1328,
      "ĠáĬĲáīłáĪ©": 1329,
      "Ġáĭ¶": 1330,
      "áĪĭáĭĬ": 1331,
      "ĠáĪ°áĪ«": 1332,
      "ĠáĭĺáĪĺ": 1333,
      "ĠáĪ²áĪĨáĬķ": 1334,
      "ĠÂ": 1335,
      "ĠáĬ¥áĬķáĮĤ": 1336,
      "áĮ®": 1337,
      "ĠáĬĲáįĥ": 1338,
      "áĪ³áīµ": 1339,
      "áĪ¹": 1340,
      "ĠáĪµáĪľ": 1341,
      "Ġáīłáī°áĮ¨áĪĽáĪª": 1342,
      "áĪĭáĭį": 1343,
      "ĠáĪĺáĮ¥": 1344,
      "áĪĪáĭ«áĭ©": 1345,
      "Ġáī°áĪµáįĭ": 1346,
      "Ġáĭ¨áĪĨáĬĳ": 1347,
      "áį£ĠáĬ¥áĬĵ": 1348,
      "áĪ«áĪį": 1349,
      "áĪĽáĭŃ": 1350,
      "áĪĭáīħ": 1351,
      "ĠáĬłáĪģ": 1352,
      "áĬķáĭ³áĬķáĭ±": 1353,
      "áĪĪáīłáīµ": 1354,
      "Ġáĭ¨áīµ": 1355,
      "Ġáīłáĭļáĭ«": 1356,
      "áĪ°áĪ©": 1357,
      "áĭŃáĪĨ": 1358,
      "ĠáĬķáĮīáĪµ": 1359,
      "áĭįáĪĿ": 1360,
      "áĪĭáĪĪ": 1361,
      "áĭ°áĮĭ": 1362,
      "Ġáĭ«áĪĭáī¸áĭį": 1363,
      "ĠáĬ¥áĭļáĪħ": 1364,
      "áĬĲáĭļáĪħ": 1365,
      "ĠáĪµáī¥": 1366,
      "ĠáĪĿáĪ³áĪĮ": 1367,
      "áĬķĠáĬ¥áĬĵ": 1368,
      "ĠáĬŃáĪŃáĪµáī²": 1369,
      "ĠáīłáĬ¥áĪŃáĮį": 1370,
      "áĮįáĪĪ": 1371,
      "ĠáĬłáĭ²áĪµ": 1372,
      "ĠáīµáĬķáĪ½": 1373,
      "ĠáĮĵ": 1374,
      "áĬķáĭµáĬķ": 1375,
      "ĠáĭĽáĪ¬": 1376,
      "áĪŃáĭĿ": 1377,
      "áīłáĭį": 1378,
      "áī¥áĪ«": 1379,
      "áĪŃáĭ«": 1380,
      "áīª": 1381,
      "áĪĭáĮİ": 1382,
      "ĠáĪģáĪīáĪĿ": 1383,
      "áĭŃáīµ": 1384,
      "ĠáĬ¥áĬĵáĬķáī°": 1385,
      "áįĪáĪįáĮį": 1386,
      "áĪĤ": 1387,
      "áīĢáĪĺ": 1388,
      "áīĢáĭį": 1389,
      "áĪģáĭ³": 1390,
      "Ġáĭ¨áĪĺáĮĢáĪĺáĪªáĭ«": 1391,
      "ĠáĬłáĪĺáīµ": 1392,
      "áī¶áĪµ": 1393,
      "ĠáĪĢáĪ³áī¥": 1394,
      "áĪµáĮł": 1395,
      "Ġáī°áĮ¨áĪĽáĪª": 1396,
      "ĠáīµáĪĿáĪħáĪŃáīµ": 1397,
      "áī½áĬĭ": 1398,
      "ĠáĪĺáĭĿ": 1399,
      "ĠáĪľ": 1400,
      "áĭ¥": 1401,
      "áįįáĪ«": 1402,
      "ĠáĪĪáĪĽáĭµáĪ¨áĮį": 1403,
      "ĠáĭĭáĬĵ": 1404,
      "áĭ²áĭ«": 1405,
      "áĮĪáĪįáĮĭ": 1406,
      "áīµĠáĭ¨áĪļ": 1407,
      "Ġáįĵ": 1408,
      "ĠáĪĪáī°": 1409,
      "áĭ°áĪŃáĮī": 1410,
      "áįĪáĪįáĮī": 1411,
      "áīµĠáĬłáĪĺ": 1412,
      "áīµáĪĿ": 1413,
      "ĠáĬ¨áī£": 1414,
      "Ġáī°áĬĵ": 1415,
      "ĠáĪ²áĪį": 1416,
      "ĠáīłáĪŃ": 1417,
      "áĪ¾": 1418,
      "áĪĺáĭį": 1419,
      "áĮĪáī¥": 1420,
      "ĠáīµáĬŃ": 1421,
      "âĢ¦": 1422,
      "áĭ°áĪĿ": 1423,
      "áĮĪáī¡": 1424,
      "áĮµ": 1425,
      "ĠáĪĺáįħáĪĢáįįĠáīħáĭ±áĪµ": 1426,
      "áĪ³áĭĬ": 1427,
      "áĮłáĪ©": 1428,
      "áĮĦ": 1429,
      "áĭ°áĪ¨áĮį": 1430,
      "áī·áĪįĠ": 1431,
      "ĠáĭĭáĮĭ": 1432,
      "ĠáĭµáĪŃáĮħ": 1433,
      "áĪĢáĭŃ": 1434,
      "ĠáĭįáĮ¤": 1435,
      "áĪ»áĪ»": 1436,
      "áĪĭáĪī": 1437,
      "áĪĪáĭŃ": 1438,
      "ĠáĬ¥áĮįáĭļáĬłáī¥áĪĦáĪŃ": 1439,
      "ĠáĪĺáĪ³áĪªáĭ«": 1440,
      "áī£áĬ¤": 1441,
      "áĬ¨áĬĵ": 1442,
      "Ġáī¥áĪŃ": 1443,
      "áĬķĠáĬłáĭŃ": 1444,
      "ĠáĪ²áĭ«": 1445,
      "ĠáĪ¸": 1446,
      "ĠáĮīáĭ³áĭŃ": 1447,
      "áĭŃáĪĨáĭĭ": 1448,
      "áī§": 1449,
      "ĠáĬłáĪī": 1450,
      "áĪĪáĭįáĬķ": 1451,
      "ĠáĪĬáĪĨáĬķ": 1452,
      "áĭľ": 1453,
      "ĠáĮįáĬķĠáīł": 1454,
      "ĠáĭŃáī½áĪĭáĪīĠ": 1455,
      "ĠáĬ¥áĭįáĬĲ": 1456,
      "ĠáĬĲáīłáĪ¨": 1457,
      "áĪµáī°áĬĽ": 1458,
      "áĭ°áĪ¨áĮī": 1459,
      "áĪŃáĭ³": 1460,
      "ĠáīłáįĬáīµ": 1461,
      "áĪĮáĪİáī½": 1462,
      "Ġáĭ«áĪ³": 1463,
      "ĠáĭŃáĪĨáĬĵáĪįĠ": 1464,
      "áĮįáĬĵ": 1465,
      "ĠáīµáĬ¥": 1466,
      "ĠáĪĪáĭį": 1467,
      "áĪ¶áī½": 1468,
      "ĠáĮĪáįħ": 1469,
      "áĪĿĠáĪĭáĭŃ": 1470,
      "áĬĵáĬķáī°": 1471,
      "áĪľáĪªáĬ«": 1472,
      "Ġáīłáīµ": 1473,
      "áĪİáĪµ": 1474,
      "áĪ°áīł": 1475,
      "áĪħáĬĵ": 1476,
      "áĪĺáĪĪáĬ¨áī°": 1477,
      "Â»": 1478,
      "áĭ«áĭ«": 1479,
      "ĠáĪµáĪĭ": 1480,
      "ĠáįĬáīµ": 1481,
      "ĠáĬķáĮį": 1482,
      "áĭįáīĥ": 1483,
      "áĪįáį£": 1484,
      "áĬ«áī³": 1485,
      "áĪĪáī¥": 1486,
      "Ġáĭ¨áī³": 1487,
      "áĬĲáĮĪ": 1488,
      "ĠáĭŃáī½áĪĭáĪī": 1489,
      "Ġáī°áĮįáī£": 1490,
      "áĮ£áĪĿĠáĬł": 1491,
      "ĠáĬ¥áī£": 1492,
      "áĬĵáĮĪáĪŃ": 1493,
      "áĪĺáĪªáĭ«": 1494,
      "ĠáĬłáĬ«áī£áī¢": 1495,
      "áĪĪáĪħĠ": 1496,
      "áī°áĬĽáĭį": 1497,
      "áĪĺáĪ³áĪ³áĭŃ": 1498,
      "áĪ«áĪµ": 1499,
      "Ġáĭ¨áĪµ": 1500,
      "áĪ¨áĮĭáĮĪ": 1501,
      "áĭ°áĬĽ": 1502,
      "ĠáĭŃáĪĺáĪµ": 1503,
      "áĮĪáĭĽ": 1504,
      "ĠáīµáĪŃ": 1505,
      "er": 1506,
      "ĠáĪħáĭĿáī¥": 1507,
      "áĮĪáĬĺáĭį": 1508,
      "ĠáĪħáĮį": 1509,
      "ĠáĬ¥áĬķáīħ": 1510,
      "áĮĨáī½": 1511,
      "ĠáĪª": 1512,
      "áĪ°áī¡": 1513,
      "ĠáĪĺáī¥": 1514,
      "ĠáĪµáīµ": 1515,
      "áĪİáī½áĬķ": 1516,
      "ĠÂ«": 1517,
      "ĠáĪ°áĪĭ": 1518,
      "áīµĠáĬłáĭŃ": 1519,
      "ĠáīĢáĪĭáĪį": 1520,
      "áĪĿáĮĥ": 1521,
      "ĠáĪĽáĪħ": 1522,
      "áĬķáįĪ": 1523,
      "áīµáį£": 1524,
      "ĠáįĪáīĥ": 1525,
      "áįĨ": 1526,
      "áĬ«áĪį": 1527,
      "áī°áĬŀáī½": 1528,
      "ĠáĬ¥áĮħáĮį": 1529,
      "áĪĨáĬķáĪĿ": 1530,
      "áĬĹ": 1531,
      "ĠáĮįáĬķáĬĻ": 1532,
      "áĪĭáįĬ": 1533,
      "ĠáįįáĪĭáĮİ": 1534,
      "Ġáĭ¨áī°áĬĲáĪ³": 1535,
      "Ġáĭ°áĬķ": 1536,
      "áī¥áĭĻ": 1537,
      "áīĨáĮ£": 1538,
      "áĪĿĠáĪĨáĬĲ": 1539,
      "áĪĿáĭµ": 1540,
      "Ġáĭ¨áĪ°": 1541,
      "áĪĽáĬĿ": 1542,
      "ĠáĬ¨áĪĽ": 1543,
      "ĠáĪ®": 1544,
      "áīµáĭ®": 1545,
      "Ġáįĭ": 1546,
      "áīħáĭµ": 1547,
      "ĠáĪµáĪĪáĪļ": 1548,
      "ĠáĭŃáĪĨáĬĵáĪį": 1549,
      "áĪĮáĪĭ": 1550,
      "áĬĽáĭįáĬķ": 1551,
      "áĬĲáĮĭ": 1552,
      "áĮłáįĭ": 1553,
      "ĠáĮĮáī³": 1554,
      "áĪĭáĬ¨": 1555,
      "ĠáįįáīħáĪŃ": 1556,
      "áĪĬáĭ": 1557,
      "ĠáīłáīĢ": 1558,
      "ĠáĬłáīħ": 1559,
      "Ġáīłáĭ¨": 1560,
      "áĪ³áĬĶ": 1561,
      "áĪŀáĬŃ": 1562,
      "áĪ³áī¸áĭį": 1563,
      "áī¶áī¹": 1564,
      "Ġáĭ¨áīłáĪĪáĮł": 1565,
      "áĪģáĪĪ": 1566,
      "ĠáĬ¥áĬķáĭ°áĪļáĭ«": 1567,
      "áĪĪáĪĺ": 1568,
      "ĠáĮĪáĬķáĭĺáī¥": 1569,
      "ĠáĪĿáĬŃáĬķáĭ«áī±áĪĿ": 1570,
      "ĠáĪĺáĬķáĮįáĪµáīµ": 1571,
      "Ġáĭ¨áĪĿáĬķ": 1572,
      "áĮĪáĬĲ": 1573,
      "áī³áī½": 1574,
      "áĪįáįį": 1575,
      "áī³áĭŃ": 1576,
      "ĠáĬĸ": 1577,
      "ĠáĬłáĪµáĭ°": 1578,
      "áĪŃáĬŃ": 1579,
      "áĬ«áĪĿ": 1580,
      "Ġáī£áĪį": 1581,
      "Ġáĭ¨áĭį": 1582,
      "ĠáĮ¦": 1583,
      "áīµáĭ®áĮµ": 1584,
      "ĠáĬ¥áĬķáĮį": 1585,
      "ĠáīłáĮ¥": 1586,
      "áĭ«áĭĬ": 1587,
      "áīłáīĥ": 1588,
      "Ġáĭ¨áĬĲáīłáĪ¨": 1589,
      "ĠáĭĪáĬķáĭ¶áī½": 1590,
      "ĠáĬłáĭµ": 1591,
      "ĠáĪĺáĪĪ": 1592,
      "ĠáĭµáĪĿ": 1593,
      "ĠáĭŃáĪįáīħ": 1594,
      "ĠáĪĿáĬŃáĪŃ": 1595,
      "Ġáīĭ": 1596,
      "Ġáĭ³áĭĬ": 1597,
      "áĪĪáī½Ġ": 1598,
      "ĠáĪĺáĪ°áĪ¨áīµ": 1599,
      "ĠáĮĢáĪĿáĪ®": 1600,
      "áĪĨáĬķĠáĬł": 1601,
      "áĬķáĮįáĭµ": 1602,
      "ĠáĭįáĪĢ": 1603,
      "áĬ¨áįį": 1604,
      "áĬķáį£": 1605,
      "áĮłáĭŃ": 1606,
      "Ġáĭ¨áĭ«áĪħáĭĮ": 1607,
      "áĬķĠáīłáĪĽ": 1608,
      "áī£áĬķáĭ«": 1609,
      "ĠáīµáĬ©": 1610,
      "áįİáī½": 1611,
      "áĪ°áĮłáĭį": 1612,
      "áĪ°áĮ¡": 1613,
      "ĠáīłáĬ¥áĪŃáĮįáĮ¥": 1614,
      "ĠáĬłáĮĭ": 1615,
      "ĠáĪĺáĪŃ": 1616,
      "áĮłáīħ": 1617,
      "ĠáĭĿáĮį": 1618,
      "ĠáĬłáĪµáįĪáĪĭáĮĬ": 1619,
      "ĠáĮįáī¥": 1620,
      "áĪĽáīµ": 1621,
      "áĬķáĮĢ": 1622,
      "áīłáĪįáĮ¥": 1623,
      "áĪĿáį£": 1624,
      "áĬ¨áī¥": 1625,
      "áĬŀáī¹": 1626,
      "ĠáĪģáĪīáĬķáĪĿ": 1627,
      "áĪ«áĪįĠ": 1628,
      "áĪµáĪįáĮ£": 1629,
      "áĪ¨áĮ¥": 1630,
      "ĠáĪĿáĮįáī¥": 1631,
      "áįĪáĮ¥": 1632,
      "áĬ«áī£áī¢": 1633,
      "áīĢáīµ": 1634,
      "ĠáĪģáĪį": 1635,
      "Ġáĭįáĭµ": 1636,
      "áī£áĭŃ": 1637,
      "ĠáĪĢáĭŃáĪį": 1638,
      "áĭ·": 1639,
      "ĠáīħáĪŃ": 1640,
      "ĠáĪĭáĭŃĠáĭ¨áī°": 1641,
      "áĬĲáĪµ": 1642,
      "áĪŃáĬĲáīµ": 1643,
      "áĬķáĭ²": 1644,
      "áĬŃáī¥": 1645,
      "áĬķáĭµáĬķĠáĬĲáĭįĠ": 1646,
      "áĪµáīĥ": 1647,
      "áĭĪáĪŃ": 1648,
      "ĠáĭįáĪ³áĬĶ": 1649,
      "áĭįáĪį": 1650,
      "ĠáĭŃáĪħáĪĿ": 1651,
      "Ġáī£áĪĪáĭį": 1652,
      "áī¨": 1653,
      "ĠáĬ¥áĪŃáĮį": 1654,
      "ĠáīłáĬłáĬķáĭµ": 1655,
      "ĠáĬ¥áĬķáĭ³áĭŃ": 1656,
      "ĠáĬ¥áĬķáĭµáīµ": 1657,
      "áĬķĠáĪĪ": 1658,
      "ĠáīłáĪĨáĬĲ": 1659,
      "Ġáī´": 1660,
      "áĬĵáīĤ": 1661,
      "áĬķáĬ«": 1662,
      "ĠáĬ¥áĪŃáĪĿáĮĥ": 1663,
      "áĭĪáĭ°": 1664,
      "Ġáĭ¨áīł": 1665,
      "áĬķĠáīłáĪĺ": 1666,
      "áĬĵĠ": 1667,
      "áĭ¨áĭį": 1668,
      "Ġáĭ¨áī£": 1669,
      "ĠáĪĺáĪ°áĪ¨": 1670,
      "áĭ«áĭİáī½": 1671,
      "ĠáīłáĬ©áĪį": 1672,
      "áĭĺáĮĭáĮĢ": 1673,
      "in": 1674,
      "ĠáĬ¥áĬķáĭ°áĮĪáĬĵ": 1675,
      "áĪģáĬĳ": 1676,
      "ĠáĪĽáĪ³": 1677,
      "Ġáī½áĮįáĪŃ": 1678,
      "ĠáĪħáĭŃáĭĪáīµ": 1679,
      "ĠáĪ´áīµ": 1680,
      "áī³áĭİáī½": 1681,
      "ĠáĬłáĬķáīĢ": 1682,
      "ĠáĬ¥áīĥ": 1683,
      "áĭįáĪµ": 1684,
      "áĮłáĪį": 1685,
      "Ġáī½áĪİ": 1686,
      "áįĭáīµ": 1687,
      "ĠáĮ¥áīĤ": 1688,
      "áĪĬáĭ®": 1689,
      "áĬĵáī¸áĭį": 1690,
      "áĭŃáĬķ": 1691,
      "ĠáĬŃáĪŃáĪµáī²áĭ«": 1692,
      "áī»áĪį": 1693,
      "áĪµáī±": 1694,
      "áĪµáī³áĭĪ": 1695,
      "ĠáīłáĪĺáĪĨáĬĳáĪĿ": 1696,
      "áī½áĭį": 1697,
      "ĠáĭĿáĪŃáĭĿ": 1698,
      "ĠáĪ³áĪĿáĬķ": 1699,
      "áī¥áĪİ": 1700,
      "áī³áĭ°": 1701,
      "áī³áĪĽ": 1702,
      "ĠáĬ¥áĪŃáĪ±": 1703,
      "ĠáĭĻ": 1704,
      "ĠáĬłáĪģáĬķáĪĿ": 1705,
      "ĠáĬ«áĪį": 1706,
      "áĬķáīĭ": 1707,
      "áĬķĠáīłáī°": 1708,
      "áĮĪáĭ°": 1709,
      "ĠáĭĪáĮ£": 1710,
      "áī»áī½áĪģ": 1711,
      "eĠ": 1712,
      "áĪĺáĪĪáĪµ": 1713,
      "áįįáĮ¥": 1714,
      "áĭ¨áĪ©": 1715,
      "ĠáĮ³": 1716,
      "ĠáĭĪáĭ³": 1717,
      "áĮłáīłáīħ": 1718,
      "áĪº": 1719,
      "áĭįáĪİáĪµ": 1720,
      "áīħáĪ¨áī¥": 1721,
      "áĪµáĪ«áĬ¤": 1722,
      "ĠáĪĻáĪ´": 1723,
      "áĭ°áĪ°": 1724,
      "ĠáĪĢáĮ¢": 1725,
      "ĠáĬłáĭĭ": 1726,
      "áī·áĪį": 1727,
      "ĠáĮįáĬķáĬĻáĬĲáīµ": 1728,
      "áĭĺáĭį": 1729,
      "Ġáĭľ": 1730,
      "áĪĿĠáĪĺ": 1731,
      "áīłáĬĽ": 1732,
      "áĭ²áĪħ": 1733,
      "áĮłáīĥáĪĭáĭŃ": 1734,
      "ĠáĪĽáĪµáī°": 1735,
      "áĮĪáĬķ": 1736,
      "áĭ³áĬķ": 1737,
      "Ġáĭ©": 1738,
      "áĪĻáĪŃ": 1739,
      "ĠáĪĺáĬķáĮĪ": 1740,
      "ĠáĬ¨áī£áĭµ": 1741,
      "ĠáīµáĬŃáĬŃ": 1742,
      "áīĥáīµ": 1743,
      "ĠáĪµáĪŃáĬł": 1744,
      "áī¾": 1745,
      "ĠáĬ¥áĪĿáĬĲáīµ": 1746,
      "áī¸áĭįĠ": 1747,
      "ĠáīłáįĬ": 1748,
      "ĠáĭŃáĪĭáĪį": 1749,
      "ĠáĬ¥áĬķáĭ´áīµĠáĬĲáĭįĠ": 1750,
      "ĠáĪĢáĪĭáįĬ": 1751,
      "áĬŃáĪĿáĬĵ": 1752,
      "áĪ±áĬķ": 1753,
      "Ġáĭ°áĪµ": 1754,
      "áīłáīµáĬķ": 1755,
      "ĠáįħáĪģ": 1756,
      "ĠáīłáĪ°": 1757,
      "ĠáĪĽáĬ¥": 1758,
      "áĪµáīĥáĪ´": 1759,
      "áī½Ġ": 1760,
      "Ġáī°áĬĵáĮį": 1761,
      "Ġáĭ¨áī°áī£": 1762,
      "áĭĪáĪ°áĬĲ": 1763,
      "ĠáĭĪáīħáīµ": 1764,
      "áĭįáĭ«": 1765,
      "ĠáĪĭáĭŃĠáī°": 1766,
      "áĬ¨áī°áĪĽ": 1767,
      "ĠáĪĿáĬĵáĪį": 1768,
      "áĮłáĭį": 1769,
      "áĪ«áĪ«": 1770,
      "áĬĵĠáĬ¨": 1771,
      "áĬķĠáīłáĬł": 1772,
      "ĠáīģáĮ¥áĪŃ": 1773,
      "áīłáĪĭ": 1774,
      "ĠáĪĽáĪĪ": 1775,
      "áīĭáīĭ": 1776,
      "áī³áī¸áĭįáĬķ": 1777,
      "áĪĭáĪŃ": 1778,
      "áīº": 1779,
      "áĭ°áĮį": 1780,
      "áī½áĪĪáĭį": 1781,
      "ĠáĮįáĪį": 1782,
      "ĠáĬłáĪĭáī¸áĭį": 1783,
      "áĬĽáĪį": 1784,
      "Ġáī³áĪĭáīħ": 1785,
      "áĬªáĬĵ": 1786,
      "ĠáĪĿáĬŃáĬķáĭ«áīµ": 1787,
      "áĪ»áĪĪ": 1788,
      "ĠáĬ¥áĬķáĭ³áĪĪ": 1789,
      "áĭ£": 1790,
      "ĠáĪĨáĬĸáĪĿ": 1791,
      "ĠâĢĿ": 1792,
      "áĭ«áĭĿ": 1793,
      "áĪĺáĬĵ": 1794,
      "ĠáĬ©áī£áĬķáĭ«": 1795,
      "Ġáįİ": 1796,
      "Ġáĭ«áĭ°áĪŃáĮĭ": 1797,
      "ĠáīµáĬ¥áĭĽ": 1798,
      "Ġáī¡áĭµ": 1799,
      "áī³áī½áĪģ": 1800,
      "áĪ°áĪŃ": 1801,
      "áīµĠáĬłáĪµ": 1802,
      "ĠáĪĪáĪĽáĮįáĬĺáīµ": 1803,
      "áĪ¨áĬķ": 1804,
      "áĭ²áĭ®": 1805,
      "áīµáĭ®áĮµáĭ«": 1806,
      "ĠáĬłáĭ³": 1807,
      "ĠáīłáĬ¢": 1808,
      "áĭ³áĭ°áĪŃ": 1809,
      "áĭĽáīµ": 1810,
      "áĪĽáĪªáĭİáī½": 1811,
      "ĠáĮ¨áĭĭ": 1812,
      "ĠáĬłáĪŃ": 1813,
      "áī¸áĭĭáĪį": 1814,
      "áĭĭáĬ¥": 1815,
      "ĠáĭĺáĪĺáĬķ": 1816,
      "Ġáĭ¨áĬ¥áĪµáĪ«áĬ¤áĪį": 1817,
      "áīłáĪ¨áī³": 1818,
      "ĠáĪĽáĬķáĬĽáĭįáĪĿ": 1819,
      "ĠáĪĺáĪĺáĪªáĭ«": 1820,
      "áĬ¨áĪĭáĬ¨": 1821,
      "ĠáĬ¥áī£áĬŃ": 1822,
      "Ġáī³áĪªáĬŃ": 1823,
      "ĠáĪħáĭĿáī¡": 1824,
      "ĠáĬłáĬķáīĢáįħ": 1825,
      "áĪįáĪµ": 1826,
      "ĠáĪįáĬŃ": 1827,
      "áĪĺáĪĪáĬ¨": 1828,
      "ĠáĬłáĮĪáĪįáĮĭ": 1829,
      "áĭįáĬķĠáĭ¨": 1830,
      "ĠáĪĪáĪĿáĪ³áĪĮ": 1831,
      "ĠáĬłáĬ«áĪį": 1832,
      "ĠáĪĺáĪĨáĬķ": 1833,
      "áĭ¨áĪ©áĪ³áĪĮ": 1834,
      "Ġáī¥áĪı": 1835,
      "ĠáĪĻáĪīĠáīłáĪĻáĪī": 1836,
      "ĠáĬĲáĬĿ": 1837,
      "ĠáĪµáĮĭ": 1838,
      "áĪ½áĬķ": 1839,
      "ĠáĮ³áĭįáĪİáĪµ": 1840,
      "áīłáĭ«": 1841,
      "áĪĺáĭµ": 1842,
      "áīĢáįį": 1843,
      "ĠáĪĺáįħáĪĢáįį": 1844,
      "ĠáĬłáĭŃáĭ°áĪĪáĪĿ": 1845,
      "ĠáĮ«": 1846,
      "Ġáī°áĮĪ": 1847,
      "áī¥áĬĿ": 1848,
      "áį£ĠáĬ¨": 1849,
      "áīµáĪŃ": 1850,
      "áĪħáĭĿáī¥": 1851,
      "áĭįáĪ°": 1852,
      "Ġáĭ¨áĪħ": 1853,
      "áĭ°áĪ¨áĮĪáĭį": 1854,
      "ĠáĬ¥áĬķáīħáĪµáīĥáĪ´": 1855,
      "áīĥáĪļ": 1856,
      "ĠS": 1857,
      "áĪĿĠáĪĪ": 1858,
      "áĮ¥áī¥": 1859,
      "co": 1860,
      "ĠáĮįáĬķĠáĬł": 1861,
      "Ġáī¢áĪĨáĬķáĪĿ": 1862,
      "ĠáĮłáīĥáĪļ": 1863,
      "ĠáĪŃáĬ¥": 1864,
      "áĮłáĪ¨": 1865,
      "áĪ°áĪį": 1866,
      "áĪ³áī½": 1867,
      "áĬķĠáĭĪáĭ°": 1868,
      "áĭ³áĪŃ": 1869,
      "áĭŃáī³": 1870,
      "ĠáĪĭáĭŃĠáĭ¨áĪļ": 1871,
      "ĠáĬĽ": 1872,
      "ĠáīłáĮ£áĪĿĠáĬł": 1873,
      "áįĪáįħ": 1874,
      "ĠáĬłáĪĪáĪĿ": 1875,
      "áĮ§": 1876,
      "áī³áīµĠáīł": 1877,
      "ĠáĪĿáĪįáĬŃ": 1878,
      "ĠáĪĤáĭ°": 1879,
      "áĬ¡": 1880,
      "ĠáĪµáįįáĪ«": 1881,
      "Ġáī¥áĪĪáĭį": 1882,
      "ĠáīłáĪµ": 1883,
      "áĪħáĭŃáĭĪáīµ": 1884,
      "áĬ©Ġ": 1885,
      "áĭ°áĪŃáĪµ": 1886,
      "ĠáĮłáīħ": 1887,
      "áĭ°áī¥": 1888,
      "ĠáĭŃáĬ¸": 1889,
      "ĠáĪĭáĭŃĠáĭ¨": 1890,
      "Ġáĭ¨áī°áĪĪáĭ«áĭ©": 1891,
      "ĠáĪµáĪį": 1892,
      "ĠáĬĲáĭįáį£": 1893,
      "ĠáĬ¥áĭįáĬĲáīµ": 1894,
      "áįĪáįĥ": 1895,
      "áĪ¨áĮĭáĮį": 1896,
      "áĪĢáĪį": 1897,
      "ĠáĭĪáĮ¥": 1898,
      "Ġáĭ«áĪįáī°": 1899,
      "Ġáī°áĪĺáĪį": 1900,
      "áį¡Ġ": 1901,
      "áĪĿĠáīłáĬł": 1902,
      "ĠáĬ¥áĬĵĠáĪĪ": 1903,
      "áĬ¨áĪ°": 1904,
      "áĬķáĭ³áĬķáĭµ": 1905,
      "ĠáīłáĪĽáĪĪáīµ": 1906,
      "áĬķĠáīłáĬ¥": 1907,
      "áĪĭáī½áĬķ": 1908,
      "áĪ©Ġ": 1909,
      "áĪĪáĭ¨": 1910,
      "áĭĪáĮ¡": 1911,
      "áīħáĪŃáī¥": 1912,
      "ĠáĬ¥áĭ«áĬķáĭ³áĬķáĭ±": 1913,
      "áī¥áĪ¨áīµ": 1914,
      "ĠáĪĺáĬķáįĪáĪµ": 1915,
      "áĮ«áĭĪ": 1916,
      "ĠáĪµáī¥áĪ°áī£": 1917,
      "áĭµáīħ": 1918,
      "áĬķĠáĬłáĪµ": 1919,
      "áīŃ": 1920,
      "áĮħáĪĿ": 1921,
      "sĠ": 1922,
      "áĬ«áīµ": 1923,
      "Ġáī£áĪĪáĪµáĪįáĮ£": 1924,
      "áĬĲáīłáĪŃ": 1925,
      "ĠáĪĺáĮ£": 1926,
      "ĠáĬ¥áĪ·": 1927,
      "áī¦áī½áĬķ": 1928,
      "Ġáī½áĮį": 1929,
      "Ġáī¤áī±": 1930,
      "ĠáĮ¤": 1931,
      "ĠáĪĿáĪĭ": 1932,
      "ĠáīłáĭļáĪħĠáĮĬáĭľ": 1933,
      "Ġáĭ¶áĪĭáĪŃ": 1934,
      "ĠáīµáĬŃáĬŃáĪĪáĬĽ": 1935,
      "ĠáĬłáĪĪáĭįĠ": 1936,
      "ĠáĪĭáĭŃĠáĭŃ": 1937,
      "ĠáĬłáĮĪ": 1938,
      "áĬ¨áĬĵáĭĪ": 1939,
      "áĭŃáĪģáĭ³": 1940,
      "áĭįáīħ": 1941,
      "áĭİáīµ": 1942,
      "áĪ¨áĭ±": 1943,
      "ĠáĬ¥áĪŃáĪµ": 1944,
      "áĪĿĠáĭĪáĭ°": 1945,
      "Ġáĭ¨áĪµáĪ«": 1946,
      "ĠáĬłáĪĽáĬ«": 1947,
      "áį¦ĠâĢľ": 1948,
      "on": 1949,
      "áĬķáĬŃ": 1950,
      "ĠáĮĨ": 1951,
      "áĬŃáĪŃáĪµ": 1952,
      "ĠáĬ¥áĬķáī½áĪĭ": 1953,
      "áī³áĭĪ": 1954,
      "ĠáĭįáĮŃ": 1955,
      "ĠáĬ¥áĬĵĠáĬ¨": 1956,
      "áĪ°áĪ¨": 1957,
      "áįħáĬ¥": 1958,
      "áįħáĬ¥áĬĸ": 1959,
      "áīĢáīł": 1960,
      "ĠáīłáĪĺáĮ¨áĪ¨áĪ»": 1961,
      "ĠC": 1962,
      "ĠáĭµáĪĿáįħ": 1963,
      "áĮłáīĢáĪĻ": 1964,
      "ĠáĪĿáĭµ": 1965,
      "ĠáĭŃáĪģáĬķáĬĵ": 1966,
      "áĪģáĪīáĪĿ": 1967,
      "ĠáĮĪáĪį": 1968,
      "ĠáĪĿáĪŃáĮ¥": 1969,
      "áĬķáĬĽáĭįáĪĿ": 1970,
      "Ġáīµáī½áĪĭ": 1971,
      "Ġáĭ¨áĪĢ": 1972,
      "ĠáĮ¨áĪĿáĪ®": 1973,
      "ĠáīĭáĬķáīĭ": 1974,
      "áĪĦáĭ±": 1975,
      "ĠáĮįáĪįáįħ": 1976,
      "áĬĵáĭĬ": 1977,
      "ĠáīĢáĮ¥": 1978,
      "Ġáī³áĪĽáĬĿ": 1979,
      "áĬªáĭ«": 1980,
      "Ġáĭ¨áĮ¥": 1981,
      "áīµĠáīłáĬł": 1982,
      "áĪİáĮĤ": 1983,
      "áĪ¨áĭµ": 1984,
      "ĠáĮīáī£áĬ¤": 1985,
      "Ġáĭ¨áĪĨáĬĲáĭį": 1986,
      "áĮįáĬĿ": 1987,
      "ĠáĭĪáĪ°": 1988,
      "ĠáĪĿáĪŃáĮ«": 1989,
      "áĬķáĮī": 1990,
      "ĠáĪ´áī¶áī½": 1991,
      "ĠáĭĪáĪµ": 1992,
      "ĠáĪµáĪĪáĪĨáĬĲ": 1993,
      "áĪµáĪ«áīµ": 1994,
      "áĪŃáī£": 1995,
      "Ġáĭ¨áĪĺáįħáĪĢáįįĠáīħáĭ±áĪµ": 1996,
      "áĭ²áĭ«áĭį": 1997,
      "ĠáĬ¥áĪŃáĭ³": 1998,
      "Ġáī¥áĭ¬": 1999,
      "áĪŀáīµ": 2000,
      "âĢľ": 2001,
      "ĠáĬ¢áĬķ": 2002,
      "áĪ«áĪ±": 2003,
      "ĠáĭĪáĪĭ": 2004,
      "áįĪáĪ«": 2005,
      "áĪĪáĪĽ": 2006,
      "áĪĿáī³": 2007,
      "áĬĸáĪ¨áĭį": 2008,
      "ĠáĬłáĭ«": 2009,
      "áĪ®áĪµ": 2010,
      "áĮłáĭ¨": 2011,
      "áĪ¯áĪįĠ": 2012,
      "ĠáĬłáĭµáĪŃáĮİ": 2013,
      "áī¸áĭĭ": 2014,
      "áīĢáĭµáĪŀ": 2015,
      "áĪªáī±": 2016,
      "Ġáīª": 2017,
      "ĠáĪµáĪįáĮ£": 2018,
      "áĪļáĭİáī½": 2019,
      "ĠáĪĽáĮįáĬĺáīµ": 2020,
      "ĠáĬłáĪĪĠ": 2021,
      "ĠáįķáĪ®áĮįáĪ«": 2022,
      "áī°áĭĭáĪįĠ": 2023,
      "áĪįáĪĿ": 2024,
      "Ġáīłáĭ°": 2025,
      "Ġáĭ¨áĮĪ": 2026,
      "áĮ¡Ġ": 2027,
      "ĠáĬŃáįī": 2028,
      "áĬĽáĪįĠ": 2029,
      "ĠáĭĺáĪŃ": 2030,
      "áĪĿĠáīłáĬ¥": 2031,
      "ĠáĪĪáĪĽáĪµ": 2032,
      "áĬĲáįĥ": 2033,
      "ĠáīłáĮ£áĪĿĠáĮ¥áĪ©": 2034,
      "áĮĭáįį": 2035,
      "áī¥áĭĽ": 2036,
      "ĠáĪ«áĪµ": 2037,
      "ĠáĭŃáĪģáĬķĠáĬ¥áĬķáĮĤ": 2038,
      "ĠáĪĺáĪįáĬ¥": 2039,
      "áĮįáĬķ": 2040,
      "Ġáī¢áĪĨáĬķ": 2041,
      "Ġáĭ¨áĪļáĪį": 2042,
      "ĠáĬĲáīłáĪ©Ġ": 2043,
      "Ġáī¤áī¶áī½": 2044,
      "áīħáĪŃáī¡": 2045,
      "ĠáĬ¥áĬĲáĭļáĪħáĬķ": 2046,
      "áĪĭáīĢ": 2047,
      "ĠáĬ¥áĬķáĭµáĬķ": 2048,
      "ar": 2049,
      "ĠáĪĺáīħ": 2050,
      "ĠáĪ°áĬłáīµ": 2051,
      "áĬĵáĮĪáĪ©": 2052,
      "áĪĢáĪįĠ": 2053,
      "Âł": 2054,
      "ĠáĭŃáīłáĪįáĮ¥": 2055,
      "ĠáĪĿáĬķĠáĭ«áĪħáĪį": 2056,
      "ĠáĭĻáĪªáĭ«": 2057,
      "ĠáĪ°áĬł": 2058,
      "ĠáĪĺáĪįáĬ«áĪĿ": 2059,
      "ĠáĬłáī¥áĭĽ": 2060,
      "ĠáĪ³áĭŃáĪĨáĬķ": 2061,
      "ĠáĬĲáĮĪáĪ®áī½áĬķ": 2062,
      "ĠáĪĪáĭįáĮ¥": 2063,
      "áĪįĠáĭ¨": 2064,
      "ĠáĬłáĬķáĭµĠáĪ°áĭį": 2065,
      "âĢĻ": 2066,
      "áĮİáī½": 2067,
      "áĭĿáĬĵ": 2068,
      "ĠáĬ¥áĬĲáĪĨ": 2069,
      "áĬ¥áĪ«": 2070,
      "Ġáī³áĭ²áĭ«": 2071,
      "ĠáĬ¢áĭ®": 2072,
      "ĠáĪĺáĮłáĬķ": 2073,
      "ĠáīłáĪĺáĮĢáĪĺáĪªáĭ«": 2074,
      "áįĬáĭ«": 2075,
      "Ġáĭ³áĪŃ": 2076,
      "ĠáĪĢáī¥": 2077,
      "ĠáĪµáĪŃáĬłáīµ": 2078,
      "Ġáī¥áĪĦ": 2079,
      "ĠáīłáĪį": 2080,
      "or": 2081,
      "ĠáĬłáĮĪáĪŃ": 2082,
      "áĭŃáĬĵ": 2083,
      "ĠáĪ°áĮ¥": 2084,
      "áīĢáĪŃáī¥": 2085,
      "ĠáĪ°áĪŃ": 2086,
      "áĭµáĪŃáĮī": 2087,
      "ĠáĬłáĮĪáĪįáĮįáĪİáīµ": 2088,
      "áĪĿáĪ«": 2089,
      "áĭ°áĪ«": 2090,
      "áīĢáĪĿ": 2091,
      "Ġáīłáī°áĪĪáĭŃ": 2092,
      "ĠáĭĪáĪ¨": 2093,
      "ĠáĬ¥áĬķáĭ³áĪį": 2094,
      "ĠáĪĨáĬĲáĭį": 2095,
      "ĠáĬ¥áĭįáĬĲáī°áĬĽ": 2096,
      "ĠáĬ¥áĪŃáĭ³áī³": 2097,
      "ĠáĭŃáĪ°áĮ£": 2098,
      "ĠáĪĿáĪµáĪ«": 2099,
      "áĭĺáĪĭ": 2100,
      "Ġáĭ®áĪĢ": 2101,
      "ĠáĮ¥áīłáī¥": 2102,
      "ĠáĭŃáĮĪáī£": 2103,
      "áĪħáĪŃ": 2104,
      "áĪĭáĭįáĭ«áĬķ": 2105,
      "ĠáĬłáĭŃáĭ°áĪĪáĪĿĠ": 2106,
      "ĠáĪ±": 2107,
      "an": 2108,
      "áĭ¢": 2109,
      "áīĢáĭ°": 2110,
      "áĪ³áĪį": 2111,
      "áĭ°áĮĪ": 2112,
      "áĮłáĬĽ": 2113,
      "ĠáĪĽáĬķáĪĿ": 2114,
      "áįı": 2115,
      "áĬ¨áĪį": 2116,
      "ĠáĬ¥áĭµáĪľ": 2117,
      "áĮĭáĪª": 2118,
      "áĪµáĪŃ": 2119,
      "ĠáĪ¶áĪµáīµ": 2120,
      "Ġáīłáī°áĮ¨áĪĽáĪªáĪĿ": 2121,
      "ĠáĪĺáī£": 2122,
      "Ġáī¦áī³áĭİáī½": 2123,
      "áīĢáīłáĪį": 2124,
      "áĬ¨áī£": 2125,
      "áįĪáĪĪáĮī": 2126,
      "ĠáĭµáĬķáĮĭ": 2127,
      "áī¿": 2128,
      "áĪĭáī½áĪģĠ": 2129,
      "ĠáīĢáĭ°áĪĿ": 2130,
      "ĠáĪ©": 2131,
      "áĪįáīģ": 2132,
      "áīµĠáĬłáĪį": 2133,
      "áĪµáī°áĪŃ": 2134,
      "áĬķĠáĬ¥": 2135,
      "áĪĬáĭ«": 2136,
      "áĭĪáĭµ": 2137,
      "ĠâĢĺ": 2138,
      "ĠáĬŃáĪŃáĪµáī¶áĪµ": 2139,
      "áįĶ": 2140,
      "áĪĺáĮ¡": 2141,
      "áĬ¨áįĭ": 2142,
      "ĠáįĸáĪĬ": 2143,
      "áĮįáĪĮ": 2144,
      "ĠáīłáĬ¥áĭį": 2145,
      "ĠáĪģáĪįáĮĬáĭľ": 2146,
      "áĪµáĬĵ": 2147,
      "áĪĪáĪį": 2148,
      "áĬķáĬ«áĪ«": 2149,
      "ĠáĬ¥áĪµáĪ«áĬ¤": 2150,
      "áī£áĪŃ": 2151,
      "áī«": 2152,
      "áī»áī¸áĭįáĬķ": 2153,
      "áīĢáĪ¨áīł": 2154,
      "áīµĠáĬłáĪĪ": 2155,
      "Ġáĭ¨áĪĺáĮ¨áĪ¨áĪ»": 2156,
      "ĠáĪĪáĭļáĪħ": 2157,
      "Ġáĭ«áĬķ": 2158,
      "áĬ®áī½": 2159,
      "ĠáĬ¥áĪŃáĪµáĭİ": 2160,
      "áĪħáī°": 2161,
      "áĪĿáĪ©": 2162,
      "Ġáĭ¨áĪĮ": 2163,
      "áĪĽáĭĬ": 2164,
      "ĠáĪ°áĭŃ": 2165,
      "áĪĺáĪ°áĪ¨": 2166,
      "ĠáĭŃáĪ°áĪĽ": 2167,
      "áĬķáīħ": 2168,
      "áĪĽáĬĸ": 2169,
      "ĠáĪ»": 2170,
      "ĠáĭĿáĪŃáĭĿáĪŃ": 2171,
      "áīłáīħ": 2172,
      "Ġáī½áĪİáī³": 2173,
      "ĠáĮīáĭŀ": 2174,
      "Ġáī£áĪĪáĪĻ": 2175,
      "áĮ®áī½": 2176,
      "ĠáĪº": 2177,
      "áĪħáĬķáĬĲáīµ": 2178,
      "ĠáĪĿáĬĵáĪįáī£áīµ": 2179,
      "áĪħáĪĿ": 2180,
      "áĮłáī£": 2181,
      "áĭ°áĪŃáĮĪáĭį": 2182,
      "áĪĺáīµ": 2183,
      "Ġáī°áĭĪ": 2184,
      "áĪ³áī°": 2185,
      "ĠáĪĺáĮ¥áįİ": 2186,
      "ĠáĪļáĬĴ": 2187,
      "ĠáĬ¥áĬĲáĭļáĭ«": 2188,
      "áĭĺáĪĭáĪĪáĪĿ": 2189,
      "ĠáĭĪáĬķáĭµáĪŀáī½": 2190,
      "Ġáĭ¨áĪ°áĭį": 2191,
      "áī¥áĪŃáĪĢ": 2192,
      "Ġáī°áĪĺáĪ³áĪ³áĭŃ": 2193,
      "ĠA": 2194,
      "áĭįĠáĪĺ": 2195,
      "ĠáĬ¥áĬķáĪµ": 2196,
      "ĠáĪĭáĭŃĠáīł": 2197,
      "ĠáĮīáĭ³áĭ®áī½": 2198,
      "ĠáĭĿáĮįáĮħ": 2199,
      "áĬĸáĪ¨": 2200,
      "áĪĿĠáĭ¨áĪļ": 2201,
      "ĠáįįáĪŃáĭµ": 2202,
      "Ġáĭ°áĪµáī³": 2203,
      "áĪĦáĭ³": 2204,
      "áĪĨáĬķĠáīł": 2205,
      "ĠáĬŃáĪŃáĪµáī²áĭ«áĬĸáī½": 2206,
      "ĠáĪĪáĪĿáĬķáĭµáĬķĠáĬĲáĭįĠ": 2207,
      "áĮįáĪĪáĮ«": 2208,
      "ĠáĪģáĬĶáī³áĭİáī½": 2209,
      "ĠáĭµáĪŃáĮĬ": 2210,
      "ĠáīłáĪļáĭ«": 2211,
      "ĠáīµáĪŃáĮī": 2212,
      "áįĪáĪ¨": 2213,
      "ĠáĭµáĮĭáįį": 2214,
      "áĪ°áĪĽáĭŃ": 2215,
      "ĠáĪĿáĪĭáĪ½": 2216,
      "áį£Ċ": 2217,
      "Ġáĭĺáĭ´": 2218,
      "áĬķáĭĿ": 2219,
      "áĮ¥áĪ¨": 2220,
      "áīĨáī¥": 2221,
      "áĮįáī£áĪŃ": 2222,
      "ĠáĬłáĪĭáĪĽ": 2223,
      "Ġáĭ¨áįį": 2224,
      "áĬĵáĮĪáĪ¨áĭį": 2225,
      "áī°áĭĭáĪį": 2226,
      "áĬķĠáĬ¥áĬķáĭ°": 2227,
      "ĠáĪĺáĬķáįĪáĪ³áĭĬ": 2228,
      "áĭ«áĬķáĭ³áĬķáĭ±": 2229,
      "Ġáĭ¨áĪĨáĬĲáĭįáĬķ": 2230,
      "áĮĪáĪ¨": 2231,
      "ĠáĭŃáĭĺ": 2232,
      "ĠáĬłáįį": 2233,
      "Ġáĭ¨áĪĺáĬķáĮį": 2234,
      "áĬŃáĬŃáĪį": 2235,
      "ĠáĪĭáĭŃĠáĪĺ": 2236,
      "áĮįáĭ³": 2237,
      "áĭ°áĪŃáĮĪ": 2238,
      "ĠáĪĪáĪĿáĬķ": 2239,
      "áĬ¥áīĨáī¥": 2240,
      "ĠáĮĭáĪŃĠáīłáī°": 2241,
      "ĠáĪĺáĭĽ": 2242,
      "ĠáĬ¨áĬ¥áĪ±": 2243,
      "Ġáĭ¨áī°áĪ»áĪĪ": 2244,
      "áįģáĪħ": 2245,
      "áĪĪáī²": 2246,
      "ĠáĭĪáī³áĭ°": 2247,
      "áīµĠáīłáī°": 2248,
      "ĠáĮĪáī¥": 2249,
      "Ġáī°áī¥áĪİ": 2250,
      "áĪ¬áĭį": 2251,
      "ĠáĬ¬": 2252,
      "áĭ«áĭ«áĭĺ": 2253,
      "Ġáĭ¨áĪį": 2254,
      "Ġáĭ¨áĪļáĬ¨áī°": 2255,
      "Ġáī¥áĪĪ": 2256,
      "ĠáĭĪáĭŃáĪĿĠáĬł": 2257,
      "ĠáĮ¤áĬĵ": 2258,
      "áĮĭáĮ¥": 2259,
      "ĠáīĢáĬĵáīµ": 2260,
      "Ġáī»": 2261,
      "áīłáĪ«áĭĬ": 2262,
      "ĠáĪĺáĮĢáĪĺáĪªáĭ«": 2263,
      "ĠáĪĿáĬķáĪĿĠáĬ¥áĬķáĬ³": 2264,
      "áĪ¨áĮĭáĮĪáĮ¥": 2265,
      "ĠáĪµáĬķ": 2266,
      "áĪ®áĬķ": 2267,
      "Ġáī¶": 2268,
      "áĬ¥áĪĿáĪ®": 2269,
      "áĭĺáĪŃ": 2270,
      "ĠáīłáĪŃáĬ«áī³": 2271,
      "ĠáĭŃáĬĸáĪŃ": 2272,
      "ĠáīłáĪ¨": 2273,
      "ĠáĬŃáĪį": 2274,
      "áīµĠáīłáĪĽ": 2275,
      "en": 2276,
      "ĠáĪĽáĪµáī³áĭĪ": 2277,
      "ĠáĮ¥áĪ¨áīµ": 2278,
      "âĢĿĊ": 2279,
      "Ġáī²": 2280,
      "ĠáīłáĪµáī°": 2281,
      "áĪĽáĮįáĪĮ": 2282,
      "ĠáĪĿáĪµáĬŃ": 2283,
      "ĠáĮĵáĭ°áĬĽ": 2284,
      "ĠáĪµáĮ¦": 2285,
      "áĪįĠáĬ¥áĬĵ": 2286,
      "áĪĺáĪįáĬ¨áī±": 2287,
      "ĠáĮ¥áīĤáīµ": 2288,
      "ĠáīģáĮ¥": 2289,
      "áĮ¥áįį": 2290,
      "áįįáĮłáĪŃ": 2291,
      "áĮ¦áĪŃ": 2292,
      "áī°áĬĵ": 2293,
      "áĭįáĪ°áĭµ": 2294,
      "ĠáĭįáĪµáĮ¥Ġáĭ¨áĪļ": 2295,
      "áĪ°áī¦áī½": 2296,
      "áĮĪáĪĪáĮį": 2297,
      "Ġáī¥áĭĻĠáĮĬáĭľ": 2298,
      "Ġáĭ¨áĬ¥áĬĶ": 2299,
      "ĠáĪ°áĪĽ": 2300,
      "ĠáįĪáįħ": 2301,
      "Ġáĭ¨áīĢ": 2302,
      "ĠáĬ¥áĪµáĬ«": 2303,
      "ĠáīĢáĪŃ": 2304,
      "Ġáĭ¨áĬ¤": 2305,
      "ĠáĭĪáĭ²áĭ«áĭį": 2306,
      "áĭµáĪĢ": 2307,
      "áĪµáī²": 2308,
      "ĠáĭĪáĮª": 2309,
      "áĭĪáĪĪ": 2310,
      "ĠáĬłáĭĭáĮħ": 2311,
      "ĠáīłĠ": 2312,
      "st": 2313,
      "ĠáĪĺáī°": 2314,
      "áĬ¨áĪĪ": 2315,
      "ĠáĬłáĪĺáī³áīµ": 2316,
      "áĪµáĮłáīµ": 2317,
      "Ġáī£áĪªáĭ«": 2318,
      "áīłáīµĠáĬł": 2319,
      "ĠáĪĺáĪįáĪµ": 2320,
      "áĪĿáįĴ": 2321,
      "áįĸáĪŃ": 2322,
      "ĠáĬłáĪĺáĪĪ": 2323,
      "ĠáĮłáĬķáĬ«áĪ«": 2324,
      "áĬĵáĮĪáĪ¨": 2325,
      "ĠáĪī": 2326,
      "ĠáĪĽáĪŃ": 2327,
      "áĭįĠ": 2328,
      "ĠáĬ¤ĠáĬł": 2329,
      "Ġáī¤áī°áĪ°áī¥": 2330,
      "com": 2331,
      "ĠáĬłáĪµáī°áĭ«": 2332,
      "áĪ³áī½áĬķ": 2333,
      "áĮ£áĬķ": 2334,
      "ĠáĮ£áī¢áĭ«": 2335,
      "áĭįáĮ£": 2336,
      "ĠáĬ¥áĭļáĭ«": 2337,
      "ĠáīµáĬ¥áĭĽáĭĿ": 2338,
      "áĪĭáĬķáĭµ": 2339,
      "áĬĲáįį": 2340,
      "ĠáĪĽáĬķáĬĽáĭįáĬķ": 2341,
      "áī¡áī¥": 2342,
      "ĠáįĪáīĥáĭµ": 2343,
      "Ġáī´áĬŃ": 2344,
      "Ġáīłáįį": 2345,
      "áĬ¨áĪ¨": 2346,
      "áĪĿáĪĭáĬ«": 2347,
      "áĪ«áĮŃ": 2348,
      "áįĲ": 2349,
      "áĭ²áĪ±": 2350,
      "áĪ³áī¥": 2351,
      "al": 2352,
      "ĠáīłáĪĺáī¶": 2353,
      "áĮĭáĪ«": 2354,
      "áĪįáĪħ": 2355,
      "áĮ©": 2356,
      "áīĤáīĥ": 2357,
      "áĬ¨áī³áī°": 2358,
      "áī¤áī±": 2359,
      "ĠáĬķáĮīáĪ±": 2360,
      "áĪµĠ": 2361,
      "ĠáĭĪáĭŃáĪĿĠáĭ¨": 2362,
      "ĠáĭįáĪµáĮ¥Ġáĭ¨": 2363,
      "ĠáīµáĪĿáĪħáĪŃ": 2364,
      "ĠáĬ¥ĠáĬ¤ĠáĬł": 2365,
      "áĭ°áĪ¨áĪ°": 2366,
      "áĬŀáī½áĬķ": 2367,
      "ĠáĮ¥áĭ«áīĦáĭİáī½": 2368,
      "áĬĲáĮį": 2369,
      "ĠáĮĪáĭ°": 2370,
      "áĮłáĬĿáĬĲáīµ": 2371,
      "áĭĪáĮ¥": 2372,
      "áĪģáĪĪáīµ": 2373,
      "ĠáĪĺáĪ¬": 2374,
      "áĬĵĠáĪĪ": 2375,
      "Ġáī°áīĭ": 2376,
      "Ġáī£áĪī": 2377,
      "áĬķĠáĭ¨áĪļáĭ«": 2378,
      "áīµáĪµ": 2379,
      "ĠáĬ¥áĪħ": 2380,
      "Ġáī°áįħáĬ¥áĬĸ": 2381,
      "Ġáĭ«áĪīáīµ": 2382,
      "áĬ©áīµ": 2383,
      "ĠáĪĺáī³": 2384,
      "áĮ¤áĬĵ": 2385,
      "áĬĲáīł": 2386,
      "áĪŀáĪĭ": 2387,
      "ĠáĬłáĪĪáīłáīµ": 2388,
      "áĪ°áĪĭ": 2389,
      "áĭ«áĬķáĪµ": 2390,
      "Ġáī¥áīµ": 2391,
      "ĠáĮĵáĭ°": 2392,
      "áĪĪáī²áĬ«": 2393,
      "ĠáĪįáĪĿáĭµ": 2394,
      "ĠáĬ¥áĬķáĭ²áĭ«áĭį": 2395,
      "Ġáĭ¨áĪĿáĬĵ": 2396,
      "ĠáĬŃáįįáĪİáī½": 2397,
      "ĠáĪĺáĪµáĭĭáĬ¥": 2398,
      "áĬ®áĬĸ": 2399,
      "ĠáĪ¨áĮĪáĭµ": 2400,
      "áĬķáĭĽ": 2401,
      "áĪĿáĮ£": 2402,
      "áĪĽáī¸áĭį": 2403,
      "ĠáĬŃáī¥áĪŃ": 2404,
      "ĠáĮĭáĪŃĠáĭ¨áī°": 2405,
      "ĠáįĴ": 2406,
      "ĠáĬłáĪĺáĪĪáĬ«áĬ¨": 2407,
      "áĭİáī½Ġáīł": 2408,
      "ĠáĬ¥áĪµáĬª": 2409,
      "áĮĪáĬĵáĬĺ": 2410,
      "´áĮ¥": 2411,
      "áĭĭáīĤ": 2412,
      "ĠáĬłáĪµáĭ°áĬĵáīĤ": 2413,
      "ĠáĪĽáī´": 2414,
      "Ġáĭ´": 2415,
      "áįħáĪģ": 2416,
      "ĠáĬłáĭİ": 2417,
      "ĠáĪµáĪħáī°": 2418,
      "ĠáĪļáĪĬáĭ®": 2419,
      "áĮłáĪĭ": 2420,
      "áįĪáīĥ": 2421,
      "ĠáĭĪáĬķáĭ¶áī½ĠáĪįáĮĨáī½": 2422,
      "ĠáĪĢáĮ¢áĬł": 2423,
      "Ġáĭ°áĮįáĪŀáĪĿ": 2424,
      "áĪµáĪĺáĪŃ": 2425,
      "áĮłáīłáīĢ": 2426,
      "áĪµáīµáĬĵ": 2427,
      "Ġáĭ¨áĪĿáī³": 2428,
      "ĠáįķáĪ¬": 2429,
      "ĠáĬ¥áĭµáĮĪ": 2430,
      "áīĨáī½": 2431,
      "áįķáĪ®": 2432,
      "ĠáĬ¥áĭµáĪį": 2433,
      "áįħáĬĵ": 2434,
      "ĠáĪģáĪĪáī±": 2435,
      "áī£áĪĪ": 2436,
      "ĠáĬ¥áĬķáī½áĪĭáĪĪáĬķĠ": 2437,
      "áĪµáĬŃ": 2438,
      "ĠáĬ¥áĪ±áĪĿ": 2439,
      "ĠáĬĲáįį": 2440,
      "ĠáĬŃáįįáĭ«": 2441,
      "ĠáĬłáĪįáī°": 2442,
      "áįĪáĪĪáĮį": 2443,
      "ĠáĬ¨áī°áĪŀáī½": 2444,
      "Ġáĭ«áĪīáīµáĬķ": 2445,
      "áĭĺáĮĭáĮħ": 2446,
      "áī¹áĬķ": 2447,
      "áĬĲáī¶áī½": 2448,
      "áįĪáĪįáĮĪ": 2449,
      "áĪĺáĪ°áĮįáĬĵ": 2450,
      "ĠM": 2451,
      "áĬĸáĪµ": 2452,
      "ĠáĪµáĪĪáī°": 2453,
      "ĠáĮįáĪĪ": 2454,
      "áīµĠáĭ¨áī°": 2455,
      "áĭįáĪ®": 2456,
      "Ġáīłáī³áī½": 2457,
      "áĭī": 2458,
      "Ġáĭ¨áĮį": 2459,
      "Ġáĭ«áĭµáĪŃáĮī": 2460,
      "áĪ´áįį": 2461,
      "ĠáĭĿáīħ": 2462,
      "ĠáĬłáĪįáĬĲáīłáĪ¨": 2463,
      "áĮĢáĪĺáĪŃ": 2464,
      "áĮĪáĬĲáĭĺ": 2465,
      "Ġáī°áĮł": 2466,
      "áīĨáĮłáĪ©": 2467,
      "at": 2468,
      "áĪµáīµĠáĬł": 2469,
      "Ġáĭ°áīĤáīĥ": 2470,
      "áĪĿĠáĬ¥áĬĵ": 2471,
      "ĠáĬ¥áĬķáĭ²áĪĨáĬķ": 2472,
      "áĪĨáĬĲáĭį": 2473,
      "Ġáĭ¨áĬ¥áĬĽ": 2474,
      "Ġáĭ¨áĬĲáīłáĪ©": 2475,
      "ĠáĮ¦áĪŃáĬĲáīµ": 2476,
      "áĭ«áĪį": 2477,
      "ĠáĪ«áĪ±": 2478,
      "Ġáįİáī¶": 2479,
      "ĠáĬĲáĭįĠáĬ¥áĬĵ": 2480,
      "ĠáĪ½áĪĽáĮįáĪĮ": 2481,
      "ĠáĮįáĪ«": 2482,
      "ĠáĪįáĮģ": 2483,
      "áĪĺáĭĿ": 2484,
      "áīĢáĪµ": 2485,
      "ĠáĬ¥áĬķáĭ²áĪģáĪĿĠáīł": 2486,
      "áīĢĠáĪĺáĭĽ": 2487,
      "áĭĺáĬķ": 2488,
      "ĠáĭįáĪµáĮ¥Ġáīł": 2489,
      "áī»áĪĪáĪģ": 2490,
      "áĮįáī¥áįħ": 2491,
      "ĠáĬ®áĪļ": 2492,
      "Ġáĭİ": 2493,
      "áĪħáĭĿáī¡": 2494,
      "áī¨áĪŃ": 2495,
      "ĠáĭĪáĮĪ": 2496,
      "ĠáĬ¥áĬķáĭ°áĪĽáĭŃ": 2497,
      "ĠáĪĿáĬŃáĬķáĭ«áī±": 2498,
      "ĠáĪĺáĪĨáĬĵ": 2499,
      "ĠáĪĦáĭ°": 2500,
      "Ġáĭ¨áĬ«": 2501,
      "ĠáĬłáīł": 2502,
      "áĪģáĬĳĠáĮĬáĭľ": 2503,
      "áĪ«áĪ²": 2504,
      "ĠáĬ¥áĪŃáĮįáĮłáĬĽ": 2505,
      "áĮ¥áĬķ": 2506,
      "ww": 2507,
      "áĪįáĬķ": 2508,
      "ĠáĭŃáīħáĪŃ": 2509,
      "áī¾áī½": 2510,
      "Ġáī£áĭŃ": 2511,
      "áĮįáĪįáįħ": 2512,
      "Ġáī¡áĭµáĬķ": 2513,
      "áĮīáī£áĬ¤": 2514,
      "áįįáĮ¥áĬĲáīµ": 2515,
      "áĪµáīµáĪª": 2516,
      "ĠáĮ´áĮ¥": 2517,
      "áįĪáįĢáĪĿ": 2518,
      "ĠáĪĭáĭŃĠáĭ«": 2519,
      "áįĸáĪŃáīµ": 2520,
      "áįĥáĪħ": 2521,
      "ĠáĪĺáĪĭ": 2522,
      "áĭµáĪĢáĬĴ": 2523,
      "ĠáĪµáĪľáīµ": 2524,
      "áī¦áīµ": 2525,
      "ĠâĢľáĭ¨": 2526,
      "ĠáĪĿáĪ½": 2527,
      "áĪµáī´": 2528,
      "Ġáī¢áĭ«áĬķáĪµ": 2529,
      "ĠáĬ¥áīħáĭµ": 2530,
      "áī°áĬķ": 2531,
      "áĬĸáĪªáĭ«": 2532,
      "ĠáĪħáĭĿáī¦áī½": 2533,
      "áĭĬáīµ": 2534,
      "áīĢáĪŃáī¡": 2535,
      "ĠáĬłáĪµáĭ°áĪ³áī½": 2536,
      "ĠáīłáĪĮáĪĭ": 2537,
      "áĪ©áīµ": 2538,
      "áĭİáī½ĠáĬ¥áĬĵ": 2539,
      "Ġáī¥áĪĭ": 2540,
      "áĪĿáĪħáĪŃáīµ": 2541,
      "áī¤áī°áĪ°áī¥": 2542,
      "áĪ«áīħ": 2543,
      "Ġáĭ¨áĪĪ": 2544,
      "ĠáĪĿáĪµáĬŃáĪ®áī½": 2545,
      "ĠáīłáĮį": 2546,
      "ĠáĮĢáĪĺáĪŃ": 2547,
      "áĪĿáĪµ": 2548,
      "áĪĺáī±": 2549,
      "áī£áĭĬ": 2550,
      "áį£ĠáĪĪ": 2551,
      "ĠáĬłáĪīĠ": 2552,
      "áī¶áī»áī¸áĭį": 2553,
      "ĠáīĢáĬĵ": 2554,
      "áīµĠáīłáĮ£áĪĿ": 2555,
      "ĠáĬ«áĪĪ": 2556,
      "Ġáī£áĪħáĪŃ": 2557,
      "Ġáī¥áĪŃáĪĢ": 2558,
      "áĬĲáīłáĪ¨áĭį": 2559,
      "ĠáĭĪáĪĪ": 2560,
      "ĠáĪ°áĪ«áī°áĬŀáī½": 2561,
      "Ġáįįáįģ": 2562,
      "ĠáĭŃáīĢ": 2563,
      "áĪ³áī¸áĭįáĬķ": 2564,
      "Ġáĭ°áī¥": 2565,
      "ĠáįįáĪ¬": 2566,
      "ĠáĬłáĭ°áĮĭ": 2567,
      "áĬĸáĪ«": 2568,
      "ĠáĪĺáĪµáĮł": 2569,
      "áĮĭáĪļ": 2570,
      "ĠáĬĲáĮĪáĪŃĠáĮįáĬķĠáīł": 2571,
      "ĠáĬ¥áĪµáĪ«áĬ¤áĪį": 2572,
      "áīµĠáīłáĬĭáĪĭ": 2573,
      "áĪĪáįį": 2574,
      "áīµĠáīłáĬ¥": 2575,
      "áĭ°áĪį": 2576,
      "ĠáīµáĬ©áĪ¨áīµ": 2577,
      "áĪ½áī³": 2578,
      "áĪĺáĭĺ": 2579,
      "áĬķáĭ´": 2580,
      "áĪĿĠáĬłáīĢáįį": 2581,
      "áĭŁ": 2582,
      "Ġáĭ³áĭĬáīµ": 2583,
      "áĪµáįĪáĪĭáĮĬ": 2584,
      "Ġáĭ¨áĬłáĭ¨áĪŃ": 2585,
      "ĠáĬ¥áĪ¨": 2586,
      "áĪĿĠáīłáī°": 2587,
      "ĠáĬ¤áĪµ": 2588,
      "Ġáī£áĪĪáįĪáĭį": 2589,
      "ĠáĬ¤áĪį": 2590,
      "áĭĭáĬĵ": 2591,
      "ĠáĬłáĪĪáĪĺ": 2592,
      "áĬ¨áī°áĪį": 2593,
      "áįķáĪĭ": 2594,
      "áĮĪáĪĪáįĢ": 2595,
      "ĠáĪĢáĪĭáįĬáĬĲáīµ": 2596,
      "áĭŃáĪį": 2597,
      "áĪ³áī½áĪģ": 2598,
      "Ġáĭ¨áĬķáĮįáĭµ": 2599,
      "áīĥáĪį": 2600,
      "áĪĿĠâĢľ": 2601,
      "ĠáĭŃáĪ¨áĭ³": 2602,
      "áīµĠáīłáĪļ": 2603,
      "ĠáĮĭáĪŃĠáī°": 2604,
      "áĮĮáī³": 2605,
      "áĪĿáĮĪ": 2606,
      "áĬĸáĪİáĮĤ": 2607,
      "ĠáĪħáįĥ": 2608,
      "áĪĺáĪĪáĬ¨áīµ": 2609,
      "ĠáĬķáįģáĪħ": 2610,
      "ĠáĪĺáĮ¨áĪ¨áĪ»": 2611,
      "áĪĿáĪ¨": 2612,
      "áĬķĠáīłáĪļ": 2613,
      "áįĪáĮ¥áĪ®": 2614,
      "ĠáĬłáĪĽáĬ«áĬĿáĬĲáīµ": 2615,
      "ĠáĬłáĮįáĬĿ": 2616,
      "ĠáĪĺáĭ°": 2617,
      "áĬķáĮĨ": 2618,
      "ĠáĪĺáĮį": 2619,
      "ĠáĪĽáĭĪáīħ": 2620,
      "Ġáĭ¨áĭļáĪħ": 2621,
      "áīĢáīħ": 2622,
      "áĭĪáĮĪáĭµ": 2623,
      "áĭĺáĭĿ": 2624,
      "Ġáī£áĪĪáī¤": 2625,
      "ĠáĭµáĬķáĬ³": 2626,
      "áĪĺáĪĪáĬ¨áī±": 2627,
      "áĮŃáĪŃ": 2628,
      "áĪĪáĬĽáĭį": 2629,
      "ĠáĮĪáĬĵ": 2630,
      "ĠáĬ¨áĬ¥áĬĲáĪ±": 2631,
      "áĭįĠáĪĭáĭŃ": 2632,
      "ĠáįħáĪģáįį": 2633,
      "ĠB": 2634,
      "áĬŃáī°áĪŃ": 2635,
      "ĠáĮĦ": 2636,
      "áĪīáīµáĬķ": 2637,
      "áīĢáĪŃáī£": 2638,
      "ĠáįįáĪĭáĮİáīµ": 2639,
      "ĠáĮ¨áĭĭáī³": 2640,
      "Ġáĭ«áĪµáī°": 2641,
      "áĭĭáĬķ": 2642,
      "ĠáĪĬáĪĨáĬķĠáĭŃáī½áĪĭáĪį": 2643,
      "ĠáĪįáīµ": 2644,
      "ĠáĪĺáĬķáĮĪáĭ¶áī½": 2645,
      "áĪģáĭµ": 2646,
      "ĠáĪįáĪĽ": 2647,
      "Ġáĭ¨áĪļáĭ«áĪ³": 2648,
      "ĠáĬ¨áĪĿ": 2649,
      "ĠáĮ¥áīħáĪĿĠáĪĭáĭŃ": 2650,
      "áĬĲáĪŃáĪ±": 2651,
      "ĠáĬ¨áĬ¥áĬĲáĭļáĪħ": 2652,
      "ĠáĭŃáĪħáĬķáĬķ": 2653,
      "áīłáĬŀáī½": 2654,
      "áīħáĬĵ": 2655,
      "ĠáĪµáĮ¦áī³": 2656,
      "ĠáĭŃáĮĪáĬĽ": 2657,
      "Ġáī°áīĥ": 2658,
      "ĠáĮ¥áĪŃ": 2659,
      "ĠáīģáĪŃ": 2660,
      "ĠáĪ°áĪ«áĭĬ": 2661,
      "ĠáĪĿáĬķáĪĿĠáĬłáĭŃáĬĲáīµ": 2662,
      "áīĢáĪĺáĮ¥": 2663,
      "Ġáīłáĭ³": 2664,
      "Ġáĭ°áĪµáī°áĬĽ": 2665,
      "Ġáĭ¨áī°áīĢ": 2666,
      "ĠáĬ¥áĬĲáĪŃáĪ±": 2667,
      "áĬķáī³": 2668,
      "áĬķĠáĮĬáĭľ": 2669,
      "áīħáĭ±": 2670,
      "áĮĬáĭ«": 2671,
      "áĬķáįĥ": 2672,
      "ĠáĪĺáĪĨáĬķĠáĬł": 2673,
      "ĠáĭŃáĪĨáĬĵ": 2674,
      "ĠáĬłáĭ°áĪŃáĮĭ": 2675,
      "ĠáĪĿáĬ¥áĪ«": 2676,
      "áĮłáīģ": 2677,
      "Ġáīłáĭį": 2678,
      "áĪĬáĭĿ": 2679,
      "áįįáīµáĪĦ": 2680,
      "áĬłáĪį": 2681,
      "ĠáĪĨáĭŃáį£": 2682,
      "ĠP": 2683,
      "áĪ«áĬķ": 2684,
      "ĠáĬ¨áĭĪ": 2685,
      "ĠáĬ«áĪħ": 2686,
      "áīĢáĬĳ": 2687,
      "Ġáĭ¨áĬłáĪľáĪªáĬ«": 2688,
      "áĪįáĭµ": 2689,
      "áĪĭáĪħ": 2690,
      "ĠáĪĺáĮįáĪĪáĮ«": 2691,
      "ĠáĬ¨áĮ¥": 2692,
      "Ġáī°áĪĽáĪªáĭİáī½": 2693,
      "ĠáĬłáĪĭáĪħ": 2694,
      "ĠáĬ¥áĬĶáĪĿ": 2695,
      "áĭ¨áĪ©áĪ³áĪĮáĪĿ": 2696,
      "áĪ®áī¹": 2697,
      "ĠáįķáĪ®áĮĢ": 2698,
      "áĭ°áīµ": 2699,
      "áĪİáī¹": 2700,
      "áĬ¤áĪµ": 2701,
      "ĠáīĨáĬķáĮĨ": 2702,
      "áĬķáīĢáĪ³": 2703,
      "áīĨáĭŃ": 2704,
      "ĠáĬ¨áĬłáĬķáĭµ": 2705,
      "Ġáī°áĮĪáī¢": 2706,
      "ĠáĬ¨áĪ°": 2707,
      "ĠáĬ«áĪī": 2708,
      "áĬļ": 2709,
      "áĬĵáĭŃáīµ": 2710,
      "áĮ£áĪª": 2711,
      "ĠáĪĢáĭĭ": 2712,
      "áĬĲáĮĭáĮĪáĪŃ": 2713,
      "ĠáĪĺáĪª": 2714,
      "áīłáĪ¨áĪ°áī¥": 2715,
      "áĪĺáĪįáĬ¨áīµĠ": 2716,
      "áĪįáĪĽ": 2717,
      "ĠáĬ¥áĬķáĭ°áĪĽ": 2718,
      "áĪįáĬĿ": 2719,
      "áĬŃáī¶": 2720,
      "áĮ£áĪļ": 2721,
      "áĭįáĬķĠáĮĬáĭľ": 2722,
      "Ġáįĥ": 2723,
      "ĠáĬĲáĭĭ": 2724,
      "ĠáĬłáĪĪáī¥": 2725,
      "ĠáĪµáĪĿáĪĿáĬĲáīµ": 2726,
      "ĠáĪĬáĪĨáĬķĠáĭŃáī½áĪĭáĪįĠ": 2727,
      "ĠT": 2728,
      "ĠáĬĴ": 2729,
      "áĮłáĪĺ": 2730,
      "áĭ«áī¸áĭį": 2731,
      "ĠáĭŃáįĪáĪįáĮĭ": 2732,
      "áī»áĪĪ": 2733,
      "áĬ¨áįĪ": 2734,
      "áĬĸáĪ«áī¸áĭį": 2735,
      "ĠáĬ¥áĬĲáĪ±áĪĿ": 2736,
      "áĪŀáī½áĬķ": 2737,
      "ĠáĬ¥áĬķáĭ²áĪħĠáĭŃáĪĭáĪį": 2738,
      "it": 2739,
      "áī£áī½áĪģ": 2740,
      "áĬķáĪ°": 2741,
      "Ġáĭ³áĪŃáī»": 2742,
      "áī£áĪ¨": 2743,
      "ĠáĪįáī¥áĪµ": 2744,
      "áĬŃáįį": 2745,
      "áįĥáįį": 2746,
      "áĭĪáĪ°áĬĳ": 2747,
      "áĬķáī²": 2748,
      "ĠáĮłáī¥": 2749,
      "áīĢáĮ¥áī³": 2750,
      "ĠáĪĪáĪĽáĪ³": 2751,
      "áĭ¶áī½áĬķ": 2752,
      "ĠáĪħáĬŃáĪĿáĬĵ": 2753,
      "Ġáĭ¨áĬ®": 2754,
      "áī¥Ġ": 2755,
      "ĠáĬ¥áĬķáĭ´": 2756,
      "ĠáĪµáī³": 2757,
      "ĠáįĮ": 2758,
      "áĮ¦áī½": 2759,
      "áĬĲáĪŃ": 2760,
      "áĪ«áī½áĪģ": 2761,
      "ĠáĪŃáĬ¥áĪµ": 2762,
      "ĠáĭĪáĭ²áĭ«áĭįáĬĳ": 2763,
      "Ġáĭ¨áĪ«": 2764,
      "áĭĭáĪĪáĪģ": 2765,
      "Ġáĭ¨áī°áĪĪáĭ¨": 2766,
      "áĭİáī½ĠáĪĭáĭŃ": 2767,
      "áĪħĠ": 2768,
      "áįĪáĪ©": 2769,
      "áĭįáĬķĠáĬĲáĮĪáĪŃ": 2770,
      "áĪĭáĪĽ": 2771,
      "ĠáĪĽáĬķáĬĽáĭįáĬķáĪĿ": 2772,
      "ĠáĬĲáĭįĠáīł": 2773,
      "áĪħáĪ¨": 2774,
      "áĮĲ": 2775,
      "Ġáĭ¨áĪŀ": 2776,
      "Ġáī°áĬ¨áī³": 2777,
      "áĭ®áī¹": 2778,
      "ĠáĬ¨áĬ¥áĬĶ": 2779,
      "áĪµáĪĽáĪĽ": 2780,
      "ĠáīłáĪĿáĭµáĪŃ": 2781,
      "re": 2782,
      "áĭ°áĪµ": 2783,
      "áĬŃáĪŃáĪµáī¶áĪµ": 2784,
      "áĪĦáĭ°": 2785,
      "ĠáĬłáĬŃ": 2786,
      "áĬĲáĪ°": 2787,
      "Ġáĭ¨áĪĪáĪĿĠ": 2788,
      "áĭİáī½áį£": 2789,
      "áĬĲáīħ": 2790,
      "áĪµáī°áĭ³áĭ°áĪŃ": 2791,
      "Ġáĭ¨áĪļáī½áĪī": 2792,
      "Ġáĭ±": 2793,
      "áĭ«áĭĺ": 2794,
      "Ġáī¢áĪ®": 2795,
      "ĠáĭľáĬĵ": 2796,
      "ĠâĢĿĊ": 2797,
      "ĠáĪĽáĮįáĬĺ": 2798,
      "áĭµáĪ¨áĪµ": 2799,
      "áĪĺáĪ°áĪ¨áī°": 2800,
      "ĠáĪ°áī¥": 2801,
      "áĮĪáī£áĭį": 2802,
      "áĪĿĠáĭ«": 2803,
      "Ġáĭ¨áĪĺáĮ£": 2804,
      "áĬĵáĭŃáīµáĭµ": 2805,
      "áĮĪáĪįáĮĪáĪį": 2806,
      "ĠáĬ¨áĪį": 2807,
      "ĠáĪĪáĪĽáĭĪáīħ": 2808,
      "áī¸áĮĭáĪª": 2809,
      "ĠáīłáĬłáĪĪáĪĿ": 2810,
      "ĠáīłáĪĢ": 2811,
      "ĠáĮ¥áĬĵ": 2812,
      "ĠáīłáĪĺáĬķáįĪ": 2813,
      "ĠáįĪáįħáĪŀ": 2814,
      "áīłáī³áĪįĠ": 2815,
      "ĠáĬ«áĪĪáĭį": 2816,
      "áĮħáĪĿĠáĮĬáĭľ": 2817,
      "ĠáĮĭáĪŃĠáīłáī°áĭ«áĭ«áĭĺ": 2818,
      "áĮĪáĬķáĭĺáī¥": 2819,
      "ĠáĬ¥áĬķáĭ°áĪļáĭ«áĪµ": 2820,
      "ĠáĬłáīĢ": 2821,
      "ĠáĪĺáĬ¨áĪ«": 2822,
      "ĠáĬłáĬķáī¥": 2823,
      "áīĢáĮ¥áĪĪáĭį": 2824,
      "ĠáĪĺáĬķáĮįáĪµáī³": 2825,
      "áįĪáįĥáĪļ": 2826,
      "ĠáĭĪáĭ°áĪļ": 2827,
      "ĠáĬ«áĪŃ": 2828,
      "áĭĭáĮĭ": 2829,
      "ĠáĮĭáĭľ": 2830,
      "ĠáĭĺáĭŃ": 2831,
      "ĠáĪ¬": 2832,
      "áĪīáĪĿ": 2833,
      "áįīáīµ": 2834,
      "áĭİáĪµ": 2835,
      "áĭļáīĥ": 2836,
      "áĬ¨áįįáī°áĬĽ": 2837,
      "áĬ¥áĭŃ": 2838,
      "áĬ«áĪª": 2839,
      "áĪĺáĪĪáĪ±": 2840,
      "Ġáĭ¨áĪ°áĪ«": 2841,
      "ĠáĬĲáĭįáį¡áį¡Ċ": 2842,
      "áĪľáĬķ": 2843,
      "áĭ³áī¤": 2844,
      "Ġáī±": 2845,
      "áĪµáĭ°": 2846,
      "áĬķáĮ«": 2847,
      "áīµĠáĭįáĪµáĮ¥": 2848,
      "áĬ¦áĪį": 2849,
      "áĪĺáĪ©": 2850,
      "ĠáīłáĬ¥áĪ±": 2851,
      "Ġáĭ¨áĮİ": 2852,
      "áĪŃáĪĿ": 2853,
      "áīĢáĮłáĪį": 2854,
      "Ġáĭ¨áĪĪáĭį": 2855,
      "Ġáī³áĪĭ": 2856,
      "am": 2857,
      "áĭįáĮ£áīµ": 2858,
      "Ġáĭ¨áĪļáī½áĪį": 2859,
      "ĠáĪ°áįĬ": 2860,
      "áĭµáįį": 2861,
      "áīĢĠáĪĺáĭĽáĪĻáĪŃ": 2862,
      "ĠáĬłáī³": 2863,
      "áĪĪáĮł": 2864,
      "ĠáĬķáĮįáĭµ": 2865,
      "Ġáĭ¨áĭ°": 2866,
      "áĪįáĬ¥": 2867,
      "ĠáīłáĪħ": 2868,
      "Ġáĭ«áĭįáīĥ": 2869,
      "Ġáĭ¨áĪĻ": 2870,
      "ĠáĪĪáĬ¥áĬĶ": 2871,
      "áĮ¡áīµ": 2872,
      "ĠáįĬáĪį": 2873,
      "ĠáīłáĬłáĪģáĬĳĠáĮĬáĭľ": 2874,
      "áĮĪáĪµ": 2875,
      "ĠáĪµáī´": 2876,
      "ĠáĬ¨áĭļáĪħĠáĭŃáĪįáīħ": 2877,
      "áĪµáī°áĭĭ": 2878,
      "Ġáĭ¨áī¤áīµ": 2879,
      "ĠáĬłáĮł": 2880,
      "Ġáī¢áĭ«": 2881,
      "ĠáĬ¥áĬķáĭ´áīµĠáĬ¥áĬķáĭ°áĪļ": 2882,
      "áĪıáī¸áĭį": 2883,
      "áĪ°áĮ£áī¸áĭį": 2884,
      "áĬ¨áĪĽ": 2885,
      "áĪįáĬ®": 2886,
      "áīµĠáĬłáĬķáĭµ": 2887,
      "ĠáįĢáĪĢ": 2888,
      "Ġáĭ¨áĬłáĪĿáĪĭáĬŃáĬķ": 2889,
      "áĪŃáĭ³áīµ": 2890,
      "ĠáĪµáĭµ": 2891,
      "áĮ£áĪį": 2892,
      "ĠáīłáĪĺáĬ«áĬ¨": 2893,
      "ĠáĪĺáĮĭ": 2894,
      "ĠáīłáĬłáĪĿáĪĭáĬŃ": 2895,
      "áĪĿĠáĪĮáĪĭ": 2896,
      "âĢ¦Ċ": 2897,
      "ĠáĬ¥áĪµáĪ«áĬ¤áĪĭáĭįáĭ«áĬķ": 2898,
      "ĠáĮĥ": 2899,
      "áī£áī¸áĭįáĬķ": 2900,
      "ĠáĬ¥áĬķáĭ°áĭļáĪħ": 2901,
      "áįĬáĭİáī½": 2902,
      "áĬŃáī°": 2903,
      "áĪ³áĪµ": 2904,
      "ĠâĢľáĬ¥": 2905,
      "áĬķáīĥ": 2906,
      "ĠáĮĭáĪŃĠáĭŃ": 2907,
      "Ġáīħáĭµ": 2908,
      "ĠáĬ¥áĬķáĭ°áĪļáī½áĪį": 2909,
      "áīĨáĪĿ": 2910,
      "áĪ«áĬķáĪµ": 2911,
      "ĠáĭŃáĬ¸áĭį": 2912,
      "ĠáĭŃáĬĵáĮĪ": 2913,
      "áīµáĪħ": 2914,
      "áĪĽáĭįáĭ«áĬķ": 2915,
      "Ġáĭ¨áĪĿáĮįáī¥": 2916,
      "áĪ«áī½áĬķ": 2917,
      "Ġáį¡": 2918,
      "Ġáī¥áĪį": 2919,
      "áĪĮáĬŃáīµ": 2920,
      "Ġáī°áĭĪáĭ³": 2921,
      "Ġáī¥áĭĻáĭįáĬķĠáĮĬáĭľ": 2922,
      "Ġáī½áĮįáĪ®áī½": 2923,
      "áįĪáĪįáĮĪáĭį": 2924,
      "áĭ³áĬĵ": 2925,
      "áīĨáĮ£áĮłáĪŃ": 2926,
      "Ġáĭ¨áĪĪáĪĿ": 2927,
      "áĪ«áĪ½": 2928,
      "áĪŃáī²": 2929,
      "áĪģĠ": 2930,
      "áĬĳáĬķ": 2931,
      "áĮ£áĮ«": 2932,
      "Ġáīªáĭ²áĭ®": 2933,
      "áīµĠáĭ¨áĬ¥": 2934,
      "áĪĺáĪįáĬ¨áīµ": 2935,
      "ĠáĬ¥áĬķáĭ°áĪĿáīµ": 2936,
      "áĬķáĭ±áĪµáīµáĪª": 2937,
      "áīħáĪŃáī¥ĠáĮĬáĭľ": 2938,
      "ĠáĬ¥áīĥáĭİáī½": 2939,
      "ĠáĬ¥áĪĿ": 2940,
      "áĪ©áĬķ": 2941,
      "Ġáĭ°áĪħáĬķáĬĲáīµ": 2942,
      "áĬķáĬĲáīµ": 2943,
      "áīµĠáĭ«": 2944,
      "áĪĿĠáĪģáĪī": 2945,
      "áī´áĬŃ": 2946,
      "Ġáĭ®áĪĢáĬķáĪµ": 2947,
      "áīµĠáĪĽ": 2948,
      "Ġáĭ¨áī°áĭĪáĪ°áĬĲ": 2949,
      "ĠáĬ¥áĬķáĭ³áĪĪáĭį": 2950,
      "áĭĽáĪ¬áĭį": 2951,
      "ĠáĪįáĬŃĠáĬ¥áĬķáĭ°": 2952,
      "áĪĪáĭĭ": 2953,
      "áĪ½áĬ¨áĪŃ": 2954,
      "áĬķĠáĬłáĪį": 2955,
      "ĠáĪ²áĪī": 2956,
      "ĠáĬ¢áĭ«": 2957,
      "ĠáĪĺáĭĿáĪĻáĪŃ": 2958,
      "áĪĭáĪīĠ": 2959,
      "ĠáĪĺáĬªáĬĵ": 2960,
      "áĭİáī³áĪį": 2961,
      "ĠáĮ¦áĪŃ": 2962,
      "áĭĪáīģ": 2963,
      "áįįáĪ¬": 2964,
      "áĬ¨áĭį": 2965,
      "ĠáĬķáī¥áĪ¨": 2966,
      "áĪįáĪµáĮ¤": 2967,
      "áī£áī¸áĭįĠ": 2968,
      "ĠáĬłáĭµáĪ«": 2969,
      "áĬ¡áĪµ": 2970,
      "áĮłáīĥáĪļ": 2971,
      "Ġáĭ¨áįĪ": 2972,
      "ĠáĭŃáĪĨáĬķ": 2973,
      "áĭµáĮĵ": 2974,
      "áįĪáīµ": 2975,
      "ĠáĪĢáĭŃáĪĽáĬĸ": 2976,
      "áĬķáĭ¶áī¹": 2977,
      "áĮĪáĪĺ": 2978,
      "ĠR": 2979,
      "Ġáĭ°áĪŃ": 2980,
      "ĠáĬ¥áĬķáĪµáĪ³": 2981,
      "áĭ«áĭĻ": 2982,
      "ĠáĪħáĪĺ": 2983,
      "ĠáĪļáĪµ": 2984,
      "ĠáĬŃáĪŃáĪµáī²áĭ«áĬķ": 2985,
      "ĠáĭŃáĪĺáĪµáĪĭáĪį": 2986,
      "Ġáīłáī³": 2987,
      "ĠáĮ´áĮ¥áĪ®áĪµ": 2988,
      "áĭĪáĪ¨": 2989,
      "áīµĠáĬłáĭµáĪŃ": 2990,
      "ĠáĪµáĬ¥": 2991,
      "áĮĭáĭĬ": 2992,
      "áįĨáī½": 2993,
      "áĮ¿": 2994,
      "Ġáī°áĪ°": 2995,
      "áĪĪáĪģáį£": 2996,
      "áīģáĪŃ": 2997,
      "áĬ®áĬĸáĪļ": 2998,
      "áĪĪáīĢ": 2999,
      "ĠáĪĽáĭ¨áīµ": 3000,
      "áįħáĪģáįį": 3001,
      "áĮĭáī½áĪģ": 3002,
      "áĪıáĪįĠ": 3003,
      "áĪŃáĪĢ": 3004,
      "áĪ«áĪŃ": 3005,
      "Ġáī¥áĭĻĠáĪ°áĭİáī½": 3006,
      "áī½áĪįáĪĿĠ": 3007,
      "ĠáĬłáĪ°": 3008,
      "ĠáĬ¥áĬķáĭ°áĪĿ": 3009,
      "áĬĴáĭį": 3010,
      "áĭ°áĬķáī¥": 3011,
      "ĠáĪĢáĮ¢áĬłáīµ": 3012,
      "Ġáī°áĮįáī£áĪŃ": 3013,
      "áĬķáĮĪ": 3014,
      "Ġáī°áĪµáĪĽ": 3015,
      "áĬ¦áĬķ": 3016,
      "ĠáīłáīĢáĪĭáĪī": 3017,
      "ĠáĮ¥áĪ¨": 3018,
      "ĠáĪģáĪĪáī°áĬĽ": 3019,
      "ĠáĪĺáĪĨáĬĳáĬķ": 3020,
      "Ġáī°áĬĵáĮįáĪ¯áĪįĠ": 3021,
      "áĪ¾áī½": 3022,
      "áĪŃáīµáĪ«": 3023,
      "Ġcom": 3024,
      "ĠáĭŃáĪĺáĪįáĬ¨áī±": 3025,
      "áĪĿĠáĬłáĪĿáĪĭáĬŃ": 3026,
      "Ġáī°áīĢáĪĿ": 3027,
      "áĬķáĪ²": 3028,
      "ĠáĪµáĬĲ": 3029,
      "ĠáĮ¥áĪ«áīµ": 3030,
      "áĪ«áī¢": 3031,
      "ĠáĮįáĭµ": 3032,
      "Ġáī°áĮįáī£áĪ«áĭĬ": 3033,
      "ĠáĬĸáĪ®": 3034,
      "ĠáĪĪáĪĽáĮįáĬĺ": 3035,
      "áĬķáĭ³áĬķáĭ³": 3036,
      "áĬķáĪµáī¶": 3037,
      "ĠáĪİ": 3038,
      "áĪģáīµ": 3039,
      "ĠáĪĿáĬķáĭµáĬķĠáĬĲáĭįĠ": 3040,
      "ic": 3041,
      "ĠáĬ¨áĪĨáĬĳ": 3042,
      "áĪŀáĬ¨áĪŃ": 3043,
      "ĠáĮłáĪĭ": 3044,
      "áįķáĪ¬": 3045,
      "áīłáĪµ": 3046,
      "ĠáĪ°áī£": 3047,
      "áįĭáĪµ": 3048,
      "ĠáĬłáīĭ": 3049,
      "ĠáĭµáĪ¨": 3050,
      "ĠáĬķáī¥áĪ¨áīµ": 3051,
      "ĠáĬ¥áĬķáĭ²áĪģáĪĿĠáĭ¨": 3052,
      "Ġáī¥áĪıáĪįĠ": 3053,
      "áĭ«áīµ": 3054,
      "áĪĿĠáĬłáĬķáĭµ": 3055,
      "áĪīĠáĬ¥áĬĵ": 3056,
      "ĠáĪĪáĪµ": 3057,
      "áĬĸáī½áĬķ": 3058,
      "ĠáĬ¨áĪĺáĪĨáĬĳ": 3059,
      "áĭ³áĪª": 3060,
      "áĮłáĭ¨áīħ": 3061,
      "ĠáĬłáĪ«": 3062,
      "ĠáĭŃáī³": 3063,
      "Ġáī¥áī»ĠáĬĲáĭį": 3064,
      "ĠáīĢáĭµ": 3065,
      "ĠáīłáĪĽáĭµáĪ¨áĮį": 3066,
      "ĠáĪĺáīĢ": 3067,
      "ĠáĪµáĪ«áĭİáī½": 3068,
      "ĠD": 3069,
      "áĬķáĪ½": 3070,
      "áĭ«áĪįĠ": 3071,
      "Ġáī°áīĢáī£áĭŃ": 3072,
      "áĬ¨áĪĭáĬ¨áĭ«": 3073,
      "áĭ«áīĤ": 3074,
      "áĪĿĠáĬłáĪį": 3075,
      "Ġáīłáĭ«áĪħáĭĮ": 3076,
      "ĠáĭĪáĬķáĮĢ": 3077,
      "ĠáĪµáĪĻ": 3078,
      "áĭ±Ġ": 3079,
      "ĠáĭĺáĮĪáī£": 3080,
      "áī¶áī½ĠáĬ¥áĬĵ": 3081,
      "ĠáĪĪáĭĺáĪĭáĪĪáĪĿ": 3082,
      "áī¶áī»áī½áĬķ": 3083,
      "ĠáĬłáĪĺáī³áīµĠáīł": 3084,
      "áĪĽáĪ½": 3085,
      "ĠáĬ¥áĬķáĭ°áĪļáī½áĪī": 3086,
      "áĪĺáĮ¥": 3087,
      "ĠáĪĪáĭ«áĪħáĭĮ": 3088,
      "áĪĻáīµ": 3089,
      "áĪĭáī½áĬĭ": 3090,
      "ĠáĪµáĬ¬": 3091,
      "Ġáĭ¨áĬłáĪĪáĪĿ": 3092,
      "ĠáĬłáĮłáīĥáĪĭáĭŃ": 3093,
      "áĪ¶áī½áĬķ": 3094,
      "áĭİáī½Ġáĭ¨áĪļ": 3095,
      "ĠáĮłáĭ¨": 3096,
      "ĠáīłáīµáĬŃáĬŃáĪį": 3097,
      "ĠáĬ¥áĬķáĭ²áĪħĠáĬłáĪĪáĭį": 3098,
      "ĠáĭĪáĪĭáĮĨáī½": 3099,
      "áĭ«áĭįáīģ": 3100,
      "ĠáīµáĬķáī¢": 3101,
      "áĪŁáĪĭ": 3102,
      "ĠáĪĺáĪįáĬ¥áĬŃ": 3103,
      "ĠáĬ¥ĠáĬ¤ĠáĬłĠáīł": 3104,
      "áĪ«áĭŃ": 3105,
      "ĠáĭĪáĬķáĭµáĪŀ": 3106,
      "Ġáī°áĪ«áĪ«": 3107,
      "áĬ«áī¤": 3108,
      "Ġáĭ°áĪ¨": 3109,
      "áĮ¨áĪĺáĪŃ": 3110,
      "ĠáĪ³áĪĪ": 3111,
      "áĪĿĠáĬ¥áĬķáĭ°": 3112,
      "áį£ĠáĭŃáĪħ": 3113,
      "áĬ«áī°": 3114,
      "ĠáīĥáĪįĠáĬª": 3115,
      "áĪ¯áĪį": 3116,
      "ĠáĬłáī£áĪĭáīµ": 3117,
      "ĠáĬ¥áĭĪáĭ³": 3118,
      "áĭ³áī¸áĭį": 3119,
      "áĪĭáī¸áĭįĠ": 3120,
      "áīµĠáĬłáĪĺáī³áīµ": 3121,
      "áĭįáĪįáĭµ": 3122,
      "áĪµáī³áĭį": 3123,
      "áĪĿĠáĬ¥áĬķáĬ³": 3124,
      "áĪĺáĬĳ": 3125,
      "ĠáĪĺáįįáīµáĪĦ": 3126,
      "áĪ³áĬ«": 3127,
      "ĠáĪĽáĪµáĪ¨áĮĥ": 3128,
      "Ġáĭ«áĪĿ": 3129,
      "áĪ³áĪĿáĬķ": 3130,
      "ĠáĮĤ": 3131,
      "áī°áĬ®": 3132,
      "áĪĽáĪį": 3133,
      "ĠáĪĪáĪĽáĭ¨áīµ": 3134,
      "ĠáĮĭáĪŃĠáīł": 3135,
      "ĠáĪĺáĬķáĮįáĪµ": 3136,
      "ĠáĭµáĪŃáĮħáīµ": 3137,
      "áĪİáĬķ": 3138,
      "Ġáĭ«áĪįáĪĨáĬĲ": 3139,
      "ĠáīłáĬ¥áĬĶ": 3140,
      "áĪ´áī¶áī½": 3141,
      "áįĸáĪĪáī²áĬ«": 3142,
      "áĬķĠáĬłáĭŃáĬĲáīµ": 3143,
      "ĠáĬłáĮ¥": 3144,
      "ĠáĪĪáĬłáĪĿáĪĭáĬŃ": 3145,
      "ĠáīµáĬĵ": 3146,
      "áĭļáĪģ": 3147,
      "ĠáĬķáĬ¡áĪµ": 3148,
      "áĬķáī°áĪŃ": 3149,
      "áĪŃáīħ": 3150,
      "ĠáĬ¥áĭŃáī³": 3151,
      "áĭ³áĪľ": 3152,
      "ĠáĪĿáĪµáĬŃáĪŃ": 3153,
      "Ġáĭ¨áĪļáĪĪáĭį": 3154,
      "Ġáĭ¨áīĨ": 3155,
      "áĮĭáĬĵ": 3156,
      "ĠáįĸáĪĬáĪ²": 3157,
      "áīĥáĪįĠ": 3158,
      "âĢĺ": 3159,
      "ĠáĪģáĪįĠáĮĬáĭľ": 3160,
      "áĪµáĪĢ": 3161,
      "ĠF": 3162,
      "Ġáĭ«áĮĪáĬĽ": 3163,
      "ĠáĬ¥áĬķáĭ°áĪĨáĬĳ": 3164,
      "áī£áī³": 3165,
      "Ġáĭ¨áĬłáĬ«áĪį": 3166,
      "áī¬": 3167,
      "áĪ°áī¢áĭ«": 3168,
      "áĪİáīµ": 3169,
      "ĠáĪģáĪĭáī½áĬķ": 3170,
      "ĠáįįáĮ¥": 3171,
      "Ġáĭ¨áįĢ": 3172,
      "áĪĺáĬĽ": 3173,
      "áĮįáīł": 3174,
      "áĪ´áīµ": 3175,
      "ĠáĪ°áĪ«áī°áĬĽ": 3176,
      "áĪĺáĪµáĪį": 3177,
      "es": 3178,
      "áĪĽáĬķ": 3179,
      "ĠáĭŃáīł": 3180,
      "ĠáĬŃáī¥": 3181,
      "ĠáĭįáĮ¤áī³áĪĽ": 3182,
      "áī£áī¥": 3183,
      "áĭĪáīĢ": 3184,
      "áĬŃáī¥áĬ«áī¤": 3185,
      "ĠáĬłáĪµáī°áĭĭ": 3186,
      "áĪ¯áī¸áĭį": 3187,
      "áī´áĪį": 3188,
      "áĭĺáĮĭáĮģ": 3189,
      "ĠáĬ¨áĬ¥áĬĵáĬķáī°": 3190,
      "ĠáĪĮáĪĬ": 3191,
      "áĮĪáĪįáĮįáĪİáīµ": 3192,
      "Ġáĭ©áĬĴ": 3193,
      "ĠáĬ¥áĬķáĮįáĭ²áĪħ": 3194,
      "ĠáīłáĪħáĭŃáĭĪ": 3195,
      "ĠáĬĭ": 3196,
      "áĭįĠáĭįáĪµáĮ¥": 3197,
      "áĪĿáīłáĪŃ": 3198,
      "ĠáĬłáĪľáĪªáĬ«": 3199,
      "ĠáĪĺáĪįáĬ©": 3200,
      "Ġáĭ°áī¥áĭ³áī¤": 3201,
      "áīłáīµĠáĪĺáĬķáĮĪáĭµ": 3202,
      "ĠáĪįáĮĨáī¹": 3203,
      "áįĪáī³": 3204,
      "ĠáĮīáĭ³áĭ©": 3205,
      "áĪ¨áĮħáĪĿĠáĮĬáĭľ": 3206,
      "ĠáĪĽáĭµáĪ¨": 3207,
      "ĠáĬłáīħáĪŃ": 3208,
      "Ġáĭ¨áĬłáĬ«áī£áī¢": 3209,
      "ĠáĪĿáĬķáĮĬáĭľ": 3210,
      "ĠáĬ¥áĬķáĭµáī³": 3211,
      "ĠáĬ¥áįĪáĪįáĮĭ": 3212,
      "áĬŃáĪ²": 3213,
      "Ġáĭİáī¹": 3214,
      "ĠáĬłáĮĪáĪ®áī½": 3215,
      "áĪĿáĮĪáĪĽ": 3216,
      "ĠáĪĺáī¼": 3217,
      "áīĥáĭĪ": 3218,
      "áĬķĠáīłáī°áĪĺáĪĪáĬ¨áī°": 3219,
      "áī£áī£": 3220,
      "ĠI": 3221,
      "ĠáĬłáĬķáĭ²": 3222,
      "áĭ°áĭµ": 3223,
      "ĠáīµáĬŃáĬŃáĪį": 3224,
      "ĠáĭĿáĮįáĮģ": 3225,
      "áīłáīµĠáī¦áī³": 3226,
      "áĪ«áĪ³áī¸áĭį": 3227,
      "ĠáĪĽáĪ»áĪ»": 3228,
      "Ġáĭ°áĮĭ": 3229,
      "ĠáĬłáĪĭáī¸áĭįĠ": 3230,
      "ĠáīłáĭĪ": 3231,
      "áĪĪáĪŀ": 3232,
      "ĠáĬĲáĮ¥áī¥": 3233,
      "ĠáĪĪáĪĺáĪĨáĬķ": 3234,
      "ĠáīłáĬłáĪį": 3235,
      "ĠáĪ«áĬ¥áĭŃ": 3236,
      "Ġáĭ¨áĪļáĪĪáĭįáĬķ": 3237,
      "áĮĪáĪįáįħ": 3238,
      "ĠáĮ¥áīħáĪĿ": 3239,
      "áĪ¨áįį": 3240,
      "áĬķáĮīáĪ±": 3241,
      "ht": 3242,
      "áīµĠáĪ°áĭİáī½": 3243,
      "áĭ«áĮŃ": 3244,
      "áĬĴáĬŃ": 3245,
      "áįİáī½áĬķ": 3246,
      "áĪ¨áĭ³áīµ": 3247,
      "ĠáĪļáĪĬáĭ®áĬķ": 3248,
      "áĭįĠáĬ¨": 3249,
      "ĠáĭŃáĪ°áĪ«": 3250,
      "ĠáĪįáĮĥ": 3251,
      "áĮīáĪŃ": 3252,
      "áĪĮáĪĪ": 3253,
      "áĮĪáĬĵáĬĽ": 3254,
      "ĠáĬłáĪįáįİ": 3255,
      "ĠáĬłáĭµáĪŃáĮĪáĭį": 3256,
      "Ġáĭ«áĬ¥áīĨáī¥": 3257,
      "ĠáĬłáĪ¸": 3258,
      "ĠáĮ¥áīłáīĥ": 3259,
      "áį¥Ċ": 3260,
      "ĠáĭŃáĬ¸áĭįáĪĿ": 3261,
      "ĠáĪįáĬķ": 3262,
      "áĬķĠáĬłáĬķáĭµ": 3263,
      "áī¥áĬķ": 3264,
      "ĠáĮĪáīłáĭ«": 3265,
      "áĬĵáĭ³": 3266,
      "ĠáĭįáĪµáĮ¥Ġáĭ¨áī°": 3267,
      "áĪĿĠáīłáĪĭáĭŃ": 3268,
      "ĠáĮĭáĪŃĠáĭ¨áĪļ": 3269,
      "ĠâĢľáĬł": 3270,
      "Ġáĭ¨áī¥": 3271,
      "ĠáĬłáĪĺáĪ°": 3272,
      "áĭĪáĪµáĭµ": 3273,
      "ĠáĭįáĭŃ": 3274,
      "ĠáĪĺáĪįáĬŃ": 3275,
      "áį£ĠáĬĲáĮĪáĪŃĠáĮįáĬķ": 3276,
      "ĠáĬĳ": 3277,
      "ĠáĬłáĭ°áĪ¨áĮĪ": 3278,
      "ĠáĮ¢": 3279,
      "áĬĲáī³áī¸áĭį": 3280,
      "ĠáĪĮáĪİáī½áĬķ": 3281,
      "ĠáĪĪáĬłáĬķáĭµ": 3282,
      "ro": 3283,
      "áįĭáĮŃ": 3284,
      "ĠáĪĬáĭ«áĪµ": 3285,
      "ĠáįĪáī°áĬĵ": 3286,
      "áĪĿáĪ¨áĮ¥": 3287,
      "áĪµáī¡": 3288,
      "áĮįáĪ©": 3289,
      "áĮįáĬĻ": 3290,
      "áīħáĬķ": 3291,
      "ĠáĬ¥áĬĵĠáĪĮáĪİáī½": 3292,
      "áĬķáĭĽáī¤": 3293,
      "áĮİáī¥": 3294,
      "Ġáĭ¨áĬ¥áĪŃáĪµáĭİ": 3295,
      "ĠáĪļáĪµáīµ": 3296,
      "Ġáĭ¨áĬĲáīłáĪ¨áĭį": 3297,
      "áĭ«áĭįáīħ": 3298,
      "áĭŃáĪħ": 3299,
      "ĠáĮ¥áĬĵáīµ": 3300,
      "áīĤáīµ": 3301,
      "Ġáī¥áĪıáĪį": 3302,
      "áĪĿĠáĬłáĪĪ": 3303,
      "ĠáĬłáĪµáī³áĭį": 3304,
      "áĪ²áī²": 3305,
      "Ġáī¥áīĥáīµ": 3306,
      "ĠáĭŃáĪĺáĮ£": 3307,
      "ĠâĢľáīł": 3308,
      "ĠáĬ¨áĪĢ": 3309,
      "ĠáīłáīĤ": 3310,
      "Ġáī°áĪ«": 3311,
      "ĠáīĢáĬķĠáīł": 3312,
      "Ġáĭ®áĪ´áįį": 3313,
      "áĪ°áĪµ": 3314,
      "ĠáĪµáĪĪáĬĲáīłáĪŃ": 3315,
      "áĭ®áī½áĬķ": 3316,
      "áĪ«áĪīĠ": 3317,
      "áĪ¶áĪµáīµ": 3318,
      "áĮĪáĬĻáīµ": 3319,
      "áĮĪáĪ©": 3320,
      "ĠáĪ°áĪĭáĪĿ": 3321,
      "ĠáīłáīħáĪŃáī¡": 3322,
      "ĠáĪ°áĬĲ": 3323,
      "ĠáĬŃáĪµáī°": 3324,
      "Ġáĭ¨áĬ¥áĮįáĭļáĬłáī¥áĪĦáĪŃ": 3325,
      "ĠáĬ¥áĪµáī²": 3326,
      "ĠáĬłáī£áĪį": 3327,
      "áįĪáįĢáĪĺ": 3328,
      "ĠáĭĿáīħáī°áĬĽ": 3329,
      "Ġáī£áĪħáĪª": 3330,
      "áĪµáĪĺáĪŃĠáĪĭáĭŃ": 3331,
      "áĭįáĬĲ": 3332,
      "ĠáĮ¥áīĥ": 3333,
      "áĪĪáĭįĠ": 3334,
      "ĠáĭµáĪŃáĮħáī¶áī½": 3335,
      "ĠáĬ¥áī½áĪĭ": 3336,
      "Ġáĭ°áĪħáĬĵ": 3337,
      "áĪīáĪĿĠ": 3338,
      "áĪ³áĬķ": 3339,
      "ĠáīµáĬ©áĪ¨": 3340,
      "et": 3341,
      "áĪĿáĭµáĪŃ": 3342,
      "Ġáĭ¨áĪĺáĮĢáĪĺáĪªáĭ«áĭį": 3343,
      "áįĪáįĥáįĢ": 3344,
      "ĠáĭĬ": 3345,
      "áĪŃáĭ«áĭį": 3346,
      "Ġáī³áĭįáīĥ": 3347,
      "áĪ°áĪ«áĪŃ": 3348,
      "ĠáĬ¨áĬłáĪĿáĪĭáĬŃ": 3349,
      "áĬĵĠáĪĺ": 3350,
      "áĭµáĪ¨Ġáīłáĭ³": 3351,
      "ĠáĬ¥áī£áĬŃáĭİ": 3352,
      "ĠáĪµáĪįáĮłáĬĵ": 3353,
      "áĮ¥áĪ©": 3354,
      "áīĢáĪ¨áī¡": 3355,
      "áĮįáĪĪáįħ": 3356,
      "el": 3357,
      "Ġáī°áĮ«": 3358,
      "áĭµáĪŃáĮħ": 3359,
      "áĮĵáĭĿ": 3360,
      "ĠáīµáĪĿáĪħáĪŃáīµĠáī¤áīµ": 3361,
      "áī½áĬķáĬķ": 3362,
      "ĠáĪĺáĪ³áĪªáĭ«áĭİáī½": 3363,
      "Ġáī³áĪª": 3364,
      "áĬ©áĪµ": 3365,
      "áĪĪáĪĺáĭ°": 3366,
      "ĠáĬ¥áĬķáĬŃáī¥áĬ«áī¤": 3367,
      "áĪŃáĭ±": 3368,
      "Ġáīłáĭµ": 3369,
      "Ġáīłáī£": 3370,
      "Ġáī°áĬĲáĪ³": 3371,
      "áĪĪáīµĠ": 3372,
      "Ġáī£áĪĪáĪĻáĭ«": 3373,
      "áĬĽáĭİáī¹": 3374,
      "áĮłáī¥áīģ": 3375,
      "áĬĲáĮĪáĪŃ": 3376,
      "ĠáĬĲáĬĿĠ": 3377,
      "ĠáīģáĪįáįį": 3378,
      "ĠáĬ¥áĪµáĬ«áĪģáĬķ": 3379,
      "Ġáĭ¨áĬŃ": 3380,
      "ĠáĬ¥áī¥": 3381,
      "ĠáĮ¥áĪįáīħ": 3382,
      "ĠáĬ¨áĬłáĬķáī°": 3383,
      "ĠáĪ°áĮł": 3384,
      "áĬ¨áĪĭáĬ¨áĪį": 3385,
      "áĬĲáī³áī½áĬķ": 3386,
      "ĠáĬ¨áĪµ": 3387,
      "ĠáĭĪáĭµ": 3388,
      "áį£ĠáĬł": 3389,
      "ĠáĪĿáĮį": 3390,
      "ĠáĬłáĭ³áĭ²áĪµ": 3391,
      "áĪ³áĭį": 3392,
      "ĠáĭĪáĭ°áįĬáīµ": 3393,
      "ĠáīłáĬłáĮłáīĥáĪĭáĭŃ": 3394,
      "áĪ¸áįĪ": 3395,
      "ĠáĬłáĪµáī°áĭ³áĭ°áĪŃ": 3396,
      "áĪĪáĮ¥": 3397,
      "áĪĽáĪĽ": 3398,
      "ĠáĪ³áĪĻ": 3399,
      "áĪĺáĬĲ": 3400,
      "ĠáĬŃáĪŃ": 3401,
      "Ġáĭ¨áĪļáĭ«áĪµáī½áĪį": 3402,
      "áĭįáĬķáĪĿ": 3403,
      "ĠáĮĢáĪĺáĪ¨": 3404,
      "ĠáīĨáĭŃ": 3405,
      "áįįáī³": 3406,
      "Ġáī³áĭĭáīĤ": 3407,
      "ĠáĮīáĭ³áīµ": 3408,
      "ĠáĬĲáįĥáĬĲáīµ": 3409,
      "ĠáĪįáĪĿ": 3410,
      "ĠáĮĭáĪŃĠáĪĪáĪĺ": 3411,
      "ĠáĪĪáĬ¥áĬĵáĬķáī°": 3412,
      "ĠáĬłáĭµáĪŃáĮĪ": 3413,
      "ĠáĬłáĮłáĮĪáī¥": 3414,
      "áĪīáĬķ": 3415,
      "áįĪáīĢáĭ°": 3416,
      "áĭ°áĪŃáĪ±": 3417,
      "áĪ°áĬķ": 3418,
      "ĠáĬĲáĮĪáĪŃĠáĪģáĪī": 3419,
      "áĪ¬áīµ": 3420,
      "ĠáīłáĬ¥áĪµáĪ«áĬ¤áĪį": 3421,
      "ĠáĬ¨áĬ¥áĬĽ": 3422,
      "ĠáĭŃáī»": 3423,
      "áĬķáī±": 3424,
      "áĪŃáĪ³": 3425,
      "Ġáīłáīł": 3426,
      "ĠáĪĪáĪį": 3427,
      "áĪľáĪį": 3428,
      "ĠáĬ¨áĬ¢": 3429,
      "Ġáī£áĪħáĪªáĭ«": 3430,
      "ĠáĭĪáĮ£áīµ": 3431,
      "áīĢáĮ£": 3432,
      "ĠáĪĿáĮįáī£áĪŃ": 3433,
      "áĬķáĬ¨áī£": 3434,
      "ĠáĬŃáĬķáĭµ": 3435,
      "áī´áĬķ": 3436,
      "áĭĪáīħáī±": 3437,
      "áĮĪáĪªáī±": 3438,
      "ĠáĮ¥áįĭ": 3439,
      "ĠáīłáĬ¥áĬĲáĭļáĪħ": 3440,
      "áĮįáī£áī¥": 3441,
      "ĠáĪĮáĪĭáĭį": 3442,
      "ĠáĪĺáĪ°áĪ¨áī³áĭĬ": 3443,
      "ĠáĪĺáĬĸáĪŃ": 3444,
      "ĠáĮ£áįĭáĮŃ": 3445,
      "ch": 3446,
      "áĬĢ": 3447,
      "ĠáĭŃáĪĭáĪįĠ": 3448,
      "áī³áĭ©": 3449,
      "áīµĠáĭ¨áĪĽ": 3450,
      "ĠáĬłáĬķáĭ³áĬķáĭµĠáĮĬáĭľ": 3451,
      "áĪģáĪĪáī±": 3452,
      "áĪĪáĭĭáĪįĠ": 3453,
      "áĭŃáĬĲ": 3454,
      "áĪ¨áĭĭáĪįĠ": 3455,
      "ĠáĬĲáĭĭáĪªáĭİáī½": 3456,
      "áĭ«áĪĪáĪģ": 3457,
      "ĠáĮįáĭ´": 3458,
      "Ġáīħáĭ³áĪľ": 3459,
      "áī²áĬŃ": 3460,
      "ĠáĬłáĪĺáĪ°áĮįáĬĵ": 3461,
      "ĠáīµáĪŃáĮīáĪĿ": 3462,
      "ĠG": 3463,
      "ĠáĪĺáĭĭ": 3464,
      "Ġáĭ¨áĪļáĬĸáĪ©": 3465,
      "áĪ±Ġ": 3466,
      "áĭĽáĪ¬áĭįĠáĮĬáĭľ": 3467,
      "Ġáī°áīĢáī£áĭŃáĬĲáīµ": 3468,
      "ĠáĬĲáĮŃ": 3469,
      "ĠáĬĲáĭįĠáĭŃáĪħ": 3470,
      "ĠáĬłáĪ³áĪį": 3471,
      "ĠáĭŃáīĨ": 3472,
      "ĠáĬ¥áĬĵáĪĺáĪ°áĮįáĬĵ": 3473,
      "áĭİáī»áī½áĬķ": 3474,
      "ĠáīģáĮ£": 3475,
      "áįĸáĪĬ": 3476,
      "áĭİáī³áĪįĠ": 3477,
      "ĠáĪĺáĪįáĪ¶": 3478,
      "áĮĪáĬĺáĭįáĬķ": 3479,
      "ĠáīłáĬ¥áĪŃáĮįáĮłáĬĿáĬĲáīµ": 3480,
      "ĠáĪĽáĬŃ": 3481,
      "Ġáĭ°áīĢĠáĪĺáĭĽáĪĻáĪŃ": 3482,
      "áĪ¸áĬĲáįį": 3483,
      "áĬŃáĪŃáĪµáī²": 3484,
      "Ġáĭŀ": 3485,
      "áĪ°áĪĻ": 3486,
      "áĭ³áĬķáīµ": 3487,
      "Ġáī¥áī»ĠáĪ³áĭŃáĪĨáĬķ": 3488,
      "ĠáĬĽáĭį": 3489,
      "ĠáĪ½áĪĽáĮįáĪĮáĭİáī½": 3490,
      "Ġáīłáī¥": 3491,
      "áĪĪáīħ": 3492,
      "áĪ¼": 3493,
      "ĠáĪĺáī¶": 3494,
      "Ġáī°áĭĭ": 3495,
      "áĪįáį¡áį¡Ċ": 3496,
      "áĭ°áĪªáĭ«": 3497,
      "áĪĢáī¥": 3498,
      "áĪµáĬ®": 3499,
      "ĠáīłáĮİ": 3500,
      "ĠáĬ¨áĮĬáĭľ": 3501,
      "ĠáĪºáĪħ": 3502,
      "áīµĠáĪĺáĬ«áĬ¨áĪį": 3503,
      "ĠáĭĽáįį": 3504,
      "ĠáĬŃáĪįáĪį": 3505,
      "ĠáīłáĮįáĪįáįħ": 3506,
      "áīħáĪ¨": 3507,
      "Ġáĭ³áĮį": 3508,
      "Ġáĭ¨áī£áĪħáĪŃ": 3509,
      "áī½áĪĪáĭįĠáĬ¥áĬķáĭ´áīµĠáĬĲáĭįĠ": 3510,
      "ĠáĪĺáĭµáĪ¨": 3511,
      "ĠáĭĪáĬķ": 3512,
      "ĠáīĢáĭŃ": 3513,
      "ĠáĮĪáīł": 3514,
      "ĠáĬ¥áĭįáīĢ": 3515,
      "áĮłáī¥áīħ": 3516,
      "ĠáĮŃáĬķáīĢ": 3517,
      "ĠáīłáĪĿáīµ": 3518,
      "ĠáĪ°áĪĿ": 3519,
      "ĠáįĪáīĥáĭ°áĬĽ": 3520,
      "ĠáĬłáĪµáī°áĭ«áĭ¨": 3521,
      "Ġáī³áĭŃ": 3522,
      "áīµĠáĪģáĪī": 3523,
      "Ġáĭ¨áĭµ": 3524,
      "áĭĪáĮ£áĭį": 3525,
      "ĠáĬłáĭµáĪŃáĮĵ": 3526,
      "Ġáīµáī½áĪĭáĪĪáĪħĠ": 3527,
      "áī½áĪįáĪĿ": 3528,
      "Ġáī¥áī¸": 3529,
      "ĠáīłáĪĺáįħáĪĢáįįĠáīħáĭ±áĪµ": 3530,
      "Ġáĭ¨áĪļáĭ«áĭ°áĪŃáĮī": 3531,
      "ĠL": 3532,
      "áį£ĠáĮįáĬķ": 3533,
      "áĪµáīµáĪ«": 3534,
      "Ġáĭ«áĪĭáī¸áĭįáĬķ": 3535,
      "áīµĠáĭĪáĭ°": 3536,
      "áĭ¨áĪĿ": 3537,
      "áĭĺáĪ¨": 3538,
      "ĠáĮĪáī£": 3539,
      "Ġáī´áĬŃáĬĸáĪİáĮĤ": 3540,
      "áĬ«áĭŃ": 3541,
      "Ġáĭ¨áī°áĪ°áĪ«": 3542,
      "ĠáĮįáĬķáĭĽáī¤": 3543,
      "ĠáĮĭáĪŃĠáīłáĪĺ": 3544,
      "áĭİáī½áĬķĠáĪĪáĪĺ": 3545,
      "ou": 3546,
      "ĠáĪĿáĪŃáīµ": 3547,
      "Ġáĭ«áĭ°áĪŃáĮĭáĪįĠ": 3548,
      "ĠáĪĽáĬķáĬĽáĭįáĪĿĠáĪ°áĭį": 3549,
      "áĮłáĬķ": 3550,
      "áĮħáĬĲáīµ": 3551,
      "áįĬáī±": 3552,
      "áįĥáĪħáįįáīµ": 3553,
      "áĮ¿áĪįĠ": 3554,
      "ĠáīłáĪĽáĪĪ": 3555,
      "ĠáĬ¥áĭ«áĬķáĭ³áĬķáĭ³": 3556,
      "áįĪáĪĪáĮĪ": 3557,
      "ĠáĬłáĮĪáĪįáĮĭáĭ®áī½": 3558,
      "áĪĿáįķ": 3559,
      "ĠáĬłáĭĺ": 3560,
      "áī¨áĪŃáĪ²áī²": 3561,
      "ĠáĬ¨áīł": 3562,
      "áĭĪáĭ±": 3563,
      "Ġáīłáī°áĪĺáĪĪáĬ¨áī°": 3564,
      "ĠáĮłáĭŃ": 3565,
      "ĠáĬłáĪĺáīµĠáīł": 3566,
      "áĪ²áĭ«": 3567,
      "ĠáĬ¥áĬķáĭµáĬĵ": 3568,
      "áī°áĬĵáĪį": 3569,
      "ĠáĬłáĪĪáīĥ": 3570,
      "ĠáīłáĪµáī°áīĢáĪŃ": 3571,
      "ĠáīłáĬ¤": 3572,
      "áįĪáĮłáĪ¨": 3573,
      "ĠáĪĬáĪĨáĬĳ": 3574,
      "áĪĺáĪĪáĬŃ": 3575,
      "áĪŃáĪĽ": 3576,
      "ĠáĬĲáĮĪáĭµ": 3577,
      "ĠáĪ«áĪ´": 3578,
      "Ġáī«": 3579,
      "áĪĺáĪĭáĪĪ": 3580,
      "áĪħáīłáĪ«áĭĬ": 3581,
      "ĠáĬ¨áĪĮáĪİáī½": 3582,
      "ĠáīĢáĮ£": 3583,
      "áīµĠáĬłáĪĺáīµ": 3584,
      "áī£áīĤ": 3585,
      "ĠáĬ¥áĬķáĭ²áĪħĠáĬłáĪĪ": 3586,
      "il": 3587,
      "ĠáĪĪáĬ¥áĪŃáĪµáĭİ": 3588,
      "áĪŀáĬŃáĪ®": 3589,
      "ĠáĭĪáĪ«áīµ": 3590,
      "áĭįáĪ«": 3591,
      "áĬłáĭĬ": 3592,
      "ĠáĭĪáĭŃáĪµ": 3593,
      "ĠáĬ¥áĬķáĬ³áĬķ": 3594,
      "ĠáīģáĮ¥áĮ¥áĪŃ": 3595,
      "Ġáĭ¨áĮįáĪį": 3596,
      "áĪµáī°áĬĽáĭį": 3597,
      "ĠáĪĽáĪĪáīµĠáĬĲáĭįĠ": 3598,
      "Ġáī¥áĪĦáĪ«áĭĬ": 3599,
      "ĠáĭĪáĭ²áĪħ": 3600,
      "ĠáĬĲáĮĪáĪµáī³": 3601,
      "áĪĢáĭŃáĪį": 3602,
      "áīµĠáĪĪ": 3603,
      "áĪĿáĮ£áīµ": 3604,
      "áĮĪáĪ«": 3605,
      "áĪ¨áĮĪ": 3606,
      "ĠáĮĪáī¢": 3607,
      "áĬ©áĪŃ": 3608,
      "áīµĠáĬłáĭŃáĭ°": 3609,
      "Ġáī°áĪµáĪĽáĪļ": 3610,
      "ĠN": 3611,
      "áĬĲáĪµáī°áĬĽ": 3612,
      "ĠáĪĺáĬŃ": 3613,
      "áĪįáī£": 3614,
      "áĬĲáĬ«": 3615,
      "ĠáĬ¨áįĪáĪĪáĮī": 3616,
      "áīĢáĬĲáĪµ": 3617,
      "ĠáĬłáĭ«áĪµ": 3618,
      "ĠáĬ³": 3619,
      "áīµĠáĬĲáĭį": 3620,
      "áĪŃáī¶": 3621,
      "áĭµáĬĵ": 3622,
      "Ġáĭ¨áĪļáĮĪáĬĻ": 3623,
      "áĭ¨áĪģ": 3624,
      "áĪĨáĬĵáī¸áĭį": 3625,
      "áĪ«áĮ®áī½": 3626,
      "áĪµáī°áĭį": 3627,
      "Ġáī¥áĭĻáĪĿ": 3628,
      "áĬĴáĭ«": 3629,
      "ĠáīłáĪĽáĬķáĬĽáĭįáĪĿ": 3630,
      "Ġáĭ³áĭŃ": 3631,
      "ĠáĪĽáĪµáī³áĭĪáīĤáĭ«": 3632,
      "áīµáĬŃ": 3633,
      "áīłáĪ³": 3634,
      "áĪĢáĪĪáĪģ": 3635,
      "áĬĳĠ": 3636,
      "ĠáĪĢáĪ³áī¦áī½": 3637,
      "ĠáĮ«áĪĽ": 3638,
      "áĮ´": 3639,
      "Ġáī¸": 3640,
      "Ġáĭ¨áĮ¦áĪŃ": 3641,
      "áĮ¢áĬł": 3642,
      "ĠáīłáĬ¥áĭįáĬĲáīµ": 3643,
      "ĠáĬłáĭ°": 3644,
      "ĠáĮįáĪĿáĮĪáĪĽ": 3645,
      "áĪµáī°áĭ³": 3646,
      "Ġáĭ¨áĬłáĬķáĭµ": 3647,
      "ĠáĪı": 3648,
      "Ġáĭ¨áĭ©": 3649,
      "áĮ³": 3650,
      "ĠáĭŃáĮ¨": 3651,
      "áĭĪáĪµáĭ³": 3652,
      "ĠáĬ¥áĪģáĭµ": 3653,
      "áĮĭáī¢": 3654,
      "áįħáĬ¦": 3655,
      "ĠH": 3656,
      "Ġáĭ«áĪ¨áĮĭáĮį": 3657,
      "oo": 3658,
      "Ġáīłáĭĺ": 3659,
      "áĬĲáĭļáĭ«": 3660,
      "ĠáĭŃáĭŀ": 3661,
      "ĠáĪĪáĭĪ": 3662,
      "Ġáĭ¨áĪļáĪĨáĬĳ": 3663,
      "áĬķáĪĿĠ": 3664,
      "ĠáĪĺáĭµáĪĢáĬĴ": 3665,
      "áĪŃáĮįáĮ¥": 3666,
      "áĬ¨áĬĵáĭį": 3667,
      "ĠáįķáĪ®áĮĢáĬŃ": 3668,
      "áĪīáį£": 3669,
      "áĭİáī½áĬķĠáĬ¥áĬĵ": 3670,
      "ĠáĪļáĬĴáĪµáīµ": 3671,
      "áĬĵáĭŃáīµáĭµĠáĪµáī´": 3672,
      "]Ċ": 3673,
      "ĠáĬ¨áĪģáĪī": 3674,
      "Ġ[": 3675,
      "áįįáĪŃ": 3676,
      "áĬ«áįĪáĪį": 3677,
      "ĠáĪĽáĬķáīłáī¥": 3678,
      "ĠáĭĪáĪĪáĭ°": 3679,
      "ĠáĪıáĪĭáĭĬ": 3680,
      "ĠáĬłáĭ¨áĪŃ": 3681,
      "áĭ«áĪħ": 3682,
      "áĪ¨áĬ¨": 3683,
      "ĠáĬ¥áĬķáĭ°áĬĲáīłáĪŃ": 3684,
      "ĠáĮ¥áĪĭ": 3685,
      "áĭĻáĪªáĭ«": 3686,
      "ĠáĪĿáĪŃáĪĺáĪ«": 3687,
      "áĬĵáĭŃáīµáĭµĠáĪµáī´áīµáĪµ": 3688,
      "áĪĪáĬĿ": 3689,
      "ĠáĪĺáĪĪáĭ«": 3690,
      "áĪįáĭ«": 3691,
      "áī¸áĭįáĪĿ": 3692,
      "ĠáīµáĪ«": 3693,
      "ĠáĪĿáĪµáĪį": 3694,
      "ĠáĬ¥áī£áĬŃáĭİáĬķ": 3695,
      "áĪĭáĬŃ": 3696,
      "áĬĲáī±áĬķ": 3697,
      "Ġáīłáī°áĪĺáĪ³áĪ³áĭŃ": 3698,
      "ĠáĪĪáĪ°": 3699,
      "Ġáĭ«áĭ°áĪŃáĮĪ": 3700,
      "áĪ³áĭ©": 3701,
      "ĠáĪĪáĪĺáĮĢáĪĺáĪªáĭ«": 3702,
      "ĠáĪįáĭ©áĬĲáīµ": 3703,
      "Ġáĭ¨áĪħáĭĿáī¥": 3704,
      "áĪŃáĪ»": 3705,
      "áĭİáī»áī¸áĭį": 3706,
      "ĠáĪĭáĭŃĠáĬł": 3707,
      "áĪĢáĭĬ": 3708,
      "ĠáĪĺáĪįáĬ¥áĬŃáīµ": 3709,
      "ĠáīłáĪ½áī³": 3710,
      "áĪ³áĪ°áī¥": 3711,
      "ĠáĪµáĪĪáĪĽ": 3712,
      "ĠáĭµáĬķáīħ": 3713,
      "ĠáĬĭáĪĭ": 3714,
      "áĪ³áĪįĠ": 3715,
      "áīµĠáĬ¥áĬķáĭ²": 3716,
      "ĠáĬłáĪĿáĪĭáĬ«": 3717,
      "ĠáĪĪáĪĽáīħáĪ¨áī¥": 3718,
      "áĪ»áĪ»áĪį": 3719,
      "ĠáĬĲáī¢": 3720,
      "ĠáĪīáīĥ": 3721,
      "ĠáĪĿáī¹": 3722,
      "ĠáĬ¨áĪĭáĭŃ": 3723,
      "áĭĪáĮį": 3724,
      "áĪģáĬķáĪĿ": 3725,
      "ing": 3726,
      "Ġáĭ¨áĪĿáĪŃ": 3727,
      "ĠáĬŃáįįáĪĪ": 3728,
      "Ġáī£áĪĪáĪĻáĭ«áĭİáī½": 3729,
      "ĠáĪįáĮĦ": 3730,
      "ĠáīĢáĮł": 3731,
      "ĠáĪħáĮĭáĭĬ": 3732,
      "áĮĨáī¹": 3733,
      "Ġáĭ²áĭĽ": 3734,
      "ĠáįĢáĪĢáįĬ": 3735,
      "ĠáīłáĪµáĪ«": 3736,
      "áĪµáī¶": 3737,
      "áĪ³áĭ¨": 3738,
      "ĠáĪĪáĬ¥áĪ±": 3739,
      "ĠáĪĪáĪĿáĪ³áĪĮĠáĭ«áĪħáĪį": 3740,
      "ĠáĭŃáĮĪáī£áĪįĠ": 3741,
      "ĠáĮ¤áĬĵáĪĽ": 3742,
      "áīłáīµĠ": 3743,
      "áīĭáĪįĠ": 3744,
      "ĠáĪĿáĬķáĮŃ": 3745,
      "Ġáĭ¨áĪĺáĬķáĮįáĪµáīµ": 3746,
      "áĪĿáĬĳ": 3747,
      "ĠáĮ¡": 3748,
      "áĪ°Ġ": 3749,
      "áīĢáĪį": 3750,
      "ĠáĪµáĪĪáĪĺ": 3751,
      "áĪĮáĪĪáĭį": 3752,
      "áī¤áĪį": 3753,
      "Ġáĭ«áĮįáĬĻ": 3754,
      "ĠáĬĲáĭįĠáĭ¨": 3755,
      "ĠáĮ¥áĮĪáĬĵ": 3756,
      "ĠáĮĪáĭ¢": 3757,
      "Ġáĭ¨áĪĽáĭ«": 3758,
      "áį¦Ċ": 3759,
      "ĠáĪ¹": 3760,
      "áĪ¨áĮį": 3761,
      "áĭ³áīµ": 3762,
      "ĠáĪ°áĭİáī½áĬķ": 3763,
      "áĪĿĠáĬ¥": 3764,
      "áĭĪáĭ«": 3765,
      "ĠáĪĿáĬķĠáĬłáĭŃáĬĲáīµ": 3766,
      "ĠáĪĿáĬķĠáĪĽáĭµáĪ¨áĮį": 3767,
      "ĠáĬ¥áĬķáĭ²áĪħĠáĪ²áĪį": 3768,
      "Ġáĭ«áĪµáįĪáĪįáĮĭ": 3769,
      "áĪ¨áĮĭáĮĭ": 3770,
      "ĠáĬ©áī£áĬķáĭ«áĭİáī½": 3771,
      "áĪħáĬķĠáĬł": 3772,
      "ĠáĪµáĪĭáĪį": 3773,
      "áĬķáĮĪáĭµ": 3774,
      "áįĥáĪľ": 3775,
      "Ġáĭ¨áĮĪáĬķáĭĺáī¥": 3776,
      "áĭįáīģ": 3777,
      "áĭµáĪľ": 3778,
      "ĠáĪļáĪµáī°áĪŃ": 3779,
      "áĮłáĬĵáīĢ": 3780,
      "áĪŀáĬŃáĪ«áĪ²": 3781,
      "áīĥáĮłáĪį": 3782,
      "Ġáĭ¨áĭ³": 3783,
      "áĪ°áĬĵ": 3784,
      "ĠáĭĪáĪ«": 3785,
      "áĮĵáĮĵ": 3786,
      "áĭįáĪ®áįĵ": 3787,
      "ĠáīłáĪĨáĬĳ": 3788,
      "áĬĵáĪ½": 3789,
      "áĪħáĮį": 3790,
      "áĬŃáĪª": 3791,
      "ĠáĪ°áĪĽáĭŃ": 3792,
      "ĠáĪĭáĭŃĠáĪĪáĪĺ": 3793,
      "ĠáĬ¥áĬķáĮ¨": 3794,
      "áīĨáĭ¨": 3795,
      "ĠáĪĺáĪµáĪĺáĪŃ": 3796,
      "ĠáĬłáĭįáĪ®": 3797,
      "áī°áĪħ": 3798,
      "áĮłáĮ£": 3799,
      "áĪĿĠáįį": 3800,
      "ĠáĬ¨áĬ¥áĪŃáĪ±": 3801,
      "ĠáĪĿáĬķáĪĿĠáĬĲáĮĪáĪŃ": 3802,
      "ĠáĬłáīłáī£": 3803,
      "ĠE": 3804,
      "ĠáĬ¥áĪĪáīµ": 3805,
      "áī³áĬķ": 3806,
      "Ġáĭ¨áĪļáĮĪáī£": 3807,
      "ĠáĮĭáĪŃĠáĪĺ": 3808,
      "ĠáĪĺáĪįáĬ«": 3809,
      "áĭ°áĮĪáįį": 3810,
      "áĪĿĠáĪ°áĭį": 3811,
      "ĠáīħáĬķ": 3812,
      "áīĭáīĭáĪĿ": 3813,
      "ĠáĮ¢áĪŀ": 3814,
      "áĮĪáĭĻ": 3815,
      "áĪĬáĬŃ": 3816,
      "áīĥáĮł": 3817,
      "áĭĿáĮį": 3818,
      "ĠáīĢáĪĪ": 3819,
      "áīĭáĪ¨áĮ¥": 3820,
      "áī¥áĬĵáĪįĠ": 3821,
      "áĮĭáĮł": 3822,
      "áĪĭáĭįáĭ«": 3823,
      "ĠáĭĪáĮ£áī¶áī½": 3824,
      "áĪĪáīĨ": 3825,
      "Ġáī°áĪĽáĪª": 3826,
      "ĠáĬ¥áĬķáĭ³áĪĪáī¥": 3827,
      "ĠáĪĭáĭŃĠáĬ¨": 3828,
      "áĬķĠáīłáĪĻáĪī": 3829,
      "ĠáĪĪáĪĺáĪµáĮłáīµ": 3830,
      "ĠáīĢáĬķĠ": 3831,
      "áĮ¨áĭĭ": 3832,
      "Ġáĭ¨áĬ¥áĪ±": 3833,
      "Ġáĭ«áĬķáĬķ": 3834,
      "áĪ©áĪĿ": 3835,
      "áĮłáĭŃáīħ": 3836,
      "áĬŃáī¥áĪ®": 3837,
      "ĠáĬ¥áĪŃáĮįáĮ¥": 3838,
      "áĬĵáĭįáĭ«áĬķ": 3839,
      "ĠáĬłáĪĿáĪµáīµ": 3840,
      "ĠáĭĪáĭŃáĪĿĠáĬ¨": 3841,
      "áĬķáĪ°áĪŃ": 3842,
      "Ġáĭ«áĪĭ": 3843,
      "áĪ³áī¢": 3844,
      "ĠáĪĽáī³": 3845,
      "áī½áĪģáĬķ": 3846,
      "Ġáĭ¨áĪĿáĭµáĪŃ": 3847,
      "áĪ¸áĮ¥": 3848,
      "ĠáĬ¥áĭ«áĪĪ": 3849,
      "ĠáĬłáĬķáĪµáī¶": 3850,
      "áī°áĪĽ": 3851,
      "áīħáĪį": 3852,
      "Ġáī°áĪŃ": 3853,
      "ĠáĭįáĪµáĮ¥ĠáĭŃ": 3854,
      "áĪ°áĪ«áĭį": 3855,
      "áĮįáī£áīµ": 3856,
      "áĪ¨áĮĭáĮĪáĮ«": 3857,
      "ĠáĪĭáĭŃĠáĭ¨áī°áĪĺáĪ°áĪ¨áī°": 3858,
      "ĠáĪĿáĪµáĪ«áīħ": 3859,
      "áĮłáĪ¨áĭį": 3860,
      "ĠáĮįáĪĿáīµ": 3861,
      "áĭ°áĪ¨áĮĭ": 3862,
      "ĠáīłáĪĽáĪµ": 3863,
      "áĮĪáīł": 3864,
      "ĠáīĢáĬķĠáĬł": 3865,
      "ac": 3866,
      "áĮĪáīłáĭ«": 3867,
      "ĠáĬ¥áĬķáĭ³áĪī": 3868,
      "ĠáĪĪáī¥áĭĻ": 3869,
      "Ġáī°áĪĺ": 3870,
      "áĮłáī¢áĭ«": 3871,
      "áīĥáĪĪáĪģ": 3872,
      "áĪĻáĬķ": 3873,
      "áī¡Ġ": 3874,
      "áĮĢáĪĺáĪ¨": 3875,
      "áĮłáĭŃáīģ": 3876,
      "ĠáįįáĮ¥áĬĲáīµ": 3877,
      "áĬķáįĢ": 3878,
      "áĪµáīł": 3879,
      "áĪµáīłáĭį": 3880,
      "áĬĲáīĢ": 3881,
      "áĬłáĪĿ": 3882,
      "ĠáĬ¥áĬĵĠáĬł": 3883,
      "ĠáĪĺáĪµáįĪáĪŃ": 3884,
      "áĭ³áīłáĪŃ": 3885,
      "áįĥáįĪ": 3886,
      "Ġáī£áĪĪáī¤áīµ": 3887,
      "áĪ°áīĥ": 3888,
      "ed": 3889,
      "áĪĪáĮĭ": 3890,
      "áįĭáĬķ": 3891,
      "áī½áĬĭáĪįĠ": 3892,
      "ĠáĭĪáĮĪáĬĸáī½": 3893,
      "tp": 3894,
      "áĬķáĭĪ": 3895,
      "áĭ«áĭ£": 3896,
      "áīĥáī¸áĭį": 3897,
      "áĮĪáĬĵáĬĿ": 3898,
      "ĠáĬłáĬķáįĥ": 3899,
      "áĪ«áĪī": 3900,
      "ĠáĮįáĭĽ": 3901,
      "áĬķáĮįáĭ²áĪħ": 3902,
      "ĠáĪ¾": 3903,
      "Ġáī°áĬ¨": 3904,
      "áīłáīµĠáĭĪáīħáīµ": 3905,
      "ĠáĪĬáīĢ": 3906,
      "áĪµáĪį": 3907,
      "áĪµáī¶áī½": 3908,
      "áĬ«áĪŃ": 3909,
      "áĮįáīłáĪªáĭ«": 3910,
      "áĪĿáį¡áį¡Ċ": 3911,
      "Ġáĭ¨áĭŃáĪĨáĭĭ": 3912,
      "áĪĪáĪ½": 3913,
      "ĠáĪĽáĮ¥": 3914,
      "áĬĲáĪ³áĪ³": 3915,
      "Ġáī¥áĪĪáĭĭáĪįĠ": 3916,
      "ĠáĬķáĬ¡áĪµĠáĬłáĬķáīĢáįħ": 3917,
      "Ġáī°áĪ¸": 3918,
      "ĠáĮĪáĪĪ": 3919,
      "ĠáĬ«áĪħáĬĳ": 3920,
      "ĠáĪĺáī¥áīµ": 3921,
      "wĠ": 3922,
      "ĠáīłáĭĽáĪ¬áĭįĠáĮĬáĭľ": 3923,
      "áĭ°áīł": 3924,
      "Ġáī¥áĭĻáĭİáī½": 3925,
      "ĠáīłáĭļáĪħĠáĬłáĭĭáĮħ": 3926,
      "ĠáĬłáī¥áĪ¨áĭį": 3927,
      "ĠáĪĿáĬķáĪĿĠáĬ¥áĬķáĬ³áĬķ": 3928,
      "ĠáĬłáĪ®": 3929,
      "áĪĬáĬĵ": 3930,
      "ĠáĪĽáĪħáīłáĪ¨áĪ°áī¥": 3931,
      "ĠáĮħ": 3932,
      "áįĪáįĢáĪĻ": 3933,
      "áĭİĠáĭįáĪµáĮ¥": 3934,
      "Ġáī°áĮłáīħ": 3935,
      "áĮĢáĬķáĪ²": 3936,
      "ĠáĮİáĭ³áĬĵ": 3937,
      "áĪŃáĭ«áīµ": 3938,
      "Ġáī¡áĭµáĬĸáī½": 3939,
      "áī½áĪīáīµ": 3940,
      "áī£áī½áĬķ": 3941,
      "áĬ¥áĪĿ": 3942,
      "ĠáĬ¥áĬĵĠáīłáĬł": 3943,
      "ĠáĭĿáĬĵ": 3944,
      "ĠáĭĭáĪµáīµáĬĵ": 3945,
      "ĠáĭĪáĬķáĭµáĪĿ": 3946,
      "ĠáįįáįģáĪĿ": 3947,
      "áĬķáĬ©": 3948,
      "áĭŃáĭĿ": 3949,
      "ĠáīĢáĪĪáĪĿ": 3950,
      "Ġáī¤áīµĠáĬł": 3951,
      "ĠáĭįáĮ¤áīµ": 3952,
      "ĠáĬ®áĪļáī´": 3953,
      "áĭįáĪĢ": 3954,
      "Ġáĭ¨áĭĺ": 3955,
      "áĪªáĭį": 3956,
      "Ġáī°áĪ³": 3957,
      "ĠáĮ¥áīł": 3958,
      "ĠáĪĿáĬŃáĬķáĭ«áī¶áī½": 3959,
      "ĠáĪĪáĬ¥áĬĽ": 3960,
      "http": 3961,
      "ĠáĬłáī¥áĪŃáĪĢ": 3962,
      "áĭ«áĭ«áĭĻ": 3963,
      "áĭįáĬĲáīµ": 3964,
      "áĬ¨áī°áĪĪáĭį": 3965,
      "áĬ«áī£áī¢áĭį": 3966,
      "áĪĽáĪįĠ": 3967,
      "Ġáĭ¨áĬłáī£": 3968,
      "áĭ¬áĬķ": 3969,
      "ĠáĪŀáī°": 3970,
      "ĠáĬ¥áĭįáīĢáīµ": 3971,
      "áĮĪáĭ³": 3972,
      "ĠáĭµáĪį": 3973,
      "áĭĮáĪŃ": 3974,
      "Ġáĭ¨áĪĨáĬĳáīµ": 3975,
      "ĠáĬ¢áĭ«áĪ±": 3976,
      "Ġáĭ¨áĬ¦": 3977,
      "ĠáīłáĪħáĭŃáĭĪáīµ": 3978,
      "ĠáĪľáĭ³": 3979,
      "áĬĲáĭ³": 3980,
      "áĪ°áīµ": 3981,
      "ĠáĪĽáĪħáīłáĪ«áĭĬ": 3982,
      "áīłáĪ¨áī³áī³": 3983,
      "Ġáĭ¨áĮ¤áĬĵ": 3984,
      "ĠáĪĿáĬŀ": 3985,
      "ĠáĪĻáĬ¨áĪ«": 3986,
      "ĠáĪļáĬĵ": 3987,
      "is": 3988,
      "ĠáĪĺáĪĢ": 3989,
      "áĮ¥áīħ": 3990,
      "Ġáĭ«áĬ«áīµ": 3991,
      "áī¶áī¼": 3992,
      "áĬ«áĪĦáĭµ": 3993,
      "ĠáĬłáī£áĪĭ": 3994,
      "ĠáĪµáī¥áĪµáī¥": 3995,
      "ĠáīłáįįáĮ¥áĬĲáīµ": 3996,
      "áī¥áĪį": 3997,
      "ĠáĪĿáĪħ": 3998,
      "Ġáĭ¨áĪļáĭ«áĪ³áĭŃ": 3999,
      "áĮİáĭ³": 4000,
      "ĠáīĢáĭµáĪŀ": 4001,
      "ĠáĪĿáĬĵáĪįáī£": 4002,
      "áĭŃáĬĵáĬķáĪµ": 4003,
      "áĪįáīłáīµ": 4004,
      "áī¥áĪħ": 4005,
      "áĬłáĭĽ": 4006,
      "áĪ³áĬķĠáĪĺ": 4007,
      "áĭ³áĪļ": 4008,
      "Ġáĭ¨áī°áĪ³": 4009,
      "áĪŀáī±": 4010,
      "Ġáĭ°áĬķáī¥": 4011,
      "ĠáĬĲáĮ¥": 4012,
      "ĠáĪĺáĪįáĬł": 4013,
      "áĪ°áĬĲ": 4014,
      "áĮĢáĪĿáĪŃ": 4015,
      "áĪĭáĪįáīħ": 4016,
      "áĮįáĭĽáīµ": 4017,
      "áĪ³áĪªáĭ«": 4018,
      "Ġáī°áĬĲ": 4019,
      "áįħáĪĦ": 4020,
      "ĠáĪįáī³": 4021,
      "ĠáĬĲáīłáĪŃĠáĬ¥áĬĵ": 4022,
      "ĠáĬ¥áĪŃáĪ»": 4023,
      "ĠáĪļáĭ²áĭ«": 4024,
      "áĮĪáĬĺáĪģ": 4025,
      "Ġáĭ°áĬķáīł": 4026,
      "as": 4027,
      "ĠáĬłáĪµáī°áĭ«áĭ¨áīµ": 4028,
      "ĠáĪĺáĭ°áīłáĬĽ": 4029,
      "áī£áĪĪáĭį": 4030,
      "áĪĺáī»": 4031,
      "áĪĭáĪĭ": 4032,
      "ĠáĬ¥áĬķáĭ³áĭ«": 4033,
      "áĮĪáĪĪáĮįáĪį": 4034,
      "áĪĭáĪĪáįį": 4035,
      "ĠáĬłáĬķáĭ°": 4036,
      "ĠáĬ¨áĭ«áĪħáĭĮ": 4037,
      "ĠáĬ¥áĬķáĭ²áĪĨáĬĳ": 4038,
      "áĭĺáī°": 4039,
      "ĠáĬ¥áĬĵáĭ°áĪŃáĮĭ": 4040,
      "Ġáī¥áī»ĠáĬĲáĭįĠ": 4041,
      "áī½áĬĭáĪį": 4042,
      "ĠáīĢáĭ°áĪĿĠáĪ²áĪį": 4043,
      "áĭįáĬĵ": 4044,
      "ĠáĬĲáĪħ": 4045,
      "áī¦áī¹": 4046,
      "ĠáĪĻáĭļáīĥ": 4047,
      "áĪĭáĪµ": 4048,
      "áĪįáĬ«": 4049,
      "Ġáĭ«áĭ°áĪ¨áĮĪ": 4050,
      "áĭİáī½ĠáĭįáĪµáĮ¥": 4051,
      "ĠáĮ¥áīĥáīµ": 4052,
      "ĠáĬķáĮįáĮįáĪŃ": 4053,
      "ĠáĬłáĪħ": 4054,
      "áĮĭáĭŃ": 4055,
      "ĠáĮ¥áīģáĪŃ": 4056,
      "ĠáĪĨáĬĵ": 4057,
      "áĪ°áĮłáĭįáĬķ": 4058,
      "áĭ·áĪįĠ": 4059,
      "áĪ«áī¢áĭ«": 4060,
      "áĭĭáīµ": 4061,
      "áīģáĪĿ": 4062,
      "ĠáĪĨáĭŃáį¥": 4063,
      "ĠáĪ³áĪĿáĬķáīµ": 4064,
      "áī°áĬĿáĬĲáīµ": 4065,
      "ĠáĪ¨áĮħáĪĿ": 4066,
      "áĪ¹áĪ«áĬķáĪµ": 4067,
      "ĠáĬłáĬķáī¥áī¥Ġ": 4068,
      "ĠáĮĭáĭľáĮ£": 4069,
      "ĠáĬ¥áĮį": 4070,
      "áĬ¨áĪ©": 4071,
      "ĠáĪ°áī£áīµ": 4072,
      "Ġáī¥áĪ©": 4073,
      "ĠáĪ²áĪĨáĬĳ": 4074,
      "Ġáīłáī°áĪĪáĭ«áĭ©": 4075,
      "áĭİáī½áĬķĠáĭŃ": 4076,
      "ĠáīĢáĪ¨": 4077,
      "áĭ®áĬķ": 4078,
      "ĠáĪĺáĪĨáĬķĠáĬłáĪĪáīłáīµ": 4079,
      "ĠáĪĪáĪĺáĮĢáĪĺáĪªáĭ«ĠáĮĬáĭľ": 4080,
      "áĬľ": 4081,
      "áĪ«áĪ´": 4082,
      "Ġáī°áĪŀáĬŃáĪ®": 4083,
      "ĠáīµáĪįáīģ": 4084,
      "ĠáĬ«áĪħáĬĵ": 4085,
      "áĪĽáĪ©": 4086,
      "ĠáĭįáĮª": 4087,
      "áĮĪáĪĪáĮįáĪī": 4088,
      "áĪ³áĬ¤": 4089,
      "ĠáĪ³áĬ¦áĪį": 4090,
      "áĬķáĮįáĪµáīµ": 4091,
      "ĠáĬłáĪ«áīµ": 4092,
      "áĪĨáĬķáĬ©": 4093,
      "ĠáĭµáĪŃáĪ»": 4094,
      "áįĴáī³áĪį": 4095,
      "ĠáīĤ": 4096,
      "áī£áĪī": 4097,
      "ĠáĪ°áĮª": 4098,
      "áĪĿĠáīłáĭļáĪħ": 4099,
      "ĠáĭĺáĪĭ": 4100,
      "ĠáĪĺáįħáĪĢ": 4101,
      "áĭ°áĪ±": 4102,
      "áī³áĭĪáīħ": 4103,
      "Ġáī³áĪĽ": 4104,
      "ĠáĪļáĬĴáĪµáī´": 4105,
      "áĬĵáĮį": 4106,
      "áĪİáĪĿ": 4107,
      "ĠáĬłáĭįáĪ«": 4108,
      "áĪĿĠáĮĬáĭľ": 4109,
      "áįĪáĮłáĪŃ": 4110,
      "ĠáĮ¥áĪª": 4111,
      "ĠáĬ¥áĮģ": 4112,
      "ĠáīłáĪļáĭ«áĪµ": 4113,
      "ĠáĬ¨áĭļáĭ«ĠáīłáĬĭáĪĭ": 4114,
      "ĠáĬłáĪĽáĪ«áĮŃ": 4115,
      "ĠáĮĪáĪįáĮ¿áĪįĠ": 4116,
      "ĠáīłáĮ£": 4117,
      "ĠáĭĪáĭĺáī°": 4118,
      "ĠáĭŃáĪĺáĪµáĪĭáĪįĠ": 4119,
      "ĠáĬ¥áĬķáĭ²áĪħĠáĭ«áĪĪ": 4120,
      "áĬ¢áīµáĭ®áĮµáĭ«": 4121,
      "ĠáĪĿáĪŃáī¶áī½": 4122,
      "ĠW": 4123,
      "ĠáĪĪáī¥": 4124,
      "ĠáĬ¥áĬķáĭ°áĪĿáĬķ": 4125,
      "ĠáĬłáĪµáĪŃ": 4126,
      "ĠáĬ¨áĬ¥áĪ±ĠáĮĭáĪŃ": 4127,
      "ĠáĬłáĭĿ": 4128,
      "ĠáĪĺáĪµáĪ«": 4129,
      "áĬ¥áĭµ": 4130,
      "áĭĬáĭ«": 4131,
      "áĪĿĠáīłáĪĽ": 4132,
      "Ġáĭ«áĪįáĪĨáĬĳ": 4133,
      "áįĮáĭ´": 4134,
      "Ġáĭ¨áĬ¢áĭ¨áĪ±áĪµ": 4135,
      "ĠáĭĪáĪ¨áīĢ": 4136,
      "ĠáīłáĪŃáĪµ": 4137,
      "áī¶áī»áī½áĪģ": 4138,
      "Ġáĭ¨áĪĺáĬªáĬĵ": 4139,
      "ĠáĪĺáĪĦáĭµ": 4140,
      "áĭµáĪ©": 4141,
      "áĮīáĭŀ": 4142,
      "áīłáīµĠáīĢáĬķ": 4143,
      "ĠáĪ¨áĭµ": 4144,
      "áĪŃáĭ³áĬĸáĪµ": 4145,
      "áĬķĠáĪģáĪī": 4146,
      "áĪŃáįį": 4147,
      "áĪĪáī±": 4148,
      "áįķáĪª": 4149,
      "Ġáĭ¨áĪħáĬŃáĪĿáĬĵ": 4150,
      "áĭ³áĪĿ": 4151,
      "ĠáįĪáĪŃ": 4152,
      "áĮ´áĭĽ": 4153,
      "Ġáĭ¨áĬ¨áī°áĪĽ": 4154,
      "áĪĪáĪĿĠáĬłáīĢáįį": 4155,
      "ĠáĬłáĭŃáĪģáĭ³": 4156,
      "áīģĠ": 4157,
      "ĠáĪµáĪ«ĠáĬłáĪµ": 4158,
      "áĮįáĭĽ": 4159,
      "áīĢáĪĭáĪī": 4160,
      "áĮ£áĬĿ": 4161,
      "ĠáĬ¥áĬķáĭ°áĪĺ": 4162,
      "ĠáĭĪáĭ°ĠáĪĺ": 4163,
      "áĬķáĬ®": 4164,
      "áīµáĬŃáĪį": 4165,
      "Ġáĭ¨áįĭ": 4166,
      "ĠáīłáĬ®": 4167,
      "ĠáĪĪáĪĽáĬķ": 4168,
      "ĠáĪĢáĮĪáĪŃ": 4169,
      "áīĨáĭ©": 4170,
      "áīµáĬķĠáĪĪáĪĺ": 4171,
      "áĬķáĭ°áĪŃ": 4172,
      "ĠáĪľáīµáĪŃ": 4173,
      "ĠáĬ¥áĬķáĮįáĭ³": 4174,
      "áĭįáĮŃ": 4175,
      "áĪĿĠáĭ¨áī°": 4176,
      "Ġáĭ¨áĭĭ": 4177,
      "áĮłáĬķáīĢ": 4178,
      "ĠáĪĪáĬ¥áĬĲáĪ±": 4179,
      "ĠáĬłáīħáĮ£áĮ«": 4180,
      "ĠáĪĢáĭĭáĪŃáĭ«áĭį": 4181,
      "áĬ¨áįĬ": 4182,
      "Ġáī¥áĪ«": 4183,
      "ĠáĬŃáĪĬ": 4184,
      "ĠáĬ«áĪįáĪĨáĬĲ": 4185,
      "Ġáī°áĮ«áĭĭ": 4186,
      "áĬķáī£": 4187,
      "áĪĽáĪ¨": 4188,
      "ĠáĬķáĭµáįį": 4189,
      "áĭ°áĮĭáĮĭáĪļ": 4190,
      "ĠáįķáĪ¬áĭļ": 4191,
      "áĬķĠáĬ¥áĬķáĭ²": 4192,
      "ĠáīłáĭµáĬķ": 4193,
      "ĠáĮįáī¥áĪŃ": 4194,
      "áĪĿĠáīłáĮ£áĪĿ": 4195,
      "Ġáĭ¨áĪļáĭ«áĭ°áĪŃáĮį": 4196,
      "ĠáĪĪáĪĽáĪµáī°": 4197,
      "áĬĲáĬĽ": 4198,
      "ĠáĪĽáīĨ": 4199,
      "áĪ¸áįį": 4200,
      "ĠáĪģáĪīáĪĿĠáĪ°áĭį": 4201,
      "ĠáĮįáĭ´áī³": 4202,
      "áĪĿáį¥": 4203,
      "áĪµáĮĭ": 4204,
      "ĠáĭĪáĪ³": 4205,
      "áĪ³áĭŃáĭ«áĪµ": 4206,
      "áīĢáĪĺáĮ¡": 4207,
      "áĭ°áĪ°áī±": 4208,
      "ĠáĬĲáīł": 4209,
      "áī¢áĭ«áĭį": 4210,
      "ĠáĬłáĬķáĭ³áĬķáĭ¶áī¹": 4211,
      "wwwĠ": 4212,
      "Ġáīłáī¥áĭĻ": 4213,
      "áī¥áīħ": 4214,
      "ĠáīłáĪĺáĪĭáĭį": 4215,
      "Ġáīħáįħ": 4216,
      "áī´áĪĮ": 4217,
      "le": 4218,
      "áĪµáĪĪ": 4219,
      "ĠáĮĪáĪįáįĢ": 4220,
      "áĪĿáįĴáĭį": 4221,
      "Ġáĭ¨áĭŃ": 4222,
      "ĠáĬłáĭ²áĪ±": 4223,
      "Ġáĭ¨áĪļáįĪáĪįáĮī": 4224,
      "ĠáĪļáĭĽ": 4225,
      "áĪĿáĪħáĪŃ": 4226,
      "ĠáĬ¥áĬķáĭ³áĪįáĪĨáĬĲ": 4227,
      "ĠáĭĪáī³áĭ°áĪ®áī½": 4228,
      "ad": 4229,
      "ĠáĬłáĪ°áĪ«áĪŃ": 4230,
      "ĠáĭįáĪµáĮ¥Ġáī°": 4231,
      "áĮĬáĭľáĭį": 4232,
      "ĠáĭĪáī³áĭ°áĪ«áĭĬ": 4233,
      "ĠáĭŃáĪĨáĬĵáĪīĠ": 4234,
      "áįĪáī°": 4235,
      "ĠáĭįáĪµáĮ¥Ġáĭ«áĪī": 4236,
      "áĬ¨áī°áĪī": 4237,
      "Ġáĭ³áĬķ": 4238,
      "áī°áĬĽáĭįĠáĬłáĪĿáĪĭáĬŃ": 4239,
      "Ġáĭ¨áĭ«áĪħáĭĮĠáĪĿáĪµáĬŃáĪ®áī½": 4240,
      "ĠáĪĽáĪµáī³áĭĪáĪ»": 4241,
      "ĠáĬ¥áĬĵĠáĭ¨áĪĺ": 4242,
      "ĠáīµáĪĨáĬĵ": 4243,
      "ĠáĭĪáĪŃáīħ": 4244,
      "ĠáĮĪáĭ°áĪĽ": 4245,
      "ĠáīĥáĪĭáīµ": 4246,
      "ĠáĬłáĪįáĬĲáīłáĪ¨áĪĿĠ": 4247,
      "ion": 4248,
      "ĠáĬłáĭĽ": 4249,
      "áĪĺáī³": 4250,
      "ĠáĪĺáĮłáīĢáĪĿ": 4251,
      "ĠáĪĪáĪĮáĪİáī½": 4252,
      "ĠáĬ¥áĬķáĭ²áĪħĠáĬłáĪĭáī¸áĭį": 4253,
      "ĠáīµáĪŃáĬ¢": 4254,
      "ĠáįĭáĭŃ": 4255,
      "áĭįáĭ«áĬĳ": 4256,
      "áĪĿáĬķáĪĿ": 4257,
      "áĮįáĪª": 4258,
      "áīłáī³áĪį": 4259,
      "áĭİáī½ĠáĭŃ": 4260,
      "áī»áĪĪáĭį": 4261,
      "áĬķĠáīłáĮ£áĪĿ": 4262,
      "áĬķĠáīłáĬĭáĪĭ": 4263,
      "ĠáĪħáĬķáįĥ": 4264,
      "ĠáīłáĬ¥áĬĽ": 4265,
      "áĭįáĬķĠáīł": 4266,
      "ĠáĬĲáĮĪáĪŃĠáĮįáĬķĠáĬł": 4267,
      "áĬŀáī»áī½áĬķ": 4268,
      "ĠáįĬáīµĠáĪĪ": 4269,
      "áįĲáĪŃ": 4270,
      "ĠáĬ¨áĪĺáĪĨáĬĳáĪĿĠáĪĮáĪĭ": 4271,
      "ĠáĬĲáĭįáį¡áį¡": 4272,
      "ĠáĪħáĪį": 4273,
      "Ġáī¤áīµĠáĪĺ": 4274,
      "ĠáįĢáĪĢáĭŃ": 4275,
      "ĠáĪªáįĸáĪŃ": 4276,
      "Ġáĭ¨áīłáĪĭáĭŃ": 4277,
      "ĠáĪ²áĪĨáĬķĠáīł": 4278,
      "ĠáīħáĮ£": 4279,
      "áĮĪáĬĵáĬĻ": 4280,
      "Ġáī°áĪ°áĮ¥": 4281,
      "ĠáĪ°áĪĪáĪŀ": 4282,
      "áĭ¨áĬł": 4283,
      "ĠáīłáĪĺáĮłáīĢáĪĿ": 4284,
      "ĠáĭįáĪµáĮ¥ĠáĬ¨": 4285,
      "ĠáĪħáĮĪ": 4286,
      "áĬ³áī¸áĭį": 4287,
      "ĠáĪŀáĮĪáĪµ": 4288,
      "áīµĠáĬĲáĭįĠ": 4289,
      "áĪĪĠ": 4290,
      "áĮĢáĪĿ": 4291,
      "ĠáĬłáĬķáįĥáĪŃ": 4292,
      "áĮĩ": 4293,
      "ĠáĪĪáĮ¥": 4294,
      "áīĥáĪī": 4295,
      "áĬĿáī³": 4296,
      "ĠáīµáĪĭ": 4297,
      "ĠáĬ¥áĭ¨áĪ°áĪ«": 4298,
      "ĠáĬłáĬķáīĢáįħĠáĬķáĬ¡áĪµĠáĬłáĬķáīĢáįħ": 4299,
      "áīĢáīłáĪī": 4300,
      "áīµáĪį": 4301,
      "áīµáĪĿáĪħáĪŃáīµ": 4302,
      "ĠáĬĲáīłáĪŃáį£": 4303,
      "ĠáĮīáī¥áĬĿ": 4304,
      "áĭĪáĪ°áĭ±": 4305,
      "ĠáĬłáĪµáī°áĭ³": 4306,
      "ĠáĮłáĮħ": 4307,
      "ĠáīłáĭļáĪħĠáĪĺáĬķáĮĪáĭµ": 4308,
      "ĠáĬ¥áĬĲáĭļáĪħĠáĪ°áĭİáī½": 4309,
      "Ġáī¤áī°áĪ°áī¦áī½": 4310,
      "áī¸áĭĭáĪĪáĪģ": 4311,
      "ĠáĬłáĬķáĭ²áīµ": 4312,
      "ĠáĬ¨áĮĬáĭľĠáīłáĬĭáĪĭ": 4313,
      "áįĪáĪª": 4314,
      "áĮłáīłáīģ": 4315,
      "áĪĢáĭŃáĪĽáĬĸ": 4316,
      "Ġáĭ¨áĪĪáĭįáĪĿĠ": 4317,
      "áĭĪáĪį": 4318,
      "ĠáĪĿáĪŃáĪĿáĪŃ": 4319,
      "ĠáĬ¨áī°áĪĽáĭĭ": 4320,
      "ĠáĪĺáĪĨáĬĵáī¸áĭįáĬķ": 4321,
      "áĪ³áīģ": 4322,
      "ĠáĬŃáĪħ": 4323,
      "áĬĲáīłáĪ©áīµ": 4324,
      "Ġáī°áĭĪáĭ³áĮħ": 4325,
      "áĪĺáĬŃ": 4326,
      "áĮ£áī¸áĭį": 4327,
      "ĠáĪĽáĪ¨áĮĭáĮĪáĮ«": 4328,
      "áĮ¨áĪĺáĪ¨": 4329,
      "áĪĬáĬķ": 4330,
      "áīµĠáį£": 4331,
      "áĬ¸áĭį": 4332,
      "áī§áĪįĠ": 4333,
      "ĠáĪĽáĬķáĪĿĠáĪ°áĭį": 4334,
      "áĮĪáĪĪáįĢáĭį": 4335,
      "áīµáĬŃáĬŃáĪį": 4336,
      "ĠáĬ¥áĬķáįĪáĪįáĮĭ": 4337,
      "ĠáĬ¥áĬķáĭ°áĪļáĪĨáĬķ": 4338,
      "ĠáĬ¨áĭļáĭ«áĪĿĠáīł": 4339,
      "ĠáĪŀáĭ´": 4340,
      "Ġáĭ¨áĪļáįĪ": 4341,
      "ĠáĪĽáĭŃ": 4342,
      "Ġáī¢áĬĸáĪŃ": 4343,
      "ĠáĮłáīħĠáĭ«áĭµáĪŃáĮī": 4344,
      "ĠáĬłáĬĵ": 4345,
      "áĪĮáīµ": 4346,
      "áĪĮáĬŃáīµáĪªáĬŃ": 4347,
      "áĭįĠáĮĮáī³": 4348,
      "Ġáī¥áĪĪáĪħ": 4349,
      "ĠáĪĢáĭŃáĪĪáĬĽ": 4350,
      "áĬĲáĪµáī¶": 4351,
      "ĠáĬ¥áĪĪ": 4352,
      "ĠáīłáĬŃ": 4353,
      "ĠáĪĺáĭį": 4354,
      "ĠáĭŃáĪģáĭ³": 4355,
      "áĪ³áĪ°": 4356,
      "ĠáĬ¥áĬķáĭ²áĪħĠáī¥áĪıáĪį": 4357,
      "ĠáīłáĪļáīĢáĮ¥áĪĪáĭį": 4358,
      "ĠáīłáĪĺáĬķáįĪáĪµ": 4359,
      "áĬķĠáĭ¨áĪĺ": 4360,
      "ĠáĪĺáĬĸáĪªáĭ«": 4361,
      "Ġáĭ«áĭ°áĪ¨áĮĪáĭį": 4362,
      "áĭĿáĮĪáī£": 4363,
      "áįĨáī³": 4364,
      "Ġp": 4365,
      "áĪĭáĪ³": 4366,
      "ĠáīµáĭįáĪįáĭµ": 4367,
      "ĠáĭĪáĭ°ĠáĬ¥áĪ±": 4368,
      "áĪĿĠáīłáĪļ": 4369,
      "ĠáĬķáīģ": 4370,
      "ĠáīĨáĪŃ": 4371,
      "ĠáįĢáĪİ": 4372,
      "ĠáĪģáĪĪáī±áĪĿ": 4373,
      "ĠáĬłáĮĭáĮ£áĪļ": 4374,
      "Ġáĭ¨áĭįáĪĢ": 4375,
      "áīĢáĪĺáĮ«": 4376,
      "ĠáĬłáĭ°áĪŃáĮĭáĪĪáĪģ": 4377,
      "Ġáĭ©áĬĴáī¨áĪŃáĪ²áī²": 4378,
      "áī¥áĪµ": 4379,
      "áĪ½áĬĳ": 4380,
      "áĮĪáĪįáĮĪ": 4381,
      "ĠáĬłáĪĺáĪ«áĪŃ": 4382,
      "ĠáĪŃáĭĿ": 4383,
      "áĪģáĪĪáī°áĬĽ": 4384,
      "áĬ¨áī³áī°áĪį": 4385,
      "áĭĪáĭĿ": 4386,
      "Ġáī¥áĪĪáĬķ": 4387,
      "áĪĨáĬķáĬŃ": 4388,
      "áĬĽáĭįáĪĿĠáĭ¨": 4389,
      "ĠáĬłáĭŃáĭ°áĪĪ": 4390,
      "ĠáįĢáĮĭ": 4391,
      "ĠáĭĺáĪĺáī»": 4392,
      "áĬĲáīĥ": 4393,
      "ĠáĪħáĭ«áĭį": 4394,
      "ĠáĮłáī£áīĤ": 4395,
      "ĠáĭµáĬķáĮĭáĭŃ": 4396,
      "th": 4397,
      "ĠáĬ¥áĬ©áĪį": 4398,
      "ĠáĬłáĬ¥áĪĿáĪ®": 4399,
      "áĭ°áĬŀáī½": 4400,
      "áīĢáĭ¨áĪŃ": 4401,
      "ĠáīłáĭļáĪħáĪĿ": 4402,
      "áīĢáĪŃáī£áĪį": 4403,
      "ĠáĬłáįĪáįĥáįĢ": 4404,
      "Ġáĭ¨áĪļáĪĨáĬķ": 4405,
      "áįħáĭµáīħ": 4406,
      "ĠáĬ¥áĬķáĪĺáĪįáĬ¨áīµĠ": 4407,
      "áįĬáĬŃ": 4408,
      "ĠáĬ¢áīµáĭ®áĮµáĭ«": 4409,
      "áĭ«áĬ¥áīĨáī¥": 4410,
      "ĠáĬ¥áĬĵĠáĭ¨áī°": 4411,
      "áĪªáīµ": 4412,
      "áĭ³áĭŃ": 4413,
      "ĠáĬĲáĭįáĬĵ": 4414,
      "ĠáĪĭáĭŃĠáīłáĪĺ": 4415,
      "áĮłáīĢáĪĽ": 4416,
      "ĠáĬłáĪĭáĭįáīħ": 4417,
      "áį¦ĠâĢĺ": 4418,
      "áĭ°áĪµáī³": 4419,
      "ĠáĭŃáĬĸ": 4420,
      "áīĢáĬķ": 4421,
      "ĠáĪĭáĪĪ": 4422,
      "ĠáĬ¨áĭļáĪħĠáīłáī³áī½": 4423,
      "ĠáīłáĮ£áĪĿĠáĬłáĪµáįĪáĪĭáĮĬ": 4424,
      "ĠáĭµáĬķáĮĭáĮĮ": 4425,
      "ĠáīłáĪĻ": 4426,
      "áĪ«áĭį": 4427,
      "ĠáĬłáĪĪáĪĿĠáĬłáīĢáįį": 4428,
      "ĠáĪµáĪįáĮ£áĬķ": 4429,
      "ĠáĬ¨áĪļáĭ«": 4430,
      "ĠáĭŃáĪĦáĭ³": 4431,
      "Ġáĭ¨áī°áĪ°": 4432,
      "áĪĮáĪĭáī¸áĭį": 4433,
      "ĠáĬŃáĪµ": 4434,
      "ĠáĬķĠáĬłáĬķáī¥áī¥Ġ": 4435,
      "Ġáĭ³áĮįáĪĺáĬĽ": 4436,
      "ĠáĭĪáĪ³áĬĿ": 4437,
      "Ġáī¤áīµĠáīł": 4438,
      "Ġáīłáĭļáĭ«áĬķĠáĮĬáĭľ": 4439,
      "ĠáĬ«áĪįáī°": 4440,
      "áĪ¨áįĬáĭ«": 4441,
      "áĮĭáĪį": 4442,
      "ĠáĭŃáĪĺáĪµáĪĪáĬĽ": 4443,
      "ĠáĭįáĭµáĭµáĪŃ": 4444,
      "ĠáĮ¨áĭĭáī³áĭİáī½": 4445,
      "ĠáīłáĬ¥áĭįáĬĲáī±": 4446,
      "ĠáĬ¨áĪŀ": 4447,
      "Ġáĭ¨áĪļáĮł": 4448,
      "ĠáĪħáĮİáī½": 4449,
      "ĠáĬłáī¥áĪ®": 4450,
      "áĮĪáĬĲáī£": 4451,
      "áĭ°áĪ°áīµ": 4452,
      "ĠáĪĽáĪµáī°áĭĭáĪį": 4453,
      "ĠáĪµáĭµáĪµáīµ": 4454,
      "áĬĵĠáīłáĬł": 4455,
      "áĪ¨áĬĽ": 4456,
      "áīĢáĭĿ": 4457,
      "ĠáĪĽáĭį": 4458,
      "áĭ³áī¥": 4459,
      "Ġáĭ³áĭŃáĪ¬": 4460,
      "áĪĿĠáĮĭáĪŃ": 4461,
      "áĭŃáī±": 4462,
      "áĪ¨áī³": 4463,
      "ĠáĬ«áĪīáīµ": 4464,
      "ĠáĬłáĬķáĭ³áĬķáĭ¶áī½": 4465,
      "ĠáĬ¥áĪ«áĪµ": 4466,
      "ĠáīłáĭįáĪµ": 4467,
      "áĬĸáī¹": 4468,
      "Ġáĭ°áĪĿ": 4469,
      "ĠáĪĬáĪ¨áĭ³": 4470,
      "áĬ®áĬķ": 4471,
      "ĠáĪĽáĬ¥áĬ¨": 4472,
      "Ġáĭ«áĪĺáĮ£": 4473,
      "ĠáĭĪáĬķáĭĿ": 4474,
      "ĠáĪĪáĬłáĬķáī°": 4475,
      "Ġáī°áĭ°áĪŃ": 4476,
      "Ġáĭ¨áī°áĪŀáĪĭ": 4477,
      "áįĭáĭĬ": 4478,
      "áĪ¨áĬķáĪ³áĭŃ": 4479,
      "Ġáĭ¨áĪħáĮį": 4480,
      "áĭįáĭį": 4481,
      "áĭµáĪµ": 4482,
      "áī»áĪĪáĪģĠ": 4483,
      "áī¡áĪŃ": 4484,
      "ĠáĪĢáĬª": 4485,
      "áįįáĮ¥áĪ¨áīµ": 4486,
      "Ġs": 4487,
      "áĭįáĪŀ": 4488,
      "Ġáĭ°áī¡áī¥": 4489,
      "ĠáĭįáĪµáĮ¥ĠáĪĺ": 4490,
      "áĭĺáĭĻ": 4491,
      "áīµĠáĬłáĪĪáī¥": 4492,
      "áīµáĬķáĬĵ": 4493,
      "ĠáĪģáĪīáĪĿĠáĬĲáĮĪáĪŃ": 4494,
      "áĬĲáĬł": 4495,
      "áį£Ġáĭ¨áĬł": 4496,
      "áĮ¨áĪĿáĪŃ": 4497,
      "áĪ½áĬ¨áĪŃáĬ«áĪª": 4498,
      "áĪĪáĭĪáĮ¥": 4499,
      "ĠáĬ¨ĠáīłáĪĭáĭŃ": 4500,
      "ĠáĬ¢áĬķáĭ±áĪµáīµáĪª": 4501,
      "áĪµáī³áĭĪáĪµ": 4502,
      "ĠáĪ½áĪįáĪĽ": 4503,
      "áĮ¥áĪį": 4504,
      "áĬķáĮįáĪĬáĭĿ": 4505,
      "áĪµáī¥áĪ°áī£": 4506,
      "áĭ°áĪ¨áĮīáīµ": 4507,
      "áĪĺáĪĪáĬ¨áī°áĭį": 4508,
      "ĠáīłáĪĮáĪĭĠáīłáĬ©áĪį": 4509,
      "Ġáī°áĬ¨áī³áī³áĭŃ": 4510,
      "ĠáĮĬ": 4511,
      "áĭĪáĪ©": 4512,
      "áĮ£áĪįĠ": 4513,
      "ĠáĪĽáĮ£": 4514,
      "áĬ«áĪĦáĭ°": 4515,
      "ĠáĪĢáĭ«": 4516,
      "ĠáĪµáĪ«áĭįáĬķ": 4517,
      "áįĵáĪŃ": 4518,
      "ĠáĪ²áī£áĪį": 4519,
      "ĠáĭµáĪħáĪ¨": 4520,
      "ĠáīĨáĪ®": 4521,
      "Ġáī¥áĪİáĮį": 4522,
      "Ġáīłáĭ©": 4523,
      "áĪĽáĪĽáĬĿ": 4524,
      "áī£áī¸áĭĭáĪįĠ": 4525,
      "áĬķĠáīłáĪĭáĭŃ": 4526,
      "ĠáĬłáĪĺáī±": 4527,
      "ĠáĬ¥áĬķáĭ´áīµĠáĪĺ": 4528,
      "ĠáĬ¨áī¥": 4529,
      "ĠáĬ¨áįĬ": 4530,
      "áī³áĬĿ": 4531,
      "áĪµáī°áĭ«": 4532,
      "ĠáĪĿáĬŃáĬķáĭ«áī³áĭĬ": 4533,
      "ĠáĪĿáĬ¥áĪ«áįį": 4534,
      "áĭĪáĭ°áĭį": 4535,
      "áĭĭáĪĪáĪģĠ": 4536,
      "ĠáĬ®áĪŃ": 4537,
      "ĠáĪĺáĪŃáĬ¨": 4538,
      "áĭĪáĪŃáīħ": 4539,
      "áī£áĪħáĪŃ": 4540,
      "Ġáĭ«áĭĺ": 4541,
      "áĪªáĪµ": 4542,
      "ĠáĪ°áĬķ": 4543,
      "áĬĿáĪĿ": 4544,
      "ĠáīĥáĪĭ": 4545,
      "ĠáĬłáĭĭáīĤ": 4546,
      "Ġáī°áĪĺáĪįáĬ«": 4547,
      "ĠáĬ¨áī³": 4548,
      "áįįáĪŃáĭµ": 4549,
      "Ġáī³áĪµ": 4550,
      "áįİáĪŃ": 4551,
      "áĭĪáĪ°áĭ°": 4552,
      "áĮĪáĬķáī£áīµ": 4553,
      "Ġáī£áĪĪáĪµáĪįáĮ£áĬĵáīµ": 4554,
      "áĪĿáī£": 4555,
      "áĭ³áĪŃĠáĮĵáĭ°áĬĽ": 4556,
      "áī½áĭįáĬķ": 4557,
      "ĠáĪĪáĪģáĪīáĪĿ": 4558,
      "áĮĢáīµ": 4559,
      "Ġáĭ«áĪĪáĬķ": 4560,
      "áĪ°áĪĽáĭį": 4561,
      "ĠáĪ«áĪ³áī¸áĭįáĬķ": 4562,
      "áīĢáĪ¨áīłáĭį": 4563,
      "áīłáĪ«": 4564,
      "áĮ¥áįĭ": 4565,
      "áĭİĠáĪĭáĭŃ": 4566,
      "ĠáĬ¥áĬĵĠáĪĺ": 4567,
      "ĠáĬ¥áĬĵĠáĭĪáĭ°": 4568,
      "áīĥáī¥áĪŃ": 4569,
      "ĠáĮĪáįĨáī½": 4570,
      "áĪ¸áĬ¨": 4571,
      "áīłáĪ©áīµ": 4572,
      "ĠáĪĿáĬŃáĪŃĠáī¤áīµ": 4573,
      "áī£áī±": 4574,
      "áĮłáįī": 4575,
      "Ġáĭ¨áĪļáĪ°áĪ«": 4576,
      "ĠáįĪáĮ£": 4577,
      "ĠáĪĽáĪ»áĪ»áĭ«": 4578,
      "ĠáĬĶ": 4579,
      "ĠáĬ¥áĪ«": 4580,
      "áīłáĭĽ": 4581,
      "ĠáįĪáĪ¨": 4582,
      "ĠáĬ¥áī£áĬŃáĪħ": 4583,
      "ĠáĪħáĪĬáĬĵ": 4584,
      "ĠáĬ¢áĪ³áĭŃáĭ«áĪµ": 4585,
      "áįĢáĪį": 4586,
      "ĠáĬ¨áĬ¥áĬķáĮįáĭ²áĪħ": 4587,
      "áĬ³áĪŃ": 4588,
      "áįĪáīĥáĭµ": 4589,
      "áĬķáīĥáīĦ": 4590,
      "ĠáĪħáĪĺáĪĿ": 4591,
      "áĪĿĠáī¢áĪĨáĬķ": 4592,
      "áĮĭáĮ£áĪļ": 4593,
      "ĠáĪĭáĬ¨": 4594,
      "ĠáĮĪáĬķáĭĺ": 4595,
      "áĪĦáĭ°áĭį": 4596,
      "ĠáĭŃáī½áĪĭáĪįáį¡áį¡Ċ": 4597,
      "áĭ°áĬķáīħ": 4598,
      "áīłáĪī": 4599,
      "áĬŃáĪ®": 4600,
      "ĠáĪĭáĪĪáĭį": 4601,
      "áīłáĪŃáĬ«áī³": 4602,
      "áīģáĮ¥": 4603,
      "Ġáī£áĪįáĬķáĮĢ": 4604,
      "ĠáĬ¥áĪŃáĪµĠáīłáĪŃáĪµ": 4605,
      "áĮįĠ": 4606,
      "ĠáĪįáĪĽáīµ": 4607,
      "ĠáĪĨáĬĹ": 4608,
      "áĭ°áĬķáīł": 4609,
      "ĠáīłáĪĭ": 4610,
      "ĠáĬĲáĮĭ": 4611,
      "ĠáĪĽáĭ¨": 4612,
      "Ġáĭ°áĪħáĬķ": 4613,
      "ĠáĬ¨áĭļáĭ«ĠáīłáĪĭáĭŃ": 4614,
      "áĪıáĪį": 4615,
      "ĠáĮĪáįħáī³": 4616,
      "ĠáĬ¥áĮįáĪŃ": 4617,
      "áĭ«áĭŃ": 4618,
      "áį£ĠáīłáĬł": 4619,
      "ĠáīłáĬ¥áĮħ": 4620,
      "ĠáīłáĬ¥áĬĲáĪ±": 4621,
      "ĠáĪĿáĪįáĬŃáīµ": 4622,
      "áĬķĠáĬ¨áĪĺ": 4623,
      "ĠáĬ¥áĪ³": 4624,
      "ĠáĪĭáĪī": 4625,
      "ĠáĮĬáĭľĠáĭįáĪµáĮ¥": 4626,
      "áįĭáĭŃ": 4627,
      "Ġáĭ¨áĪĿáĪµ": 4628,
      "ĠáīħáĪŃáĬķáĮ«": 4629,
      "áįķáĪ®áĮĢ": 4630,
      "áĪŃáĪĿáĭ«áĪµ": 4631,
      "ĠO": 4632,
      "ĠáĪ°áĭİáī¹": 4633,
      "áĮĪáĪĪáįģ": 4634,
      "ĠáĭĪáĭŃáĪĿĠáĪĪ": 4635,
      "ĠáĬłáĪµáī£": 4636,
      "ĠáĬ¥áĬķáĭ³áīµ": 4637,
      "Ġáĭ«áĪ³áĭ«áĪįĠ": 4638,
      "ĠáĮ¥áĪŃáĮ¥áĪŃ": 4639,
      "áĬķáīº": 4640,
      "áĪĭáĪĿ": 4641,
      "áĮĪáī¢": 4642,
      "ĠáĪĭáĭŃĠáĬ¥áĬķáĭ²": 4643,
      "ĠáĭįáĪµ": 4644,
      "áĭĬáĭ«áĭį": 4645,
      "áĪ½áĬĲáīµ": 4646,
      "ĠáĪĿáĬķĠáĬ¥áĬķáĭ°áĪļ": 4647,
      "ĠáĬ¥áĬķáĭ²áĪħĠáĬłáĭŃáĬĲáīµ": 4648,
      "ĠáĪļáĪµáĮ¥": 4649,
      "Ġáĭ¨áĭĪáĭ°": 4650,
      "áĪĤáĪ³áī¥": 4651,
      "ĠáĬłáī¥áĭĽáĬŀáī¹": 4652,
      "ĠáĭŃáĪĨáĬĵáĪī": 4653,
      "áĬĵáįĬ": 4654,
      "Ġáī£áĪħáĪį": 4655,
      "ĠáīłáĬ¥áĭ«áĬķáĭ³áĬķáĭ±": 4656,
      "ĠáĬłáĪµáī¸áĮĭáĪª": 4657,
      "ĠáĪĺáĭĿáĪĻ": 4658,
      "ĠáĬłáĮĪáĪįáĮĭáĭŃ": 4659,
      "ĠáĪīáīĥáĪµ": 4660,
      "áĪĪáĭĭáĪį": 4661,
      "Ġáī°áĭ°": 4662,
      "Ġáī°áī¥": 4663,
      "ĠáĬ¥áĬĵĠáĭ¨áĬł": 4664,
      "ĠáĬŃáĬķ": 4665,
      "Ġáī¤áīµĠáĭ¨": 4666,
      "ĠáĬłáĪĪáī£áī¸áĭį": 4667,
      "áĪĪáĭ«áĭ¨": 4668,
      "ĠáĬ¥áįĪáĪįáĮĭáĪĪáĪģ": 4669,
      "ĠáīłáĮŃ": 4670,
      "áĬĲáī´": 4671,
      "áįĪáĪįáĮĭáī¸áĭį": 4672,
      "ĠáĬ³áĪµ": 4673,
      "áĪµáĭĭáĬ¥": 4674,
      "áĬĲáī¥": 4675,
      "áī´áĭİáĪµ": 4676,
      "ĠáĬłáĪĺáīµĠáĭ¨": 4677,
      "ĠáĬ¤áĮĢáĬķáĪ²": 4678,
      "áīĢáĪĭáīĢ": 4679,
      "áįĪáĬķ": 4680,
      "ĠáįįáįĥáĪľ": 4681,
      "ĠáĭµáĬķáĬ³áĬĳ": 4682,
      "Â«": 4683,
      "áĪħáĬķáĪĿ": 4684,
      "Ġáĭ¨áĪµáĬĲ": 4685,
      "áī¨áĪµáīµ": 4686,
      "ĠáĪĽáĬ¥áĬ¨áĪį": 4687,
      "ĠáĪĤáĭ°áīµ": 4688,
      "ĠáĬ¥áĭĪáĭ³áĪĪáĪģ": 4689,
      "áĪįáĪĽáīµ": 4690,
      "áĪ¨áĮł": 4691,
      "áĬ¢áĭ¨áĪ±áĪµ": 4692,
      "ĠáĪĿáĪµáĮĭáĬĵ": 4693,
      "Ġáĭ¨áĬ¢áīµáĭ®áĮµáĭ«": 4694,
      "ĠáĪ°áĪ«áī°": 4695,
      "áĪŃáĬ«áī³": 4696,
      "ĠáĬ¨áĪĮ": 4697,
      "áī³áĪŃ": 4698,
      "áįįáĪ¨áīµ": 4699,
      "Ġáī°áĮłáīĥáĪļ": 4700,
      "ĠáĪĿáĬķĠáĬł": 4701,
      "áĭ°áĪ¨áĮĥ": 4702,
      "áĬĵáįį": 4703,
      "áĬĲáĭ°": 4704,
      "áįĥáįĪáĭį": 4705,
      "ĠáĭĪáĪµáĭ¶": 4706,
      "ĠáĪĺáĮĢáĪĺáĪªáĭ«ĠáĪĭáĭŃ": 4707,
      "ĠáĬ¥áĮ£": 4708,
      "ĠáĬ¥áįħ": 4709,
      "ĠáīłáĮī": 4710,
      "áĮłáĬŀáī½": 4711,
      "ĠáĪĪáĪĺáĪµáĪ«áīµ": 4712,
      "ĠáīħáĮĤ": 4713,
      "Ġáī¥áĪĦáĪ«áīµ": 4714,
      "áĬķĠáĪ²": 4715,
      "ĠáĪĺáĪªáĭİáī½": 4716,
      "áī¥áī»": 4717,
      "ĠáĪĪáĪĢ": 4718,
      "áĮīáīµ": 4719,
      "ĠáĬłáĭįáĮ¥": 4720,
      "ĠáĪĻáĪ´áĬķ": 4721,
      "áĮ«áĭĪáīµ": 4722,
      "ĠáĪ°áĭŃáĮ£": 4723,
      "ĠáĬłáĪĺáĪĪáĬ«áĬ¨áīµ": 4724,
      "ĠáĪĺáĮįáī¢áĭ«": 4725,
      "ĠáīĥáĪįĠáĬªáĭ³": 4726,
      "áĬķĠáĮ¨áĪĿáĪ®": 4727,
      "ĠáĭŃáįĪ": 4728,
      "áĪĺáĮ£áĭį": 4729,
      "áįıáĪįĠ": 4730,
      "Ġáĭ¨áī¤áī°": 4731,
      "ĠâĢĻ": 4732,
      "ĠáĮĢáĪŃáī£": 4733,
      "áĮłáīĥáĪļáĭİáī½": 4734,
      "Ġáī¤áī°áĪ°": 4735,
      "ĠáĪģáĪīáĬķáĪĿĠáĬĲáĮĪáĪŃ": 4736,
      "áĭĪáĪ°áĬĲĠáĮĬáĭľ": 4737,
      "áĭ°áĪ©": 4738,
      "ĠáĪĽáīħáĪ¨áī¥": 4739,
      "áīĢáĪŃáīłáĭį": 4740,
      "ĠáīłáĪŀ": 4741,
      "áĭİáī½áĬķĠáĪĺ": 4742,
      "ĠáīłáĬ¥áĮįáĭļáĬłáī¥áĪĦáĪŃ": 4743,
      "ĠáĪµáĪŃáĬłáī¶áī½": 4744,
      "ĠáĬ¥áĭµáĮĪáīµ": 4745,
      "ĠáĪĦáĭ°Ġ": 4746,
      "áĪ¨áĪĿ": 4747,
      "ĠáĮ¥áįĭáīµ": 4748,
      "ĠáĭĺáĮį": 4749,
      "ĠáĭĺáĭŃáīµ": 4750,
      "ĠâĢľâĢĺ": 4751,
      "ĠáĪĺáīħáĭ°áĪ±": 4752,
      "ĠáĭŃáīħáĪŃáī³": 4753,
      "áĪĿĠáĬłáĭŃ": 4754,
      "ĠáĮīáĭµáĮĵ": 4755,
      "ĠáĮ¨áĪŃ": 4756,
      "Ġáį£Ġáĭ¨": 4757,
      "áĪĻáĪµ": 4758,
      "ĠáĪªáįĸáĪŃáīµ": 4759,
      "ri": 4760,
      "áĭ°áīłáĬĽ": 4761,
      "ĠáĪ³áĭ«": 4762,
      "áĪįáĬĵ": 4763,
      "áĪ±áīµ": 4764,
      "ĠáĪĪáĪĺáĮłáīłáīħ": 4765,
      "áĪĺáĪĪáĬ¨áī³": 4766,
      "ĠáīĭáĪļ": 4767,
      "ĠáĭĺáĭŃáī¤": 4768,
      "áĭĪáĬķáĭµ": 4769,
      "Ġáĭ¨áĪļáī³": 4770,
      "áĪĻĠ": 4771,
      "áĭĪáĪ°áĬķ": 4772,
      "ĠáĪĺáĮłáīłáīħ": 4773,
      "Ġáĭ°áĬķáīłáĬŀáī½": 4774,
      "ĠáĬ¥áĪŃáĪµĠáīłáĪŃ": 4775,
      "ĠáĭĺáĪĭáīĤ": 4776,
      "ĠáĭĪáĭ°ĠáĬ¥áĬĶ": 4777,
      "áĪĮáĮħ": 4778,
      "ĠáĬłáĬķáĭµáĬĲáīµ": 4779,
      "áį¥Ġáīł": 4780,
      "ĠáĬłáĪµáī°áĪ³áĪ°áī¥": 4781,
      "ĠáīĢáĮ¥áĪİ": 4782,
      "ĠáĪĺáĪµáĭĭáĬ¥áīµ": 4783,
      "ĠáĪĭáĭŃĠáĪĽ": 4784,
      "ĠáĭŃáĪħĠáĬĲáĭį": 4785,
      "ĠáĪįáĮĨáī»áī½áĪģ": 4786,
      "áĮĵáĭ´": 4787,
      "ĠáĪĺáĮłáĭ¨": 4788,
      "ĠáĮłáīħáĪĭáĭŃ": 4789,
      "ĠáįķáĪ®áĮįáĪ«áĪĿ": 4790,
      "áĭĽáī¥": 4791,
      "ĠáĪĮáĭĭ": 4792,
      "áįĲáī¥": 4793,
      "ĠáĬĲáįįáĪµ": 4794,
      "áįĸáĪĬáĪµ": 4795,
      "áĪŀáī¹": 4796,
      "áĬ¤áĪĿ": 4797,
      "Ġáĭ¨áĪĿáĪŃáīµ": 4798,
      "Ġáĭ«áĪĪáīłáīµ": 4799,
      "ĠáĪĪáĬ¥áĭ«áĬķáĭ³áĬķáĭ±": 4800,
      "áĪĺáĪŃáĪĺáĪŃ": 4801,
      "ĠáĬ¥áĬķáĭ´áīµĠáĬ¥áĬķáĭ°áĪĨáĬĲ": 4802,
      "ĠáĬ¥áĬĽáĪĿ": 4803,
      "áĪįĊ": 4804,
      "ĠáĪĽáĪ«": 4805,
      "Ġáĭ¨áī°áĪ¨": 4806,
      "ĠáĪĿáĪŃáĮ¡": 4807,
      "áĬķĠáĪĪáĪĽáĪµ": 4808,
      "áĪ¨áĮĭáĮĪáĮł": 4809,
      "ĠáĭŃáĭĺáĭį": 4810,
      "ĠáĪµáĬĵ": 4811,
      "ĠáĪĭáĭŃĠáĭ«áĪĪáĭįáĬķ": 4812,
      "áĮĢáĪŃ": 4813,
      "ĠáĭŃáĪ°áĮ£áĪįĠ": 4814,
      "áįĥáĪħáįį": 4815,
      "áĪĽáĪµ": 4816,
      "áįįáĪªáĬ«": 4817,
      "ĠáĬ¢áĬ®áĬĸáĪļ": 4818,
      "áīłáĪ¨áĭ¶": 4819,
      "áĮĪáĪŃĠáĭįáĪµáĮ¥": 4820,
      "áĮĪáĬĺáĭįĠáĭ¨": 4821,
      "ĠáĪŃáīĢ": 4822,
      "ĠáĪĺáĪįáĬłáĬŃ": 4823,
      "áĭ±áĪŃ": 4824,
      "áĮĵáĭĻ": 4825,
      "áĪĺáĪµáĪ¨áīµ": 4826,
      "ĠáĪ°áĮ¥áī¶": 4827,
      "ĠáĪĺáĬĵáĮĪáĪŃ": 4828,
      "áĭĭáĮŃ": 4829,
      "áįĢáĭ«": 4830,
      "áĪ¨áĬķáĮĵáĭ´": 4831,
      "ĠáĬĲáĬķ": 4832,
      "áĭİáī¼": 4833,
      "áīĢáĬĵ": 4834,
      "áī±áĬķĠáĬł": 4835,
      "áīĥáĭŃ": 4836,
      "ĠáĪĬáĬĸáĪŃ": 4837,
      "Ġáĭ«áĪĪáįĪ": 4838,
      "áĪįáīł": 4839,
      "áĬŃáĪĭ": 4840,
      "áĪģáĬķĠ": 4841,
      "áĬ«áĪĽ": 4842,
      "Ġáĭ¨áī°áĮłáīłáīĢ": 4843,
      "ĠáĭŃáĪħáĬķĠáĬł": 4844,
      "áīµĠáīłáĭļáĪħ": 4845,
      "áīĨáĮ¥": 4846,
      "ĠáĪĨáĬĳ": 4847,
      "áĭĪáĪµáĭ±": 4848,
      "ĠáĪĺáī°áĮįáīłáĪªáĭ«": 4849,
      "áĬķáī¶": 4850,
      "Ġáī¥áīģ": 4851,
      "ĠáĪįáĬĵ": 4852,
      "ĠáĪŃáĬ¥áĪ°": 4853,
      "Ġáī¥áĪĪáĭĭáĪį": 4854,
      "ĠáĭŃáĬĸáĪŃáī¥áĬĵáĪįĠ": 4855,
      "Ġáī°áĮłáĭ«áīĤ": 4856,
      "áĬķĠáĬ¥áĬķ": 4857,
      "áīĢáĪ©": 4858,
      "ĠáĪĽáĪ°áī¥": 4859,
      "ĠáĬłáĭµáĪŃáĮĮ": 4860,
      "ĠáĪĿáĪµáĪİáī½": 4861,
      "ĠáīłáĪ°áĪĽáĭŃ": 4862,
      "áĪĪáĪµ": 4863,
      "Ġáĭ«áĬĲáĪ°": 4864,
      "ĠáīłáĬ¥áĪŃáĪ±": 4865,
      "ĠáĪŀáīµ": 4866,
      "ĠáĪ¸áĪĪáīĨ": 4867,
      "ĠáĭŃáĪĨáĬĵáĪįáį¡áį¡Ċ": 4868,
      "ĠáĪĿáĪįáĬŃáī¶áī½": 4869,
      "ĠáĭµáĪ¨ĠáĮĪáįħ": 4870,
      "áĬķáī³áĭĬ": 4871,
      "ĠáĭŃáīĢáĮ¥": 4872,
      "Ġáĭ¨áī°áĪ°áĪ©": 4873,
      "ĠáĪĪáĪĺáįįáĮłáĪŃ": 4874,
      "áīµĠáĭ¨áĪĿáĬķ": 4875,
      "Ġáĭ¨áĬ¥áĪŃáĪµ": 4876,
      "Ġáĭ°áĪµĠáĭŃ": 4877,
      "áĪĿáĪĪ": 4878,
      "Ġáĭ¨áĪħáĭŃáĭĪáīµ": 4879,
      "ĠáĬłáĪĬáĭ«": 4880,
      "áĮłáĬĲ": 4881,
      "áī»áĪī": 4882,
      "ĠáĮłáĪ¨": 4883,
      "áĮ£áĪī": 4884,
      "áĭĿáīĥ": 4885,
      "áĬĶáīµ": 4886,
      "ĠáīłáĬ¥áĬĵáĬķáī°": 4887,
      "áĪ°áĪĽáī¸áĭį": 4888,
      "ĠáįĵáĪŃáī²": 4889,
      "Ġáĭ¨áĪ½": 4890,
      "áĪĪáĪŃ": 4891,
      "áīĨáĪŃ": 4892,
      "áĮĪáĪįáįĥ": 4893,
      "ĠáĬłáĪµáī°áĭĭáįħáĬ¦": 4894,
      "áĪ«áī¸áĭįĠ": 4895,
      "áī£áĭŃáĪį": 4896,
      "áĮĪáĬĲáĭĺáī¥": 4897,
      "áĮĪáīµ": 4898,
      "Ġáī¥áĪĦáĪŃ": 4899,
      "ĠáīĢáĬķĠáĭ¨": 4900,
      "ĠáĪµáĪĪáĪļáĭ«": 4901,
      "Ġáĭ¨áĪĨáĬĲĠáĬĲáĮĪáĪŃ": 4902,
      "Ġáĭ¶áĬŃáī°áĪŃ": 4903,
      "ĠáĮ©": 4904,
      "ĠáĪĺáįį": 4905,
      "áĪ¨áĮ¡": 4906,
      "áį£áĭ¨": 4907,
      "ĠáīĢáĬĿ": 4908,
      "áīµáĬķĠáĪģáĪī": 4909,
      "Ġáįįáīµ": 4910,
      "áĪĿáįħ": 4911,
      "áĪĿĠáĬĲáīłáĪŃĠ": 4912,
      "ĠáĪĿáĬĵ": 4913,
      "áĪ·áĪįĠ": 4914,
      "áĬ¨áī°áĪĽáĭĭ": 4915,
      "áįĢáĭ«áįĬ": 4916,
      "lo": 4917,
      "áĮ¥áįİ": 4918,
      "áĭ³áī½áĪģ": 4919,
      "ĠáĪħáĮī": 4920,
      "ĠáĪįáĮĨáī½áĬķ": 4921,
      "ĠáĬłáĬķáī°áĪĿ": 4922,
      "áĪĿáį¡áį¡": 4923,
      "Ġáĭ¨áĪ³": 4924,
      "Ġáĭ¨áīĢáĭµáĪŀ": 4925,
      "áĪįáĬ«áĪĿ": 4926,
      "áĬ«áįį": 4927,
      "ĠáīłáĪĽáĭŃ": 4928,
      "áĪ°áīłáĪ°áī¡": 4929,
      "ĠáĬ¥áĪŃáĪ±áĪĿ": 4930,
      "áī¥áĭĽáĬĽáĭį": 4931,
      "ĠáĬłáĪĪáīłáīµĠ": 4932,
      "ĠáīłáįĢ": 4933,
      "ĠáĮģ": 4934,
      "ĠáīłáĪĿáĭµáĪŃĠáĪĭáĭŃ": 4935,
      "áĬķáĮĭ": 4936,
      "áį£ĠáĪĺ": 4937,
      "ĠáĮįáĮŃ": 4938,
      "ĠáĭĪáĭ°áĭļáĪħ": 4939,
      "ĠáĬ¨áĬ¥áĪµáĪ«áĬ¤áĪį": 4940,
      "Ġáĭ¨áĬĲáīłáĪ¨áĭįáĬķ": 4941,
      "áī³áĭĪáīĢ": 4942,
      "áĮįáĪµáīµ": 4943,
      "ĠáĪĪáĪļáĭ«": 4944,
      "áīħáĭ«áĪµ": 4945,
      "ĠáĬĲáĭįĠáĬ¨": 4946,
      "ĠáĬłáī£áīµ": 4947,
      "ĠáĬłáįįáĪªáĬ«": 4948,
      "áĭĪáĪĪáĭ°": 4949,
      "áĭĬáīµĠáĮĮáī³": 4950,
      "Ġm": 4951,
      "ĠáĬ¡": 4952,
      "ĠáīµáĪĭáĪįáīħ": 4953,
      "áĪĺáĪįáĬ¨áī»": 4954,
      "ĠáĬłáĪīáīµĠ": 4955,
      "Â»Ċ": 4956,
      "áĮłáĬĿ": 4957,
      "ĠáĪ³áĮ¥": 4958,
      "Ġáĭ«áĪµáįĪáĪįáĮį": 4959,
      "áīĢáĮ¥áĪį": 4960,
      "áĪŀáĬŃáĪ©": 4961,
      "áĪįáĬ¥áĬ®": 4962,
      "ĠáĪĺáĪĨ": 4963,
      "Ġáĭ«áĭĪáĮ£": 4964,
      "áĬĲáĭįáĬķ": 4965,
      "Ġáī¢áĪĨáĬĳ": 4966,
      "ĠáīłáĮ£áĪĿĠáĭ¨áī°": 4967,
      "áĪ°áĪĽáĬĿ": 4968,
      "Ġáī¤áīµĠáĭįáĪµáĮ¥": 4969,
      "ĠáĬ¥áĬķáĭ²áĭ«áĭ°áĪŃáĮī": 4970,
      "ĠáīłáĪĨáĬĲĠáĪĺáĬķáĮĪáĭµ": 4971,
      "ĠáĭĮ": 4972,
      "ĠáĬłĠáĪĿ": 4973,
      "áĬłáĭŃ": 4974,
      "ĠáĬ¥áĭ¨áĮ¨áĪĺáĪ¨": 4975,
      "Ġáĭ¨áī°áī£áĪĪáĭį": 4976,
      "ĠáĪ°áĭŃáįį": 4977,
      "áĬĲáīłáī¥": 4978,
      "ĠáĬ¨áĮį": 4979,
      "ĠáįįáĮ¥áĪ¨": 4980,
      "Ġáĭ¨áĪĨáĬĳáīµáĬķ": 4981,
      "ĠáĬłáĭ°áĪŃáĮĭáĪĪáĪģĠ": 4982,
      "ĠáĬłáī¤áī±": 4983,
      "ĠáįĶ": 4984,
      "ĠáĬŃáĪ¬": 4985,
      "ĠáĮĪáĬķáĭ³": 4986,
      "ĠáĬ¨áĪĺáĮĢáĪĺáĪªáĭ«": 4987,
      "ĠáĬ¥áĭįáīħáĬĵ": 4988,
      "áĬ¬áīµ": 4989,
      "áĬķĠáīµ": 4990,
      "Ġáĭ¨áĮĪáī£": 4991,
      "Ġáĭ¨áī°áĮłáīĢ": 4992,
      "áī±ĠáĪĭáĭŃ": 4993,
      "áīµĠáĬłáĪĪáīłáīµ": 4994,
      "áīµĠáĭ¨áĪĿáīµ": 4995,
      "áĬ¨áĬĵáĭĪáĬķ": 4996,
      "Ġáīµáī½áĪĭáĪĪáĪħ": 4997,
      "ĠáĬłáĭµáĪ«áĪ»": 4998,
      "Ġáī¥áī³": 4999,
      "ĠáĭĪáĭ°ĠáĬ¢": 5000,
      "ĠáīĢáĪµ": 5001,
      "áĬ®áĪŃ": 5002,
      "áĪ°áī¥áĬ©": 5003,
      "ĠáĪ«áĪ³áī½áĬķ": 5004,
      "áĭĪáĮ£áīµ": 5005,
      "áĬĲáĮĪáĪ¨": 5006,
      "ĠáīłáĪĮ": 5007,
      "ĠáīłáĪ°áĭį": 5008,
      "áį£Ġáĭ¨áĪĺ": 5009,
      "áĭİáī½ĠáĮĭáĪŃ": 5010,
      "áĮĨáī»áī¸áĭį": 5011,
      "ĠáĬĴáĭį": 5012,
      "Ġáĭ¨áī¦": 5013,
      "ĠáĬ¥áĬĵĠáĪĪáĪĺ": 5014,
      "ĠáĭĪáĭ°áĭļáĭ«": 5015,
      "ĠáĮĪáĭ°áī¥": 5016,
      "ĠáĪĽáĪħáīłáĪ¨": 5017,
      "ĠáĬ¢áĭ®áī¥": 5018,
      "ĠáīµáĬĵáĬķáĪ½": 5019,
      "áĭįáĭµ": 5020,
      "Ġáĭ¨áĪĽáĪµ": 5021,
      "ĠáĪĿáĬķĠáĬ¥áĬķáĭ°áĪĨáĬĲ": 5022,
      "ĠáĮīáĭ³áĭ®áī½áĬķ": 5023,
      "ĠáĪµáĪħáī°áīµ": 5024,
      "áīµĠáĬłáĪĽ": 5025,
      "Ġáĭ¨áĭįáĮŃ": 5026,
      "ĠáĬ¥áĬķáĭ²áĭ«áĭįáĪĿ": 5027,
      "ĠáĮĢáĪĺáĪŃĠ": 5028,
      "ĠáĪ³áĪĻáĬ¤áĪį": 5029,
      "ĠáĬ¥áĭ«áĬķáĭ³áĬķáĭ³áī¸áĭį": 5030,
      "áĮ¥áįĭáīµ": 5031,
      "Ġáī£áĪŃ": 5032,
      "áĪ®áĬķáī¶áĪµ": 5033,
      "áĪ«áĪ¨áī¥": 5034,
      "ĠáĭŃáī£": 5035,
      "áĪ³áĪ½": 5036,
      "ĠáĭŃáĪħĠáĪ°áĭį": 5037,
      "Ġáĭ¨áĭ«áĪħáĭĮáĬķ": 5038,
      "áĬķáĮ¨": 5039,
      "ĠáīłáĬĲ": 5040,
      "áĮłáĪªáĭ«": 5041,
      "áĬķáĪĿĠáĪĨáĬĲ": 5042,
      "Ġáĭ¨áĪļáĭ«áĪĿáĪŃ": 5043,
      "ĠáĬłáĪµáīĢáĭµáĪŀ": 5044,
      "áĭĪáĪ°áĭµ": 5045,
      "áĭŃáĬķĠáĮłáĮħ": 5046,
      "ĠáĭŃáĬĵáĮĪáĪ«áĪįĠ": 5047,
      "áĬķáįĢáī£áĪ¨": 5048,
      "ĠáĬłáĭ¨": 5049,
      "ĠáĬłáĮŃáĪŃ": 5050,
      "áĬĲáī¶áī½áĬķ": 5051,
      "áĭ³áĪ¨": 5052,
      "ĠáĬ¥áĬķáĭ³áĪĪáīłáīµ": 5053,
      "ĠáĬ¤áĪŃáĪĿáĭ«áĪµ": 5054,
      "áī¤áī°áĪ°": 5055,
      "Ġáįİáī¶áĮįáĪ«": 5056,
      "áĬķáĮİ": 5057,
      "Ġáĭ¨áĪĭáīĢ": 5058,
      "ĠáĬłáĪĿáĪĭ": 5059,
      "áĬŃáīłáĪŃ": 5060,
      "áīĢáĭ±": 5061,
      "áīµĠáĬłáīħ": 5062,
      "ĠáĬłáĭŃáī½áĪī": 5063,
      "ĠáĬ¥áĬķáĭ²áĪģáĪĿĠáĬł": 5064,
      "áĪ³áĭŃáĬķáĪµ": 5065,
      "áĭĺáĮĭáĮĥ": 5066,
      "ĠáĮĨáĪ®": 5067,
      "ĠáĬ¥áĪµáĪ«áĬ¤áĪĭáĭįáĭ«": 5068,
      "Ġáīłáĭ°áĬķáī¥": 5069,
      "ĠáĪĽáĪĢ": 5070,
      "Ġáĭ¨áī°áĭĪáĪ°áĬĳ": 5071,
      "áī¥áĪ¨áī°": 5072,
      "om": 5073,
      "ĠáĮ®": 5074,
      "áĭ²áīµ": 5075,
      "ĠáĬ«áĪŃáĭµ": 5076,
      "áĪµáĪ«áīħ": 5077,
      "ĠáĪĺáĪµáĪªáĭ«": 5078,
      "Ġáĭ°áĪ¨áĮĥáĭİáī½": 5079,
      "áĭŃáĭĽ": 5080,
      "áĪħáįĪáīµ": 5081,
      "ĠáĭŃáĭ°áĭį": 5082,
      "áĪīĠáĭ¨": 5083,
      "Ġáī°áīĨáĮ£": 5084,
      "Ġáī¥áīħ": 5085,
      "Ġáĭ¨áī°áįĪáĮ¥áĪ®": 5086,
      "ĠáĬķáĮ¥áĪ¨": 5087,
      "Ġáī½áĪĭ": 5088,
      "ĠáĪĨáĬĲĠ": 5089,
      "ĠáįķáĪĭ": 5090,
      "ĠáĪŃáĬ©áĪµ": 5091,
      "Ġáīłáĭ¨áĬł": 5092,
      "áĪµáĪ«áĬ¤áĪĭáĭįáĭ«áĬķ": 5093,
      "Ġáĭ¨áĮİáĭ°": 5094,
      "áĭİáīµĠ": 5095,
      "ĠáįĨ": 5096,
      "ĠáīłáĪļáĮĪáī£": 5097,
      "ĠáĬ¨áĪĨáĬĲáį£": 5098,
      "áĭĺáĮĭáĮĢáīµ": 5099,
      "áĪĪáĭĭáĭĭáĮŃ": 5100,
      "ĠáĬ¥áĪ³áīµ": 5101,
      "áĪĽáī½áĪģ": 5102,
      "ĠáĭĪáĮĪáĬķ": 5103,
      "ĠáĮĬáĭľáĭį": 5104,
      "áīĨáĪĻ": 5105,
      "Ġáī¥áĭĻáĭİáī¹": 5106,
      "ĠáĭĺáĪĺáĬķĠáĭ¨": 5107,
      "ĠáĬłáĪģáĬķĠáīł": 5108,
      "ĠáĭĪáĮ¥áī¶": 5109,
      "un": 5110,
      "áĬķĠáĭįáĪµáĮ¥": 5111,
      "ĠáĭŃáĭĪ": 5112,
      "áĪ°áĪ¨áīµ": 5113,
      "ĠáĮįáĭĽáīµ": 5114,
      "ĠáĬªáĪİ": 5115,
      "ĠáĭĺáĪĺáĬĵáĭĬ": 5116,
      "áĮ®áī½áĬķ": 5117,
      "ĠáĪĺáīħáĭ°áĪµ": 5118,
      "ĠáīħáĭµáĪĺ": 5119,
      "ĠáĪĿáĬķáĮĬáĭľáĪĿ": 5120,
      "ag": 5121,
      "áĭŃáįį": 5122,
      "áī£áīłáĪŃ": 5123,
      "Ġáī°áĪĺáĪ«": 5124,
      "ĠáĭĪáĭ°Ġáī¤áīµ": 5125,
      "ĠáīłáĬłáĬķáī°": 5126,
      "áĪĺáĪĪáĪ°": 5127,
      "ĠáĬ¥áĪŃáĪµáĭİáĬķ": 5128,
      "ĠáĪ°áĬłáī³áīµ": 5129,
      "ĠáĪĺáīĨ": 5130,
      "Ġáī°áĮĭ": 5131,
      "áĭİáī½áĬĵ": 5132,
      "ĠáĬ«áĪĭ": 5133,
      "áīµáĬŃáĪįáīµ": 5134,
      "Ġáīį": 5135,
      "ĠáīłáĭŃáĪĨáĭĭ": 5136,
      "ĠáĬłáī¶": 5137,
      "áĪ³áĪ«": 5138,
      "ĠáīģáĪ³áīģ": 5139,
      "áĮ¦áī½áĬķ": 5140,
      "ĠáĬłáīħáĪ«áī¢": 5141,
      "ĠáĮ«áįį": 5142,
      "ĠáįĸáĪĬáĪµ": 5143,
      "áĪĿáĪ¨áīµ": 5144,
      "áĮĪáįĭ": 5145,
      "Ġáī£áĪīáīµ": 5146,
      "áĭĽáĪĽ": 5147,
      "ĠáĪ´áīµĠáĪįáĮħ": 5148,
      "ĠáĬ¥áĬķáī½áĪĭáĪĪáĬķ": 5149,
      "ĠáĬłáĮłáīĥ": 5150,
      "áĬŃáįĪ": 5151,
      "Ġáĭ«áĮĪáĬĺ": 5152,
      "Ġáī°áĪĺáĪįáĬ¨áīµĠ": 5153,
      "Ġáīłáĭļáĭ«áĪĿ": 5154,
      "ĠáĬ¥áĭ³": 5155,
      "áī°áĪ¨": 5156,
      "ĠáĬ¨ĠáĬ¥áĪµáĬ¨": 5157,
      "áĪĿĠáį£": 5158,
      "ĠáĪĽáĪħáīłáĪŃ": 5159,
      "áĪŀáĬŃáĪ«áĪ²áĭ«áĭĬ": 5160,
      "ĠáĪĪáīłáĪĪáĮł": 5161,
      "áĮĨáī¼": 5162,
      "áĪĺáĪĪáĬ«áĬ¨": 5163,
      "ĠáįĪáĮ£áĬķ": 5164,
      "áĪĺáĭĿáĮĪáī¥": 5165,
      "Ġáī¥áĭĻáĪĿĠáĪ³áĭŃ": 5166,
      "Ġáĭ¨áī¤áī°áĪ°áī¥": 5167,
      "ĠáīłáĪģáĪīáĪĿ": 5168,
      "ĠáĪĪáĪĽáĬķáĬĽáĭįáĪĿ": 5169,
      "ĠáĮłáįį": 5170,
      "áĪĬáīµ": 5171,
      "Ġáĭ¨áĬ¥áĮįáĪŃ": 5172,
      "áĮĪáĪįáįģ": 5173,
      "áĭ·áĪį": 5174,
      "áĬĲáīģ": 5175,
      "ĠáĬĲáī¢áĭ«": 5176,
      "áĭĿáĪŃáĭĿ": 5177,
      "ĠáĪĪáĪĺáĪŃáĭ³áīµ": 5178,
      "ĠáĬłáĭŃáĭ°áĪĪáĪģ": 5179,
      "ĠáĪĽáĪµáĮłáĬķáīĢ": 5180,
      "ĠáĪĺáĪĭáĬ¥": 5181,
      "ĠáĪļáĪĬáĭ®áĬķĠáĭ¶áĪĭáĪŃ": 5182,
      "áĪŃáĮħ": 5183,
      "áĭ°áī£": 5184,
      "ĠáĬ¨áĬ¤": 5185,
      "ĠáĮĭáĪŃĠáĪ²": 5186,
      "ĠáĪĨáĬľ": 5187,
      "áĪ°áī¥áĪ°áī¥": 5188,
      "ĠáĪµáĪĭáĪĪáĭį": 5189,
      "ĠáĮĵáĭ°áĬŀáī½": 5190,
      "ĠáĭĿáĬĵáī¥": 5191,
      "áĬķĠáĬĲáĮĪáĪŃ": 5192,
      "ĠáīłáĪ½": 5193,
      "ĠáĪĪáĭĺ": 5194,
      "áī±ĠáĭįáĪµáĮ¥": 5195,
      "áīµĠáĭ¨áĪĨáĬĲ": 5196,
      "ĠáĬłáĪĪáĬĿ": 5197,
      "ĠáįįáĪŃáĭµĠáī¤áīµ": 5198,
      "Ġáĭ¨áĪļáĬ¨áī°áĪīáīµáĬķ": 5199,
      "áĪĺáĭĺáĮĪáī¡": 5200,
      "áĪŃáī¥": 5201,
      "ĠáĬłáĪ¨": 5202,
      "ĠáĬłáĪ³áĭŃ": 5203,
      "ĠáĬĲáįĭáĪµ": 5204,
      "áĬ«áĭ®áī½": 5205,
      "áĭįáĬķĠáĪĪáĪĺ": 5206,
      "ĠáĮįáĬķáī£áī³": 5207,
      "áĮłáī£áīłáīħ": 5208,
      "ay": 5209,
      "áĬķáĭİ": 5210,
      "ĠáĪĪáĪĨáĬĳ": 5211,
      "ĠáĪĪáĭŃáĪĨáĭĭ": 5212,
      "áĭĪáĮĪ": 5213,
      "ĠáĪįáĮ¥áįį": 5214,
      "ĠáĭĪáĭ°ĠáĬĭáĪĭ": 5215,
      "ĠáįĪáĮłáĪ«": 5216,
      "ĠáĪĺáĪ°áĭĬáĭ«": 5217,
      "áĬķáĬ«áĪ¬": 5218,
      "ĠáĭµáĪŃáĮĬáīµ": 5219,
      "ĠáĪıáĪĭáĭĬáĭįĠáĮĮáī³": 5220,
      "Ġáĭ³áĬķáĬ¤áĪį": 5221,
      "áįĳ": 5222,
      "áīĢáĭĭáĪįĠ": 5223,
      "áĬ®áī½áĬķ": 5224,
      "âĢĿĠáĬłáĪĪáĭįĠ": 5225,
      "ĠáĮ¥áīħáĪµ": 5226,
      "áĭ·áī¸áĭį": 5227,
      "ðŁ": 5228,
      "áĬķáī¥": 5229,
      "Ġáĭ¨áįĬ": 5230,
      "áĪĽáī½áĬķ": 5231,
      "Ġáīłáī°áī»áĪĪ": 5232,
      "ĠáĬ¨áĪĺáĮł": 5233,
      "ĠáĪµáĪĿáĪĿ": 5234,
      "ĠáīłáĪĺáĬ«áĬ¨áĪĭáī¸áĭį": 5235,
      "Ġáĭ¨áĪ¶": 5236,
      "ĠáīłáĪ«áĪ±": 5237,
      "ĠáĬłáĬŃáī¥áĪ®": 5238,
      "Ġáĭ«áīĢáĪŃáī£áĪį": 5239,
      "ĠáĪ°áĬĶ": 5240,
      "áīµĠáĬłáĪĿáĪĭáĬŃ": 5241,
      "ĠáĭŃáĪħáī½": 5242,
      "áĮ¦áĪŃáĬĲáīµ": 5243,
      "ĠáĬłáĪĽáĪįáĬŃ": 5244,
      "ĠáīłáĪĨáĬĲáĭį": 5245,
      "áīĢáĮł": 5246,
      "ĠáĪµáĪĿáĬķ": 5247,
      "áĬ¥áĬĶ": 5248,
      "Ġáĭ¨áĪļáĪ¨áĭ³": 5249,
      "áīłáīµĠáĪģáĬĶáī³": 5250,
      "áįĭáĪŃ": 5251,
      "ĠáĬĵáī½áĪģ": 5252,
      "ĠáīĥáĪī": 5253,
      "ĠáĪ¶áĪµ": 5254,
      "ĠáĬłáĮĪáĪįáĮįáĪİáī¶áī½": 5255,
      "ĠáįĸáĪĪáī²áĬ«": 5256,
      "Ġáī¥áĪŃáī±": 5257,
      "ĠáĭįáĭŃáĭŃ": 5258,
      "ĠáĬłáĪĺáĪ°áĮįáĬĵáĪĪáĪģ": 5259,
      "Ġáī³áĪĽáĬĿáĬĲáīµ": 5260,
      "áĪŃáĮĭ": 5261,
      "áĪħáĬŃáĪĿáĬĵ": 5262,
      "áĪ°áįį": 5263,
      "Ġáī¥áĬķ": 5264,
      "ĠáĮĬáĭľáĭ«": 5265,
      "ĠáĪ«áĪ±áĬķ": 5266,
      "ĠáĪĿáĪµáĪ«áī½": 5267,
      "áīµáĪ®": 5268,
      "áĪľáī³": 5269,
      "ĠáīłáĮ£áĪĿĠáī¥áĭĻ": 5270,
      "áĪŁáĪįĠ": 5271,
      "ĠáĬ¨áīµ": 5272,
      "áĪ°áĬŀ": 5273,
      "áīĢáīµĠáĪĺ": 5274,
      "áĮĤáī³áĪį": 5275,
      "Ġáīłáĭ¨áīĢáĬĳ": 5276,
      "áĪįáĪį": 5277,
      "áĭ°áĭ°": 5278,
      "áĮİáīł": 5279,
      "Ġáįįáīħ": 5280,
      "ĠáĬłáĬ«áĪĭáīµ": 5281,
      "ĠáĪļáĬĴáĪµáī´áĪŃ": 5282,
      "ĠáīłáĪ°áĪĽ": 5283,
      "ĠáĬĲáĭįáį£ĠáĬ¥áĬĵ": 5284,
      "ĠáįķáĪ®áįĮ": 5285,
      "ĠáīłáĮ¥áĪ©": 5286,
      "ĠáĬ¥áĬķáĭ°áĭļáĪħĠáĬłáĭŃáĬĲáīµ": 5287,
      "Ġáĭ¨áĭŃáĪģáĭ³": 5288,
      "áī½áĪĪáĭįáĬķ": 5289,
      "áĬĵáī½áĬķ": 5290,
      "áī³áĪīĠ": 5291,
      "Ġáĭ¨áĬłáĭŃ": 5292,
      "Ġáĭ«áĭ°áĪŃáĮĭáĪį": 5293,
      "ĠáīģáĪŃáĮ¥": 5294,
      "áī´áĬŃáĬĸáĪİáĮĤ": 5295,
      "áĪµáĪĢáīħ": 5296,
      "ĠáĪĺáĭįáĪ°áĭµ": 5297,
      "áĭµáĪį": 5298,
      "Ġáĭ¨áĪļáĪ°áĮłáĭį": 5299,
      "ĠáīłáĪĺáĪĨáĬķ": 5300,
      "áĮĪáĪįáįĢ": 5301,
      "ĠáĪ³áĭŃáĬķáĪµ": 5302,
      "ĠáĬłáī£áī´": 5303,
      "áĮłáī¥áīĥ": 5304,
      "áĬĽáĭįáĬķĠáĮĬáĭľ": 5305,
      "ĠáĭŃáĪĨáĬķĠ": 5306,
      "ur": 5307,
      "áĭįáīĢáĭį": 5308,
      "áĪŃáĪ·": 5309,
      "ĠáĪĺáĬ¨áĪĭáĬ¨áĭ«": 5310,
      "áīĢáĭŃ": 5311,
      "áīĢáĬĿ": 5312,
      "áį£áīł": 5313,
      "áĮĢáĪŃáī£": 5314,
      "áĮĬáĭİáī½": 5315,
      "ĠáĮ¨áĪ¨": 5316,
      "Ġáī¡áĬĵ": 5317,
      "áī»áĪįáĬ©": 5318,
      "ĠáīłáĪĺáĬķáįĪáĪ³áĭĬ": 5319,
      "áĪµáĭ°áĬĵáīĤ": 5320,
      "ĠáĪļáĬĴáĪµáīµáĪŃ": 5321,
      "Ġáī¥áĭĻáĪĿĠáĪ³áĭŃáīĨáĭŃ": 5322,
      "Ġáĭ¨áĪĭ": 5323,
      "ĠáīłáĬ«": 5324,
      "áĪ¸áĬķ": 5325,
      "Ġáĭ¨áīµáĪĿáĪħáĪŃáīµ": 5326,
      "ĠáĪ³áĪĿáĬķáī³áīµ": 5327,
      "áįĪáįħáĪĻ": 5328,
      "ĠáīħáĭµáĪļáĭ«": 5329,
      "Ġáĭ¨áĬ¥áĪŃáĪµáĭİáĬķ": 5330,
      "áīµĠáĬĲáīłáĪŃĠ": 5331,
      "áĮĭáĮĪáī¥": 5332,
      "ĠáĪĪáĪĽáĪ¨áĮĭáĮĪáĮ¥": 5333,
      "ĠáĬłáĬķáĭµĠáĬĲáĮĪáĪŃ": 5334,
      "áīĢáĪĺáĮł": 5335,
      "ĠáĭĪáĬķáĮĢáĪį": 5336,
      "áĭİáī½Ġáĭ¨áĪļáīĨáĮłáĪ©": 5337,
      "ĠáĮłáĪ¨áĮ´áĭĽ": 5338,
      "áĭŃáĭĻ": 5339,
      "áįĪáĮłáĪ©": 5340,
      "áĬĿáĪĿĠ": 5341,
      "ĠáĮįáī¢": 5342,
      "áīµĠáĪĺáī¥": 5343,
      "ĠáĭĿáĪŃáĭ«": 5344,
      "áĪĿĠáĬĲáīłáĪŃ": 5345,
      "áĭ°áĬĿáĬĲáīµ": 5346,
      "áī³áĪ¨": 5347,
      "ĠáĪĭáĭŃĠáĭ«áĪĪáĭį": 5348,
      "ĠáĮ¥áĪ«": 5349,
      "Ġáĭ°áĬ«áĪĽ": 5350,
      "áĬķĠáĬłáīµ": 5351,
      "áĬ³áĬķáĬķ": 5352,
      "ĠáĪĪáĬ¥áĪµáĪ«áĬ¤áĪį": 5353,
      "Ġáĭ«áĪµáī½áĪĭ": 5354,
      "ĠáĪģáĪĪáī°áĬĽáĭį": 5355,
      "áī§áĬķ": 5356,
      "ĠáĪĺáĪµáĮłáīµ": 5357,
      "áīłáīµĠáĭĪáīħ": 5358,
      "áī¡áĭµ": 5359,
      "áĪ»áĪ½": 5360,
      "ĠáĬ¨áĬ¥áĬĲáĪŃáĪ±": 5361,
      "ĠáĮ¨áĪĪáĪĽ": 5362,
      "ĠáĪĺáĮ¥áī¶": 5363,
      "ĠáĪħáįĥáĬĵáīµ": 5364,
      "ĠáĪĽáĪµáĮłáĬķáīĢáīĤáĭ«": 5365,
      "ĠU": 5366,
      "áĬķĠáĪµ": 5367,
      "ĠáĬłáĭŃáĪĨáĬķáĪĿ": 5368,
      "ĠáĮįáĬķáī£áĪŃ": 5369,
      "ĠáĪ«áĪ³áī¸áĭį": 5370,
      "ĠáĪĽáĪĪáīµáĪĿ": 5371,
      "ĠáĮįáī¥áĭ£": 5372,
      "ĠáĪĺáĬķáĮĪáĭ±": 5373,
      "ĠáĮįáĪĪáĪ°áī¦áī½": 5374,
      "ĠáīłáīĢáĮ¥áī³": 5375,
      "áī°áīµ": 5376,
      "áī¥áī¥áĪŃ": 5377,
      "áĪ©áĪ²áĭ«": 5378,
      "ĠáĬĵáīµ": 5379,
      "Ġáī¥áī¸áĬĽáĭį": 5380,
      "áĬķĠáĭ¨áĪĽ": 5381,
      "Ġáĭ¨áĪ®": 5382,
      "Ġáĭ¨áĬ¥áĪĿáĬĲáīµ": 5383,
      "ter": 5384,
      "áĬķĠáĬĲáĭįĠ": 5385,
      "áĮĭáīµ": 5386,
      "áĪĮáĬŃ": 5387,
      "áĭ©áīµ": 5388,
      "áįģáĪĿ": 5389,
      "ĠáīħáĪŃáįħ": 5390,
      "ĠáĮĢáĪĺáĪ¨Ġ": 5391,
      "ĠáĬĲáĮĭáĭ´": 5392,
      "áĪĺáĭ°": 5393,
      "áĪ«áī¸áĭįáĬķ": 5394,
      "áī£áīł": 5395,
      "áĬ«áĪªáĭİáī½": 5396,
      "áĪĿĠáīłáĭļáĭ«": 5397,
      "ĠáĮĪáĪĭ": 5398,
      "ĠáĬ¥áĬķáĭ³áĪĭáī¸áĭį": 5399,
      "ĠáĪĪáĬ¥áĮįáĭļáĬłáī¥áĪĦáĪŃ": 5400,
      "ĠáĪĺáĪĨáĬĵáī¸áĭį": 5401,
      "ĠáīłáīĢáĪŃ": 5402,
      "áĪ°áĭĬáĭ«áĭį": 5403,
      "áĬķĠáĬłáĪĿáĪĭáĬŃ": 5404,
      "áĬķĠáį£": 5405,
      "ĠáĬ¢áĭ¨áĪ±áĪµáĪĿ": 5406,
      "áįĪáĪįáĮĪáĭįáĬķ": 5407,
      "áĬķáī£áĪĮ": 5408,
      "Ġáĭ¨áĪĺáĮ¡": 5409,
      "áĪĿĠáĬłáĪµ": 5410,
      "ĠáīĥáĪĪ": 5411,
      "Ġáĭ«áĪµáįĪáĪįáĮĪ": 5412,
      "Ġáįħáĭµáīħ": 5413,
      "áĮłáĬĵáīĢáīħ": 5414,
      "Ġáĭ¨áī°áī£áĪĪ": 5415,
      "Ġáįĥáĭµáīħ": 5416,
      "Ġáĭ±áīĦ": 5417,
      "ĠáĬłáĬĲáĪµáī°áĬĽ": 5418,
      "ĠáĬ¨áĪµáĪ«": 5419,
      "Ġáĭ¨áĪļáĪ°áĮ¥": 5420,
      "ĠáĪįáī¦": 5421,
      "áĪ½áĬĵ": 5422,
      "áĬķĠáĬłáĪĭ": 5423,
      "ĠáĭŃáĪħĠáĭ¨": 5424,
      "áīµĠáĭ¨áĪĿ": 5425,
      "Ġáī£áĪĪáĪĺ": 5426,
      "ĠáĭĭáĬĵáĭį": 5427,
      "áĭįáĭ«áĬķáĪĿ": 5428,
      "ĠáĬłáī¥áĭĽáĬĽáĭİáī¹": 5429,
      "áĪĮáĬŃáīµáĪ®": 5430,
      "Ġáĭ°áĪħáĬķáĬĲáī±": 5431,
      "ĠáīłáĮĪ": 5432,
      "ĠáīłáĬ¨áįįáī°áĬĽ": 5433,
      "áĮĪáĮį": 5434,
      "áĮ¥áĪ¨áīµ": 5435,
      "ĠáĪµáĭ°": 5436,
      "ĠáĬ¥áĬķáĭ²áĬĸáĪŃ": 5437,
      "áĪŀáĬŃáĪŃ": 5438,
      "áĪ¶áī¹": 5439,
      "áįķáī´": 5440,
      "ĠáĬ¥áĪ¨áįįáīµ": 5441,
      "Ġáĭ¨áĭ«áĭĺ": 5442,
      "ĠáĬłáĭĪ": 5443,
      "ĠáĬ¥áĬĵĠáī°": 5444,
      "Ġáĭįáī¥": 5445,
      "Ġáĭ¨áĬ¥áĮħ": 5446,
      "Ġáĭ²áĭ«": 5447,
      "ĠáĭĺáĪŃáįį": 5448,
      "áĬ¨áīłáĪŃ": 5449,
      "ĠáĬ¥áĬķáĭ°áĬĲáīłáĪ¨": 5450,
      "ĠáīłáĪĺáĪµáĪĺáĪŃĠáĪĭáĭŃ": 5451,
      "áĭĺáĭĭ": 5452,
      "áīłáīµáĬĵ": 5453,
      "áī¶áī½áį£": 5454,
      "áīµáĬķáĪ½": 5455,
      "ĠáĪĻáĭ«": 5456,
      "ĠáĭĿáĬķáī£áĪĮ": 5457,
      "áĬŃáĪįáĪį": 5458,
      "áĪĤáī¥": 5459,
      "ĠáĬłáĭĺáĮĭáĮħ": 5460,
      "áĬ¨áīłáĪ¨": 5461,
      "Ġáĭ¨áī°áĬĵáĮĪáĪ¨áĭį": 5462,
      "áĬ©áī£áĬķáĭ«": 5463,
      "ĠáĬłáĪįáī£": 5464,
      "ĠáĮĭáĪŃĠáĭ¨áī°áĭ«áĭ«áĭĻ": 5465,
      "ĠáĮ©áĬ¸": 5466,
      "áĪ«áĪĿ": 5467,
      "áĭ°áī¡áī¥": 5468,
      "ĠáĪĢáĮĪ": 5469,
      "ĠáĮįáĬķáī¥": 5470,
      "áĪ°áī£áī½áĬķ": 5471,
      "áĪµáīµáĪ«áĪĬáĭ«": 5472,
      "áĪĭáī¸áĭĭáĪįĠ": 5473,
      "áī³áĪī": 5474,
      "ĠáĬĲáĮłáĪĭ": 5475,
      "Ġáĭ¨áĪļáī°": 5476,
      "ĠáĪĽáīłáĪ¨áī³": 5477,
      "áĭĽáĪ¬": 5478,
      "áīµáĬķĠáĭŃ": 5479,
      "áĬŃáĪįáĪī": 5480,
      "áĮ§áĪįĠ": 5481,
      "áĬĲáīłáĪ«áī¸áĭį": 5482,
      "áĮįáī¥áįħĠáĪĿáĭµáĪŃ": 5483,
      "áĪµáī¡áĬŃ": 5484,
      "áĬķĠáĬĲáĭį": 5485,
      "ĠáĬłáĪµáĪ«": 5486,
      "ĠáĪĺáįħáĪĦ": 5487,
      "ĠáĬĲáĬķĠ": 5488,
      "ĠáĪĽáī¥": 5489,
      "áĬ«áĪļ": 5490,
      "áĬ«áĭĬ": 5491,
      "áĬĲáīµĠáĭ«áĪĪáĭį": 5492,
      "ĠáĬłáĭŃáīĢáĪŃ": 5493,
      "ĠáįįáĪįáĪµáĮ¤": 5494,
      "ĠáįįáĪŃáĪĢ": 5495,
      "áĭİáī¹áĬķ": 5496,
      "áĭŀáī½": 5497,
      "ĠáįĢáĮīáĪŃ": 5498,
      "Ġáī£áĪħáĪŃáĭŃ": 5499,
      "ĠáĭŃáī»áĪĭáĪį": 5500,
      "Ġáīħáĭ³áĪľáĬĵ": 5501,
      "ĠáīłáĭĪáīħáī±": 5502,
      "áĪ«áĪª": 5503,
      "áĪĢáĭµ": 5504,
      "ĠáĮįáĭĻ": 5505,
      "ĠáĭŃáĪħĠáĭ°áĮįáĪŀ": 5506,
      "Ġáĭµáī¥": 5507,
      "ĠáīµáĬķáĪ³áĬ¤": 5508,
      "ĠáĮ£áĪį": 5509,
      "áīªáĭ¥": 5510,
      "áĭįĠáĪĺáī¶": 5511,
      "Ġáī´áĬŃáĬĴ": 5512,
      "ĠáĮĪáĪįáįĢáĭĭáĪįĠ": 5513,
      "Ġb": 5514,
      "ĠáīłáĪ¶": 5515,
      "ĠáĬłáĪīáīµ": 5516,
      "ĠáĪĪáĪ¨áĮħáĪĿĠáĮĬáĭľ": 5517,
      "áį£ĠáĭĪáĭ°": 5518,
      "ĠáĪ²áĪĺáĮ£": 5519,
      "áĮĥáī¸áĭį": 5520,
      "ĠáĬ¥áĬĶáĬĵ": 5521,
      "ĠáĭĪáīħáī³áĭĬ": 5522,
      "Ġáī£áĪįáĭ°áĪ¨": 5523,
      "áįıáĪį": 5524,
      "ĠáĪ°áĭŃáĮ£áĬķ": 5525,
      "áĬŃáĪŃáĪµáī²áĭ«áĬķ": 5526,
      "ĠáĪµáĪįáĬŃ": 5527,
      "ĠáĪĿáĭĿáĮĪáī£": 5528,
      "áī´áĮĤ": 5529,
      "ĠáīĨáĪ»áĪ»": 5530,
      "áĭİáĬķáī³áĭĬ": 5531,
      "ĠáĪĢáĭŃáĪİáī½": 5532,
      "áĬķáĭµáĬķĠáĬĲáĭį": 5533,
      "áĪģáĪĪáī°áĬĽáĭį": 5534,
      "Ġáī°áīĥáĭįáĪŀ": 5535,
      "ĠáĭŃáįĪáĪįáĮĭáĪī": 5536,
      "ĠáīłáĬłáĪĪáĪĿĠáĭĻáĪªáĭ«": 5537,
      "ĠáĬ¥áī½áĪĭáĪĪáĪģĠ": 5538,
      "áĪħáĬĲáīµ": 5539,
      "áĬ¨áīł": 5540,
      "ĠáĮįáĪŃ": 5541,
      "áīµĠáĭ¨áīłáĪĪáĮł": 5542,
      "áĮįáĪ«áī¸áĭį": 5543,
      "áĮłáĬĵáĬ¨áĪŃ": 5544,
      "ĠáĪªáįĲáī¥": 5545,
      "Ġáĭ²áĭĽáĭŃ": 5546,
      "áĪĿáĪ«áīµ": 5547,
      "Ġáĭ¨áīħ": 5548,
      "ĠáĪĺáĪµáĪ«áīµ": 5549,
      "ĠáĬłáĭŃáĬĸáĪŃ": 5550,
      "áĭ®áĪµ": 5551,
      "áī¦áī³áĭį": 5552,
      "ĠáĬ®áĭµ": 5553,
      "ĠáĬ¢áĭ¨áĪ±áĪµĠáĬŃáĪŃáĪµáī¶áĪµ": 5554,
      "ĠáĪĪáĭįáĮ¦áī½": 5555,
      "Ġáī°áĬĵáĮįáĪ¨áĭĭáĪįĠ": 5556,
      "ĠáĮįáĪĪáĪ°áī¥": 5557,
      "ĠáĬłáīĥ": 5558,
      "ĠáĭŃáĪģáĬĳ": 5559,
      "Ġáĭ«áĭ°áĪ¨": 5560,
      "áįįáīħáĪŃ": 5561,
      "áĭĪáīµáĪŃ": 5562,
      "áĬ«áĪĤ": 5563,
      "áĪ»áĪį": 5564,
      "áī½áĬĭáĪĪáĪģ": 5565,
      "ĠáĪĿáĬ¥áĪ«áī¥": 5566,
      "ĠáĪĢáĭĭáĪŃáĭ«áĭįĠáĮ³áĭįáĪİáĪµ": 5567,
      "áīģáĮ¥áĮ¥áĪŃ": 5568,
      "áĬłáĪĪáĪģ": 5569,
      "áĪĢáĪĪáĪģĠ": 5570,
      "áĪĿĠáĭ¨áĪĨáĬĲ": 5571,
      "ĠáĬłáĭįáī¶": 5572,
      "ĠáĬ¥áĬķáĪµáĪ³áīµ": 5573,
      "ĠáĪģáĪĭáī½áĬķáĪĿ": 5574,
      "áīłáĪ©áīµĠáĪĺáĬķáĮįáĪµáī³": 5575,
      "áįķáī´áĪĿáīłáĪŃ": 5576,
      "Ġáĭ¨áĬĲ": 5577,
      "áĭİáĬķĠáīł": 5578,
      "áĪĪáīµĠáī°": 5579,
      "Ġáĭ³áī¦": 5580,
      "Ġáĭ¨áĬłáĬ«áĪįĠáī¥áīĥáīµ": 5581,
      "ĠáĬ¥áĬĵáĪĺáĪ°áĮįáĬĵáĪĪáĬķ": 5582,
      "ĠáĬ¨áĭļáĭ«áĪĿĠáĭ¨": 5583,
      "áĪµáī¥áĪµáī¥": 5584,
      "áīµĠáĬłáĪµáįĪáĪĭáĮĬ": 5585,
      "ĠáĬłáĪŃáī¥": 5586,
      "áĪĿáįĴáĭ©": 5587,
      "ĠáīłáĬĲáīłáĪ¨": 5588,
      "áī³áĭ¨": 5589,
      "áĪ°áĪĪ": 5590,
      "áīĨáĪĺ": 5591,
      "ĠáĮłáĪŃ": 5592,
      "ĠáĪĢáĪ³áī¦áī½áĬķ": 5593,
      "áĪ³áī°áįį": 5594,
      "áĪµáĭ°áĪ³áī½": 5595,
      "áĪĿĠáĭįáĪµáĮ¥": 5596,
      "áĪĿáĪµáīµ": 5597,
      "áĪŃáĬķ": 5598,
      "áĪĪáĭµ": 5599,
      "ĠáĬĲáī½": 5600,
      "Ġáĭ¨áĪļáĪĺáĪµ": 5601,
      "ĠáĪĿáīµáĬŃ": 5602,
      "áĭ³áĭĬáīµ": 5603,
      "áįĭáī¸áĭį": 5604,
      "áįĢáĬĵ": 5605,
      "áĬ¨áī°áĪīáīµ": 5606,
      "áĮ¢áĬłáīµ": 5607,
      "áī½áĭįĠ": 5608,
      "Ġáī¥áĪĭáĪĪáī½": 5609,
      "ĠáĮįáĪĿáīµĠáĭįáĪµáĮ¥": 5610,
      "ĠáĬ¥áĪħáĪį": 5611,
      "Ġáī£áĪĭáī¸áĭį": 5612,
      "Ġáī£áĬķáĬŃ": 5613,
      "áĪµáī°áĬŀáī½": 5614,
      "ĠáĭĺáĪ®áī½": 5615,
      "ĠáĪĿáĬķáĮ®áī½": 5616,
      "áĮĢáĪĺáĪ©": 5617,
      "áĪĺáĮ£áĮ£áĬĿ": 5618,
      "ĠáĪĤáĭµ": 5619,
      "ĠáĭĪáĪ¬": 5620,
      "áĪ³áĪī": 5621,
      "Ġáĭ°áĪĺáĬĵ": 5622,
      "ĠáĪĪáĪĺáĪµáĮł": 5623,
      "áĬ©áĪ«": 5624,
      "ĠáīħáĮ£áīµ": 5625,
      "ĠáĪµáĪ«áĭį": 5626,
      "ĠáĮŃáĪĿáĪŃ": 5627,
      "ĠáĬ¥áĬĵáĬķáī°áĪĿ": 5628,
      "ĠáĪĽáĪ³áĭ¨": 5629,
      "ĠáĭŃáĪĺáĪįáĬ¨áī±Ġ": 5630,
      "ĠáīłáĪ«áĪµ": 5631,
      "áĭ«áĪĪáĪģĠ": 5632,
      "áī¥áĪ®": 5633,
      "ĠáĭŃáĭĪáĪµáĭ³": 5634,
      "áĪ°áĬĿ": 5635,
      "áīµĠáĭ¨áĪĽáĭŃ": 5636,
      "ĠáĬłáĪĺáī³": 5637,
      "ĠáīłáĭļáĪħĠáĬłáĬķáīĢáįħĠáĬķáĬ¡áĪµĠáĬłáĬķáīĢáįħ": 5638,
      "ĠáĬłáĬ«áī£áī¢áĭİáī½": 5639,
      "áĪŀáĬŃáĪ«": 5640,
      "Ġáĭ¨áī°áĪĪáĪĺáĭ°": 5641,
      "áĪĻáĬĵ": 5642,
      "áīµĠáīłáįĬáīµ": 5643,
      "ĠáĪĺáĭµáĪ¨áĬŃ": 5644,
      "Ġáĭ«áĭ°áĪ¨áĮį": 5645,
      "Ġáī°áĬ¨áīµ": 5646,
      "áĪŀáĬķ": 5647,
      "áįĥáįī": 5648,
      "ĠáĬ¥áĬķáīħáĪįáįį": 5649,
      "áĭİáī½áĬķĠáĬł": 5650,
      "ĠáĪ°áĪ¨áĮĪ": 5651,
      "áīĥáī½áĪģ": 5652,
      "ĠáĪ²áĬĵáĮĪáĪŃ": 5653,
      "áĮĢáĪĿáĪ©": 5654,
      "ĠáĮĪáĬĲáīµ": 5655,
      "Ġáī³áĭĽ": 5656,
      "ĠáĪĿáĬŃáĪ®áī½": 5657,
      "ĠáĬłáĪįáĮĭ": 5658,
      "áĬķáĮīáĪµ": 5659,
      "ĠáĪĢáī¥áīµ": 5660,
      "Ġáĭ¨áĮįáī¥": 5661,
      "Ġáĭ¨áĪ°áĮł": 5662,
      "ĠáĬ¨áī³áī½": 5663,
      "áĪ³áĭ¨áĭį": 5664,
      "Ġáĭ¨áĪļáĪ°áĮ¡": 5665,
      "áĪĮáĭ³": 5666,
      "áĮĪáĬĽáĪįĠ": 5667,
      "Ġáĭ®áĬĵ": 5668,
      "áĪ³áīµáįİ": 5669,
      "áĮįáĪµ": 5670,
      "ĠáĭĪáĬª": 5671,
      "ĠáĬ¥áĬķáīģ": 5672,
      "áīģáīµ": 5673,
      "Ġáĭ«áĪĪáĪĽ": 5674,
      "Ġáĭ¨áĪļáĭ«áĪµáĬ¨áīµ": 5675,
      "áĮįáĪĪáĪ°áī¥": 5676,
      "ĠáīµáĪŃáįį": 5677,
      "ĠáĮ¥áĬĵáī¶áī½": 5678,
      "áĪĿĠáĭŃáĪħ": 5679,
      "ĠáĪĺáĪĢáĪį": 5680,
      "áĪ³áĭ«": 5681,
      "áīĨáīµ": 5682,
      "ĠáĪĨáĬķ": 5683,
      "ĠáĪģáĪīĠáĭŃ": 5684,
      "áĬ®áīµ": 5685,
      "áĮĪáī£áīµ": 5686,
      "áĬ«áĬ¨áĪĪáĬĽ": 5687,
      "Ġáĭ«áĪħáĭĮáĬķ": 5688,
      "Ġáĭ²áĮįáĪª": 5689,
      "ĠáĬłáĭµáĪŃáĮĵáĪįĠ": 5690,
      "ĠáīĢáĮ£áĭŃ": 5691,
      "ot": 5692,
      "ĠáĬ¥áīħ": 5693,
      "ĠáĪ°áīħáĪį": 5694,
      "áĭįáĬķĠáĪ°áĭį": 5695,
      "ĠáĪĪáĪĺáĪµáĪ«": 5696,
      "áĪĿĠáĬłáīĢ": 5697,
      "ĠáĪĺáĬķáĮĭ": 5698,
      "ĠáĪ¶áįįáīµ": 5699,
      "áīµáĪ¨": 5700,
      "ĠáĪĪáĪ°áĭį": 5701,
      "áĮ£áĪ«": 5702,
      "ĠáĬłáĭŃáĮĪáī£": 5703,
      "áīĭáĪŃ": 5704,
      "ĠáĮįáī¥áįħ": 5705,
      "Ġáī£áĪĪáī¤áī´": 5706,
      "áĬŃáįįáĪį": 5707,
      "Ġáĭ¨áĮĭ": 5708,
      "áĪ¨áĭĭáĪį": 5709,
      "áī±Ġ": 5710,
      "ĠáĬłáĭŃáĬĲáī±": 5711,
      "áįİáī¶": 5712,
      "Ġáĭ«áĪħáĭĮĠáĪĨáĭŃ": 5713,
      "áī¶áī½áĬķĠáĬ¥áĬĵ": 5714,
      "ĠáĬłáĭįáīĥáĪĪáĪģ": 5715,
      "ĠáĬ¥áĮįáĭļáĬłáī¥áĪĦáĪŃáĪĿ": 5716,
      "Ġáĭ¨áĪĮáĪĭáī¸áĭį": 5717,
      "ĠáĬ«áĪħáĬĵáīµ": 5718,
      "ĠáīĥáĪįĠáĬªáĭ³áĬķ": 5719,
      "ĠáĬ¥áī½áĪĭáĪĪáĪģ": 5720,
      "ĠáĪĿáĪħáĪ¨áīµ": 5721,
      "id": 5722,
      "Ġáī°áĬĲáĪµáī¶": 5723,
      "Ġáī¦áī³ĠáĪĭáĭŃ": 5724,
      "áĪĺáĪįáĬŃáī¶": 5725,
      "ĠáįĢáĮ¥": 5726,
      "ĠáĬ¥áĬķáĭ²áĭ«áĮĪáĬĻ": 5727,
      "áĪªáĬ«áĭĬ": 5728,
      "ĠáĬ¥áĭįáĬĲáī³": 5729,
      "áĮ§áī¸áĭį": 5730,
      "ĠáĬ¨áĬ¥áĬĲáĪ±ĠáĮĭáĪŃ": 5731,
      "Ġáĭ°áīĢĠáĪĺáĭĽáĪĻáĪŃáī±": 5732,
      "Ġáĭ¨áĪļáĮĪáĬĿ": 5733,
      "ĠáĬ¨áĬ¥áĪŃáĪµáĭİ": 5734,
      "áĪµáī³áĭįáĪµ": 5735,
      "ĠáīłáĮ£áĪĿĠáī°": 5736,
      "áī·áī¸áĭĭáĪįĠ": 5737,
      "ĠáĪ½áĭ«áĮŃ": 5738,
      "áĭ«áĭ«áĭĿ": 5739,
      "ĠáįįáĪĭáĮİáī¶áī½": 5740,
      "Ġáĭ¨áĪ°áĭįĠáĪįáĮħ": 5741,
      "ĠáĪĽáĭµáĪ¨áĮĭ": 5742,
      "Ġáĭ¨áīĢáĪ¨áīł": 5743,
      "ĠáĬłáī¢": 5744,
      "áĬĵĠáĭ¨áĪĺ": 5745,
      "ĠáĭŃáĬĸáĪ¨": 5746,
      "áĮłáĮ¥": 5747,
      "Ġáī¥áĭĽáīµ": 5748,
      "Ġáĭ¨áī°áĪ»": 5749,
      "Ġáĭ¨áī°áĪ°áĮł": 5750,
      "ĠáĪĨáĪµ": 5751,
      "Ġáĭ¨áĪĽáĪħ": 5752,
      "ĠáĬłáĪĿáĪįáĬ®": 5753,
      "ĠáįķáĪ¬áĭĿ": 5754,
      "ĠáĪĺáĪµáįĪáĪŃáī¶áī½": 5755,
      "Ġáīłáĭĭ": 5756,
      "ĠáĪĽáĪŃáĭ«": 5757,
      "ĠáĭįáĪµáĮ¥Ġáĭ«áĪĪáĭį": 5758,
      "áĪ½áĬĸáī½": 5759,
      "áīĭáĪļ": 5760,
      "ĠáĬłáĪĿáĪĭáĬŃáĪħ": 5761,
      "ĠáĪĤáĪ³áī¥": 5762,
      "Ġáĭ¨áĪĮáĪĪáĭį": 5763,
      "ĠáĪ°áĪĽáĭ«áĭĬ": 5764,
      "áĪĿĠáīłáĪĺ": 5765,
      "ĠáĭŃáĬĸáĪ«": 5766,
      "áĪ²áĬ«": 5767,
      "Ġáī¦áĪŃáĪ³": 5768,
      "áĬĹáĬĹ": 5769,
      "áīĭáīĭáĪĺ": 5770,
      "áĪĿáįĴáĭįáī°áĪŃ": 5771,
      "ĠáĬłáĮįáī£áī¥": 5772,
      "áĭĭáĪļ": 5773,
      "ĠáĮ¥áĬķáĬ«áĪ¬": 5774,
      "áĪ½áĬķáĮį": 5775,
      "áīĤáĬĿ": 5776,
      "ĠáĮłáīłáīĥ": 5777,
      "ĠáĪ¶áĪµáī°áĬĽ": 5778,
      "áĪĨáĬĵáī½áĪģ": 5779,
      "áĪįáīģáĬķáĪĿ": 5780,
      "ĠáĬ¨áĬ¥áĬĶĠáĮĭáĪŃ": 5781,
      "áĪ«áĬĴ": 5782,
      "áīĢáĪ°": 5783,
      "ĠáĪµáĬŃáĪª": 5784,
      "ĠáĬ¥áĬĵĠáīłáĪĺ": 5785,
      "áĪ®áī»áī¸áĭį": 5786,
      "Ġáĭ¨áī°áĭĺáĮĭáĮĢ": 5787,
      "Ġáī³áĭ°áĪŃáĮĭ": 5788,
      "áĬĭáī¸áĭį": 5789,
      "ĠáīĨáĭ³": 5790,
      "ĠáįĢáĪ¨": 5791,
      "áĪµáī²áĬŃ": 5792,
      "ĠáĬ¨áī¤áīµ": 5793,
      "Ġáĭ°áĪ«áĪ²": 5794,
      "áĮĪáī£áī¸áĭį": 5795,
      "Ġáī°áīĢáĪĺ": 5796,
      "áīµĠáĬłáĪĺáī³áīµĠáīł": 5797,
      "áĪĪáĪĺáĭ±": 5798,
      "áĪĬáĭ®áĬķ": 5799,
      "ĠáĪĪáĪĽáĪµáĭĪáĮĪáĭµ": 5800,
      "ĠáĬ¤áĪįáĭ«áĪµ": 5801,
      "áĬķáīĢáĪ³áīĢáĪµ": 5802,
      "Ġáĭ¨áįĸáĪĪáī²áĬ«": 5803,
      "áĪªáī±áĬķ": 5804,
      "ĠáĪĽáĭ³": 5805,
      "ĠáĪĭáĭŃĠáĬĲáĭįĠ": 5806,
      "áĭĺáĮį": 5807,
      "Ġáī°áīĢáī¥": 5808,
      "áĪĭáī½áĬĭáĪĪáĪģ": 5809,
      "ĠáĭµáĪħáĪ¨ĠáĮĪáįħ": 5810,
      "ut": 5811,
      "áīłáī£": 5812,
      "ĠáĬ¥áĬķáĭĪ": 5813,
      "áĪĨáī½": 5814,
      "Ġáĭ¨áĪļáĪ°áĪ©": 5815,
      "áĪ¸áĪ«": 5816,
      "Ġáī¦áĪŃáĭµ": 5817,
      "ĠáĪ¨áĭ³": 5818,
      "áĬĲáĭįĠ": 5819,
      "áĪ³áĬķĠáĪĺáįĥáĪħáįįáīµ": 5820,
      "áĬĵĠáĭĪáĭ°": 5821,
      "áī£áĪª": 5822,
      "áī£áī¢áĭ«": 5823,
      "áĪĦáĪ«áĭĬ": 5824,
      "áī¸áĭĭáĪĪáĪģĠ": 5825,
      "ĠáĪĪáīł": 5826,
      "áĬ¨áī±": 5827,
      "áįĪáĪµ": 5828,
      "áį£Ġáĭ«": 5829,
      "ĠáĬ¥áĬķáĮĢ": 5830,
      "áĮ¨áĬĲáīħ": 5831,
      "ĠáĬ¢áīµáĭ®áĮµ": 5832,
      "áĪĺáĪįáĪµ": 5833,
      "ĠáįĬáĪįáĪĿ": 5834,
      "ĠáĬŃáįįáĪįĠáĭįáĪµáĮ¥": 5835,
      "ĠáĪµáĬ¬áī³áĪĽ": 5836,
      "ap": 5837,
      "áĬķĠáĪ°áĭį": 5838,
      "Ġáĭ¨áĪ«áĪµ": 5839,
      "áĪŃáĬ©": 5840,
      "áĪįáī¥": 5841,
      "ĠáĬĲáĮĪáĪ©": 5842,
      "áĬķĠáīłáĭļáĪħ": 5843,
      "ĠâĢľáĬ¨": 5844,
      "áįįáīµáĪħ": 5845,
      "áĪģáĪĪáī±áĪĿ": 5846,
      "ĠáīħáĪŃáī¥": 5847,
      "Ġáī¥áĪŃáĪĢáĬķ": 5848,
      "Ġáĭ¨áĬķ": 5849,
      "ĠáīłáĪĭáī¸áĭį": 5850,
      "ĠáīłáĪĮáĪİáī½": 5851,
      "áĮįáĭµ": 5852,
      "áī¥áĪİáĪµ": 5853,
      "ĠáĪĪáĪĽáĭ¨": 5854,
      "áī¡áĬķ": 5855,
      "Ġáĭ«áĪĪáī£áī¸áĭį": 5856,
      "ĠáĪĿáĬķáĪĿĠáĭŃáĪģáĬķ": 5857,
      "áĬķáįĪáĪµ": 5858,
      "áĪ³áĪĿáĬķáī±": 5859,
      "áĮ¥áĬĵáīµ": 5860,
      "Ġáī°áĪĪáĭŃ": 5861,
      "ĠáĪĿáĭµáĪ¨Ġáīłáĭ³": 5862,
      "áĬĳáīµ": 5863,
      "áįĭáĬĳ": 5864,
      "Ġáĭ¨áĪļáĭ«áĭ°áĪŃáĮĪáĭį": 5865,
      "ĠáĬ¢áĪľ": 5866,
      "ĠáĪįáĮĨáī»áī¸áĭį": 5867,
      "ĠáĮĢáĪŃ": 5868,
      "Ġáĭ¨áĬłáĪĿáĪĭáĬŃĠáīĥáĪį": 5869,
      "Ġáĭ°áĪµĠáī¥áĪİ": 5870,
      "áįįáī³áīµ": 5871,
      "Ġáĭ¨áī°áĪĺáĪ¨": 5872,
      "ĠáĬ¥áĬķáĭ²áĭ«áĪµ": 5873,
      "ĠáĪģáĪĭáī½áĪģ": 5874,
      "ĠáĮįáĪ©áĪĿ": 5875,
      "Ġáĭ°áĪµáī°áĬŀáī½": 5876,
      "ĠáĬ¨áĬłáī£": 5877,
      "ĠáĬ¤áĪĬ": 5878,
      "ĠáĪŀáĬŃ": 5879,
      "Ġáī°áĭĪáĪĭ": 5880,
      "ĠáĭŃáī»áĪĭáĪįĠ": 5881,
      "áĪįáįī": 5882,
      "áĮĪáĪĿ": 5883,
      "áī»áĭŃáĬĵ": 5884,
      "Ġáĭ¨áĪĽáĪµáī°": 5885,
      "áĮĪáĬĺáĭįĠáīł": 5886,
      "ĠáĪĺáĪµáĬŃ": 5887,
      "ĠáĪĺáĪµáĪİ": 5888,
      "áīłáĪįáĮ¡": 5889,
      "ĠáĭŃáĪ°áĮ£áĪį": 5890,
      "ĠáĬ¥áĬ©": 5891,
      "Ġáīłáī¤": 5892,
      "ĠáĬłáįķ": 5893,
      "áĬĲáĪ»": 5894,
      "áĬŃáįī": 5895,
      "Ġáĭ¨áī°áĭ°áĪ¨áĮĪ": 5896,
      "áĪ¬áĬķ": 5897,
      "áĮİáīµ": 5898,
      "áĪµáįĭáįĭ": 5899,
      "ĠáĭĿáĮįáĮħáīµ": 5900,
      "ĠáĮ¥áĪ«áīµĠáĭ«áĪĪáĭį": 5901,
      "ĠáĬłáĭ°áĪ¨áĮĪĠ": 5902,
      "áĭ°áĭ±": 5903,
      "ĠáĬĲáĮį": 5904,
      "áĮłáĭĭ": 5905,
      "ĠáĪ°áĪĮáĭ³": 5906,
      "ĠáĪĪáĪĺáĪĦáĭµ": 5907,
      "Ġáĭ¨áĬ¥áĭįáĬĲ": 5908,
      "ĠáĪĽáĬķĠáĬĲáĭįĠ": 5909,
      "ĠáĪĽáī´áĭİáĪµ": 5910,
      "áĪ¨áįįáīµ": 5911,
      "áī³áī°": 5912,
      "ĠáĭĪáĭ°Ġáĭ«áĪħáĭĮ": 5913,
      "áĪĿĠáįĪ": 5914,
      "áįĢáĪĢáĭŃ": 5915,
      "áĪ¸áīµ": 5916,
      "ĠáįķáĪ®áĮĢáĬŃáīµ": 5917,
      "áĮİáī¥áĬĺ": 5918,
      "ĠáĭŃáĮ¨áĪĿ": 5919,
      "ĠáĬĲáī¢áĭ©": 5920,
      "Ġáīħáĭ³áĪľáĬĵĠáĬ¥áĪģáĭµ": 5921,
      "ĠK": 5922,
      "Ġáĭ¨áī¢": 5923,
      "ĠáĬ¥áĪ°áĮ£": 5924,
      "ĠáĬ¥áĪº": 5925,
      "ĠáĪĺáįįáĮłáĪŃ": 5926,
      "áĪ³áĭµ": 5927,
      "áĪĨáĬķĠáĬłáĭŃ": 5928,
      "ĠáĪĿáĪį": 5929,
      "ĠáĪĭáĭŃĠáĭ«áĪī": 5930,
      "áī¢áĭİáī½": 5931,
      "áīµĠáĭŃáĪįáīħ": 5932,
      "Ġáī£áĪĪáĪµáĪįáĮ£áĬĵ": 5933,
      "Ġáī¥áĭ¬ĠáĬłáĪµáī£": 5934,
      "ĠáĬ¢áĬķáĪ¹áĪ«áĬķáĪµ": 5935,
      "ĠáĪįáĪĽáĭµ": 5936,
      "ĠáĭŃáĪ°áĮł": 5937,
      "áĪ°áĭįáĬķ": 5938,
      "ĠáĪµáĪĽ": 5939,
      "áĬ«áįĪ": 5940,
      "áĭĺáĪĿ": 5941,
      "áĭĺáĪ¨áĮĭ": 5942,
      "ĠáĬ¥áĬķáĮįáĪĬáĭĿ": 5943,
      "ĠáīłáįĬáīµĠáĭ¨": 5944,
      "ĠáĭŃáĮĪáĬĽáĪįĠ": 5945,
      "áī°áĪĽáĪĺáĬķ": 5946,
      "áĬĵĠáĪµáĪĪ": 5947,
      "áīłáĭĿ": 5948,
      "Ġáī°áĮĪáĬĿ": 5949,
      "ĠáĬ¥áĬĵĠáĪĽ": 5950,
      "ĠáĭįáĪµáī¥áĪµáī¥": 5951,
      "áĪĢáĪ´": 5952,
      "ĠáĬłáĬķáīº": 5953,
      "Ġáĭ«áĪµáīĢáĪĿ": 5954,
      "ĠáīłáĬ¥áĪŃáĮįáĮ¥áĪĿ": 5955,
      "ĠáīłáįĬáīµĠáīł": 5956,
      "Ġáī°áĬĵáĮįáĪ¯áĪį": 5957,
      "ĠáĬ¥áĬķáĭ²áĪħĠáĬłáĪĪáĭįáį¦ĠâĢľ": 5958,
      "ĠáĬŃáĪŃáĬŃáĪŃ": 5959,
      "ig": 5960,
      "ol": 5961,
      "Ġáĭļ": 5962,
      "áĭįáĪŃ": 5963,
      "áĭįáĪī": 5964,
      "áĪįáī¶": 5965,
      "áĪĺáĭ±": 5966,
      "áĪĺáĮĪáī¥": 5967,
      "ĠáĭŃáī³áĭĪ": 5968,
      "áĬ«áĪĦáĭ°áĭį": 5969,
      "Ġáĭ°áĪĺ": 5970,
      "ĠáĬ¨áįįĠáĬ¨áįį": 5971,
      "ĠáĭįáĮ¤áī¶áī½": 5972,
      "ĠáĪĺáĪĪáĪµ": 5973,
      "amp": 5974,
      "ĠáĮįáĭµáĮįáĭ³": 5975,
      "ĠáĬ¥áĮ©": 5976,
      "Ġáīłáīħ": 5977,
      "áĪĭáĬķ": 5978,
      "Ġáī£áĭ¶": 5979,
      "ĠáĬ¥áĬķáĭ²áĪħĠáī¥áĪĭáĪĪáī½": 5980,
      "ĠáĪµáĪ«áĭİáī½áĬķ": 5981,
      "ĠáĮ¥áīħáĪŀáī½": 5982,
      "áīªáĭ²áĭ®": 5983,
      "ĠáĬłáĭµáĬĵ": 5984,
      "Ġáĭ¨áĪĺáĮ¨áĪ¨áĪ»áĭį": 5985,
      "áĪĿáĪĿ": 5986,
      "áĪŃáĬ¨": 5987,
      "ĠáīłáĪ´": 5988,
      "áĮĪáī¢áĭ«": 5989,
      "áĬŃáįĪáĪį": 5990,
      "áĭĪáĮł": 5991,
      "ĠáĪĪáĪĺáĬĸáĪŃ": 5992,
      "ĠáĪĪáĪĺáĮĢáĪĺáĪŃ": 5993,
      "ĠáĬ¢áĬķáī°áĪŃ": 5994,
      "Ġáĭ¨áĬ¥áĬĲáĭļáĪħ": 5995,
      "áį¡áį¡ĠáĬłáĪĭáĪħ": 5996,
      "áīĢáĪŃáīł": 5997,
      "áĮĵáī¸áĭį": 5998,
      "áĭ¨áīµáĬĽáĭįáĪĿ": 5999,
      "ĠáĬ¥áĬķáīħáĪµáīĥáĪ´áĭİáī½": 6000,
      "áĬ¨áĪ°áī±": 6001,
      "ĠáĬ¥áĪħáī¶áī½": 6002,
      "ĠáĪĺáĮłáĭ¨áīħ": 6003,
      "áĭĿáīĥáĭĽ": 6004,
      "ĠáīłáĭĻáĪªáĭ«": 6005,
      "ĠáĬłáĭ°áĪ¨áĮī": 6006,
      "áĭ«áĪīĠ": 6007,
      "áĪīáīµĠ": 6008,
      "Ġáĭ«áĭ°áĪ¨áĮī": 6009,
      "Ġáĭ«áīĢáĪŃáī£": 6010,
      "ĠáĪµáīĥáĭŃ": 6011,
      "Ġáī°áĪįáĬ¥áĬ®": 6012,
      "ĠáĬ«áĪĭáī¸áĭį": 6013,
      "ĠáĬłáĪµáīĢáĭµ": 6014,
      "ĠáĬłáīħáĬļ": 6015,
      "ĠáĪ°áĪ«áĭĬáīµ": 6016,
      "áĬŃáĪŃáĪµáī²áĭ«": 6017,
      "ĠáĭŃáĮłáīĢáĪĻ": 6018,
      "ĠáĪĪáĭŃ": 6019,
      "ĠáĪ³áĭŃáĪĨáĬķĠáīł": 6020,
      "áĭŀáĪŃ": 6021,
      "Ġáĭ¨áīµáĬŀáī¹": 6022,
      "Ġáī³áĪĭáīģ": 6023,
      "ĠáĪĿáĮįáī¦áī½": 6024,
      "ĠáįĬáīµĠáĪĪáįĬáīµ": 6025,
      "áī°áĭįĠáīł": 6026,
      "áĬ«áĪ½": 6027,
      "áī±áĬķáĪĿ": 6028,
      "Ġáī³áī¦": 6029,
      "ĠáĪ°áĭİáī½ĠáĪģáĪī": 6030,
      "áī£áī¢áĪİáĬķ": 6031,
      "ĠáīµáĬ©áĪµ": 6032,
      "ĠáĭĪáĪ¨áīĢáīµ": 6033,
      "áĮĪáĬĵáĬĺáīµ": 6034,
      "áĬ¨áĪĽáī»": 6035,
      "áįĮáĭ´áĪ«áĪį": 6036,
      "áĭįáīĢ": 6037,
      "ĠáīłáĬĲáįĥ": 6038,
      "ĠáĬłáĪŀ": 6039,
      "Ġáī¥áīĥ": 6040,
      "áĬ¤áįį": 6041,
      "ĠáĭĿáĪĿáĭµ": 6042,
      "ĠáĪĿáĬŃáĬķáĭ«áīµĠáĭ¨": 6043,
      "ĠáĪĺáĪµáįĪ": 6044,
      "áĪĺáĬķáīµ": 6045,
      "áĮłáīĢáĪĿáīłáīµ": 6046,
      "ĠáĪĺáĪ°áĪ¨áīµĠáĭ¨": 6047,
      "ĠáīĭáĬķáīĭáĭİáī½": 6048,
      "ĠáĮĵáĭ°áĬŀ": 6049,
      "um": 6050,
      "Ġáĭ¨áĪĨ": 6051,
      "áĪįáĬĵáĪįĠ": 6052,
      "áī°áĬĵáĪįĠ": 6053,
      "áĪĭáĪĪáĪģ": 6054,
      "ĠáĪĿáĪģ": 6055,
      "áĭĿáĬķ": 6056,
      "Ġáī£áī¢": 6057,
      "áĭĽáī¸áĭį": 6058,
      "ĠáīłáĪĽáĬķ": 6059,
      "áī³áĪĽáĬĿáĬĲáīµ": 6060,
      "ĠáĬ¨áĪĺáĮłáĬķĠáīłáĪĭáĭŃ": 6061,
      "Ġáĭ¨áĭ®": 6062,
      "ĠáĬłáĮĪáĬĺ": 6063,
      "ĠáĬ¨áī¥áĭĻ": 6064,
      "ĠáĪĭáĭŃĠáĭ«áĪĪ": 6065,
      "ĠáĪĢáĪĿ": 6066,
      "Ġáĭ¨áĬłáĬķáī°": 6067,
      "ĠáĮĪáįĢ": 6068,
      "ĠáįįáīµáĪħ": 6069,
      "ĠáĬªáĬķáĮį": 6070,
      "áĪģáĪīáĪĿĠáĭ¨": 6071,
      "ĠáĪ®áĪĿ": 6072,
      "ĠáĪĺáĪŃáĪĢ": 6073,
      "ĠáĬłáĪĪáĪĿĠáĭįáĪµáĮ¥": 6074,
      "ĠáĭŃáĮĪáī£áĪį": 6075,
      "áĭĪáĪĪáĭµ": 6076,
      "áĮ¬": 6077,
      "ĠáīłáĪ«": 6078,
      "áĪµáĬĲ": 6079,
      "ĠáĭŃáĪĭ": 6080,
      "áĬ¨áīłáĪ©": 6081,
      "áį£Ġáĭ¨áī°": 6082,
      "Ġáĭ¨áĪļáī½áĪĪáĭį": 6083,
      "áĪ»áĮĪáĪŃ": 6084,
      "ĠáīħáĪ¬": 6085,
      "áĭ¶áī¹": 6086,
      "áĭ¶ĠáĮ¥áĮĪáĬĵ": 6087,
      "áĭľáĬĵ": 6088,
      "ĠáĭĪáĪ°áĬķ": 6089,
      "ĠáĬ¥áĬĵáĭ°áĪŃáĮĭáĪĪáĬķĠ": 6090,
      "áĪĪáīµĠáī°áĬ¥": 6091,
      "Ġáīłáī¤áī°": 6092,
      "ĠáĪĺáĪĽáĪŃ": 6093,
      "áīłáīģ": 6094,
      "áī±áĬķĠáīł": 6095,
      "áĬĿĠáĬĲáīłáĪŃĠ": 6096,
      "ĠáĬŃáĪĭ": 6097,
      "áīĨáĮłáĪŃ": 6098,
      "ĠáĬ¢áĪ³": 6099,
      "ĠáĬ¥áĪ±áĬķ": 6100,
      "áĮłáĪ«áĭį": 6101,
      "ĠáĬłáīħáĪ«áī¢áĭ«": 6102,
      "ĠáĪĺáĪĪáĪ°": 6103,
      "áĬ®áĬĸáĪļáĭ«": 6104,
      "ĠáĬ¨áĮ¥áīĤáīµ": 6105,
      "áīĥáĮłáĪįĠáĪĺáī£": 6106,
      "áĪħáīµáĬĵ": 6107,
      "áīĢĠ": 6108,
      "Ġáĭ¨áĬłáĪĺ": 6109,
      "áīģáĮ£": 6110,
      "ĠáįįáĪĪáĮĭ": 6111,
      "ĠáĬłáĪĺáī³áĭĬ": 6112,
      "áĮĪáī£áĬĽáĪį": 6113,
      "ĠáīłáĪĺáĮ¨áĪ¨áĪ»áĪĿ": 6114,
      "áĪĿáįĴáĭ©áī°áĪŃ": 6115,
      "Ġáĭ¨áī¤": 6116,
      "Ġáĭ¨áĬłáĬ¥áĪĿáĪ®": 6117,
      "ĠáĬłáĪĪáī£áī¸áĭįĠ": 6118,
      "áī·áī¸áĭį": 6119,
      "Ġáī³áĪĭáĪĭáīħ": 6120,
      "áĮİáī¥áĬĻ": 6121,
      "ĠáĭĪáĭµáĮĦ": 6122,
      "[Ġ": 6123,
      "áĭ°áĬĲáĮĪ": 6124,
      "áīĢáĪ³": 6125,
      "ĠáĭĪáĭ°ĠáĪĮáĪĭ": 6126,
      "ĠáĮĭáĪŃĠáĭ¨": 6127,
      "áĮ¨áĬĵ": 6128,
      "ĠáĮĪáĭĽ": 6129,
      "ĠáĬŃáįįáīµ": 6130,
      "ĠáīĨáĪ®áĬķáī¶áĪµ": 6131,
      "ĠáĮ£áĬ¦": 6132,
      "ĠáĪµáīµáĪ«": 6133,
      "áĬĵáĮĪáĪ¨áĭįáĬķ": 6134,
      "ĠáĪĢáĭĭáĪŃáĭ«": 6135,
      "Ġâ": 6136,
      "Ġáī¬": 6137,
      "áĪĪáĬĵáĪįĠ": 6138,
      "áĭ°áīħ": 6139,
      "ĠáĭŃáī°": 6140,
      "áĬ¥áĪĪáī±": 6141,
      "ĠáĪĭáĭŃĠáīłáī°": 6142,
      "ĠáĬ¤áįĮ": 6143,
      "áĮ¦áĪ½": 6144,
      "ĠáĬłáĭŃáĭ°áĪīáĪĿĠ": 6145,
      "áĬĲáįĥáįĢ": 6146,
      "ĠáĬłáĭįáĪ®áįķáĪĭ": 6147,
      "áĪ¨áĪĿáīµ": 6148,
      "áįĪáĮłáĪ¨áĭį": 6149,
      "ĠáĪĪáĪĺáĪĺáĪĪáĪµ": 6150,
      "ĠáĬ¥áĪµáĪŃ": 6151,
      "áī³áī½áĬķáĬķ": 6152,
      "Ġáī£áĪįáĬĵ": 6153,
      "ĠáĭįáĭŃáĭŃáīµ": 6154,
      "ĠáĪĽáĬŃáĪ°áĬŀ": 6155,
      "áĬķáĭĭ": 6156,
      "áī°áĪ®áī½": 6157,
      "ĠáĭŃáĪ¸": 6158,
      "áī£áĮŃ": 6159,
      "áĮłáįį": 6160,
      "áĮ¨áĪĪáĪĽ": 6161,
      "áĪľáĪ«": 6162,
      "ĠáĬłáĪĺáĮ£": 6163,
      "áĪĪáĬķĠáĬ¥áĬĵ": 6164,
      "áī¤áīµĠáĭįáĪµáĮ¥": 6165,
      "Ġáīº": 6166,
      "áĮįáĪ³": 6167,
      "ĠáĪ°áĬŀ": 6168,
      "ĠáĬĲáĭįáĬĵĠ": 6169,
      "ĠáĪįáī¤": 6170,
      "ĠáĮĢáĪįáī£": 6171,
      "ĠáīĨáĪŀ": 6172,
      "ĠáĭĭáĬĵĠáĭĭáĬĵ": 6173,
      "ĠáĪĽáĪ³áĪ°áī¢áĭ«": 6174,
      "Ġáī°áīĢáĪĿáĮ¦": 6175,
      "ĠáĪĽáīłáĪ¨áī³áī»": 6176,
      "Ġáĭ¨áĭ²": 6177,
      "áĭ«áĪī": 6178,
      "áĬĲáī³áī¸áĭįáĬķ": 6179,
      "ĠáĭįáĪį": 6180,
      "ĠáīłáĪĺáī³": 6181,
      "ĠáĪĦáĭ¶": 6182,
      "áĭ°áĬķáīłáĬĽ": 6183,
      "Ġáī°áĬĵáĮįáĪ«": 6184,
      "ĠáĪ°áĪĽáĭ«": 6185,
      "ĠáĪĪáĪµáĪĭáĪ³": 6186,
      "ĠáīĢáĮłáĪ®": 6187,
      "ĠáĬłáįĪ": 6188,
      "áĪ³áīµĠáĬł": 6189,
      "ĠáĬĲáĮĪáĪŃĠáĬĲáĭįĠ": 6190,
      "ĠáĮīáĭµ": 6191,
      "ĠáĬ¨áįįĠáĭ«áĪĪ": 6192,
      "áĮĪáĪĪáĮĪ": 6193,
      "Ġáī£áĪħáĪŃáĭ«": 6194,
      "áĪĨáĬĵáī½áĬķ": 6195,
      "áīłáīµáĬķĠáĪĺáĬķáĮĪáĭµ": 6196,
      "ĠáĬ¥áĪŃáĮįáĮ¥ĠáĬĲáĭį": 6197,
      "em": 6198,
      "ĠáīłáĮİáī½": 6199,
      "áĭµáīĥ": 6200,
      "ĠáĪįáī¡": 6201,
      "ĠáĪ«áĪ³áī½áĪģ": 6202,
      "ĠáĪĺáĮ¥áī°áĭį": 6203,
      "Ġáĭ¨áĬĲáīłáĪ©áīµ": 6204,
      "áĪĺáĪĿ": 6205,
      "ĠáĪĺáĪ¨": 6206,
      "áĭİáī³": 6207,
      "Ġáĭ¨áĪļáī£áĪį": 6208,
      "áĭįáĬķáī²": 6209,
      "áįĭáĪª": 6210,
      "áĪĿĠáīłáĬĭáĪĭ": 6211,
      "ĠáĪĿáĬķáĬĽ": 6212,
      "áĬĵáĮĪáĬĿ": 6213,
      "áĬķáīĢáįħ": 6214,
      "ĠáĪĺáĭĿáĬĵ": 6215,
      "and": 6216,
      "ĠáĭŃáĮĪáĪįáįĥ": 6217,
      "Ġáī°áĬĵáĮĪáĪ¨": 6218,
      "ĠáĭĪáĭ°ĠáĪ°": 6219,
      "áĮ¨áĪµ": 6220,
      "ĠáĭĿáĪĿ": 6221,
      "ĠáĬłáĪµáī°áĪĽáĪĽáĬĿ": 6222,
      "áįĦ": 6223,
      "áĬĵĠáĪĪáĪĺ": 6224,
      "áĭŃáĭµ": 6225,
      "áĪ³áĪĪáĪģ": 6226,
      "áĪªáĬķ": 6227,
      "áĬ«áĬķ": 6228,
      "Ġáĭįáīłáīµ": 6229,
      "áī¶áī½ĠáĪĭáĭŃ": 6230,
      "Ġáĭ¨áĬłáīµáĬŃáĪįáīµ": 6231,
      "Ġáī³áī½": 6232,
      "áĪ¯áĭĬ": 6233,
      "áĪŁáī¸áĭį": 6234,
      "ĠáĬ¢áĬķáī¨áĪµáīµ": 6235,
      "ĠáĮĪáī¥áī¶": 6236,
      "ĠáĪµáĪ«ĠáĬłáĪµáĬªáĭ«": 6237,
      "Ġg": 6238,
      "áĪĪáĭ©": 6239,
      "ĠáĬ¥áĬĵáī´": 6240,
      "ĠáĪĽáĪ¨áįĬáĭ«": 6241,
      "áĭ³áĭ²áĪµ": 6242,
      "áīµáĬķĠáĭ«": 6243,
      "Ġáĭ¨áĪļáĭ«áĪµáī°": 6244,
      "Ġáįįáīĥ": 6245,
      "ĠáĬ¨áĭļáĪħĠáīłáįĬáīµ": 6246,
      "ĠáĭĽáįİáī½": 6247,
      "ĠáĬĲáīłáĪ¨Ġ": 6248,
      "áīħáĭµáĪĺ": 6249,
      "Ġáī½áĮįáĪ©": 6250,
      "Ġáĭ¨áĪĨáĬĲáĭįáĬķĠáĬĲáĮĪáĪŃ": 6251,
      "Ġáĭ¨áĪļáĬ¨áī°áĪĪáĭįáĬķ": 6252,
      "áĭµáĪĽ": 6253,
      "áįĪáīħáĭµ": 6254,
      "ĠáīłáĪļáĪį": 6255,
      "ĠáĬ®áĪªáĭ«": 6256,
      "ent": 6257,
      "ĠáĭŃáĭĪáĮ£": 6258,
      "ĠáĪĪáĬ¢": 6259,
      "Ġáī¥áĪ¨áīµ": 6260,
      "ĠáīłáĪĺáĬķáĮĪáĭµ": 6261,
      "Ġáī£áīµ": 6262,
      "ĠáĪ²áĭ°áĪŃáĪµ": 6263,
      "áĪ®áī½Ġ": 6264,
      "ĠáĬ®áĬ¨áī¥": 6265,
      "ĠáĬ¨áĭļáĪħĠáīłáĬĭáĪĭ": 6266,
      "ĠáĪĺáĬķáĮįáĪµáī±": 6267,
      "áįĪáįħáĪŀ": 6268,
      "áĮ«áĭĪáī±": 6269,
      "áĭįáĪ®áįķáĪĭ": 6270,
      "áīĪ": 6271,
      "Ġáĭ¨áī¥áĪŃ": 6272,
      "áīłáī°": 6273,
      "áĭµáĪ®": 6274,
      "ĠáĪĽáĪĺáĪįáĬ¨áī»": 6275,
      "áīµĠáĬłáīµ": 6276,
      "Ġáĭĺáįį": 6277,
      "ĠâĢ¢": 6278,
      "Ġáĭ¨áĬ¢áĬķ": 6279,
      "ĠáĪ°áĪĭáĪĽáĭĬ": 6280,
      "áĬķáĮĢáĪį": 6281,
      "ĠáīµáĬŃáĬŃáĪĪáĬĽáĭį": 6282,
      "Ġáĭ¨áĮīáī£áĬ¤": 6283,
      "ĠáĬłáĮ¥áī¥": 6284,
      "ĠáĭŃáĪµ": 6285,
      "áĪ°áĭµ": 6286,
      "áį£ĠáĪµáĪĪáĭļáĪħ": 6287,
      "ĠáĪĽáĪ°": 6288,
      "ĠáĬĲáĭįâĢĿ": 6289,
      "ĠáĪ°áĭįáĬĲáīµ": 6290,
      "Ġáĭ«áĪµáī½": 6291,
      "ĠáīĢáĮ¥áī°áĬĽ": 6292,
      "Ġáĭ¨áįįáīħáĪŃ": 6293,
      "áĮĮáī³áĭ¬": 6294,
      "ĠáĬ¥áĪµáī´": 6295,
      "ĠáĬ¥áĭ«áĪī": 6296,
      "áįĪáĪŃáĬ¦áĬķ": 6297,
      "ĠáĭŃáĪĺáĪµáĪį": 6298,
      "ĠáĪĿáĭµáĪªáī±": 6299,
      "Ġáĭ«áĬķáī¥": 6300,
      "áĭŁáĪįĠ": 6301,
      "ĠáĬ¨áĬ¥áĬĽĠáĮĭáĪŃ": 6302,
      "áĪĿáī¶": 6303,
      "ĠáīłáĭŃ": 6304,
      "áį¡Ċ": 6305,
      "ĠáĪģáĪīáĪĿĠáĭ¨": 6306,
      "Ġáī³áĭį": 6307,
      "ĠáīħáĮ¥áĪŃ": 6308,
      "Ġáĭ¨áĪĽáĪħáīłáĪ«áĭĬ": 6309,
      "ĠáĬ¥áĪµáĬ¨ĠáĭĽáĪ¬": 6310,
      "ĠáīµáĪįáīħĠáī¦áī³": 6311,
      "Ġáī°áĭĪáĬ«áĭ®áī½": 6312,
      "ĠáīłáĬĲáĮĪ": 6313,
      "áĭ«áī½áĬķ": 6314,
      "áĬłáī¸áĭį": 6315,
      "áīģáĪ¨áĮ¥": 6316,
      "Ġáīłáĭ°áĪµáī³": 6317,
      "áĮįáĬķáī£áī³": 6318,
      "ĠáĮįáĭĻáįį": 6319,
      "áĭ®áĪŃáĬŃ": 6320,
      "ĠáįįáĪ«": 6321,
      "ĠáĬłáĪįáī»": 6322,
      "ĠáĬłáĭµáĪŃáĮī": 6323,
      "áĭ°áĬķáīłáĬŀáī½": 6324,
      "ĠáĪĺáĪ¬áīµ": 6325,
      "ĠáĮĭáĪŃĠáĭ¨áī°áĭ«áĭ«áĭĺ": 6326,
      "áĮĵáĮĵáĭ£": 6327,
      "Ġáī°áĭ°áĪŃáĮİ": 6328,
      "áĪĿĠáĪįáĮĨáī½": 6329,
      "ĠáīłáĮīáī£áĬ¤": 6330,
      "ĠáĭŃáĭį": 6331,
      "ĠáĭŃáĪĭáĪī": 6332,
      "áĪ³áĪīĠ": 6333,
      "ĠáĬ¥áĬĵĠáĪµáĪĪ": 6334,
      "Ġáĭ¨áĪļáĭĪ": 6335,
      "áĪįĠáįį": 6336,
      "ĠáĪĪáĪĺáĮłáīĢáĪĿ": 6337,
      "áĭ±áīµ": 6338,
      "áĮĪáĪĪáįħ": 6339,
      "áī³áĭįáīģ": 6340,
      "áĬĲáĮĭáĮį": 6341,
      "ĠáīłáĬ¢áīµáĭ®áĮµáĭ«": 6342,
      "áĪįáĭ©": 6343,
      "ĠáīłáĬ¦": 6344,
      "ĠáĬ¨áĬķáī±": 6345,
      "ĠáĪĪáī³": 6346,
      "ĠáĬ¥áĬķáĭ²áĪ¨áĭ³": 6347,
      "ĠáĭŃáĪħáĬķĠáĪĺ": 6348,
      "áĭ°áĪ¨áĪ±": 6349,
      "áĪĭáī¸áĭįáĬķ": 6350,
      "ĠáĮİáĬķ": 6351,
      "Ġáĭ¨áī³áĭĪáīĢ": 6352,
      "ĠáĮĮáī³áĭ¬": 6353,
      "Ġáī¶áĪİ": 6354,
      "ĠáīłáĭįáĪĢ": 6355,
      "ĠáĬŃáįįáĪĪĠáĮĬáĭľ": 6356,
      "áĮ¨áĭĭáī³": 6357,
      "ĠáĮīáĭµáĮĵáĭµ": 6358,
      "ĠáĮĲ": 6359,
      "ĠáīłáĪĺáĪĦáĭµ": 6360,
      "áĪ¬áĭİáī½": 6361,
      "ĠáĬłáĪĪáīĨáī½": 6362,
      "ĠáĪĺáĪĨáĬĳáĬķĠáĬł": 6363,
      "ĠáĪĭáĭŃĠáī°áįħáĬ¥áĬĸ": 6364,
      "ĠáīłáĪħáĮį": 6365,
      "Ġc": 6366,
      "áĭĭáĭŃ": 6367,
      "áĮīáĭ³": 6368,
      "ĠáĮĭáĪŃĠáīłáĪļ": 6369,
      "áīµĠáĭ¨áīł": 6370,
      "áįīĠ": 6371,
      "Ġáĭ«áĪµáĭ°": 6372,
      "ĠáīłáĪĿáĭµ": 6373,
      "Ġáĭ¨áĪļáĪĺáĪ«": 6374,
      "ĠáĭįáĪµáĮ¥Ġáĭ«áĪĪáĭįáĬķ": 6375,
      "áĪĿĠáĬłáīµ": 6376,
      "áĪ¨áĭįĠ": 6377,
      "ĠáĭĪáĭŃáĪĿĠáīłáĬł": 6378,
      "áīµĠáīłáĪĽáĭµáĪ¨áĮį": 6379,
      "ir": 6380,
      "áĭįáĪµáĮ¥": 6381,
      "Ġáĭ¨áĭĪáĮ£": 6382,
      "ĠáĪĪáī£": 6383,
      "áĪ³áī±": 6384,
      "áį£ĠáĬ¥áĬķáĭ°": 6385,
      "áĭİáī½áĬķĠáīłáĪĺ": 6386,
      "ĠáĪħáĭŃáĭĪáī´": 6387,
      "ĠáĬŃáī¥áĭ°": 6388,
      "ĠáĭŃáĪ»": 6389,
      "Ġáĭ¨áĪļáī½áĪīáīµ": 6390,
      "áĬĿáĬķ": 6391,
      "Ġáĭ¨áĪĺáĬĸáĪªáĭ«": 6392,
      "ĠáĪ³áīµ": 6393,
      "áĮŃáīłáĪŃ": 6394,
      "ĠáįĪáĪª": 6395,
      "ĠáĬ¤áĬŃáĪµ": 6396,
      "ĠáĬłáī¥áĭĽáĬĽáĭįáĬķĠáĮĬáĭľ": 6397,
      "ĠáĪĿáĪµáĪ«áī¹": 6398,
      "áĬ®áĬĸáĪļáĭ«áĭĬ": 6399,
      "áīµĠáĬĲáĮĪáĪŃ": 6400,
      "áĭİáī½áĬķĠáīł": 6401,
      "Ġáĭ¨áĪļáĬĸáĪŃ": 6402,
      "ĠáĪ²áĪĦáĭµ": 6403,
      "ĠáīłáĬłáĭŃ": 6404,
      "ĠáĪļáĪµáī±": 6405,
      "ĠáīµáĪĿáĪħáĪŃáīµĠáī¤áī¶áī½": 6406,
      "ĠáĪĿáĪ½áīµ": 6407,
      "áĬķáįĢáī£áĪ¨áīħ": 6408,
      "áĪĪáīµĠáī°áĬ¥áĪĪáīµ": 6409,
      "áĭįĠáī°": 6410,
      "Ġáĭ¨áĪ²": 6411,
      "Ġáĭ¨áĪ°áĪĽ": 6412,
      "áī£áĭµ": 6413,
      "ĠáīłáĪĺáīĢáĮłáĪį": 6414,
      "áīµáĬķĠáĬĲáĮĪáĪŃ": 6415,
      "ĠáĬłáĪĺáįħ": 6416,
      "ĠáīłáĬ¢áĭ¨áĪ±áĪµ": 6417,
      "Ġáĭ¨áįħ": 6418,
      "áĪ°áĭİáī½": 6419,
      "áĭİĠáīłáįĬáīµ": 6420,
      "áīħáĪĿ": 6421,
      "áĮ£áĪīĠ": 6422,
      "áĭ³áĪ´": 6423,
      "áĬ«áī¸áĭį": 6424,
      "ĠáĬ¥áĬķáĭ°áĪĨáĬķáĬ©": 6425,
      "ĠáĪĢáĭĺ": 6426,
      "áĪ¬áĮĭ": 6427,
      "áįĢáĭ³": 6428,
      "Ġáĭ«áĪĪáī¥": 6429,
      "Ġáī£áĪĪáįīáīµ": 6430,
      "ĠáĬ¤áĪŃáīµáĪ«": 6431,
      "áī·áĬķ": 6432,
      "ĠáĬ¥áĪ±áĪĿĠáīł": 6433,
      "ĠáĭĪáĪ°áĭ°": 6434,
      "áįħáĬĵáĬĵ": 6435,
      "áīµĠáĬłáĭŃáĭ°áĪĪáĪĿĠ": 6436,
      "áĪĪáī£áī¸áĭį": 6437,
      "ĠáĪĺáĭ«áĭĿ": 6438,
      "áĪĻáĭ«": 6439,
      "áīµĠáīłáĪĭáĭŃ": 6440,
      "ĠáĬłáĭŃáĬķ": 6441,
      "ĠáĭĪáĭŃáĪĿĠ": 6442,
      "ĠáĮĪáĭ¥": 6443,
      "ĠáĪ°áĭįáĭ¨áĭį": 6444,
      "áĮŃáĬĲáīµ": 6445,
      "ĠáīģáĪĿ": 6446,
      "áĮĭáĮ¥áĪĻ": 6447,
      "Ġáĭ°áīĤáīĥáĭİáī½": 6448,
      "áĬŃáī°áĪ®áī½": 6449,
      "ĠáĬłáĪ¸áĬĵáįĬ": 6450,
      "ĠáĪ°áĬĲáĭµ": 6451,
      "ĠáĬĲáĮĪáĪµáī³áīµ": 6452,
      "httpĠ": 6453,
      "Ġáĭ°áĪħáĬķáĬĲáī±Ġáĭ¨áī°áĮłáīłáīĢ": 6454,
      "ĠáĪĺáĬĸáĪ©": 6455,
      "ĠáĬĲáįĭ": 6456,
      "áį£ĠáĪĽ": 6457,
      "áĭĺáĭĺ": 6458,
      "ĠáĬķáĪµáĪĢ": 6459,
      "ĠáĭĪáĭŃáĪĿĠáĬ¨áĭļáĭ«ĠáīłáĪĭáĭŃ": 6460,
      "ĠáĬ¤áĪĿ": 6461,
      "áįĵáĪŃáīµ": 6462,
      "áīĢáĮ¥áĪī": 6463,
      "ĠáĬłáĪģáĬķĠáĮįáĬķ": 6464,
      "ĠáīµáĬŃáĬŃáĪĪáĬĽáĭįáĬķ": 6465,
      "ĠáĪĽáĬķáĬĽáĭįáĬķáĪĿĠáĬĲáĮĪáĪŃ": 6466,
      "áĭµáĪŃáĮħáī±": 6467,
      "ĠáĬłáĪ³áĪįáįİ": 6468,
      "ĠáĪµáĪª": 6469,
      "áīµĠáĬłáĬķáĭ³áĬķáĭµ": 6470,
      "Ġáĭ¨áĪĺáĪµáĪĺáĪŃĠáĪĭáĭŃ": 6471,
      "Ġáĭ¨áĬłáĭįáĪ®áįĵ": 6472,
      "ĠáĭĺáįįáĮ¥áĪ¨áīµ": 6473,
      "ĠáīłáĪļáĮĪáĬĺáĭį": 6474,
      "áĬªáĭİáī½": 6475,
      "Ġáĭ¨áĪĨáĬĲáĭįĠáĭ¨": 6476,
      "ĠáĬ¢áĬķáī½": 6477,
      "ĠáĪĪáĪ°áĭİáī½": 6478,
      "ĠáĮ¢áĪŀáī´áĭİáĪµ": 6479,
      "Ġáĭ³áĭŃáĪ¬áĬŃáī°áĪŃ": 6480,
      "ĠáĪĺáĪĺáĪĪáĪµ": 6481,
      "áĪ¨áĬķáĪµ": 6482,
      "áĮ¥áīłáī¥": 6483,
      "ĠáĭĪáĭ®": 6484,
      "áīĥáĪª": 6485,
      "ĠáīĢáĭ°": 6486,
      "áĭĽáĭį": 6487,
      "áĭĽáĬĿ": 6488,
      "ĠáĪĢáĭ«áĪį": 6489,
      "áīµáĬķĠáĪĪáĪĽ": 6490,
      "ĠáĬłáĪĽáĪ«áĮ®áī½": 6491,
      "ĠáĭĿáĪŃáĭĿáĪ®áī½": 6492,
      "ĠáĪĮáĪĬáīµ": 6493,
      "ĠáĬłáīħáĪŃáī¦": 6494,
      "áĭ³áĪ¨áĪ»": 6495,
      "ĠáĪªáįĲáī¥áĪĬáĬŃ": 6496,
      "Ġáĭ¨áĬĵ": 6497,
      "áĪŃáī»": 6498,
      "áĪµáī£": 6499,
      "áĬĵáī¸áĭįáĬķ": 6500,
      "ĠáĪĺáĭ«áĭ£": 6501,
      "Ġáī°áĭĺáĮĭáĮħ": 6502,
      "Ġáī°áĮłáīĥáĪļáĭİáī½": 6503,
      "áĮĭáī£": 6504,
      "Ġáĭ¨áī°áĪĺ": 6505,
      "áĭįáĬķĠáĪģáĪī": 6506,
      "ĠáīłáĪĺáĪ°áĪ¨": 6507,
      "ĠáĭŃáĪħáĪĿĠáīł": 6508,
      "áī¡áĭµáĬķ": 6509,
      "ĠáīħáĬĵáĪ½": 6510,
      "ĠáĭĪáĭŃáĪĿĠáĪĮáĪĭ": 6511,
      "ĠáĪĺáī¥áī¶áī½": 6512,
      "Ġáĭĺáĭ´áĭİáī½": 6513,
      "ĠáįįáīµáĪĢáĭĬ": 6514,
      "ĠáĪĪáīłáĪĪáĮłĠáĪĺáĪ¨áĮĥ": 6515,
      "ec": 6516,
      "áī°áĬ©": 6517,
      "áĪ«áĪĦ": 6518,
      "áīĢáĪ±": 6519,
      "ĠáĬ¥áĬĵáĭįáīĥ": 6520,
      "áĪĬáĭ«áĬķ": 6521,
      "áĮĪáĭĽáĭĿ": 6522,
      "ĠáĪĺáĪŃáĬ¨áī¥": 6523,
      "Ġáĭ¨áĬłáĭ¨áĪŃĠáĪģáĬĶáī³": 6524,
      "ĠáĬ«áĪħáĬĵáī±": 6525,
      "ĠáĮ¥áĪŃáĮ¥áĪŃĠáĭ¨áĪĪáĭįáĪĿĠ": 6526,
      "áĪĿĠáīµ": 6527,
      "áĭµáĪ«": 6528,
      "ĠáĪµáįĶ": 6529,
      "áįĪáĬĲ": 6530,
      "áĪµáī°áĬ«áĬ¨": 6531,
      "ĠáįĪáĮ£áĪª": 6532,
      "ĠáĪ¸áĪĽ": 6533,
      "áĬ¨áī°áĪĽáĭį": 6534,
      "ĠáĮ¥áīłáīłáĬĽ": 6535,
      "Ġáīłáĭ¨áĬłáĪĺáī±": 6536,
      "áĪĿáĪįáĬ®": 6537,
      "Ġáĭ¨áĮĭáĪ«": 6538,
      "ĠáĪĺáĮłáīĢ": 6539,
      "áįįáĪ¨": 6540,
      "áĪ³áĭ¨áīµ": 6541,
      "áĬ¨áĪī": 6542,
      "ĠáĪĪáĪĺáĭ«áĭĿ": 6543,
      "ĠáĪĪáĪĺáĭįáĪ°áĭµ": 6544,
      "áĬķĠáĪĺáĬ«áĬ¨áĪį": 6545,
      "áĬĴáĬ¬": 6546,
      "áĪħáĪ©": 6547,
      "ĠáĬ¨áĪ¨": 6548,
      "áī³áĬķáĭ«": 6549,
      "áĭµáĪµáīµ": 6550,
      "Ġáī°áĬł": 6551,
      "Ġáĭ¨áĪļáĪĨáĬĲ": 6552,
      "ĠáĬ¥áĬķáĭ°ĠáĪĨáĬĲ": 6553,
      "ĠáīłáĪĺáĮ£": 6554,
      "ĠáĭĪáĭ°ĠáĭįáĮŃ": 6555,
      "ĠáĬłáĬķáĭµĠáĬłáĭŃáĬĲáīµ": 6556,
      "áī§áĪį": 6557,
      "ĠáīĢáĬĵáīµĠáĭįáĪµáĮ¥": 6558,
      "Ġáĭ«áĭ°áĪŃáĮĪáĭĭáĪį": 6559,
      "áĭĿáĪŃáĭĿáĪŃ": 6560,
      "iv": 6561,
      "Ġ@": 6562,
      "Ġáĭ¨áįĵ": 6563,
      "ĠáīłáĭŃáĪģáĭ³": 6564,
      "áĭ°áĬĲ": 6565,
      "ĠáĬ¥áĬĵáĪĿ": 6566,
      "áīĥáĪ¨": 6567,
      "áīĥáĪīĠ": 6568,
      "ĠáīłáĪĺáĪµáĮłáīµ": 6569,
      "áīµĠáīłáĮ£áĪĿĠáĬł": 6570,
      "Ġáĭ¨áĬ¥áĬĲáĪ±": 6571,
      "ĠáĪĮáĪİáī¹": 6572,
      "áĭµáĬķáĮĭáĭŃ": 6573,
      "áĮłáĪ«áīĢ": 6574,
      "áĪµáĪĽáīµ": 6575,
      "áĪĺáĭĭáĪįĠ": 6576,
      "Ġáī°áī£": 6577,
      "Ġáī°áĪ³áīµáįİ": 6578,
      "Ġáĭ¨áĪļáĮĪáĬĺáĭį": 6579,
      "áĭ¨áĬķ": 6580,
      "áĪ®áĮ¥": 6581,
      "Ġáĭ¨áī°áĮĪáĬĺ": 6582,
      "ĠáĪįáĭįáĭį": 6583,
      "ĠáīĢáĭĿáīĥáĭĽ": 6584,
      "Ġáĭ¨áĬłáĪĪ": 6585,
      "ĠáĬłáĭŃáī½áĪįáĪĿĠ": 6586,
      "áīĨáĭ¨áīµ": 6587,
      "áīĭáĪį": 6588,
      "ĠáĬłáĭŃáĭ°áĪīáĪĿ": 6589,
      "ĠáĪĽáĪĪáīµĠáĬĲáĭį": 6590,
      "áĭįáī¶": 6591,
      "ĠáĪĺáĮįáī£": 6592,
      "ĠáĪĪáĪħáĭĿáī¡": 6593,
      "Ġáĭ«áĮĪáĪĪáĮį": 6594,
      "Ġáĭ¨áĪļáĮĪáĪįáįħ": 6595,
      "ĠáĪĿáī¾": 6596,
      "ĠáĪĽáĪ¨áĮĭáĮĪáĮ¥": 6597,
      "áĭĺáĮĪ": 6598,
      "ĠáĪĪáĪĺáĬĵáĮĪáĪŃ": 6599,
      "áĭĪáĪµáĭ°áĭį": 6600,
      "ĠáĪĿáĪ³áĪĮĠ": 6601,
      "Ġáĭ¨áĪ°áĭįĠáĪįáĮĨáī½": 6602,
      "áī°áĭĭ": 6603,
      "ĠáĭŃáĭ°áĪŃ": 6604,
      "Ġáĭ¨áĪļáĪĺáĮ£": 6605,
      "Ġáĭ¨áĪļáĪ¨áĭ±": 6606,
      "áĭĺáĭĺáĭį": 6607,
      "áĪľáīµ": 6608,
      "ĠáĪµáīµáĪį": 6609,
      "ĠáĬ¥áĬķáĭ³áĪĪáī£áī¸áĭį": 6610,
      "ĠáīłáĪĺáĮĢáĪĺáĪªáĭ«áĭį": 6611,
      "ĠáĬłáĪĪáīłáīµáį¡áį¡Ċ": 6612,
      "áįĪáīĥáĭ°áĬĿáĬĲáīµ": 6613,
      "ĠáĬłáĭŃáĪģáĭ³áĭįáĭ«áĬķ": 6614,
      "áĪŃáĬĵ": 6615,
      "áĪ¨áĪ³": 6616,
      "ĠáĬ¨áĪ°áĪĽáĭŃ": 6617,
      "ĠáĪĪáīµ": 6618,
      "áĮ£áĭĬ": 6619,
      "Ġáī¥áĭĽ": 6620,
      "ĠáĪĢáĪĻáĪµ": 6621,
      "ĠáĬ«áĪµ": 6622,
      "ĠáīłáĬ¥áĪ³áīµ": 6623,
      "áĪĿáĪĭáĬ«áī½áĬķ": 6624,
      "áĭĿáĮįáĮħ": 6625,
      "ĠáĮ£áĪįáīĥ": 6626,
      "áĪĺáĪ©Ġ": 6627,
      "ĠáĭŃáĭĪáĭ³": 6628,
      "Ġáī°áĮ¨": 6629,
      "Ġáĭ¨áĪļáĭ°áĪ¨áĮį": 6630,
      "áĭ³áĮį": 6631,
      "ĠáĪ°áĭ¶": 6632,
      "ĠáĮĬáĭľáĭ«áĭĬ": 6633,
      "ĠáĬ¥áĪŃáĬ«áī³": 6634,
      "ĠáĪĪáĬłáī£": 6635,
      "ĠáĪģáĪĪáīµĠáĭ¨": 6636,
      "Ġáī£áĪªáĭ«áĭİáī½": 6637,
      "Ġáĭ¨áĪļáĭ«áĪ³áĭ©": 6638,
      "áī®": 6639,
      "Ġáĭ¨áĪĪáīłáīµ": 6640,
      "ĠáĬłáĪ¨áĬķáĮĵáĭ´": 6641,
      "áĪĽáī¸áĭįáĬķ": 6642,
      "ĠáĪĪáĬ«": 6643,
      "áĪ°áĭĭáĪįĠ": 6644,
      "Ġáī°áĪ°áī¥": 6645,
      "áĭĪáĪ«": 6646,
      "áĬ«áĬŃ": 6647,
      "ĠáĪ°áĭİáī½ĠáĮĭáĪŃ": 6648,
      "Ġáī£áĪĪáįī": 6649,
      "ĠáĪĺáĮłáĭŃ": 6650,
      "ĠáĪĺáĮłáĮ¥": 6651,
      "ĠáĬłáī¥áĪ¨": 6652,
      "ĠáĪµáĪĪáĪĨáĬĲáĪĿ": 6653,
      "ĠáĭŃáĪ¨áĭ³áĬĵáĪįĠ": 6654,
      "ĠáĬĲáĭĭáĪª": 6655,
      "Ġáĭ°áĮĭáįĬ": 6656,
      "áĭ¦": 6657,
      "áĪµáĬ¤": 6658,
      "áĬĵáĮĭ": 6659,
      "áī³áĪĿ": 6660,
      "ĠáĮĪáįĥ": 6661,
      "ĠáĭĺáĭĪáīµáĪŃ": 6662,
      "áīµáĬķĠáĭ¨": 6663,
      "áįĢáĪĪáĭŃ": 6664,
      "Ġáĭ¨áĪĽáĬķ": 6665,
      "ĠáĬłáĬķáĭµĠáĮĬáĭľ": 6666,
      "ĠáĬĲáīłáĪ¨áī½": 6667,
      "áī¥áĭĽáĬĽáĭİáī¹": 6668,
      "Ġáī£áĪĪáī¤áī¶áī½": 6669,
      "áĮĪáĪ«áĪļ": 6670,
      "ĠáĮ¥áĪĭáī»": 6671,
      "áįķáĪ®áĮĢáĬŃ": 6672,
      "ĠáĪĺáīĢáĪĺáĮ«": 6673,
      "áī¥áĪªáĬ«": 6674,
      "áĮ£áĮ£": 6675,
      "áīĥáĪĪáĪģĠ": 6676,
      "áī¦áī»áī¸áĭį": 6677,
      "Ġáĭ«áĪħáĭĮĠ": 6678,
      "ĠáĬ¥áĭ«áĭ°áĮĪ": 6679,
      "ĠáĪĪáĬ¥áĬĲáĪŃáĪ±": 6680,
      "ĠáĪĿáĭµáī¥": 6681,
      "áĪ³áī°áįī": 6682,
      "áįķáĪ®áĮįáĪ«": 6683,
      "áĪįáĭ«áĭµ": 6684,
      "ĠáĭŃáĭ°áĭįáĪī": 6685,
      "Ġáĭ«áĪĪáĪĽáīĭáĪ¨áĮ¥": 6686,
      "áĭįáĬķáĭµ": 6687,
      "Ġáĭ¨áĬŃáĪŃáĪµáī¶áĪµ": 6688,
      "áĪįáī°": 6689,
      "ĠáīłĠáĬĽáĭį": 6690,
      "ĠáĪĺáĮ¡": 6691,
      "áī¸áĪŃ": 6692,
      "ĠáĪ²áĪįĠ": 6693,
      "ĠáĭĺáįĪ": 6694,
      "ĠáīłáĬłáī¥áĭĽáĬĽáĭį": 6695,
      "ĠáĮłáī¦": 6696,
      "áĪ¶áĪŃ": 6697,
      "áĪ²áī¥": 6698,
      "áĪĪáĪĿáĭ¶": 6699,
      "ĠáĪ½áįĭ": 6700,
      "Ġáī°áĮįáī£áĪ«": 6701,
      "ĠáĪµáī¥áĪ°áī£áĭİáī½": 6702,
      "ĠáīĢáĪŃáī¶": 6703,
      "ĠáĬĲáī¢áĭŃ": 6704,
      "ĠáĮłáīħĠáĭ«áĭµáĪŃáĮīĠ": 6705,
      "áīµáĬķĠáĬł": 6706,
      "áĪĿáī¥": 6707,
      "ĠáīłĠáĭİáī¹": 6708,
      "áĮĪáĪ°": 6709,
      "ĠáĪĺáĪ¸": 6710,
      "ĠáĪĿáĪħáĪ¨": 6711,
      "Ġáĭ¨áī°áĬĲáĭ°": 6712,
      "ĠáīµáįĪáĪįáĮĭ": 6713,
      "ĠáĭŃáĪħáĪĿĠáĭ¨": 6714,
      "áĮİáī½áĬķ": 6715,
      "ĠáĪ³áĪ«": 6716,
      "Ġáįįáĭ¨": 6717,
      "ĠáĬ¥áĮħáĮįĠáīłáĮ£áĪĿ": 6718,
      "áīĨáĮ£áĮłáĪªáĭ«": 6719,
      "áįĪáįħáĪĿ": 6720,
      "áĮłáĭ¨áīģ": 6721,
      "áĬŃáįįáĭ«": 6722,
      "ĠáīħáĪŃáĬķáĮ«áįį": 6723,
      "áĪĿĠáĪĺáĬ«áĬ¨áĪį": 6724,
      "áī³áĭĺáĭĿ": 6725,
      "ĠáĪĭáĪĪáĪĺ": 6726,
      "áįĬáīµĠáīł": 6727,
      "ĠáĪĺáĬķáĪµáĬ¤": 6728,
      "ĠáĬ¦áįķáĪ¬": 6729,
      "áĪµáī³áĭĪáīĤáĭ«": 6730,
      "ĠáĬ¥áĬĲáĪĨáį¥": 6731,
      "áĬ¨áįĭáįĪáĪį": 6732,
      "Ġáī»áĭŃ": 6733,
      "ĠáīµáĪĿáĪħáĪŃáī¶áī½": 6734,
      "ĠáĮĦáĬĶ": 6735,
      "áĬŁ": 6736,
      "áī¶áī»áī¸áĭįáĬķ": 6737,
      "áĭįáĬķĠáĭ«": 6738,
      "áĪ°áī¥áĬłáĭĬ": 6739,
      "ĠáĭŃáĪħáĬķĠáĪĽáĭµáĪ¨áĮį": 6740,
      "ĠáĬłáī£áī±": 6741,
      "ĠáĭŃáĪĨáĭĭĠáĪĨáĭŃáį£": 6742,
      "ĠáĬ¥áĪŃáĪĿáĮĥáĭİáī½": 6743,
      "Ġáĭ¨áī£áĪĪ": 6744,
      "áĬ¨áĪ°áī°": 6745,
      "áĮłáīĢáĪĻáīłáīµ": 6746,
      "ĠáĬłáĭİáį£": 6747,
      "Ġáĭ°áĮĭáĮį": 6748,
      "ĠáĬĲáĮ¥áī¦áī½": 6749,
      "ĠáĪµáīµáĪ«áī´áĮĤ": 6750,
      "ĠáĬ¨áĭĭ": 6751,
      "áįĪáī°áĬĵ": 6752,
      "Ġáī¥áĪįáĪħ": 6753,
      "áīĨáĪĽ": 6754,
      "ĠáĬ«áĪ³": 6755,
      "áīµĠáĭŃáĬĸáĪŃ": 6756,
      "Ġáĭ¨áĪļáĭ«áĪµáĭ°": 6757,
      "ĠáĪĬáĭ«áĭ°áĪŃáĮį": 6758,
      "ĠáĬłáĪĿáī£": 6759,
      "ĠáĪ¸áĬŃ": 6760,
      "ow": 6761,
      "ĠáĬłáĬķáĭ´": 6762,
      "áĮĪáĪĿáī³": 6763,
      "áĮĪáĪĿáĮĪ": 6764,
      "áĮįáī¢áĭ«": 6765,
      "áĪĽáĪļáĭ«": 6766,
      "áĭ¨áĭĭ": 6767,
      "ĠáĭĪáĭ°ĠáĬłáĬķáī°": 6768,
      "Ġáĭ¨áĬ¥áĬķáĪµ": 6769,
      "áĮĵáĪįĠ": 6770,
      "Ġáī¤áī°áĪ°áī¡": 6771,
      "ĠáįħáĪģáįİáī½": 6772,
      "ĠáĬłáĮĪáĪįáĮĭáĭ®áī¹": 6773,
      "Ġáĭ¨áĪļáĬ¨áī°áĪīáīµ": 6774,
      "áĮĪáĬĲáĭĺáī¡": 6775,
      "ĠáĬ¥áįĪáĪįáĮĭáĪĪáĪģĠ": 6776,
      "áĬĲáĭ³áĮħ": 6777,
      "áĬ¥áĭµĠáĬłáĮĪáĪŃ": 6778,
      "áĪĺáī°": 6779,
      "áī¥áĪ©": 6780,
      "ĠáĬ¨áĪ°áĭį": 6781,
      "áī³áĪĪáī½": 6782,
      "áį£ĠáĭŃáĪħáĪĿ": 6783,
      "ĠáĪģáĪīĠáĪĭáĭŃ": 6784,
      "áī²áĬķ": 6785,
      "áĬķĠáĪĺáĪį": 6786,
      "ĠáĬ¨áĭļáĭ«áĪĿĠáĬł": 6787,
      "ĠáĬ¥áĪµáĬ¨áĪļ": 6788,
      "Ġáĭ¨áĪļáĭ«áĪµáįĪáĪįáĮī": 6789,
      "áĬķĠáĭ¨áĪļáīĨáĮłáĪ©": 6790,
      "Ġáī°áĪĺáĪįáĪ¶": 6791,
      "áĬķáīħáĪĭ": 6792,
      "Ġáī°áĪŃáįİ": 6793,
      "ĠáīłáĪ²": 6794,
      "áĬĵáī½áĪģ": 6795,
      "áĪ¨áĬŃ": 6796,
      "ĠáĪĪáĪµáĪ«": 6797,
      "ĠáĪĭáĭŃĠáĬ¥áĬķáĭ°": 6798,
      "ĠáĬ¥áĬķáĭ²áī½áĪī": 6799,
      "ĠáĪĬáīĥ": 6800,
      "áīµáĬķĠáĭ¨áĪļ": 6801,
      "ĠáĬ¥áĪµáĬŃ": 6802,
      "ĠáĪĪáĬ¥áĪŃáĪ±": 6803,
      "áīµĠáĭŃáįĪáĪįáĮĭ": 6804,
      "áĭ´áĮį": 6805,
      "áĪĺáĪ«áĪŃ": 6806,
      "áī°áī£áīłáĪŃ": 6807,
      "Ġáĭ¨áĪļáĮĪáī¡": 6808,
      "ĠáĪĭáĭŃĠáĬĲáĭį": 6809,
      "ĠáĭŃáĪħĠáĬĲáĭįĠ": 6810,
      "ĠáĪµáĪĪáĪĽáĭŃ": 6811,
      "Ġáĭ¨áĪĺáĬ¨áĪĭáĬ¨áĭ«": 6812,
      "ĠáĬłáĭŃáĪĺáĪµ": 6813,
      "áĮ«áĭİáī½": 6814,
      "áĬķĠáĪĺáĪĺáĪªáĭ«": 6815,
      "áĮįáī£áī¡": 6816,
      "áīµĠáĭŃáĪ°áĪĽ": 6817,
      "Ġáĭ¨áĭĪáĬķáĭµ": 6818,
      "Ġáĭ¨áĭĪáĪŃáīħ": 6819,
      "áĪ¾áī½áĬķ": 6820,
      "áĬķĠáĬłáĭŃáĭ°": 6821,
      "Ġáĭ¨áĪĿáĬķáī½áĪĪáĭįĠáĬ¥áĬķáĭ´áīµĠáĬĲáĭįĠ": 6822,
      "ĠáĪįáĮĥáī½áĪģ": 6823,
      "ĠáīĦ": 6824,
      "ĠáĬłáĭ«áĭįáīħ": 6825,
      "áĪħáĭĽáī¥": 6826,
      "ĠáĭŃáĪ°": 6827,
      "áĮłáĭĭáĪįĠ": 6828,
      "Ġáĭ¨áī°áĪ°áĮłáĭį": 6829,
      "ĠáĮįáĪĿ": 6830,
      "ĠáĭĪáĭ°Ġáī¤": 6831,
      "áĬķĠáĬłáī£": 6832,
      "ĠáĪĪáĪĽáĪĪáīµ": 6833,
      "ĠáĬ¥áĬķáĭ°áĪļáī»áĪį": 6834,
      "Ġáī¢áĪĬáĭ®áĬķ": 6835,
      "ĠáĬĵáīµĠ": 6836,
      "ĠáīłáĪļáĮĪáĬĿ": 6837,
      "áįİáī¹": 6838,
      "ĠáĬ¥áĬĶĠáĮįáĬķ": 6839,
      "áĮĪáĬĲáī¡": 6840,
      "áĪĺáĪ°áĪ¨áī±": 6841,
      "áĪ°áĪĭáĪ°áĪį": 6842,
      "ĠáĭĪáĬķáĮĮ": 6843,
      "ĠáĭŃáĮłáĭŃ": 6844,
      "ĠáĭŃáĪĭáĪīĠ": 6845,
      "Ġáĭ¨áī°áĭĭ": 6846,
      "ĠáĮ¥áĬķáī³áĭĬ": 6847,
      "áĬķĠáĬłáĪĪ": 6848,
      "Ġáĭ¨áĬłáĪµáī°áĭ³áĭ°áĪŃ": 6849,
      "ĠáīłáĬłáĬķáĭ³áĬķáĭµ": 6850,
      "ĠáĬłáĪĺáįĢ": 6851,
      "áīµĠáĪĺáī£": 6852,
      "ĠáĪįáĮĨáī¼": 6853,
      "áįĮáĪµáī¡áĬŃ": 6854,
      "ĠáĪĪáī°áĭĪáĪ°áĬĲĠáĮĬáĭľ": 6855,
      "ĠáĭĪáĭ³áĪĪáĭį": 6856,
      "áĪ»áĪĪĠáĪģáĬĶáī³": 6857,
      "Ġáĭ«áĭ°áĪŃáĮĭáĪīĠ": 6858,
      "ĠáĪĺáĮ£Ġ": 6859,
      "Ġáĭ¨áĪ°áĪ«áĭĬáīµĠáĮĮáī³": 6860,
      "áįĪáī³áī³áĬĿ": 6861,
      "Ġáī³áĪªáĬ®áī½": 6862,
      "áĬĲáĮĪáĪŃĠáĮįáĬķ": 6863,
      "Ġáĭ¨áī£áĪħáĪŃĠáĭ³áĪŃáī»": 6864,
      "us": 6865,
      "áĪįáĮħ": 6866,
      "Ġáĭ¨áī°áĭĪ": 6867,
      "áĭ°áĪ¨áĪ°áĭį": 6868,
      "Ġáĭ°áĮįáĬĲáīµ": 6869,
      "áī³áĭĪáīģ": 6870,
      "ĠáĪĿáĬŃáĬķáĭ«áī±áĪĿĠáīł": 6871,
      "ĠáĪŀáĭ´áĪį": 6872,
      "ĠáĪĨáĬĹáĪįĠ": 6873,
      "áĮįáĪ³áįħ": 6874,
      "ĠáĪ¼": 6875,
      "áĮĪáĮĥ": 6876,
      "áĮĪáī°áĬĽ": 6877,
      "ĠáĬ¨áĭĺ": 6878,
      "ĠáĭŃáĪģáĬķĠ": 6879,
      "ĠáĮįáī¦áī½": 6880,
      "ĠáīłáĬłáĪµ": 6881,
      "ĠáĮłáĭĭ": 6882,
      "ĠáĬ®áĬķ": 6883,
      "ĠáĮĢáĪĺáĪ©Ġ": 6884,
      "ĠáĬłáĬķáī£áī¢": 6885,
      "áĬķĠáĪĪáĪĽáĮįáĬĺáīµ": 6886,
      "ĠáĪģáĪĪáī±áĬķáĪĿ": 6887,
      "áĪĿáĪ¨áĭį": 6888,
      "áĪĪáĭ¨áīµ": 6889,
      "áĭŃáĪµ": 6890,
      "áĪħáį£": 6891,
      "áĮįáĪ¬": 6892,
      "áĪ«áĭįáĭ«áĬķ": 6893,
      "áĬ¥áĬĽ": 6894,
      "áĪ®áī»áī½áĬķ": 6895,
      "áĪ½áĭ«áĮŃ": 6896,
      "ĠáĪĪáĪĽáĮĪáĪįáĮĪáĪį": 6897,
      "áīĤáīħ": 6898,
      "ĠáĬķáĮĪ": 6899,
      "áįĪáįĢáĪĺáĭį": 6900,
      "ĠáĬłáĮĪáĪįáĮįáĪİáī¶áī½áĬķ": 6901,
      "ĠáīłáĮ£áĪĿĠáĬłáĪµ": 6902,
      "ĠáįķáĪ®áĮįáĪ«áĪŀáī½": 6903,
      "ĠáĬ¥áĬĲáĭļáĪħáĬķĠáĬĲáĮĪáĪ®áī½": 6904,
      "áĬ¨áįĭáįĪ": 6905,
      "Ġáĭ¨áĬłáĬ«áĪįĠáī¥áīĥáīµĠáĬ¥áĬķáīħáĪµáīĥáĪ´": 6906,
      "Ġáĭ¨áĮī": 6907,
      "Ġáĭ¨áĪľ": 6908,
      "ĠáĪĺáĪ¨áī¥": 6909,
      "áĪ«áĪĺáĭµ": 6910,
      "áĬłáĪŃ": 6911,
      "áĭĪáĪŃáĭµ": 6912,
      "ĠáĬ¥áĬķáĬ¨": 6913,
      "ĠáĬłáĭŃáĬĲáī¶áī½": 6914,
      "áĭ®áĪŃáĭ³áĬĸáĪµ": 6915,
      "ĠáĬ¤áĬķ": 6916,
      "ĠáĪģáĬĶáī³áĭį": 6917,
      "ĠáĬ¥áĬķáĮįáĭ²áĭ«áĭį": 6918,
      "org": 6919,
      "áĮłáĬĵáīĢáīĢ": 6920,
      "Ġáĭ²áĭ«áī¥áĪİáĪµ": 6921,
      "áĬ¨áįĪáĪį": 6922,
      "áĪªáįį": 6923,
      "áįĭáĪį": 6924,
      "ĠáĪĨáī´": 6925,
      "ĠáīĨáĪĺ": 6926,
      "ĠáĪŃáĪµáīµ": 6927,
      "ĠáįĢáĪİáīµ": 6928,
      "ĠáĬłáĬķáĭ³áĬķáĭµĠáĪ°áĭİáī½": 6929,
      "ĠáĪĽáīĨáĪļáĭ«": 6930,
      "Ġáįİáī¶áĮįáĪ«áįį": 6931,
      "ĠáīłáĮ¥áĪ©ĠáĪģáĬĶáī³": 6932,
      "áĪħáĬķĠáīł": 6933,
      "áĭİáī¿": 6934,
      "Ġáĭ«áĭ°áĪŃáĮī": 6935,
      "Ġáī°áĬķ": 6936,
      "áįĪáĮłáĪ«": 6937,
      "áĭĪáĮįáĭ³": 6938,
      "ĠáĪĿáĬķáĭµ": 6939,
      "Ġáī¥áĭµáĪŃ": 6940,
      "áī¶áī½Ġáīł": 6941,
      "Ġáĭ¨áĪĺáĪ¨áĮĥ": 6942,
      "Ġáī¤áī¶áī½áĬķ": 6943,
      "ĠáĬ«áĪĿ": 6944,
      "áĭĪáĭ³áĭ°áĪŃ": 6945,
      "áĮłáĭįĠ": 6946,
      "Ġáĭ¨áĬ¥áĪµáĪ«áĬ¤áĪįáĬķ": 6947,
      "áīµáĪŃáįį": 6948,
      "Ġáīłáĭ°áĪį": 6949,
      "áĭĿáĬĵáĬĽ": 6950,
      "ĠáĪĺáĮłáĬķĠáĭ«áĪĪáĭį": 6951,
      "ĠáĪ°áī¥áĬłáĭĬ": 6952,
      "ĠáĪĺáĭĿáĪĻáĪŃĠ": 6953,
      "ĠáĪĺáįħáĪĢáįī": 6954,
      "ĠáĪ¨áĭµáī¶": 6955,
      "ĠáįķáĪ¬áĭļáĭ³áĬķáīµ": 6956,
      "Ġáĭ¨áĪ¸": 6957,
      "áĪµáĪĿ": 6958,
      "áĭ°áĭŃ": 6959,
      "áī¥áĪĭ": 6960,
      "ĠáĬ¨áĪħ": 6961,
      "áī³áĮĪ": 6962,
      "áįįáĬĵ": 6963,
      "áĮłĠ": 6964,
      "áĪ©áīħ": 6965,
      "ĠáĮįáī¥áĪ¨": 6966,
      "ĠáĮĪáįģ": 6967,
      "ĠáĬ¢áĬ®áĬĸáĪļáĭ«áĭĬ": 6968,
      "ĠáĭĪáĬķáĭµĠáĪįáĮħ": 6969,
      "áĪ·áĪį": 6970,
      "Ġáĭ¨áĪĺáĮĢáĪĺáĪªáĭ«áĭįáĬķ": 6971,
      "áĬķáīĢáĪ³áīĥ": 6972,
      "Ġáĭ¨áī°áĪ³áĪ³áī°": 6973,
      "ĠáĭĿáĪĿáĭµáĬĵ": 6974,
      "áĪ¿": 6975,
      "ĠáĬ¥áĮĪáĭĽ": 6976,
      "ĠáĬ¥áĮ¥áįį": 6977,
      "áĭ°áĪ«áĪį": 6978,
      "ĠáĬ¨ĠáĬłáĪĺáī³áīµĠáīł": 6979,
      "ĠáĭŃáĪ°áĮ¥": 6980,
      "áįįáĬķ": 6981,
      "áĮĭáĭį": 6982,
      "áĭ³áĪªáĭİáī½": 6983,
      "áįĭáĪįĠ": 6984,
      "Ġáī³áĮĪáĬĽ": 6985,
      "áĮĮáĮ¥": 6986,
      "ĠáĪĿáĪµáĪİáī½áĬķ": 6987,
      "ĠáĬ¥áĬĲáĪ±áĪĿĠáīł": 6988,
      "ĠáĭŃáĪĨáĭĭĠáĬ¥áĬķáĭ²áĪħĠáĭŃáĪĭáĪį": 6989,
      "áįĨáī½áĬķ": 6990,
      "Ġáĭ°áĪŃáĪ¶": 6991,
      "áĪĺáĬŃáĪ«": 6992,
      "ĠáĪĽáĪ«áĬª": 6993,
      "ĠáĬ¥áĬķáĮĢáĪ«": 6994,
      "ĠáĪĺáīĢáīłáĪį": 6995,
      "ĠáĬ¨áĭ°": 6996,
      "áīħĠ": 6997,
      "ĠáĪĽáĬĵáī¸áĭį": 6998,
      "áĪİáĪĽ": 6999,
      "áįħáįį": 7000,
      "Ġáĭ¨áĬłáĪį": 7001,
      "Ġáĭ¨áĬłáĮĪáĪįáĮįáĪİáīµ": 7002,
      "áī²áīµ": 7003,
      "ĠáĬłáĪµáīĢáĪĿ": 7004,
      "ĠáĬŃáįįáĭ«áĭİáī½": 7005,
      "áĪĺáĪįáĬŃ": 7006,
      "ĠáĪĺáĪµáĬ®": 7007,
      "áīªáĪį": 7008,
      "ĠáĭĪáĭ³áĮħáĬĲáīµ": 7009,
      "ĠáĪĺáĪĺáĪªáĭ«áĭİáī½": 7010,
      "ĠáĬ¤áĪįáĪ³": 7011,
      "ĠáĬ¨áĪįáī¥": 7012,
      "áĪµáī°áĭ«áĭ¨": 7013,
      "áīµáĪĺ": 7014,
      "áįĪáīħ": 7015,
      "áĮ£áĭį": 7016,
      "ĠáĬĲáĭįĊ": 7017,
      "ĠáĮįáĮ¥": 7018,
      "áīĨáĭ³": 7019,
      "ĠáĮĪáĬķ": 7020,
      "ĠáīłáĬłáĪĽ": 7021,
      "ĠáįĪáĪĪ": 7022,
      "áīµĠáĭŃáī»": 7023,
      "áĮĪáĬĽáĪĪáĬķĠ": 7024,
      "áī¥áĪ«áĪªáĭ«": 7025,
      "ĠáĪµáĪįáĮ£áĬķáĬĵ": 7026,
      "Ġáĭ¨áĪĺáĬķáĮįáĪµáī±": 7027,
      "ĠáĭĪáĬķáĭµáĪŀáī¹": 7028,
      "Ġáĭ«áĮĪáĬĽáĪīĠ": 7029,
      "áĭĺáĪ¨áĭĺ": 7030,
      "áĪµáĬķ": 7031,
      "ĠáĪĽáĭ¶": 7032,
      "ĠáĪ°áįĪ": 7033,
      "ĠáĬĲáĭįĠáĪµáĪĪáĭļáĪħ": 7034,
      "ĠáĭįáĮĬáĭ«": 7035,
      "áĭĿáĬĲáĪµ": 7036,
      "ĠáĪ²áĪĨáĬķĠáĬł": 7037,
      "Ġáī¤áī±áĬķ": 7038,
      "ĠáīłáĪļáĮĪáĬĻ": 7039,
      "áĭµáĬķáĬ³": 7040,
      "áįĵáĬķ": 7041,
      "Ġáĭ®áĪŃáĬŃ": 7042,
      "áĬ¨áĪ°áīµ": 7043,
      "ĠáĪĪáĪĿáĬķĠáĬ¥áĬķáĭ°áĪĨáĬĲ": 7044,
      "áĪĮáĪŃ": 7045,
      "ĠáĭĺáįĢ": 7046,
      "Ġáī³áĪªáĬ«áĭĬ": 7047,
      "áĭ©ĠáĬ¤áĪµ": 7048,
      "ĠáĪ°áĭİáī½Ġáīł": 7049,
      "ĠáĮłáĪ«": 7050,
      "áĪĬáįİáĪŃ": 7051,
      "áĬ®áĪ«": 7052,
      "ĠáĬ¥áĪ·áĪĿ": 7053,
      "Ġáī½áĮįáĪ®áī½áĬķ": 7054,
      "ĠáĪĺáĪ¬áīµĠáĪĭáĭŃ": 7055,
      "áī°áĬ®áĪŃ": 7056,
      "Ġáī³áĭįáīĥáĪĪáĪħ": 7057,
      "ĠáĪµáĪ«ĠáĬłáĪµáĬªáĭ«áĮħ": 7058,
      "heĠ": 7059,
      "áĭįáĪ¨áĭµ": 7060,
      "Ġáĭ¨áĪ´": 7061,
      "ĠáĬłáĭĪáĮ£": 7062,
      "áĪ¨áī¤": 7063,
      "áĪĽáĪĺáĮ¥": 7064,
      "ĠáĪĪáĭ°": 7065,
      "Ġáī°áĪĪáĭĭáĭĭáĮŃ": 7066,
      "áĮ£áįį": 7067,
      "áĮĭáĮłáĪĺ": 7068,
      "áĬ«áī£áī¢áĭ«": 7069,
      "ĠáīłáĪĺáĬķáĮįáĪµáīµ": 7070,
      "ĠáĭįáĪµáĮ¥ĠáĬłáĬķáĭ±": 7071,
      "Ġáīłáī°áĭ°áĮĭáĮĭáĪļ": 7072,
      "ĠáĬķáįħ": 7073,
      "áĬŀáī»áī¸áĭį": 7074,
      "áĬ¢áĭ¨áĪ©áĪ³áĪĮáĪĿ": 7075,
      "áĭİáī½áĬķĠáĭ«": 7076,
      "ĠáĬ¥áĭµáĪī": 7077,
      "ĠáĪħáĭŃáĭĪáī³áī½áĬķ": 7078,
      "áĭ°áĪĿáĭ°": 7079,
      "Ġáī£áĪĪáĪµáĪįáĮ£áĬķ": 7080,
      "ĠáĭĪáĪĪáĭ°Ġ": 7081,
      "áĭ°áĪ¨áĮĭáī¸áĭį": 7082,
      "áĬķĠáīĥáĪį": 7083,
      "Ġáĭ¨áīħáĪŃáī¥ĠáĮĬáĭľ": 7084,
      "áĬĵáĮĪáĭµ": 7085,
      "áĪĺáī³áīµ": 7086,
      "ĠáĭŃáĪĺ": 7087,
      "Ġáī°áĭ°áĪ«": 7088,
      "ĠáīĢáīł": 7089,
      "áī´áĬĵ": 7090,
      "ĠáĪ³áĪį": 7091,
      "Ġáĭ¨áĬ¥áĪ±áĬķ": 7092,
      "ĠáĪħáĭĿáīħáĭ«áĪµ": 7093,
      "áĪŁáĪĭáīµ": 7094,
      "ĠáīłáīĢáĪµ": 7095,
      "áĪ¨áĮĭáĮįáĮ¥": 7096,
      "ĠáĭĪáĪµáĭ°": 7097,
      "Ġáīłáĭ°áī¡áī¥": 7098,
      "áĮĪáī£áĬĽáĪįĠáĮ¥áĭ«áīĦ": 7099,
      "áĪĿĠáĪµáĪĪ": 7100,
      "Ġáĭ¨áĪ°áĮłáĭį": 7101,
      "áĪħĠáĪĭáĭŃ": 7102,
      "ĠáĬ¨áĬĲ": 7103,
      "áĬ«áĬĿáĬĲáīµ": 7104,
      "ĠáĭįáĪ¸": 7105,
      "Ġáĭ¨áī°áįĥáįĪ": 7106,
      "ĠáĮĪáĪĪáĪį": 7107,
      "ĠáīłáĬłáĭ²áĪ±": 7108,
      "ĠáĪ³áĭ«áĪµ": 7109,
      "ĠáĬ¥áĬķáĭ²áĪħĠáī¥áĪİ": 7110,
      "ĠáįĪáĮ¥": 7111,
      "ĠáĬĵáī¸áĭįáį¡áį¡Ċ": 7112,
      "áĪ°áĭįĠáĪįáĮħ": 7113,
      "ĠáĬłáĭµáĪŃáĮĭáī½áĪģ": 7114,
      "áĬ¨áīµáĪį": 7115,
      "áĪĭáĪĪáįĪ": 7116,
      "ĠáĪĽáĪ³áĭ¨áīµ": 7117,
      "ĠáĪĺáĬķáįĪáĪµĠáīħáĭ±áĪµ": 7118,
      "ĠáĪĺáĪªáĬĲáīµ": 7119,
      "ĠáĬ¥áĬĵáĪĺáĪ°áĮįáĬĵáĪĪáĬķĠ": 7120,
      "ĠáĭŃáĬĸáĪ«áĪįĠ": 7121,
      "Ġf": 7122,
      "áī½áĪİ": 7123,
      "Ġáĭ¨áī°áĮĪáĭ°": 7124,
      "áĭįáĬķĠáĭŃ": 7125,
      "áĪĮáĪĭáĭį": 7126,
      "áĪĻáĪ´": 7127,
      "Ġáīłáī°áĪĪáĭ¨": 7128,
      "ĠáĭĪáīħáīµĠáīł": 7129,
      "ĠáĭµáĬķáīłáĪŃ": 7130,
      "ĠáĪĪáĪļáįĪáĪįáĮī": 7131,
      "áĬķáĭ²áīµ": 7132,
      "áīµĠáĬłáĪµáĭ°": 7133,
      "ĠáĬ¥áĪħáīµ": 7134,
      "ĠáīłáĬłáĪĪáĪĿĠáĪĭáĭŃ": 7135,
      "ĠáĬ¨áĬłáĬķáī°ĠáĮĭáĪŃ": 7136,
      "ĠáĬłáĭ°áĮĪáĬĽ": 7137,
      "ĠáĪĺáĭĿáĪĻáĪ®áī½Ġ": 7138,
      "ĠV": 7139,
      "áĭµáĬ©": 7140,
      "áĭĭáĮħ": 7141,
      "ĠáīłáĪĺáĪµáĮł": 7142,
      "ĠáīłáĬłáĭ²áĪµ": 7143,
      "ĠáīłáĬłáĪľáĪªáĬ«": 7144,
      "áĮĪáĬĺáīµ": 7145,
      "âĢĿĠáĬłáĪĪ": 7146,
      "ĠáĪħáĭĿáī¤": 7147,
      "Ġáī¤áī°ĠáĬŃáĪŃáĪµáī²áĭ«áĬķ": 7148,
      "áįĪáĪįáĮįáĪĿĠ": 7149,
      "ĠáĪĺáĪ°áĪ¨áīµĠáīł": 7150,
      "áī¥áĪİáĮį": 7151,
      "áĬ¨áī£áĭµ": 7152,
      "ĠáĬ¥áĪµáĬ«áĪģáĬķĠáĭµáĪ¨áĪµ": 7153,
      "áĬĢáĬķáĬĲáīµ": 7154,
      "Ġáĭ«áĭ°áĪŃáĮĪáĭĭáĪįĠ": 7155,
      "ĠáĬłáĪĿáĪĭáĬ«áī½áĬķ": 7156,
      "ĠáīĢáĬķĠáĬłĠáĪĿ": 7157,
      "áĪµáĪĪáĭļáĪħ": 7158,
      "ĠáĪĿáĬķáĪĿĠáĭŃáĪģáĬķĠáĪĿáĬķ": 7159,
      "áĪĭáĪ½": 7160,
      "áĪħáĪī": 7161,
      "ĠáĪĺáĬ®áĬķ": 7162,
      "áĪ«áĪĽ": 7163,
      "ĠáĪĪáĪħáĭĿáī¥": 7164,
      "áī£áĬĸáĪµ": 7165,
      "áĮ£áĮł": 7166,
      "ĠáĮįáĪĽáĪ½": 7167,
      "áĪ°áĪ«áĭĬ": 7168,
      "áĮĢáĪĺáĪ¨áĭį": 7169,
      "ĠáĪŀáī°áĪŃ": 7170,
      "áĭ°áĪŃáĮĭáī¸áĭį": 7171,
      "áĮĪáĪįáĮĭáĭ®áī½": 7172,
      "ĠáįĵáĪŃáĬŃ": 7173,
      "Ġáīµáī½áĪĭáĪĭáī½áĪģĠ": 7174,
      "áīħáĭ±áĪµ": 7175,
      "ĠáĪĪáĪĽáĪ³áĭ¨áīµ": 7176,
      "áĪµáī³áĭįáĪ±": 7177,
      "Ġáĭ«áĪĿĠáī¢áĪĨáĬķ": 7178,
      "ĠáĮŃáĬķáīĢáīµ": 7179,
      "ĠáīĢáĪµĠáīłáīĢáĪµ": 7180,
      "ĠáĬłáĪĿáĪĭáĬ¬": 7181,
      "Ġáĭ¨áĪ¨": 7182,
      "áĬķáĭĻ": 7183,
      "áĭ«áī½áĪģ": 7184,
      "áĭ«áĭĭáĬķ": 7185,
      "áīħáĮ£áĮ«": 7186,
      "Ġáī°áįĪáįĥáĪļ": 7187,
      "ĠáĭįáĪ»": 7188,
      "áĬĿĠáĬ¥áĬĵ": 7189,
      "ĠáĪįáĪĺáĬĵ": 7190,
      "Ġáī³áĭ³": 7191,
      "áīµáĬķĠáĬ¥áĬĵ": 7192,
      "ĠáĮīáĪįáīłáīµ": 7193,
      "ĠáīłáĪĽáĪ°áī¥": 7194,
      "ĠáĪĪáĬ¥áĬĲáĭļáĪħ": 7195,
      "Ġáī£áĪħáĪĭáĭĬ": 7196,
      "ĠáĪħáįĥáĬĵ": 7197,
      "Ġáĭ¨áĭ°áĪħáĬķáĬĲáīµ": 7198,
      "áī£áī£áĪª": 7199,
      "áĬłáĭĽáĪŃ": 7200,
      "ĠáĬłáĭŃáīĢáĪŃáĪĿĠ": 7201,
      "áĪĿáĮ¥": 7202,
      "Ġáĭ¨áīĢáĪ¨": 7203,
      "ĠáĪĪáīĢ": 7204,
      "ĠáĪĪáĮĭ": 7205,
      "áĪ®áī¼": 7206,
      "áĬķáĪĿĠáīł": 7207,
      "ĠáĮłáĪŃáī¶": 7208,
      "áĮ«áĬĳ": 7209,
      "ĠáīłáĭļáĪħĠáĪ¨áĮĪáĭµ": 7210,
      "ĠáĪŃáĬ«áĪ½": 7211,
      "Ġáĭ¨áīµáĭ³áĪŃĠáĮĵáĭ°áĬĽ": 7212,
      "áĪ«áĪµáĭİ": 7213,
      "ĠáĬĸáĪ¬áĮĭ": 7214,
      "ĠáĭĪáĮ£Ġ": 7215,
      "áĪģáĪĪáī°áĬĽĠáĭ°áĪ¨áĮĥ": 7216,
      "áĬķĠáĪĿáĭµáĪŃ": 7217,
      "áĪĪáī³áĪįĠ": 7218,
      "áĪĭáīģ": 7219,
      "áĪħáĪ«áĪĦ": 7220,
      "áīłáĭĭáĪįĠ": 7221,
      "ĠáĭŃáĪŀ": 7222,
      "áĬ¨áĬĲáĬł": 7223,
      "áĭ³áĪį": 7224,
      "ĠáīĢáĪļ": 7225,
      "ĠáĪµáĪĪáĪĨáĬĳ": 7226,
      "áĪĿĠáĬłáĬķáĭ³áĬķáĭµ": 7227,
      "ĠáĬ¥áĪµáĬªáĭ«": 7228,
      "ĠáĬ¥áĭµáĪİáī½": 7229,
      "ĠáĬ¢áĭ®áĬłáī¥": 7230,
      "Ġáī¥áĪĦáĪ«": 7231,
      "áī¥áĪŃáĪĢáĪĿ": 7232,
      "Ġáĭ«áĭįáīĥáĪįĠ": 7233,
      "áĪ½áĬ¨áĪŃáĬ«áĪªáĭİáī½": 7234,
      "ĠáĪĨáĬĵáī½áĪģ": 7235,
      "ĠáīłáĪĮáĪĭĠáīłáĬ©áĪįĠáĭ°áĮįáĪŀ": 7236,
      "áĪĬáįİáĪŃáĬĴáĭ«": 7237,
      "Ġt": 7238,
      "Ġáĭ¨áĮĪáĭĽ": 7239,
      "áĪĪáĬķĠáīł": 7240,
      "áĮłáĬĳ": 7241,
      "ĠáĪĽáįħ": 7242,
      "ĠáĬĲáĭįĠáĬĲáĮĪáĪŃĠáĮįáĬķ": 7243,
      "áīĥáĮ¥": 7244,
      "ĠáĪµáĪĪáĬĲáīłáĪ¨": 7245,
      "ĠáĬŃáįĭ": 7246,
      "áīµĠáĪĺáĪµáĭĭáĬ¥": 7247,
      "ĠáĪĺáĪµáĪĺ": 7248,
      "ĠáĬ¥áĬķáĭ²áĪģáĪĿĠáĬ¨": 7249,
      "áĬķĠáĬ¨áĪĽ": 7250,
      "ĠáĭĪáĭ³áĮħ": 7251,
      "áĬĵáĮĪáĪ©áīµ": 7252,
      "ĠáĬłáĪĺáĪ°áĮįáĬĵáĪĪáĪģĠ": 7253,
      "Ġáīłáī¦": 7254,
      "áĮĪáĪ®áī½": 7255,
      "ĠáĭŃáĭĪáĪ°": 7256,
      "áī³áĭ¨áĭį": 7257,
      "áĪİáĪª": 7258,
      "áĭĿáĪĿ": 7259,
      "áĬķĠáĬłáĬķáĭ³áĬķáĭµ": 7260,
      "ĠáĮĭáĪ»": 7261,
      "ĠáĪ³áĬ¦": 7262,
      "ĠáĪĻáĭļ": 7263,
      "ĠáĬłáĪĿáĪĭáĬŃáĬķ": 7264,
      "ĠáĬłáĬ«áĪĦáĭµ": 7265,
      "Ġi": 7266,
      "áĪµáīµĠáĭ¨": 7267,
      "áĪħáĪ³áĪµ": 7268,
      "áĮįáĭ°áĪį": 7269,
      "ĠáĬĲáĪħĠ": 7270,
      "ĠáĭĪáįİáī½": 7271,
      "áĭİáī½ĠáĪĺáĬ«áĬ¨áĪį": 7272,
      "ĠáĬ¥áĬķáĭ°áĪĮáĪĪ": 7273,
      "ĠáīłáĪĺáĮłáīĢ": 7274,
      "ĠáĬŃáīµ": 7275,
      "ĠáĮ¥áīħáĪį": 7276,
      "áī³áĭįáīħ": 7277,
      "ĠáĮŃáī¥": 7278,
      "áĭ°áĪ«áĮĢ": 7279,
      "ĠáĭŃáĬĵáĮĪáĪ«áĪīĠ": 7280,
      "áĭĪáĭ«áĭ¨áīµ": 7281,
      "áĭįĠáĭ¨áī°": 7282,
      "ĠáĬłáĪĢ": 7283,
      "ĠáĪĺáĬĿáī³": 7284,
      "áĮ¥áĪ«": 7285,
      "Ġáĭ¨áĪļáĮĪáī£áĭį": 7286,
      "áĭ³áĪįĠ": 7287,
      "Ġáĭ°áĭĮ": 7288,
      "Ġáįĳ": 7289,
      "ĠáīłáĬłáĬķáĭ±": 7290,
      "áĬĴáĪµáīµ": 7291,
      "áĪ°áĪ«áĮ¨": 7292,
      "áĮłáīĢáĪ°áĭį": 7293,
      "ĠáīĨáĭŃáī³": 7294,
      "áĭ°áĪŃáĮīáīµ": 7295,
      "ĠáĬłáĮĭáĮ¥": 7296,
      "Ġáĭ«áĬķĠáĭ«áĪħáĪį": 7297,
      "ĠáĬ¬áĬŃ": 7298,
      "Ġáĭ«áĪĿĠáĪĨáĬĸ": 7299,
      "Ġd": 7300,
      "Ġáĭ¨áĬª": 7301,
      "ĠáĬ¥áĪĭáī½áĬĭáĪĪáĪģ": 7302,
      "Ġáīłáīĥ": 7303,
      "áĮĪáĪĭ": 7304,
      "ĠáĬ¨áīĢáĬĳ": 7305,
      "áī£áĬŃ": 7306,
      "áĭĪáĭŃ": 7307,
      "Ġáĭ¨áĪļáīĢáĪŃáī¥": 7308,
      "ĠáĬ«áĬķáĪ°áĪŃ": 7309,
      "áĪ°áĪĽáĪħ": 7310,
      "áĮĮáī³áī½áĬķ": 7311,
      "ĠáĪµáĪŃáĮŃ": 7312,
      "áĬķĠáĭ«áĪ¨áĮĭáĮį": 7313,
      "áĪµáĪĽáĪĻ": 7314,
      "áĬ¨áī³áī³áĭŃ": 7315,
      "áĬĲáĮĪáĪ©": 7316,
      "Ġáĭ°áĬķáīłáĬĽ": 7317,
      "Ġáī¡áĭµáĬĳ": 7318,
      "ĠáĬłáĪŃáī²": 7319,
      "ĠáĪĺáī³áĮłáī¢áĭ«": 7320,
      "ĠáĬ¥áĪŃáĪµĠáīłáĪŃáĪ³áī¸áĭį": 7321,
      "áĭł": 7322,
      "ĠáĭŃáĪįáīģáĬķáĪĿ": 7323,
      "áĬŃáĪ©": 7324,
      "áĭİáīµáĬķ": 7325,
      "áĪ³áĭįáĭ«áĬķ": 7326,
      "ĠáĬłáĭŃáĬĲ": 7327,
      "áīĨáĮłáī¥": 7328,
      "ĠáĬ¢áĪ«áīħ": 7329,
      "áĪĭáī¸áĭįáĪĿĠ": 7330,
      "ĠáīłáĬĭáĪĭáĪĿ": 7331,
      "ĠáĪĽáĬķáĬĽáĭįáĪĿĠáĭ¨": 7332,
      "ĠáĪ¶áĪµáī±": 7333,
      "Ġáĭ®áĪŃáĭ³áĬĸáĪµ": 7334,
      "Ġáī¼": 7335,
      "ĠáĬłáĬĲáĪ³": 7336,
      "ĠáĪĽáĮĪáĪįáĮĪáĪį": 7337,
      "ĠáĭįáĪŃ": 7338,
      "ĠáĪµáĪĪĠáĭ«áĪħáĭĮ": 7339,
      "ĠáĪµáĪĪĠáĬ¥áĪ±": 7340,
      "ĠáĬ«áĭįáĬķáī²": 7341,
      "áī¦áī¼": 7342,
      "ĠáĬłáĪµáįĪáĪª": 7343,
      "ĠáĬłáĬķáĭµĠáīĢáĬķ": 7344,
      "áīĭáī¸áĭį": 7345,
      "ĠáĪĺáĬķáĮįáĪµáīµĠáĬł": 7346,
      "Ġáī°áĮįáī£áĪ«áīµ": 7347,
      "ĠáĬ¨áĪĿáĭµáĪŃ": 7348,
      "ĠáīµáĬĵáĬķáīµ": 7349,
      "Ġáī°áĪ«áĪ®áī½": 7350,
      "áīµáĭİ": 7351,
      "áĪĿáĪ¬": 7352,
      "ĠáīłáĪĿáĬķ": 7353,
      "áĪĺáĪ¨áī¥": 7354,
      "áĮįáī¡": 7355,
      "Ġáĭ¨áĪļáĭĪáĭ±": 7356,
      "áīµĠáĬłáĮĪáĪįáĮįáĪİ": 7357,
      "ĠáĬ¨áĪļáĭ«áĪµ": 7358,
      "ĠáĪĽáĪµáĭĪáĮĪáĭµ": 7359,
      "Ġáĭ³áĭĬáīµáĪĿ": 7360,
      "ĠáĬłáī¥áĭĽáĬĽáĭį": 7361,
      "ĠáĬ¨áĭĪáĬķáĭµ": 7362,
      "ĠáīłáĭµáĮĭáĪļ": 7363,
      "Ġáĭ¨áĪĿáĪµáĬŃáĪŃ": 7364,
      "Ġáĭ¨áĮİáĭ°áĪĪáĭį": 7365,
      "ĠáĪįáĭįáĭįáĮ¥": 7366,
      "áīµĠáĭĪáĭŃáĪĿ": 7367,
      "áĪ°áĬĺ": 7368,
      "áįĪáĮ¥áĪŃ": 7369,
      "áį£ĠáīłáĪĺ": 7370,
      "áĭ³áĭµ": 7371,
      "ĠáĬ¥áĬķáĭ°áĪĿáī³": 7372,
      "ĠáĪµáĪĪĠáĬłáĪĿáĪĭáĬŃ": 7373,
      "ĠáĬłáĭŃáĬĸáī½": 7374,
      "ĠáĪ³áĬķáī²": 7375,
      "Ġáĭ¨áĬ¥áĪħáĪį": 7376,
      "Ġáĭ«áĪĪáĬķáĬķ": 7377,
      "Ġáĭ¨áĪĽáĬ¥": 7378,
      "Ġáĭ¨áĪĽáĭµáĪ¨áĮį": 7379,
      "ĠáĬ¨áī°áĪĪáĭ«áĭ©": 7380,
      "ĠáĬ¥áĭįáĬĲáī±": 7381,
      "ĠáĬłáĪµáī°áĪĽáĪª": 7382,
      "ĠáĪĿáĪµáĮ¢": 7383,
      "ĠáĪ²áĭ«áĮĭáĮ¥": 7384,
      "ĠáīłáīµáĬ¥": 7385,
      "ĠáĪĺáĬķáĮĪáĭ¶áī½áĬķ": 7386,
      "áĬ¥áĪ«áī¥": 7387,
      "Ġáī°áĮłáĬķáīĢ": 7388,
      "ĠáĬłáī¥áĪŃáĪĢáĪĿ": 7389,
      "áĪĺáī»áī¸": 7390,
      "ĠáĮ¨áĪŃáĪ¶": 7391,
      "ĠáĪŃáīĢáīµĠáĪĭáĭŃ": 7392,
      "ĠáĪĺáĭĿáĬĵáĬĽ": 7393,
      "áĪŃáĮĤ": 7394,
      "áĮĪáĮ¥": 7395,
      "ĠáĭŃáĮłáįĭ": 7396,
      "ĠáĭĪáĪĪáĪį": 7397,
      "ĠáĪĽáĮłáĪ«áīĢ": 7398,
      "ĠáĪ°áįĪáĪŃ": 7399,
      "áī±ĠáīłáįĬáīµ": 7400,
      "áĬĿĠáĬĲáīłáĪŃ": 7401,
      "ĠáĮįáĭ¢": 7402,
      "ĠáĪµáĪĪáĪĿ": 7403,
      "ĠáĭĪáĭŃáĬķ": 7404,
      "ĠáīłáĬłáĬ«áī£áī¢áĭį": 7405,
      "áī²áĬķáĮį": 7406,
      "áī²áīŃ": 7407,
      "áĪ¸áĬĲ": 7408,
      "áĬķĠáĪĪáĪĽáĪ¨áĮĭáĮĪáĮ¥": 7409,
      "áĪ°áĪ©áīµ": 7410,
      "ĠáĬĲáīłáĪ¨áī½Ġ": 7411,
      "Ġáī´áĪĮ": 7412,
      "ĠáĮ«áĬĵ": 7413,
      "ĠáīĢáĪŃáī¦": 7414,
      "ĠáĭŃáįĪáĪįáĮĭáĪīĠ": 7415,
      "ĠáĪĺáĬķáĮįáĪµáīµĠáīł": 7416,
      "ĠáĭŃáĪĺáĮ£áĪį": 7417,
      "ĠáĬłáĭ°áĪ¨áĮį": 7418,
      "áĪ«áĮ®áī½áĬķ": 7419,
      "ĠáĭŃáĮłáīł": 7420,
      "áīĢáĬķáĪµ": 7421,
      "ĠáĪµáĪĭáĪĪ": 7422,
      "áĪĢáĬķ": 7423,
      "ĠáīµáĭĿ": 7424,
      "ĠáĭĪáĭ°ĠáĪ°áĪĽáĭŃ": 7425,
      "ĠáĬŃáĪª": 7426,
      "Ġáĭ¨áĪĺáī³": 7427,
      "ĠáĬ«áĬĵáĭ³": 7428,
      "ĠáĮłáĪĭáīµ": 7429,
      "áīĭáĬķáīĭ": 7430,
      "ĠáĬ®áĪĮáĮħ": 7431,
      "áĬķáĭ²áĪħ": 7432,
      "ĠáĪĽáĪµáī°áĬ«áĬ¨": 7433,
      "ĠáĪ´áī¶áī½ĠáĪįáĮĨáī½": 7434,
      "ĠáĬ¥áĬķáĭµáĬķáī½áĪį": 7435,
      "ĠáīłáĪ¨áĬ¨": 7436,
      "ĠáĪĺáĮ¨áĪ¨áĪ»áĭį": 7437,
      "ĠáĭŃáĮĪáĬĽáĪīĠ": 7438,
      "áĬķáĬ¨áī£áĬ¨áī¥": 7439,
      "ĠáĪĺáĭ°áī¥": 7440,
      "ĠáĪĪáĪħ": 7441,
      "áī£áĪīĠ": 7442,
      "ĠáĪĿáĬ¥": 7443,
      "áīĥáī½áĬķ": 7444,
      "ĠáĪ³áĬķ": 7445,
      "áįĥáĬĵáīµ": 7446,
      "ĠáĮłáĭ«áīĤ": 7447,
      "ĠáĮīáĪįáīł": 7448,
      "ĠáĬĵáī¸áĭįĠáĬ¥áĬĵ": 7449,
      "áĬĲáĪ³áĭį": 7450,
      "áĪħáĬķáĬĵ": 7451,
      "ĠáīłáĪĺáĪĨáĬĳáĪĿĠáĭ¨": 7452,
      "ers": 7453,
      "áĭįáĪ°áĭ±": 7454,
      "Ġáī³áĪĽáĬĿĠáįįáīħáĪŃ": 7455,
      "ĠáīłáĪĽáĬķáĬĽáĭįáĪĿĠáĮĬáĭľ": 7456,
      "est": 7457,
      "ĠáīłáĬķ": 7458,
      "ĠáĪĺáĬłáĭĽ": 7459,
      "áĬŃáĪĪáĬĽáĭį": 7460,
      "áī£áī¸áĭĭáĪį": 7461,
      "áĮĭáĪĪ": 7462,
      "ĠáĪįáĬ¡": 7463,
      "áįĬáīµĠáĭ¨": 7464,
      "ĠáĬĲáĮĪáĪŃĠáĬĲáĭį": 7465,
      "áĬ¤áĪŃáīµáĪ«": 7466,
      "áīµáĬķĠáĪ°áĭİáī½": 7467,
      "áĮĪáĪŃáĪĿ": 7468,
      "ĠáĪ¨áīĤáīħ": 7469,
      "âĢ¦]Ċ": 7470,
      "áįķáĪ¬áĭļ": 7471,
      "ĠáĬ¨áĬ¥áĬĵáĬķáī°ĠáĮĭáĪŃ": 7472,
      "Ġáī¥áĪ©áĪħ": 7473,
      "áīĢáĭĿáīĢ": 7474,
      "áĬķĠáĭĪáĭŃáĪĿ": 7475,
      "áĬķáĬĵĠáĭ¨": 7476,
      "áĪĭáĬ¥": 7477,
      "áĪĨáĬķĠáīłáĬł": 7478,
      "áĪģáĬķĠáīł": 7479,
      "áĬ¨áī¥áĪŃ": 7480,
      "ĠáĬ¥áĬĵáīµ": 7481,
      "ĠáĪĭáĭŃĠáĪĬ": 7482,
      "áĭįáĬķáĬĵ": 7483,
      "ĠáīłáĪĺáĪĨáĬĵáī¸áĭį": 7484,
      "ĠáĪĪáĪĽáĪ»áĪ»áĪį": 7485,
      "áīĨáĪµ": 7486,
      "ĠáĬ¢áĭ¨áĪ©áĪ³áĪĮ": 7487,
      "ĠáīłáĬ¥áĭµáĪľ": 7488,
      "áįĪáĪįáĮİ": 7489,
      "áĬĴáĬŃáĪµ": 7490,
      "ĠáĬ¨áĪĺáĬ«áĬ¨": 7491,
      "áĪ¨áĭ³áĭį": 7492,
      "áĪŁáĪį": 7493,
      "Ġáīłáī°áĮ¨áĪĽáĪªáĪĿĠáīł": 7494,
      "áĪ«áĪµáĪħ": 7495,
      "áĪĿĠáīłáī°áĮ¨áĪĽáĪª": 7496,
      "áĬĲáįĥáįĢáĪŃ": 7497,
      "áĪĺáī°ĠáĪĪáĭįáĮ¥": 7498,
      "áĪĪáĭĪáĮł": 7499,
      "áī³áĪĪáĪģ": 7500,
      "Ġáĭ«áī¥áĪ«": 7501,
      "áĭ³áĮħ": 7502,
      "áĭĭáĪª": 7503,
      "ĠáĪ°áĬķáĪ°": 7504,
      "áĪľáĪĮáĬŃ": 7505,
      "ĠáĬ¥áĬķáĭ²áĪħĠáĭ«áĪĪáĭį": 7506,
      "ĠáĪĻáĭ«áĭĬ": 7507,
      "áĪĺáĪŃáĮ¡": 7508,
      "áĪĺáĪµáĪ¨": 7509,
      "ĠáĬłáĬ«áĪĭáĭĬ": 7510,
      "áįĮáĭ°áĪ«áĪį": 7511,
      "áīłáĪĭáĪ¸": 7512,
      "ĠáĬłáĪĽáĬ«áĪª": 7513,
      "ĠáĭĪáĪĪáĭµ": 7514,
      "ĠáĬłáĭµáĪŃáĮĪáĪħ": 7515,
      "áīµĠáĬłáĭŃáĭ°áĪĪáĪĿ": 7516,
      "Ġx": 7517,
      "ĠáĬłáįħ": 7518,
      "ĠáĪĺáī¥áĪ«": 7519,
      "áīłáīĤáĭ«": 7520,
      "ĠáĭŃáĪĺáĪĪ": 7521,
      "ĠáĭŃáĪĺáĪ«": 7522,
      "Ġáĭ«áĮĪáĬĻ": 7523,
      "áĮłáĭĭáĪį": 7524,
      "ĠáĪĿáĮįáī£": 7525,
      "áĪĻáĬĴáĬ¬": 7526,
      "áĪµáī°áĭĭáĪį": 7527,
      "ĠáĪĢáĬĵ": 7528,
      "ĠáĮĪáĭ³áĭŃ": 7529,
      "Ġáī£áĪĪáĪĢáī¥": 7530,
      "Ġáī¤áī°ĠáĪĺáīħáĭ°áĪµ": 7531,
      "áįĪáĮ¥áĪ¯áĭĬ": 7532,
      "ĠáĪµáĮĭáīµ": 7533,
      "ĠáĬłáĬķáī¥áī¥": 7534,
      "ĠáĪĺáĮĭáī¢": 7535,
      "áīĢáĭĿáīĢáĭ£": 7536,
      "Ġamp": 7537,
      "áĪŃáĪ½": 7538,
      "ĠáĬ¥áīµáĪĿ": 7539,
      "áĪĽáĭį": 7540,
      "áįįáĪ«áīµ": 7541,
      "Ġáī°áĮĪáĪį": 7542,
      "ĠáĮ¥áĬķáīĥáīĦ": 7543,
      "áĪµáī°áĬ«áĬ¨áĪį": 7544,
      "ĠáĬ«áĭ°áĪ¨áĮį": 7545,
      "ĠáĪĤáĪ³": 7546,
      "ĠáīłáĪĿáĭµáĪ¨Ġáīłáĭ³": 7547,
      "ĠÂ£": 7548,
      "ĠáĪ°áĪĭáĪĿáī³": 7549,
      "ĠáįĪáīĥáĭ°áĬŀáī½": 7550,
      "Ġáĭ«áĮĪáĬĽáĪī": 7551,
      "Ġáĭ¨áīłáĪĭáĭŃĠáī°áĪĺáĪįáĬ«": 7552,
      "ĠáĬłáįĪáįĥáįĢáĪĿ": 7553,
      "ĠáĪĬáĭ": 7554,
      "áĬķĠáĬ¥áĬķáĭ°áĪļ": 7555,
      "ĠáĬłáĭ²": 7556,
      "áĬĵĠáĪĮáĪİáī½": 7557,
      "áĮįáĭĻ": 7558,
      "áĮįáī¥áĪŃ": 7559,
      "áĭ³áĭĬ": 7560,
      "ĠáĭŃáĪħĠáĪģáĪī": 7561,
      "ĠáįįáĪŃ": 7562,
      "áĭİáĬķĠáĭ«áĪ¨áĮĭáĮį": 7563,
      "áī¥áĪ«áĭŃ": 7564,
      "ĠáĬĲáīłáĪ¨áĭįĠ": 7565,
      "ĠáĬ¥áĪŃáĪµáĭĭ": 7566,
      "áĬĴáĭįáĭ®áĪŃáĬŃ": 7567,
      "Ġáī¥áī¸áĬĽ": 7568,
      "ĠáĪĺáĪĨáĬķĠáĬłáĪĪáīłáīµĠ": 7569,
      "ĠáĭĪáĭµáĮĦáĭĭáĪĪáĪģ": 7570,
      "áĪĺáĬĿ": 7571,
      "áĪĽáĪªáĭ«": 7572,
      "ĠáĭŃáĮįáī£": 7573,
      "áĪĨáĬĶ": 7574,
      "áĭİáī½Ġáĭ¨": 7575,
      "áĬ«áī½áĪģ": 7576,
      "Ġáĭ¨áī°áĪŁáĪĭ": 7577,
      "áįħáĬĵáīµ": 7578,
      "Ġáī£áĪĭ": 7579,
      "áĬķĠáĬłáĭµáĪŃ": 7580,
      "âĢº": 7581,
      "ĠáĬ¢áĪĭáĪĽ": 7582,
      "áĪĭáĪĪáĪĽáĭĬ": 7583,
      "áī¨áĪŃáĪµ": 7584,
      "ĠáīµáĬ¥áĭĽáĭĽ": 7585,
      "áĬķĠáĬłáĪµáĭ°": 7586,
      "ĠáĮłáĪĭáī¶áī½": 7587,
      "Ġáĭ¨áĮ¦áĪŃĠáĪĺáĪ³áĪªáĭ«": 7588,
      "ab": 7589,
      "áīµáĪĺáīµ": 7590,
      "áĬķáĭŀ": 7591,
      "ĠáĪĺáĭµ": 7592,
      "áĭ°áĪĿĠáī°": 7593,
      "Ġáĭ«áĮłáįĭ": 7594,
      "áī±áĬķĠáĪĺ": 7595,
      "ĠáĬ¥áĬķáĭ²áĬĸáĪ«áī¸áĭį": 7596,
      "ĠáĮįáĪĭáĭĬ": 7597,
      "ĠáīµáĮįáĪį": 7598,
      "Ġáīµáī¥áī¥áĪŃ": 7599,
      "ĠáĭįáĪµáĮ¥ĠáĪĪ": 7600,
      "ĠáĮĬáĭľáĭ«áīµ": 7601,
      "ĠáĪĨáī´áĪį": 7602,
      "ĠáĪĽáĬķáĬĲáīµ": 7603,
      "áĪ¨áĭ³áī¸áĭį": 7604,
      "ĠáĬĲáīłáĪ¨áĭį": 7605,
      "ĠÂ«áĭ¨": 7606,
      "Ġáĭ¨áĮĪáīłáĭ«": 7607,
      "ĠáĪ±áīħ": 7608,
      "ĠáįķáĪ¬áĪµ": 7609,
      "ĠáĬłáĪįáĬĲáīłáĪ¨áĪĿ": 7610,
      "áī°áĬ®áĪ¨": 7611,
      "áįĢáĪįáĭŃ": 7612,
      "ĠáīħáĪ¬áī³": 7613,
      "ul": 7614,
      "áĭįáĪµáīµáĪ«áĪĬáĭ«": 7615,
      "áĪĿĠáĪĬ": 7616,
      "ĠáĬ¥áĪį": 7617,
      "ĠáīłáĪģáĪĪáī±": 7618,
      "ĠáĬłáĬĵáīµ": 7619,
      "áĬĵĠáīłáĪĺ": 7620,
      "áĪĽáĪīĠ": 7621,
      "áī£áĭį": 7622,
      "áįħáĪĿáĬĵ": 7623,
      "áĬĳáĪŃ": 7624,
      "ĠáĪįáĮĩ": 7625,
      "áīłáĪŃáĮį": 7626,
      "ĠáĮĬáĭľĠáīł": 7627,
      "ĠáĬ¥áĭ¨áīĢ": 7628,
      "Ġáĭ«áĪħáĭĮĠáĬ¥áĬķáĭ²áĪħĠáĭŃáĪĭáĪį": 7629,
      "áĭ«áĪħáĭĮĠáĪĿáĪµáĬŃáĪ®áī½": 7630,
      "ĠáĪ¶áĪµáī°áĬĽáĭį": 7631,
      "ĠáīłáĪĺáĪĨáĬĳáĪĿĠáīł": 7632,
      "ĠáĪĺáĭĿáĮĪáī¥": 7633,
      "ĠáĬłáįįáīĥáĪª": 7634,
      "ĠáĪĿáĬŃáĬķáĭ«áī±áĪĿĠáĭ¨": 7635,
      "Ġáĭ¨áĭĺáĪĭáĪĪáĪĿ": 7636,
      "ĠáĪĺáĭįáĮ£": 7637,
      "ĠáĭŃáĪĤ": 7638,
      "áī¡áĬ¥": 7639,
      "áĮİáĬĵ": 7640,
      "ĠáĬłáĪµáįĢáĭ«áįĬ": 7641,
      "ĠáĬĵáī¡": 7642,
      "ĠáĬ¥áĪ±ĠáĮįáĬķ": 7643,
      "Ġáī°áĮ¨áĪĽáĪªĠáĪĺáĪ¨áĮĥ": 7644,
      "áĮłáī£áīłáīĥ": 7645,
      "ĠáĮįáĪĪáĪ°áī¡": 7646,
      "ĠáĬłáīĢáĪ«áĪ¨áī¥": 7647,
      "áĬ¥áĪĿáĪ¯": 7648,
      "esĠ": 7649,
      "ĠáĬłáĪ«áĭĬ": 7650,
      "ĠáĬ¨áįĭ": 7651,
      "áĪĽáĪī": 7652,
      "ĠáĪ°áĪľáĬķ": 7653,
      "áī¶áī¿": 7654,
      "áį¡Ġáĭ¨": 7655,
      "ĠáĭĪáĭ°áĬĭáĪĭ": 7656,
      "ĠáįĪáĮĪáĮį": 7657,
      "ĠáĬĲáĮĪáĪ®áī½ĠáĪģáĪī": 7658,
      "áĪ°áī£áĪ°áī¥": 7659,
      "ĠáĬłáīµáĬŃáĪį": 7660,
      "Ġáī°áĪµáįĭĠáĬłáĭ°áĪŃáĮĭáĪĪáĪģĠ": 7661,
      "Ġáĭ«áĪ³áĭµ": 7662,
      "áĬ¨áĬĵáĭĪáĬĳ": 7663,
      "ĠáīłáĪ¨áĭ¶": 7664,
      "ĠIn": 7665,
      "áīµáĬ¥": 7666,
      "ĠáīłáĪħáĭĿáī¥": 7667,
      "ĠáĬłáĮ£": 7668,
      "ĠáĪĺáĪĿáĮ£": 7669,
      "ĠáĪĺáĬ¨áī°áĪį": 7670,
      "áĪ«áĪ³áī½áĬķ": 7671,
      "ĠáĬ¨áĪģáĪĪáīµ": 7672,
      "ĠáĭŃáĮĢáĪĿ": 7673,
      "áī³áĭĺáĭĻ": 7674,
      "áįĪáĪ¨áĬķáĪ³áĭŃ": 7675,
      "áĭİáī½Ġ": 7676,
      "ĠáĪ°áĪľ": 7677,
      "áįħáĭĭ": 7678,
      "áĬ©ĠáĬĲáĭį": 7679,
      "áī°áĬĽáĭįáĬķ": 7680,
      "ĠáīłáĬ¥áĪĿáĬĲáīµ": 7681,
      "áīµĠáĪĺáĪĨáĬĳ": 7682,
      "ĠáĬ¥áĭ¨áĪŀ": 7683,
      "ĠáĬ¥áĬķáĭ²áĪħĠáĭ«áĪī": 7684,
      "áĪ°áĮłáĬķ": 7685,
      "áīłáĪĪáįĢ": 7686,
      "ĠáĪ´áī¶áī½áĬķ": 7687,
      "ĠáĬłáĪīáī³áĭĬ": 7688,
      "ĠáĬ¥áĭįáĬĲáī°áĬĽáĭįĠáĬłáĪĿáĪĭáĬŃ": 7689,
      "Ġáĭ³áĭĬáīµáĬķ": 7690,
      "ĠáĬłáĮĭáĪŃ": 7691,
      "Ġáĭ©áĬĵáĭŃáīµáĭµĠáĪµáī´áīµáĪµ": 7692,
      "áī¥áĭĽáĬŀáī¹": 7693,
      "ĠáīģáĪŃáĮłáĬĿáĬĲáīµ": 7694,
      "ĠáĬłáĪĪáī¥áĬķĠ": 7695,
      "Ġáĭ¨áĬłáĪĿáĪĭáĬŃáĬķĠáīĥáĪį": 7696,
      "áĮĪáĬĵáĬĽĠáĭµáĬķáĬ³áĬĳ": 7697,
      "ĠáĬ¥áĬķáĭ³áĪĪáī¥áĬĿ": 7698,
      "op": 7699,
      "Ġáĭ¨áĪ»": 7700,
      "Ġáĭ¨áĪ«áĪ±": 7701,
      "áī³áĪĪáī½Ġ": 7702,
      "ĠáĬĲáīħ": 7703,
      "ĠáĪĪáĪĮáĪĭ": 7704,
      "áĮ¥áĬĵ": 7705,
      "áĬ«áĭį": 7706,
      "áĭĭáĭĪ": 7707,
      "áĬķĠáīłáĪļáĭ«": 7708,
      "ĠáīĢáĬĳáĬķ": 7709,
      "áĬ©áīµáĬķ": 7710,
      "áīµáĬķáĪ¹": 7711,
      "ĠáĬ«áĪľáĪ«": 7712,
      "ĠáĮłáīģ": 7713,
      "áĪ°áī¥áĬŃ": 7714,
      "ĠáįķáĪª": 7715,
      "ĠáĬ¨áĭļáĪħáĪĿĠáĪĮáĪĭ": 7716,
      "ĠáĪµáĪľáī³áĭĬ": 7717,
      "ĠáīµáĬ¥áĭŃáĬķ": 7718,
      "áĮ§áĪį": 7719,
      "áĪµáī²áĬŃáĪµ": 7720,
      "áĪµáī°áĭĭáĭĪáīħ": 7721,
      "ĠáĬ¥áĬķáįĪáĪįáĮĭáĪĪáĬķ": 7722,
      "áįĵáĪŃáī³áĪĽ": 7723,
      "áĪ½áĬķáĮįáī°áĬķ": 7724,
      "im": 7725,
      "ĠáīłáĪľ": 7726,
      "áĬ¨áĪ»": 7727,
      "Ġáĭ¨áĪļáīĥáĮłáĪįĠáĪĺáī£": 7728,
      "áĬ«áĬĿ": 7729,
      "áĪįĠáį£": 7730,
      "ĠáĪħáĭ³áĪŃ": 7731,
      "áĮĨáī½áĬķ": 7732,
      "áĮĨáī»áī½áĪģ": 7733,
      "áĮłáĬĵáīħ": 7734,
      "Ġáĭ¨áĭĪáĭŃ": 7735,
      "Ġáī°áĪµáįĭĠáĬłáĭ°áĪŃáĮĭáĪĪáĪģ": 7736,
      "ĠáĬłáĪµáįĪáĪĭáĮĬĠáĬĲáĭįĠ": 7737,
      "áĭ°áĪŃáĮĪáĭįáĬķ": 7738,
      "ĠáĬ¬áĪļ": 7739,
      "Ġáĭ¨áĪįáī¥": 7740,
      "ĠáĬ®áĪļáĪ½": 7741,
      "Ġáī°áĭĪáĭ³áĭ³áĪª": 7742,
      "áĬķáīłáīµ": 7743,
      "áī¥áīĥ": 7744,
      "ĠáĬ¨áīĢ": 7745,
      "áĮłáĮ¡": 7746,
      "Ġáī°áĪ°áĪĽ": 7747,
      "áĪªáĮħ": 7748,
      "áĮ£áĪļáĭİáī½": 7749,
      "ĠáĪĿáĬķĠáĪĺ": 7750,
      "ĠáĪĽáĪ½": 7751,
      "Ġáĭ°áįĭáĪŃ": 7752,
      "áĬķáĪĿĠáĪģáĪī": 7753,
      "áĪªáĭ«áĭİáī½": 7754,
      "ĠáĭµáĪĢ": 7755,
      "ĠáīłáĬłáĪĺ": 7756,
      "Ġáīłáī°áĭĪáĪ°áĬĲ": 7757,
      "Ġáĭ³áī³": 7758,
      "áīµĠáī°áĪµáįĭ": 7759,
      "áī½áĬĭáĪĪáĪģĠ": 7760,
      "ĠáĬķáĮįáĮį": 7761,
      "ĠáīłáĮ¥áĬķáīĥáīĦ": 7762,
      "áįĪáĮ¥áĪ©": 7763,
      "áīĭáīĭáĪĻ": 7764,
      "ĠáĭĿáĮįáĮħáī¶áī½": 7765,
      "Ġáĭ¨áįĭáĭŃáĬĵáĬķáĪµ": 7766,
      "Ġáī°áĮ«áĭĭáī½": 7767,
      "áĭª": 7768,
      "áĬĵáį¥": 7769,
      "áĬķáĭ·": 7770,
      "áĭ«áĭĺáĭį": 7771,
      "áĮĪáĭĿ": 7772,
      "ĠáĬ¨áĪĨáĬķáĬŃ": 7773,
      "áī³áĪĭáīħ": 7774,
      "Ġáī°áĪ½áĬ¨áĪŃáĬ«áĪª": 7775,
      "ĠáĭįáĪİ": 7776,
      "ĠáĭĪáĭ°áī°": 7777,
      "ĠáĪĢáĪ°": 7778,
      "Ġáĭ¨áĬłáĪ³": 7779,
      "ĠáĪĿáĬķĠáĪĽáĪĪáīµ": 7780,
      "ĠáĬ¥áĬķáĭ²áĪħĠáīłáĪĽáĪĪáīµ": 7781,
      "áįİáĪŃáĭµ": 7782,
      "ĠáĪļáĬ«": 7783,
      "áĬ³áĭŃ": 7784,
      "ĠáĪĦáĭ±Ġ": 7785,
      "áĬķĠáĪĽáĪµ": 7786,
      "áĬĲáĮĪáĪ¨áĭį": 7787,
      "ĠáīłáĬ¢áĭ¨áĪ©áĪ³áĪĮáĪĿ": 7788,
      "Ġáĭ¨áĭ±áĪŃ": 7789,
      "áĪŃáĬ¨áī¥": 7790,
      "ĠáĬ¥áĭŃ": 7791,
      "ĠáĬłáĪıáī¸áĭį": 7792,
      "áĪ¨áĪ±": 7793,
      "áĪ®áĪĿ": 7794,
      "ĠáĬ¥áĬķáĭ²áĪ°áĪ«": 7795,
      "áĮ¨áĪ¨áĪµ": 7796,
      "ĠáĬ¢áĭ¨áĪ©áĪ³áĪĮáĪĿ": 7797,
      "Ġáīłáī°áįĪáĮ¥áĪ®": 7798,
      "ĠáĬłáĪĪáĬĿĠ": 7799,
      "ĠáĬ¥áĬķáĭ´áīµĠáĭ«áĪĪ": 7800,
      "ĠáĪĢáĪ³áī¡": 7801,
      "ĠáĬ¦áĪŃ": 7802,
      "ĠáĬłáĪĿáĪ«": 7803,
      "áĭŃáĪĨáĬķáĪĿ": 7804,
      "ĠÂ«áīł": 7805,
      "áĬ¨áī¥áĪ©": 7806,
      "áĪĿĠáīłáĬłáĬķáĭµ": 7807,
      "áĭĪáĪĪáĭ±": 7808,
      "áĭŁáī¸áĭį": 7809,
      "áĪįáĬ¥áĬŃ": 7810,
      "ĠáĪĽáĭµáĪ¨áĮī": 7811,
      "áĪµáī°áĭ³áĭµáĪŃ": 7812,
      "Ġáĭ¨áĪļáĮłáĮī": 7813,
      "Ġáī°áī¥áĪĪáĭį": 7814,
      "ĠáįĨáī³": 7815,
      "áĭįĠáĬĲáĮĪáĪŃ": 7816,
      "áĪŃáĬł": 7817,
      "áĪµáį£": 7818,
      "áĪ¨áĬŀáī½": 7819,
      "áī¥áĭ±": 7820,
      "ĠáĬ¨ĠáĮĢáĪĿáĪ®": 7821,
      "áĪĽáīħ": 7822,
      "ĠáĬ¥áĬķáĭ²áĪ°áĪ©": 7823,
      "ĠáĪįáī£áī¸áĭį": 7824,
      "áīµĠáĬłáī£": 7825,
      "ĠáįĪáĪ«": 7826,
      "ĠáĬ¨áĬłáĭ²áĪµ": 7827,
      "ĠáĪĿáĬŃáĬķáĭ«áīµĠáīł": 7828,
      "ĠáĭµáĪŃĠáĮ£áī¢áĭ«": 7829,
      "ĠáĪĺáĬ«áĬ¨áĪįĠáĭ«áĪĪáĭį": 7830,
      "Ġáĭ²áĪŀáĬŃáĪ«áĪ²áĭ«áĭĬ": 7831,
      "ĠáĮįáĬķĠáīłáĬ¥": 7832,
      "áĪĪáĪĺáĭ°áĭį": 7833,
      "Ġáĭįáĭµáīħ": 7834,
      "ĠáĭĪáĪ¨áĭ°": 7835,
      "ĠáĪĢáĭŃáĪĽáĬĸáī³áĭĬ": 7836,
      "áĭįáĪ«áĮĥ": 7837,
      "Ġáī°áĪ³áī³": 7838,
      "ĠáĬłáĪĬáĭ«áĪĿ": 7839,
      "áĮķ": 7840,
      "áīµáĪ«": 7841,
      "ĠáĪĺáĮĪáĪĪ": 7842,
      "ĠáĪĺáįĥáĪħáįįáīµ": 7843,
      "ĠáĬ¨áĬ®": 7844,
      "ĠáĭĪáįį": 7845,
      "áīĢáįĪ": 7846,
      "áįĪáīĢáĭµ": 7847,
      "ĠáĬŃáĪĪáī¥": 7848,
      "ĠáīħáĬĵ": 7849,
      "Ġáĭ¨áĬ¥áĬķáĮįáĪĬáĭĿ": 7850,
      "ĠáĬ¥áĬķáĭ³áĪīáīµ": 7851,
      "ĠáĪµáĪ«Ġ": 7852,
      "ĠáĭĭáĭŃ": 7853,
      "ĠáĪĮáĪİáī½Ġáĭ°áĮįáĪŀ": 7854,
      "ĠáĬłáĪ³áī¢": 7855,
      "ĠáĮįáī¥áĭŃáīµ": 7856,
      "ĠáĭµáĪŃáĮĬáī¶áī½": 7857,
      "ĠáĮ¥áĪ¨áīµĠáĬł": 7858,
      "ĠáĪĺáĭĭáĮ®": 7859,
      "áĬ¨áĬĵáĭįáĬĳ": 7860,
      "ĠáĬ¥áĮĦ": 7861,
      "ĠáĬłáĪ»": 7862,
      "ĠáĭŃáĮłáīħ": 7863,
      "áĪ°áīłáĭį": 7864,
      "áįįáīĢáĭµ": 7865,
      "áĬ«áĪ«": 7866,
      "áĭ¨áīĢáĬĳ": 7867,
      "ĠáĪĪáĪĺáĪĨáĬĳ": 7868,
      "ĠáĮĭáĪŃĠáī°áĪĺáĪ³áĪ³áĭŃ": 7869,
      "ĠáĬķáĭµ": 7870,
      "áĬķĠáįĪáīĥáĭµ": 7871,
      "âĢĿĠáĪĽáĪĪ": 7872,
      "áĪıáī¸áĭįĠ": 7873,
      "ĠáĭµáĪĿáįģ": 7874,
      "áĭĪáĭ°áįĬáīµ": 7875,
      "Ġáĭ¨áī°áī£áĪĪáī½": 7876,
      "áĮłáĪ¨áĭ¥": 7877,
      "áĬķĠáīłáĬ¥áĪŃáĮįáĮ¥": 7878,
      "áĭ°áĪ¨áĪ°áīłáīµ": 7879,
      "ĠáĬ¥áĬķáĭ²áĪħĠáĬłáĪĭáī¸áĭįáį¦ĠâĢľ": 7880,
      "áĮĢáĪŃáĪĺáĬķ": 7881,
      "áĪĿĠáĬĲáĭį": 7882,
      "áī°áĭĪ": 7883,
      "áĪ³áįįáĮ¥": 7884,
      "Ġáī°áĪ¨áĭµ": 7885,
      "áį£ĠáĪµáĪĪ": 7886,
      "ĠáĬ¥áĬĵĠáĬ¥áĬķáĭ°": 7887,
      "áī±Ġáīł": 7888,
      "Ġáīµáĭ³áĪŃ": 7889,
      "áīĨáĪ«": 7890,
      "ĠáīłáĬłáīħ": 7891,
      "Ġáīłáī°áīĥ": 7892,
      "ĠáĪ³áĮ¥áĬķ": 7893,
      "Ġáĭ¨áĬ¥áĪ³áīµ": 7894,
      "ĠáĬłáĪįáīł": 7895,
      "ĠáĪįáĮĨáī»áī½áĬķ": 7896,
      "ĠáĬłáĭµáĪŃáĮį": 7897,
      "ĠáįħáĬķáĪ°": 7898,
      "âĢĻĊ": 7899,
      "Ġáīłáī°áĪĪáĭŃáĪĿ": 7900,
      "leĠ": 7901,
      "áĬķáīģ": 7902,
      "áĬķáĮŃ": 7903,
      "ĠáĬ¥áīµ": 7904,
      "áī½ĠáīłáĬĭáĪĭ": 7905,
      "áĪ°áĪª": 7906,
      "áį£ĠáĭĪáĭŃáĪĿ": 7907,
      "ĠáĪĽáĭŃáĪį": 7908,
      "áĭ¨áĭįáĬķ": 7909,
      "áįĭáĪī": 7910,
      "ĠáĬłáĭŃáĬĸ": 7911,
      "Ġáī¤áĭĽ": 7912,
      "áĮİáĭµ": 7913,
      "áī·áĪįáį£": 7914,
      "áī¶áī½áĬķĠáĪĪáĪĺ": 7915,
      "ĠáĪ½áįĭáĬķ": 7916,
      "Ġáī¡áĪ½": 7917,
      "Ġáĭ¨áĭĪáĭŃáĬķĠáĮłáĮħ": 7918,
      "Ġáī°áĮĪáĬķáĭĿ": 7919,
      "áīµĠáĬłáĭµáĪŃáĮİ": 7920,
      "ĠáĭµáĪ¨ĠáĮĪáįĨáī½": 7921,
      "ĠáĪļáĪµáĮ¥áĪ«áĭĬ": 7922,
      "eb": 7923,
      "áĬķáĪ³áĭĬ": 7924,
      "ĠáĪĺáįĪáĪĪáĮį": 7925,
      "ĠáĪĺáĪĿáĪ¨áĮ¥": 7926,
      "áĪĢáĪĿ": 7927,
      "ĠáĭĪáĭ°ĠáĬł": 7928,
      "ĠáĪĺáĬ«áĬ¨áĪįĠáĬłáĬķáĭ±": 7929,
      "ĠáĬłáī£áī³áī½áĬķ": 7930,
      "áĮįáĪ«áįĬ": 7931,
      "ĠáĪĿáĪ³áĪĮáĭİáī½": 7932,
      "ĠáĬķáĮįáĭ¶áī½": 7933,
      "áĬķáįĪáĪ¨áĬķáĪµ": 7934,
      "ĠáĭĪáĪĭáĮħ": 7935,
      "ĠáĬŃáĪµáī°áī¶áī½": 7936,
      "ĠáĪĪáĪĽáĬķáīłáī¥": 7937,
[...]
