[UNK]	0
[PAD]	0
[SOS]	0
[EOS]	0
▁የ	-0
▁አ	-1
▁በ	-2
▁እ	-3
▁መ	-4
▁ከ	-5
▁እን	-6
▁ነ	-7
▁ለ	-8
▁ተ	-9
▁ይ	-10
ቸው	-11
▁ወ	-12
▁ያ	-13
▁ስ	-14
▁የሚ	-15
▁ም	-16
▁ማ	-17
▁ነው	-18
▁ብ	-19
ላይ	-20
▁ሰ	-21
ዎች	-22
ነት	-23
▁የተ	-24
▁እንደ	-25
▁ግ	-26
▁ው	-27
▁ላይ	-28
▁ባ	-29
▁ሀ	-30
▁ደ	-31
▁ሲ	-32
ችን	-33
ለው	-34
ስት	-35
▁ት	-36
▁ህ	-37
▁እና	-38
ንድ	-39
▁በመ	-40
▁ጥ	-41
▁አስ	-42
በት	-43
▁የአ	-44
▁በአ	-45
ዋል	-46
▁እንዲ	-47
ኢት	-48
ገር	-49
▁ል	-50
ውን	-51
ንግ	-52
ኢትዮ	-53
▁ድ	-54
በር	-55
▁ክ	-56
▁ቀ	-57
▁ገ	-58
▁ሁ	-59
ሆን	-60
▁አይ	-61
ጵያ	-62
ኢትዮጵያ	-63
ሆነ	-64
ዚህ	-65
▁የመ	-66
▁በተ	-67
▁ቤ	-68
▁ዘ	-69
ቶች	-70
ደረ	-71
ሆኑ	-72
ደር	-73
ለም	-74
▁ለመ	-75
▁ወደ	-76
▁ጋ	-77
ለት	-78
ስጥ	-79
▁ታ	-80
▁ለማ	-81
▁አመ	-82
▁አን	-83
▁ሚ	-84
▁ግን	-85
▁ቢ	-86
ቸውን	-87
▁እየ	-88
▁ሊ	-89
▁ጉ	-90
▁ሳ	-91
ንም	-92
▁ውስጥ	-93
ሪያ	-94
▁በማ	-95
ጊዜ	-96
▁ጠ	-97
▁የሚያ	-98
ተኛ	-99
▁ይህ	-100
▁ስለ	-101
▁ካ	-102
ትን	-103
▁ጋር	-104
በረ	-105
▁አለ	-106
▁የም	-107
▁ፍ	-108
▁ነበር	-109
ራት	-110
▁ጊዜ	-111
ድር	-112
ረት	-113
▁ከተ	-114
▁ባለ	-115
▁ኢ	-116
ንግስት	-117
▁እንዳ	-118
▁እንደሚ	-119
▁የማ	-120
ርት	-121
▁እስ	-122
ያን	-123
▁ቅ	-124
ሁን	-125
ገባ	-126
ስተ	-127
▁አል	-128
▁ምክ	-129
▁አንድ	-130
ድረ	-131
▁በሚ	-132
ንት	-133
ላል	-134
ዲስ	-135
▁ህዝ	-136
ንያ	-137
ሮች	-138
▁ኢትዮጵያ	-139
▁ስራ	-140
▁ምን	-141
ቱን	-142
ናል	-143
▁መን	-144
ሰብ	-145
▁ቤት	-146
▁ና	-147
▁አገ	-148
▁ፈ	-149
▁ነገር	-150
▁ሌ	-151
▁ጉዳ	-152
ራዊ	-153
ሎች	-154
▁ሆ	-155
▁መስ	-156
ሪካ	-157
ጀመ	-158
ረጃ	-159
▁ሰው	-160
▁ኮ	-161
▁ሁሉ	-162
▁ወይ	-163
▁እያ	-164
▁የነ	-165
ርስ	-166
ላቸው	-167
▁ን	-168
ችሁ	-169
▁ሰዎች	-170
▁ዋ	-171
▁የእ	-172
▁ች	-173
መለ	-174
▁መንግስት	-175
▁አም	-176
▁ያለ	-177
▁አብ	-178
▁አስተ	-179
▁ፕ	-180
▁በእ	-181
▁የሰ	-182
▁ድር	-183
▁ደግ	-184
▁ብቻ	-185
▁መል	-186
ገድ	-187
ትና	-188
ታል	-189
▁አባ	-190
ረው	-191
▁አካ	-192
▁ሙ	-193
▁ከአ	-194
▁አበ	-195
ለን	-196
ቅር	-197
ግባ	-198
▁ደግሞ	-199
ታት	-200
ፈል	-201
ከል	-202
▁ሳይ	-203
መን	-204
ማሪ	-205
▁ሀይ	-206
▁የህ	-207
▁ኤ	-208
ግር	-209
▁አቶ	-210
▁ያለው	-211
▁ቁ	-212
▁ር	-213
ኛው	-214
ታወ	-215
▁እየተ	-216
ሉት	-217
ብር	-218
ላት	-219
▁ከመ	-220
▁የኢትዮጵያ	-221
▁መሆኑ	-222
ለሁ	-223
ባቸው	-224
ሰራ	-225
▁ምክንያ	-226
ልጣ	-227
▁ዝ	-228
ከተ	-229
ኋላ	-230
ማራ	-231
▁ዶ	-232
ምን	-233
▁ህዝብ	-234
▁ቀን	-235
ዛሬ	-236
ስራ	-237
ፊት	-238
ግራ	-239
ኞች	-240
ታው	-241
ታቸው	-242
▁አመት	-243
ናት	-244
በሩ	-245
▁የወ	-246
ዳን	-247
ዎችን	-248
▁ስር	-249
▁መሰ	-250
▁እር	-251
ምህ	-252
ረስ	-253
ደረገ	-254
▁እነ	-255
▁ብዙ	-256
ሚያ	-257
ድረግ	-258
▁በዚህ	-259
▁ጀ	-260
▁አበባ	-261
▁በላይ	-262
አት	-263
▁ከፍ	-264
ተር	-265
ገኘ	-266
ተው	-267
ማት	-268
▁ጨ	-269
▁ቦ	-270
ቀር	-271
ለያ	-272
ልል	-273
ጠና	-274
▁ወይም	-275
▁የት	-276
▁በኋላ	-277
▁ሚኒ	-278
▁አይደ	-279
ባቢ	-280
ጥር	-281
ንስ	-282
ቅም	-283
▁ክፍ	-284
ራል	-285
▁ብር	-286
ለቲ	-287
ድን	-288
ቦች	-289
የት	-290
▁ፓ	-291
▁ፖ	-292
▁ሆነ	-293
ገኙ	-294
▁ምር	-295
▁ናቸው	-296
▁አዲስ	-297
▁ይህን	-298
▁ዳ	-299
ኔታ	-300
▁ከተማ	-301
ከት	-302
ረዳ	-303
ነው	-304
▁ዜ	-305
▁ኦ	-306
▁ያስ	-307
መስ	-308
ልም	-309
▁ለአ	-310
ታዊ	-311
▁ሁኔታ	-312
ጠቀ	-313
▁ራ	-314
▁ፅ	-315
ኖር	-316
ገን	-317
▁ቡ	-318
ገለ	-319
▁ማስ	-320
▁እስከ	-321
ብረ	-322
ይወ	-323
ምሮ	-324
▁ሲሆን	-325
▁እኔ	-326
ባት	-327
ያስ	-328
ያው	-329
ለቲካ	-330
▁አድር	-331
ጠር	-332
ዮን	-333
መል	-334
▁አሁን	-335
ቃል	-336
ሽን	-337
ገራ	-338
ጣት	-339
ላለ	-340
▁ጎ	-341
ገል	-342
ዎቹ	-343
ርቲ	-344
▁ቆ	-345
▁የሆነ	-346
ሄር	-347
▁የሀ	-348
ረጋ	-349
ላም	-350
▁መሆኑን	-351
ነሳ	-352
▁በሰ	-353
▁ምክንያት	-354
▁እንዴ	-355
▁ማን	-356
ጣም	-357
ርድ	-358
▁ዛሬ	-359
ቀረ	-360
▁መንገድ	-361
ቷል	-362
▁ድርጅ	-363
ህል	-364
▁አው	-365
▁ጉዳይ	-366
▁አላ	-367
▁የግ	-368
▁መካ	-369
▁ብሎ	-370
▁ሆኖ	-371
ከላ	-372
▁ሞ	-373
ብት	-374
▁ሺ	-375
ላክ	-376
▁እድ	-377
ያቄ	-378
▁አደ	-379
▁ክልል	-380
ይት	-381
ምር	-382
▁ሽ	-383
ባል	-384
▁ማለት	-385
መራ	-386
ሎት	-387
▁አይደለም	-388
▁እው	-389
▁ቤተ	-390
▁ሌላ	-391
▁በቀ	-392
▁እንጂ	-393
ቢያ	-394
▁ከፍተኛ	-395
ጠበ	-396
ክት	-397
▁ስም	-398
▁እንዲሁ	-399
ክል	-400
▁ጥያቄ	-401
▁ያል	-402
ሪክ	-403
ሳይ	-404
▁ሴ	-405
▁አገል	-406
ምህርት	-407
▁የው	-408
ለች	-409
ዘጋ	-410
▁ሶ	-411
▁በህ	-412
▁ይሆ	-413
▁ወቅ	-414
ሩት	-415
ሰማ	-416
▁ከዚህ	-417
ልቅ	-418
ካሄ	-419
ለያዩ	-420
▁የነበረ	-421
ዚያ	-422
▁በር	-423
ግለ	-424
ገኝ	-425
▁የስ	-426
መድ	-427
ተዋል	-428
ቀው	-429
ሪዎች	-430
▁ይች	-431
▁ነገ	-432
▁ከእ	-433
ኖች	-434
ኛል	-435
ጦር	-436
▁በጣም	-437
ላፊ	-438
▁ሚኒስት	-439
ውያን	-440
ሰው	-441
ዮች	-442
▁ፀ	-443
▁ተጠ	-444
▁ደረጃ	-445
ፈው	-446
▁እንደሆነ	-447
መር	-448
ወጣ	-449
ሳት	-450
ደው	-451
▁ጠቅ	-452
▁አለም	-453
▁የኢ	-454
ታችን	-455
ችል	-456
ፍሪካ	-457
▁በፊት	-458
ስፋ	-459
▁እንዲህ	-460
▁ተወ	-461
▁እንኳ	-462
▁ፕሮ	-463
በል	-464
▁እንዲሁም	-465
ኝነት	-466
▁ተና	-467
▁መካከል	-468
▁ገል	-469
ለዋል	-470
▁በሀ	-471
ጠው	-472
ማር	-473
ገና	-474
ሊዮን	-475
ዘብ	-476
ንግስ	-477
▁ጭ	-478
▁ላ	-479
መው	-480
ገው	-481
▁አሳ	-482
▁አቀ	-483
ሱን	-484
ጀመሪያ	-485
▁አካባቢ	-486
▁በም	-487
▁አገልግ	-488
ቶችን	-489
ወሰ	-490
ፍት	-491
ሜሪካ	-492
▁ምንም	-493
▁መረጃ	-494
▁የበ	-495
▁በኢትዮጵያ	-496
ፈፀ	-497
▁ቦታ	-498
ሩን	-499
መጣ	-500
▁የሚያስ	-501
▁በየ	-502
▁ተብ	-503
▁ወን	-504
ፅሀ	-505
▁አይነት	-506
ግራይ	-507
▁ችግር	-508
ብሄር	-509
ታቸውን	-510
ርስቲ	-511
▁የታ	-512
ህን	-513
ምና	-514
▁በግ	-515
▁ሀላፊ	-516
ሀት	-517
ንተ	-518
ቱም	-519
▁መጠ	-520
ላሉ	-521
ጨማሪ	-522
▁አር	-523
ሏል	-524
ሉም	-525
ጆች	-526
▁በስ	-527
በው	-528
▁ተቋ	-529
▁ፓርቲ	-530
▁ቢሆን	-531
ገሪ	-532
ንና	-533
ኩል	-534
ሞክ	-535
▁ህይወ	-536
▁አመታት	-537
▁ሀሳ	-538
ኦሮ	-539
▁ይሄ	-540
ሰባ	-541
▁ወቅት	-542
ቸዋል	-543
▁ሁለት	-544
▁ዲ	-545
ንን	-546
ደም	-547
ጨረ	-548
▁ፕሬ	-549
▁ከሚ	-550
ዝብ	-551
▁ተቀ	-552
ለይ	-553
▁እንዴት	-554
▁በወ	-555
▁ሀገር	-556
ባለ	-557
▁የማይ	-558
▁የሚል	-559
ደረጉ	-560
▁ድረስ	-561
▁ዋና	-562
▁በት	-563
▁ልጅ	-564
▁ሳይሆን	-565
▁ረ	-566
የር	-567
▁ሲያ	-568
ነበረ	-569
▁አት	-570
ልጣን	-571
ረዋል	-572
ናገ	-573
▁ሜ	-574
▁ኩ	-575
▁ልዩ	-576
▁ተከ	-577
▁እኛ	-578
▁መሰረት	-579
▁ወር	-580
▁ኢን	-581
ግዚ	-582
ቤት	-583
▁በደ	-584
▁አገር	-585
ምነት	-586
▁ዘር	-587
ከር	-588
ዶች	-589
▁ሌሎች	-590
▁የቀ	-591
ፖለቲካ	-592
ርያ	-593
ልን	-594
ዱስ	-595
ባይ	-596
▁መንግስ	-597
▁ኮሚ	-598
ቀት	-599
▁አማራ	-600
▁ያሉ	-601
▁እጅ	-602
ግና	-603
▁ቁጥር	-604
ፋት	-605
▁ዩ	-606
ጤና	-607
▁ቴ	-608
ክር	-609
▁ባን	-610
▁ፋ	-611
ግብ	-612
ዳደር	-613
▁ብሄ	-614
ሆና	-615
ሞች	-616
▁እንዲያ	-617
ረን	-618
▁ከማ	-619
ግዚአ	-620
ቃት	-621
▁መር	-622
▁ምስ	-623
ፅሀፍ	-624
ልክ	-625
▁ማህ	-626
▁ድን	-627
ግዚአብሄር	-628
▁ያህል	-629
ረብ	-630
ዲያ	-631
▁ነፃ	-632
▁ሂ	-633
ክስ	-634
ራቸው	-635
ኤል	-636
ልፅ	-637
ፈለ	-638
ግኘ	-639
▁ሀይል	-640
ራሲ	-641
▁በመሆኑ	-642
ቻችን	-643
ነቱ	-644
▁እነዚህ	-645
▁መግለ	-646
▁ሺህ	-647
▁የባ	-648
ጡት	-649
ፈጠ	-650
ብረት	-651
ደት	-652
▁የምት	-653
▁ተናግ	-654
▁አድ	-655
▁ተግባ	-656
ሬት	-657
▁ጠቅላይ	-658
▁ውጤ	-659
▁ይችላል	-660
ገኘው	-661
▁ሚኒስትር	-662
▁በተለይ	-663
▁አንዱ	-664
መሰ	-665
▁ለው	-666
▁ሱ	-667
▁ችግ	-668
▁ጣ	-669
▁ንግ	-670
▁ትምህርት	-671
▁ይሁን	-672
▁እንዳይ	-673
▁ዘመን	-674
▁ለእ	-675
መረ	-676
▁በሌ	-677
▁እንደተ	-678
ካታ	-679
▁ምክር	-680
ንዳ	-681
ቸዉ	-682
ገደ	-683
▁ለሚ	-684
▁ስብ	-685
ያዊ	-686
▁ብለዋል	-687
▁አያ	-688
▁በጥ	-689
▁እንኳን	-690
▁አሰ	-691
ነስ	-692
▁ኪ	-693
▁አሉ	-694
▁ምርጫ	-695
ቋል	-696
▁ከሆነ	-697
▁ቅዱስ	-698
ገሪቱ	-699
ዳር	-700
▁ህግ	-701
▁የተባ	-702
▁የዘ	-703
▁የተሰ	-704
▁ገልፀ	-705
▁ሀገ	-706
▁ጥሩ	-707
ፖርት	-708
▁ዜና	-709
▁ሁለ	-710
▁ገን	-711
ውል	-712
▁ባህ	-713
▁ሙሉ	-714
ፉት	-715
▁አገልግሎት	-716
▁የለም	-717
▁ጦር	-718
ታይ	-719
ጨረሻ	-720
ገቡ	-721
▁ሪ	-722
▁ሊያ	-723
ገነ	-724
ካም	-725
▁መቀ	-726
ሰቡ	-727
ጋል	-728
▁ለተ	-729
▁የደ	-730
ብን	-731
▁ድርጅት	-732
ያኔ	-733
ንቀ	-734
▁ኛ	-735
▁ለም	-736
ሉን	-737
ጋት	-738
▁ክፍል	-739
ወሀት	-740
▁ማድረግ	-741
▁በማለት	-742
▁ፖሊ	-743
▁ሚሊዮን	-744
ተን	-745
ላችሁ	-746
▁ግድ	-747
▁ቃል	-748
ክተር	-749
ያዘ	-750
▁ማእ	-751
ሰቦች	-752
ውም	-753
▁ዘመ	-754
ጠቃ	-755
ቫይ	-756
▁አስፈ	-757
በትን	-758
▁የስራ	-759
▁ዙ	-760
▁ጀምሮ	-761
▁ተስፋ	-762
ላማ	-763
▁ሰአት	-764
▁በሙ	-765
ዳንት	-766
ባኤ	-767
ድሞ	-768
ደራ	-769
ቡብ	-770
ሀን	-771
▁የፖለቲካ	-772
ተኞች	-773
▁ይሆናል	-774
▁የኮ	-775
▁ስርአት	-776
ቻቸው	-777
▁መሆን	-778
▁ሸ	-779
▁እንቅ	-780
ዛት	-781
ኮኖ	-782
▁መግለጫ	-783
ሰጥ	-784
ፈር	-785
▁በነ	-786
ማይ	-787
▁አዋ	-788
▁ግብ	-789
▁አህ	-790
ችው	-791
▁ተቃ	-792
ከራ	-793
ደረግ	-794
ረም	-795
አዴ	-796
ሳቸው	-797
▁በአንድ	-798
▁ወጣ	-799
▁ይገባ	-800
▁ወንድ	-801
▁ስት	-802
▁ጋዜ	-803
▁ድም	-804
▁ዘንድ	-805
ሳሌ	-806
▁የሆኑ	-807
▁አማ	-808
ሳኔ	-809
ምጃ	-810
የው	-811
▁ግንባ	-812
▁ውድ	-813
▁አዳ	-814
▁የሚለው	-815
ይና	-816
▁ነዉ	-817
ሻሻ	-818
ኖሩ	-819
ጀት	-820
ጠት	-821
▁አቅ	-822
▁ተፈ	-823
ስታ	-824
▁ታሪክ	-825
ርትራ	-826
ላው	-827
ወቅ	-828
▁በኩል	-829
ኑን	-830
ግኘት	-831
ነጋ	-832
ደረገው	-833
ደርግ	-834
▁አጋ	-835
ጥታ	-836
▁ብለው	-837
▁ሲል	-838
ሮና	-839
▁መሳ	-840
▁ድጋ	-841
▁ቡድን	-842
ሄድ	-843
ሱስ	-844
▁የነበሩ	-845
▁ጌ	-846
▁አንዳ	-847
ችንን	-848
ልፍ	-849
ቀጥ	-850
ለህ	-851
▁ተማሪ	-852
▁ለማስ	-853
▁ያሳ	-854
▁ትን	-855
▁እንድ	-856
▁አብይ	-857
▁የምን	-858
▁አለመ	-859
ታደ	-860
▁ሀሳብ	-861
▁ጨዋ	-862
ሰሩ	-863
ኛውም	-864
ሯል	-865
ሞክራሲ	-866
▁ፊ	-867
▁ህይወት	-868
▁በው	-869
ግል	-870
ፌዴ	-871
ያዝ	-872
ሰር	-873
ቂያ	-874
ኒቨ	-875
▁የለ	-876
▁ለምን	-877
▁ሰላም	-878
▁አምላክ	-879
ቅድ	-880
▁ገልፀዋል	-881
ጠራ	-882
▁መለ	-883
ማኖ	-884
▁ይገ	-885
ናው	-886
▁በሚል	-887
▁ያለውን	-888
▁ሁሉም	-889
ነግ	-890
በብ	-891
መለከተ	-892
▁አቀፍ	-893
▁ቤቱ	-894
▁አመራ	-895
▁በታ	-896
ከሰ	-897
▁ዝግ	-898
▁መሪ	-899
▁የጥ	-900
▁የመንግስት	-901
▁የብ	-902
ስቃ	-903
የሱስ	-904
▁ካል	-905
ስና	-906
▁አንተ	-907
▁ቃ	-908
▁የአማራ	-909
▁በርካታ	-910
▁ዞ	-911
▁ተናግረዋል	-912
ደርጉ	-913
▁የል	-914
▁ሄ	-915
▁ቋ	-916
▁በሁ	-917
▁መብት	-918
ስቴ	-919
▁የሌ	-920
▁እርምጃ	-921
▁እንዳለ	-922
▁የኦሮ	-923
ሀል	-924
ጠብ	-925
ቦት	-926
ሁኑ	-927
ጋራ	-928
▁በመቶ	-929
▁ሰራ	-930
▁የተለያዩ	-931
▁ክርስቲ	-932
▁ዴ	-933
▁መብ	-934
ጠበቅ	-935
ሙን	-936
ነትን	-937
ደረሰ	-938
▁ባለስ	-939
▁መፅሀፍ	-940
ራን	-941
ጎች	-942
▁ኢትዮጵያዊ	-943
ረጋገ	-944
በቃ	-945
▁ውሳኔ	-946
ጠቅ	-947
▁በተጨማሪ	-948
▁ተብሎ	-949
▁ጥቅም	-950
▁ሶስት	-951
▁የራ	-952
▁ይመስ	-953
ከፍ	-954
ነገ	-955
▁ገንዘብ	-956
▁ነዋ	-957
ላጊ	-958
ጠቀም	-959
ሙያ	-960
▁በበ	-961
ስቃሴ	-962
▁የአለም	-963
▁የነበረው	-964
ረድ	-965
ኮኖሚ	-966
▁አባላት	-967
ጠይ	-968
▁አስተዳደር	-969
▁አፍ	-970
▁አስተያ	-971
ዲህ	-972
▁አስታው	-973
▁ጉባኤ	-974
▁ባይ	-975
▁የገ	-976
▁ድጋፍ	-977
▁ፍርድ	-978
ሱም	-979
▁ሲሉ	-980
መሳ	-981
▁አክ	-982
ምንት	-983
ዋን	-984
ትር	-985
▁ልጆች	-986
▁ስን	-987
ፈት	-988
▁ብሄራዊ	-989
አዊ	-990
▁ስል	-991
ችሉ	-992
▁ፖለቲካ	-993
መት	-994
▁ይህንን	-995
ሮችን	-996
ህአዴ	-997
ለጠ	-998
ቅና	-999
▁እኮ	-1000
ቆጣ	-1001
▁ቤቶች	-1002
▁እግዚአብሄር	-1003
▁በብ	-1004
ለኝ	-1005
ከላከ	-1006
ስን	-1007
ንቋ	-1008
▁ድርጊ	-1009
▁ጉዳዮች	-1010
▁በሙሉ	-1011
▁መጥ	-1012
▁ህገ	-1013
ቤተ	-1014
▁ትር	-1015
ናዊ	-1016
ላዊ	-1017
▁ያሉት	-1018
ጥሮ	-1019
▁እንቅስቃሴ	-1020
▁ግንኙ	-1021
▁ከዚያ	-1022
ነሱ	-1023
▁የኤ	-1024
▁እጅግ	-1025
▁በዘ	-1026
▁በፍ	-1027
ስር	-1028
▁ስለዚህ	-1029
ገት	-1030
▁እንግ	-1031
▁አደጋ	-1032
ነበር	-1033
ደን	-1034
ርቶ	-1035
ህአዴግ	-1036
▁ለህ	-1037
ቹን	-1038
▁ለማድረግ	-1039
▁መድረ	-1040
▁ማሳ	-1041
▁ባል	-1042
▁ፕሬዚ	-1043
▁ትኩ	-1044
ጭት	-1045
▁ሰብ	-1046
▁ቆይ	-1047
▁ጨዋታ	-1048
▁እንደሚያ	-1049
ገብ	-1050
▁ትልቅ	-1051
ሳል	-1052
ከተማ	-1053
▁በአዲስ	-1054
▁ወንጀ	-1055
ሜን	-1056
▁ግለ	-1057
ናወ	-1058
▁ልብ	-1059
ቋቋ	-1060
በያ	-1061
▁ገብ	-1062
ገራችን	-1063
▁የሚገኙ	-1064
▁መልካም	-1065
ሁንም	-1066
▁አጥ	-1067
▁መቶ	-1068
▁ውይ	-1069
▁የህዝብ	-1070
▁በቅር	-1071
ብራ	-1072
ርሲ	-1073
▁የውጭ	-1074
ደኛ	-1075
ቻል	-1076
▁አለበት	-1077
ላን	-1078
ላቸውን	-1079
▁ልማት	-1080
ቡን	-1081
▁ሮ	-1082
▁የመጀመሪያ	-1083
▁ዋጋ	-1084
ሳተ	-1085
ትል	-1086
ደርስ	-1087
▁ከወ	-1088
▁መሆና	-1089
▁አንዳንድ	-1090
▁ቢሆንም	-1091
▁ይዘ	-1092
እራ	-1093
ካባቢ	-1094
ጠል	-1095
▁ጫ	-1096
▁ከባ	-1097
▁ሚኒስቴ	-1098
ላር	-1099
▁ኦሮ	-1100
ተኛው	-1101
ከለ	-1102
ጠፋ	-1103
▁ውሀ	-1104
▁አሁንም	-1105
▁በሽ	-1106
ብኝ	-1107
ዳጅ	-1108
ቀመ	-1109
በታል	-1110
ባንያ	-1111
ብረተ	-1112
▁አላማ	-1113
▁የሰው	-1114
▁አፍሪካ	-1115
▁በማድረግ	-1116
ፈስ	-1117
▁እስካ	-1118
▁ተገ	-1119
▁በራ	-1120
ናገር	-1121
ክምና	-1122
▁ርእ	-1123
▁አህመድ	-1124
ምት	-1125
ከላከያ	-1126
ፖር	-1127
▁ፍላ	-1128
ቃሚ	-1129
▁ለውጥ	-1130
▁ቅር	-1131
▁ነጥ	-1132
▁በኢ	-1133
▁ዩኒቨ	-1134
ወር	-1135
▁ለዚህ	-1136
ከቱ	-1137
ርግ	-1138
ታወቀ	-1139
▁ዉ	-1140
▁ገፅ	-1141
ላሽ	-1142
▁ገለ	-1143
ጅት	-1144
▁ቀደም	-1145
ሞት	-1146
ደግ	-1147
ቫይረስ	-1148
▁የቆ	-1149
▁ወጥ	-1150
▁ስብሰባ	-1151
▁የሚሰ	-1152
ክለ	-1153
ንደር	-1154
▁ወረዳ	-1155
▁ፎ	-1156
▁የፀ	-1157
ከታ	-1158
▁አሜሪካ	-1159
ጠናቀ	-1160
▁ተመል	-1161
ጠኛ	-1162
▁የአዲስ	-1163
ፈራ	-1164
ከናወ	-1165
መለስ	-1166
ተት	-1167
ርሲቲ	-1168
▁ነኝ	-1169
▁ካለ	-1170
▁አሸ	-1171
▁በል	-1172
▁በተለያዩ	-1173
▁ነገሮች	-1174
ዲዮ	-1175
▁ግንኙነት	-1176
▁ወረ	-1177
የን	-1178
ቀረበ	-1179
▁ዶላር	-1180
▁በረ	-1181
▁ጓ	-1182
▁ኢየሱስ	-1183
▁ያልተ	-1184
▁መደ	-1185
▁ሚኒስቴር	-1186
▁ዙሪያ	-1187
▁በድ	-1188
▁ስልጣን	-1189
▁መሳሪያ	-1190
ጠሩ	-1191
▁ስላ	-1192
▁ጨምሮ	-1193
ሙት	-1194
በራዊ	-1195
▁ፅሁ	-1196
▁የትግራይ	-1197
▁ባለሙያ	-1198
▁ፈቃ	-1199
ቀል	-1200
ጣል	-1201
▁ክል	-1202
▁ውጤት	-1203
▁እሱ	-1204
▁ፍቅር	-1205
ቂት	-1206
ከብ	-1207
▁ባንክ	-1208
▁ጥረት	-1209
ለማ	-1210
▁ስሜ	-1211
▁ይሰ	-1212
▁መው	-1213
ክልሉ	-1214
ሶች	-1215
▁ያላቸው	-1216
▁ከሰ	-1217
▁ማሀ	-1218
▁መልእ	-1219
ወስ	-1220
ገለፀ	-1221
ፈሳ	-1222
ፈን	-1223
▁የካ	-1224
▁ዶክተር	-1225
▁አልተ	-1226
▁መታ	-1227
ርክ	-1228
ጣሪ	-1229
መሳሳይ	-1230
ቆም	-1231
ጠቃላይ	-1232
▁ቢሮ	-1233
▁ማስተ	-1234
ፍትሄ	-1235
▁ኩባንያ	-1236
ንግድ	-1237
▁የፍ	-1238
ቅረብ	-1239
▁ድምፅ	-1240
ረተ	-1241
ኩት	-1242
ስብ	-1243
▁ስለሆነ	-1244
▁ይልቅ	-1245
▁ለመስ	-1246
▁አለው	-1247
▁አካል	-1248
▁ሆነው	-1249
ገንዘብ	-1250
▁ታላ	-1251
ሻለ	-1252
▁ከነ	-1253
▁አፈ	-1254
▁ኖ	-1255
ምላክ	-1256
ማን	-1257
ናቸው	-1258
▁ቋንቋ	-1259
ዘጋጀ	-1260
▁አስፈላጊ	-1261
▁አድርጎ	-1262
▁ባለፈው	-1263
▁ሳምንት	-1264
ያዙ	-1265
ባብ	-1266
▁ይገባል	-1267
ለቱ	-1268
▁ነፍ	-1269
ጀመር	-1270
ንብ	-1271
ጠየ	-1272
▁ከሁ	-1273
▁መመ	-1274
▁ይላል	-1275
▁ተጨማሪ	-1276
▁ፖሊስ	-1277
▁ኮሚቴ	-1278
▁መንገ	-1279
▁እንዳል	-1280
ንጫ	-1281
ፍራ	-1282
ጀመረ	-1283
▁በአለም	-1284
▁ዮ	-1285
ለውን	-1286
▁ደስ	-1287
ውሞ	-1288
▁ዳር	-1289
▁አቅር	-1290
ዚሁ	-1291
ሊያ	-1292
▁በአሁኑ	-1293
ፈልግ	-1294
▁ጥቃት	-1295
▁ፍላጎ	-1296
▁ኳ	-1297
▁ግንባታ	-1298
▁የሁ	-1299
ደጋ	-1300
▁መዝ	-1301
ሊዝ	-1302
▁ንጉ	-1303
▁መሬት	-1304
▁ተደር	-1305
▁የሆነው	-1306
ነትና	-1307
ባዊ	-1308
ከላከል	-1309
ረጥ	-1310
ይን	-1311
▁ተቋማት	-1312
▁ስለሚ	-1313
▁በአል	-1314
ማኖት	-1315
▁ይዞ	-1316
▁ዞን	-1317
▁የክ	-1318
▁በመስ	-1319
▁የምር	-1320
▁አቋ	-1321
▁ሊሆን	-1322
▁ከሌ	-1323
▁ህፃ	-1324
▁ወያኔ	-1325
ሳቀ	-1326
ኞቹ	-1327
ችልም	-1328
▁ቻ	-1329
▁መም	-1330
▁መጠን	-1331
▁በኮ	-1332
▁ቱ	-1333
▁እውነ	-1334
▁ውጭ	-1335
▁ደር	-1336
▁ውይይት	-1337
▁እድል	-1338
▁ሰጥ	-1339
▁ሴት	-1340
▁ሀገራት	-1341
▁ብዬ	-1342
▁እውነት	-1343
▁እዚህ	-1344
ሰን	-1345
▁የጎ	-1346
▁ኢትዮጵያውያን	-1347
▁መድ	-1348
ማቸው	-1349
▁ነጋ	-1350
ውሮ	-1351
ገባው	-1352
▁ምክንያቱም	-1353
ገኛ	-1354
▁ትእ	-1355
ጀር	-1356
▁በማስ	-1357
ቁት	-1358
▁ሰራዊ	-1359
▁እለት	-1360
▁በባ	-1361
▁ቀናት	-1362
ቧል	-1363
ገለፁ	-1364
▁አራት	-1365
▁አገሮች	-1366
ጥጥር	-1367
▁መነ	-1368
▁አምስት	-1369
▁ፕሮግራ	-1370
▁ይህም	-1371
ቀበ	-1372
ይሆ	-1373
ቀዋል	-1374
ላማዊ	-1375
ፎች	-1376
▁ፕሮጀ	-1377
ማል	-1378
▁በጎ	-1379
ድስት	-1380
▁እምነት	-1381
ነር	-1382
▁አባል	-1383
▁የለው	-1384
▁አስተያየት	-1385
▁ወጣቶች	-1386
ዛዝ	-1387
▁ትክ	-1388
▁ጦርነት	-1389
▁የሞ	-1390
▁በሆነ	-1391
▁ቀር	-1392
▁አማካ	-1393
▁ባለስልጣ	-1394
▁በቁ	-1395
▁የተለ	-1396
ዳታ	-1397
ጠን	-1398
▁የድ	-1399
▁የአፍሪካ	-1400
ካል	-1401
▁በክ	-1402
መም	-1403
▁ተሰ	-1404
▁ተከት	-1405
▁ነበረ	-1406
ዘር	-1407
▁እስኪ	-1408
ካሄድ	-1409
▁ኤፍ	-1410
ንድን	-1411
▁ቀጥ	-1412
▁ጉዳት	-1413
▁ይሆን	-1414
▁ከሀ	-1415
ዱን	-1416
ሎጂ	-1417
▁በሌላ	-1418
▁ገቢ	-1419
▁ጤና	-1420
ያል	-1421
ኗል	-1422
ፈረ	-1423
ከፋ	-1424
ጋቢ	-1425
▁ቪ	-1426
ጠኝ	-1427
ዎችና	-1428
▁ድርጅቶች	-1429
▁ቡድ	-1430
▁ልክ	-1431
▁መፍትሄ	-1432
▁ወገ	-1433
▁ሻ	-1434
▁ፕሬዚዳንት	-1435
ላችን	-1436
ቾች	-1437
▁ወታደ	-1438
▁በተመለከተ	-1439
▁ጠን	-1440
▁ትኩረት	-1441
▁ይሆዋ	-1442
ሳቸውን	-1443
▁ጃ	-1444
▁ስርአ	-1445
ኮች	-1446
ዝር	-1447
▁ሴቶች	-1448
▁የተነሳ	-1449
ጣቸው	-1450
ትም	-1451
ኖረው	-1452
▁ዘርፍ	-1453
▁ዜጎች	-1454
▁እስካሁን	-1455
▁የምና	-1456
▁አረ	-1457
▁ከስ	-1458
▁የኦሮሞ	-1459
▁ይታወ	-1460
▁ሂደት	-1461
▁መልኩ	-1462
▁አውሮ	-1463
▁ፀሀ	-1464
▁ከህ	-1465
▁በቅርቡ	-1466
▁የጤና	-1467
▁ተማሪዎች	-1468
ጋቸው	-1469
ስማ	-1470
ባሪ	-1471
▁ናት	-1472
ደገ	-1473
▁ምላሽ	-1474
ጫወ	-1475
▁ሀብት	-1476
ጣው	-1477
ነዚህ	-1478
ህር	-1479
▁አዲ	-1480
ገሩ	-1481
▁ብሄር	-1482
▁ኬ	-1483
ዋሚ	-1484
▁ፌ	-1485
ጅም	-1486
▁ፍት	-1487
ክቶ	-1488
▁ያደር	-1489
▁እድሜ	-1490
ሳስ	-1491
▁ደም	-1492
▁እንደነበር	-1493
▁ባህር	-1494
ይል	-1495
▁ገና	-1496
▁ስነ	-1497
▁እንደማይ	-1498
▁ፕሬዝ	-1499
ከበር	-1500
ዳል	-1501
▁ከባድ	-1502
▁ሆኖም	-1503
▁ዝም	-1504
▁እራ	-1505
ችሁን	-1506
ዱት	-1507
ማርኛ	-1508
በሩት	-1509
▁ማለ	-1510
▁ህወሀት	-1511
ውና	-1512
ደብ	-1513
▁የአሜሪካ	-1514
ወጥ	-1515
ባለው	-1516
▁ትራ	-1517
ነቱን	-1518
ደል	-1519
ርስዎ	-1520
▁መሀ	-1521
ቡት	-1522
ባሉ	-1523
ጿል	-1524
▁ወራት	-1525
ፈፀም	-1526
ከፈ	-1527
▁ነጥብ	-1528
ጓል	-1529
▁መልስ	-1530
▁መተ	-1531
▁አቅም	-1532
▁ይችላሉ	-1533
ያቸው	-1534
▁የቀድሞ	-1535
ይሆዋ	-1536
ንቲ	-1537
▁ከም	-1538
ምፒ	-1539
▁አምባ	-1540
ተና	-1541
▁ቶ	-1542
ጥም	-1543
▁እያለ	-1544
ምህር	-1545
ቶቹ	-1546
▁የሙ	-1547
▁በጉ	-1548
ልኝ	-1549
ሰት	-1550
▁ፊት	-1551
▁አግ	-1552
ሰበ	-1553
▁ያው	-1554
ወጡ	-1555
▁ጥር	-1556
▁እናም	-1557
▁ወጣት	-1558
ጋሚ	-1559
▁አልነበረ	-1560
▁ወንጀል	-1561
ታማ	-1562
ዉን	-1563
▁አብዛ	-1564
ፍን	-1565
▁ኑ	-1566
▁ሩ	-1567
ቅረ	-1568
ጣሚ	-1569
ደረጉት	-1570
ዘን	-1571
▁ሰር	-1572
▁ተፅ	-1573
▁ዩኒቨርሲቲ	-1574
ጣን	-1575
ኪና	-1576
▁የንግድ	-1577
▁እቅድ	-1578
▁ተጠቃሚ	-1579
ስትሪ	-1580
ታችንን	-1581
▁ተግባር	-1582
▁ተከትሎ	-1583
▁ተራ	-1584
▁ምድር	-1585
በረሰብ	-1586
ዳት	-1587
▁ይቅር	-1588
ካሄደ	-1589
ገረ	-1590
▁ልጆ	-1591
ሎችን	-1592
ሱት	-1593
ኞችን	-1594
▁ያስፈል	-1595
ጉም	-1596
ስራቅ	-1597
▁መግ	-1598
▁ትና	-1599
▁ቢሊዮን	-1600
ዳደ	-1601
▁ይፋ	-1602
▁አገልግሎ	-1603
ንታ	-1604
▁ባለው	-1605
▁ቫይረስ	-1606
▁ባለመ	-1607
▁ስምምነት	-1608
▁አለማ	-1609
▁ሌላው	-1610
ጠረ	-1611
▁መፍ	-1612
▁መንግስታት	-1613
▁ድል	-1614
ረዳት	-1615
ፃሚ	-1616
▁ንግድ	-1617
▁ኳስ	-1618
ጋይ	-1619
ዋር	-1620
ሀብ	-1621
▁ቤተሰቦች	-1622
▁ኛው	-1623
ይወት	-1624
▁ግልፅ	-1625
▁ይቻ	-1626
ንደ	-1627
▁ጆ	-1628
▁ለሁ	-1629
ሰብአዊ	-1630
▁ጅ	-1631
▁ምክትል	-1632
የሁ	-1633
▁አካላት	-1634
▁ለማግኘት	-1635
ቀም	-1636
▁ህዝቦች	-1637
ዝና	-1638
▁መቼ	-1639
▁ሊቀ	-1640
▁አሰራ	-1641
ቻቸውን	-1642
ራሽ	-1643
▁መኖ	-1644
ክኖ	-1645
▁ዝር	-1646
ሷል	-1647
▁ብሏል	-1648
▁ማስታወ	-1649
ረጋግ	-1650
▁የሚቆ	-1651
በላ	-1652
ጣይ	-1653
▁እም	-1654
ጋሪ	-1655
መዘ	-1656
▁የዋ	-1657
ያም	-1658
ሀኒ	-1659
▁ደጋ	-1660
▁ሜትር	-1661
ግባር	-1662
▁ስታ	-1663
▁ነበሩ	-1664
▁ችግሮች	-1665
▁ጊ	-1666
▁ተጫ	-1667
ሻሻል	-1668
▁ትውል	-1669
ህና	-1670
ገዛ	-1671
▁ይቻላል	-1672
ስትና	-1673
▁በሚያ	-1674
▁የህግ	-1675
▁ተዋ	-1676
ሸነ	-1677
▁የተቀ	-1678
መጡ	-1679
▁መሆናቸውን	-1680
▁በዋ	-1681
ንፃ	-1682
ኳይ	-1683
▁መልእክት	-1684
ካባቢው	-1685
▁ግብር	-1686
▁የኦ	-1687
▁ኮን	-1688
▁ዝግጅት	-1689
ባቸውን	-1690
▁ጥናት	-1691
▁ወል	-1692
ላላ	-1693
ርስቶ	-1694
▁መዋ	-1695
በኛ	-1696
▁ኢትዮጵያን	-1697
▁ዳይ	-1698
ያንዳን	-1699
የም	-1700
ሶስት	-1701
መና	-1702
ከፍተኛ	-1703
ላቀ	-1704
▁ለኢትዮጵያ	-1705
ንባ	-1706
▁ይገኛል	-1707
ገናኛ	-1708
▁ጥሪ	-1709
ድሮ	-1710
መዋል	-1711
ያት	-1712
ቸኳይ	-1713
▁በኦሮ	-1714
ቀርብ	-1715
▁በቅ	-1716
▁ይታ	-1717
▁አስታወቀ	-1718
ንቀሳቀ	-1719
ዎን	-1720
▁ኢህአዴግ	-1721
ፊያ	-1722
ገለፁት	-1723
▁ትግራይ	-1724
ያያዘ	-1725
በዋል	-1726
ሞክራሲያዊ	-1727
ዳሴ	-1728
ሬሽን	-1729
▁ሱዳን	-1730
▁በዚህም	-1731
▁ህዝቡ	-1732
ጮች	-1733
▁ሚኒስትሩ	-1734
▁አየር	-1735
▁ክርስቲያን	-1736
▁ስራዎች	-1737
በሌ	-1738
▁ተቃውሞ	-1739
▁አዋጅ	-1740
ጭር	-1741
በልጥ	-1742
▁ጥን	-1743
ከታተ	-1744
ያይ	-1745
ስቱ	-1746
▁ሀይለ	-1747
ርቅ	-1748
▁የተወሰ	-1749
▁ስሜት	-1750
ዚቃ	-1751
ካሄደው	-1752
ንጀ	-1753
▁ለወ	-1754
ፈልጉ	-1755
▁የጦር	-1756
▁ሚሊ	-1757
▁ዘገባ	-1758
▁ያላ	-1759
▁ኡ	-1760
▁ተገቢ	-1761
ዱስትሪ	-1762
▁ግንቦት	-1763
▁ባለፉት	-1764
▁አንዳን	-1765
▁መሰረ	-1766
ዘጋጅ	-1767
ጥረት	-1768
▁ነዋሪዎች	-1769
▁አቢ	-1770
ሪቃ	-1771
▁ክርስቲያ	-1772
▁ምርመራ	-1773
▁ደብ	-1774
▁ንግግር	-1775
▁ክስ	-1776
▁ታው	-1777
እኖ	-1778
መደ	-1779
ሳቢ	-1780
▁የሚታ	-1781
ልና	-1782
ረሱ	-1783
▁ሀይሎች	-1784
▁ኦሮሞ	-1785
ርማ	-1786
▁በመሆኑም	-1787
▁በሽታ	-1788
ስቶ	-1789
▁እቃ	-1790
ጋዊ	-1791
▁የትምህርት	-1792
▁ሀጢ	-1793
ሳብ	-1794
▁ፍላጎት	-1795
▁ሰራዊት	-1796
▁ለማሳ	-1797
▁ሀብ	-1798
ቲት	-1799
ችላ	-1800
ንኛውም	-1801
▁ነን	-1802
▁በእርግ	-1803
ለቀ	-1804
▁በተጨማሪም	-1805
▁የተሻለ	-1806
ክኖሎጂ	-1807
ልቁ	-1808
▁ደሞ	-1809
▁እናንተ	-1810
▁ትንሽ	-1811
▁ሰላ	-1812
▁ሰነ	-1813
ካቸው	-1814
▁መጨረሻ	-1815
▁የፓ	-1816
▁ለሀ	-1817
ዳዳ	-1818
▁አስተዋ	-1819
▁ወዳ	-1820
ቡር	-1821
ካራ	-1822
▁የአንድ	-1823
▁ሚዲያ	-1824
ቆጣጠር	-1825
▁ብለን	-1826
▁ለዘ	-1827
▁መሪዎች	-1828
▁ይላሉ	-1829
ሰድ	-1830
▁ጳ	-1831
ፌዴራል	-1832
ፈጠረ	-1833
ሟል	-1834
ዊት	-1835
▁ግጭት	-1836
▁እድገት	-1837
ዷል	-1838
ናገሩት	-1839
▁ላለ	-1840
ካት	-1841
▁በወቅ	-1842
▁ቄ	-1843
▁ይኖር	-1844
ችለው	-1845
▁ተፅእኖ	-1846
ናይት	-1847
▁አንፃ	-1848
▁ከአንድ	-1849
ኝም	-1850
▁ኤርትራ	-1851
ዘው	-1852
▁አካባቢዎች	-1853
▁ከታ	-1854
▁ትግል	-1855
ምባ	-1856
ዳቸው	-1857
▁ደን	-1858
መቱ	-1859
▁ማድረ	-1860
▁ክብር	-1861
ዩን	-1862
▁ዳይሬ	-1863
▁ተወካ	-1864
▁የፕ	-1865
▁በቂ	-1866
ስፒ	-1867
▁ሀም	-1868
▁የቻ	-1869
▁ክለ	-1870
በትም	-1871
▁ስፍራ	-1872
ፖሊ	-1873
▁ከኢትዮጵያ	-1874
▁አልነበረም	-1875
▁ንብረት	-1876
▁ለምሳሌ	-1877
ዳሚ	-1878
▁አቃ	-1879
ከረ	-1880
▁ማግኘት	-1881
ፍና	-1882
▁ገበያ	-1883
▁በተለይም	-1884
▁ሰሞ	-1885
▁ማንም	-1886
▁ጥላ	-1887
▁የኮሮና	-1888
▁ህመም	-1889
ቃወ	-1890
▁ሰልፍ	-1891
▁በአማራ	-1892
▁አወ	-1893
▁የቅ	-1894
▁የከተማ	-1895
▁የቴ	-1896
▁መግባ	-1897
▁አራ	-1898
▁ተጠና	-1899
▁ለብ	-1900
▁ሰራተኞች	-1901
▁በበኩ	-1902
▁ስደ	-1903
▁ከው	-1904
▁ከበ	-1905
▁የፈ	-1906
▁የግል	-1907
▁ጀር	-1908
▁እርዳታ	-1909
▁የዚህ	-1910
▁የኢን	-1911
▁ጉዞ	-1912
ፈና	-1913
▁አመራር	-1914
ገዋል	-1915
ነኛ	-1916
ፃፀ	-1917
▁መጣ	-1918
▁የምታ	-1919
▁ስጋት	-1920
▁ስቴ	-1921
▁ነፃነት	-1922
ስተኛ	-1923
ብረተሰቡ	-1924
▁አንድነት	-1925
ከረም	-1926
▁ምግብ	-1927
በራ	-1928
▁ትግ	-1929
▁እንዲሆን	-1930
▁ውጪ	-1931
ነበረው	-1932
▁ተሳ	-1933
ዩት	-1934
▁እንድት	-1935
▁ልማ	-1936
▁ጠቁ	-1937
▁ምእራ	-1938
መንት	-1939
▁ቢያ	-1940
▁የለውም	-1941
ህፈት	-1942
ንጉ	-1943
▁ጌታ	-1944
ማኝ	-1945
ከው	-1946
ሳሰብ	-1947
ፁም	-1948
▁ፈቃድ	-1949
▁ጠይ	-1950
▁መስራት	-1951
▁ተከታ	-1952
▁ትናንት	-1953
▁አመለ	-1954
▁ሀላፊነት	-1955
ዛሬው	-1956
ርስቶስ	-1957
▁የጋራ	-1958
▁መከላከያ	-1959
ርሱ	-1960
ኛውን	-1961
▁ቲ	-1962
▁በስተ	-1963
▁እርግ	-1964
▁አንፃር	-1965
▁ታዲያ	-1966
▁ተገል	-1967
▁የሽ	-1968
ሩም	-1969
▁በይ	-1970
ክሮ	-1971
ደርገው	-1972
▁ቅድ	-1973
ያቂ	-1974
▁ግድብ	-1975
▁መድረክ	-1976
▁የሰላም	-1977
▁ከዚያም	-1978
ዳማ	-1979
ኔት	-1980
▁ልም	-1981
▁ፕሮግራም	-1982
▁ወጪ	-1983
ዲት	-1984
▁ኮሚሽን	-1985
ዳም	-1986
በነ	-1987
ነታቸው	-1988
ኪያ	-1989
▁ሰዎችን	-1990
መለከት	-1991
ሌክት	-1992
▁ግራ	-1993
▁ከተሞች	-1994
ናንተ	-1995
▁ብት	-1996
▁የሚለውን	-1997
መዝ	-1998
ቁር	-1999
ንቅ	-2000
▁ዛ	-2001
ሳን	-2002
ቋቋም	-2003
ቦችን	-2004
▁ምህ	-2005
▁አስረድ	-2006
ቂቃ	-2007
▁ምርት	-2008
ባቸዋል	-2009
ማሽ	-2010
ልማት	-2011
ረር	-2012
ቤቱ	-2013
▁ባህል	-2014
▁አመራሮች	-2015
በረታ	-2016
ብሪካ	-2017
ፈፀመ	-2018
ጣጫ	-2019
ትስ	-2020
▁በመሆን	-2021
▁ሹ	-2022
▁የሚፈ	-2023
▁የሚገኘው	-2024
ራው	-2025
▁ጉድ	-2026
▁ለመቀ	-2027
▁የተባለው	-2028
▁ተግባራዊ	-2029
▁ድርጊቶች	-2030
▁ብቸ	-2031
▁ሆኗል	-2032
▁በመቀ	-2033
▁ፓርቲዎች	-2034
ውሮፓ	-2035
▁በግልፅ	-2036
▁አልፎ	-2037
▁ባለቤት	-2038
ሳሰ	-2039
▁ጥበቃ	-2040
ርሀ	-2041
ጥፋት	-2042
ህንነት	-2043
▁ያስተ	-2044
ራይ	-2045
▁ገበ	-2046
ጠቅላይ	-2047
▁መጀመሪያ	-2048
ሎስ	-2049
ራሉ	-2050
▁አድርገው	-2051
ጀም	-2052
▁ጄ	-2053
ልህ	-2054
ናይትድ	-2055
▁ቡና	-2056
▁የፌ	-2057
▁መንግስቱ	-2058
ሁት	-2059
▁ለመፍ	-2060
▁ተጋ	-2061
ደራል	-2062
▁ተብሏል	-2063
▁በገ	-2064
ስተር	-2065
▁ከቀ	-2066
ጥነት	-2067
▁የገንዘብ	-2068
▁እግር	-2069
ሰጡ	-2070
ናገራ	-2071
▁የጠ	-2072
ፊዎች	-2073
▁የሚሆኑ	-2074
ብዛ	-2075
ቷን	-2076
▁ይኖ	-2077
▁ብርሀ	-2078
▁መስተ	-2079
ረግ	-2080
▁የሚያሳ	-2081
ረጋገጥ	-2082
▁ተመሳሳይ	-2083
▁ደረ	-2084
ሄዱ	-2085
▁ማእከል	-2086
▁የበለጠ	-2087
▁ፅሁፍ	-2088
ስቲ	-2089
▁አጋጣሚ	-2090
▁ሬ	-2091
▁ወሬ	-2092
▁ሰላማዊ	-2093
▁ኢኮኖሚ	-2094
ለፍ	-2095
▁ስልጠና	-2096
▁የህወሀት	-2097
ምፕ	-2098
▁የሚችል	-2099
ወጣው	-2100
▁ሰፊ	-2101
▁የነበሩት	-2102
▁አሰራር	-2103
▁የነበረውን	-2104
ሆንም	-2105
ውጣት	-2106
▁ወዲህ	-2107
▁በጋራ	-2108
መጥ	-2109
▁መስጠት	-2110
ሸት	-2111
▁ህብረት	-2112
▁የበላይ	-2113
ረኛ	-2114
▁ወገን	-2115
▁ይበ	-2116
ወድ	-2117
ባባይ	-2118
ወለ	-2119
ፉን	-2120
ያንስ	-2121
▁ሚና	-2122
▁የሆኑት	-2123
ዝም	-2124
ቴን	-2125
ሄራዊ	-2126
▁ባለሙያዎች	-2127
▁አግኝ	-2128
ካሪ	-2129
ሌት	-2130
ቀርቡ	-2131
▁የሴ	-2132
▁ዘመቻ	-2133
▁ያለበት	-2134
▁ኪሎ	-2135
▁ባለስልጣናት	-2136
▁በመንግስት	-2137
▁የመሰ	-2138
▁ለሌ	-2139
▁አንቀ	-2140
ዎት	-2141
▁መነሻ	-2142
▁ውድድር	-2143
ፈልጋ	-2144
ይማኖት	-2145
ረታ	-2146
ከባ	-2147
▁ተቋም	-2148
ሶማ	-2149
▁ሞት	-2150
▁እያሉ	-2151
ልፅግና	-2152
▁የአምላክ	-2153
▁መልክ	-2154
▁የቤተ	-2155
▁ምሁ	-2156
ሰል	-2157
▁የዩ	-2158
▁መላ	-2159
ሳኝ	-2160
▁መድሀኒ	-2161
▁መኖር	-2162
▁የፋ	-2163
▁የሰብአዊ	-2164
ንስት	-2165
▁ትውልድ	-2166
▁ሰባት	-2167
▁የኔ	-2168
▁ህክምና	-2169
ኒያ	-2170
▁መንፈስ	-2171
ፈልገው	-2172
▁ሰለ	-2173
ሽኑ	-2174
▁ፈተና	-2175
ጨዋ	-2176
▁ስህ	-2177
▁አቢይ	-2178
▁ወስ	-2179
ሽከር	-2180
ችኋ	-2181
ደሰ	-2182
ጀን	-2183
▁ወላ	-2184
ቁም	-2185
▁ትክክለ	-2186
ውስ	-2187
▁ኢትዮ	-2188
▁ጠንካራ	-2189
ተኝነት	-2190
▁መለስ	-2191
▁አስታውቋል	-2192
▁ተሸ	-2193
▁አቅጣጫ	-2194
ክሲ	-2195
▁አዲሱ	-2196
▁ጣቢያ	-2197
▁ታላቅ	-2198
▁ደቂቃ	-2199
▁በደቡብ	-2200
ለኛል	-2201
ዋት	-2202
ሆነው	-2203
▁ምሳሌ	-2204
▁በዚያ	-2205
▁አስፈፃሚ	-2206
▁ጥቅ	-2207
▁ጥቂት	-2208
ዋለሁ	-2209
▁ጭምር	-2210
ጠኞች	-2211
▁ደስታ	-2212
▁አመለካ	-2213
ሰጠው	-2214
▁ስድስት	-2215
▁ከት	-2216
▁የውሀ	-2217
ንክ	-2218
▁ቀላል	-2219
▁እህ	-2220
▁ይቀ	-2221
ስሊ	-2222
▁የሚሉ	-2223
▁የሚባል	-2224
አል	-2225
▁ክፍያ	-2226
▁ዘጠኝ	-2227
▁በቃ	-2228
ፅኦ	-2229
ባበ	-2230
▁ክፍለ	-2231
ሰዋል	-2232
ላለም	-2233
▁ፎቶ	-2234
▁ሆይ	-2235
▁አገራት	-2236
▁ፕሬዝዳንት	-2237
▁ግለሰቦች	-2238
ጀርመን	-2239
ጁን	-2240
▁መስሪያ	-2241
▁መመሪያ	-2242
▁ረገድ	-2243
ዳቤ	-2244
▁ይሄን	-2245
▁የመስ	-2246
▁ተቃዋሚ	-2247
ናይ	-2248
▁ህጋዊ	-2249
ተናል	-2250
▁እንደሚችል	-2251
እምሮ	-2252
▁ስጋ	-2253
መነ	-2254
▁ያደረገ	-2255
ነቶች	-2256
ቱት	-2257
▁ባደረ	-2258
▁ሲባል	-2259
▁መኮ	-2260
▁ይመስላል	-2261
ደጋጋሚ	-2262
▁አውሮፕ	-2263
▁ሊግ	-2264
ጊዜው	-2265
▁እኔም	-2266
▁ተጠር	-2267
ፏል	-2268
▁የጉ	-2269
▁ከጥ	-2270
▁በኤ	-2271
▁ሁለተኛ	-2272
▁በሌሎች	-2273
▁የመጨረሻ	-2274
ልስ	-2275
▁ማም	-2276
▁የክልሉ	-2277
▁አደረ	-2278
▁ሆስፒ	-2279
▁ጐ	-2280
▁የኤርትራ	-2281
መልከት	-2282
▁ማስረጃ	-2283
▁ደቡብ	-2284
▁ስልጣ	-2285
▁ሰማ	-2286
▁ይኸ	-2287
▁ሪፖርት	-2288
▁ያን	-2289
ታን	-2290
▁በወቅቱ	-2291
ራር	-2292
▁ንጉስ	-2293
▁በሰላም	-2294
ቨስት	-2295
ሊክ	-2296
ላለች	-2297
▁ምናል	-2298
ርሽ	-2299
▁የደረ	-2300
▁ሰይ	-2301
▁እነዚህን	-2302
ለቅ	-2303
▁በተያያዘ	-2304
ነጋገር	-2305
▁ቀበሌ	-2306
ዳና	-2307
ነህ	-2308
▁የልማት	-2309
▁እንደሌ	-2310
▁ነፍስ	-2311
▁ጠብ	-2312
▁ምል	-2313
▁ይበልጥ	-2314
ገነባ	-2315
ሀሴ	-2316
▁ምናልባት	-2317
▁እናት	-2318
▁በመን	-2319
ጧል	-2320
▁ከሚያ	-2321
▁አቋም	-2322
▁ተጫዋ	-2323
ዥን	-2324
▁ካሳ	-2325
ነበ	-2326
ፈሳዊ	-2327
▁የማስ	-2328
▁የቀረ	-2329
ድብ	-2330
ሻል	-2331
▁መቆ	-2332
▁ይፈ	-2333
▁ፅህፈት	-2334
ድና	-2335
ገኙት	-2336
ለቲከ	-2337
▁ጋዜጣ	-2338
▁ትእዛዝ	-2339
▁ቴሌ	-2340
ጠቀሙ	-2341
▁በአጠቃላይ	-2342
ሻገር	-2343
▁ኖሮ	-2344
▁ራሱን	-2345
▁ይባ	-2346
▁የተደረገ	-2347
ሊት	-2348
▁በስራ	-2349
▁ችሎ	-2350
▁አንደ	-2351
▁የምርጫ	-2352
▁ዘግ	-2353
▁አብሮ	-2354
ጠበቀ	-2355
▁መክ	-2356
▁መፃ	-2357
▁ፋብሪካ	-2358
▁የሚጠ	-2359
▁የተቃ	-2360
መሰረተ	-2361
▁ምንጭ	-2362
ለል	-2363
▁ከግ	-2364
▁መሰረታዊ	-2365
ጨት	-2366
ቃይ	-2367
ሬን	-2368
▁በጀት	-2369
▁ብሄረ	-2370
▁ለስ	-2371
ሮው	-2372
ቃቸው	-2373
▁ቤተሰቦችዎ	-2374
▁መሀመድ	-2375
ዳሜ	-2376
▁በታች	-2377
▁እነሱ	-2378
▁ግዜ	-2379
▁ብል	-2380
▁ቆይታ	-2381
▁ስለተ	-2382
ዮር	-2383
▁ዋንጫ	-2384
▁አስተዋፅኦ	-2385
▁አስመል	-2386
ጀመሩ	-2387
▁ዱ	-2388
▁የሚያስችል	-2389
▁አታ	-2390
ገራቸው	-2391
▁የኢኮኖሚ	-2392
ሀንስ	-2393
▁ወደፊት	-2394
▁ነዋሪ	-2395
▁አለባቸው	-2396
ሱዳን	-2397
▁ጥና	-2398
ለያየ	-2399
ለበት	-2400
▁ፕሮፌ	-2401
▁በዚሁ	-2402
▁ሆቴ	-2403
▁የመን	-2404
ስቡ	-2405
ሁድ	-2406
▁በትግራይ	-2407
▁ጀም	-2408
▁ደሙን	-2409
ብረተሰብ	-2410
ገበ	-2411
▁ተቀባይ	-2412
▁ማየት	-2413
▁የድር	-2414
▁ከል	-2415
ርላማ	-2416
▁እንደዚህ	-2417
▁አያስ	-2418
▁ጥያቄዎች	-2419
▁የሚገባ	-2420
▁ክፉ	-2421
ንነት	-2422
▁የወጣ	-2423
▁ምርጥ	-2424
▁ፈፅ	-2425
ስቸኳይ	-2426
ናፊ	-2427
ሳው	-2428
▁ጀግና	-2429
▁በቁጥጥር	-2430
▁ወገኖች	-2431
ጋቢት	-2432
▁ተገኝ	-2433
ዎቹን	-2434
▁ሼ	-2435
▁ማር	-2436
▁እንድን	-2437
ሽት	-2438
▁አላቸው	-2439
▁አስረድተዋል	-2440
ቀስ	-2441
▁የተፈ	-2442
▁ምና	-2443
▁ሰሞኑን	-2444
▁ተል	-2445
▁ወይስ	-2446
▁ያስፈልጋል	-2447
▁ሪፖር	-2448
▁አባት	-2449
▁ተሳት	-2450
▁ክት	-2451
▁አለኝ	-2452
▁ትርጉም	-2453
▁ራሱ	-2454
ድሩ	-2455
▁መስከረም	-2456
ፈሳሉ	-2457
▁አይችልም	-2458
▁በከፍተኛ	-2459
▁ህዝባዊ	-2460
▁ህፃናት	-2461
▁ቢያንስ	-2462
ቀድ	-2463
▁የፀጥታ	-2464
▁ድርሻ	-2465
▁ያፈሳሉ	-2466
▁እስር	-2467
ክርስቲ	-2468
▁ኢንተር	-2469
▁ግብፅ	-2470
▁እንግዲህ	-2471
▁የዜ	-2472
ርም	-2473
ቃቄ	-2474
ጡን	-2475
▁እንደማ	-2476
ዝቡ	-2477
▁ዝቅ	-2478
▁ነህ	-2479
ልድ	-2480
▁እስራ	-2481
▁ሀያ	-2482
ለጋ	-2483
▁የጋ	-2484
▁ከብ	-2485
▁ተጠቅ	-2486
ግለፅ	-2487
ጀመረው	-2488
▁የግብ	-2489
ልማ	-2490
▁ካር	-2491
▁ባለስልጣን	-2492
▁ክር	-2493
▁መኪና	-2494
▁አድማ	-2495
▁ማህበር	-2496
▁አምባሳ	-2497
▁ሁሉንም	-2498
▁ታስ	-2499
▁ለመከላከል	-2500
▁የሀገር	-2501
▁መሸ	-2502
ፈለገ	-2503
ብርና	-2504
▁አይቀር	-2505
▁አመልክ	-2506
ቫይረሱ	-2507
ግባብ	-2508
ለጥ	-2509
መለሱ	-2510
ጉን	-2511
ቁን	-2512
▁ቦታዎች	-2513
▁ራስ	-2514
▁በምን	-2515
▁እኩል	-2516
መለክ	-2517
ኘው	-2518
ቶቻችን	-2519
ረዱ	-2520
▁አስተሳሰብ	-2521
▁እንዳለው	-2522
▁ጥቅምት	-2523
▁ሁለቱ	-2524
ቀጥል	-2525
▁አይመስ	-2526
ሆናቸው	-2527
▁መከራ	-2528
▁ገብረ	-2529
▁በኦሮሚያ	-2530
▁ያላቸውን	-2531
▁ፍሬ	-2532
▁አርሶ	-2533
ፋር	-2534
▁የኦሮሚያ	-2535
ሾች	-2536
ራንስ	-2537
▁ሰኔ	-2538
ፃነት	-2539
▁ቴክኖሎጂ	-2540
ላንድ	-2541
▁የሚችሉ	-2542
▁ልት	-2543
▁ማንኛውም	-2544
▁ለህዝብ	-2545
▁ባደረካቸው	-2546
ሞላ	-2547
▁ጋዜጠኛ	-2548
ርፍ	-2549
ጉት	-2550
▁ደብዳቤ	-2551
▁አማራጭ	-2552
▁የደረሰ	-2553
ጀንሲ	-2554
ሴን	-2555
ርያም	-2556
▁የመጣ	-2557
ጊያ	-2558
▁በዛሬው	-2559
▁በየአ	-2560
▁ዉስጥ	-2561
▁ጥበብ	-2562
▁እያንዳን	-2563
▁ፕሮጀክ	-2564
▁ፖሊሲ	-2565
ፈጠረው	-2566
በኞች	-2567
▁ክልሎች	-2568
▁ምስክ	-2569
ሌክትሪክ	-2570
ዋእ	-2571
ራሪ	-2572
▁የደቡብ	-2573
▁አስደ	-2574
▁ሀጢአ	-2575
▁የሚኖሩ	-2576
ንግሊዝ	-2577
▁ማስታወቂያ	-2578
▁አመቱ	-2579
▁ግንባር	-2580
▁ሰአ	-2581
▁ፍትህ	-2582
▁ተነ	-2583
መሩ	-2584
▁ክፍሎች	-2585
▁አስራ	-2586
▁አሰልጣ	-2587
▁ሜዳ	-2588
▁እየሰራ	-2589
ዝቃ	-2590
ቀደ	-2591
▁የስነ	-2592
ከላዊ	-2593
ኬት	-2594
ምርጫ	-2595
▁እባ	-2596
▁እንደገና	-2597
▁ትች	-2598
ገንባት	-2599
▁ህንፃ	-2600
▁እንዲያው	-2601
▁ጥፋ	-2602
▁የኢትዮጵያን	-2603
ፋን	-2604
ህሳስ	-2605
ሉበት	-2606
▁ንፁ	-2607
▁ሉ	-2608
▁አና	-2609
▁አጀ	-2610
ድረስ	-2611
▁መንገዶች	-2612
▁የቀረበ	-2613
▁ርእሰ	-2614
▁ድርጊት	-2615
ታር	-2616
ሳዊ	-2617
▁የሚወ	-2618
▁እንደሚያስ	-2619
▁የቦ	-2620
ቀን	-2621
▁የቡ	-2622
▁ታውቋል	-2623
▁እንጅ	-2624
ቶችና	-2625
ኛሉ	-2626
▁ተወካዮች	-2627
ባባ	-2628
ቻለ	-2629
▁የወያኔ	-2630
▁ለት	-2631
▁ቦርድ	-2632
▁ልዩነት	-2633
▁አስር	-2634
ጠለ	-2635
▁ዘዴ	-2636
ንድነው	-2637
ክተ	-2638
▁የሆነውን	-2639
▁ፕሮጀክት	-2640
ሎቹ	-2641
▁ማረ	-2642
ሞን	-2643
ዮርጊ	-2644
▁ከሌሎች	-2645
ካሂ	-2646
▁ታሪካ	-2647
▁በተመሳሳይ	-2648
▁ጎንደር	-2649
▁አዳዲስ	-2650
ዋቂ	-2651
▁በመጀመሪያ	-2652
▁በመተ	-2653
▁የሚሉት	-2654
▁በማሰብ	-2655
▁መፅ	-2656
ህዌ	-2657
ራቸውን	-2658
▁ዛሬም	-2659
▁ተወላ	-2660
ልቃ	-2661
▁እርሱ	-2662
▁ለመስጠት	-2663
ሳሽ	-2664
▁የሚታወ	-2665
▁ለማለት	-2666
▁የዘር	-2667
▁ፖለቲከ	-2668
▁ተመራ	-2669
▁መስመር	-2670
▁የተባለ	-2671
ግም	-2672
▁ዳይሬክተር	-2673
▁ተጠያቂ	-2674
ዬን	-2675
ቪድ	-2676
▁ወረርሽ	-2677
▁እረ	-2678
▁ጓደ	-2679
ውው	-2680
▁ዝርዝር	-2681
ልበት	-2682
▁ሰብአዊ	-2683
▁ነሀሴ	-2684
ገም	-2685
▁አንቀፅ	-2686
▁ተደርጎ	-2687
ገልፃ	-2688
▁በፈ	-2689
▁ወሳኝ	-2690
ሆኑም	-2691
▁ሳያ	-2692
ሰስ	-2693
▁ሚንስት	-2694
▁ሙከራ	-2695
▁በአፍሪካ	-2696
▁የይሆዋ	-2697
▁ያቀረ	-2698
ውሎስ	-2699
ስራኤል	-2700
ማግ	-2701
▁ይናገራ	-2702
▁የህክምና	-2703
ካን	-2704
▁ለሰ	-2705
▁አስታውቀዋል	-2706
ምሩ	-2707
▁ኮር	-2708
▁ጎን	-2709
▁ማህበረሰብ	-2710
ጋና	-2711
▁ተዘ	-2712
▁ለማወቅ	-2713
▁ይናገራሉ	-2714
ወያ	-2715
▁የተለየ	-2716
▁ዴሞክራሲያዊ	-2717
▁ምንድን	-2718
ደድ	-2719
ቸዉን	-2720
▁የምግብ	-2721
በሳ	-2722
▁ሚሊየን	-2723
ጠነ	-2724
▁ይገኛሉ	-2725
▁እርስ	-2726
ደበ	-2727
▁ፀሀፊ	-2728
▁ማለትም	-2729
▁የካቲት	-2730
ጦች	-2731
▁ከላይ	-2732
▁እንደሚገባ	-2733
▁አቃቤ	-2734
▁እውነተኛ	-2735
▁የሲ	-2736
ቢሲ	-2737
▁አገሪ	-2738
ጠቁ	-2739
▁የዳ	-2740
▁ገደ	-2741
ዛቤ	-2742
▁በዚ	-2743
▁ይመል	-2744
▁ብለህ	-2745
▁የሚተ	-2746
▁ለፍ	-2747
▁ተቆ	-2748
▁ተገለፀ	-2749
▁ይታወሳል	-2750
ሰራው	-2751
▁በህግ	-2752
▁አስከ	-2753
▁ሰም	-2754
ናገሩ	-2755
▁ስለመ	-2756
▁አስተያየ	-2757
▁ማወቅ	-2758
▁አይቀርም	-2759
ይታ	-2760
ሰረ	-2761
ቃሉ	-2762
▁ልን	-2763
▁ግለሰብ	-2764
▁ይዘው	-2765
ጠዋል	-2766
▁በአሜሪካ	-2767
▁ኢንዱስትሪ	-2768
▁በራሱ	-2769
▁የአየር	-2770
▁ግዛት	-2771
▁ሀምሌ	-2772
ራችን	-2773
▁ፈጣሪ	-2774
ነስተኛ	-2775
▁አመለካከት	-2776
▁በተደጋጋሚ	-2777
ጠይቅ	-2778
ሳካ	-2779
ዳዳሪ	-2780
▁በመጨረሻ	-2781
▁መቅ	-2782
▁እጥረት	-2783
ታም	-2784
▁አጠቃላይ	-2785
▁ተቀባይነት	-2786
ባረ	-2787
▁ለአንድ	-2788
ቀፍ	-2789
▁በህገ	-2790
ንቲባ	-2791
▁ቤተሰብ	-2792
▁ይሁንና	-2793
ህነት	-2794
▁ትምህር	-2795
ህም	-2796
ከን	-2797
▁ተባለ	-2798
▁ኔ	-2799
▁ግዴ	-2800
▁ተገልጿል	-2801
▁ፒ	-2802
መኑ	-2803
▁ያሉትን	-2804
▁በቀላሉ	-2805
▁ታይ	-2806
▁አማርኛ	-2807
ምስት	-2808
▁አስመልክቶ	-2809
ብብር	-2810
▁ጓደኛ	-2811
▁ያገኘ	-2812
ቂዎች	-2813
▁ሊቀመን	-2814
▁ሎ	-2815
▁ብላ	-2816
ሰቦ	-2817
ኩር	-2818
ርሶ	-2819
▁ፕሮፌሰር	-2820
▁ሀይማኖት	-2821
▁ርእስ	-2822
እራብ	-2823
▁ፖለቲካዊ	-2824
▁ገልጿል	-2825
ረገ	-2826
▁ይመስለኛል	-2827
▁በሁለት	-2828
▁የፌዴራል	-2829
ማግሌ	-2830
ህዴ	-2831
▁የቤት	-2832
ጠኝነት	-2833
ቻሉ	-2834
▁ማርያም	-2835
▁እውቀት	-2836
▁ከድ	-2837
▁የሚያደርጉ	-2838
ስተካ	-2839
▁አልባ	-2840
▁ይቅርታ	-2841
ድቅ	-2842
▁ከዚህም	-2843
ሀዊ	-2844
▁ኒ	-2845
ላቂ	-2846
▁ስህተት	-2847
▁መራ	-2848
ፕሎ	-2849
ስተዋ	-2850
▁ሆስፒታል	-2851
▁ስቴትስ	-2852
▁ማክ	-2853
▁በምት	-2854
ብሮ	-2855
▁ያደረገው	-2856
▁በቀጥታ	-2857
▁እግ	-2858
▁ማህበራዊ	-2859
ታችሁ	-2860
▁በከተማ	-2861
▁ተመ	-2862
▁ደመ	-2863
▁አድርጓል	-2864
▁የያዘ	-2865
ፈፀሙ	-2866
▁በእው	-2867
▁የፅ	-2868
ድዮ	-2869
▁መሞ	-2870
ግባት	-2871
ላለፍ	-2872
ላችንም	-2873
ወገድ	-2874
▁ከኢ	-2875
ከሩ	-2876
▁የማህ	-2877
ዳው	-2878
ሰቢያ	-2879
▁አድራ	-2880
ድያ	-2881
▁ሀይማኖ	-2882
ሬታ	-2883
▁ካልተ	-2884
▁መጋቢት	-2885
▁የፊ	-2886
▁መረጃዎች	-2887
▁ተልእ	-2888
▁ከሁለት	-2889
▁መንግስታዊ	-2890
ከናወን	-2891
▁ያድር	-2892
▁በስተቀር	-2893
▁ውነ	-2894
▁ለማሻሻል	-2895
▁ዳን	-2896
መለከቱ	-2897
▁ሁሌ	-2898
ማዊ	-2899
▁ቁር	-2900
▁መሀል	-2901
▁የዛሬ	-2902
▁ጳውሎስ	-2903
▁ብርሀኑ	-2904
ሳተፉ	-2905
▁አጀንዳ	-2906
ሊና	-2907
▁ፀረ	-2908
▁የዲ	-2909
ማማ	-2910
ቨስትመንት	-2911
ሮቹ	-2912
▁አዛ	-2913
ፖሊስ	-2914
▁ወታደራዊ	-2915
▁አደር	-2916
ኖራቸው	-2917
▁መስዋእ	-2918
▁መገናኛ	-2919
ራክ	-2920
▁አሸናፊ	-2921
ሪት	-2922
ጠናከር	-2923
ፋል	-2924
▁ሊያስ	-2925
ሊን	-2926
ዮርጊስ	-2927
▁ትክክለኛ	-2928
▁በፀ	-2929
ረንሳይ	-2930
▁በህዝብ	-2931
▁ታህሳስ	-2932
▁ጌታቸው	-2933
ድሮስ	-2934
ገስ	-2935
▁ዮሀንስ	-2936
▁መፅሀ	-2937
▁የመጀመሪያው	-2938
▁ክርስቶስ	-2939
▁በብዙ	-2940
▁ለመስራት	-2941
▁ተይ	-2942
▁አይቻ	-2943
▁የላ	-2944
▁የሚቆጠሩ	-2945
ኒክ	-2946
▁በፅ	-2947
▁ፌዴ	-2948
▁አቡ	-2949
ጀመርያ	-2950
▁እኛም	-2951
▁ህል	-2952
▁ቃለ	-2953
▁ብዙሀን	-2954
ታሉ	-2955
▁የአገር	-2956
ንፈ	-2957
▁የሸ	-2958
▁ወቅታዊ	-2959
በራት	-2960
▁ቀይ	-2961
ባችን	-2962
▁ቪዲዮ	-2963
▁በበኩላቸው	-2964
▁ግርማ	-2965
ጅቱ	-2966
ማለን	-2967
ላቅ	-2968
ቅርብ	-2969
ገራሚ	-2970
ሰጠ	-2971
▁ባሻገር	-2972
ዛው	-2973
ረበ	-2974
ርቶዶ	-2975
ገልግ	-2976
▁ኑሮ	-2977
▁እንደምት	-2978
▁መርሀ	-2979
▁ቀድሞ	-2980
ግባቡ	-2981
▁አንድም	-2982
▁በቀጣይ	-2983
ባር	-2984
▁ደህንነት	-2985
▁ያሰ	-2986
▁በኮሮና	-2987
▁የህዝ	-2988
ጓዝ	-2989
ገሪቱን	-2990
▁በቀለ	-2991
▁ተሰማ	-2992
▁ዋናው	-2993
ፈጠር	-2994
▁ተቀብ	-2995
▁ምህረት	-2996
ዳደሩ	-2997
▁ችግሩ	-2998
▁የመፅሀፍ	-2999
በትና	-3000
ደቱ	-3001
መለከ	-3002
▁የሌለው	-3003
▁የእር	-3004
▁እስክ	-3005
ላቸውም	-3006
ፎር	-3007
▁በክልሉ	-3008
▁መጠየ	-3009
▁በመጠቀም	-3010
ኬሽን	-3011
▁ተሳትፎ	-3012
▁የባህር	-3013
ጣጥ	-3014
▁ምስክሮች	-3015
▁ይሰማ	-3016
▁ቅዳሜ	-3017
ማርያም	-3018
ዲያው	-3019
▁እየታ	-3020
▁የሚሆን	-3021
ኖችን	-3022
▁አስቸ	-3023
▁ለመሆን	-3024
▁በህይወት	-3025
ስቶች	-3026
ናሽ	-3027
▁አፈፃፀ	-3028
ችላለን	-3029
▁ገዳ	-3030
ጀምር	-3031
ያኑ	-3032
ሳችሁ	-3033
▁አማካኝነት	-3034
ይናንስ	-3035
▁ለራ	-3036
▁አባይ	-3037
▁ያደርጋል	-3038
▁ተልእኮ	-3039
ላትን	-3040
▁ባለሀብ	-3041
ሯቸው	-3042
ሳሉ	-3043
▁የማያ	-3044
▁ከንቲባ	-3045
ገባት	-3046
▁ስምንት	-3047
▁ማብራ	-3048
▁የምስ	-3049
▁ተን	-3050
▁ይታወቃል	-3051
▁ብቸኛው	-3052
ዝቃዜ	-3053
ዜማ	-3054
▁ለምንድን	-3055
▁እንችላለን	-3056
▁እሳት	-3057
▁አይደል	-3058
▁ሰላምን	-3059
▁ማቅረብ	-3060
ከተል	-3061
▁የተከሰ	-3062
▁መንፈሳዊ	-3063
▁የን	-3064
ሸነፍ	-3065
▁በሳ	-3066
▁ኩባንያዎች	-3067
▁ስንት	-3068
▁ወርቅ	-3069
▁እሁድ	-3070
ፆች	-3071
▁በአገሪቱ	-3072
ኖረ	-3073
▁በጋ	-3074
▁በሰው	-3075
▁ተሰጥ	-3076
ቪዥን	-3077
▁ሽማግሌ	-3078
▁ይገልፃ	-3079
▁ድንበር	-3080
▁የአገሪቱ	-3081
▁አስገራሚ	-3082
▁ሀላፊዎች	-3083
▁ብን	-3084
ዘረ	-3085
▁ነጋዴ	-3086
▁ካላ	-3087
▁ጫና	-3088
▁ቁጥጥር	-3089
ዘጋጁ	-3090
ነገረ	-3091
▁አምባሳደር	-3092
▁የኛ	-3093
▁ግድያ	-3094
▁ጥቃ	-3095
▁ከጎ	-3096
ደርሱ	-3097
▁የተከ	-3098
▁ብልፅግና	-3099
▁ቻይና	-3100
▁ሊቀመንበር	-3101
▁ቅዝቃዜ	-3102
ራች	-3103
ባበር	-3104
▁የሚገኝ	-3105
▁ቀጥሎ	-3106
ነታቸውን	-3107
ቅናቄ	-3108
ድም	-3109
▁እንደም	-3110
▁ምት	-3111
▁የመከላከያ	-3112
ንቶ	-3113
▁ሙዚቃ	-3114
ረዳው	-3115
▁አትሌ	-3116
▁ጂ	-3117
ፈለግ	-3118
ስቡክ	-3119
ሏቸው	-3120
▁ብድር	-3121
ገለፀው	-3122
▁ስፖርት	-3123
▁ህዳር	-3124
ኑት	-3125
ሉትን	-3126
▁አሻ	-3127
▁ዘመናዊ	-3128
▁ገባ	-3129
▁ቀጠ	-3130
ረኞች	-3131
▁ሰን	-3132
▁የኢህአዴግ	-3133
ጠመ	-3134
ንስሀ	-3135
▁አይገባ	-3136
ወሰን	-3137
▁ከደ	-3138
ዋሳ	-3139
▁ግጭ	-3140
በውን	-3141
▁እንስ	-3142
▁ለጥ	-3143
▁አጠና	-3144
ርነት	-3145
ፕሎማ	-3146
ጠናቀቅ	-3147
ነቅ	-3148
▁ለገ	-3149
ጋንዳ	-3150
ንድር	-3151
▁ብዛት	-3152
▁አፍሪቃ	-3153
▁ቁጥ	-3154
ለዉ	-3155
ዶቹ	-3156
▁በሁሉም	-3157
▁ህዝብን	-3158
▁እያደረገ	-3159
▁አታው	-3160
ፍቶ	-3161
▁ማንነት	-3162
▁ዋስትና	-3163
▁ወታደሮች	-3164
▁ወዘ	-3165
ነሰ	-3166
ኘት	-3167
ጠውን	-3168
▁ስርጭት	-3169
ማሪዎች	-3170
▁ጉዳዩ	-3171
▁ጠቁመዋል	-3172
▁ሰል	-3173
ዳድር	-3174
▁በፍጥነት	-3175
ላንት	-3176
ኩን	-3177
ላቸዋል	-3178
▁ከዛ	-3179
▁ተሳታ	-3180
▁ይመልከቱ	-3181
▁የአን	-3182
▁ጁ	-3183
▁ጠባ	-3184
▁ሙስሊ	-3185
▁ነገሮችን	-3186
▁ራሳቸውን	-3187
ጣዩ	-3188
▁ይጠበ	-3189
▁ቡድኖች	-3190
▁የወደ	-3191
ዘጋጀው	-3192
▁ወረርሽኝ	-3193
▁ትልቁ	-3194
▁በሀገሪቱ	-3195
ፍትህ	-3196
▁ብቃት	-3197
▁ፍፁም	-3198
▁ተደራ	-3199
ፈፅ	-3200
ፋቸው	-3201
▁ቸ	-3202
▁አስኪያ	-3203
▁መስዋእት	-3204
ፈታ	-3205
▁አዝ	-3206
ለድ	-3207
▁ፀጋ	-3208
▁በትክ	-3209
▁የተባበሩት	-3210
ጣቱ	-3211
▁ምሽት	-3212
▁በውጭ	-3213
▁መቼም	-3214
▁ታሪ	-3215
▁የንስሀ	-3216
ማቸውን	-3217
▁ጠቃሚ	-3218
▁ዘንድሮ	-3219
▁እንደገለፁት	-3220
▁ወንድም	-3221
ታወቁ	-3222
ቀመጥ	-3223
ምብ	-3224
ሰጣቸው	-3225
ካተ	-3226
▁መጨ	-3227
▁እስቲ	-3228
▁የሀይማኖት	-3229
ለሽ	-3230
ሳችን	-3231
ገውን	-3232
▁መኖሪያ	-3233
▁በእርግጥ	-3234
ክርስቲያን	-3235
ቂቅ	-3236
▁ተመስ	-3237
ዩም	-3238
ይቱ	-3239
▁የሀገሪቱ	-3240
ወራ	-3241
▁እንዳስ	-3242
▁ይጠብ	-3243
▁ይሰራ	-3244
ማረ	-3245
▁ተች	-3246
▁ትክክል	-3247
▁የሚከተ	-3248
▁ትራንስ	-3249
▁አንዲት	-3250
ካይ	-3251
▁መኮንን	-3252
▁መጥፎ	-3253
▁አለን	-3254
▁ጀርመን	-3255
▁ደሳ	-3256
▁አይደሉም	-3257
ዎቻችን	-3258
መቻ	-3259
ጦታ	-3260
ብቅ	-3261
መለከተው	-3262
▁እንደሆኑ	-3263
ሬዎች	-3264
▁ሁኔታዎች	-3265
▁በቦ	-3266
ፍሪቃ	-3267
▁አነስተኛ	-3268
ኳር	-3269
ሴት	-3270
▁ካልሆነ	-3271
ወዳ	-3272
ስተው	-3273
ባባሪ	-3274
▁ፊልም	-3275
▁አደባባይ	-3276
▁አልቻ	-3277
▁መረ	-3278
▁አርቲ	-3279
▁ሆቴል	-3280
▁ሁል	-3281
▁ለይ	-3282
▁እያስ	-3283
▁መዘ	-3284
▁ነውና	-3285
▁አስቸጋሪ	-3286
የሩ	-3287
▁ያደረጉት	-3288
ጥረ	-3289
▁በን	-3290
▁አብዮ	-3291
▁ታማኝ	-3292
ቀቅ	-3293
▁የፌደራል	-3294
▁ወዘተ	-3295
ሪው	-3296
▁የሚመራ	-3297
ጣሉ	-3298
▁እውቅና	-3299
▁አደረገ	-3300
▁የሳ	-3301
▁ምስክር	-3302
ደስ	-3303
▁ዜጋ	-3304
ነበሩ	-3305
ደንት	-3306
▁ወንዶች	-3307
▁ለመግ	-3308
ናን	-3309
▁ተያይ	-3310
▁በላ	-3311
ጥረው	-3312
▁በአግባቡ	-3313
▁ጠላት	-3314
▁ብርሀን	-3315
▁አዎ	-3316
▁ያም	-3317
▁ማብራሪያ	-3318
ቢት	-3319
▁ከእነዚህ	-3320
በስ	-3321
ለኝም	-3322
▁በሁለ	-3323
▁ሆና	-3324
▁በድር	-3325
▁ተብለው	-3326
ለስ	-3327
▁ገለፁ	-3328
ቡቲ	-3329
ሊያን	-3330
▁ኤጀንሲ	-3331
▁ውጤታማ	-3332
ምጣት	-3333
▁ሌሎችም	-3334
▁የእኔ	-3335
ግስት	-3336
▁ሲሆኑ	-3337
▁ምንድነው	-3338
▁የረ	-3339
▁የቱ	-3340
▁ታሪካዊ	-3341
▁እንዳለበት	-3342
▁ወይንም	-3343
▁ኮርፖ	-3344
▁ዙር	-3345
በታ	-3346
ሙር	-3347
ስፋት	-3348
▁በባህር	-3349
▁መሆናቸው	-3350
ሸን	-3351
▁የአውሮፓ	-3352
መጣል	-3353
ያለሁ	-3354
ፈዋል	-3355
▁የሚባለው	-3356
▁በዝ	-3357
▁ያነሳ	-3358
ርቶዶክስ	-3359
▁ይጠበቃል	-3360
ከም	-3361
▁ድርድር	-3362
▁ማው	-3363
▁ጉብኝ	-3364
▁ሶማ	-3365
▁የተሰማ	-3366
ቆች	-3367
▁ዩኒቨርስቲ	-3368
ጨረታ	-3369
ለመ	-3370
▁በእጅ	-3371
▁ንብረ	-3372
▁ለዘላለም	-3373
ዟል	-3374
ነገር	-3375
▁የሰራ	-3376
▁ቅን	-3377
▁ደሳለኝ	-3378
ጪው	-3379
ችኋል	-3380
▁እየተደረገ	-3381
▁ማራ	-3382
▁የወሰ	-3383
▁ብዙም	-3384
▁ስላል	-3385
ኬንያ	-3386
▁አዘጋጅ	-3387
▁ጊዮርጊስ	-3388
ዴፓ	-3389
▁ክርስቲያኖች	-3390
▁በድን	-3391
▁የኢትዮ	-3392
▁መጠቀም	-3393
▁መናገር	-3394
ከሉ	-3395
▁ቅሬታ	-3396
ታወቅ	-3397
▁ስደተኞች	-3398
▁የሚመ	-3399
▁በሰጡት	-3400
ተኮ	-3401
ጫወት	-3402
▁አጠ	-3403
▁ሙስና	-3404
▁የባለ	-3405
ጎችን	-3406
▁የሚገ	-3407
▁ንቅናቄ	-3408
ድሜ	-3409
▁ከአዲስ	-3410
ጥን	-3411
▁የእኛ	-3412
▁ለሚያ	-3413
ዳጊ	-3414
ዶችን	-3415
▁አግባብ	-3416
ንጀል	-3417
▁ተስማ	-3418
ጠየቅ	-3419
▁ልምድ	-3420
▁ስራው	-3421
▁ሀኪ	-3422
▁ምግባር	-3423
▁በሞ	-3424
▁አብርሀ	-3425
▁የሚመጣ	-3426
ናገረው	-3427
▁መደበኛ	-3428
ጠላ	-3429
▁የጣ	-3430
ናቂ	-3431
▁የተመሰረተ	-3432
▁ባለቤ	-3433
▁ባለፈ	-3434
▁ኤል	-3435
ነታችን	-3436
▁የገለፁት	-3437
ኒኬሽን	-3438
▁በደንብ	-3439
▁መዳ	-3440
▁ተጨ	-3441
▁አይቻልም	-3442
▁በመስጠት	-3443
▁የተሳ	-3444
▁ሙያ	-3445
▁ሽልማት	-3446
▁መምህ	-3447
ቻለው	-3448
▁የመሳሰ	-3449
▁የሚሆነው	-3450
▁ተነስ	-3451
ኮኖሚያ	-3452
▁ኋላ	-3453
▁በአካባቢው	-3454
ቀሰ	-3455
ኖርም	-3456
ፈናቀ	-3457
▁ትራምፕ	-3458
ብህ	-3459
▁በዩ	-3460
ገደሉ	-3461
▁አቅራ	-3462
▁ደጋፊ	-3463
▁ቀውስ	-3464
▁አለብን	-3465
▁እንዳያ	-3466
ፈልግም	-3467
▁የዶ	-3468
▁ለማየት	-3469
ምራት	-3470
ራማ	-3471
▁ጥፋት	-3472
▁አንደኛ	-3473
ስተዋል	-3474
▁የሚያው	-3475
▁ጦ	-3476
▁ዳዊት	-3477
▁ደብረ	-3478
▁አያው	-3479
ያችን	-3480
▁ኬንያ	-3481
▁ይአ	-3482
ወሀ	-3483
▁ህዝቡን	-3484
▁ምንጮች	-3485
▁ቡድኑ	-3486
ዮችን	-3487
ገለግ	-3488
▁ተር	-3489
▁ክብ	-3490
▁አርብ	-3491
▁ካለው	-3492
▁አውሮፕላን	-3493
▁ምጣ	-3494
▁ምልክት	-3495
▁እንደመ	-3496
ረፍ	-3497
ውሰድ	-3498
ጋጥ	-3499
ናቸውን	-3500
▁በዘር	-3501
ፈጠሩ	-3502
▁በቆ	-3503
▁ባላ	-3504
▁የቢ	-3505
▁መፅሄ	-3506
▁አሳስ	-3507
ገኘት	-3508
▁የሚሸ	-3509
ችውን	-3510
▁ከፋ	-3511
▁ለዚህም	-3512
▁በማን	-3513
▁ድሮ	-3514
▁በአን	-3515
ኩም	-3516
ላቱ	-3517
ሴቶች	-3518
ካኤል	-3519
▁አየ	-3520
▁አይን	-3521
▁መፃህ	-3522
▁በሰሜን	-3523
ፅና	-3524
▁ምስራቅ	-3525
▁በይፋ	-3526
▁ይሻ	-3527
▁ተናግሯል	-3528
▁ገዢ	-3529
▁አስቀ	-3530
ቤን	-3531
▁ፈር	-3532
▁ስለሚያ	-3533
▁ሰነድ	-3534
▁ግዴታ	-3535
▁ታዋቂ	-3536
▁ፍቃ	-3537
▁ሰራተኛ	-3538
▁አድርገዋል	-3539
▁ዝግጁ	-3540
▁የሚገል	-3541
▁ለመፍታት	-3542
▁ፈፅሞ	-3543
▁በቤተ	-3544
ፃፈ	-3545
ቃለን	-3546
ፃሜ	-3547
▁አንስቶ	-3548
▁ስራውን	-3549
▁አገዛዝ	-3550
ሻው	-3551
ላለህ	-3552
▁መድሀኒት	-3553
▁ጥላቻ	-3554
ዶነት	-3555
ለናል	-3556
ፈፀመው	-3557
በርካታ	-3558
ገልግሎት	-3559
▁ሁሉን	-3560
ቻለሁ	-3561
▁ኦነግ	-3562
በራቸው	-3563
▁የግድ	-3564
ስክ	-3565
ነውን	-3566
▁ጠየ	-3567
ጠንቀ	-3568
ሆኗ	-3569
▁ተቀም	-3570
▁አታውቅም	-3571
▁የገባ	-3572
ጨመረ	-3573
▁ዝና	-3574
▁አበበ	-3575
▁ተስፋዬ	-3576
▁ቂ	-3577
▁አሳል	-3578
▁በማይ	-3579
▁ጤ	-3580
ምባሲ	-3581
▁የሰጡት	-3582
ሻሻያ	-3583
▁ውል	-3584
▁ትዝ	-3585
▁ጋዜጠኞች	-3586
▁አሰፋ	-3587
▁ዘረ	-3588
▁የእግዚአብሄር	-3589
ችበት	-3590
▁ጥቁር	-3591
▁አጭር	-3592
ናትን	-3593
▁ቀርቶ	-3594
ጌታ	-3595
ደገፍ	-3596
▁ሰበር	-3597
▁ከውጭ	-3598
ፈተ	-3599
▁መሰል	-3600
▁በጭ	-3601
▁የመሬት	-3602
▁ከኤ	-3603
ኒስት	-3604
▁ርበነ	-3605
▁ክስተ	-3606
▁አይሆንም	-3607
ገኘውን	-3608
▁ሀይሉ	-3609
▁መልእክ	-3610
ብስ	-3611
▁ቅዱ	-3612
ማሩ	-3613
ለዋ	-3614
ቲክ	-3615
▁በካ	-3616
▁ፆ	-3617
▁በማሳ	-3618
ቀርበውን	-3619
▁ቅድመ	-3620
ሀድ	-3621
▁በረከት	-3622
▁ግም	-3623
▁ፈል	-3624
▁የተባሉ	-3625
▁በፓ	-3626
▁የተፈጥሮ	-3627
▁ሳምን	-3628
ቶን	-3629
▁እኔን	-3630
▁ያመለክ	-3631
▁ተረ	-3632
ቃወም	-3633
ወረ	-3634
ግግር	-3635
▁በፕ	-3636
▁ነች	-3637
ረጋጋት	-3638
▁ማጣ	-3639
▁ይባላል	-3640
▁ስልክ	-3641
▁በዋና	-3642
▁ጀመረ	-3643
▁ግንዛቤ	-3644
ጥፍ	-3645
ብናል	-3646
ዘጋጀት	-3647
▁ተደ	-3648
▁አቤቱ	-3649
ዲን	-3650
ሪፖር	-3651
ዲና	-3652
ጃም	-3653
ፃፍ	-3654
▁ቀጠሮ	-3655
ግሩ	-3656
▁የሶ	-3657
ንግተን	-3658
ዛቸው	-3659
▁ጉዳዩን	-3660
▁ሳይንስ	-3661
▁የተጠቀ	-3662
▁ወይዘ	-3663
▁እሱን	-3664
▁ምክንያቶች	-3665
▁የስልጣን	-3666
▁መረጃዎችን	-3667
▁የታሪክ	-3668
▁ይታያል	-3669
ናሉ	-3670
ኮኖሚያዊ	-3671
▁ዋነኛ	-3672
ማሉ	-3673
▁የሚሰራ	-3674
ሳተፍ	-3675
▁ማታ	-3676
ነን	-3677
▁በሚገኘው	-3678
▁ጠላ	-3679
ውንም	-3680
▁ስጦታ	-3681
ልኮ	-3682
▁ለግ	-3683
ረጋገጠ	-3684
ልካም	-3685
▁ለኢ	-3686
▁ወንዝ	-3687
▁መልሶ	-3688
ቤል	-3689
▁የሚመስ	-3690
▁ከገ	-3691
▁የቀድሞው	-3692
ሬዳ	-3693
መልስ	-3694
ስተዳደር	-3695
ራኒ	-3696
▁የከ	-3697
▁ኢሳ	-3698
▁የፓርቲ	-3699
▁መብቶች	-3700
▁አንቺ	-3701
ዳዩ	-3702
▁ለመጀመሪያ	-3703
▁መጋ	-3704
▁መመር	-3705
▁መና	-3706
▁ምረ	-3707
▁ዘው	-3708
▁ሽብር	-3709
▁ለቀ	-3710
ይይት	-3711
▁መሬ	-3712
ለየ	-3713
▁ባሉ	-3714
▁የማን	-3715
ኖቻችን	-3716
ዛሪ	-3717
▁ግምት	-3718
▁ሁላችንም	-3719
ቋረጥ	-3720
▁ውስ	-3721
▁ዎ	-3722
▁መዛ	-3723
ቃሽ	-3724
▁ሚንስትር	-3725
▁እንዳልሆነ	-3726
▁በአገር	-3727
▁ዝግጅ	-3728
▁ቋሚ	-3729
▁የተመረ	-3730
▁ረቂቅ	-3731
ኔራል	-3732
▁ችሎት	-3733
▁የጀርመን	-3734
ፈለጉ	-3735
▁በአብዛ	-3736
▁አእምሮ	-3737
▁ጥንቃቄ	-3738
▁እል	-3739
ቅቋል	-3740
▁አውጥ	-3741
ቲቪ	-3742
ፈነ	-3743
ቅን	-3744
ያቸውን	-3745
▁ፕሪ	-3746
▁ሲያስ	-3747
▁እንዲያውም	-3748
▁ክቡር	-3749
▁እቅ	-3750
▁ኦሮሚያ	-3751
▁በፌ	-3752
ባን	-3753
▁በዛ	-3754
▁ልና	-3755
ይነት	-3756
▁ቅጣት	-3757
▁ገብቶ	-3758
▁እንዳሉ	-3759
ቀረቡ	-3760
ተኞችን	-3761
▁ገለፀ	-3762
ስተና	-3763
ጠራው	-3764
ዎችም	-3765
ቶችህ	-3766
አዴን	-3767
ራቴ	-3768
▁የሚያሳይ	-3769
▁ያለፈ	-3770
ኡዲ	-3771
ንቀሳቀሱ	-3772
ራም	-3773
▁ካሉ	-3774
▁ሁሌም	-3775
▁እንጠቀ	-3776
ያሉ	-3777
▁ሀጢአተኛ	-3778
▁ኢትዮጵያዊያን	-3779
▁ምርምር	-3780
▁አቀፉ	-3781
▁አዘ	-3782
▁ልኡ	-3783
▁ቃላት	-3784
▁ምእራፍ	-3785
ዲሱ	-3786
▁ደረሰ	-3787
▁የየ	-3788
▁በትክክል	-3789
▁በተቃ	-3790
▁በኦ	-3791
▁የባዶነት	-3792
▁የሚሰጥ	-3793
ቆት	-3794
▁ደርሶ	-3795
ኪዎችን	-3796
▁ተችሏል	-3797
▁በየአመቱ	-3798
ኩስ	-3799
▁አረጋግ	-3800
▁ይደረ	-3801
▁ድርጅቱ	-3802
▁እንጠቀማለን	-3803
▁እጣ	-3804
▁ታደሰ	-3805
▁ላለፉት	-3806
▁እንዳሉት	-3807
ራጭ	-3808
ጫው	-3809
▁የህይወት	-3810
▁በመላው	-3811
▁ሆኑ	-3812
ላስ	-3813
▁በሀገር	-3814
▁ሰብሳቢ	-3815
▁ጠቅላላ	-3816
▁ትብብር	-3817
▁ድንቅ	-3818
▁አሰልጣኝ	-3819
ጃቸው	-3820
ኖሪያ	-3821
ለኛ	-3822
▁ነፍስህ	-3823
ወስድ	-3824
ንበት	-3825
ምም	-3826
ደቀ	-3827
ገዝ	-3828
▁ተቋማ	-3829
▁ድንጋ	-3830
ቱና	-3831
ሪዝም	-3832
▁ሳቢያ	-3833
▁ይመ	-3834
▁ያወ	-3835
▁የይ	-3836
ሰነ	-3837
ሞችን	-3838
▁እነሆ	-3839
▁በቴ	-3840
ራፊ	-3841
ባችሁ	-3842
▁እንደሚሆን	-3843
▁ልብስ	-3844
ያጭ	-3845
▁ምናምን	-3846
▁ይቆ	-3847
▁ማመን	-3848
▁በተግባር	-3849
▁ማሰብ	-3850
▁ሆን	-3851
▁ችሎታ	-3852
▁መምህር	-3853
ግዳ	-3854
ፈሩ	-3855
▁እየተካሄደ	-3856
▁ርቀት	-3857
ካሄዱ	-3858
▁ማሀበር	-3859
▁ያደረ	-3860
▁ባንኮች	-3861
▁አጣ	-3862
▁የሚደረግ	-3863
▁እርስዎ	-3864
ጉር	-3865
▁ወዳጅ	-3866
▁ሁለቱም	-3867
▁ፔ	-3868
▁ቴዎ	-3869
▁ለነ	-3870
▁እስክንድር	-3871
ዮቹ	-3872
▁አገልግሎታችንን	-3873
▁አዳራሽ	-3874
▁የእግር	-3875
▁ቶሎ	-3876
▁አቅርቦት	-3877
ባጭ	-3878
▁መጠበቅ	-3879
ኳን	-3880
ሶማሌ	-3881
▁ስሙ	-3882
▁የድን	-3883
ላቁ	-3884
▁በዳ	-3885
▁የሙዚቃ	-3886
ጣኝ	-3887
▁በሶ	-3888
ንዳንድ	-3889
▁ሁለተኛው	-3890
▁ድንጋይ	-3891
ገባቸው	-3892
▁በነበረው	-3893
▁ማረጋገ	-3894
▁ለሌሎች	-3895
ፋው	-3896
ረጋጋ	-3897
▁ብሩ	-3898
ሲያ	-3899
ተህ	-3900
▁ተከታታይ	-3901
ሰቃ	-3902
ሳቁ	-3903
▁ሰባ	-3904
▁አያሌ	-3905
▁ለታ	-3906
ትናንት	-3907
▁ያልሆነ	-3908
▁ተፈጥሮ	-3909
▁ማይ	-3910
▁አለቃ	-3911
▁ያስረዳ	-3912
ከተለው	-3913
▁እንደሚሉት	-3914
▁ተው	-3915
▁የፕሮ	-3916
▁ከራ	-3917
▁የምናቀርበውን	-3918
▁ድምፃ	-3919
▁ያሳያል	-3920
ሙና	-3921
ሬዳዋ	-3922
▁ለረ	-3923
▁የበላይነት	-3924
▁ኩኪዎችን	-3925
ሻንጉ	-3926
▁መቃ	-3927
▁ሰዉ	-3928
▁ለርስዎ	-3929
▁አፈፃፀም	-3930
▁የለበትም	-3931
▁ተሽከር	-3932
▁መሆኑንም	-3933
ነካ	-3934
▁የሚቀ	-3935
ካሪዎች	-3936
▁ያደረጉ	-3937
▁ከመንግስት	-3938
ለማችን	-3939
▁ያህዌ	-3940
ቃለሁ	-3941
ቦና	-3942
▁ያድርጉ	-3943
▁ስለም	-3944
ቀጥለው	-3945
▁ዘግቧል	-3946
▁ዜናዊ	-3947
ርሀት	-3948
▁ስለሆነም	-3949
▁በፊ	-3950
▁አይመስለኝም	-3951
ምረት	-3952
ገለፅ	-3953
▁በምድር	-3954
▁አፄ	-3955
▁ደራሲ	-3956
▁ለሙ	-3957
▁የአቶ	-3958
▁መገ	-3959
▁እንዳት	-3960
▁ብዙዎች	-3961
ክህ	-3962
▁ያለመ	-3963
▁ሰኞ	-3964
▁ሼር	-3965
▁አደራ	-3966
▁ታጣ	-3967
ሁዳ	-3968
▁አነጋ	-3969
ወሰነ	-3970
▁በኢን	-3971
▁ኮሚሽ	-3972
▁ጊዜያት	-3973
▁የሚችለው	-3974
▁የብሄራዊ	-3975
▁ሳን	-3976
ታዎች	-3977
በሪያ	-3978
▁የሰማ	-3979
▁ስለነበር	-3980
▁ቀረ	-3981
▁የተወ	-3982
ዘም	-3983
ቻይና	-3984
ክታር	-3985
▁የተቀመ	-3986
ሄደ	-3987
▁ገዥ	-3988
▁ከሆኑ	-3989
▁በማህ	-3990
ቆይ	-3991
ጠብቅ	-3992
▁ተመር	-3993
ዞች	-3994
▁ምሁራን	-3995
▁ማጥ	-3996
▁መግቢያ	-3997
▁ተያይዞ	-3998
ሁፍ	-3999
▁መወሰ	-4000
ሪስ	-4001
ስቀ	-4002
▁የብሄር	-4003
ሙስ	-4004
▁በቅርብ	-4005
▁መከላከል	-4006
▁ምስጋና	-4007
▁ሚስት	-4008
▁ቅርንጫ	-4009
▁ተናገሩ	-4010
▁ለሁሉም	-4011
▁ሀብረት	-4012
▁መስተዳድር	-4013
▁አሳይ	-4014
ገኙበት	-4015
▁ማሻሻያ	-4016
ዴት	-4017
▁በየት	-4018
ጆቹ	-4019
▁ቤተክርስቲያን	-4020
▁ፍትሀዊ	-4021
▁ይናገ	-4022
▁የሚያደርግ	-4023
ለደ	-4024
▁መደረጉ	-4025
▁የጠቅላይ	-4026
▁ሰፈር	-4027
ሚዎች	-4028
▁ወይዘሮ	-4029
ልአ	-4030
▁አደሮች	-4031
▁እሷ	-4032
▁የተሰራ	-4033
▁አስኪያጅ	-4034
▁ያኔ	-4035
▁ስቃይ	-4036
▁ባለሀብቶች	-4037
▁የባህል	-4038
▁ላይም	-4039
▁አብዛኞቹ	-4040
▁ህብረተሰቡ	-4041
▁የሚያደር	-4042
▁በምእራብ	-4043
▁አጠቃ	-4044
በዛ	-4045
▁ሀገሮች	-4046
▁ሀይሌ	-4047
▁በሀላ	-4048
▁ከመስ	-4049
▁ይረዳ	-4050
▁ለካ	-4051
▁የተናገሩት	-4052
ነሳት	-4053
ከታተል	-4054
መስረት	-4055
▁ይቀጥ	-4056
▁እያንዳንዱ	-4057
▁ስላሴ	-4058
ስበው	-4059
▁አካሄድ	-4060
▁የግብፅ	-4061
ሟላ	-4062
▁ስና	-4063
▁ኮሮና	-4064
ችም	-4065
▁ተጠናቅቋል	-4066
ብይ	-4067
ኖስ	-4068
▁ሶስተኛ	-4069
▁ይናገራል	-4070
▁ሾ	-4071
ኒቨርሲቲ	-4072
▁ስርአቱ	-4073
▁በምርጫ	-4074
▁ዬ	-4075
▁በነፃ	-4076
ስተኛው	-4077
▁ግዙ	-4078
▁ጨዋታዎች	-4079
▁እንደሚገኝ	-4080
ገመ	-4081
ንባታ	-4082
▁ወድ	-4083
ግነት	-4084
▁ገልፀው	-4085
ገናኝ	-4086
▁ዳንኤል	-4087
▁ቁጭ	-4088
ረፈ	-4089
▁በመፍ	-4090
▁መስፍን	-4091
ዥም	-4092
ፋሪ	-4093
▁ዘላቂ	-4094
▁አዋጁ	-4095
▁የእው	-4096
ፍር	-4097
▁የግብርና	-4098
▁ሚዛ	-4099
▁እየተሰራ	-4100
ልት	-4101
▁የሚሰሩ	-4102
▁ግፍ	-4103
▁ስራዎችን	-4104
▁ለመያዝ	-4105
▁እንደምን	-4106
▁ጥራት	-4107
▁አገሪቱ	-4108
▁የአስቸኳይ	-4109
▁ልታ	-4110
▁ማዳ	-4111
▁የዞ	-4112
▁በምስራቅ	-4113
ነራል	-4114
▁ስምም	-4115
▁አደገኛ	-4116
በለ	-4117
▁አንዳር	-4118
▁ደንብ	-4119
▁ግር	-4120
▁ሪፖርተር	-4121
▁የሀይል	-4122
አለም	-4123
ፍረት	-4124
▁ከተለያዩ	-4125
ወቀ	-4126
▁የአር	-4127
▁ኢኮኖሚያዊ	-4128
▁አብዱ	-4129
▁ያንን	-4130
▁የፍቅር	-4131
▁ብቻውን	-4132
▁ምኞ	-4133
ምረው	-4134
▁ቀጣይ	-4135
ጥሩ	-4136
▁ቀዳሚ	-4137
እይ	-4138
▁በማንኛውም	-4139
▁ከክ	-4140
▁ክለብ	-4141
▁ይጠይ	-4142
▁የቻይና	-4143
▁ከኮ	-4144
▁ከዘ	-4145
▁ክልላዊ	-4146
▁ተወላጆች	-4147
ቀኑ	-4148
▁ከሁሉም	-4149
▁መወ	-4150
ዎቻቸው	-4151
ሬሽኑ	-4152
▁እሱም	-4153
▁የቴሌ	-4154
▁ግብረ	-4155
▁ለመፍጠር	-4156
▁ኮሌ	-4157
▁የጨ	-4158
▁ተደርጓል	-4159
ነዋል	-4160
▁ሰጪ	-4161
▁ብሎም	-4162
ምፅ	-4163
▁አሀ	-4164
ንቱ	-4165
▁እውን	-4166
▁ምንዛሪ	-4167
ገማ	-4168
▁ማእከላዊ	-4169
▁ያጋ	-4170
▁በመሆናቸው	-4171
▁አለማየሁ	-4172
▁እኛን	-4173
▁ሀሳቦች	-4174
▁እንዲሆኑ	-4175
ገልገል	-4176
▁በጦር	-4177
▁እስራኤ	-4178
ህዶ	-4179
▁አይነቱ	-4180
▁የህዳሴ	-4181
ሻንጉል	-4182
▁ከበደ	-4183
▁ከወጣ	-4184
ዊተር	-4185
ፍል	-4186
▁ቢኖር	-4187
▁በርስ	-4188
ቸውም	-4189
▁ተአ	-4190
በጥ	-4191
ነብ	-4192
▁አኳ	-4193
▁ረጅም	-4194
ረከ	-4195
▁ጎል	-4196
ዛኝ	-4197
▁ምእ	-4198
▁ቀና	-4199
▁በስፋት	-4200
▁ይሰጣል	-4201
ወሩ	-4202
▁አፋ	-4203
▁ጉብኝት	-4204
▁ሰሜን	-4205
መታ	-4206
ዘዋ	-4207
▁ወልደ	-4208
ከናው	-4209
▁የተገኘ	-4210
ፈቱ	-4211
ንቀሳቀስ	-4212
ገላ	-4213
ጥቅ	-4214
▁ወጥቶ	-4215
ርዱ	-4216
▁የክልል	-4217
▁አንዱን	-4218
ገቡት	-4219
▁አውሮፓ	-4220
ላሴ	-4221
▁ኢንጂ	-4222
▁ለል	-4223
▁ይወ	-4224
▁በቀን	-4225
▁ይተ	-4226
▁ችግሩን	-4227
▁በሚገባ	-4228
መኝ	-4229
ንቦት	-4230
▁ክን	-4231
▁ምነው	-4232
▁እየጨመረ	-4233
▁ትላንት	-4234
▁አምላ	-4235
▁ወደሚ	-4236
▁አላው	-4237
ምቤ	-4238
ችሉም	-4239
▁ገንዘ	-4240
▁ፖለቲከኞች	-4241
▁ህገወጥ	-4242
▁ከጊዜ	-4243
ቆስ	-4244
▁እየሆነ	-4245
▁ሰጥቶ	-4246
▁ለማን	-4247
ክብ	-4248
▁በሀገራችን	-4249
▁ደርሷል	-4250
▁የሚፈልጉ	-4251
ጋሉ	-4252
ጋው	-4253
ፎቶ	-4254
ቢዎች	-4255
ድድር	-4256
ቋረ	-4257
▁አረጋ	-4258
▁ቢሊ	-4259
▁ተፈና	-4260
▁በፖለቲካ	-4261
ሰኞ	-4262
ሜሽን	-4263
▁የአካባቢ	-4264
▁ይፈል	-4265
▁አሊ	-4266
ካች	-4267
ገበው	-4268
▁እያሳ	-4269
▁በአብዛኛው	-4270
▁ጃዋር	-4271
▁ለሁለት	-4272
ውጣ	-4273
▁መፈ	-4274
▁ከየት	-4275
▁በእነዚህ	-4276
▁የተያዙ	-4277
▁ይኸው	-4278
▁ፍፃሜ	-4279
▁ገለፃ	-4280
ታወቀው	-4281
▁መፍጠር	-4282
▁በትምህርት	-4283
▁የሚሰጠው	-4284
▁ቴዎድሮስ	-4285
▁ሽን	-4286
▁የሚች	-4287
▁ብሄረሰቦች	-4288
ናቱ	-4289
ሸጥ	-4290
ረቱ	-4291
▁ወላጆች	-4292
▁ተግባራት	-4293
▁መሄድ	-4294
▁ታማ	-4295
▁የሚገር	-4296
ገዳ	-4297
ሀሀ	-4298
ለታል	-4299
ጋዮች	-4300
▁ወዲያው	-4301
▁መጠየቅ	-4302
▁አስቀድሞ	-4303
▁በሆኑ	-4304
▁አቡነ	-4305
▁መንደር	-4306
ሮን	-4307
▁በመግለፅ	-4308
ሴፍ	-4309
▁በቡ	-4310
ሏላዊ	-4311
▁በከ	-4312
▁በመካ	-4313
ሶችን	-4314
▁ነግ	-4315
ከሰት	-4316
ታለች	-4317
ያስፖ	-4318
▁የተጋ	-4319
▁ክትትል	-4320
ርን	-4321
▁ዳግም	-4322
ዝን	-4323
ዳንቱ	-4324
▁ሁልጊዜ	-4325
▁ገደማ	-4326
▁ፕሮጀክቶች	-4327
ጲያ	-4328
ዋለን	-4329
▁አባቶች	-4330
▁የሚገኙት	-4331
ሰና	-4332
▁ኦርቶዶክስ	-4333
▁ኤም	-4334
▁ሸዋ	-4335
▁ጨረታ	-4336
ስኤ	-4337
▁የደም	-4338
▁ፋይ	-4339
▁የሚያስተ	-4340
▁በብዛት	-4341
▁ይጨ	-4342
▁ፀሀይ	-4343
ሮድ	-4344
▁እቃዎች	-4345
▁ኢሳት	-4346
▁የቆየ	-4347
▁ከአለም	-4348
ፍጨ	-4349
▁ዩናይትድ	-4350
▁የኑ	-4351
▁በድጋሚ	-4352
ለብ	-4353
▁ግቢ	-4354
▁አለመሆኑ	-4355
▁ባደረጉት	-4356
▁አመታዊ	-4357
ንሰር	-4358
▁አብረው	-4359
▁በየጊዜው	-4360
ላውያን	-4361
▁ይስ	-4362
▁ዘጠና	-4363
ራቴጂ	-4364
▁ግጥ	-4365
▁የፕሬ	-4366
ዋሪ	-4367
▁ማጥፋት	-4368
▁የራሱን	-4369
▁ሚያ	-4370
▁ድራማ	-4371
ረናል	-4372
▁የተሰኘ	-4373
▁አመሰ	-4374
▁በአጭር	-4375
▁ሀገራዊ	-4376
▁በኋላም	-4377
▁በአማርኛ	-4378
▁እንደነበረ	-4379
▁ለመሆኑ	-4380
ከበረ	-4381
▁ጥልቅ	-4382
ቨር	-4383
▁ይሉ	-4384
▁ክህ	-4385
ሰለ	-4386
▁ፓርላማ	-4387
ገዱ	-4388
ታደር	-4389
▁በተለያየ	-4390
ኔል	-4391
▁ካፒ	-4392
ቀበል	-4393
▁ባለበት	-4394
▁ፊል	-4395
▁ሴራ	-4396
▁ተከሳ	-4397
▁ተሞክ	-4398
▁ቬ	-4399
▁በነበረ	-4400
▁ቅርፅ	-4401
▁ጀመር	-4402
ብቻ	-4403
▁አልበ	-4404
▁እሳ	-4405
▁ተመልክ	-4406
ቪል	-4407
▁ትርፍ	-4408
ሞክራ	-4409
▁ኤር	-4410
ዊው	-4411
▁በሚለው	-4412
▁ውሰ	-4413
▁መስጠ	-4414
▁ሀይለማርያም	-4415
▁ተነግ	-4416
▁ፉ	-4417
የሩሳሌ	-4418
▁ሀገራ	-4419
▁በደል	-4420
▁መገደ	-4421
▁አይነ	-4422
▁ተገን	-4423
▁ንፁህ	-4424
▁ሳለ	-4425
▁ውድድ	-4426
ፊው	-4427
ሰብሰብ	-4428
▁ዘርፎች	-4429
▁እዳ	-4430
▁የሆ	-4431
▁ዴሞክራሲ	-4432
▁መያ	-4433
▁ስኬ	-4434
ጠናቀቀ	-4435
▁መፅሄት	-4436
▁እዚያ	-4437
▁ሀገሪቱ	-4438
ሞቱ	-4439
ሰባሰብ	-4440
▁የች	-4441
▁በውስ	-4442
▁የተሰጠ	-4443
ጣሪዎች	-4444
▁የማእ	-4445
▁ያለን	-4446
▁ቅድሚያ	-4447
▁ኤምባሲ	-4448
▁የከፋ	-4449
▁አንደኛው	-4450
▁ያደ	-4451
▁ይፈልጋል	-4452
▁የሁለ	-4453
▁የተደረገው	-4454
ፈለገው	-4455
ገነዘ	-4456
ያሜ	-4457
ፃፉ	-4458
▁የአካባቢው	-4459
ምፒዮ	-4460
▁የተጣ	-4461
▁ያመለክታል	-4462
▁ድረ	-4463
▁ቤተሰቦ	-4464
▁ማረጋገጫ	-4465
ገሬ	-4466
ቃን	-4467
▁ቀስ	-4468
▁በጠ	-4469
ደባ	-4470
▁ሰውዬ	-4471
▁አመልክተዋል	-4472
ፎርሜሽን	-4473
ንቀሳ	-4474
▁ምኒ	-4475
▁እንድታ	-4476
▁ሳት	-4477
▁መግባት	-4478
ሳኤ	-4479
▁እጩ	-4480
▁ደካ	-4481
▁ተሳታፊ	-4482
▁ችግሮችን	-4483
ሪታ	-4484
ወግ	-4485
▁የዋጋ	-4486
ሶማሊያ	-4487
ማው	-4488
▁ተነሳ	-4489
▁በግብ	-4490
▁ህጉ	-4491
▁በእጅጉ	-4492
▁በሲ	-4493
▁ጀግ	-4494
▁የሱዳን	-4495
▁ተሰም	-4496
▁መውሰድ	-4497
▁ሰጥተዋል	-4498
▁ህዳሴ	-4499
▁ለቅ	-4500
ደባባይ	-4501
▁ይኖራል	-4502
በዝ	-4503
▁ስለማይ	-4504
ግሪ	-4505
▁ሀውል	-4506
ዊያን	-4507
▁የኤሌክትሪክ	-4508
ሰሙ	-4509
▁ማቆ	-4510
ባቸውም	-4511
▁ተወስ	-4512
▁ለአለም	-4513
▁ይሆናሉ	-4514
ክኒክ	-4515
▁መሳሪያዎች	-4516
▁ጎዳና	-4517
▁ይል	-4518
▁የስፖርት	-4519
በን	-4520
▁የአባ	-4521
ሪፖርተር	-4522
ጠንቀቂያ	-4523
ነገሩ	-4524
▁በደረ	-4525
ኖቹ	-4526
▁ጣልቃ	-4527
ኑም	-4528
▁ምቹ	-4529
ኮት	-4530
▁ባህላዊ	-4531
▁ክለቦች	-4532
▁አደረጃ	-4533
ጎዳ	-4534
▁የቁ	-4535
▁ታላቁ	-4536
▁ለፍርድ	-4537
▁አገኘ	-4538
▁ግል	-4539
▁ለመናገር	-4540
▁እንደሚችሉ	-4541
▁አንዴ	-4542
ታወቂያ	-4543
ርና	-4544
ዳምጡ	-4545
▁በመጥ	-4546
▁ባሉት	-4547
ገሉ	-4548
▁ሆነዋል	-4549
▁አሳሳቢ	-4550
ስም	-4551
▁ብቅ	-4552
ብጥ	-4553
በረሰቡ	-4554
▁የሻ	-4555
▁የበረ	-4556
ቀና	-4557
ፍረስ	-4558
▁ኢሳያስ	-4559
ተርኔት	-4560
▁አስቸኳይ	-4561
▁ነገሩ	-4562
▁የሚሰማ	-4563
እየ	-4564
ያዎች	-4565
▁መገለ	-4566
ኮም	-4567
▁ገደብ	-4568
ድል	-4569
▁ክርክር	-4570
▁አሳዛኝ	-4571
ህዴድ	-4572
ትንና	-4573
▁ፍልስ	-4574
▁መፃህፍት	-4575
ሪያው	-4576
▁አይገባም	-4577
▁የመረጃ	-4578
▁መስቀል	-4579
▁ከስራ	-4580
▁ሰላምና	-4581
▁ፈጣን	-4582
▁የተወሰነ	-4583
▁ማክሰኞ	-4584
▁እርግጥ	-4585
▁ከዋ	-4586
▁ሰአታት	-4587
ልምና	-4588
▁ጥበ	-4589
▁ባስ	-4590
▁የፍትህ	-4591
▁ቆይቷል	-4592
▁አርባ	-4593
▁አውሮፕላ	-4594
▁ያወጣ	-4595
▁ዲሲ	-4596
▁የጭ	-4597
▁ከቤተ	-4598
▁በሚገኙ	-4599
▁ምልክ	-4600
▁ምርቶች	-4601
▁በፍፁም	-4602
▁ደጋፊዎች	-4603
▁ያለም	-4604
ደራጀ	-4605
ወች	-4606
▁የሚገባው	-4607
▁ሲነ	-4608
▁ሚካኤል	-4609
▁ለበ	-4610
▁እመ	-4611
▁የብዙ	-4612
ዳቸውን	-4613
▁ከሳ	-4614
ቶቹን	-4615
መኔ	-4616
▁ስእ	-4617
▁የብር	-4618
▁እንግዳ	-4619
▁ከሶስት	-4620
▁ለጋ	-4621
ጠሉ	-4622
ወትር	-4623
▁አንዷ	-4624
▁ዝቅተኛ	-4625
ሳችንን	-4626
▁ሄክታር	-4627
▁እርግጠኛ	-4628
▁መያዝ	-4629
▁መቀመ	-4630
▁ከማንኛውም	-4631
ክሩ	-4632
ደጓ	-4633
▁እንግሊዝ	-4634
▁አምና	-4635
▁የፋይናንስ	-4636
ያዝያ	-4637
ሀይ	-4638
▁ትስ	-4639
▁ይደረጋል	-4640
▁የጨረታ	-4641
▁ስትል	-4642
▁ጠባቂ	-4643
▁ብርቱ	-4644
▁ፍቅ	-4645
እና	-4646
ፐር	-4647
ክን	-4648
ውንት	-4649
▁ሌሎችን	-4650
▁መሰረተ	-4651
ኝት	-4652
▁በኤርትራ	-4653
▁ሀገራችን	-4654
▁አላውቅም	-4655
▁በራስ	-4656
▁ውዝ	-4657
▁ባልተ	-4658
በሻ	-4659
ዛል	-4660
▁የሴቶች	-4661
▁ዲሞክራሲ	-4662
▁በፍቅር	-4663
▁አረቢያ	-4664
▁እንዲያስ	-4665
ጓዴ	-4666
▁ስዩም	-4667
▁የሁለት	-4668
ያዘው	-4669
ላይታ	-4670
▁በሁለቱ	-4671
▁በእስር	-4672
ሎን	-4673
▁ቀርቦ	-4674
ፎካ	-4675
ጥል	-4676
ፃፈው	-4677
▁ተራራ	-4678
▁አባባል	-4679
▁አፅ	-4680
▁በሂ	-4681
▁ባወጣው	-4682
ባበል	-4683
▁ዊ	-4684
ይዝ	-4685
▁ዎቹ	-4686
ቆጣጠ	-4687
▁የለውጥ	-4688
ራንስፖርት	-4689
▁ለማቅረብ	-4690
ቆሙ	-4691
መታት	-4692
▁አንዳርጋቸው	-4693
በጣ	-4694
▁ቁሳቁ	-4695
▁መስክ	-4696
▁በአስ	-4697
ልልስ	-4698
ለላ	-4699
▁አቅርበዋል	-4700
▁እስራኤል	-4701
▁ፕላ	-4702
ዝነስ	-4703
▁ያመ	-4704
▁ለማረጋገጥ	-4705
ላቻ	-4706
▁ጭንቅ	-4707
ምቤላ	-4708
▁ከፊ	-4709
ሽንግተን	-4710
ዝገባ	-4711
▁ተጫዋቾች	-4712
▁ሰይጣን	-4713
▁ፅሁፎች	-4714
▁ናይ	-4715
▁ተሾ	-4716
ሪን	-4717
▁በተደረገው	-4718
ደርጉት	-4719
▁ዲፕሎማ	-4720
▁ለሰው	-4721
▁በቀር	-4722
ምፒክ	-4723
ሰበው	-4724
▁የእስራኤል	-4725
▁የተፈጠረ	-4726
▁ደህና	-4727
▁መብራት	-4728
▁አላህ	-4729
▁የፀረ	-4730
ፎችን	-4731
▁ተበ	-4732
▁ተክ	-4733
▁የኩ	-4734
▁አስደናቂ	-4735
ቿን	-4736
▁መረዳት	-4737
▁ምእራብ	-4738
▁ንም	-4739
▁ሰማይ	-4740
▁የፈጠ	-4741
ማመን	-4742
ናትና	-4743
▁መንስኤ	-4744
▁ሲኖ	-4745
ዚያው	-4746
▁ህልውና	-4747
▁በሶስት	-4748
▁የተዘጋጀ	-4749
▁መጀመ	-4750
ሀንነት	-4751
ደደ	-4752
▁ቅርብ	-4753
ከናወኑ	-4754
ቲክስ	-4755
▁ካድ	-4756
ራቾች	-4757
▁ሏላዊ	-4758
▁ቁልፍ	-4759
▁የአፍሪቃ	-4760
▁አስተባባሪ	-4761
▁ዝርያ	-4762
▁በተካሄደው	-4763
▁ሰጥቷል	-4764
ጠየቁ	-4765
▁ሲታ	-4766
ረንጓዴ	-4767
▁ይበልጣ	-4768
ርጦ	-4769
▁ቀለም	-4770
▁በሚያስ	-4771
▁ይመጣል	-4772
▁ሰለሞን	-4773
▁ካስ	-4774
▁ክፍት	-4775
ቡእ	-4776
▁እንደተናገሩት	-4777
▁ፍለጋ	-4778
▁ጄኔራል	-4779
ሬም	-4780
▁መንግስትን	-4781
▁አብዛኛው	-4782
▁ስላለ	-4783
▁ማሰ	-4784
ቢው	-4785
ምያ	-4786
▁የሱ	-4787
ዳሉ	-4788
▁ቤቱን	-4789
▁የነፃነት	-4790
መናዊ	-4791
▁ቆሻሻ	-4792
▁ወንድሞ	-4793
▁መቀሌ	-4794
▁የመጡ	-4795
ዋይ	-4796
▁እይታ	-4797
▁የጊዜ	-4798
▁በቤ	-4799
ሸጋ	-4800
▁ሂደ	-4801
▁የሊ	-4802
▁ጠዋት	-4803
ላለሁ	-4804
▁የአካል	-4805
ቢያው	-4806
▁ገር	-4807
▁ሀሙስ	-4808
▁በዲ	-4809
ታና	-4810
▁የሩ	-4811
▁የተዋ	-4812
▁ለእኔ	-4813
▁ብራ	-4814
ራክሽን	-4815
▁ጭማሪ	-4816
ደሩ	-4817
ለውም	-4818
ሬድ	-4819
▁በሺ	-4820
ቋንቋ	-4821
▁ፈቃደኛ	-4822
▁ነጭ	-4823
▁ህሊና	-4824
▁አለች	-4825
▁የእስ	-4826
ከፋፈል	-4827
▁የኪ	-4828
▁ዛፍ	-4829
ላለፉ	-4830
▁የላቀ	-4831
ጠፉ	-4832
ረና	-4833
ላህ	-4834
▁ተዘግ	-4835
▁እየተባለ	-4836
ኮል	-4837
መለከታቸው	-4838
▁በአምላክ	-4839
▁ስለማ	-4840
▁የተጀመረው	-4841
ራቱ	-4842
▁ህፃን	-4843
▁መመለስ	-4844
▁ኢንስ	-4845
▁በግል	-4846
▁እየቀ	-4847
▁ለማንኛውም	-4848
ርሱም	-4849
▁እፈልጋ	-4850
▁የመጣው	-4851
▁ታዳጊ	-4852
ገጥ	-4853
▁የዩናይትድ	-4854
ደዱ	-4855
▁የያዙ	-4856
▁በየቀኑ	-4857
ጠባ	-4858
▁ቤታቸው	-4859
ናልድ	-4860
▁ሰጠ	-4861
▁ፈጥ	-4862
▁ባልደረ	-4863
ምቦ	-4864
▁ሳምንታት	-4865
▁ተሟ	-4866
▁ድብ	-4867
ፋስ	-4868
▁ይኖርበታል	-4869
ንተን	-4870
▁ያዳምጡ	-4871
▁ቆን	-4872
ላለፈ	-4873
▁ስያሜ	-4874
▁ችሏል	-4875
▁እብ	-4876
▁በእን	-4877
ከብር	-4878
▁የተቋቋ	-4879
ራትን	-4880
▁ለመመለስ	-4881
▁መሆኗ	-4882
▁ለብዙ	-4883
ዴሞክራሲ	-4884
▁የባንክ	-4885
▁ምድ	-4886
▁ይዘት	-4887
▁አገራዊ	-4888
▁በመጠ	-4889
▁የወንጀል	-4890
ፐብ	-4891
ደርጋ	-4892
ጨምር	-4893
▁ወሎ	-4894
ርኩ	-4895
▁የሚሆኑት	-4896
▁ቅዱሳን	-4897
▁ተዋህዶ	-4898
▁አመፅ	-4899
ደቅ	-4900
ኔታው	-4901
▁ተዘጋጅ	-4902
▁ወኪ	-4903
▁የሰጠው	-4904
▁አምባገነ	-4905
▁ከሰው	-4906
መንግስት	-4907
ፓን	-4908
ሞኑ	-4909
▁ሄደ	-4910
▁እስረኞች	-4911
▁አማካሪ	-4912
▁የተሰጠው	-4913
የቱ	-4914
▁የሚኖር	-4915
ኛውንም	-4916
▁ሽፋን	-4917
▁የተቃውሞ	-4918
ለትን	-4919
ስፋፋ	-4920
▁የሚደረገው	-4921
ጓዙ	-4922
▁መባ	-4923
▁አዎን	-4924
▁ወረዳዎች	-4925
ጋን	-4926
▁ፅጌ	-4927
ራቅ	-4928
▁ተካ	-4929
ምድ	-4930
▁በጥን	-4931
ድዋ	-4932
▁ተሞክሮ	-4933
▁ስትራቴጂ	-4934
ያንዳንዱ	-4935
ሳይንስ	-4936
▁በተደረገ	-4937
▁ህወሀ	-4938
ጨው	-4939
▁እራሱ	-4940
▁ይቀጥላል	-4941
ለታ	-4942
▁አንዳንዴ	-4943
ረደ	-4944
ፃናት	-4945
▁አብራር	-4946
▁የገቢ	-4947
▁ተከላ	-4948
▁የማሀ	-4949
▁ይሄንን	-4950
ላለን	-4951
ረቤት	-4952
▁መቻ	-4953
ናገረ	-4954
▁ተሻ	-4955
▁የገበያ	-4956
▁መጨረሻው	-4957
ቻችሁ	-4958
ፈርት	-4959
▁በሞት	-4960
ወርቅ	-4961
ለወጥ	-4962
▁እንዳለባቸው	-4963
▁የሚያደርገው	-4964
▁ባህሪ	-4965
▁ደስተኛ	-4966
ካችሁ	-4967
▁የነዳጅ	-4968
▁አብርሀም	-4969
▁የእንግሊዝ	-4970
ጎት	-4971
ገዙ	-4972
▁ኦባ	-4973
▁በሆ	-4974
ክክር	-4975
▁ነዳጅ	-4976
▁የተወለ	-4977
ሳች	-4978
▁አርቲስት	-4979
▁ሳይቀር	-4980
▁እንድና	-4981
▁ሽልማ	-4982
▁መቅረ	-4983
ማችን	-4984
ሮድካ	-4985
▁የቤተሰብ	-4986
ከታተሉ	-4987
▁ዳኛ	-4988
▁ተጠርጣሪ	-4989
ጀራ	-4990
▁ለመቆጣጠር	-4991
ወቁ	-4992
▁ግዙፍ	-4993
▁ፈንታ	-4994
▁አመሰግና	-4995
▁ከመሆኑም	-4996
▁ሰበብ	-4997
ብል	-4998
ችሁት	-4999
▁ተነስቶ	-5000
▁ብቸኛ	-5001
▁ዝናብ	-5002
▁ይደ	-5003
ተረ	-5004
▁መለያ	-5005
ቀሳቀ	-5006
ኝን	-5007
ሽቱ	-5008
ከናወነ	-5009
▁ሳል	-5010
▁እነሱም	-5011
▁ሚያዝያ	-5012
ቆር	-5013
▁እንዳላቸው	-5014
ሬው	-5015
▁የቤ	-5016
▁በዋናነት	-5017
▁ጩ	-5018
ቶቻቸው	-5019
▁ለማሳደግ	-5020
▁ጆሮ	-5021
▁ኢንቨስትመንት	-5022
▁ግዛ	-5023
ትነት	-5024
▁ይላ	-5025
ብሩ	-5026
▁ግማሽ	-5027
▁በራሳቸው	-5028
▁የሽብር	-5029
▁መንገዱ	-5030
▁ጠይቀዋል	-5031
▁ፀጥታ	-5032
▁ሙሴ	-5033
ስተካከል	-5034
▁አንዳንዶች	-5035
ለር	-5036
ድግ	-5037
ናሽናል	-5038
▁ቼ	-5039
▁ይጠበቅ	-5040
▁የውስጥ	-5041
▁ያልሆኑ	-5042
▁ሀጢአት	-5043
▁የምክር	-5044
▁አትሌት	-5045
▁አድርገ	-5046
ርአ	-5047
▁ቴሌቪዥን	-5048
▁የሂ	-5049
▁ካርታ	-5050
ላች	-5051
▁በአንዳንድ	-5052
▁አልቻለም	-5053
ደራጀት	-5054
▁ተም	-5055
▁ጊዜም	-5056
▁በማቅረብ	-5057
▁ኢት	-5058
▁መገኘ	-5059
ሟላት	-5060
ክም	-5061
▁ትራንስፖርት	-5062
▁መስሎ	-5063
▁ይመስል	-5064
▁የምርመራ	-5065
▁የራሱ	-5066
▁አያሌው	-5067
▁ወረቀት	-5068
▁ከመቶ	-5069
▁እፈልጋለሁ	-5070
▁ራእይ	-5071
ነኝ	-5072
▁የሚታይ	-5073
ባሉት	-5074
▁በአይ	-5075
▁በሉ	-5076
▁እንዲቀ	-5077
ወል	-5078
▁ኢትዮጵያዊነት	-5079
ንዴ	-5080
ገኙም	-5081
ናዳ	-5082
ዘዝ	-5083
▁ስብስብ	-5084
▁መቀመጫ	-5085
▁በመጨረሻም	-5086
ጋች	-5087
ረሳ	-5088
▁አብዲ	-5089
▁አቤቱታ	-5090
▁ከድነት	-5091
ናችን	-5092
▁ይህንኑ	-5093
አይ	-5094
▁በቢ	-5095
▁ሚስ	-5096
▁ሀላፊው	-5097
▁አጋማሽ	-5098
▁የአምላክን	-5099
▁የሜ	-5100
▁ቅዱስን	-5101
▁እንዲሰ	-5102
▁እውነታ	-5103
መናት	-5104
▁አንዳንዶቹ	-5105
ታች	-5106
▁በአስቸኳይ	-5107
▁የና	-5108
▁ድንአ	-5109
ርዳት	-5110
▁ትኩስ	-5111
▁የሚገኘውን	-5112
▁በባለ	-5113
▁ማብ	-5114
▁ማረፊያ	-5115
▁ፋሲ	-5116
▁ፀሎት	-5117
▁ህመምንም	-5118
▁ወንድሞች	-5119
ቲን	-5120
▁አንብ	-5121
▁ደመቀ	-5122
የሩሳሌም	-5123
▁በክፉ	-5124
▁አስታወቁ	-5125
▁በቫይረሱ	-5126
▁አቅርቦ	-5127
ቅል	-5128
▁ለሀገር	-5129
▁አመልክቷል	-5130
ላጭ	-5131
▁በጤና	-5132
▁ቁም	-5133
▁ሰውን	-5134
▁በሚመለከት	-5135
▁የተገኘው	-5136
▁መውጣት	-5137
ዲራ	-5138
ግራቸው	-5139
▁ገፅታ	-5140
▁የፍርድ	-5141
▁በኩ	-5142
ሳነ	-5143
▁ከጠ	-5144
▁ጠቀ	-5145
▁ፈጠራ	-5146
▁ወግ	-5147
መዝግ	-5148
▁የተለያየ	-5149
▁ያለባቸው	-5150
▁ንማ	-5151
▁ለመገንባት	-5152
ተም	-5153
▁ጥፋቶችህ	-5154
▁አኳያ	-5155
▁እናው	-5156
▁ብሄረሰብ	-5157
▁በሆነው	-5158
▁የተመዘ	-5159
▁በስልክ	-5160
▁በሊ	-5161
▁ይሞ	-5162
▁ማስጠንቀቂያ	-5163
ባው	-5164
ጣና	-5165
ሀመድ	-5166
ኮር	-5167
▁ጊዜው	-5168
ጄሪያ	-5169
▁ውሸት	-5170
ጎብ	-5171
ቆየት	-5172
▁ብታ	-5173
▁ማሀበረሰብ	-5174
ብነት	-5175
ገልፅ	-5176
▁ይገኙ	-5177
▁ጠበቃ	-5178
▁ጭፍጨ	-5179
ዉም	-5180
▁መንጋ	-5181
▁ፓርክ	-5182
ዴይ	-5183
ነሱት	-5184
▁ወሰ	-5185
▁እድገ	-5186
▁ሆነን	-5187
በተ	-5188
▁ተፋ	-5189
ስማማ	-5190
▁የተለመደ	-5191
▁ዜጎችን	-5192
ድስ	-5193
▁በርግ	-5194
▁አከ	-5195
▁ይገልፃሉ	-5196
ኦን	-5197
ርጎ	-5198
ክረው	-5199
▁የሰሜን	-5200
▁ገዝ	-5201
▁አያውቅም	-5202
ሀም	-5203
▁ነጥቦች	-5204
▁አቆጣጠር	-5205
▁በእግዚአብሄር	-5206
መስል	-5207
▁ቀጣዩ	-5208
▁የተወሰኑ	-5209
▁ንጉሱ	-5210
▁እናቶች	-5211
ቃቂ	-5212
ማሪያ	-5213
▁በሜ	-5214
▁ደካማ	-5215
▁የሌላቸው	-5216
▁ተጨዋ	-5217
▁አስቀም	-5218
የውን	-5219
▁የተመሰ	-5220
▁አመተ	-5221
ሌን	-5222
▁በጎንደር	-5223
▁ማግኘ	-5224
▁ውጤቶች	-5225
ጨነ	-5226
▁አሜን	-5227
▁ማሳያ	-5228
ያስፖራ	-5229
ስትራ	-5230
▁ትችላለህ	-5231
ቧን	-5232
▁መምጣ	-5233
▁አንተም	-5234
▁ዶር	-5235
▁የአል	-5236
▁ጨር	-5237
ሉና	-5238
ኔን	-5239
ጠም	-5240
▁ቀል	-5241
▁ነበርኩ	-5242
ሊዝም	-5243
▁ሽማግሌዎች	-5244
ሀለሁ	-5245
▁በእንግሊዝ	-5246
ደለ	-5247
▁አድርገን	-5248
ወሰድ	-5249
▁ቢል	-5250
▁ትስስር	-5251
▁ያግ	-5252
▁የባን	-5253
▁ውብ	-5254
▁በጊዜ	-5255
ራችሁ	-5256
ንደቅ	-5257
▁ሄዶ	-5258
▁በእኔ	-5259
▁የሚሰጡ	-5260
▁በጀርመን	-5261
▁አስተዳደሩ	-5262
▁መዝገብ	-5263
▁አስተዳዳሪ	-5264
▁ዘፈን	-5265
ክበር	-5266
▁ጫማ	-5267
ቀውን	-5268
▁እንባ	-5269
▁ዘይት	-5270
▁ፓት	-5271
▁የያ	-5272
▁ጓደኞ	-5273
▁ከሞ	-5274
▁አሉት	-5275
▁የእድ	-5276
▁ባደረገው	-5277
ድሎ	-5278
▁እሰ	-5279
▁ምስጢ	-5280
ኖሩት	-5281
ምንቱ	-5282
ክተሩ	-5283
▁ጀርባ	-5284
▁ሀዘን	-5285
▁ለን	-5286
▁ታዛ	-5287
ንዶች	-5288
ቆጠ	-5289
▁ከባለ	-5290
▁በሰላማዊ	-5291
ይተ	-5292
▁መምሪያ	-5293
ድርሻ	-5294
▁ግምገማ	-5295
▁የሚደርስ	-5296
▁እንቁ	-5297
ወሰደ	-5298
▁መቁ	-5299
▁አማካይነት	-5300
ዉያን	-5301
ገናኙ	-5302
▁ለአዲስ	-5303
▁እንደሌለ	-5304
ሊያም	-5305
▁በነፃነት	-5306
▁ስላለው	-5307
ዎስ	-5308
ፈጥሮ	-5309
▁ግጥም	-5310
▁ግብርና	-5311
▁ሲመጣ	-5312
▁የራስ	-5313
▁ከየ	-5314
▁ለመረዳት	-5315
ብሰባ	-5316
▁የዘንድ	-5317
ሰናል	-5318
▁ተለይ	-5319
▁በመም	-5320
▁የሚወስ	-5321
▁አረብ	-5322
▁ምስል	-5323
▁ዲሞክራሲያዊ	-5324
▁ስልት	-5325
▁ለስራ	-5326
▁አላስ	-5327
▁የማድረግ	-5328
ዊነት	-5329
▁መርህ	-5330
ጭበር	-5331
▁ህይወታቸው	-5332
▁ዋል	-5333
▁ይጀም	-5334
ንዛ	-5335
▁ኮሎ	-5336
▁መሰለኝ	-5337
▁በቅድ	-5338
ሷን	-5339
ኤአ	-5340
ከለኛ	-5341
ተውን	-5342
▁አቀባይ	-5343
▁አንተን	-5344
ባይል	-5345
▁ህብረተሰብ	-5346
▁አሸን	-5347
▁ተመስገን	-5348
▁በእር	-5349
▁የስደ	-5350
▁መዋቅር	-5351
መጣው	-5352
ውሀት	-5353
▁በአመት	-5354
▁ክስተት	-5355
ባበሩት	-5356
ግን	-5357
▁ቀሪ	-5358
▁ሂሳብ	-5359
▁ሲታይ	-5360
ግሬ	-5361
▁ሀይማኖታዊ	-5362
▁ለጎ	-5363
▁ምድብ	-5364
▁የእን	-5365
▁መቀበል	-5366
▁ተሰብ	-5367
▁እያደረጉ	-5368
▁ሸገር	-5369
▁አድርጋ	-5370
▁በአንፃ	-5371
▁ከህዝብ	-5372
▁በትን	-5373
▁በሸ	-5374
▁ነሽ	-5375
▁በመግ	-5376
▁ፀጋዬ	-5377
▁በመፅሀፍ	-5378
▁ያላት	-5379
ጠበቁ	-5380
▁ፃ	-5381
▁በመስራት	-5382
▁ተከታዮች	-5383
▁እኤአ	-5384
▁ይገልፃል	-5385
ስኮ	-5386
▁የአይ	-5387
ቀኝ	-5388
እቆ	-5389
▁ከእስር	-5390
▁በህወሀት	-5391
▁ወሬዎች	-5392
ፈራው	-5393
▁ፈታ	-5394
▁እውቀ	-5395
▁የማያው	-5396
▁የቅርብ	-5397
▁ታግ	-5398
▁ያገ	-5399
ልተኛ	-5400
▁የድምፅ	-5401
▁ውሎ	-5402
ጥሮስ	-5403
▁የፎቶ	-5404
ዮኖች	-5405
▁በጅ	-5406
▁ውይይ	-5407
▁የመገናኛ	-5408
▁ነጋዴዎች	-5409
▁ከፈ	-5410
▁እየሰሩ	-5411
▁ያዘ	-5412
ለጠነ	-5413
▁በኩር	-5414
▁ተወዳዳሪ	-5415
ግባባት	-5416
▁ለመቀነስ	-5417
▁አብረን	-5418
መች	-5419
▁ተደረገ	-5420
ቸት	-5421
▁ወታደር	-5422
▁በሬ	-5423
ኩበት	-5424
ህአ	-5425
ርያት	-5426
▁አፈር	-5427
▁ጠቀሜ	-5428
▁ባንድ	-5429
▁የጀመረው	-5430
▁ግዥ	-5431
▁መስፈር	-5432
ምቀት	-5433
▁ለቤተ	-5434
▁እነሱን	-5435
ቶሪ	-5436
▁የግንባታ	-5437
▁አመሰግናለሁ	-5438
▁ከግብ	-5439
▁ምኒልክ	-5440
▁ራስን	-5441
▁ከጥቂት	-5442
▁መማር	-5443
ነሳው	-5444
ዘኛ	-5445
ምበር	-5446
▁ትግሬ	-5447
▁የዝ	-5448
ፍታ	-5449
ከሰቱ	-5450
መለሰ	-5451
▁የሚዘ	-5452
ራራ	-5453
▁ኤክስ	-5454
▁የመንገድ	-5455
ድኑ	-5456
ጋለሁ	-5457
▁ሩጫ	-5458
▁ኪዳን	-5459
▁ማስከበር	-5460
ጣቸውን	-5461
ውልድ	-5462
ጓቸው	-5463
ነሽ	-5464
▁የፖሊስ	-5465
▁ፌዴሬሽን	-5466
▁ድንጋጌ	-5467
▁የመኖሪያ	-5468
▁ከቆ	-5469
ፌዴሪ	-5470
▁ማጋ	-5471
▁ጉባኤው	-5472
▁ሚስጥ	-5473
ችት	-5474
አን	-5475
▁አውቶ	-5476
▁ጥላሁን	-5477
▁ላል	-5478
▁እንዳልተ	-5479
▁የተቃዋሚ	-5480
ጋቸውን	-5481
▁መምህራን	-5482
▁በአገራችን	-5483
▁ባህርይ	-5484
▁የላቸውም	-5485
ንግስቱ	-5486
▁በአማ	-5487
▁አንድን	-5488
▁ያለምንም	-5489
▁ቴዲ	-5490
▁ይሆዋን	-5491
ሳራ	-5492
ዲየም	-5493
▁አያስፈል	-5494
ፍስ	-5495
▁ተወል	-5496
▁የጠቀ	-5497
▁ከነበረው	-5498
▁ስርጭ	-5499
▁የእርስዎ	-5500
ረክ	-5501
▁በመታ	-5502
ኒየም	-5503
ክፈል	-5504
▁ተክለ	-5505
▁በታሪክ	-5506
ምስ	-5507
ፈናቀሉ	-5508
▁እርሻ	-5509
▁ባዶ	-5510
ጅምላ	-5511
ሽነት	-5512
ቷቸው	-5513
▁ከቅርብ	-5514
▁ባለማ	-5515
▁ከእናንተ	-5516
▁የተፈፀመ	-5517
▁ይጠቅ	-5518
▁ጭፍጨፋ	-5519
▁ተፈራ	-5520
ጋጭ	-5521
ዴን	-5522
▁ለሪፖርተር	-5523
ወጣት	-5524
▁የሀገራችን	-5525
▁ሌባ	-5526
▁እየሞ	-5527
▁ከእኛ	-5528
▁ከረ	-5529
▁የሚበ	-5530
▁ባንኩ	-5531
▁ኤሌክትሪክ	-5532
ፋዊ	-5533
▁ጡ	-5534
▁ዘገባው	-5535
▁ከአን	-5536
ሁም	-5537
▁ገብተው	-5538
ወት	-5539
▁ከቤት	-5540
ታደግ	-5541
▁አቻ	-5542
▁እስራት	-5543
በባ	-5544
▁ዝውው	-5545
▁ህይወታቸውን	-5546
▁ኮሌጅ	-5547
▁ታከለ	-5548
ቶት	-5549
▁ለማጥፋት	-5550
▁መግባባት	-5551
▁የአባይ	-5552
ርሳ	-5553
▁ሚል	-5554
▁የደህንነት	-5555
▁በሀይል	-5556
▁ወረራ	-5557
▁ከምን	-5558
▁እሳቸው	-5559
▁ውስጥም	-5560
▁የቀረበው	-5561
▁መቀጠል	-5562
▁እንዲኖር	-5563
▁ጊዜያዊ	-5564
▁ቫይረሱ	-5565
▁የመጀመሪያውን	-5566
▁የትም	-5567
▁ለጉ	-5568
▁የተባለውን	-5569
▁በደረሰ	-5570
ጦት	-5571
ሪንግ	-5572
▁ዶናልድ	-5573
▁ጅማ	-5574
▁የለኝም	-5575
ልናል	-5576
▁በይሆዋ	-5577
▁በህይወ	-5578
▁የጋዜ	-5579
▁በአውሮፓ	-5580
▁የአገልግሎት	-5581
▁ኢንተርናሽናል	-5582
ነቴ	-5583
ሪፍ	-5584
▁ጳጳ	-5585
ማማኝ	-5586
ገለግል	-5587
ታለሁ	-5588
ሰሩት	-5589
ርእ	-5590
▁እንደሚገኙ	-5591
▁ያቀ	-5592
▁ተቆጣ	-5593
▁የኢንዱስትሪ	-5594
▁ደግሞም	-5595
▁አሳስበዋል	-5596
▁አባቴ	-5597
▁የተሞላ	-5598
ተዉ	-5599
▁ያነ	-5600
ፕላን	-5601
ገኝም	-5602
▁ማነው	-5603
▁ሰማያዊ	-5604
▁ኮሙ	-5605
▁በመተባበር	-5606
▁እርምጃዎች	-5607
▁በልዩ	-5608
▁ለባ	-5609
▁ፅንፈ	-5610
ፀው	-5611
▁ይው	-5612
▁የሰጠ	-5613
▁በገንዘብ	-5614
▁መዝሙር	-5615
▁መንግስትና	-5616
▁ቫ	-5617
መሰግና	-5618
▁እጃ	-5619
▁ለፊት	-5620
▁የፌዴ	-5621
ማች	-5622
ቡና	-5623
ሰማው	-5624
ኩኝ	-5625
▁ቅርንጫፍ	-5626
▁ለጊዜው	-5627
▁ልጃ	-5628
▁ማሽ	-5629
▁ማህበራት	-5630
▁ናችሁ	-5631
▁ኮርፖሬሽን	-5632
▁ሁላ	-5633
▁የተገደ	-5634
▁ኮሚሽነር	-5635
▁ቶን	-5636
▁የሁለቱ	-5637
ጠብቁ	-5638
ወዝ	-5639
▁ልጁ	-5640
▁ይጠቀ	-5641
በቱ	-5642
▁ባሳ	-5643
▁ራድዮ	-5644
▁በእኛ	-5645
▁አይችሉም	-5646
ደመ	-5647
ላትና	-5648
ቆና	-5649
▁መግዛት	-5650
▁ምናልባትም	-5651
▁በበኩሉ	-5652
▁አስተዳደ	-5653
▁በምር	-5654
ሰተኛ	-5655
▁በሚቀጥለው	-5656
▁መኖሩን	-5657
▁አስተማሪ	-5658
ረጉ	-5659
▁ተማሪዎችን	-5660
▁አሸባሪ	-5661
▁ጠበ	-5662
▁ይልቁ	-5663
ለለ	-5664
▁ለሙሉ	-5665
▁የጠቆ	-5666
▁ሲደርስ	-5667
▁ማሀበራዊ	-5668
ጅነት	-5669
▁አድና	-5670
▁ጠር	-5671
▁መልካ	-5672
▁የሁሉም	-5673
▁ለመጠበቅ	-5674
▁ትንታ	-5675
▁ቤቶችን	-5676
▁አደረሳችሁ	-5677
▁በጉዳዩ	-5678
▁የትራንስፖርት	-5679
▁የወጣው	-5680
▁ፋና	-5681
▁አፍሮ	-5682
ራረብ	-5683
ንቀት	-5684
▁አጠቃቀም	-5685
▁አለመሆኑን	-5686
▁እንደሆነም	-5687
ረምት	-5688
▁ይደር	-5689
▁በነገራችን	-5690
ኤስ	-5691
▁ሲኖዶ	-5692
መኛ	-5693
ቀረበው	-5694
ካከ	-5695
▁አዋቂ	-5696
ሜት	-5697
ቂኝ	-5698
▁ሊሆኑ	-5699
ቦታው	-5700
▁የአውሮ	-5701
▁ይሻላል	-5702
ሰውን	-5703
▁ተወካይ	-5704
▁እንዲያደርጉ	-5705
▁ምርጫው	-5706
▁ጉዳዮችን	-5707
▁ኝ	-5708
▁የድርጅቱ	-5709
ወሰዱ	-5710
▁ደጋግ	-5711
▁በከተማዋ	-5712
▁ባሪያ	-5713
▁ኮሪያ	-5714
▁የሚመራው	-5715
▁የኢየሱስ	-5716
▁መሞከር	-5717
▁ይሰራል	-5718
ቀበሉ	-5719
ገናኘ	-5720
▁ማምጣት	-5721
▁ተገቢውን	-5722
▁እንዲሰጥ	-5723
ሹራንስ	-5724
▁ይነገ	-5725
▁የጀ	-5726
ቀርባል	-5727
▁በመደ	-5728
▁እህት	-5729
▁ናቸዉ	-5730
▁በስልጣን	-5731
በኙ	-5732
▁ማረጋገጥ	-5733
ቅለ	-5734
▁በፋ	-5735
ቀርበው	-5736
▁ስለሌ	-5737
▁በአንድነት	-5738
ምየር	-5739
ቼን	-5740
▁ዲግሪ	-5741
▁ብአዴን	-5742
▁ወንድሜ	-5743
▁ውድቅ	-5744
▁ለማምጣት	-5745
▁የሚገቡ	-5746
▁ሀኪም	-5747
▁ልጄ	-5748
▁ሊኖር	-5749
▁ይጠቁ	-5750
▁በሩ	-5751
▁መገር	-5752
▁ይጠይቃል	-5753
▁ቲቪ	-5754
▁ብላችሁ	-5755
▁ያተኮ	-5756
▁አንበሳ	-5757
▁ይሸ	-5758
▁ቢሊየን	-5759
▁ለመንግስት	-5760
▁አስደሳች	-5761
ሙዝ	-5762
ስተማር	-5763
ራፍ	-5764
ረጠ	-5765
እቆብ	-5766
▁በዝር	-5767
▁ዳግ	-5768
▁ፍጥነት	-5769
ርጅ	-5770
ሽታው	-5771
▁የኑሮ	-5772
ኪን	-5773
▁ኩን	-5774
ኦል	-5775
ውሉ	-5776
ጥና	-5777
▁ይኖርባቸዋል	-5778
▁ሽያጭ	-5779
▁ለክ	-5780
▁በዶ	-5781
▁የኮሚ	-5782
▁መገለጫ	-5783
▁ካርድ	-5784
▁ምዝገባ	-5785
▁አትሌቶች	-5786
▁አደረጉ	-5787
ሀድሶ	-5788
▁እንዲያገኙ	-5789
▁ተነግሯል	-5790
ልቃይት	-5791
▁ሰለባ	-5792
ንሰ	-5793
▁ቄሮ	-5794
ብረቱ	-5795
▁ሲቀ	-5796
▁የተላ	-5797
▁የተሸ	-5798
▁ተፈጥ	-5799
▁እማ	-5800
ገለግሉ	-5801
ጫኑ	-5802
ከለኛው	-5803
▁በርካ	-5804
▁ተስማም	-5805
ፍያ	-5806
▁ደርግ	-5807
▁የሚለ	-5808
▁የአንድነት	-5809
▁ጀመሩ	-5810
▁ገፃ	-5811
▁ልቦና	-5812
ካሬ	-5813
▁ተናገረ	-5814
ጣሬ	-5815
▁ዲያ	-5816
▁እንቅልፍ	-5817
▁ተጓ	-5818
▁ኔእ	-5819
▁በዙ	-5820
ክቱ	-5821
▁አልጋ	-5822
▁የአማርኛ	-5823
ማስ	-5824
▁ከነዚህ	-5825
▁ዴን	-5826
▁ክብረ	-5827
▁አጋር	-5828
▁አካባቢው	-5829
▁እንስሳት	-5830
▁የዜና	-5831
▁አገራችን	-5832
ቃጠ	-5833
ኒው	-5834
▁ሌላውን	-5835
▁ያደርጋሉ	-5836
ልቶ	-5837
▁አጥብ	-5838
▁አስቆ	-5839
▁ይገባኛል	-5840
▁ጭምብ	-5841
ከበ	-5842
▁ውህ	-5843
ነኛው	-5844
▁የሚደ	-5845
▁የህብረተሰብ	-5846
▁ባንዲራ	-5847
▁ምስራ	-5848
▁የሞት	-5849
▁ተንቀሳ	-5850
▁ሊቃ	-5851
▁መስማት	-5852
▁አይኖርም	-5853
▁እረፍት	-5854
▁በተለየ	-5855
ፈልገውን	-5856
▁ዘይ	-5857
▁መጥቶ	-5858
▁ኮሚቴው	-5859
▁እንዳይሆን	-5860
▁ደቀ	-5861
ቻችንን	-5862
▁በአዲሱ	-5863
▁ባላቸው	-5864
▁ተጫዋች	-5865
▁ሻምፒዮ	-5866
▁ገፆች	-5867
ፃፀር	-5868
ሽም	-5869
▁አተ	-5870
▁ገበሬ	-5871
▁የኦነግ	-5872
ፈርስ	-5873
ኸው	-5874
ገልፁ	-5875
▁እገዛ	-5876
▁ራሳቸው	-5877
▁ሀውልት	-5878
▁ዘወትር	-5879
ስቀሳ	-5880
▁አድርጌ	-5881
ካቤ	-5882
▁እስራኤላውያን	-5883
ውንና	-5884
▁ጎሳ	-5885
▁በኦሮሞ	-5886
▁ረቡእ	-5887
▁የህዝቡን	-5888
▁ኮከብ	-5889
መከ	-5890
ፊቱ	-5891
▁ምልልስ	-5892
▁ኩንታል	-5893
▁ያነሳሳ	-5894
ስሀ	-5895
▁ከሰማ	-5896
ገነቡ	-5897
▁በህዝ	-5898
▁ማንኛውንም	-5899
▁ቀጥታ	-5900
▁በየነ	-5901
▁ይነሳ	-5902
▁ወጣቱ	-5903
▁ማሳየት	-5904
▁በተቃራኒ	-5905
ባለሁ	-5906
▁አምላክን	-5907
ፀን	-5908
▁ክፍተት	-5909
▁ካሉት	-5910
▁ወንጌ	-5911
▁ኢንጂነር	-5912
▁ከእኔ	-5913
▁አያያዝ	-5914
ተኞቹ	-5915
▁እንደቀ	-5916
▁አክብሮ	-5917
▁አፀ	-5918
▁በሚገኝ	-5919
▁አቀባበል	-5920
▁ተገድ	-5921
▁የሮ	-5922
▁የጃ	-5923
▁ከስልጣን	-5924
▁ክሊ	-5925
▁ፈረንሳይ	-5926
▁ካህ	-5927
▁እራሱን	-5928
▁የሚያሰ	-5929
▁ቀጥሏል	-5930
ጠጥ	-5931
ይአ	-5932
▁በች	-5933
ገነባው	-5934
▁ተጎ	-5935
▁ስኬት	-5936
▁እግዚአብሄርን	-5937
▁ይነገራል	-5938
መልከ	-5939
▁ብረት	-5940
▁ያውቃል	-5941
▁በለው	-5942
ነርሱ	-5943
▁የምስራቅ	-5944
ደረጃ	-5945
▁ጨረ	-5946
▁እስኪያ	-5947
▁አያይ	-5948
▁በብሄራዊ	-5949
▁የሚኖረው	-5950
ጋፍ	-5951
▁ለማስቀ	-5952
መላለ	-5953
▁በመሰ	-5954
▁መቆጣጠር	-5955
▁የቡና	-5956
▁ስድ	-5957
▁ሰላሳ	-5958
ዉሮ	-5959
▁ተቃዋሚዎች	-5960
ቱንና	-5961
▁የሚጠበቅ	-5962
▁እንዲታ	-5963
▁ማደ	-5964
▁ያህ	-5965
▁የድንበር	-5966
▁ፍልስፍና	-5967
▁ውቸ	-5968
▁ከመን	-5969
▁ከሀገር	-5970
ዳይ	-5971
ፈጥር	-5972
▁የራሳቸውን	-5973
ፈሰ	-5974
▁ተሰር	-5975
ከትል	-5976
ጨፈ	-5977
▁ፍቃድ	-5978
▁በተሰ	-5979
▁ሌሎቹ	-5980
▁ድንገት	-5981
▁ውዝግብ	-5982
በሉ	-5983
▁ለኮ	-5984
▁ለመቀበል	-5985
አብ	-5986
▁ኤስ	-5987
▁የኬንያ	-5988
▁አብዮት	-5989
▁ልደቱ	-5990
▁ቱሪዝም	-5991
▁ላለው	-5992
▁ለየት	-5993
▁በደስታ	-5994
▁ይር	-5995
▁በእውነት	-5996
▁ለማስወገድ	-5997
▁ሀምሳ	-5998
▁ከኦሮ	-5999
▁ይጠ	-6000
▁ተሾመ	-6001
▁በእርግጥም	-6002
ቀብ	-6003
ነቃ	-6004
ጠመው	-6005
ቷቸዋል	-6006
▁ጎጃም	-6007
▁ተረጋግ	-6008
▁የቆየው	-6009
▁ውጊያ	-6010
▁ፍል	-6011
ቢኔ	-6012
▁ይገኙበታል	-6013
▁አለሙ	-6014
▁አበባን	-6015
▁የመኪና	-6016
▁የወርቅ	-6017
▁ወሰን	-6018
▁የውድድር	-6019
▁አስፈላጊውን	-6020
▁ትዎ	-6021
▁ሀረር	-6022
▁የአለማችን	-6023
ዙት	-6024
▁ሌሊት	-6025
▁ስኳር	-6026
▁ብዙዎቹ	-6027
ዋርያው	-6028
ገግ	-6029
▁ሀቅ	-6030
ጠይቁ	-6031
ታወስ	-6032
▁ወደብ	-6033
ርባ	-6034
ኳቸው	-6035
▁በአቶ	-6036
▁ተካሂ	-6037
ለየት	-6038
▁በመላ	-6039
▁የእምነት	-6040
ምራ	-6041
ላሚ	-6042
▁የመተ	-6043
▁ጨለማ	-6044
ቹህ	-6045
ግሮ	-6046
▁ተጨባጭ	-6047
ጨበ	-6048
ፕሬ	-6049
ርአት	-6050
ጫን	-6051
▁ፈን	-6052
▁ያስች	-6053
▁ላይክ	-6054
ከባበር	-6055
▁የመቀ	-6056
▁ዮሴፍ	-6057
▁ማስተማር	-6058
▁ፅኑ	-6059
▁ጋዜጣዊ	-6060
ገፍ	-6061
▁በዚያው	-6062
▁አብራርተዋል	-6063
▁እዛ	-6064
▁ትህ	-6065
▁የቀን	-6066
ጋለ	-6067
ታቸዉ	-6068
▁በማሀ	-6069
▁ቢራ	-6070
▁ሚዲያዎች	-6071
▁ማቅረ	-6072
▁ይወስ	-6073
▁ዜናዎች	-6074
ቀቁ	-6075
▁እነርሱም	-6076
ማቅ	-6077
ዋቸው	-6078
ንስሳት	-6079
ዳችን	-6080
ሏት	-6081
▁ለመተ	-6082
ቫል	-6083
▁እስከመ	-6084
▁ከታች	-6085
▁በመቀጠል	-6086
▁ታክሲ	-6087
ከስ	-6088
▁የሌላ	-6089
▁እንቅስቃሴዎች	-6090
ጫወቱ	-6091
▁በጠቅላይ	-6092
▁የጎንደር	-6093
ያያ	-6094
ዋስ	-6095
ዎታል	-6096
ነዉ	-6097
መረጡ	-6098
ፀባረ	-6099
▁የእርሻ	-6100
▁ማንበብ	-6101
▁ጉልበት	-6102
▁አደርጋለሁ	-6103
ቀመጡ	-6104
▁ትንታኔ	-6105
ፈናቀል	-6106
▁የክል	-6107
▁አብዛኛውን	-6108
▁ሀብታ	-6109
▁እኩ	-6110
ረቻ	-6111
▁አሊያም	-6112
መዝገብ	-6113
▁የአስተዳደር	-6114
ረዱት	-6115
▁አሰጣጥ	-6116
▁የሚውል	-6117
▁እንቅፋት	-6118
ድሀኒ	-6119
▁የሚታየው	-6120
▁ፖሊሶች	-6121
ቆማ	-6122
ግበር	-6123
▁በውሀ	-6124
ቾችን	-6125
▁ከምሽቱ	-6126
ስታን	-6127
ቀረቡት	-6128
▁ቀኝ	-6129
▁ከወጣበት	-6130
ፈስያ	-6131
▁ካለፈው	-6132
▁ለረጅም	-6133
▁ሱእ	-6134
▁ኦባማ	-6135
▁ጀነራል	-6136
▁ዘረኝነት	-6137
▁አደረሰ	-6138
▁የብድር	-6139
ካር	-6140
▁ምጣበ	-6141
ረጡ	-6142
▁ይዞታ	-6143
በልጡ	-6144
ለፈ	-6145
▁አድራሻ	-6146
▁ወለጋ	-6147
▁የጀመረ	-6148
▁በጀ	-6149
አያ	-6150
ኮራ	-6151
▁መኪ	-6152
ጣራ	-6153
▁ሬዲዮ	-6154
▁ቆንጆ	-6155
▁ዘመኑ	-6156
▁በመያዝ	-6157
▁የመልካም	-6158
ሚን	-6159
▁አስተላል	-6160
በነልአ	-6161
▁ምረበነልአ	-6162
▁በሰጠው	-6163
▁የመጀመርያ	-6164
▁ይቬ	-6165
ንግዲህ	-6166
▁ዘረኛ	-6167
▁በእርግጠኝነት	-6168
▁ኢዮ	-6169
ዩኒኬሽን	-6170
▁እንዲደርስ	-6171
ጠቀሙበት	-6172
▁ይህንንም	-6173
▁ሀዋ	-6174
▁መች	-6175
▁ተጠናክሮ	-6176
▁ታጣቂዎች	-6177
ራጌ	-6178
▁ይቬርሀ	-6179
ጧቸው	-6180
▁ኮሚሽኑ	-6181
▁ተተ	-6182
ሰቦችን	-6183
▁የተያያዘ	-6184
▁ለመኖር	-6185
ማጭ	-6186
▁ንች	-6187
▁ከልብ	-6188
ስራኤ	-6189
▁መስራች	-6190
▁ረዳት	-6191
▁ተባ	-6192
▁ስኬታማ	-6193
▁ተመራማሪ	-6194
▁ሁኔታው	-6195
▁ርገነ	-6196
▁ቆር	-6197
▁የነበሩትን	-6198
▁ሳሙ	-6199
▁እሺ	-6200
ጨዋታ	-6201
▁በመጪው	-6202
▁አድማስ	-6203
ቶታል	-6204
▁አውቃለሁ	-6205
▁አስተያየቶችን	-6206
▁ለእኛ	-6207
▁በአደባባይ	-6208
▁ስራቸውን	-6209
▁አልቀረ	-6210
▁ታክስ	-6211
▁ምክንያቱ	-6212
▁በሀይ	-6213
▁ነበረች	-6214
ግራም	-6215
▁ሰውየው	-6216
▁የተሰኘው	-6217
▁የተባሉት	-6218
▁ግሩም	-6219
▁በተሻለ	-6220
▁ለይቶ	-6221
ፋሉ	-6222
አቸው	-6223
እም	-6224
▁የተሳሳተ	-6225
▁ይኸውም	-6226
▁ወገኖቻችን	-6227
▁ዳቦ	-6228
▁ይወጣ	-6229
▁በመግለ	-6230
▁የመሳሰሉ	-6231
▁ተጠርጣሪዎች	-6232
ወሰኑ	-6233
▁መላኩ	-6234
▁ስህተ	-6235
▁ኢዜማ	-6236
ሚየ	-6237
▁መቆየ	-6238
▁አብዛኛ	-6239
▁ከትግራይ	-6240
▁ከሞት	-6241
▁የተጠረ	-6242
▁ሚያዚያ	-6243
▁ኮንት	-6244
▁ማድ	-6245
ግድ	-6246
ብንም	-6247
ዚዳንት	-6248
ሙም	-6249
▁ያጣ	-6250
▁ሲገባ	-6251
▁ካላቸው	-6252
▁በጥንቃቄ	-6253
▁እናመሰግና	-6254
▁አዳነ	-6255
▁ሰንደቅ	-6256
▁የሚባሉ	-6257
▁ኒው	-6258
▁ለመግባት	-6259
▁በመጀመሪያው	-6260
▁የሚያደርጉት	-6261
▁ጉድጓ	-6262
▁አውራ	-6263
ከታታይ	-6264
▁የሆኑትን	-6265
▁መስዋእትነት	-6266
▁ታላላቅ	-6267
መራው	-6268
▁በመሄድ	-6269
ላቀል	-6270
ካኔ	-6271
▁ከአሜሪካ	-6272
ሎምፒክ	-6273
▁እንስሳ	-6274
ንጎ	-6275
▁መመልከት	-6276
▁እየታየ	-6277
▁አሽ	-6278
ስቦ	-6279
ላፕ	-6280
▁የአእምሮ	-6281
▁ተወላጅ	-6282
▁ገዱ	-6283
▁ማድረጉ	-6284
▁የገቡ	-6285
ሲብ	-6286
መጣም	-6287
ፋቸውን	-6288
ሊቲ	-6289
ገሰ	-6290
ፋፋት	-6291
▁መቀነስ	-6292
▁ከሚገኙ	-6293
ደራጁ	-6294
▁ለደ	-6295
ጠናቀቁ	-6296
▁የፖሊ	-6297
▁መታሰቢያ	-6298
▁ኩባንያው	-6299
ጠበቀው	-6300
▁በቀል	-6301
ረሻ	-6302
▁ህጎች	-6303
▁አይነቶች	-6304
ፅህና	-6305
▁ለኔ	-6306
ካው	-6307
▁የልብ	-6308
▁በማእ	-6309
▁የአስ	-6310
▁የሚያስች	-6311
ቀሳቀስ	-6312
▁ገልፆ	-6313
▁ዜማ	-6314
▁በሱዳን	-6315
▁የበኩ	-6316
▁እንደሆን	-6317
▁መንግስትም	-6318
ዳድ	-6319
▁ቢቢሲ	-6320
▁ይኖርብናል	-6321
▁ነክ	-6322
▁የአገሪቱን	-6323
▁መገርሳ	-6324
ይይቱ	-6325
▁የአመራ	-6326
▁ከአማራ	-6327
ፐብሊክ	-6328
▁የአት	-6329
▁ሲሉም	-6330
▁ሙስሊም	-6331
▁ገነት	-6332
ስል	-6333
▁ከዛሬ	-6334
▁የምርምር	-6335
▁የወጡ	-6336
▁ጤናማ	-6337
▁ማሀበራት	-6338
ቃቸውን	-6339
▁የሶስት	-6340
▁የታወቀ	-6341
ቸዋለሁ	-6342
▁ሟ	-6343
▁በጥሩ	-6344
ላችይ	-6345
▁የተሻ	-6346
▁ጥንታዊ	-6347
▁የኢፌዴሪ	-6348
▁የትግል	-6349
▁ለመግዛት	-6350
▁ለች	-6351
▁ንፁሀን	-6352
▁የተሰማሩ	-6353
▁የሙያ	-6354
▁መደብ	-6355
▁ካፒታል	-6356
ታቸውም	-6357
ከፈል	-6358
▁ጣቢያዎች	-6359
▁ግጭቶች	-6360
▁ድህ	-6361
▁የቅድ	-6362
ቋሚ	-6363
▁ብሮድካ	-6364
▁አስተማማኝ	-6365
▁ለማሳየት	-6366
ቁሟል	-6367
▁በዝርዝር	-6368
ጫሉ	-6369
▁የምርት	-6370
▁ያስታው	-6371
▁የኮሮናቫይረስ	-6372
▁ከሁሉ	-6373
▁ከጉ	-6374
▁የጅ	-6375
▁እናቴ	-6376
ራፊክ	-6377
▁ጋራ	-6378
▁ግፊት	-6379
▁ፕሬስ	-6380
ውያንን	-6381
▁መላው	-6382
ቆጠር	-6383
ባልም	-6384
▁በአዋ	-6385
▁ፕሬዝደንት	-6386
▁አዳማ	-6387
ምራል	-6388
ቆመ	-6389
ንጋ	-6390
▁ትፊ	-6391
▁ከአገር	-6392
ቃጠል	-6393
▁ተወያይ	-6394
በበ	-6395
▁እንደው	-6396
▁ንድ	-6397
▁ትፊበ	-6398
▁ውር	-6399
▁ለማጠናከር	-6400
▁ሁሴን	-6401
▁ይዛ	-6402
ረጋግጥ	-6403
▁የተፈጠረው	-6404
▁የከፈ	-6405
▁ጥሰት	-6406
▁ገብተዋል	-6407
▁ቀድ	-6408
▁ተረት	-6409
ኳስ	-6410
ደሮች	-6411
ላችሁም	-6412
ማም	-6413
▁እንደነ	-6414
▁ለመርዳት	-6415
▁አልቻል	-6416
ጠቀምበት	-6417
▁በመግባት	-6418
▁አደሩ	-6419
▁በስነ	-6420
▁በተባለው	-6421
▁ለህዝቡ	-6422
▁እናመሰግናለን	-6423
▁የዛ	-6424
ፈቻ	-6425
▁ብፁ	-6426
▁እነርሱ	-6427
▁ምጣኔ	-6428
▁ጉል	-6429
▁በግብፅ	-6430
ስያ	-6431
ትመት	-6432
▁አክሲ	-6433
▁ጨዋታው	-6434
ባኤው	-6435
▁ስርአቱን	-6436
▁የደረሰው	-6437
▁ሞገስ	-6438
▁ለነገሩ	-6439
▁ለሌላ	-6440
▁ዮና	-6441
▁ስፖር	-6442
▁የሚጠቀ	-6443
ርተው	-6444
▁ያክል	-6445
▁ንግስት	-6446
ግስ	-6447
▁አስመ	-6448
▁በየትኛውም	-6449
▁በረራ	-6450
▁በየእ	-6451
ሪነት	-6452
▁እናስ	-6453
ፋይ	-6454
▁እጥፍ	-6455
▁ወፍ	-6456
▁እንዲደረግ	-6457
▁በረዶ	-6458
▁ሀዋሳ	-6459
▁ሳህ	-6460
ሪታንያ	-6461
▁ልውው	-6462
▁ለመግለፅ	-6463
▁የሀገሪቱን	-6464
▁ትንሳኤ	-6465
▁በማህበራዊ	-6466
ፍለ	-6467
▁መአ	-6468
▁ፓርቲው	-6469
▁ተገኘ	-6470
▁ልጆችን	-6471
ፎካካሪ	-6472
▁አምልኮ	-6473
▁እንጀራ	-6474
ላልቅ	-6475
ዩብ	-6476
▁በጋዜ	-6477
▁ቀርበው	-6478
ቴር	-6479
ሪቱ	-6480
ካዊ	-6481
▁የመብት	-6482
ጆቻቸው	-6483
▁አብረ	-6484
ላፊነት	-6485
▁ሀዋርያው	-6486
▁አደረጃጀት	-6487
ብቃ	-6488
▁እንዳን	-6489
▁በደም	-6490
ያተ	-6491
▁የሽግግር	-6492
ቲያ	-6493
▁የተገኙ	-6494
▁ያስረዳሉ	-6495
▁ማረሚያ	-6496
▁ስለዚህም	-6497
ውያ	-6498
▁ለዶ	-6499
ሯን	-6500
▁ያረ	-6501
▁ሶማሌ	-6502
▁ከብዙ	-6503
▁በዚያን	-6504
▁ከአምስት	-6505
▁አረንጓዴ	-6506
▁ስው	-6507
▁እለ	-6508
ፍሮ	-6509
▁ግንብ	-6510
▁ለዘመናት	-6511
▁አይታ	-6512
ኦት	-6513
▁እፅ	-6514
▁በወያኔ	-6515
▁እንዲተ	-6516
ዮሽ	-6517
ስልጣ	-6518
ራትና	-6519
ለችው	-6520
▁መርከ	-6521
ሶን	-6522
▁የአው	-6523
▁ጥገና	-6524
▁የውጪ	-6525
ደውን	-6526
▁አምራች	-6527
▁መድረሱን	-6528
▁ሰፋ	-6529
▁ባለመብት	-6530
▁ሴቶችን	-6531
ገተኛ	-6532
▁ህግን	-6533
▁ይገባዋል	-6534
ሀራ	-6535
▁እዝ	-6536
▁ለመቅረ	-6537
▁ኢትዮጵያና	-6538
ሾቹ	-6539
▁ስንል	-6540
▁የከተማዋ	-6541
▁ገዳይ	-6542
▁በተከሰ	-6543
ልልቅ	-6544
▁ለእናንተ	-6545
▁በመፍጠር	-6546
ሪያም	-6547
ሽታ	-6548
▁ጫፍ	-6549
▁እንደነበሩ	-6550
▁ለመታ	-6551
▁ይሄው	-6552
ዙን	-6553
▁የጠየ	-6554
▁የኢንቨስትመንት	-6555
▁በጣ	-6556
ደለው	-6557
▁አክቲቪ	-6558
▁ያገኙ	-6559
▁ፕሬዚደንት	-6560
▁የተደ	-6561
▁አስከፊ	-6562
▁ትእግስት	-6563
▁ለመን	-6564
▁እሚ	-6565
▁ሌላኛው	-6566
▁ከር	-6567
▁ስቃ	-6568
▁ተወዳጅ	-6569
▁ቅፅ	-6570
▁በቻይና	-6571
▁ለሁለ	-6572
▁መንግስቱን	-6573
ጐች	-6574
▁የህገ	-6575
▁ለሚገኙ	-6576
▁መፅሀፉ	-6577
▁ሳጥን	-6578
▁እንዷ	-6579
▁ሙዚ	-6580
ፈፀሙት	-6581
▁ሞክ	-6582
▁እርሱም	-6583
▁መጥተው	-6584
▁ሲወ	-6585
▁በሰማይ	-6586
▁ምግ	-6587
▁ሽመልስ	-6588
▁አርበኞች	-6589
▁ልማትና	-6590
▁እንደሚቻል	-6591
ነታችንን	-6592
▁ወዳጄ	-6593
▁አለምን	-6594
▁ያየ	-6595
ሚየር	-6596
▁ረዳ	-6597
▁በሙስና	-6598
ወያየት	-6599
በረታታ	-6600
▁ይካሄ	-6601
▁ዌ	-6602
ጠበቂያ	-6603
ንቃ	-6604
▁መመርያ	-6605
ምኛ	-6606
▁አንገ	-6607
▁ለመጠቀም	-6608
ዘና	-6609
▁ተስ	-6610
▁ተለ	-6611
▁መፀ	-6612
▁ከቅ	-6613
▁በግድ	-6614
ካፈል	-6615
▁አሮ	-6616
▁አብዮታዊ	-6617
ልቀት	-6618
ፈቅ	-6619
▁መሰና	-6620
▁በእግር	-6621
▁በመር	-6622
▁አላት	-6623
ራለች	-6624
ለያይ	-6625
▁ፈለ	-6626
▁ፈረን	-6627
ጎዱ	-6628
▁ማስገባት	-6629
▁መጀመርያ	-6630
▁ባለሞ	-6631
▁ማለቱ	-6632
▁ተንታ	-6633
▁በተፈጥሮ	-6634
▁የሙስና	-6635
▁አንዳች	-6636
▁ጥረ	-6637
▁የፈጠራ	-6638
▁ወራ	-6639
ኒሻንጉል	-6640
▁የስደተኞች	-6641
መለከቱት	-6642
▁በአካል	-6643
ፍቱ	-6644
ኙን	-6645
▁አንጋ	-6646
ውያኑ	-6647
ትሮ	-6648
▁አበራ	-6649
▁መገንባት	-6650
ለቀቁ	-6651
▁በመጣ	-6652
ላሳ	-6653
▁ውሻ	-6654
▁የብልፅግና	-6655
▁ለቢ	-6656
▁አዝና	-6657
▁ኪራይ	-6658
▁የማህበራዊ	-6659
ኦኤ	-6660
▁እንደውም	-6661
▁መደረጉን	-6662
▁በመጥቀስ	-6663
▁የቅዱስ	-6664
ኞቹን	-6665
▁ጥቂ	-6666
▁አባላትን	-6667
▁ምሁር	-6668
▁ፌስቡክ	-6669
ስትያን	-6670
▁ወዴት	-6671
ጀመሩት	-6672
ሟሉ	-6673
▁አቅራቢ	-6674
▁ዘመናት	-6675
ሌክትሮ	-6676
▁አጠገብ	-6677
▁ያበ	-6678
▁ሳንቲ	-6679
▁ለሶስት	-6680
ጓጓ	-6681
▁በአንፃሩ	-6682
▁ስዊ	-6683
▁የወንድ	-6684
▁ጮ	-6685
ዘነጋ	-6686
መናን	-6687
▁ክትባት	-6688
▁ፈረ	-6689
▁ታማኝነት	-6690
ኝታ	-6691
▁ቦታው	-6692
▁ኤልያስ	-6693
ጥሎ	-6694
▁ወንበር	-6695
▁ጠቅሰዋል	-6696
ራዊት	-6697
▁አዛዥ	-6698
▁ስታዲየም	-6699
ደረሱ	-6700
▁አይቀ	-6701
▁ፖለቲከኛ	-6702
ጨመር	-6703
▁ውድድሮች	-6704
▁ቋንቋዎች	-6705
▁ዳርቻ	-6706
▁ያቀረቡት	-6707
ብቶ	-6708
▁የአም	-6709
▁ተመዝግ	-6710
▁እንዲወጡ	-6711
ሳእ	-6712
ፈፅም	-6713
▁በተገኙበት	-6714
ቴክ	-6715
ኖርበት	-6716
▁ለመጥ	-6717
▁ከትናንት	-6718
ስተን	-6719
▁ድሀ	-6720
▁የተመ	-6721
▁ተሽከርካሪዎች	-6722
▁ኪሳራ	-6723
▁በቤት	-6724
▁ተፈፅ	-6725
▁ታይቶ	-6726
▁በዜ	-6727
▁የተረ	-6728
▁እያደገ	-6729
ክሎ	-6730
▁መጠለያ	-6731
▁አማራን	-6732
▁ቅስቀሳ	-6733
▁የመኖር	-6734
▁ይሰጣ	-6735
▁ብዙውን	-6736
▁ደሀንነት	-6737
▁አድዋ	-6738
▁ማስተዋል	-6739
ታትን	-6740
▁ዲዛ	-6741
▁ህልም	-6742
ጭሩ	-6743
▁ካም	-6744
▁ከድር	-6745
▁ውበት	-6746
ሽከርካሪ	-6747
▁ድክ	-6748
ሯንዳ	-6749
▁ሶስቱ	-6750
▁መጠጥ	-6751
▁ሰርቶ	-6752
▁ተሽከርካሪ	-6753
▁አክራሪ	-6754
▁ለማድረስ	-6755
▁ጆን	-6756
▁በአካባቢ	-6757
▁ይኖረዋል	-6758
▁ስፔ	-6759
▁የዱ	-6760
▁ያቀረበ	-6761
ፕራይ	-6762
▁ቀልድ	-6763
▁የዘረ	-6764
▁ወጣቶችን	-6765
ጀው	-6766
ላቀሉ	-6767
▁ሽግግር	-6768
ፈራረ	-6769
▁ለማዳ	-6770
▁ቅርስ	-6771
▁ጉሙዝ	-6772
▁በእርስ	-6773
ቺን	-6774
ያዩ	-6775
ፊል	-6776
ስቲክ	-6777
▁ሰውነት	-6778
▁አትችልም	-6779
▁ያገኛ	-6780
እዝ	-6781
▁የሚዲያ	-6782
▁ጠቀሜታ	-6783
▁በፍርድ	-6784
▁ነበረው	-6785
▁ጥብቅ	-6786
ናቸውም	-6787
ሰቡን	-6788
▁አሉታዊ	-6789
▁በዝግ	-6790
▁የሚመጡ	-6791
▁ማድረጉን	-6792
▁ግድቡ	-6793
▁በመቃወም	-6794
▁አገልግሎቶች	-6795
▁ባለሙ	-6796
ባቱ	-6797
▁አዳም	-6798
▁ወዳድ	-6799
▁በንግድ	-6800
ከተሉ	-6801
▁ይግባ	-6802
▁ከፀ	-6803
▁ከአፍሪካ	-6804
ዘጋጃ	-6805
▁ሞተ	-6806
▁በሰፊው	-6807
ባለን	-6808
▁የዉ	-6809
▁የምንችለው	-6810
ኝና	-6811
▁በእሳት	-6812
▁ተደራጅ	-6813
መህ	-6814
ለቁ	-6815
▁እንክብ	-6816
▁ስቴት	-6817
▁ሲሰራ	-6818
▁የኢንተርኔት	-6819
▁የማት	-6820
ለችም	-6821
▁ብና	-6822
ገናኘት	-6823
▁ወስዶ	-6824
▁በፖሊስ	-6825
▁የትኛው	-6826
አድ	-6827
▁የእድሜ	-6828
▁ጀምሯል	-6829
▁እናደርጋ	-6830
ቃችሁ	-6831
▁ፊደል	-6832
ነገረው	-6833
▁ተጀመረ	-6834
▁የበጀት	-6835
ሬቻ	-6836
ኗኗ	-6837
▁ማቀ	-6838
▁ርምጃ	-6839
▁ደህን	-6840
▁የደን	-6841
ሊድ	-6842
▁የሄ	-6843
▁የፈረ	-6844
ኑር	-6845
▁ፋይዳ	-6846
▁ይዘን	-6847
ጣችሁ	-6848
▁ባህርዳር	-6849
▁አልፏል	-6850
▁ውጥረት	-6851
ያያዙ	-6852
▁ለዛ	-6853
▁ጨርሶ	-6854
▁የሚያስችሉ	-6855
▁ነቢ	-6856
▁ብቃ	-6857
▁ማውጣት	-6858
▁በዘርፉ	-6859
▁እንደሚያሳ	-6860
▁በኢትዮ	-6861
▁ኮሎኔል	-6862
ዎቻቸውን	-6863
▁ሲሳይ	-6864
▁ገለልተኛ	-6865
▁ተነገረ	-6866
▁የፓርቲው	-6867
▁አብቅ	-6868
ኡስ	-6869
▁ማለፍ	-6870
▁ኢንስቲት	-6871
▁በያ	-6872
▁ከኤርትራ	-6873
ሶቹ	-6874
ቴል	-6875
▁የተዘ	-6876
▁ከአራት	-6877
▁እንዳላ	-6878
ታወቅም	-6879
▁አውደ	-6880
▁የማንነት	-6881
ጨለማ	-6882
ቦር	-6883
▁በመደገፍ	-6884
ፋቱ	-6885
▁የመጨረሻው	-6886
▁ለቤት	-6887
▁ከማስ	-6888
ዳችሁ	-6889
▁የተነ	-6890
እለ	-6891
▁ገድ	-6892
▁የፓርላማ	-6893
ክለው	-6894
▁የታገ	-6895
▁የገባው	-6896
▁ለአመታት	-6897
▁የእሳት	-6898
▁ለማካሄድ	-6899
▁ኮንግ	-6900
▁የከፍተኛ	-6901
▁የሚናገሩት	-6902
ፈጥ	-6903
▁ፓትርያ	-6904
▁ወደኋላ	-6905
ጣዊ	-6906
▁እባካችሁ	-6907
▁እሸ	-6908
▁በለ	-6909
▁አነሳ	-6910
▁ለአምላክ	-6911
▁በገዛ	-6912
▁ያሬድ	-6913
▁ፌደራ	-6914
▁አቤ	-6915
ከፈት	-6916
▁ካሜ	-6917
ባቸዉ	-6918
ተራ	-6919
ፀል	-6920
በላሸ	-6921
▁ሂደቱ	-6922
▁እንደምታ	-6923
▁አቦ	-6924
ይሳ	-6925
▁ፍላጐ	-6926
▁የቴክኖሎጂ	-6927
▁ሰሚ	-6928
▁እምቢ	-6929
ዛቸውን	-6930
▁ድልድ	-6931
▁ጠፍ	-6932
▁በህገወጥ	-6933
▁ጢ	-6934
▁የሶማሌ	-6935
▁ጥንካሬ	-6936
▁አገልጋይ	-6937
▁ከእንግዲህ	-6938
▁ትዳር	-6939
▁እንደታ	-6940
▁አቅርቧል	-6941
▁የሚፈልገው	-6942
ራሹ	-6943
▁ስብሀት	-6944
▁ከተባለ	-6945
▁የገጠር	-6946
▁ኩር	-6947
▁መምጣት	-6948
▁የሀሳብ	-6949
▁ድብደባ	-6950
▁በግፍ	-6951
▁ባለድርሻ	-6952
▁ቁጣ	-6953
ታወቁት	-6954
▁የፎቶው	-6955
ለሁም	-6956
▁ማስታወሻ	-6957
ክተሮች	-6958
▁ያሳዝ	-6959
▁ዝርዝ	-6960
▁ሀይቅ	-6961
▁ቁጥራቸው	-6962
▁ነብ	-6963
▁ጃን	-6964
▁የመሰረተ	-6965
▁የሰጡ	-6966
▁ተከሳሽ	-6967
▁ለውጭ	-6968
▁አሰቃቂ	-6969
▁ሊታ	-6970
▁ሰሞን	-6971
▁ሲደረግ	-6972
ከተለ	-6973
▁ረድ	-6974
▁ጋዜጠ	-6975
ፈልጋቸው	-6976
ቸር	-6977
▁በአሉ	-6978
▁ታውቃ	-6979
▁ወንጀለ	-6980
▁እህል	-6981
▁ለማሳካት	-6982
▁መት	-6983
▁አይመስልም	-6984
ክሉ	-6985
ኖረን	-6986
▁አሳልፎ	-6987
ፈቅድ	-6988
▁ስለመሆኑ	-6989
ቆዩ	-6990
▁በህዝቡ	-6991
ሰራም	-6992
▁አልቀረም	-6993
▁ይዩ	-6994
▁ከንቱ	-6995
▁በምትኩ	-6996
▁በመውሰድ	-6997
▁ቢሆኑ	-6998
▁የጥላቻ	-6999
▁ማእከ	-7000
▁የተጀመረ	-7001
ረተው	-7002
▁ጠየቀ	-7003
▁በምንም	-7004
ራስ	-7005
▁ይከፈ	-7006
▁ድህነት	-7007
▁የሚደር	-7008
ደረሰባቸው	-7009
▁መታየት	-7010
ችኋለሁ	-7011
▁ቆሞ	-7012
▁ያገኘነው	-7013
የስ	-7014
▁ተመልሶ	-7015
ቦቹ	-7016
▁አስተና	-7017
▁መስፈርት	-7018
ቭል	-7019
▁ሄደው	-7020
▁ሹመት	-7021
▁ለአማራ	-7022
▁ጩኸ	-7023
▁ማቆም	-7024
ፁን	-7025
መናል	-7026
ንግል	-7027
▁ሲተ	-7028
ኮችን	-7029
▁እያል	-7030
▁የአብ	-7031
▁ኮማ	-7032
ሚንቶ	-7033
▁ለአገር	-7034
▁ይፈልጋ	-7035
▁ሶስተኛው	-7036
ድርግ	-7037
ሀሳስ	-7038
▁ሶማሊያ	-7039
ለመደው	-7040
▁አርአያ	-7041
▁በነበሩ	-7042
▁ቆይተዋል	-7043
ክልና	-7044
▁መረራ	-7045
▁በጥቂት	-7046
ደላ	-7047
▁ፍር	-7048
ቅዶ	-7049
▁ባቡር	-7050
▁ንት	-7051
▁ፋንታ	-7052
▁ቀርቧል	-7053
▁ተቀብሎ	-7054
▁ተገኝተው	-7055
▁ያደርገዋል	-7056
▁ጎራ	-7057
▁እንዲሰጡ	-7058
▁ኤፍሬም	-7059
▁አሞ	-7060
▁እንዲቀጥል	-7061
▁ተናጋሪ	-7062
▁ጠቁመው	-7063
▁በወቅታዊ	-7064
ገራችሁ	-7065
▁አቁ	-7066
▁ለይሆዋ	-7067
ልጠና	-7068
▁ለባለ	-7069
▁ቀንድ	-7070
▁የሌሎች	-7071
▁ዚ	-7072
ኩረት	-7073
ዲዮውን	-7074
▁ለኤ	-7075
▁ማወ	-7076
ሚያስ	-7077
▁ይነ	-7078
▁የአስተ	-7079
▁እባክ	-7080
▁ሲናገሩ	-7081
ቀቀ	-7082
▁በሻ	-7083
ፈንቅለ	-7084
ቀሩ	-7085
ጀርባ	-7086
ልፉ	-7087
▁የመነ	-7088
▁አገልጋዮች	-7089
ዱም	-7090
▁የእነ	-7091
ብኛል	-7092
▁የጎሳ	-7093
▁ለአፍሪካ	-7094
ዲሁ	-7095
▁ዞኖች	-7096
▁ቅኝ	-7097
▁አስታ	-7098
▁የእጅ	-7099
ገሪቷ	-7100
▁ይዟል	-7101
▁በኢኮኖሚ	-7102
▁የሂሳብ	-7103
▁የሳይንስ	-7104
▁የዩኒቨርሲቲ	-7105
▁የተን	-7106
▁ጀዋር	-7107
▁ውጤቱ	-7108
▁ይገር	-7109
▁መሆኗን	-7110
ልባ	-7111
ወለድ	-7112
▁ፕሪምየር	-7113
▁ተሳታፊዎች	-7114
ዎችንና	-7115
▁ግብዣ	-7116
▁ጥናቶች	-7117
ምነው	-7118
▁ጥያቄው	-7119
▁አብን	-7120
▁ምኞት	-7121
▁ወዲያውኑ	-7122
ረቤ	-7123
ዶም	-7124
▁ባት	-7125
▁በርግጥ	-7126
▁ከሰሞኑ	-7127
▁ሲነፃፀር	-7128
▁መረብ	-7129
▁ጥይት	-7130
▁ሳሙኤል	-7131
▁በእነ	-7132
▁ከተማዋ	-7133
▁አውዲዮውን	-7134
▁ቢዝነስ	-7135
▁የህዝብን	-7136
▁ባላባ	-7137
▁እችላ	-7138
▁ለመውሰድ	-7139
▁ይካሄዳል	-7140
ፈላጊ	-7141
▁በተባለ	-7142
ዚያን	-7143
ዋቱ	-7144
▁አነ	-7145
▁በሱ	-7146
▁በክልል	-7147
▁ይጥ	-7148
ነቷ	-7149
▁የሚጠይቅ	-7150
▁እናደርጋለን	-7151
ፈሉ	-7152
▁ልማድ	-7153
ቶቻቸውን	-7154
▁ይኖራሉ	-7155
▁የመፍትሄ	-7156
▁ፖስት	-7157
▁ካንሰር	-7158
▁ህመ	-7159
▁ይም	-7160
▁ፕሮግራሞች	-7161
ማችሁ	-7162
▁ለሽ	-7163
▁ፓር	-7164
▁ያገለ	-7165
▁ጠይቋል	-7166
▁ለመፈፀም	-7167
▁እወዳ	-7168
ለትም	-7169
▁አትሌቲክስ	-7170
▁የኮቪድ	-7171
ገፋ	-7172
▁የወደፊት	-7173
▁የሚቻል	-7174
▁ይጀምራል	-7175
ከና	-7176
ቀደው	-7177
▁አጎ	-7178
▁አፍቃ	-7179
▁የተካሄደው	-7180
ለፉ	-7181
ቋር	-7182
▁የነገ	-7183
ደና	-7184
▁ያለዉ	-7185
▁ያስረዳል	-7186
▁ፎቅ	-7187
▁ልጆቹ	-7188
▁ከሁለ	-7189
▁የግን	-7190
ላቸዉ	-7191
▁ነባ	-7192
▁ስለሆኑ	-7193
▁ልደት	-7194
መዘገበ	-7195
▁ይፈልጋሉ	-7196
ሩትን	-7197
▁ያደረግ	-7198
▁እንዲሰሩ	-7199
▁ቀለ	-7200
▁ጥሎ	-7201
▁ፍራን	-7202
▁መጠይ	-7203
▁ኮንስት	-7204
▁ማሞ	-7205
▁ለወደ	-7206
▁መጥቷል	-7207
ሞክር	-7208
▁አንበ	-7209
▁ሀሰተኛ	-7210
▁ለመም	-7211
▁ገመ	-7212
ነጋገ	-7213
▁ባር	-7214
ሰባቸው	-7215
▁አዝማ	-7216
▁ህፃናትን	-7217
ሮት	-7218
▁በፕሮ	-7219
▁እልቂት	-7220
▁መቸ	-7221
▁ስማቸው	-7222
ሰጥም	-7223
ድሞው	-7224
▁የታላቁ	-7225
▁መረጋጋት	-7226
▁የምለው	-7227
ቴዎስ	-7228
▁ብየ	-7229
▁የስልክ	-7230
▁ይህች	-7231
▁ችለዋል	-7232
▁በየእለቱ	-7233
▁ከደቡብ	-7234
▁ርዝ	-7235
▁ወዲያ	-7236
▁እንደዘ	-7237
▁ፍርሀት	-7238
▁በእስራኤል	-7239
▁መርማሪ	-7240
▁የለንም	-7241
▁እንደሚከተለው	-7242
▁በኔ	-7243
▁በነበረበት	-7244
ሞቹ	-7245
▁የሚነ	-7246
▁ዝውውር	-7247
▁መፍታት	-7248
ጊዜም	-7249
▁ኮሜ	-7250
▁ተባብ	-7251
▁ሀገራቸው	-7252
▁መነሳ	-7253
▁ተቀና	-7254
▁የዛሬው	-7255
▁ለመሸ	-7256
ገኛለን	-7257
▁ላለመ	-7258
▁መቆም	-7259
▁ሳይሆኑ	-7260
▁ወጥተው	-7261
▁የባቡር	-7262
▁የድጋፍ	-7263
▁የሀሰት	-7264
▁ቢስ	-7265
▁ትርጉ	-7266
▁እንደማያ	-7267
ቋም	-7268
▁አስራት	-7269
ምጭ	-7270
ፆታ	-7271
▁ህዝበ	-7272
▁የሚደርሱ	-7273
ተፍ	-7274
ፍራት	-7275
▁የታየ	-7276
▁በእርሱ	-7277
▁ለመድረስ	-7278
▁ከወዲሁ	-7279
▁መደረግ	-7280
ማሌ	-7281
ሰየ	-7282
ጉል	-7283
ገደለ	-7284
▁ድርቅ	-7285
▁እናውቃለን	-7286
▁ዋነኛው	-7287
ረኝ	-7288
▁ፋብሪካዎች	-7289
▁በፌዴራል	-7290
▁በሀይማኖት	-7291
▁የሆነችው	-7292
እድ	-7293
▁በግለ	-7294
▁ሀር	-7295
▁ለመላው	-7296
ጤት	-7297
▁በእድሜ	-7298
▁የመግ	-7299
ሪያል	-7300
▁ብስ	-7301
▁የህፃናት	-7302
▁የፈረንሳይ	-7303
▁አልገባ	-7304
▁ሲኖዶስ	-7305
▁የሰለጠነ	-7306
▁ከመሆኑ	-7307
▁ጠፋ	-7308
ሯዊ	-7309
ሳቱ	-7310
▁ከሙ	-7311
▁ብላለች	-7312
▁የአይን	-7313
▁ስርአትን	-7314
▁ከአምላክ	-7315
▁የዴሞክራሲ	-7316
▁አድርጐ	-7317
ግቡ	-7318
ጠቅላላ	-7319
▁የከተማው	-7320
▁ጥናቱ	-7321
▁ዘዴዎች	-7322
▁ከህወሀት	-7323
▁ከጋ	-7324
▁እራስ	-7325
▁ቴሌኮም	-7326
▁አበይት	-7327
▁እጁን	-7328
▁ተረድ	-7329
ስፋፋት	-7330
▁መንፈ	-7331
▁ተጠቃሚዎች	-7332
▁ዜጎ	-7333
▁ለመቆየት	-7334
ሊስት	-7335
▁ሀሀሀ	-7336
ደኝነት	-7337
▁የጥፋት	-7338
▁ጋዜጣው	-7339
▁ወያኔን	-7340
▁በሁለተኛው	-7341
▁ለአን	-7342
▁በአየር	-7343
▁ጠንቅ	-7344
ከበሩ	-7345
▁ሲያደርግ	-7346
ገናል	-7347
ጨር	-7348
▁መገን	-7349
▁ማሰል	-7350
▁በኬንያ	-7351
▁ሻምፒዮና	-7352
▁እውነትን	-7353
ስተናገድ	-7354
▁የጠበቀ	-7355
ካተቱ	-7356
▁እያየ	-7357
ለቆ	-7358
▁ስብሰባዎች	-7359
ድድሩ	-7360
ስትራሊያ	-7361
▁በሴቶች	-7362
▁ቦሌ	-7363
▁ከገባ	-7364
▁የምድር	-7365
▁ይጫኑ	-7366
▁መጀመሩን	-7367
▁የዚህን	-7368
▁ኮንስትራክሽን	-7369
▁ያቀረበው	-7370
ሂም	-7371
▁ምልክቶች	-7372
ሊስ	-7373
ስቲንግ	-7374
▁በወጣ	-7375
▁ማእረግ	-7376
▁የሴት	-7377
▁ባይሆን	-7378
▁በመንፈስ	-7379
ሮችና	-7380
▁ይለኛል	-7381
▁የሚቆጠር	-7382
▁የሚችሉት	-7383
እክት	-7384
▁ትም	-7385
▁ለማጋ	-7386
▁የሚታዩ	-7387
▁ቤን	-7388
▁የሌለ	-7389
▁የስኳር	-7390
▁ጠቅሰው	-7391
▁ሲናገር	-7392
▁መግለጫው	-7393
▁ይልቁንም	-7394
▁ጥያቄዎችን	-7395
▁በመሰረ	-7396
ሻውን	-7397
▁የሀይ	-7398
▁ገብር	-7399
▁ከሌላ	-7400
▁እችላለሁ	-7401
▁ከነማ	-7402
▁ፕላን	-7403
ደራደር	-7404
▁መካከለኛ	-7405
▁ታጋይ	-7406
▁የከተ	-7407
ስብስብ	-7408
▁ፈላጊ	-7409
▁ተከሳሾች	-7410
▁ተመልክቷል	-7411
ቆጠሩ	-7412
▁ጥሬ	-7413
▁በአም	-7414
▁ፈንድ	-7415
▁አስደን	-7416
ሳይያስ	-7417
መረጥ	-7418
▁ተጠቅሞ	-7419
▁በሴ	-7420
ዘርላንድ	-7421
▁ላሉ	-7422
▁ገጥ	-7423
▁ስለአ	-7424
▁ሙስሊሞች	-7425
ያያዥ	-7426
ጀመርያው	-7427
▁በከፊል	-7428
▁እንክብካቤ	-7429
ችና	-7430
ሙበት	-7431
▁የወን	-7432
▁ጠብቆ	-7433
▁ጦርነቱ	-7434
▁የሚያስከት	-7435
ባችንን	-7436
▁አልቻሉም	-7437
ካከል	-7438
ኖሩም	-7439
▁መቀየር	-7440
▁ዳኞች	-7441
▁መንበር	-7442
▁ሲያደርጉ	-7443
▁ማግስት	-7444
ሽው	-7445
▁አብያተ	-7446
▁ለመቅረፍ	-7447
▁ተፈናቃ	-7448
ናፍ	-7449
▁የሚገልፅ	-7450
▁ከኦ	-7451
ክንያ	-7452
▁የጌ	-7453
▁ከዚሁ	-7454
ኩትን	-7455
▁የተናገረው	-7456
ቃብር	-7457
▁በመባል	-7458
ቃለች	-7459
▁ምላ	-7460
▁ልያ	-7461
ሽና	-7462
ፍክ	-7463
▁መጠቀ	-7464
▁የመንግስ	-7465
▁ከማድረግ	-7466
ዳኝ	-7467
ድረው	-7468
▁ህዝብና	-7469
▁የሰዎች	-7470
ሰሰ	-7471
ቻው	-7472
▁ለገበያ	-7473
▁ከጀመረ	-7474
▁ለሆኑ	-7475
ጋብ	-7476
▁የጥበብ	-7477
ዚል	-7478
ባበቅ	-7479
▁መዝሙ	-7480
▁ፍጡ	-7481
▁ገቡ	-7482
▁ተግዳ	-7483
▁ኔት	-7484
▁በአው	-7485
▁የሚታወስ	-7486
ንዲ	-7487
▁ተቋሙ	-7488
▁የንጉ	-7489
▁አስመራ	-7490
▁ትንቢት	-7491
▁ፅፏል	-7492
▁ለህግ	-7493
▁መጨመር	-7494
▁ተሰምቷል	-7495
ጎም	-7496
▁ከምት	-7497
▁ዘርፉ	-7498
▁ባሉበት	-7499
▁ሜይ	-7500
▁ዶሮ	-7501
▁በማድረ	-7502
ንግሊ	-7503
▁የኖረ	-7504
▁አስከባሪ	-7505
▁ደንበኞች	-7506
▁እንደሚያደርግ	-7507
ውቀው	-7508
ቀመጠው	-7509
ካተተ	-7510
▁ትኩረ	-7511
▁ሙሉጌታ	-7512
▁ነበረበት	-7513
▁ከቦ	-7514
▁በብር	-7515
▁የአድዋ	-7516
ታደራዊ	-7517
▁የመሆን	-7518
▁ኪዳ	-7519
▁በመዝ	-7520
▁አንባቢ	-7521
▁ማሳደግ	-7522
▁ቢያስ	-7523
▁ጭንቀት	-7524
ሩና	-7525
▁ወደተ	-7526
▁እዉ	-7527
▁ጨርቅ	-7528
ንሳዊ	-7529
▁ተጣ	-7530
▁ትላለች	-7531
▁ኢንቨስት	-7532
ሀነ	-7533
▁ተግ	-7534
▁አይደለሁም	-7535
▁በኪ	-7536
▁ስደት	-7537
ላለፈው	-7538
▁መልአ	-7539
ክርስቲያ	-7540
▁የተፃፈ	-7541
ጠሎ	-7542
ኛለሁ	-7543
▁ተቋማትን	-7544
ፕሮ	-7545
▁ሀሰን	-7546
▁ያንተ	-7547
ኤም	-7548
የረ	-7549
ቀጥሉት	-7550
▁አለፈ	-7551
▁የሚታወቀው	-7552
▁ኡማ	-7553
▁ሀብታሙ	-7554
ደያ	-7555
▁የእለት	-7556
▁ጓደኛዬ	-7557
▁ተጠሪ	-7558
▁ይደረግ	-7559
▁መዋቅ	-7560
▁በስብሰባ	-7561
ታችሁን	-7562
ገደል	-7563
▁ለበርካታ	-7564
▁እንዲገቡ	-7565
▁የሚደረገ	-7566
▁እንዲያደርግ	-7567
ዮት	-7568
▁ሆድ	-7569
▁የታሰሩ	-7570
▁ትልልቅ	-7571
መጣጣኝ	-7572
ካችን	-7573
▁ማሸነፍ	-7574
▁መታወቂያ	-7575
ክፈት	-7576
ፈቀደ	-7577
▁መቋቋም	-7578
▁ከአቶ	-7579
▁የአክ	-7580
ፅፍ	-7581
▁በባህ	-7582
▁ደሴ	-7583
ከናወነው	-7584
▁ኤች	-7585
▁የሚሰራው	-7586
▁ተገኝተዋል	-7587
▁አቅራቢያ	-7588
▁በብሄር	-7589
▁ሰጥተው	-7590
በሰ	-7591
ግርኛ	-7592
▁ተገናኝ	-7593
ናኛ	-7594
▁መፈፀም	-7595
▁ገብቷል	-7596
▁ከሌላው	-7597
▁የአሁኑ	-7598
▁የውይይት	-7599
▁መምራት	-7600
▁የተያዘ	-7601
▁አደረሰን	-7602
▁በጃ	-7603
ንጮ	-7604
ጠፍ	-7605
▁አዲሱን	-7606
▁ከነበረ	-7607
▁የአብይ	-7608
▁ያውቃሉ	-7609
▁ጠቅሶ	-7610
▁ሁኔታውን	-7611
▁የተቀና	-7612
▁ለማስከበር	-7613
▁የምስል	-7614
▁እውነቱን	-7615
ክለቡ	-7616
▁ጥርጣሬ	-7617
▁አቤት	-7618
▁ጉር	-7619
▁ታስቦ	-7620
▁አሳፋሪ	-7621
ስው	-7622
▁ያሳዝናል	-7623
▁የሰውን	-7624
▁ንኡስ	-7625
▁ዜግነት	-7626
▁በመነሳት	-7627
▁ለሶ	-7628
▁ተንቀሳቃሽ	-7629
ሙላት	-7630
▁የማይችል	-7631
ያውያን	-7632
▁ማለቴ	-7633
▁ባንዳ	-7634
▁አራተኛ	-7635
▁መኖራቸውን	-7636
ምፒው	-7637
▁ጠባብ	-7638
▁የሲዳማ	-7639
▁የእና	-7640
▁አስቀድ	-7641
▁ተመልከት	-7642
▁የመሰለ	-7643
ላቹ	-7644
▁አፈወር	-7645
▁ይሰጣቸዋል	-7646
▁ያመጣ	-7647
▁የተካሄደ	-7648
▁የቴክኒክ	-7649
ፈቀድ	-7650
▁ሹም	-7651
▁ተጀም	-7652
▁ንግግ	-7653
ኒስትሮች	-7654
ጠናከረ	-7655
መሰረት	-7656
▁መገኘት	-7657
▁እስከሚ	-7658
▁አብዛኛዎቹ	-7659
ፓጋንዳ	-7660
▁ወለድ	-7661
▁ተይዞ	-7662
▁ዲፕሎማሲ	-7663
ዋሲ	-7664
ጀምሩ	-7665
ፍራው	-7666
ነትም	-7667
▁በርካቶች	-7668
ጡበት	-7669
▁ሊባል	-7670
ሪና	-7671
▁የጠፋ	-7672
ሰሱ	-7673
▁የያዘው	-7674
ነቶችን	-7675
▁እንደራ	-7676
▁ተዋጊ	-7677
▁እሴት	-7678
▁ያለች	-7679
▁ክርስትና	-7680
▁ናፍ	-7681
ምምነት	-7682
▁ያለህ	-7683
▁የሚሆነ	-7684
ቅራ	-7685
▁ረሀብ	-7686
▁ዘመድ	-7687
▁ፌዴራ	-7688
ስበ	-7689
ቆሮ	-7690
▁በእለቱ	-7691
▁ሪፐብሊክ	-7692
▁ትሆና	-7693
ንባሌ	-7694
ኒቨርስቲ	-7695
ክተው	-7696
▁መፈፀ	-7697
ይም	-7698
▁አመለካከ	-7699
▁በመል	-7700
▁ኦህዴድ	-7701
▁የኢትዮጵያውያን	-7702
▁ክልሉ	-7703
▁ብሮድካስቲንግ	-7704
ቀጥሉ	-7705
▁የነፃ	-7706
▁ያእቆብ	-7707
ላይት	-7708
ፍሎ	-7709
▁መኖሩ	-7710
▁ጋብቻ	-7711
ደረሰው	-7712
▁ስትሆን	-7713
▁ሲጀመር	-7714
▁አልችልም	-7715
▁የሀጢ	-7716
▁በቅድሚያ	-7717
▁ቅጥ	-7718
ዴይሜ	-7719
▁ይዴይሜ	-7720
▁ጀምረዋል	-7721
▁ህሙ	-7722
▁ራሳችንን	-7723
▁ተቃውሞውን	-7724
▁ሳያስ	-7725
▁ለኛ	-7726
▁ስልጣኔ	-7727
▁ስብከት	-7728
▁ቤትና	-7729
▁የፋና	-7730
▁ለመውጣት	-7731
ወደ	-7732
ፈፅሙ	-7733
ክርስትና	-7734
▁በሁለቱም	-7735
▁የበረራ	-7736
ስላሴ	-7737
ከባድ	-7738
ወደው	-7739
▁ሀሳቦችን	-7740
▁ተኮር	-7741
▁ነቅ	-7742
▁ብቁ	-7743
▁በዞ	-7744
ኖረውም	-7745
▁አውጪ	-7746
▁የቆዩ	-7747
▁ለትግራይ	-7748
▁መሻሻል	-7749
ፅዮን	-7750
▁ዘጋቢ	-7751
▁ተመልካች	-7752
ሰልጣ	-7753
▁ቢባል	-7754
ባትን	-7755
ዘዋል	-7756
ያለን	-7757
▁ይኖሩ	-7758
▁ስፋት	-7759
ነጥ	-7760
▁እጦት	-7761
▁ቦርዱ	-7762
መዱ	-7763
ቱንም	-7764
▁ለህዝ	-7765
▁አወጣ	-7766
ኑኤል	-7767
ጦችን	-7768
▁ፋይናንስ	-7769
ይይ	-7770
▁ድሬዳዋ	-7771
▁ሁኔታዎችን	-7772
▁በአራት	-7773
▁ልደ	-7774
▁አትክል	-7775
▁ክም	-7776
▁ነገስ	-7777
▁የመረ	-7778
▁ብፁእ	-7779
ፈኛ	-7780
▁ከግብፅ	-7781
▁አህያ	-7782
▁ተከታይ	-7783
▁ስፍራዎች	-7784
▁ዳይሬክተሩ	-7785
▁አጫ	-7786
▁እድሜያቸው	-7787
▁የተከሰተው	-7788
▁ህዝባችን	-7789
▁በቀጣዩ	-7790
▁እስከዛሬ	-7791
ዴል	-7792
ደግፍ	-7793
▁ከቀኑ	-7794
▁ያለበትን	-7795
▁ተፈፃሚ	-7796
▁ግንባታው	-7797
▁አይቶ	-7798
▁ግጥሚያ	-7799
ሰማሩ	-7800
መዘገቡ	-7801
▁ማመንጫ	-7802
▁በረሀ	-7803
▁ጭራሽ	-7804
▁ተያያዥ	-7805
▁ወደዚህ	-7806
ሟቸው	-7807
▁የአመራር	-7808
▁የጉዞ	-7809
▁እዛው	-7810
▁ለመሄድ	-7811
ቀጣ	-7812
▁የሺ	-7813
▁መክፈል	-7814
ቀኛ	-7815
▁ቀበሌዎች	-7816
▁እንደሌለው	-7817
▁ዋሽንግተን	-7818
▁የሚካሄደው	-7819
▁ዋዜማ	-7820
▁ቆይቶ	-7821
አለሁ	-7822
▁ሚስተር	-7823
ሆይ	-7824
▁መለሰ	-7825
ዳዳሪዎች	-7826
ዳዊ	-7827
▁ማርቆስ	-7828
▁የፖ	-7829
▁የወቅ	-7830
▁እየሰ	-7831
▁ልውውጥ	-7832
▁የባንኩ	-7833
▁ይስጥ	-7834
▁የተደበ	-7835
ጠጣ	-7836
▁ለድር	-7837
▁የማይታ	-7838
▁ያገኘው	-7839
▁የሚደረጉ	-7840
▁የሚረዳ	-7841
▁አምናለሁ	-7842
▁ፕሬዚዳንቱ	-7843
▁ሲሄድ	-7844
▁የግንቦት	-7845
▁ርቀ	-7846
▁ትችት	-7847
▁ዘውዴ	-7848
▁እንዲወጣ	-7849
▁ዘገባዎች	-7850
▁አረጋግጠዋል	-7851
▁ህይወቱ	-7852
▁የደርግ	-7853
▁ይጨምራል	-7854
▁መግለፅ	-7855
▁እንደዛ	-7856
▁ተጠቃሚነት	-7857
▁አካሂ	-7858
▁የእርስ	-7859
▁ያለብን	-7860
ንፊ	-7861
▁ከፖለቲካ	-7862
ፋፋ	-7863
▁በየቦታው	-7864
▁ጣል	-7865
▁የግለ	-7866
▁በዩናይትድ	-7867
▁ይከብ	-7868
▁ሊደረግ	-7869
▁የግብር	-7870
▁በማያ	-7871
▁ማኔ	-7872
▁የክስ	-7873
▁ችላ	-7874
▁አገራቸው	-7875
▁እርሶ	-7876
ጠማቸው	-7877
▁ሚዛን	-7878
▁ማራቶን	-7879
▁የተውጣ	-7880
▁ዝግጅቶች	-7881
ምኑ	-7882
ገነዘብ	-7883
▁ተጠቁሟል	-7884
ይዙ	-7885
▁አክሲዮን	-7886
▁በቴሌ	-7887
▁የሚቻለው	-7888
▁ዝንባሌ	-7889
▁መግደል	-7890
ሪያችን	-7891
▁ከአሁን	-7892
▁ውስብስብ	-7893
▁ነባር	-7894
▁ይፈጥ	-7895
▁ፋሲል	-7896
▁ማሳሰቢያ	-7897
ሳዩ	-7898
▁ፎረም	-7899
ሎም	-7900
▁በሚደረገው	-7901
▁ስማ	-7902
▁በትናንት	-7903
ሲስ	-7904
ነቀ	-7905
▁የነበራቸው	-7906
ቧቸው	-7907
▁ተመድ	-7908
▁ፓቭል	-7909
▁ማክበር	-7910
▁ተመራማሪዎች	-7911
▁ተፎካካሪ	-7912
መበት	-7913
▁የሬ	-7914
▁አመስ	-7915
▁አባቱ	-7916
▁ተገንዝ	-7917
▁የቀረቡ	-7918
▁የአረብ	-7919
ራችንን	-7920
▁ቀጥተኛ	-7921
▁አድርጎታል	-7922
▁እንመልከት	-7923
ስታዝ	-7924
ጅና	-7925
ነተኛ	-7926
▁አሳይቷል	-7927
▁ኢንተርኔት	-7928
ቋቸው	-7929
▁ብክ	-7930
▁ይመረ	-7931
ዞር	-7932
▁ሳተ	-7933
▁ደሀ	-7934
መለከታ	-7935
▁ህገመ	-7936
▁በውስጡ	-7937
▁ግብአ	-7938
▁በዘንድ	-7939
▁መጀመር	-7940
▁የተከፈ	-7941
ፈኑ	-7942
ደሬሽን	-7943
▁ተካሄደ	-7944
ቀዱ	-7945
ገሙ	-7946
▁ለማጥ	-7947
▁ይመጣ	-7948
▁ቅድስት	-7949
▁ህወሀትን	-7950
▁ባለሙያው	-7951
▁ከአስር	-7952
▁ሲካሄድ	-7953
▁ሳንቲም	-7954
▁ሀገሬ	-7955
▁ሊያደርግ	-7956
ቡም	-7957
ንሽ	-7958
▁የመር	-7959
▁ተደጋጋሚ	-7960
▁ከነበሩት	-7961
ራዘም	-7962
▁ትግሉ	-7963
▁ስመ	-7964
▁አፕ	-7965
▁የትራፊክ	-7966
ረቅ	-7967
▁ምድረ	-7968
▁አስተያየቶች	-7969
▁አፈወርቂ	-7970
ርታ	-7971
▁ማስወገድ	-7972
▁የሟ	-7973
▁አስቂኝ	-7974
▁ስድብ	-7975
▁በአፋር	-7976
▁ምንጊዜም	-7977
ኖክ	-7978
ቬይ	-7979
▁ተጠይ	-7980
▁ከስር	-7981
ነበራቸው	-7982
▁እዚያው	-7983
▁የጥናት	-7984
ጋችሁ	-7985
▁መፃፍ	-7986
▁መቃብር	-7987
በርት	-7988
▁ፊርማ	-7989
ዟይተ	-7990
▁ልዟይተ	-7991
▁የሚከተለውን	-7992
▁በተባበሩት	-7993
ቆቃ	-7994
ጣጣ	-7995
ጮህ	-7996
▁የሚፈፅ	-7997
▁በማስተ	-7998
▁አድርጉ	-7999
▁ባይሆንም	-8000
ሮቹን	-8001
ያውቅ	-8002
▁ካድሬ	-8003
▁ብሄርተኝነት	-8004
▁ተባባሪ	-8005
▁አንችልም	-8006
▁የሚገልፁ	-8007
▁ቆዳ	-8008
▁መስመ	-8009
▁እንደሆነና	-8010
▁በጥይት	-8011
መሰል	-8012
▁ማስቀ	-8013
▁አከባቢ	-8014
▁ያተኮረ	-8015
ያና	-8016
መውን	-8017
▁ይን	-8018
ጀንሲው	-8019
▁አሳው	-8020
▁መኮን	-8021
▁በአስራ	-8022
▁ወንጀሎች	-8023
▁ዩኒ	-8024
▁በማስገባት	-8025
ዳማዊ	-8026
ጠሩት	-8027
▁በሽታዎች	-8028
▁በቶ	-8029
▁ስራቸው	-8030
▁የዘንድሮ	-8031
ኤን	-8032
▁ትላልቅ	-8033
እል	-8034
▁ተጉ	-8035
▁ስርአቶች	-8036
ጠይቀው	-8037
▁የገለፀው	-8038
▁የአሜሪካን	-8039
ቅምት	-8040
▁መዘጋጀ	-8041
▁የተቀበ	-8042
▁ተንና	-8043
ጨብ	-8044
▁ዴኤ	-8045
ረጋገጡ	-8046
▁ስነስ	-8047
▁የበጎ	-8048
▁ፕሬዚዳን	-8049
▁ለራሱ	-8050
▁ሰዎችም	-8051
▁እኩልነት	-8052
በዙ	-8053
▁ጥርጥር	-8054
▁አቀረበ	-8055
▁በተገ	-8056
ሆንክ	-8057
ሳለሁ	-8058
▁ኮም	-8059
▁አርማ	-8060
▁ሀዳር	-8061
▁የወልቃይት	-8062
▁ገበያው	-8063
▁ታች	-8064
ሚው	-8065
▁ትነኝ	-8066
▁ጎበዝ	-8067
▁በኢህአዴግ	-8068
ከማ	-8069
▁ይሰራሉ	-8070
▁ማት	-8071
▁ገዳም	-8072
▁እንዳይወ	-8073
▁አውሮፕላኑ	-8074
▁መቅረብ	-8075
▁የአገራችን	-8076
ዷቸው	-8077
▁የኖ	-8078
▁ሀበሻ	-8079
▁ቀኑ	-8080
▁ጭንቅላት	-8081
▁እንደሚሰራ	-8082
ጋባ	-8083
▁ከቤ	-8084
▁በቀስ	-8085
▁ከአንተ	-8086
ሸነፈ	-8087
▁ለምት	-8088
▁የተገኙት	-8089
▁ምክንያታዊ	-8090
▁ከእው	-8091
▁መዳረሻ	-8092
▁የተከለ	-8093
▁ለማውጣት	-8094
ካፍ	-8095
▁ሰሎ	-8096
▁የጐ	-8097
ደቢት	-8098
ተክ	-8099
▁የሞቱ	-8100
▁በተከታታይ	-8101
▁በፕሬ	-8102
▁ሚልዮን	-8103
ሸራ	-8104
▁ትእዛ	-8105
▁ወንድሙ	-8106
▁ለአሜሪካ	-8107
ሞክራቲክ	-8108
ማውያን	-8109
▁ፅርቅ	-8110
▁ስለነበረ	-8111
ዌይ	-8112
▁የኬ	-8113
▁በስቲያ	-8114
▁የሚታወቅ	-8115
ቪዲዮ	-8116
▁ማዶ	-8117
▁ፍጥ	-8118
በረከተ	-8119
▁ሀሳቡን	-8120
▁ከከተማ	-8121
▁የማሳ	-8122
▁የፈረን	-8123
▁ጣሊያን	-8124
ውአ	-8125
ጓደ	-8126
ፈስያአ	-8127
ሞክሩ	-8128
▁ሱርእ	-8129
▁ይለያ	-8130
▁ለቢቢሲ	-8131
▁ከፓ	-8132
▁ናግ	-8133
▁ዙርያ	-8134
▁መንቀሳቀስ	-8135
▁ኬሚ	-8136
▁ልያታይ	-8137
▁በአባይ	-8138
▁የእነዚህ	-8139
▁የመጡት	-8140
ሰሳ	-8141
ኪዎች	-8142
ምሌ	-8143
▁መስኮች	-8144
ቀፉ	-8145
▁መያዙ	-8146
▁ጅቡቲ	-8147
ዋለች	-8148
▁የፅሁፍ	-8149
ፋና	-8150
▁የተቋቋመው	-8151
▁የተፈፀመው	-8152
ይጣን	-8153
▁ለኦሮ	-8154
▁በቅን	-8155
▁ጉድለት	-8156
▁ጉልህ	-8157
▁ከወያኔ	-8158
▁በቦታው	-8159
ይድ	-8160
▁ግብአት	-8161
▁ወላጆ	-8162
▁ፈታኝ	-8163
▁መሆኑንና	-8164
▁የሚሉትን	-8165
▁አሪፍ	-8166
▁አሻራ	-8167
▁እገዳ	-8168
ያችሁ	-8169
▁ማል	-8170
▁ሁለቱን	-8171
▁ገላ	-8172
▁ማበረታ	-8173
▁የቃ	-8174
▁ሪፖርቱ	-8175
▁ጥስው	-8176
▁አበረታ	-8177
ጎል	-8178
ለመደ	-8179
▁ሀላፊነቱን	-8180
ቻላቸው	-8181
ራለሁ	-8182
▁ኦዲ	-8183
▁የይሆ	-8184
▁ማህበረ	-8185
ሰራር	-8186
▁በአምስት	-8187
▁በመድረ	-8188
▁አውጥቶ	-8189
▁የክብር	-8190
▁የመሳሰሉት	-8191
▁ተላ	-8192
▁የሚያግ	-8193
▁በክብር	-8194
ለፈው	-8195
▁ያፍክ	-8196
▁የሚያን	-8197
▁ወንጀለኛ	-8198
▁ሎት	-8199
ንቨ	-8200
▁የገዛ	-8201
ያውቁ	-8202
▁አክብሮት	-8203
▁እወዳለሁ	-8204
▁አካላዊ	-8205
▁አስደንጋጭ	-8206
ጨዋታው	-8207
▁በሶማሌ	-8208
▁ከሜ	-8209
▁ጠቁሟል	-8210
▁የለሽ	-8211
▁ስርአተ	-8212
▁ተነስተው	-8213
ሻሽ	-8214
ቃወሙ	-8215
▁ንሉ	-8216
▁የጫ	-8217
ጮችን	-8218
▁ጥቆማ	-8219
▁የይሆዋን	-8220
ከፍል	-8221
▁ተደብ	-8222
በሩን	-8223
▁ታጣቂ	-8224
▁ጥራ	-8225
▁ሙሀመድ	-8226
▁ከቶ	-8227
▁ማቆያ	-8228
ሪል	-8229
ለደይአ	-8230
▁ካምፕ	-8231
▁ምለደይአ	-8232
▁ኢንስቲትዩት	-8233
ቦን	-8234
ላትም	-8235
▁ለምንድነው	-8236
▁መደም	-8237
▁ተይዟል	-8238
▁የተጠረጠሩ	-8239
▁ትቶ	-8240
▁ሀብታም	-8241
በረው	-8242
ገርም	-8243
▁እያልን	-8244
ድራ	-8245
ሻለሁ	-8246
ቀሳ	-8247
▁የጥን	-8248
▁ከዩ	-8249
▁ይበልጣሉ	-8250
ኞደጓ	-8251
▁ቺ	-8252
▁የቻለ	-8253
▁ይነሳል	-8254
▁ሲቲ	-8255
ለንደን	-8256
ርትራዊ	-8257
▁ሲጀምር	-8258
▁ተሀድሶ	-8259
▁ናእ	-8260
ውድ	-8261
▁ድንገተኛ	-8262
▁ሌላም	-8263
▁ተለዋ	-8264
▁የመንግስትን	-8265
▁የደረሱ	-8266
ተናዊ	-8267
▁ፀጉር	-8268
እቢያ	-8269
ረዝ	-8270
ቾቹ	-8271
▁በሽብር	-8272
▁ለፓ	-8273
▁ቴክ	-8274
▁መድረስ	-8275
▁ብለሽ	-8276
▁ገርባ	-8277
▁የተሳተፉ	-8278
ተዋ	-8279
▁ያነጋ	-8280
▁በዱ	-8281
▁አልያም	-8282
ገንም	-8283
▁ንቁ	-8284
▁እንዲኖረው	-8285
▁የቦርድ	-8286
ጨነቁ	-8287
▁መስፈርቶች	-8288
▁ያድ	-8289
▁ሁከት	-8290
▁አለመግባባት	-8291
▁መዲና	-8292
▁ዘመነ	-8293
▁ይበልጣል	-8294
▁ያለማ	-8295
▁ሀሳብን	-8296
ኒስቴ	-8297
▁ለጋዜ	-8298
▁ደቂቃዎች	-8299
አሉ	-8300
▁በድንገት	-8301
▁ቅጥር	-8302
▁ቪድዮ	-8303
▁ተሟጋች	-8304
▁አስገብ	-8305
▁ንምለ	-8306
▁ቃጠሎ	-8307
ጠናቀቀው	-8308
ሎና	-8309
ሪያቸው	-8310
▁የሚን	-8311
▁ፀሎ	-8312
▁ስላሉ	-8313
▁በአስተ	-8314
▁የሚፈልግ	-8315
▁እንደማይችል	-8316
▁ጫካ	-8317
▁የተነሳው	-8318
▁በተወሰነ	-8319
▁ናግጀ	-8320
▁ከሆኑት	-8321
▁ከቻይና	-8322
▁ያወጣው	-8323
▁ለመጀመር	-8324
▁ወርቁ	-8325
▁ሲዘ	-8326
▁ራዲዮ	-8327
▁ሳኡዲ	-8328
▁ሉቃ	-8329
▁ይችል	-8330
▁መለየት	-8331
ብራት	-8332
▁ንገ	-8333
▁ውስን	-8334
▁መምጣቱን	-8335
▁ተጫራቾች	-8336
▁የተራ	-8337
▁ያላትን	-8338
ሰባቸውን	-8339
ብያ	-8340
▁እርቅ	-8341
▁ያብራ	-8342
▁እኔና	-8343
▁በመመ	-8344
▁የመከላከል	-8345
▁ጨም	-8346
ስተዋወቅ	-8347
▁ግብይት	-8348
ዉሮጳ	-8349
▁በፈቃ	-8350
▁አድሀ	-8351
▁ተገኝቶ	-8352
▁የፕሮጀ	-8353
▁ለቆ	-8354
▁ያላችሁ	-8355
ማንት	-8356
▁ንትን	-8357
ወስዱ	-8358
▁የጀመሩት	-8359
▁ግሩ	-8360
▁የተሟላ	-8361
ቦራ	-8362
ዳድሮ	-8363
▁ቅውአ	-8364
▁ንትንዴ	-8365
ግረው	-8366
▁የተፈረ	-8367
▁ደሞዝ	-8368
▁የቻለው	-8369
ዎቹም	-8370
▁ባህልና	-8371
▁ለመመስረት	-8372
▁ሲሰ	-8373
ዋች	-8374
በርግ	-8375
▁ህያው	-8376
▁አብዱል	-8377
▁ካሬ	-8378
▁ብልጫ	-8379
▁ለማዳን	-8380
▁በተዘጋጀው	-8381
ማማት	-8382
▁ብጥ	-8383
▁ጉድጓድ	-8384
ጣኔ	-8385
▁ከህግ	-8386
▁የመታ	-8387
▁የሚንቀሳቀሱ	-8388
▁መከበር	-8389
▁ማጣት	-8390
▁ተቋቁ	-8391
▁ኢንጅ	-8392
ቀቱ	-8393
▁ዘላለም	-8394
▁መሪነት	-8395
▁ለማቋቋም	-8396
▁ለየ	-8397
▁አዘጋ	-8398
▁ከይሆዋ	-8399
▁የፈለገ	-8400
▁እንደሚለው	-8401
▁በቱ	-8402
▁አምጥ	-8403
▁የውሳኔ	-8404
▁እላለሁ	-8405
▁ጠረ	-8406
▁አድራጊ	-8407
ንዶ	-8408
ከሪያ	-8409
▁ውቸና	-8410
ገልገ	-8411
ዛን	-8412
▁ጥግ	-8413
▁እናንተም	-8414
ሲን	-8415
ከውን	-8416
▁ልጆቻቸውን	-8417
ሮቢ	-8418
ብና	-8419
▁ይለ	-8420
▁በየመን	-8421
▁ይሞታል	-8422
▁ኢብራ	-8423
▁ከስድስት	-8424
▁ማካሄድ	-8425
▁ከምርጫ	-8426
▁አገሪቱን	-8427
▁ህንድ	-8428
▁ስእል	-8429
▁ደንበ	-8430
ተኝ	-8431
ጋር	-8432
▁ቪዲዮውን	-8433
▁የምእራብ	-8434
ሰቡት	-8435
▁እደ	-8436
▁ዋለ	-8437
▁መቻል	-8438
▁ልጆቻቸው	-8439
ሸሽ	-8440
▁ኤን	-8441
▁የአማራን	-8442
▁ወሮ	-8443
▁እንዲሰራ	-8444
▁ከመጣ	-8445
▁ኩርበነ	-8446
ብላ	-8447
ዜአ	-8448
ከብሩ	-8449
▁የሚያሳዩ	-8450
▁ክፍተ	-8451
▁ለማስተ	-8452
▁ጓደኞቼ	-8453
▁ያገኛሉ	-8454
▁የበለ	-8455
ኖም	-8456
▁እንግሊ	-8457
ጀሪያ	-8458
ገትና	-8459
▁ቢሆኑም	-8460
▁በደብረ	-8461
ራና	-8462
▁ቡክ	-8463
▁ውሸ	-8464
▁የምንለው	-8465
▁አጠናክሮ	-8466
ካሄዱት	-8467
▁የተፈጠረውን	-8468
ተሻ	-8469
▁አይነትህ	-8470
ቀለ	-8471
ሸንፍ	-8472
ደረሰበት	-8473
▁ትዊተር	-8474
▁እያስተ	-8475
▁ለመግታት	-8476
▁ተላላ	-8477
▁አስገድ	-8478
ሪዮ	-8479
▁ማማ	-8480
▁የህዝቡ	-8481
ላለማዊ	-8482
▁ህብረ	-8483
▁መንገደ	-8484
▁ጁንታ	-8485
▁አነጋጋሪ	-8486
▁ተመልከቱ	-8487
▁የሚችለውን	-8488
ሞመ	-8489
▁ከማን	-8490
▁እንዲገባ	-8491
ለንተናዊ	-8492
▁መዛሙር	-8493
▁በጉጉት	-8494
▁እነዚያ	-8495
▁በአክ	-8496
▁በመገኘት	-8497
▁ህውሀት	-8498
▁ለመደገፍ	-8499
ይሮ	-8500
▁ክፉኛ	-8501
▁ታሪክን	-8502
ደፍ	-8503
ነእ	-8504
ዋም	-8505
ሆች	-8506
▁ሚዛናዊ	-8507
▁የሚመጣው	-8508
ንፊኔ	-8509
▁አልሆነ	-8510
ኸኝ	-8511
▁የሚያሳየው	-8512
ጂዎች	-8513
▁ሰራዊቱ	-8514
▁የተወሰደ	-8515
▁ዩኒቨርሲቲዎች	-8516
▁ቱርክ	-8517
ሳለች	-8518
▁የተቋ	-8519
▁ገዢው	-8520
▁ለውጦች	-8521
▁ጠፍቶ	-8522
ረካ	-8523
ሎችና	-8524
▁አሌ	-8525
▁ተጋድሎ	-8526
▁ጥምረት	-8527
▁ተጠቅሷል	-8528
▁አክለዋል	-8529
▁እንፈልጋ	-8530
▁ያለፈው	-8531
▁መቅደስ	-8532
▁አገላለ	-8533
ቀመጠ	-8534
▁ጀግኖች	-8535
በሬ	-8536
ባሪዎች	-8537
▁በኢትዮጵያና	-8538
▁ተኩስ	-8539
▁አመቱን	-8540
▁መገንዘብ	-8541
▁ተጠቅመው	-8542
ጠሙ	-8543
▁ተጀምሯል	-8544
ቻለም	-8545
▁ያሳየ	-8546
ዳሪ	-8547
▁ልኡል	-8548
▁መጠይቅ	-8549
▁ታስረው	-8550
▁ለማከናወን	-8551
ሊበላ	-8552
▁ለውጡ	-8553
▁ታድያ	-8554
▁ከመሆን	-8555
▁በተራ	-8556
ጠቅም	-8557
▁ማፅ	-8558
▁የር	-8559
መድን	-8560
▁ተዛ	-8561
▁የሚጠጉ	-8562
▁እንዲችሉ	-8563
ደንእ	-8564
ልቆ	-8565
ሸጋገር	-8566
▁መሆኑም	-8567
▁ሳይንቲ	-8568
▁ተጠርጥረው	-8569
▁የሚያደርጉትን	-8570
ራለን	-8571
▁ህግና	-8572
ህያ	-8573
▁ስምኦን	-8574
▁ኮቪድ	-8575
▁በኮቪድ	-8576
▁ዜጊ	-8577
ያዝነው	-8578
▁ልጁን	-8579
▁ስለጠፋ	-8580
▁የወረ	-8581
▁ፊልሞች	-8582
▁አዙ	-8583
▁ግቦች	-8584
▁የአፋር	-8585
▁የተደረጉ	-8586
▁እንደሚደረግ	-8587
▁ሰሌ	-8588
▁በትእ	-8589
▁የመድሀኒ	-8590
▁የአሸ	-8591
ባትና	-8592
▁ገፁ	-8593
ነጋገሩ	-8594
▁ከፍታ	-8595
▁አግኝቶ	-8596
▁ለተለያዩ	-8597
▁ማስተካከ	-8598
▁ባለመሆኑ	-8599
▁ነገስታት	-8600
ለንም	-8601
▁ወላጅ	-8602
ሄረ	-8603
ቲቭ	-8604
▁በከተማው	-8605
▁አያስፈልግም	-8606
▁አስገን	-8607
ኚህ	-8608
▁የልጅ	-8609
▁ፍንዳ	-8610
▁እየሰጠ	-8611
▁ለሁለተኛ	-8612
▁የተረጋገጠ	-8613
▁ርገና	-8614
▁አማራው	-8615
▁አድርግ	-8616
▁አደጋዎች	-8617
ላና	-8618
ዳድሩ	-8619
▁እት	-8620
▁በባህርዳር	-8621
ከኝ	-8622
ዋና	-8623
▁ከዶ	-8624
▁ከእሱ	-8625
▁ባለስልጣኑ	-8626
▁አይሁዳ	-8627
▁አስገ	-8628
▁በእኩል	-8629
ስተላል	-8630
▁ጥፋተኛ	-8631
▁ልቦ	-8632
▁ሚስጥር	-8633
▁ሲሰሩ	-8634
ጣለሁ	-8635
ወዳደር	-8636
▁በትዊተር	-8637
▁ወተት	-8638
▁ለጠቅላይ	-8639
▁በህክምና	-8640
▁ሳም	-8641
▁ባካሄደው	-8642
▁የሰውነት	-8643
▁ይፃፉ	-8644
▁አምባገነን	-8645
ሳፍ	-8646
ካተት	-8647
ቀርቡት	-8648
▁መለኪያ	-8649
▁ከሰአት	-8650
▁በማውጣት	-8651
ኖና	-8652
ከነ	-8653
▁ማዘ	-8654
ህዴን	-8655
▁በመልካም	-8656
▁ሲዳማ	-8657
▁የማህበረሰብ	-8658
▁የጠቆሙት	-8659
▁ፅዮን	-8660
▁ሀኪሞች	-8661
▁የተሰሩ	-8662
▁የሶማሊያ	-8663
▁የዘላለም	-8664
ሞታ	-8665
ነርጂ	-8666
ገኛለች	-8667
▁አዎንታዊ	-8668
▁እንደመሆኑ	-8669
ሮም	-8670
ፕሎማሲ	-8671
▁ያለችው	-8672
▁ገብርኤል	-8673
▁ንሆ	-8674
▁ከቁ	-8675
▁የሚጠቅ	-8676
▁ሀሳባቸውን	-8677
▁አላገኘ	-8678
▁ሲወጣ	-8679
▁ዘለቀ	-8680
▁ግራም	-8681
▁አለምአ	-8682
▁በአማካይ	-8683
ቻችሁን	-8684
▁መለወጥ	-8685
ሪያት	-8686
▁እንጨት	-8687
▁የተተ	-8688
▁እባክህ	-8689
ጆታ	-8690
▁ምርታማ	-8691
▁ስደተኞችን	-8692
▁የአመ	-8693
▁ኛእ	-8694
የሁት	-8695
▁በሰዎች	-8696
▁ያቀረቡ	-8697
▁አማራጮች	-8698
ጂታል	-8699
▁ሲሰጥ	-8700
▁አላማው	-8701
▁በሂደት	-8702
▁ከህዝቡ	-8703
▁ጥቃቶች	-8704
ደሰት	-8705
▁ለአብነት	-8706
▁ምስጢር	-8707
▁ተጋላጭ	-8708
▁በጦርነት	-8709
▁እስካል	-8710
▁ብሶ	-8711
▁ታዬ	-8712
▁የሚቀርብ	-8713
ወያዩ	-8714
▁እርሳቸው	-8715
▁ሩሲያ	-8716
▁ቀረበ	-8717
ጭበርበር	-8718
▁ቆጠራ	-8719
▁አድን	-8720
▁አብይን	-8721
▁ወደፊትም	-8722
▁የንፁ	-8723
▁የውሸት	-8724
ገባኝ	-8725
▁ልሂ	-8726
▁ኢህአ	-8727
▁አዉ	-8728
▁በፅሁፍ	-8729
▁እንፈልጋለን	-8730
▁ገደል	-8731
የል	-8732
▁ውጣ	-8733
▁ደመወዝ	-8734
▁በፌደራል	-8735
▁ሀገርን	-8736
▁ከሩ	-8737
▁ታሀሳስ	-8738
▁ውድቀት	-8739
▁ሳህለ	-8740
ተሮች	-8741
▁ከእርሱ	-8742
▁ምእመናን	-8743
▁በተቃራኒው	-8744
▁ከሶ	-8745
▁በጊዜው	-8746
ጋቱ	-8747
▁አመል	-8748
▁የተቆ	-8749
▁በሀዋሳ	-8750
▁ታወቀ	-8751
▁አይዞ	-8752
ላችንን	-8753
▁ምክክር	-8754
▁የእድገት	-8755
▁የዲሞክራሲ	-8756
▁እስረ	-8757
▁ኢንሹራንስ	-8758
▁ኢንተርፕራይ	-8759
መበ	-8760
▁ከሱ	-8761
ራፍሬ	-8762
▁በመንፈሳዊ	-8763
▁ኢያ	-8764
ደረግን	-8765
▁ብዙሀ	-8766
▁በበርካታ	-8767
ቀሉ	-8768
ቅርታ	-8769
ባለች	-8770
▁በምስ	-8771
▁መንገዱን	-8772
ወጡት	-8773
▁የወረዳ	-8774
ኮን	-8775
ፍጠር	-8776
▁ወጭ	-8777
▁ድምፃዊ	-8778
▁ለመጨረሻ	-8779
▁ፈተናዎች	-8780
ባቸውና	-8781
ጋቸዋል	-8782
▁ነፍጠኛ	-8783
ጠቀሰው	-8784
▁ምሁራ	-8785
▁ያሉበት	-8786
▁ፉክክር	-8787
▁የወጣቶች	-8788
ያትር	-8789
ካኝ	-8790
ላለፉት	-8791
▁ተሸክ	-8792
▁እንዲመለሱ	-8793
▁ከእነሱ	-8794
ከላቸው	-8795
▁ለጎን	-8796
▁ሀገሪቱን	-8797
▁በእንዲህ	-8798
▁ከመጀመሪያ	-8799
▁መጡ	-8800
▁ፎር	-8801
▁ተካሂዷል	-8802
ቀርባሉ	-8803
▁ኤርትራውያን	-8804
ጤን	-8805
ድንም	-8806
▁በንግ	-8807
▁የድሮ	-8808
▁ቀው	-8809
▁አልታ	-8810
ደነ	-8811
▁አፋር	-8812
▁ይገኝ	-8813
ራሚ	-8814
▁ኢላማ	-8815
▁መገመት	-8816
ኖተ	-8817
▁በትናንትናው	-8818
▁አገልግሎቱን	-8819
▁በና	-8820
▁አቀረቡ	-8821
▁ዩንቨ	-8822
▁የሚካሄድ	-8823
▁የሚገርመው	-8824
▁የሚደረገውን	-8825
▁ወንጌል	-8826
ካቲት	-8827
▁በሁለተኛ	-8828
▁አበባው	-8829
ናና	-8830
ገጣ	-8831
▁ሞላ	-8832
▁አጥቂ	-8833
ሰኛ	-8834
ስተም	-8835
▁ጠያቂ	-8836
▁ማስፈራ	-8837
▁ለእግዚአብሄር	-8838
ሯት	-8839
ተኩ	-8840
ኒክስ	-8841
▁ስራን	-8842
▁በወር	-8843
ሮውአ	-8844
▁እነማን	-8845
ነቷን	-8846
▁በጅምላ	-8847
▁ያለነው	-8848
▁ሊጉ	-8849
▁ውስጣዊ	-8850
ገዴ	-8851
ዱስት	-8852
▁ለገሰ	-8853
ላፕሮውአ	-8854
ወርድ	-8855
▁የቅድመ	-8856
▁ኢትዮጲያ	-8857
ታቱ	-8858
ቶችም	-8859
▁ዝያ	-8860
▁አነጋገር	-8861
▁ኢሳይያስ	-8862
ክትል	-8863
▁በመንገድ	-8864
▁የተገለፀ	-8865
ረከብ	-8866
ተሪ	-8867
▁ዞር	-8868
ናውቀው	-8869
▁ምስኪን	-8870
ጦስ	-8871
▁ሲኖር	-8872
▁የተዛ	-8873
▁በውይይቱ	-8874
▁ለዲ	-8875
▁ያህሉ	-8876
ኢአድ	-8877
▁ተቆጥ	-8878
▁የኢት	-8879
▁ዝምድና	-8880
ማጅ	-8881
ጠናል	-8882
▁የመል	-8883
▁የተሰበ	-8884
▁ምስክርነት	-8885
▁ፕሮጀክቱ	-8886
▁አልሰማ	-8887
▁በተፈጠረው	-8888
▁ሰራሽ	-8889
▁መስኮት	-8890
▁በፀጥታ	-8891
▁መመስረት	-8892
▁ሊሰጥ	-8893
▁ማእቀፍ	-8894
▁ወላይታ	-8895
ወጠ	-8896
▁ነገሩን	-8897
▁በፌስቡክ	-8898
ሏን	-8899
▁የተማረ	-8900
▁እጃቸውን	-8901
ልቻ	-8902
▁ወገኖ	-8903
▁መጥፋት	-8904
▁ተወያዩ	-8905
ላላው	-8906
▁መበ	-8907
ውደ	-8908
▁ሊሰ	-8909
▁ዘለ	-8910
▁በጐ	-8911
▁የተስፋ	-8912
▁ለማክበር	-8913
▁ተመስርቶ	-8914
▁አስመስ	-8915
▁በእሱ	-8916
▁ዝያመለ	-8917
ካሚ	-8918
▁መስጫ	-8919
▁ተቆር	-8920
▁የሙስሊ	-8921
▁የተሰራው	-8922
▁ሊኖረው	-8923
▁ተጠናቋል	-8924
ቭዥን	-8925
ብዛም	-8926
▁መመለ	-8927
▁የተጠ	-8928
▁ማለታቸው	-8929
▁ካቢኔ	-8930
▁ያምና	-8931
▁አበባና	-8932
ቢያን	-8933
▁የጨዋታ	-8934
▁ታምራት	-8935
ይር	-8936
ፃፉት	-8937
▁በዚያም	-8938
ሮስ	-8939
ገኝበት	-8940
▁የድርጅ	-8941
▁የሁለተኛ	-8942
▁እሳቤ	-8943
▁ሌሊ	-8944
▁ቀነ	-8945
▁ግለሰቡ	-8946
ዛብ	-8947
▁መረጃው	-8948
▁አካዳሚ	-8949
በርክ	-8950
▁መናገራ	-8951
▁ፓለቲካ	-8952
▁ቁርጥ	-8953
ድማ	-8954
ጠቀስ	-8955
▁እገ	-8956
ከባከብ	-8957
ሞከር	-8958
▁ሀገረ	-8959
ወድቅ	-8960
▁የቋንቋ	-8961
▁ገፀ	-8962
ሀው	-8963
▁አባባ	-8964
▁የሚወጣ	-8965
▁ልቭ	-8966
▁አመቷ	-8967
▁የዞኑ	-8968
ልጥ	-8969
▁መሄ	-8970
ቋቋሙ	-8971
▁ባያ	-8972
▁ልቭፓ	-8973
▁ተቃው	-8974
▁ልላችይ	-8975
▁እንደዚሁ	-8976
ንጭ	-8977
ጎና	-8978
▁ጣፋ	-8979
▁ጥሰ	-8980
▁እየተፈፀመ	-8981
▁በሺዎች	-8982
▁አዝናኝ	-8983
▁እንዲያገኝ	-8984
ቴና	-8985
▁ስሙን	-8986
▁ፈገግ	-8987
ልታ	-8988
▁በተቀ	-8989
ሞና	-8990
ጅን	-8991
▁ለዜ	-8992
▁ሀያል	-8993
ገረው	-8994
▁ኦፍ	-8995
▁አስተሳ	-8996
▁የፌስቡክ	-8997
▁ያዳ	-8998
▁ነዎት	-8999
ራጮች	-9000
▁ከኮሮና	-9001
▁ይደርሳል	-9002
ነሪንግ	-9003
▁የወጪ	-9004
▁የሞባይል	-9005
▁ከፌ	-9006
ደጉ	-9007
ገልበጥ	-9008
▁ስልጣኑን	-9009
ደቡ	-9010
▁ከሚገኘው	-9011
▁ሀዘ	-9012
▁ካህናት	-9013
▁ሚኒስቴሩ	-9014
መንጃ	-9015
▁የተያያዙ	-9016
▁የሚያስፈልገው	-9017
▁ተጭ	-9018
▁ማነስ	-9019
▁አደለም	-9020
▁ተቀብለው	-9021
ደይ	-9022
▁እንደሚያስፈልግ	-9023
ፉትን	-9024
▁መድረኮች	-9025
▁ድርጅቶችን	-9026
▁የሀብት	-9027
▁አብቅቷል	-9028
▁ገም	-9029
ሮቻቸው	-9030
▁ራሴን	-9031
▁ኢትዮጲ	-9032
ማኒ	-9033
▁ቀጠና	-9034
▁ሀርነት	-9035
▁መዝናኛ	-9036
▁ሳው	-9037
▁ከሽ	-9038
▁የቡድን	-9039
▁የሚያመ	-9040
▁ለሰላም	-9041
▁የተቀናጀ	-9042
ባች	-9043
ሰማቸው	-9044
▁የድል	-9045
ክሲኮ	-9046
▁ተፈናቅ	-9047
▁ከባህር	-9048
ፍረ	-9049
ሸመኔ	-9050
ዋለህ	-9051
▁ተላል	-9052
▁አባላቱ	-9053
▁ወስደው	-9054
▁የነበራ	-9055
▁ተደራሽ	-9056
▁ክፍፍል	-9057
▁የፊታችን	-9058
▁ከምንም	-9059
ውሎ	-9060
ፊክ	-9061
▁ሊሰራ	-9062
▁ለማስጠበቅ	-9063
ምሩክ	-9064
ጆችን	-9065
▁አአ	-9066
▁ከነገ	-9067
▁ማምረት	-9068
▁በኢየሱስ	-9069
ጋጣሚ	-9070
▁ቬለ	-9071
▁ዩሮ	-9072
▁ፈት	-9073
▁ሆነህ	-9074
▁ባለአ	-9075
▁በሚባል	-9076
▁በተፈጠረ	-9077
▁አስባለሁ	-9078
ጠብቀው	-9079
▁አባተ	-9080
▁የአፄ	-9081
በረከቱ	-9082
▁ተሸላሚ	-9083
▁የችግ	-9084
▁ተጠየ	-9085
▁ለመቀየር	-9086
▁የማእድን	-9087
▁ጨምረው	-9088
ረፍት	-9089
▁የሚባ	-9090
▁ተቀምጦ	-9091
▁ማሰልጠኛ	-9092
▁በተካሄደ	-9093
▁አግኝተዋል	-9094
ወን	-9095
▁ቦይ	-9096
▁በታላቁ	-9097
▁የሚወጡ	-9098
▁ችግኝ	-9099
▁ስብሰባው	-9100
▁ምግባ	-9101
▁መጫወት	-9102
▁ሽፈራው	-9103
▁አድናቆት	-9104
▁ኩራት	-9105
▁እንግል	-9106
▁ይረዳል	-9107
▁መንግ	-9108
▁የፖሊሲ	-9109
▁በክል	-9110
▁ይለናል	-9111
ዘነጋም	-9112
ሎቻቸው	-9113
ሹን	-9114
ረዳን	-9115
ሪሁን	-9116
▁አቅሙ	-9117
▁የተዘረ	-9118
ለሙ	-9119
ቃቤ	-9120
ቪስ	-9121
▁ያልታ	-9122
ቶቻችንን	-9123
▁ትራንስፎርሜሽን	-9124
▁ይመር	-9125
▁የራሳቸው	-9126
የሙ	-9127
▁ተዳ	-9128
▁ትውልደ	-9129
▁ጭምብል	-9130
▁እንዲፈቱ	-9131
▁ሀይለስላሴ	-9132
▁የፊልም	-9133
ሪስት	-9134
የትና	-9135
ገራችንን	-9136
ሄዳ	-9137
ህጉ	-9138
▁ሲቪል	-9139
▁ፅንሰ	-9140
▁ምስሉን	-9141
▁አድራጎት	-9142
▁በተና	-9143
▁የትግራይን	-9144
▁ከፊት	-9145
ሰም	-9146
▁ህንፃዎች	-9147
▁ሚንስትሩ	-9148
ዘርፉ	-9149
▁በግንባ	-9150
▁የፈጠረው	-9151
ፅሀፉ	-9152
▁ገበሬዎች	-9153
▁ታጥ	-9154
▁በሚሊ	-9155
ሮንቶ	-9156
▁ቀጣ	-9157
▁በቃል	-9158
▁በአለማችን	-9159
▁ኢብራሂም	-9160
▁እንግዶች	-9161
ጡም	-9162
▁ቄንደ	-9163
▁አለብኝ	-9164
▁አንዲ	-9165
▁የአደጋ	-9166
ፍሩ	-9167
▁በአመ	-9168
▁ከሚል	-9169
▁አዋጁን	-9170
▁ከሚያስ	-9171
▁በአንተ	-9172
▁ይሰጣሉ	-9173
▁እጁ	-9174
▁በሽታው	-9175
▁ያስችላል	-9176
ታይም	-9177
ጅመንት	-9178
▁ሙቀት	-9179
▁ድልድይ	-9180
እለት	-9181
▁ገዛ	-9182
▁በምሳሌ	-9183
ፅር	-9184
▁ደጃ	-9185
▁አምዶች	-9186
▁የቴሌቪዥን	-9187
ፓርት	-9188
▁አስች	-9189
ማረው	-9190
▁ቴድሮስ	-9191
▁የእሱ	-9192
▁ይነግ	-9193
▁እንዲቆም	-9194
▁ነጠላ	-9195
▁ሰምተናል	-9196
▁የትዳር	-9197
▁ያምናሉ	-9198
▁ነበረብን	-9199
▁ነበራቸው	-9200
ቅያ	-9201
ዬም	-9202
ከመ	-9203
▁አውቅ	-9204
▁ካሳሁን	-9205
▁ህይወቱን	-9206
ክሳ	-9207
▁ትዝታ	-9208
▁በሶማሊያ	-9209
▁በግብርና	-9210
ሳነያ	-9211
▁ይሄዳል	-9212
ጨርስ	-9213
▁ህይወትን	-9214
▁ቄስ	-9215
▁ቢጫ	-9216
▁ከን	-9217
▁ያደርጉ	-9218
▁ጭራ	-9219
▁የሞተ	-9220
▁ጩኸት	-9221
▁ትው	-9222
▁የሚነሱ	-9223
▁ተመልሰው	-9224
▁አይነቱን	-9225
▁እየሞከሩ	-9226
▁ጭቆና	-9227
▁በእስ	-9228
▁አውጭ	-9229
▁ማዋ	-9230
ሀብት	-9231
▁ከሆነው	-9232
▁ሲመ	-9233
▁የተዘጋጀው	-9234
▁ንጉሴ	-9235
▁የገደ	-9236
▁በድርጊ	-9237
▁የሰነ	-9238
▁የሆነች	-9239
▁መጠበቂያ	-9240
▁መልቀ	-9241
▁ይገመ	-9242
▁ፍቅረ	-9243
▁የክልሉን	-9244
ዝነው	-9245
▁ግባ	-9246
▁ማውራት	-9247
ናም	-9248
▁ፆታ	-9249
▁ይሰጥ	-9250
▁እንዲቀርቡ	-9251
▁አስቆጥ	-9252
መረቀ	-9253
▁ሰጡ	-9254
▁ከኛ	-9255
ረሙ	-9256
▁በኛ	-9257
ራጅ	-9258
ዎቿ	-9259
ችሁም	-9260
▁ረዥም	-9261
▁እንዲሉ	-9262
▁የሚያደርገውን	-9263
▁የፈጠረ	-9264
▁አከባበር	-9265
ሁበት	-9266
▁ትንቢ	-9267
▁ትጥቅ	-9268
▁ያረጋግ	-9269
▁የማግኘት	-9270
▁ሰራተኞችን	-9271
▁ፈጥሮ	-9272
▁ግዛቶች	-9273
▁ምሽ	-9274
▁ተመልካ	-9275
▁በዘመናዊ	-9276
ሽከርካሪዎች	-9277
ንስትራክሽን	-9278
▁የአርበኞች	-9279
ቃው	-9280
▁ንፅህና	-9281
ደርግም	-9282
ፋትና	-9283
ይንት	-9284
▁መጠሪያ	-9285
▁ወቅትም	-9286
▁አላችሁ	-9287
▁ሚኒስትሮች	-9288
▁አስፈላጊነት	-9289
በክ	-9290
▁የምስክር	-9291
ፈረው	-9292
▁በከተ	-9293
▁ከሱዳን	-9294
ከረው	-9295
ታቸውና	-9296
▁የሚመስለው	-9297
▁በሌለበት	-9298
▁የወረዳው	-9299
▁የፍርሀት	-9300
ክሲዮን	-9301
▁አግኝቷል	-9302
▁ከእነ	-9303
▁አረመኔ	-9304
▁የያህዌ	-9305
▁ሀጫሉ	-9306
ደግፉ	-9307
መርመር	-9308
▁ፈቃደ	-9309
ማማች	-9310
ፀባር	-9311
▁ስንዴ	-9312
▁እንዲኖራቸው	-9313
ሱና	-9314
▁የለብንም	-9315
▁ተከታት	-9316
▁የዜጎች	-9317
▁ኢትዮጵያውያንን	-9318
▁የሞራል	-9319
ለፍነው	-9320
መለክት	-9321
▁በመቀሌ	-9322
▁ተጨዋቾች	-9323
▁አላገኙም	-9324
▁ከትምህርት	-9325
ባታል	-9326
▁ተዋናይ	-9327
ረቡ	-9328
ዛሉ	-9329
▁መውጣ	-9330
ተክዶ	-9331
▁መውደ	-9332
▁ርተክዶ	-9333
▁በቋንቋ	-9334
ከመው	-9335
▁በአባ	-9336
▁የኋላ	-9337
▁በቁጥር	-9338
▁ጠየቁ	-9339
▁አለመረጋጋት	-9340
▁ኮርፖሬት	-9341
▁የመካ	-9342
▁ፋይል	-9343
▁ፍላጐት	-9344
ሰብኩ	-9345
▁ቻናል	-9346
▁አጥር	-9347
▁ሩቅ	-9348
ዳጃ	-9349
▁ማድረጋቸውን	-9350
▁አያስፈልገንም	-9351
ፈሩት	-9352
▁ጎረቤት	-9353
▁ፀሀፊው	-9354
ብርብ	-9355
▁በሀሳብ	-9356
▁ያጠፋ	-9357
▁ጥቅስ	-9358
▁ተፈጥሯዊ	-9359
ታቸዉን	-9360
▁ሚድያ	-9361
▁ልምምድ	-9362
▁ትክክለኛውን	-9363
ዘርዝ	-9364
▁ጉዲና	-9365
▁የአሰራር	-9366
ቃቱ	-9367
▁መከተል	-9368
▁አስፍ	-9369
ገራዊ	-9370
▁ትርኢት	-9371
▁እንደምና	-9372
ስቲክስ	-9373
▁በነዚህ	-9374
▁ለመታደግ	-9375
▁ባለቤትነት	-9376
▁ያለንን	-9377
▁አንስተዋል	-9378
▁መነሳት	-9379
▁ኖር	-9380
መለክተው	-9381
▁ካድሬዎች	-9382
ሳድ	-9383
ሳውዲ	-9384
▁ልካ	-9385
▁የተበ	-9386
▁ወንበ	-9387
▁አፍንጫ	-9388
▁ጋብ	-9389
ሰማራት	-9390
▁ከነበሩ	-9391
ተነ	-9392
▁ተኝ	-9393
ዳደሪያ	-9394
▁መስጊ	-9395
▁ክለቡ	-9396
▁በአስር	-9397
▁ምርቶችን	-9398
▁ትግራይን	-9399
ዲግ	-9400
▁ታሪኩ	-9401
▁ያስደ	-9402
ረባ	-9403
ካሂድ	-9404
▁ያለኝ	-9405
▁ወዳጅነት	-9406
ከፍት	-9407
▁ላስ	-9408
▁አልፈው	-9409
በኝ	-9410
ፌኮ	-9411
▁ፓስ	-9412
▁ሰቆቃ	-9413
▁እመቤት	-9414
መጠ	-9415
▁ቤቴ	-9416
▁ሆናለች	-9417
▁የማስተ	-9418
▁በትኩረት	-9419
ቢነት	-9420
▁አጋጥ	-9421
▁ባልሆነ	-9422
▁ሳይንሳዊ	-9423
▁እንደሚሰጥ	-9424
ለምዶ	-9425
▁መነጋገር	-9426
▁ፌስቲ	-9427
ኗኗር	-9428
▁ከግምት	-9429
መጥን	-9430
▁በአፍ	-9431
▁አፍሪካን	-9432
▁እንደራሴ	-9433
▁ፈሪ	-9434
▁ህሙማን	-9435
▁የህወሀ	-9436
▁አስገንዝ	-9437
▁የእስልምና	-9438
ድራል	-9439
▁አቀራረብ	-9440
▁ከአባ	-9441
ጅጋ	-9442
▁በቡድን	-9443
▁ከተደረገ	-9444
▁የቀበሌ	-9445
▁የደብረ	-9446
▁ሏላዊነት	-9447
▁ቅኔ	-9448
▁ሰይፉ	-9449
▁ጌትነት	-9450
▁ኤርትራዊ	-9451
▁አይዘነጋም	-9452
ጣራት	-9453
▁አህጉ	-9454
▁ለመሳተፍ	-9455
▁ስለጠፋባቸው	-9456
▁ማንሳት	-9457
▁ውሳኔው	-9458
ላቸውና	-9459
▁መስራ	-9460
▁የጦርነት	-9461
▁ጥም	-9462
ሰራቸው	-9463
▁ደረጀ	-9464
▁ዝርያዎች	-9465
▁የእርዳታ	-9466
▁ማእቀብ	-9467
▁ውስጥና	-9468
▁መተማመን	-9469
▁ለእው	-9470
▁ይድረስ	-9471
▁መአዛ	-9472
▁ዜጐች	-9473
ሩክ	-9474
▁ይበል	-9475
▁ከጠቅላይ	-9476
▁የሰማያዊ	-9477
▁የተናገረ	-9478
ብብ	-9479
▁መተከል	-9480
ባራ	-9481
▁የከረ	-9482
▁መርከብ	-9483
ሷቸው	-9484
▁አስብ	-9485
▁አቋር	-9486
▁የጎደለው	-9487
▁ሰነዶች	-9488
አፕ	-9489
ረሚያ	-9490
▁ሳር	-9491
▁ተመራጭ	-9492
▁ነበርና	-9493
▁የተሳካ	-9494
▁ድፍረት	-9495
ቃኝ	-9496
በናል	-9497
ደገፈ	-9498
▁የአፍ	-9499
▁የፆታ	-9500
▁ግሩፕ	-9501
ያሌ	-9502
▁ድረገ	-9503
▁የማያስ	-9504
▁የተውጣጡ	-9505
ረህ	-9506
▁ለሞት	-9507
▁ይከፈታል	-9508
▁ተማ	-9509
▁ገጣሚ	-9510
▁ሆስፒታ	-9511
▁የገና	-9512
▁በመከላከያ	-9513
ዝሀ	-9514
▁ለዉ	-9515
▁አንደበት	-9516
▁ውሳኔዎች	-9517
▁የተዘጋጁ	-9518
▁ያደረገውን	-9519
▁የእግዚአብሄርን	-9520
▁ከማለት	-9521
ርጋ	-9522
▁አሚ	-9523
▁ከመቼ	-9524
▁ከጠዋቱ	-9525
ክላ	-9526
ርአቱ	-9527
ቸዋለን	-9528
▁በረከ	-9529
▁ደረቅ	-9530
▁ማዳበሪያ	-9531
▁ከካ	-9532
▁ብሩህ	-9533
▁ይቃጠ	-9534
▁ከሚለው	-9535
▁መውጫ	-9536
ጋድ	-9537
ቃቅ	-9538
▁የተነሱ	-9539
▁የአመቱ	-9540
ዘመ	-9541
ጠቀሱት	-9542
▁ጎብኝ	-9543
▁በእምነት	-9544
ጠረው	-9545
▁አይቼ	-9546
ፍነው	-9547
▁ሞል	-9548
ዘርጋት	-9549
▁ስምምነቱ	-9550
▁የተነገረ	-9551
ዲያን	-9552
▁ከች	-9553
▁እንዳሳ	-9554
▁ባልደረባ	-9555
▁ተረጋግጧል	-9556
ላቀቅ	-9557
▁ላንተ	-9558
ቃይት	-9559
ቡባዊ	-9560
▁ከተማን	-9561
▁የስብ	-9562
▁አልማ	-9563
▁ያግኙ	-9564
▁የሚመለከት	-9565
▁ከለ	-9566
▁ብዙዎችን	-9567
ዬው	-9568
▁ምረጥ	-9569
ልኛል	-9570
▁ለማገልገል	-9571
▁የተመለከተ	-9572
ሚካኤል	-9573
▁ሲገቡ	-9574
ጥለው	-9575
▁በተገቢው	-9576
▁እንደዚያ	-9577
▁ጡት	-9578
▁ታሳቢ	-9579
▁እንዲፈጠር	-9580
▁እምብዛም	-9581
▁ያዋ	-9582
▁ተሰባ	-9583
▁ያመላክ	-9584
▁ኮንግረስ	-9585
ቆን	-9586
ግሞ	-9587
▁ማህበሩ	-9588
▁ክፋት	-9589
ታለን	-9590
ደረጃው	-9591
▁የትን	-9592
▁በኮሮናቫይረስ	-9593
▁አይደለችም	-9594
ሾፍቱ	-9595
▁ይጠፋ	-9596
በለዚያ	-9597
▁መሰብሰብ	-9598
▁ጤንነት	-9599
▁አስረድቷል	-9600
ችንም	-9601
ችልበት	-9602
▁አዳነች	-9603
▁አልፈልግም	-9604
ፓር	-9605
▁ለድ	-9606
▁ለረዥም	-9607
▁የተደራጀ	-9608
▁ተስማሚ	-9609
▁ማነ	-9610
▁እንዲካሄድ	-9611
ቀበልም	-9612
▁ፍጡር	-9613
▁ብሄሮች	-9614
▁ክምችት	-9615
ይስ	-9616
ዘዋወር	-9617
▁የተጫ	-9618
▁መፍትሄው	-9619
ቀሱ	-9620
ሻቸው	-9621
▁ለቀው	-9622
▁በምና	-9623
▁ያቀርባል	-9624
▁ሀይለኛ	-9625
ቀበለው	-9626
ብራቶሪ	-9627
▁ሲነሳ	-9628
▁ይፈጥራል	-9629
▁በማሀበራዊ	-9630
▁ዞሮ	-9631
▁ያካተተ	-9632
▁ሰርተው	-9633
▁ስደተኛ	-9634
▁በፓርቲ	-9635
▁የእስር	-9636
▁ማእከላት	-9637
▁እያወ	-9638
ኒስ	-9639
ዉሞ	-9640
ቸገሩ	-9641
▁መቆጣጠ	-9642
▁ይታይ	-9643
▁አሜሪካን	-9644
▁ከእግዚአብሄር	-9645
▁ፆም	-9646
▁መመዝ	-9647
▁ሊደርስ	-9648
▁ፌደራል	-9649
▁አያውቁም	-9650
▁የእንስሳት	-9651
ሰብን	-9652
▁መላክ	-9653
▁የሲቪል	-9654
ስማሙ	-9655
▁የልዩ	-9656
▁የናይ	-9657
▁የሚቀርቡ	-9658
ንጅ	-9659
▁የሰራተኛ	-9660
▁ቀኑን	-9661
▁ወራሪ	-9662
▁የመደ	-9663
ዱና	-9664
▁ማሀበረ	-9665
▁ከግማሽ	-9666
▁ድሮም	-9667
▁አዝማሚያ	-9668
▁ለትምህርት	-9669
ህኒ	-9670
ጃል	-9671
▁በጌ	-9672
▁መቻሉን	-9673
ዋጋ	-9674
▁አጠራ	-9675
▁ካንተ	-9676
▁የመለ	-9677
ጋለጥ	-9678
▁ቫይ	-9679
ዮጵያ	-9680
▁ሽጉ	-9681
▁መርዳት	-9682
▁የምትለው	-9683
ዮርክ	-9684
▁ኦሎምፒክ	-9685
ሎቱ	-9686
▁የሚናገሩ	-9687
አበባ	-9688
▁አላም	-9689
▁ተሰጥቶ	-9690
▁ተመጣጣኝ	-9691
▁ትገኛለች	-9692
ፈተሽ	-9693
▁ከዳ	-9694
▁ሱስ	-9695
▁የልኡ	-9696
▁ምስረታ	-9697
▁ወልቃይት	-9698
ዌር	-9699
▁የበዛ	-9700
▁ያውም	-9701
ሳና	-9702
▁እዚ	-9703
▁ኸ	-9704
ሚኒየም	-9705
ሰሉ	-9706
ብርሀን	-9707
▁እየደረሰ	-9708
ጁንታው	-9709
▁የበር	-9710
▁ያነሰ	-9711
▁ቀርቷል	-9712
ዮተ	-9713
▁መሳሪያዎችን	-9714
ባበሪያ	-9715
ቤትነት	-9716
▁ትችላ	-9717
▁ማስረጃዎች	-9718
▁ዘይቤ	-9719
▁አመቺ	-9720
▁ጥለው	-9721
▁በሌላው	-9722
▁የሰጠውን	-9723
ሱትን	-9724
ዬጵያ	-9725
▁መብቱ	-9726
▁ቅናሽ	-9727
ልፎ	-9728
▁ፀጉ	-9729
▁ወኪል	-9730
▁መደመር	-9731
መዝገቡ	-9732
▁በአጭሩ	-9733
▁ከማንም	-9734
▁የኩባንያ	-9735
▁ማስተካከያ	-9736
▁ሄኖክ	-9737
ቀች	-9738
ቅሉ	-9739
▁ለጤና	-9740
▁አገልጋ	-9741
▁እይ	-9742
▁ይይ	-9743
▁ሊተ	-9744
▁ታሪኮች	-9745
ሸነፉ	-9746
▁ንጥረ	-9747
▁ለሚለው	-9748
▁ለምርጫ	-9749
▁በጋምቤላ	-9750
▁ንስሀ	-9751
▁አዴፓ	-9752
▁በስደት	-9753
▁በጥልቀት	-9754
▁የሚበልጡ	-9755
▁እንድትሆን	-9756
ከናውን	-9757
▁ተፋሰስ	-9758
▁የንብረት	-9759
ጥታው	-9760
ሯቸውን	-9761
▁ከብት	-9762
▁በጭራሽ	-9763
▁ብጥብጥ	-9764
ካዮች	-9765
▁ኮፒ	-9766
▁በምግብ	-9767
▁አካባቢውን	-9768
ገፅ	-9769
▁ካናዳ	-9770
▁የህይወ	-9771
ታየው	-9772
▁የብአዴን	-9773
▁ማመልከ	-9774
▁ከሰማይ	-9775
▁ሀብረተሰቡ	-9776
ሊንጦ	-9777
▁ተደም	-9778
▁ለፖለቲካ	-9779
▁ሚኒስትሯ	-9780
ቤንሻንጉል	-9781
▁ኢየሩሳሌም	-9782
ኚዎች	-9783
▁ሁን	-9784
▁አማረ	-9785
▁ፕሬዘ	-9786
▁ያስታወ	-9787
▁አደረጃጀ	-9788
ርስቲያን	-9789
ላለፊያ	-9790
▁ባልን	-9791
▁ኤርሚያስ	-9792
▁በአሉን	-9793
▁ፎቶግራ	-9794
▁መፈንቅለ	-9795
ክክ	-9796
ከሰተ	-9797
▁ከሲ	-9798
▁አውሬ	-9799
▁ምንዛሬ	-9800
▁የሚረዱ	-9801
▁የአውሮጳ	-9802
▁አወዳድሮ	-9803
ገበር	-9804
▁ጉልበ	-9805
ፌሰር	-9806
▁የግንዛቤ	-9807
ሏቸውን	-9808
▁እንዳንተ	-9809
▁ትምህርታቸውን	-9810
▁ይግባኝ	-9811
▁ትችላላችሁ	-9812
▁አየለ	-9813
▁ጠላቶች	-9814
▁የጂ	-9815
▁ጠጅ	-9816
▁መከሰ	-9817
ምፒውተር	-9818
▁ስቃይን	-9819
▁ባለቤቶች	-9820
▁የዜጎችን	-9821
ሰኝ	-9822
▁መምጣቱ	-9823
ጭን	-9824
▁ምናለ	-9825
▁መደገፍ	-9826
ወርክ	-9827
▁ድባ	-9828
▁ማእድን	-9829
▁የተመሰረተው	-9830
▁ታጋ	-9831
▁በሰማ	-9832
▁ሲመጡ	-9833
▁አስጨ	-9834
▁መፅሀፍት	-9835
▁ፕሪሚየር	-9836
▁ጋጋ	-9837
▁ኡመር	-9838
▁እያልክ	-9839
▁እንዲደር	-9840
ለክ	-9841
▁ማገ	-9842
ኞቻችን	-9843
▁ተጠያቂነት	-9844
▁ድንግል	-9845
▁ናይጄሪያ	-9846
▁እግዚአብሄርም	-9847
▁ሰሎሞን	-9848
ቀረው	-9849
ከፍሉ	-9850
▁ቦምብ	-9851
▁እያየን	-9852
ሌክትሮኒክስ	-9853
▁ልእ	-9854
▁ዘፈ	-9855
ሞራ	-9856
▁በተጨ	-9857
▁ማገልገል	-9858
▁የኢትዮጵያና	-9859
▁ተደርገው	-9860
ሰባዊ	-9861
ለቀቅ	-9862
▁ባልና	-9863
▁አገላለፅ	-9864
ፍኖ	-9865
▁ተኩል	-9866
▁ወሰነ	-9867
▁አማካይ	-9868
▁ማጠናከር	-9869
▁አባላትና	-9870
ወተ	-9871
ኋቸው	-9872
ሰራጨት	-9873
▁ይሰቃ	-9874
▁ሳይቆይ	-9875
ሟን	-9876
▁ከያ	-9877
▁መብትና	-9878
▁ደረጃዎች	-9879
▁በእያንዳንዱ	-9880
▁ከዛም	-9881
ከበረው	-9882
▁ያለአ	-9883
▁ታይቷል	-9884
▁ክብረት	-9885
▁የወቅቱ	-9886
▁በእውቀት	-9887
▁እንደሚቀጥል	-9888
ቀሰው	-9889
▁ሜት	-9890
▁ብይን	-9891
▁በሰብአዊ	-9892
▁የማይችሉ	-9893
ራዊቱ	-9894
▁መፃህፍ	-9895
▁የተሰጣቸው	-9896
ቶቼ	-9897
ፋለች	-9898
▁የሚመለከታቸው	-9899
ሮጥ	-9900
▁መብታቸው	-9901
ደሉ	-9902
▁አደጋው	-9903
▁የሚባሉት	-9904
▁ለማስተካከል	-9905
▁እያንዳንዳቸው	-9906
ልሽ	-9907
▁አስጠን	-9908
▁ከተማው	-9909
▁ለማጋራት	-9910
▁እንግሊዝኛ	-9911
▁በተለምዶ	-9912
▁ብርቱካን	-9913
▁ተፈላጊ	-9914
▁ሰሌዳ	-9915
▁ትህነግ	-9916
ቶሊክ	-9917
▁ፈጥሯል	-9918
ምቢ	-9919
▁የተፋ	-9920
ርስቶስን	-9921
▁የአምስት	-9922
▁ናሙና	-9923
▁በዘላቂ	-9924
ኒስትር	-9925
▁መውሰ	-9926
▁የባሰ	-9927
▁ማጣሪያ	-9928
▁በህጋዊ	-9929
▁በመግለጫው	-9930
ውቅ	-9931
▁በቅጡ	-9932
▁መብላት	-9933
▁እንደቀጠለ	-9934
▁የሚያረጋግጥ	-9935
ኒን	-9936
▁ማለዳ	-9937
▁ከልክ	-9938
▁አስተያየታቸውን	-9939
ሚል	-9940
ካሽ	-9941
ባንድ	-9942
▁መጓ	-9943
▁መጓዝ	-9944
▁የሚፈፀም	-9945
▁ድርጊቱን	-9946
▁ትሪ	-9947
▁የታየው	-9948
▁የዚ	-9949
▁ለመቋቋም	-9950
▁መስፋፋት	-9951
ሰማን	-9952
▁ተይዘው	-9953
ልክት	-9954
▁ቁስ	-9955
▁ተዘጋጅቶ	-9956
▁የሚያስደ	-9957
ለሉ	-9958
ሙትን	-9959
▁በአሸ	-9960
▁ክህደት	-9961
ግት	-9962
▁ህዋ	-9963
▁የፕሬስ	-9964
ደራስ	-9965
ሰባችን	-9966
▁የመስኖ	-9967
ነባ	-9968
ራመድ	-9969
ክሬን	-9970
▁ጭካኔ	-9971
▁ዘግይ	-9972
▁ደብረፅዮን	-9973
▁ሞቱ	-9974
▁ትግሉን	-9975
ገመት	-9976
ክርስትያን	-9977
▁ቁርጠኝነት	-9978
▁በፈረንሳይ	-9979
ጠፋም	-9980
▁የተከሰተውን	-9981
ድረክ	-9982
▁ዲዛይን	-9983
▁ቸል	-9984
▁አሳድ	-9985
▁በወንጀል	-9986
▁ተጠናቀቀ	-9987
▁ሊን	-9988
▁አስፋው	-9989
ዳፊ	-9990
▁እያለች	-9991
▁ጥቅሞች	-9992
▁ፅንፈኛ	-9993
▁ካላቀረበ	-9994
ጋዴ	-9995
▁ለማም	-9996
▁ሊያሳ	-9997
▁በየደረጃው	-9998
ማና	-9999
ዋሽ	-10000
▁እውነትም	-10001
▁ሰበ	-10002
▁ይጎ	-10003
▁ነባራዊ	-10004
▁የሚሰጡት	-10005
▁ይቀርባል	-10006
▁አይታወቅም	-10007
▁ተኛ	-10008
▁ያቃ	-10009
▁ቢሮው	-10010
▁ከማይ	-10011
▁ኢንዱስት	-10012
▁ላን	-10013
ባኖስ	-10014
ዝናብ	-10015
▁ሚንስ	-10016
▁እንላለን	-10017
▁የአንተን	-10018
▁ይሰማኛል	-10019
ቆጠረ	-10020
ወልድ	-10021
▁ጅብ	-10022
▁ለተጨማሪ	-10023
▁የመንፈስ	-10024
ከፋፈ	-10025
▁ካገኘ	-10026
▁በቅርበት	-10027
▁የቱሪዝም	-10028
▁ከመር	-10029
ንሶ	-10030
▁በደርግ	-10031
▁መሞት	-10032
▁በማው	-10033
▁ይሁኑ	-10034
▁የሚገባውን	-10035
ዬት	-10036
▁የቀብር	-10037
▁ጉምሩክ	-10038
መቻቸት	-10039
▁የሚመረ	-10040
▁ለራሳቸው	-10041
▁አገባ	-10042
▁የገቡት	-10043
የኝ	-10044
▁ለመዋ	-10045
▁ማስተር	-10046
▁አሰባ	-10047
▁የመማር	-10048
▁ማንን	-10049
▁ታዳሚ	-10050
▁የቆዳ	-10051
ሽር	-10052
▁እሴ	-10053
▁ካን	-10054
ሳችሁን	-10055
▁ለማንም	-10056
▁የተሰጠውን	-10057
▁አምራቾች	-10058
▁ከገፅ	-10059
▁ማእከሉ	-10060
▁ከኦሮሚያ	-10061
ቄት	-10062
▁ያቆ	-10063
▁የእውቀት	-10064
▁ሰጭ	-10065
▁ለዚሁ	-10066
▁ድርጊቱ	-10067
▁የተማሪዎች	-10068
▁ያደረጉትን	-10069
▁በጥር	-10070
▁የተጠበቀ	-10071
▁የተገለፀው	-10072
ወስደው	-10073
▁ለማው	-10074
▁አስተዳደርና	-10075
▁የቀረበውን	-10076
ናድ	-10077
ሜናዊ	-10078
ቂያው	-10079
▁የሚሰጠውን	-10080
ዋወ	-10081
ገዘ	-10082
▁ግሽ	-10083
▁ጣፋጭ	-10084
▁ክብደት	-10085
መተ	-10086
▁ሜጋ	-10087
▁አልበም	-10088
▁የጀመር	-10089
▁በሚሊዮን	-10090
ሱር	-10091
ወጣም	-10092
▁ኢራን	-10093
▁ነገስት	-10094
▁በሌሎችም	-10095
ዮስ	-10096
▁በዞኑ	-10097
▁በአፍሪቃ	-10098
▁ባህርያት	-10099
▁ዘላለማዊ	-10100
▁የተፈናቀሉ	-10101
▁እንደገለፀው	-10102
ደረስ	-10103
▁ስለምን	-10104
▁ማሽን	-10105
▁በተቻለ	-10106
▁ታጋዮች	-10107
▁በቤተሰብ	-10108
▁የመጣውን	-10109
▁ዱላ	-10110
▁የነበረችው	-10111
▁ተአምር	-10112
▁ተቸ	-10113
▁ጣና	-10114
ዘዋዋሪ	-10115
▁አፈና	-10116
▁አነጋግ	-10117
▁ተማሪዎቹ	-10118
▁የክርስቶስ	-10119
▁በማጥ	-10120
▁መኪኖች	-10121
▁ክርስቲያናት	-10122
ለአ	-10123
▁ለማስቆም	-10124
ሰጣ	-10125
▁ሹመ	-10126
▁ሰማእ	-10127
▁ላላቸው	-10128
▁መያዛቸው	-10129
▁ይጠቁማል	-10130
▁እየመጣ	-10131
▁የምጣኔ	-10132
ናውያን	-10133
▁የሚመሩት	-10134
▁ፃድ	-10135
▁ወያ	-10136
▁የሚሆነውን	-10137
ወለዱ	-10138
▁ያጠ	-10139
▁ጄኔ	-10140
▁ሆቴሎች	-10141
▁ሰልፎች	-10142
▁በአውሮ	-10143
▁የንግድና	-10144
▁ይጠቁማሉ	-10145
▁ተፈናቃዮች	-10146
ምፒዩ	-10147
▁ምትክ	-10148
ጀምረው	-10149
▁የተከበሩ	-10150
▁የሌለበት	-10151
▁መድረኩ	-10152
▁በፊትም	-10153
▁የሚያጋጥ	-10154
▁በማዘጋጀት	-10155
▁ይከተ	-10156
▁ማከናወን	-10157
▁አካላትን	-10158
▁ውህደት	-10159
ነሩ	-10160
▁የተጠየ	-10161
ሌር	-10162
▁ቦር	-10163
▁ባለፈዉ	-10164
▁የፈለ	-10165
▁ተግዳሮ	-10166
▁ኢየሱስን	-10167
ታውቅ	-10168
▁የበለፀ	-10169
▁ተሟጋ	-10170
▁የሳኡዲ	-10171
▁ከመዳን	-10172
▁የተቀረ	-10173
▁የትኛውም	-10174
▁ከኔ	-10175
▁ህጉን	-10176
▁ቁጥሩ	-10177
▁ውክልና	-10178
▁ይቺ	-10179
▁ማድረጋቸው	-10180
▁ቸር	-10181
ፈረንስ	-10182
▁በንጉ	-10183
▁አለህ	-10184
▁በበጀት	-10185
▁እራሳቸውን	-10186
▁የሚገኙትን	-10187
ህተት	-10188
ሎቹን	-10189
▁ተፈር	-10190
▁በእናንተ	-10191
ቲዩብ	-10192
ፎርም	-10193
▁ችግራ	-10194
▁የተዳ	-10195
▁በሚካሄደው	-10196
መናችን	-10197
ዘረጋ	-10198
▁እየተን	-10199
▁ለመወጣት	-10200
▁ሀገራችንን	-10201
ሄደው	-10202
▁ሆነች	-10203
▁ለማስፈፀም	-10204
ሰራበት	-10205
▁እልባት	-10206
▁የማይወ	-10207
▁ለመጠየቅ	-10208
▁ቤተመንግስት	-10209
▁ለማሰ	-10210
ኮታዊ	-10211
▁በውስጥ	-10212
▁የክፍያ	-10213
▁ያመጣል	-10214
▁ጉራጌ	-10215
▁የመጀመርያው	-10216
▁ቤትም	-10217
▁ከሌለ	-10218
▁እየተቀ	-10219
▁በመውጣት	-10220
▁አግኝተው	-10221
▁እቃዎችን	-10222
▁ቁሳቁሶች	-10223
▁ግለሰቦችን	-10224
ረረ	-10225
ዘሩ	-10226
▁ለራስ	-10227
ንዛኒያ	-10228
▁ሰዎቹ	-10229
▁በወንድ	-10230
▁የእስራኤ	-10231
▁ያነሳሳናል	-10232
▁የሚኒስትሮች	-10233
▁የተመድ	-10234
ፕላ	-10235
▁ማሻሻል	-10236
▁ልቡ	-10237
▁መመስ	-10238
▁ቅርሶች	-10239
▁የማስከበር	-10240
▁ባለሙያዎችን	-10241
ሀፍ	-10242
▁ሙላቱ	-10243
ፔን	-10244
▁ትተው	-10245
▁እድሉ	-10246
▁ባደረገ	-10247
▁እንዲል	-10248
▁የሚሄድ	-10249
▁ለመምራት	-10250
▁እትም	-10251
▁የተማሪ	-10252
▁የአማ	-10253
ጅቶ	-10254
▁ይጋ	-10255
▁የቀረው	-10256
▁ቆም	-10257
▁የሚነገር	-10258
ረርሽ	-10259
▁ጫት	-10260
▁ኮንጎ	-10261
▁የፊት	-10262
▁የፌዴሬሽን	-10263
▁በማስመልከት	-10264
ሪም	-10265
ቶችዎ	-10266
▁ኡስታዝ	-10267
▁ሳታ	-10268
▁እንቆ	-10269
▁ወርቅነህ	-10270
ሰጡት	-10271
ፍትሀዊ	-10272
▁የንግ	-10273
▁ከክልሉ	-10274
ስተናግ	-10275
▁መመዘኛ	-10276
ረሱን	-10277
ገኝነት	-10278
▁የተመደ	-10279
▁አፍሪካውያን	-10280
▁ወቀሳ	-10281
▁መድረሱ	-10282
▁ራስህን	-10283
▁በመረጃ	-10284
▁አይተ	-10285
▁ወይን	-10286
በታለሁ	-10287
▁የወር	-10288
▁ያደርግ	-10289
▁ባለሀብት	-10290
▁ትምህርቶች	-10291
▁ኘ	-10292
▁ታም	-10293
▁ለወጣ	-10294
▁የወል	-10295
▁እያልኩ	-10296
▁ብሄረሰቦችና	-10297
ሳለን	-10298
▁ኢብ	-10299
▁አገርን	-10300
ሬሽ	-10301
▁ለፀ	-10302
▁ቁሳቁስ	-10303
▁ሊያደርጉ	-10304
▁የሚከተሉትን	-10305
▁ሞዴል	-10306
ፋችሁ	-10307
▁በመቶዎች	-10308
▁ተዘግቧል	-10309
ሰዉ	-10310
▁በመው	-10311
ላችኋል	-10312
ዛጋቢ	-10313
▁ለጠ	-10314
▁የአቋም	-10315
▁ወንድሞቻችን	-10316
ጓሜ	-10317
▁ይመሰ	-10318
▁የሚገርም	-10319
▁ተከስቶ	-10320
ረሪ	-10321
▁ጥናትና	-10322
▁አባልነት	-10323
ድባ	-10324
▁ተኩ	-10325
▁ጉም	-10326
▁የተሾ	-10327
▁እየተከናወነ	-10328
▁መራራ	-10329
▁ሀብረተሰብ	-10330
ብሽ	-10331
ሽናል	-10332
▁መሳይ	-10333
▁በትንሹ	-10334
▁እዚሁ	-10335
▁ይገባቸዋል	-10336
▁አንገት	-10337
▁የልደት	-10338
▁እንደሚጠበቅ	-10339
▁ከሊ	-10340
▁ቢኖሩም	-10341
▁እንዲህም	-10342
▁ወርዶ	-10343
▁ዘና	-10344
ምፒዮን	-10345
▁ሲገኝ	-10346
▁ፍጆታ	-10347
▁ነግረው	-10348
ሸጡ	-10349
▁ለጋዜጠኞች	-10350
▁ኢትዮጵያዊው	-10351
▁እንዲደርስዎ	-10352
ክሬ	-10353
▁ተወዳ	-10354
▁ይወጣል	-10355
▁በድፍረት	-10356
▁ተእለት	-10357
▁ያገኙት	-10358
▁ንክ	-10359
▁ሀሳቡ	-10360
▁በንፁ	-10361
ነጋገሪያ	-10362
▁አውሮጳ	-10363
ሳትና	-10364
ትስአፕ	-10365
▁ሲሰጡ	-10366
▁ምንኛ	-10367
▁አቀፋዊ	-10368
▁የህብረተሰቡ	-10369
▁ለፍትህ	-10370
ቀበሉት	-10371
ጎልበት	-10372
▁ለሰዎች	-10373
▁መብትን	-10374
▁አክለውም	-10375
▁የበላይነትን	-10376
ፈሻ	-10377
▁ግርግር	-10378
ቻች	-10379
ጎብኘት	-10380
▁የጨረ	-10381
▁መድህን	-10382
▁የሰራው	-10383
▁በቀጣይም	-10384
ቴው	-10385
▁በአዳማ	-10386
▁ተምሳሌ	-10387
▁ኢህአዴግን	-10388
▁ተጠቃሽ	-10389
▁የዋስትና	-10390
▁ፅሁፎችን	-10391
▁አላስፈላጊ	-10392
▁ሲን	-10393
▁አባቶቻችን	-10394
ወርወር	-10395
ነስቲ	-10396
ንቀቅ	-10397
▁ዘሪሁን	-10398
ታገ	-10399
▁ልቤ	-10400
▁አመታትን	-10401
▁ያስፈልገዋል	-10402
ፈፃፀ	-10403
▁ለመል	-10404
▁አጋጣሚዎች	-10405
ቀዉ	-10406
▁አፍቃሪ	-10407
▁ለመስማት	-10408
▁የተቀመጠ	-10409
▁ፍቃዱ	-10410
▁አስታውሰዋል	-10411
▁አክሊ	-10412
▁የመጠጥ	-10413
መዉ	-10414
ዘዘ	-10415
ቦራቶሪ	-10416
▁ዝምታ	-10417
▁ዘርፈ	-10418
▁ቤቶችና	-10419
▁ማበረታቻ	-10420
▁ኮሙዩኒኬሽን	-10421
▁አወቃ	-10422
▁የሚሳተፉ	-10423
▁የሚኖሩት	-10424
▁ላሉት	-10425
▁መልአክ	-10426
▁መግለፃ	-10427
▁ማንንም	-10428
▁ቢደረግ	-10429
▁ደርሰዋል	-10430
ሻለቃ	-10431
▁ጋሽ	-10432
ግበሪያ	-10433
▁የሚጠራ	-10434
ዘዙ	-10435
▁አሉን	-10436
▁ተቆርቋ	-10437
▁ደንበኛ	-10438
መላ	-10439
ሱበት	-10440
ዝዳንት	-10441
▁ለግል	-10442
▁ካምፓ	-10443
▁የኦህዴድ	-10444
▁ለመቅ	-10445
▁አሮጌ	-10446
▁ከራሱ	-10447
▁አክሱም	-10448
▁ዋሉ	-10449
▁እያን	-10450
▁ለመቀጠል	-10451
▁በማሳየት	-10452
ጎበኙ	-10453
▁በመኪና	-10454
▁የሚያውቅ	-10455
▁ግማ	-10456
▁ለእነዚህ	-10457
▁ስርጭትን	-10458
▁በጉባኤ	-10459
▁ክስተቶች	-10460
▁ዴኤታ	-10461
▁ቴክኒክ	-10462
▁ገንዘቡን	-10463
▁ይቅርና	-10464
ጨረስ	-10465
▁አሜሪካዊ	-10466
ኮስ	-10467
ጥበት	-10468
▁ፍንዳታ	-10469
▁የሚገመት	-10470
ራምፕ	-10471
▁ሰልፈ	-10472
▁በበለጠ	-10473
▁ህገመንግስ	-10474
▁ዋሻ	-10475
▁በማለ	-10476
▁በማንሳት	-10477
▁በወረዳው	-10478
ለህም	-10479
▁አሶ	-10480
▁ወዳጆ	-10481
▁የቱርክ	-10482
ጮቹ	-10483
ፋጠ	-10484
▁መቃወ	-10485
▁አከራ	-10486
ውለው	-10487
▁እንሰራ	-10488
▁ምርጫውን	-10489
▁የደስታ	-10490
▁በድሬዳዋ	-10491
ራዩ	-10492
▁አሉኝ	-10493
▁ፕሮፓጋንዳ	-10494
▁ማሀበሩ	-10495
▁የሚሰሩት	-10496
▁የተኩስ	-10497
▁ፍራፍሬ	-10498
▁ለአምስት	-10499
▁የደረሰውን	-10500
ፋጣኝ	-10501
▁ንግድና	-10502
ቁና	-10503
ርምያስ	-10504
ከተሉት	-10505
▁ፅድቅ	-10506
▁በምርጫው	-10507
▁በተዘዋዋሪ	-10508
▁ጋዝ	-10509
ገኛል	-10510
▁ምሳ	-10511
▁የሪ	-10512
ስትያ	-10513
▁መምህራ	-10514
▁በመሬት	-10515
▁በአራ	-10516
ንኦት	-10517
▁በሳምንት	-10518
▁ይገመታል	-10519
▁የማሀበራዊ	-10520
▁አልነበሩ	-10521
ማኝነት	-10522
ስተናገ	-10523
▁ለመው	-10524
▁ዘግና	-10525
▁የሚያወ	-10526
▁አስተዳደራዊ	-10527
▁ተጫው	-10528
▁መሀከል	-10529
▁ዝርዝሩን	-10530
ለዩ	-10531
ኖሩበት	-10532
▁ልሳነ	-10533
▁ህዝብም	-10534
▁ያሳያሉ	-10535
▁ተገኝቷል	-10536
▁የዜግነት	-10537
▁በመሳሰ	-10538
▁አለዎት	-10539
▁አጥንት	-10540
▁የሚውሉ	-10541
▁የእቅድ	-10542
▁ማዘጋጀት	-10543
▁ያፀ	-10544
▁በአት	-10545
▁ተገደሉ	-10546
▁ግድቡን	-10547
▁አብራ	-10548
▁ህዝቡም	-10549
▁አቀንቃ	-10550
▁ጨዋታውን	-10551
▁በልጅ	-10552
▁ካለፉት	-10553
▁የመለስ	-10554
▁መድሀኒቶች	-10555
▁ክሱ	-10556
▁ፈጣ	-10557
▁ሂደቱን	-10558
▁አረጋዊ	-10559
▁ከመቀ	-10560
ቡል	-10561
▁ከአውሮፓ	-10562
ፉበት	-10563
▁ጉባኤውን	-10564
▁ተግባራትን	-10565
▁እንደሚኖር	-10566
ከሙ	-10567
ሻሻለ	-10568
ከንቱ	-10569
▁ለኦሮሞ	-10570
ዝናኛ	-10571
ሏቸዋል	-10572
ስልጣኑ	-10573
▁በተሰጠው	-10574
▁ዳይሬክቶ	-10575
▁በዛሬ	-10576
▁ይስማ	-10577
▁እርሱን	-10578
▁አባታችን	-10579
▁መከል	-10580
▁እንደማን	-10581
▁የሚናገረው	-10582
ምቢያ	-10583
ነበብ	-10584
▁ዋት	-10585
▁ፈላ	-10586
▁ይከፍ	-10587
▁ውድመት	-10588
▁እንደዘገበው	-10589
▁ዳዊ	-10590
▁በደረሰው	-10591
▁በመገልበጥ	-10592
▁እንበል	-10593
▁በያዝነው	-10594
ጠቅላላው	-10595
▁ስነስርአት	-10596
ባርቅ	-10597
▁የጆ	-10598
▁እውነቱ	-10599
▁የህሊና	-10600
▁በመቃብር	-10601
▁እንቁላል	-10602
▁ሲሄዱ	-10603
▁ክረምት	-10604
አትር	-10605
▁ሲደ	-10606
▁ለቅሶ	-10607
▁ሊመጣ	-10608
▁መኖራቸው	-10609
ሉኝ	-10610
▁ለፈ	-10611
ቀትና	-10612
▁ሀይልና	-10613
▁ከመሬት	-10614
▁የሚከተሉት	-10615
ከፈለ	-10616
▁ሰይጣ	-10617
ነፍ	-10618
▁ኮሮናቫይረስ	-10619
▁እንደሚሰሩ	-10620
▁ሀርቬይ	-10621
▁አድርገህ	-10622
ፍተው	-10623
▁ከጦር	-10624
▁በልማት	-10625
▁አስከት	-10626
▁ለማስገባት	-10627
ወሰደው	-10628
▁ባቀረቡት	-10629
▁ለውጡን	-10630
▁የታክስ	-10631
▁በኢንተርኔት	-10632
▁ሸለቆ	-10633
▁ይከታተሉ	-10634
▁ሁለንተናዊ	-10635
ሜል	-10636
ጨፈጨ	-10637
▁ስታድ	-10638
▁ኤድስ	-10639
▁ክንድ	-10640
ጠቱ	-10641
▁ከመጠን	-10642
▁ገብነት	-10643
▁ብልህ	-10644
▁መወሰኑን	-10645
ደንቅ	-10646
▁የመድሀኒት	-10647
▁ወጡ	-10648
▁ሀይለማ	-10649
▁ይጠብቃሉ	-10650
ፖርቱ	-10651
▁የዮ	-10652
▁በመላክ	-10653
▁ውድድሩ	-10654
▁ባለን	-10655
▁ያለባቸውን	-10656
▁በዩኒቨርሲቲ	-10657
▁ርብርብ	-10658
▁አልተቻለም	-10659
ሪድ	-10660
ነመ	-10661
▁ከጅ	-10662
▁ፍተሻ	-10663
▁ምድርን	-10664
▁ድክመት	-10665
▁ነገድ	-10666
▁ኮንዶ	-10667
ሳሪያ	-10668
▁መደበ	-10669
▁አውታ	-10670
▁በጥናት	-10671
▁የኦሮሞን	-10672
ፀባረቅ	-10673
▁ለመመ	-10674
▁ወዳጆች	-10675
▁የተቀመጡ	-10676
▁ቀዶ	-10677
▁ልማታዊ	-10678
▁እንጠይ	-10679
▁የእውነት	-10680
▁ጥያቄውን	-10681
▁ከአካባቢው	-10682
▁ባለመኖሩ	-10683
ኖራት	-10684
▁ሩብ	-10685
▁ተዘዋ	-10686
▁ሲሚንቶ	-10687
▁አልተናገ	-10688
▁መርዝ	-10689
▁ሞትን	-10690
▁መጀመሩ	-10691
▁አድርጓ	-10692
▁በእንግሊዝኛ	-10693
ጣሊያ	-10694
▁ተቀላቅ	-10695
▁በነበሩት	-10696
▁በአልን	-10697
▁አለማቀፍ	-10698
▁ደረጃውን	-10699
▁አልቻልኩም	-10700
▁ከሸ	-10701
ሰባሰቡ	-10702
▁የትብብር	-10703
▁እርምጃዎችን	-10704
▁ካህና	-10705
▁ይጠብቅ	-10706
ገድል	-10707
▁ጊዜና	-10708
▁መመርመር	-10709
▁አርቲስቶች	-10710
ምሳ	-10711
ርዳ	-10712
ጠባበ	-10713
የታቸው	-10714
▁በታላቅ	-10715
▁ተጠናቆ	-10716
▁መኮንኖች	-10717
ራህ	-10718
በና	-10719
ደሱ	-10720
▁ሽንፈት	-10721
▁ኦሮምኛ	-10722
▁እንዲከበር	-10723
ታሪ	-10724
▁ቅሬ	-10725
▁ዋልታ	-10726
▁ገጠር	-10727
▁መወጣት	-10728
▁መንገዶችን	-10729
ዳጅነት	-10730
▁በምታ	-10731
▁አለመቻ	-10732
▁እስልምና	-10733
▁መያዛቸውን	-10734
▁ገጠመ	-10735
ንቅስቃሴ	-10736
▁መንገሻ	-10737
▁የትግሬ	-10738
▁የገለፁ	-10739
▁ዴንትን	-10740
▁አስተናጋ	-10741
ዱላ	-10742
ዱትን	-10743
▁መፈለግ	-10744
▁አይተው	-10745
▁ሸማ	-10746
▁ሰነዱ	-10747
▁በነገው	-10748
▁የህንፃ	-10749
▁ሰማኒያ	-10750
▁በስድስት	-10751
▁ባለመቻሉ	-10752
▁በዘላቂነት	-10753
ቆረ	-10754
▁ቤትን	-10755
▁መታገል	-10756
▁የሚነካ	-10757
▁የሸገር	-10758
ጎስ	-10759
▁ዘፋ	-10760
▁ሊትር	-10761
▁ዩኒቨርሲቲው	-10762
ቲካ	-10763
ዝያ	-10764
ችሉት	-10765
ደረው	-10766
ፈፀሚያ	-10767
▁ባሳለፍነው	-10768
▁የአሜሪካው	-10769
ንፍ	-10770
▁ልኡካን	-10771
ጣመ	-10772
ኗን	-10773
ሉንም	-10774
ኖሩን	-10775
▁መሰብ	-10776
ጫት	-10777
ዱሳን	-10778
▁በወን	-10779
ግባቸው	-10780
ደርጋቸው	-10781
▁ለመለየት	-10782
▁የተመረጡ	-10783
ሺያ	-10784
ባትም	-10785
ከንድ	-10786
▁አገዛ	-10787
▁ፈረስ	-10788
▁የዘንድሮው	-10789
ረዳቸው	-10790
▁ይመለ	-10791
▁እንደሚያደርጉ	-10792
▁ምኑ	-10793
▁በመቅረ	-10794
▁ሙስ	-10795
▁ንጉሰ	-10796
▁የማታ	-10797
▁እናገኛለን	-10798
▁ባራክ	-10799
▁መሰራት	-10800
▁ማጋሪያ	-10801
▁ተለይቶ	-10802
▁በውል	-10803
▁በህዳሴ	-10804
▁እንዲመጣ	-10805
▁የፓለቲካ	-10806
▁እንደኔ	-10807
▁እስኪያደርጉ	-10808
▁አዘው	-10809
ጩት	-10810
▁ጄነራል	-10811
አቱ	-10812
ፆችን	-10813
▁ቆራ	-10814
▁ጳጉ	-10815
ቅላ	-10816
ሪያን	-10817
ቃዋሚ	-10818
▁በረሀብ	-10819
▁መመሪያዎች	-10820
ቀናል	-10821
▁በፖ	-10822
▁እቅዱ	-10823
▁እንደማት	-10824
ጫቸው	-10825
▁ወያኔዎች	-10826
▁ዲስ	-10827
▁ከሀዲ	-10828
▁በመምጣት	-10829
▁የሚጠራው	-10830
ጧት	-10831
▁የቆመ	-10832
▁የአሳ	-10833
▁በማግኘት	-10834
ብዳቤ	-10835
▁ተቃራኒ	-10836
▁ቀጣይነት	-10837
የተ	-10838
▁እርካታ	-10839
▁የፍልስ	-10840
ዋለ	-10841
▁እሴቶች	-10842
▁ኢንጅነር	-10843
▁ጥናታዊ	-10844
ላኩ	-10845
▁ሜዳሊያ	-10846
ዜር	-10847
ስትሮ	-10848
ቶኛል	-10849
▁ሊያስከትል	-10850
▁የክርስትና	-10851
▁ሲገልፁ	-10852
▁አየሁ	-10853
▁ይከብዳል	-10854
▁መልሱ	-10855
▁የኖር	-10856
▁እናያለን	-10857
▁ለአንተ	-10858
▁መምረጥ	-10859
▁አድሀኖም	-10860
ሀላ	-10861
ባውያን	-10862
▁መቆየት	-10863
▁አፋጣኝ	-10864
▁ፍቅርና	-10865
▁በግለሰብ	-10866
▁ሻይ	-10867
▁ቁል	-10868
መዳን	-10869
▁ማተ	-10870
ማትና	-10871
ሰብል	-10872
▁ይወድ	-10873
▁ያመለክታሉ	-10874
ልዎ	-10875
▁አንጋፋ	-10876
▁ጀመርኩ	-10877
▁መላእክት	-10878
▁በመገንባት	-10879
ፀድቅ	-10880
▁ቢታ	-10881
▁ተጠም	-10882
▁ምግቦች	-10883
ቁበት	-10884
ታትና	-10885
▁ተቆራጭ	-10886
▁እንደነበረው	-10887
ፎቹ	-10888
▁ልጃቸው	-10889
▁ማምረቻ	-10890
▁በተስፋ	-10891
▁ያስተላል	-10892
▁ህገመንግስት	-10893
▁እያደረገልኝ	-10894
ጎማ	-10895
መልሱ	-10896
ማመጥ	-10897
▁የሚጋ	-10898
▁የሚበልጥ	-10899
▁ርዳታ	-10900
▁የዱር	-10901
▁ደማቅ	-10902
▁ግብፃ	-10903
ሾም	-10904
▁ናፍቆት	-10905
▁የሚነግ	-10906
ዢው	-10907
▁ተከራ	-10908
▁ማድረስ	-10909
▁የኖቤል	-10910
ፍረው	-10911
▁አካውንት	-10912
ቸን	-10913
ተኮር	-10914
ክራሲ	-10915
ኩርት	-10916
▁ትግራ	-10917
▁አባላ	-10918
▁ተቋርጦ	-10919
▁ገፃቸው	-10920
▁ኤሊ	-10921
▁ሊቢያ	-10922
ሮባንድ	-10923
▁ምክረ	-10924
▁እየነ	-10925
ቀላ	-10926
▁ዋጋው	-10927
▁እንደነገራችሁ	-10928
▁ብለ	-10929
ያችንን	-10930
▁እቅድዎ	-10931
ችኝ	-10932
▁ቻር	-10933
ፌዴሬሽን	-10934
▁በምክር	-10935
▁ኢነርጂ	-10936
▁ኢዜአ	-10937
▁ቢኖርም	-10938
▁ከወንድ	-10939
▁በማሸነፍ	-10940
▁ለማይ	-10941
▁አለቆች	-10942
▁የቡድኑ	-10943
ሺንግተን	-10944
▁በጥብቅ	-10945
▁ተጠየቀ	-10946
ገቱ	-10947
▁ከቡ	-10948
▁ማራኪ	-10949
▁ከቢ	-10950
▁እንደሚመታ	-10951
ልፈው	-10952
▁ገብሩ	-10953
▁ቁማር	-10954
▁ከኋላ	-10955
▁ለንባብ	-10956
▁ውለታ	-10957
▁የተካ	-10958
▁ያገኛል	-10959
▁የተደራጁ	-10960
▁ቆስ	-10961
▁ፊደ	-10962
▁አንጀ	-10963
▁ደረጃን	-10964
ቋረጡ	-10965
▁ወዷ	-10966
▁የሚያስፈልጉ	-10967
ሽከረ	-10968
▁በናይ	-10969
▁የፈፀሙ	-10970
▁ትክክለኛው	-10971
▁ጃፓን	-10972
▁ለማስቀጠል	-10973
▁በዋሽንግተን	-10974
ምግባር	-10975
ኑና	-10976
▁ይታያሉ	-10977
▁መፈናቀል	-10978
▁ቦታዎችን	-10979
ሮኮ	-10980
▁አመላ	-10981
▁በፓርላማ	-10982
▁ባጠቃላይ	-10983
▁የመስቀል	-10984
ሳም	-10985
▁ምፅ	-10986
▁ለብሄራዊ	-10987
የአ	-10988
ጠናቅ	-10989
▁ባለስልጣኖች	-10990
ዟቸው	-10991
▁መሻ	-10992
▁ተናግረው	-10993
▁አቅርበው	-10994
▁ቃሉን	-10995
▁የስጋ	-10996
▁ፍኖተ	-10997
▁የጥራት	-10998
▁እንግልት	-10999
ደቀው	-11000
▁ተነጋ	-11001
▁አብዝ	-11002
▁ለንደን	-11003
▁መቆጣጠሪያ	-11004
▁እንደሆነች	-11005
▁ሀገሩ	-11006
▁በቶሎ	-11007
▁መቁረጥ	-11008
▁በበሽታው	-11009
ፍጥ	-11010
▁ጐጃም	-11011
▁መሰረቱ	-11012
▁ትርጓሜ	-11013
▁የሚመስል	-11014
ፒታል	-11015
▁ይባል	-11016
▁በመጠበቅ	-11017
▁ጀልባ	-11018
▁ያነሳሳበትን	-11019
▁ከሆ	-11020
▁ነፍሰ	-11021
▁ሰርቪስ	-11022
▁በመሰረቱ	-11023
▁የምክክር	-11024
ጠናቀቁን	-11025
▁የተገነባ	-11026
▁በዘንድሮው	-11027
ገሩን	-11028
ረስላሴ	-11029
▁በአሁን	-11030
▁መገደላቸውን	-11031
ኳት	-11032
▁አስኪያጁ	-11033
▁በክርስቶስ	-11034
ያንን	-11035
▁በመወ	-11036
▁ጤፍ	-11037
▁ካሜራ	-11038
▁የግራ	-11039
ቀዝ	-11040
ዋሪዎች	-11041
▁ኦፊ	-11042
ንቀሳቀሰ	-11043
▁ቡድኑን	-11044
▁ይጠበቅባቸዋል	-11045
ቅሶ	-11046
▁ነውን	-11047
▁የሚመለከተው	-11048
ሸሸ	-11049
ቆቹ	-11050
▁ተሰና	-11051
▁ጎረቤ	-11052
▁ቤታችን	-11053
▁በቴክኖሎጂ	-11054
▁የሚባለውን	-11055
ፈጥሩ	-11056
ሸር	-11057
በሱ	-11058
▁ሬድዮ	-11059
▁የመላው	-11060
ወክ	-11061
▁ቢን	-11062
▁በማየት	-11063
▁ባሰ	-11064
ገለፅም	-11065
▁ለግብ	-11066
▁በአር	-11067
▁ተሰጠ	-11068
▁አመጣ	-11069
▁በርከት	-11070
▁የራስን	-11071
▁ከእነዚህም	-11072
▁አስፈሪ	-11073
▁ቤተሰቦቻቸው	-11074
▁ታሳ	-11075
▁አንበጣ	-11076
▁ዉሳኔ	-11077
▁ጳጳስ	-11078
▁በዚህች	-11079
▁አይቀሬ	-11080
▁ይደርስ	-11081
▁ውሳኔውን	-11082
▁የኡ	-11083
▁ድግስ	-11084
▁በድምሩ	-11085
▁አልነበር	-11086
ገየ	-11087
▁እኩይ	-11088
▁ተናግራ	-11089
ሆናችሁ	-11090
▁የዚያ	-11091
▁ለልማት	-11092
▁በጎርጎ	-11093
ታቸውንና	-11094
ሀገር	-11095
መስገን	-11096
▁ሀውስ	-11097
▁በፅኑ	-11098
▁ጀማል	-11099
ነፈ	-11100
▁ደሴት	-11101
▁አለብህ	-11102
▁ይሉታል	-11103
▁ደደቢት	-11104
▁እንዲነሳ	-11105
▁ታደለ	-11106
▁ተሞ	-11107
▁ሰንጠረ	-11108
ለውጥ	-11109
ከሰተው	-11110
▁ይመራ	-11111
▁እስረኛ	-11112
▁ኮማንድ	-11113
▁የእድገትና	-11114
ደበት	-11115
▁ሳላ	-11116
ሌቲክስ	-11117
▁ጥርስ	-11118
ላሊት	-11119
▁ሀና	-11120
▁ፍሰ	-11121
▁ባለቤቱ	-11122
▁ጋዜጦች	-11123
▁ያመላክታል	-11124
▁አልሆነም	-11125
▁ተገድለዋል	-11126
▁የነበረበት	-11127
ፉም	-11128
ስታው	-11129
▁በቀጣ	-11130
▁የጣሊያን	-11131
▁ይገባናል	-11132
▁ሲወጡ	-11133
ቦላ	-11134
▁ልበል	-11135
▁በአለ	-11136
▁አውቆ	-11137
▁መጠነኛ	-11138
▁ይሰማል	-11139
▁የሁለቱን	-11140
▁ከማሳ	-11141
▁የሚያወጣ	-11142
ቻቸዉ	-11143
ገራቸውን	-11144
▁ጊዜውን	-11145
▁አገልግሎቶችን	-11146
▁ሄዱ	-11147
▁በሳምንቱ	-11148
▁የስብሰባ	-11149
▁ኮንፈረንስ	-11150
▁በአመቱ	-11151
▁እየተነገረ	-11152
▁ፕሮጀክቶችን	-11153
ነበቡ	-11154
ድቡ	-11155
ቭልን	-11156
▁እስከተ	-11157
ቋረጠ	-11158
▁ፐር	-11159
▁የመም	-11160
▁ትፈልጋ	-11161
▁በሚቀጥሉት	-11162
▁እፎ	-11163
▁የተገ	-11164
▁እየሰጡ	-11165
ሙርት	-11166
ናችሁ	-11167
▁ለማሸነፍ	-11168
ጫወቻ	-11169
▁ነፃነትን	-11170
▁የሰጡትስ	-11171
▁የሚያስፈል	-11172
▁ሚኒሊክ	-11173
▁ከአመት	-11174
▁ፔቭልን	-11175
ችዉ	-11176
▁ዛቻ	-11177
ኞቻቸው	-11178
▁መደረ	-11179
▁እንተ	-11180
▁ከፈለጉ	-11181
ሳዊው	-11182
▁አብመድ	-11183
▁የሚቆይ	-11184
▁በጉባኤው	-11185
▁ዋትስአፕ	-11186
▁ገንዘብና	-11187
▁እየተስፋፋ	-11188
ዘበ	-11189
▁አምኖ	-11190
▁አፅድ	-11191
▁አምስተኛ	-11192
▁የሰላምና	-11193
▁ይቃጠላል	-11194
▁ኢንቨ	-11195
▁እናቱ	-11196
▁ባለቤቴ	-11197
▁እያካሄደ	-11198
ደሙ	-11199
▁ኪንግ	-11200
▁እኒ	-11201
▁ጎርፍ	-11202
▁ችለናል	-11203
▁በተያዘው	-11204
▁አገልግሎቱ	-11205
▁የጎላ	-11206
▁የጎዳና	-11207
▁ማስቀመጥ	-11208
▁በማካሄድ	-11209
ሪያቸውን	-11210
▁በፀሎት	-11211
▁ዳይሬክቶሬት	-11212
ማቱ	-11213
ቋቋመው	-11214
▁ከአስ	-11215
▁ትምክህ	-11216
▁አጠቃቀ	-11217
▁ይሻቸዋል	-11218
▁ያስፈልገናል	-11219
▁ሙያዊ	-11220
▁ዮናስ	-11221
▁ጨረቃ	-11222
ጊዮርጊስ	-11223
▁መፈክር	-11224
▁በድርጅቱ	-11225
▁አሳስቧል	-11226
ሊኮ	-11227
ቁትን	-11228
▁ቀድመው	-11229
▁አገኘሁ	-11230
▁የቄ	-11231
▁በባንክ	-11232
▁መርከቦች	-11233
▁ክብርና	-11234
ክንያት	-11235
▁የጠቀሱት	-11236
▁ለማዘጋጀት	-11237
ብሎስ	-11238
▁ነገረ	-11239
▁አካሄ	-11240
▁መታሰር	-11241
▁የመስራት	-11242
▁የደረሰበት	-11243
▁ሚስቱ	-11244
▁ወስኗል	-11245
▁ይጠቅማል	-11246
ጭቱ	-11247
▁ማእድ	-11248
▁በአንዱ	-11249
▁ትልቁን	-11250
▁የሚሄዱ	-11251
▁የፅህፈት	-11252
▁ሽልማችሁን	-11253
▁ፕላኖቻችን	-11254
ነነ	-11255
ጠቃለያ	-11256
▁አርበኛ	-11257
▁አስርት	-11258
▁ፌዴሬሽኑ	-11259
▁ለሀገራችን	-11260
▁አስተላልፈዋል	-11261
እከ	-11262
ጣጠ	-11263
▁አልነበሩም	-11264
ቅዱ	-11265
▁ብሩክ	-11266
▁መሳተፍ	-11267
▁ተለያይ	-11268
▁ዲያስፖራ	-11269
ገጃ	-11270
ታቸውንም	-11271
▁የምእራ	-11272
▁ለከፍተኛ	-11273
▁አልተናገረም	-11274
ጠጡ	-11275
ክሽን	-11276
▁የሉም	-11277
▁ሀብትና	-11278
▁አለመኖር	-11279
ሯሯ	-11280
ባብዌ	-11281
ሰራጨ	-11282
ገለጠ	-11283
▁ተህ	-11284
▁ብርቅ	-11285
▁ይማር	-11286
ዴላ	-11287
▁ተከል	-11288
▁ርዝመት	-11289
▁ወጥቷል	-11290
▁የወይን	-11291
ጠፋው	-11292
ሯቸዋል	-11293
ገንጠል	-11294
▁ፍሰት	-11295
አይቪ	-11296
▁ሊሰጠው	-11297
▁በቅዱስ	-11298
▁እርሶም	-11299
▁ጣቢያው	-11300
▁በመቀበል	-11301
▁በግራ	-11302
▁ነቢዩ	-11303
▁ሽብርተኝነት	-11304
▁በዉ	-11305
▁ሊቃውንት	-11306
ቪክ	-11307
▁ግዢ	-11308
▁ማስያዝ	-11309
▁በሚደረግ	-11310
▁ኮሙኒኬሽን	-11311
ሆንን	-11312
▁ለመለወጥ	-11313
ጥብ	-11314
▁ከለላ	-11315
ደሚያ	-11316
▁ሄጄ	-11317
▁አጥፊ	-11318
▁ፍቅርን	-11319
ያዊነት	-11320
▁መልሰው	-11321
▁ጌታሁን	-11322
▁እንደመጣ	-11323
▁እየቀነሰ	-11324
ጥላ	-11325
▁በሄ	-11326
ላይነት	-11327
ሻይ	-11328
▁ለእር	-11329
▁ማዳን	-11330
▁ከመስጠት	-11331
▁መዋጮ	-11332
ክራል	-11333
ገነዘቡ	-11334
▁ለመማር	-11335
▁በእነሱ	-11336
▁ሚንስቴር	-11337
▁የተና	-11338
▁ስላልተ	-11339
ለተ	-11340
▁ፓርኮች	-11341
▁በኢየሩሳሌም	-11342
ኩሪ	-11343
ቪኦኤ	-11344
ግስቱ	-11345
ገምገም	-11346
▁መረጃና	-11347
▁ጐንደር	-11348
▁በኢንዱስትሪ	-11349
▁ለኢን	-11350
▁አብዲሳ	-11351
▁ድካም	-11352
▁እንደሌላቸው	-11353
▁ያጡ	-11354
▁የማእከላዊ	-11355
▁ሀይለማሪያም	-11356
ወሪ	-11357
▁ይሁ	-11358
አቶ	-11359
ኩና	-11360
▁ጨው	-11361
▁ቴክኒ	-11362
▁መወሰን	-11363
▁ተመለሱ	-11364
▁በምርመራ	-11365
ግባባ	-11366
ሊምፒክ	-11367
▁በሰራ	-11368
▁በድል	-11369
ሰቦቻቸው	-11370
▁ዘግናኝ	-11371
ቋርጥ	-11372
▁ስልጣናቸውን	-11373
▁ደጀ	-11374
▁አስከሬን	-11375
▁አበረታች	-11376
▁መሸጥ	-11377
▁በቦሌ	-11378
▁በጨለማ	-11379
▁የግሪክ	-11380
ጓጓዣ	-11381
ጠራጠር	-11382
▁ዳግመኛ	-11383
▁ፌዴራል	-11384
▁እናድርግ	-11385
▁ማህበረሰቡ	-11386
▁አካሂዷል	-11387
▁በግማሽ	-11388
▁አስፈፃሚው	-11389
▁እንጠይቃለን	-11390
▁ሂድ	-11391
▁መተግበሪያ	-11392
▁ምሉ	-11393
▁ለማዋል	-11394
ታዊነት	-11395
▁በመከራ	-11396
▁ያፈ	-11397
ከናውኑ	-11398
▁እሸቱ	-11399
▁በአንደ	-11400
▁በመክፈል	-11401
▁መኩ	-11402
▁ስፖ	-11403
▁ለሆነው	-11404
▁የሚነሳ	-11405
▁የደረሰባቸው	-11406
▁አስገንዝበዋል	-11407
ቃችን	-11408
▁ባስተ	-11409
▁ጠቅሷል	-11410
▁መጣል	-11411
▁ድርጅቶችና	-11412
▁ታመ	-11413
▁በማጣ	-11414
▁በድብቅ	-11415
▁የተባለች	-11416
ርዶ	-11417
▁አራቱ	-11418
▁ጓደኞች	-11419
▁በአእምሮ	-11420
▁ሁንዴ	-11421
▁ያስቸ	-11422
▁የረጅም	-11423
▁ለመጥለቅ	-11424
▁የሰዎችን	-11425
▁የቢዝነስ	-11426
ግሉ	-11427
▁እየዘ	-11428
▁የባህ	-11429
▁እንዲወ	-11430
▁ኤጀንሲው	-11431
▁ልኡክ	-11432
▁ማሰባሰብ	-11433
▁ቀዳዳ	-11434
▁በስም	-11435
▁ትንተ	-11436
▁ሀላፊነቱ	-11437
▁በጉልበት	-11438
▁አስፋ	-11439
▁ዘመዶ	-11440
▁ይመለከ	-11441
▁መዛሙርቱ	-11442
ካቶ	-11443
▁የስም	-11444
▁ተላላኪ	-11445
▁ሁለቱንም	-11446
▁የታሰሩት	-11447
▁ለመመልከት	-11448
▁አንድነትን	-11449
ስትን	-11450
▁ከዚ	-11451
▁ክፍሉ	-11452
▁በግንቦት	-11453
▁የስልጠና	-11454
ዘጋጁት	-11455
▁ነፋስ	-11456
▁የሚወድ	-11457
▁ታዛቢዎች	-11458
▁ኢስ	-11459
▁አሰም	-11460
▁ኢዮብ	-11461
ዜሽን	-11462
ያዙት	-11463
▁አላል	-11464
▁ገልፃ	-11465
▁አርብቶ	-11466
▁ውይይቱ	-11467
▁የሚጠቀሙ	-11468
ብሀል	-11469
ቶችንና	-11470
▁ከተጀመረ	-11471
ክራ	-11472
▁የምስራ	-11473
▁ይልቃል	-11474
▁ሳህለወርቅ	-11475
▁የምፈልገው	-11476
ሬብ	-11477
▁ተጫዋቾችን	-11478
ወማ	-11479
ጩን	-11480
▁ፓው	-11481
▁ማስፋ	-11482
▁ከሰራ	-11483
▁ፌስቲቫል	-11484
ጋቤ	-11485
▁የእናንተ	-11486
▁እንደሚሆኑ	-11487
ፍም	-11488
▁ልደታ	-11489
▁የመሪዎች	-11490
▁ክህሎት	-11491
ያየ	-11492
▁ሙሽ	-11493
▁ማእበል	-11494
▁ተወልደ	-11495
▁የጉባኤ	-11496
▁ይህችን	-11497
▁መዛሙርት	-11498
▁አወዛጋቢ	-11499
▁ሰውዬው	-11500
▁ለሞ	-11501
▁ሱቅ	-11502
በቁ	-11503
ከፈለው	-11504
▁እድሜው	-11505
▁ሶፍት	-11506
▁ገልጧል	-11507
▁ኗ	-11508
▁በመፈፀም	-11509
▁ማስተካከል	-11510
▁አድሮ	-11511
ባረር	-11512
▁ቀዳማዊ	-11513
▁አሰልጣኞች	-11514
▁ቆመው	-11515
▁የቆዩት	-11516
▁ማስተላለፍ	-11517
▁በለጠ	-11518
▁በርታ	-11519
▁የሚጨ	-11520
▁ያበቃ	-11521
▁አረጋግጧል	-11522
▁ሞራል	-11523
▁የቢሮ	-11524
▁ስብእና	-11525
▁ቦታውን	-11526
▁እየሰራን	-11527
ማሬ	-11528
▁ረብ	-11529
▁በጂ	-11530
▁የሰበ	-11531
▁ፈፃሚ	-11532
ግልና	-11533
▁ፍቺ	-11534
▁ሺዎች	-11535
▁የሚሻ	-11536
▁ለማሟላት	-11537
▁ለማጠናቀቅ	-11538
▁ሞቅ	-11539
▁ኤግዚ	-11540
▁ፖስታ	-11541
▁በገበያ	-11542
▁የአቅም	-11543
▁በአፋጣኝ	-11544
▁የአካባቢውን	-11545
▁ታቅዶ	-11546
▁እነዚህም	-11547
▁ከሚገኙት	-11548
▁ለአደጋ	-11549
▁የለባቸውም	-11550
ለጡ	-11551
▁ለመሰ	-11552
▁እየጣ	-11553
▁ለማመን	-11554
▁ድርጅታዊ	-11555
▁ባለሞያዎች	-11556
ታታ	-11557
▁ቅቤ	-11558
▁መሽ	-11559
ሸማ	-11560
▁ሞልቶ	-11561
▁ነበርን	-11562
▁ዳግማዊ	-11563
▁አፍሪካዊ	-11564
ሩንዲ	-11565
▁መዘጋ	-11566
▁ወለል	-11567
▁የሚጥ	-11568
▁ለሌላው	-11569
▁በከባድ	-11570
▁ክልከላ	-11571
ያሳ	-11572
▁ስብሰባውን	-11573
ላከ	-11574
▁ሰብል	-11575
▁ግሪክ	-11576
ሰቃዩ	-11577
▁ፋኖ	-11578
▁መርሆ	-11579
▁የህል	-11580
▁የሚጠበቀው	-11581
ለትና	-11582
ምንጭ	-11583
▁እከ	-11584
ራሚዎች	-11585
ናውቅም	-11586
▁አሳታ	-11587
▁ያገባ	-11588
▁ይሄም	-11589
▁ቀርበዋል	-11590
ገደድ	-11591
ሀስ	-11592
ዥው	-11593
▁ከጭ	-11594
▁መጠኑ	-11595
▁ሰአሊ	-11596
▁አገና	-11597
▁አማኑኤል	-11598
▁የመስጠት	-11599
▁ማኔጅመንት	-11600
ዷን	-11601
ቲንግ	-11602
▁ልጆቹን	-11603
▁አትጨነቁ	-11604
▁የማይቀር	-11605
▁የሚያውቀው	-11606
▁ጎጂ	-11607
ስተሮች	-11608
▁ሌንጮ	-11609
▁ግድግዳ	-11610
▁ለመክፈል	-11611
▁ከኢህአዴግ	-11612
ጄን	-11613
ደሪያ	-11614
▁ያዝ	-11615
▁አክቲቪስት	-11616
ሲል	-11617
ራባች	-11618
▁ራያ	-11619
▁ይቀን	-11620
▁ይገርማል	-11621
ስቷል	-11622
ድረሱ	-11623
ናግ	-11624
▁አይሁዳውያን	-11625
ረመ	-11626
ጋታ	-11627
ሪዎቹ	-11628
ጣልያን	-11629
▁የተሞ	-11630
▁ዮርክ	-11631
▁ማመልከቻ	-11632
ፈፃፀም	-11633
▁በበረ	-11634
▁ዋን	-11635
▁ማሰባ	-11636
▁የወያኔን	-11637
▁እንሰራለን	-11638
▁ማፈ	-11639
▁ፕሮፖ	-11640
▁ስልጣንን	-11641
▁ወንጀለኞች	-11642
▁ከተገኘ	-11643
▁ይቀራል	-11644
▁ገፃችን	-11645
▁አሳምነው	-11646
▁የኦርቶዶክስ	-11647
ቂቱ	-11648
▁በበጎ	-11649
▁ዞሯል	-11650
▁የየራ	-11651
ሊጥ	-11652
ሸባብ	-11653
▁የቅን	-11654
▁ፈፅመዋል	-11655
ናውቅ	-11656
▁ያር	-11657
▁ለከተማ	-11658
▁የታክሲ	-11659
▁ተከላካይ	-11660
▁የበርካታ	-11661
ፀት	-11662
ሆንበት	-11663
▁ኤርትራን	-11664
▁የመጠቀም	-11665
▁የሚያቀርቡ	-11666
▁በቋሚ	-11667
▁በበቂ	-11668
▁መሳርያ	-11669
▁በየወሩ	-11670
▁ሸቀ	-11671
▁የህፃ	-11672
▁የመሳሰሉትን	-11673
ስቱም	-11674
ኪንግ	-11675
ቀኝነት	-11676
▁ከሀያ	-11677
▁የታተ	-11678
▁ፕሮግራሙ	-11679
ጠፈ	-11680
ልጣኔ	-11681
ነውም	-11682
▁በስብሰባው	-11683
▁ፕሬዘዳንት	-11684
▁አውሮፕላኖች	-11685
ሀር	-11686
▁ላልተ	-11687
▁የቅር	-11688
▁ትህትና	-11689
▁ጠንከር	-11690
▁የተመዘገበ	-11691
▁የተጠቀሰው	-11692
▁መቀጠ	-11693
▁የነበር	-11694
▁መከታተል	-11695
ሀለን	-11696
▁ቁልቁ	-11697
▁ተማር	-11698
እር	-11699
ለኞች	-11700
▁ሞተር	-11701
▁አራዳ	-11702
▁በድንጋይ	-11703
▁የሆነበት	-11704
ሳተፈ	-11705
▁የኮንት	-11706
▁ከፍተኛው	-11707
▁የቀረቡት	-11708
ጫወተ	-11709
▁ፈልጎ	-11710
▁የያዙት	-11711
ለቀው	-11712
ነቱም	-11713
ቆጠረው	-11714
▁ቅኝት	-11715
▁ይገለ	-11716
▁በገጠር	-11717
▁ሳቅ	-11718
▁ርብቃ	-11719
▁ሀረርጌ	-11720
▁ይወስዳል	-11721
▁ሊወ	-11722
▁የመቀሌ	-11723
▁የስለላ	-11724
▁አለምአቀፍ	-11725
▁በኡ	-11726
▁ከራስ	-11727
▁የተፃፈው	-11728
ሆኔ	-11729
ሮቻችን	-11730
▁ሰልፉ	-11731
▁ሳይኖር	-11732
የቱን	-11733
▁ኤንድ	-11734
▁ተራሮች	-11735
▁በውይይት	-11736
ስቱን	-11737
▁ባይደን	-11738
▁ስለሚችል	-11739
▁የሚያነሳ	-11740
ማታ	-11741
ደተ	-11742
መቻቸ	-11743
▁የገጠ	-11744
▁ተከትሎም	-11745
ኪስ	-11746
ሙላ	-11747
ጎድ	-11748
ክራሉ	-11749
▁በእጁ	-11750
▁ዛፎች	-11751
▁በወጣው	-11752
▁ጓደኞችን	-11753
▁መነጋገሪያ	-11754
ሰይ	-11755
ሸገ	-11756
▁ሀረግ	-11757
▁እንደደረሰ	-11758
▁መጪው	-11759
▁በወረ	-11760
ይዘው	-11761
▁ትርክት	-11762
ባረክ	-11763
ጀምሮ	-11764
▁ተቀምጠው	-11765
▁የሚያስብ	-11766
▁ቀበ	-11767
ከላከሉ	-11768
▁በአብ	-11769
▁የኢፌ	-11770
▁የጀመሩ	-11771
ተኩር	-11772
▁የዴ	-11773
▁ብለዉ	-11774
▁ከኦሮሞ	-11775
▁እንደሚካሄድ	-11776
▁ሱነ	-11777
▁ስታይ	-11778
▁ሀዋርያ	-11779
▁ሮበርት	-11780
ሾችን	-11781
▁ስለሺ	-11782
▁ማቋቋም	-11783
▁አስበው	-11784
ቀህ	-11785
▁በምህ	-11786
▁አናት	-11787
▁በማእከላዊ	-11788
▁አይደለንም	-11789
ረዉ	-11790
▁ለመጠ	-11791
▁እየሆኑ	-11792
ሊካ	-11793
▁ለመዝ	-11794
▁መድን	-11795
▁የድሬዳዋ	-11796
▁ከምር	-11797
▁ይዘዋል	-11798
▁አለበለዚያ	-11799
▁ተሰጥቷል	-11800
▁ላለማ	-11801
▁ጠገዴ	-11802
▁በቀበሌ	-11803
▁በደረጃ	-11804
▁ከምድር	-11805
▁ጐን	-11806
ብርሀም	-11807
▁የሩሲያ	-11808
▁በማጠናከር	-11809
▁ይዋ	-11810
አቸውን	-11811
▁ክርክ	-11812
▁በመከተል	-11813
▁እንደተገኘ	-11814
▁ትል	-11815
▁የተቀላቀ	-11816
ጣቀ	-11817
ፋጠን	-11818
▁ቪኦኤ	-11819
▁የመከራ	-11820
▁ተነሳሽነት	-11821
ባና	-11822
▁ለሆነ	-11823
ንጣ	-11824
▁ኮንሰ	-11825
▁የማል	-11826
▁ያድም	-11827
▁የትርፍ	-11828
▁የዘመን	-11829
▁ያልኩት	-11830
▁ሰርተዋል	-11831
▁መስተዳደር	-11832
▁ጤነኛ	-11833
▁የኋ	-11834
ሮንቶስ	-11835
▁የሚጠይ	-11836
▁የደረጃ	-11837
ዚን	-11838
▁ነጋሽ	-11839
▁ጥቃቱ	-11840
▁ብርሀነ	-11841
▁እዘርዝ	-11842
በደ	-11843
▁ሸሽ	-11844
▁ሲልም	-11845
▁ፒቫል	-11846
▁ዘርፉን	-11847
▁ዮናታን	-11848
▁እንዲውል	-11849
▁ቱሪ	-11850
▁ሻለቃ	-11851
ቅስ	-11852
▁በማስረጃ	-11853
▁ገብረስላሴ	-11854
▁ሌሎችንም	-11855
ጋኒ	-11856
▁ለማስፈን	-11857
▁በስፍራው	-11858
መረጠ	-11859
▁በማዳ	-11860
▁የእለቱ	-11861
▁የግድቡ	-11862
▁ታውቃለህ	-11863
▁እናንተን	-11864
▁ለመሰብሰብ	-11865
▁ተደራጅተው	-11866
▁ሀሰት	-11867
▁አልፈ	-11868
▁የሚመሩ	-11869
▁ያስቀም	-11870
▁ገንዘቡ	-11871
▁ለማስቀረት	-11872
▁የላብራቶሪ	-11873
▁ቃለም	-11874
▁ከተቀ	-11875
▁የመነጨ	-11876
▁የአራት	-11877
▁በማሳደግ	-11878
▁ፓርላማው	-11879
▁የማስታወቂያ	-11880
ይለር	-11881
ደራሉ	-11882
ጎናፀ	-11883
ጋንንት	-11884
▁ለአራት	-11885
▁ትናገራ	-11886
▁በተናጠል	-11887
▁ሲኒ	-11888
ጠናክር	-11889
▁ጠብቀው	-11890
▁የተላለፈ	-11891
ላጅ	-11892
ቀበት	-11893
▁ታድ	-11894
ቸስተር	-11895
▁መባሉ	-11896
▁ገዥው	-11897
▁በሳኡዲ	-11898
▁ለአቶ	-11899
▁ተዳር	-11900
▁እስረኞችን	-11901
▁እራት	-11902
▁እጩዎች	-11903
▁ከክርስቶስ	-11904
▁ብልሹ	-11905
▁ስምምነቶች	-11906
▁አሜሪካውያን	-11907
▁በጆ	-11908
▁መቀመጥ	-11909
▁በተጨባጭ	-11910
▁እላ	-11911
ፈልጉት	-11912
▁ልመና	-11913
▁በዝም	-11914
▁በአቅራ	-11915
▁አዛውንት	-11916
▁ከመስከረም	-11917
ራረጥ	-11918
▁አመላክ	-11919
ባባሰ	-11920
▁አይሻ	-11921
▁በከንቱ	-11922
▁ይገባሉ	-11923
▁በቀድሞ	-11924
▁እንዲመለስ	-11925
▁ዲፕሎማሲያዊ	-11926
ቶናል	-11927
▁የሀዋሳ	-11928
▁አወቃቀር	-11929
▁የሚዳ	-11930
▁የኒው	-11931
▁የልኡካን	-11932
ዋወቅ	-11933
▁ሜይዴይ	-11934
▁ከጨለማ	-11935
▁ማግ	-11936
▁ይጀመ	-11937
ዘውም	-11938
▁የዞን	-11939
▁ያካት	-11940
▁ሱነይሳ	-11941
▁በምትገኘው	-11942
▁እንዳስታወቁት	-11943
ካካ	-11944
ሻሻሉ	-11945
ነቴን	-11946
▁ስልሳ	-11947
▁በአፄ	-11948
▁ተጥሎ	-11949
▁ኮንትራ	-11950
▁ሀይሎችን	-11951
ጂንግ	-11952
ማችንን	-11953
▁ራሷን	-11954
▁አቤል	-11955
▁ተከተል	-11956
▁ይሰቃያሉ	-11957
ቲቱ	-11958
ጋቡ	-11959
ጠልም	-11960
▁በኒው	-11961
▁ተአማኒ	-11962
ቃዊ	-11963
▁አውቶቡ	-11964
ፋለን	-11965
▁ይፋዊ	-11966
▁በጦርነቱ	-11967
ኒሳ	-11968
▁በፀረ	-11969
▁ሲፈፀም	-11970
▁አንብብ	-11971
▁የአስተሳሰብ	-11972
ዳለች	-11973
▁ቀረጥ	-11974
▁ትችላለች	-11975
▁ፋብሪካው	-11976
▁ሜዳል	-11977
ምፒዩተር	-11978
▁ኤርምያስ	-11979
ዲሪ	-11980
▁ሲጨ	-11981
▁ሹፌ	-11982
▁መኝታ	-11983
▁ስሌት	-11984
▁ካለበት	-11985
ቂጤ	-11986
ጫወተው	-11987
▁ተረክ	-11988
▁ተርፎ	-11989
▁ከማህ	-11990
▁በላቸው	-11991
▁እህቶች	-11992
▁የአውሮፕላን	-11993
▁ያነጋገራቸው	-11994
ሮሮ	-11995
▁ከወደ	-11996
▁ፍጥረ	-11997
▁ባለሞያ	-11998
▁ብትሆን	-11999
▁አዋሳኝ	-12000
▁ገበየሁ	-12001
ምቦልቻ	-12002
▁ቢቀር	-12003
▁የክት	-12004
▁በፈረን	-12005
▁አይተናል	-12006
▁የሚገባቸው	-12007
ቢስ	-12008
ምባብዌ	-12009
▁ቤቶቹ	-12010
▁የሚሞ	-12011
▁የማውቀው	-12012
▁ኢትዮጵያዉያን	-12013
ርቲስት	-12014
▁ቀልብ	-12015
▁ከሰሜን	-12016
▁ተለይተው	-12017
▁ዩንቨርስቲ	-12018
ናገድ	-12019
▁ደረሰኝ	-12020
ኮላ	-12021
▁እግርኳስ	-12022
ሰቦቹ	-12023
▁ምልከታ	-12024
▁እጃቸው	-12025
▁አንድነትና	-12026
▁ሽም	-12027
▁ታቅ	-12028
▁ለሰራ	-12029
▁ያስቀ	-12030
▁ይወሰ	-12031
ደርገውን	-12032
▁እየገባ	-12033
▁የተቀሰ	-12034
▁ማስፈፀሚያ	-12035
▁በአገልግሎት	-12036
ብቆ	-12037
ብተው	-12038
▁ሽታ	-12039
▁ባክ	-12040
▁ከጣ	-12041
▁ጠባይ	-12042
▁ሁኔታን	-12043
▁ታዋቂው	-12044
▁አንዳችም	-12045
ሪኩ	-12046
▁ልዋ	-12047
▁ሰርግ	-12048
▁የሚጠጋ	-12049
መሳሰል	-12050
▁ህዝቦ	-12051
▁አስቦ	-12052
▁የተረጋጋ	-12053
ሊሌ	-12054
▁የግዥ	-12055
▁በመደበኛ	-12056
▁በጎች	-12057
▁የሚያሳዝነው	-12058
▁ዶክ	-12059
▁ድምፁን	-12060
▁ስለሚያስ	-12061
▁የሀብረተሰብ	-12062
▁ሁኖ	-12063
▁ምሰ	-12064
▁ሽህ	-12065
▁ሰብስቦ	-12066
▁ይረዳናል	-12067
▁የደሀንነት	-12068
ራቶን	-12069
▁ካሁን	-12070
▁መልቀቅ	-12071
▁ይታመናል	-12072
ቁርና	-12073
ጋዴን	-12074
▁የጀር	-12075
▁በራሳችን	-12076
▁አልቻልንም	-12077
ሀነም	-12078
▁ታን	-12079
▁አረም	-12080
▁ለጥቂት	-12081
▁ጳጳሳት	-12082
▁ረጋ	-12083
▁የደመ	-12084
▁በተገኘ	-12085
▁ክህነት	-12086
▁ጠበቆች	-12087
▁መከፋፈል	-12088
ገደብ	-12089
▁ያዙ	-12090
▁ናትና	-12091
▁ጋርም	-12092
▁ግጭቱ	-12093
▁አፀደቀ	-12094
ሰብክ	-12095
▁መነም	-12096
▁በጥሬ	-12097
▁ዘረፋ	-12098
▁የማያውቅ	-12099
ነታ	-12100
የእ	-12101
▁ነቀ	-12102
▁መሀን	-12103
▁ተቋማዊ	-12104
▁መለኮታዊ	-12105
▁የትውልድ	-12106
▁አሲ	-12107
▁ድቻ	-12108
▁አረፍ	-12109
▁አመራሮችን	-12110
▁ፍራ	-12111
▁ሙሉውን	-12112
▁ሰላምታ	-12113
▁ከመቼውም	-12114
ኢድ	-12115
ፈረሰ	-12116
▁ትግርኛ	-12117
▁ለማስተማር	-12118
▁ጣጣ	-12119
▁ኦዴፓ	-12120
▁እድሉን	-12121
▁ወስዷል	-12122
▁ተፈፅሟል	-12123
ፀና	-12124
ህትና	-12125
▁መዝገቡ	-12126
▁በመገኘ	-12127
▁በምእራ	-12128
▁እየሄደ	-12129
ክቸ	-12130
ወድም	-12131
▁ከይ	-12132
▁ንብረቶች	-12133
▁በታማኝነት	-12134
▁ቃሉ	-12135
▁ማሰር	-12136
▁እንዲቀርብ	-12137
▁ተርታ	-12138
▁ድንኳን	-12139
▁መቆየቱን	-12140
▁ቫይረስን	-12141
ድሮክ	-12142
▁ከፍቶ	-12143
ስተናግድ	-12144
በረታታት	-12145
▁የጥቁር	-12146
▁በመገናኛ	-12147
▁ኢንጂነሪንግ	-12148
ኮሳ	-12149
▁ምድራዊ	-12150
▁ባቀረበው	-12151
▁የሚያበቃ	-12152
▁ውጤቱን	-12153
ያንም	-12154
▁ግኝ	-12155
▁ሯንዳ	-12156
▁ይመጣሉ	-12157
▁የባለሙያ	-12158
ሸው	-12159
▁የቲ	-12160
▁በወል	-12161
▁ፓትርያርክ	-12162
አም	-12163
▁እቴ	-12164
▁ማሟላት	-12165
▁የግድያ	-12166
▁ዎር	-12167
▁ጆርጅ	-12168
▁ለሶስተኛ	-12169
ህት	-12170
▁ዜሮ	-12171
ስፒታሉ	-12172
▁የተጣለ	-12173
▁እንዲኖሩ	-12174
▁ኢንዱስትሪው	-12175
▁ላም	-12176
▁በመቅ	-12177
▁ነውር	-12178
▁አማሮች	-12179
ጭው	-12180
▁ቀጠለ	-12181
▁ከተማዋን	-12182
▁ትምህርቱን	-12183
▁አቅጣጫዎች	-12184
▁የተመዘገቡ	-12185
ዝማች	-12186
▁ሸኔ	-12187
▁ብዛ	-12188
▁ወለ	-12189
▁ይዘህ	-12190
▁የወጣውን	-12191
▁የተገነባው	-12192
▁በቤኒሻንጉል	-12193
▁የሚያገለግሉ	-12194
ነቡ	-12195
ኗቸው	-12196
▁ቅራ	-12197
▁አንዳንዱ	-12198
▁ከእር	-12199
▁የግሉ	-12200
▁ሞሀመድ	-12201
▁ጥያ	-12202
▁የስር	-12203
▁የሚያገኙ	-12204
▁የተሞላበት	-12205
▁ይቀበ	-12206
▁የጥምቀት	-12207
ተቱ	-12208
▁ይቻል	-12209
▁ዴቪድ	-12210
▁አለባት	-12211
ቦጭ	-12212
ቀውም	-12213
ምህራን	-12214
▁አስፈላጊው	-12215
▁በኢትዮጵያውያን	-12216
▁ጨቋ	-12217
ገኑ	-12218
▁ማፍ	-12219
▁የፈለጉ	-12220
▁ከድህነት	-12221
▁ያስባሉ	-12222
ደረገባቸው	-12223
▁የመብራት	-12224
▁ሳና	-12225
▁አይና	-12226
▁ሆስፒታሎች	-12227
▁በተከሰተው	-12228
▁ትቤ	-12229
▁ንው	-12230
▁ታቦት	-12231
▁በመቶው	-12232
▁በጥቅሉ	-12233
▁እንዳታ	-12234
▁የፍሳሽ	-12235
▁ጀግናው	-12236
▁የሚሸከመው	-12237
ገባም	-12238
ስክሌት	-12239
▁መስሎኝ	-12240
▁ትላለህ	-12241
▁እየሱስ	-12242
▁የምታው	-12243
▁ኢንዱስትሪዎች	-12244
በቡ	-12245
▁በተቃዋሚ	-12246
▁ውድድሩን	-12247
▁ማስተዳደር	-12248
ለአለም	-12249
▁እየመራ	-12250
▁ከብሄራዊ	-12251
ኑሮ	-12252
ተልአ	-12253
▁በጨረ	-12254
▁ሊካሄድ	-12255
▁ሲገልፅ	-12256
▁ድጋፍና	-12257
▁በትእግስት	-12258
▁ምነመ	-12259
ገናተልአ	-12260
▁ከውስጥ	-12261
▁ምረገናተልአ	-12262
▁ያነጣ	-12263
▁በአዋጅ	-12264
▁ጭምብሉን	-12265
አሁን	-12266
ዱበት	-12267
▁ተሰርቶ	-12268
▁የጋምቤላ	-12269
▁ድህነትን	-12270
ዜብ	-12271
▁መቻሉ	-12272
▁ተከፋ	-12273
▁ተቋቁሞ	-12274
▁የጊ	-12275
▁ገረ	-12276
▁ታደርጋ	-12277
▁ተንታኞች	-12278
▁ተከትለው	-12279
ንኩ	-12280
▁እክል	-12281
▁ደግነት	-12282
▁ፕሬዝዳን	-12283
ውንዴ	-12284
ጭበረ	-12285
▁ለወያኔ	-12286
▁የሌሎችን	-12287
ሳምንቱ	-12288
▁የማዳ	-12289
▁ካደረገ	-12290
▁ወንዞች	-12291
▁በሀላፊነት	-12292
ዘመን	-12293
▁ደበበ	-12294
▁በደብዳቤ	-12295
ባዩ	-12296
▁አሉላ	-12297
▁በእውነቱ	-12298
▁ተቆጣጣሪ	-12299
▁ልእልና	-12300
▁ብልግና	-12301
▁በትክክለ	-12302
ኒያት	-12303
▁መመረ	-12304
▁ተለዋጭ	-12305
▁ተቋማትና	-12306
▁ከእስራኤል	-12307
▁ቤተክርስትያን	-12308
ሾማ	-12309
ዘት	-12310
▁ባክህ	-12311
▁ገመድ	-12312
▁የሚወጣው	-12313
▁የምናየው	-12314
▁ተናግራለች	-12315
መሙ	-12316
ድርና	-12317
▁ጎልቶ	-12318
▁በመምጣቱ	-12319
▁የማይቻል	-12320
▁ዎች	-12321
▁የአረ	-12322
▁መስጊድ	-12323
አአ	-12324
ቋቋመ	-12325
▁እንደል	-12326
▁ይኖራ	-12327
▁ማለፉን	-12328
▁ፊንፊኔ	-12329
▁ይጀመራል	-12330
▁ኢትዮጵያም	-12331
ጎላ	-12332
▁ክንፍ	-12333
▁ይበሉ	-12334
▁ለማንበብ	-12335
▁እንዳስታወቀው	-12336
ዋሉ	-12337
ጠጋ	-12338
▁የሚመነ	-12339
▁ኮንሰርት	-12340
▁እያንዳንዱን	-12341
ሆናችን	-12342
▁አናሳ	-12343
▁አጋን	-12344
▁ድብቅ	-12345
▁ሀይልን	-12346
▁ማምሻውን	-12347
▁ፕሬዝዳንቱ	-12348
▁በማግኘ	-12349
▁እንግዲያው	-12350
▁እንደሚባለው	-12351
▁ታት	-12352
▁ያዩ	-12353
▁የማነ	-12354
▁ተፈፀመ	-12355
▁የፀሀይ	-12356
▁ብቻም	-12357
▁ተጀምሮ	-12358
▁ኦሮሞን	-12359
▁የተደረገውን	-12360
ዴታ	-12361
▁መጥቀስ	-12362
▁የኮንስትራክሽን	-12363
ርቱ	-12364
▁በለንደን	-12365
▁ከእነርሱ	-12366
▁ሽር	-12367
▁ይሻል	-12368
▁ከኤጀንሲው	-12369
▁በዘመኑ	-12370
▁ውይይቶች	-12371
▁ለኢትዮጵያውያን	-12372
ጓጉ	-12373
▁ተመን	-12374
▁ኢዴፓ	-12375
▁መያዙን	-12376
▁ቆይተው	-12377
▁ለማፍረስ	-12378
▁ሀጢአቶችህ	-12379
▁በደን	-12380
▁እብድ	-12381
▁መገልገ	-12382
▁በርሳቸው	-12383
▁ፌደሬሽን	-12384
ዘገ	-12385
ዳለን	-12386
ገኘዉ	-12387
▁የኒ	-12388
▁የባል	-12389
▁በትብብር	-12390
▁የሚፈጥር	-12391
መርጥ	-12392
▁ርእዮተ	-12393
▁ያድርግ	-12394
▁ለመወሰን	-12395
▁ለኦ	-12396
▁ንክኪ	-12397
▁ይፈፅ	-12398
▁የሚኖረ	-12399
▁ያስገባ	-12400
ጎን	-12401
▁ሰውም	-12402
▁ክሶች	-12403
▁የሚፈልጉትን	-12404
▁የሚያስፈልገውን	-12405
ዮቹን	-12406
ጋጥም	-12407
ጡና	-12408
ቆጣጠሩ	-12409
▁አይባልም	-12410
ኙት	-12411
ግቶ	-12412
ይትስ	-12413
▁በሮ	-12414
▁ባሌ	-12415
▁ታየ	-12416
▁የመክ	-12417
▁ቅርበት	-12418
▁በወረዳ	-12419
▁የጠቆመው	-12420
▁ስንታ	-12421
▁ሰብስክ	-12422
▁ዝርፊያ	-12423
▁ማስፋፊያ	-12424
▁ሽንኩርት	-12425
▁የመግለፅ	-12426
ህይ	-12427
ጥቀ	-12428
ጦሽ	-12429
▁ሰከንድ	-12430
▁ሚኒስተር	-12431
▁በቀድሞው	-12432
▁ተሽ	-12433
▁በጥላቻ	-12434
▁የመናገር	-12435
▁የተከፈለ	-12436
▁ጉዳተኞች	-12437
▁ሞቶ	-12438
▁አስመልክተው	-12439
ሟት	-12440
▁ሱቆች	-12441
▁ተፅፎ	-12442
▁የምትባል	-12443
ጢር	-12444
ጓጓዝ	-12445
▁ኢም	-12446
▁ተቀማጭ	-12447
ጨን	-12448
▁ማና	-12449
▁በመሀል	-12450
▁ቤተሰቡ	-12451
ሳካም	-12452
ከባከ	-12453
ጋችን	-12454
▁የኖሩ	-12455
▁ለኢትዮ	-12456
ሀዋሲ	-12457
▁በጠቅላላ	-12458
ረምፕ	-12459
ፀልይ	-12460
▁ደርሰው	-12461
▁ተገናኝተው	-12462
▁ህብረተሰቡን	-12463
▁ባዮች	-12464
▁የመዋ	-12465
ብሊክ	-12466
▁ትንተና	-12467
▁ወደዚያ	-12468
▁ክርስቲያኒ	-12469
▁በውድድሩ	-12470
▁የሰራዊት	-12471
መዘገበው	-12472
▁አለመስ	-12473
▁አልማዝ	-12474
▁በምክትል	-12475
ሬዷ	-12476
ዲድ	-12477
▁ትሞታ	-12478
▁አንበሴ	-12479
ኖት	-12480
ገዉ	-12481
ፈልጉም	-12482
▁የችግሩ	-12483
▁ይጠቀሙ	-12484
▁ጥቂቶች	-12485
▁በመስቀል	-12486
▁ከአመታት	-12487
▁አድርገናል	-12488
▁እንዲሰጣቸው	-12489
ቸግር	-12490
▁ንዋይ	-12491
▁ሲቀርብ	-12492
▁ወጣቶቹ	-12493
▁መካከልም	-12494
▁ይገኝበታል	-12495
▁የቃል	-12496
▁ጥምቀት	-12497
▁ጥቃቅን	-12498
▁የአማራው	-12499
ዛር	-12500
▁አመስግ	-12501
▁በመለየት	-12502
▁የኤኮኖሚ	-12503
ድጉ	-12504
▁ጢሞ	-12505
▁በቴሌቪዥን	-12506
▁አለመኖሩን	-12507
▁የሎ	-12508
▁መስማማ	-12509
▁አጀንዳዎች	-12510
▁የዲፕሎማሲ	-12511
ከትና	-12512
▁እሽ	-12513
▁ማሳወቅ	-12514
ትከል	-12515
▁መተግበር	-12516
▁ውጤቶችን	-12517
ቻልን	-12518
▁የኢትዮጲያ	-12519
▁ካደረጉ	-12520
ርካ	-12521
ቆተ	-12522
ነማ	-12523
ቧንቧ	-12524
▁ከቴ	-12525
▁ጭብጥ	-12526
▁እየተዘጋጀ	-12527
ውኑ	-12528
▁የሚጠቅም	-12529
▁እንዳለብን	-12530
▁ሮም	-12531
▁እድሎች	-12532
▁እንዳይኖር	-12533
ረፉ	-12534
ዝቃዛ	-12535
ጠናው	-12536
▁ጭብ	-12537
▁ከተሰ	-12538
▁በየሳምንቱ	-12539
ሂድ	-12540
▁እዬ	-12541
▁ቆርጦ	-12542
▁የመው	-12543
▁ይውላል	-12544
▁ይጠናቀ	-12545
ፏቸው	-12546
▁ሻምፒዮን	-12547
▁የሀጢያት	-12548
▁የመንግስቱ	-12549
ስስ	-12550
ይነ	-12551
▁ታዛዥ	-12552
▁ኛውን	-12553
▁የኪነ	-12554
▁ትናንሽ	-12555
▁መስመሮች	-12556
▁የአለምን	-12557
▁የአንበጣ	-12558
▁ስምምነቱን	-12559
▁የሚመሰ	-12560
▁የኖረው	-12561
▁ይወዳ	-12562
▁ከአስራ	-12563
▁የህንድ	-12564
▁ተደጋ	-12565
▁ድምፃቸውን	-12566
▁ቤዛ	-12567
▁ወሲብ	-12568
▁ተወሰነ	-12569
▁መሰላችሁ	-12570
▁የመሰረት	-12571
▁የአክሲዮን	-12572
▁መሪዎችን	-12573
ሀንን	-12574
▁መዘዝ	-12575
▁አውግ	-12576
▁የመላ	-12577
▁ለሴቶች	-12578
▁አባዱላ	-12579
▁አጫጭር	-12580
ዳዲስ	-12581
▁መከ	-12582
▁ማቋቋ	-12583
▁ነጋሶ	-12584
▁መደምደሚያ	-12585
▁ተቃር	-12586
▁የፈፀመው	-12587
ዩጵያ	-12588
▁ሀአ	-12589
▁ቁጠባ	-12590
▁አምር	-12591
▁ፈሳሽ	-12592
▁የትኞቹ	-12593
▁ያለዉን	-12594
▁ለዛሬ	-12595
▁ስውር	-12596
▁በህንድ	-12597
▁አመራሮችና	-12598
▁ይሳ	-12599
▁ብሪታንያ	-12600
▁በመካከለኛው	-12601
▁ቁነ	-12602
▁ኦር	-12603
▁እያሳየ	-12604
▁የሚከለ	-12605
▁ተምሳሌት	-12606
▁ጉራ	-12607
▁ለዲሞክራሲ	-12608
▁ቅርንጫፎች	-12609
▁ቃሊቲ	-12610
▁የሚጠቁ	-12611
▁በሚጠራው	-12612
▁የኢንሹራንስ	-12613
ባረሩ	-12614
ከፈተ	-12615
▁ርስት	-12616
▁ተፈሪ	-12617
▁ማብቂያ	-12618
▁ተቃዉሞ	-12619
▁እንጠብ	-12620
▁ደጋግሞ	-12621
ከፈቱ	-12622
ጨትአ	-12623
ሟቸውን	-12624
▁ለማለፍ	-12625
▁ሊከሰት	-12626
▁ምንነት	-12627
ሁትን	-12628
▁ከዝ	-12629
▁ደፋር	-12630
▁ሆናችሁ	-12631
▁ውቸጓል	-12632
▁ያስከት	-12633
▁ቁነጨትአ	-12634
▁ትእይንት	-12635
▁እስላማዊ	-12636
▁ውቸጓልፈስያአ	-12637
ባባስ	-12638
ዎትን	-12639
▁ሳሉ	-12640
▁ከአል	-12641
▁አይሰማ	-12642
▁የተመለከቱ	-12643
▁ንሬብ	-12644
▁አርጎ	-12645
▁የተጀመረውን	-12646
ከራከር	-12647
▁ሰምቶ	-12648
▁በበር	-12649
▁በጌታ	-12650
▁አማን	-12651
▁አበቤ	-12652
▁የማም	-12653
▁ጭንቅላ	-12654
ቃለል	-12655
ንቀፅ	-12656
ቤታቸው	-12657
▁ለመጣል	-12658
▁ፍራንክ	-12659
▁በመተከል	-12660
ተሀል	-12661
ሰበሰቡ	-12662
▁አገሩ	-12663
▁በመዲና	-12664
መሰግ	-12665
▁ለህል	-12666
▁ግኝት	-12667
▁ሲደርሱ	-12668
▁አፍራሽ	-12669
▁ድምዳሜ	-12670
▁ኔትወርክ	-12671
▁የበኩሉን	-12672
ዘነ	-12673
ኑበት	-12674
▁ማቴ	-12675
▁አልቆ	-12676
▁አሸንፎ	-12677
▁የረሀብ	-12678
▁ኖት	-12679
ታችንም	-12680
▁አጉል	-12681
▁በመሸጥ	-12682
▁በድምፅ	-12683
▁ቴይለር	-12684
▁የህዳሴው	-12685
▁ያሻ	-12686
▁ተናግሮ	-12687
▁ከወራት	-12688
▁የዘርፉ	-12689
▁ለኤርትራ	-12690
▁ማዋል	-12691
▁እባብ	-12692
▁የወላይታ	-12693
▁ኢትዮጵያዊነትን	-12694
እበ	-12695
የሚ	-12696
ጃችን	-12697
▁ሀላ	-12698
▁ሾፌ	-12699
▁ሊወጣ	-12700
▁እድገትና	-12701
▁ከሳምንት	-12702
▁የግብይት	-12703
▁ርጋ	-12704
▁ማእቀ	-12705
▁ጠርቶ	-12706
▁መሰረትም	-12707
ፀድ	-12708
ዋቸዋል	-12709
ግብግብ	-12710
▁ሳይታ	-12711
▁በወንዶች	-12712
▁ምርኮ	-12713
▁ደደብ	-12714
▁ተመሰረተ	-12715
ይስጥ	-12716
ጡረታ	-12717
▁የመዝ	-12718
▁ጀምረናል	-12719
ይቼ	-12720
▁ዬኛ	-12721
▁ሰንሰ	-12722
▁በጨረታ	-12723
▁የሀገሬ	-12724
▁የቅጣት	-12725
▁ፍትህን	-12726
▁ይመስገን	-12727
▁አጥን	-12728
▁ከመም	-12729
▁በፅናት	-12730
▁የመጀመሪያዎቹ	-12731
በአ	-12732
▁ነቢያ	-12733
▁ለማህ	-12734
▁ርእይ	-12735
▁የጭነት	-12736
ታውን	-12737
▁ጠቢ	-12738
▁የቀጠ	-12739
▁ህደ	-12740
▁ለዚያ	-12741
▁ውወተ	-12742
▁የበአል	-12743
▁ያገለግ	-12744
▁በስህተት	-12745
▁አገልግሎትን	-12746
▁ለፕሬ	-12747
ፁአል	-12748
▁አመራሩ	-12749
▁ከቫይረሱ	-12750
▁የሚችልበት	-12751
▁ለመብ	-12752
▁ለአባ	-12753
▁የሄደ	-12754
▁ከሰባት	-12755
ናቅ	-12756
▁ዬኛደጓ	-12757
▁ይከበር	-12758
▁በዝግጅት	-12759
▁ኦሮሞዎች	-12760
ልቦና	-12761
ቡበት	-12762
ስብሰባ	-12763
▁ቅጠል	-12764
▁ውሏል	-12765
▁ይሞክ	-12766
▁በሊቢያ	-12767
▁ማለታቸውን	-12768
▁በህብረተሰቡ	-12769
▁ሀላፊነታቸውን	-12770
ክና	-12771
▁ብድ	-12772
▁ፊሊ	-12773
▁እልፍ	-12774
▁ለብቻው	-12775
▁በሆኑት	-12776
ክሌር	-12777
ጣለች	-12778
▁ወድቆ	-12779
▁የኮሙ	-12780
▁መኢአድ	-12781
ስተኞች	-12782
▁አመትም	-12783
ራይብ	-12784
▁መወያ	-12785
▁አስረክ	-12786
▁ማሾ	-12787
▁ማጉ	-12788
ምባገነ	-12789
▁ግብሩ	-12790
▁የታመነ	-12791
▁አምነስቲ	-12792
▁በወታደራዊ	-12793
ጣፍ	-12794
ላዎች	-12795
▁ሬሳ	-12796
▁በተወ	-12797
▁ደምሴ	-12798
▁ለመሸጥ	-12799
ሀኑ	-12800
▁ዱቄት	-12801
▁እያደረ	-12802
ሁለት	-12803
▁በተሳ	-12804
▁ይችሉ	-12805
▁ክላ	-12806
▁የሚያካሂ	-12807
▁የተጠቀሱት	-12808
▁መስጂ	-12809
ኖራቸውም	-12810
▁አስገድዶ	-12811
ቆመው	-12812
ጠግር	-12813
▁ዴንእ	-12814
ጠግርእበ	-12815
▁ያለውና	-12816
▁መቃወሚያ	-12817
▁ለመጀመርያ	-12818
▁ትነኝጠግርእበ	-12819
ኤፍ	-12820
ብንን	-12821
ሰበውን	-12822
▁መረጃን	-12823
▁ለሳ	-12824
▁ተያዙ	-12825
▁ያደገ	-12826
▁መረጃውን	-12827
▁ንግግሮች	-12828
ጠህ	-12829
▁ጋሻ	-12830
▁ጠይቆ	-12831
▁ቢሮዎች	-12832
▁የፈፀመ	-12833
ለፋ	-12834
በድ	-12835
ግዝ	-12836
ዶቹን	-12837
▁ለእነሱ	-12838
▁ለህብረተሰቡ	-12839
▁በተመሳሳይም	-12840
▁ማጨ	-12841
▁ውሲ	-12842
ቸውንም	-12843
▁በሚባለው	-12844
ዘሩት	-12845
ደመው	-12846
▁መርጦ	-12847
▁በተቋ	-12848
▁ቶማስ	-12849
▁እያዩ	-12850
▁የስሜ	-12851
▁የተያዘው	-12852
▁የአትክል	-12853
▁ተገም	-12854
▁ትተን	-12855
▁የማጥ	-12856
▁ፈይሳ	-12857
ምርእ	-12858
ወርወ	-12859
▁ይኑ	-12860
▁ሊጠፋ	-12861
▁አልኩ	-12862
▁ይጫወ	-12863
▁በተቀሰ	-12864
▁ለመግደል	-12865
▁አገራችንን	-12866
▁ፃድቅ	-12867
▁መብቱን	-12868
ድቅእ	-12869
ስተምር	-12870
▁የቁር	-12871
▁ዩጣቀ	-12872
▁ደንእ	-12873
▁ብሎኛል	-12874
▁ዎድቅእ	-12875
▁ጃምርእ	-12876
▁ምክኒያት	-12877
▁ውነድንም	-12878
▁ከፍተኛውን	-12879
▁አያስፈልጓቸው	-12880
ሳወ	-12881
ኤከ	-12882
ዎቼ	-12883
ንጀኤከ	-12884
▁አደም	-12885
▁ማዘጋጃ	-12886
▁ተደርጐ	-12887
▁መገኘቱን	-12888
▁ተንናእለ	-12889
▁ውሲንጀኤከ	-12890
▁ያልተጠበቀ	-12891
ጋለጡ	-12892
▁ሀይሉን	-12893
▁አስተዋይ	-12894
ከርድ	-12895
ፈረም	-12896
▁ረግ	-12897
▁ከፈለግ	-12898
▁የሀዘን	-12899
ሪታኒያ	-12900
▁መመገብ	-12901
▁የግጥም	-12902
ደቁ	-12903
▁ፍቅሬ	-12904
▁ጨምሯል	-12905
▁ለተወሰነ	-12906
መዘገብ	-12907
▁የኮሚሽኑ	-12908
▁የወሰደው	-12909
▁የህወሀትን	-12910
ሰላ	-12911
▁ወለደ	-12912
ኋበ	-12913
ድመ	-12914
▁ተሰራ	-12915
▁ተጠቂ	-12916
▁የፀጥታው	-12917
ቻልም	-12918
▁ጠል	-12919
በራችሁ	-12920
▁ማስታወስ	-12921
ኑፋ	-12922
ጣመይ	-12923
ግለዋል	-12924
▁ላኋበ	-12925
▁ማደግ	-12926
▁ተወው	-12927
▁የሆን	-12928
▁ልጣመይ	-12929
▁የወሲብ	-12930
▁ግንባታዎች	-12931
▁ውዶ	-12932
▁ከሞተ	-12933
▁በመካከላቸው	-12934
▁ሲጋራ	-12935
▁ተሰማርተው	-12936
▁የሚታየውን	-12937
ቁረጥ	-12938
ታደል	-12939
▁ዎአ	-12940
▁በመጋ	-12941
▁ተከፍ	-12942
▁ልሂቃን	-12943
▁ልሳነይ	-12944
▁ተከሳሾቹ	-12945
▁ሶሪያ	-12946
▁ትሳእ	-12947
▁ፋሽ	-12948
▁የሚቃ	-12949
▁በሚዲያ	-12950
ጫል	-12951
▁ህነማ	-12952
▁በሺህ	-12953
▁ወይንስ	-12954
▁አውጥተው	-12955
▁ለሆ	-12956
▁ሞኝ	-12957
▁ንቱ	-12958
▁ለጦር	-12959
▁ስራና	-12960
▁አስጊ	-12961
▁ከመጡ	-12962
▁በብቃት	-12963
▁ጥረቶች	-12964
▁ለህክምና	-12965
▁ቀመር	-12966
▁የሚያመጣ	-12967
▁በበላይነት	-12968
አችን	-12969
ጣችን	-12970
▁ትሊሌ	-12971
▁አራጌ	-12972
▁አጋንንት	-12973
ቆጥ	-12974
▁ፍወ	-12975
ብራይስጥ	-12976
▁ትሊሌየ	-12977
ምህን	-12978
▁ሁኑ	-12979
▁ተክሌ	-12980
▁አይበ	-12981
▁እንደማለት	-12982
▁ኢንፎርሜሽን	-12983
ዞታ	-12984
ቅረቡ	-12985
▁ሊበ	-12986
▁በእጥፍ	-12987
▁ተቋማቱ	-12988
▁የአቃቤ	-12989
▁የወንጀ	-12990
▁የሚፈፀሙ	-12991
▁ትናገራለች	-12992
ገንዘ	-12993
▁ንብ	-12994
ስተዋሉ	-12995
▁የገዳ	-12996
▁በከተሞች	-12997
▁የሚናገር	-12998
▁በአሳ	-12999
▁ከሁለቱ	-13000
▁የሚሰበ	-13001
▁የሌሊት	-13002
▁የአርሶ	-13003
▁የኤርትራን	-13004
▁በሚያደርጉት	-13005
ጠኑ	-13006
▁ተሸን	-13007
▁ከነሱ	-13008
▁መሸፈኛ	-13009
▁የሚያገኙት	-13010
▁ከሚመለከታቸው	-13011
ከባቢ	-13012
▁አስተምህ	-13013
▁ከመፅሀፍ	-13014
▁የማይታወቅ	-13015
ምባሳ	-13016
▁ፍሀ	-13017
▁ትባል	-13018
▁ጨካኝ	-13019
▁በሀሰት	-13020
▁መልቀቂያ	-13021
▁አጣጥ	-13022
▁ያሳስ	-13023
▁ለሽያጭ	-13024
▁እውቀትና	-13025
ቸገር	-13026
▁ሪል	-13027
ፈጠሩት	-13028
▁በዜጎች	-13029
▁የገለፀ	-13030
▁ተወዳዳሪዎች	-13031
▁ምረቃ	-13032
▁አፍር	-13033
▁የላይ	-13034
▁ፀሀዬ	-13035
▁እንዳደረገ	-13036
ህድ	-13037
▁አእም	-13038
▁የላቦራቶሪ	-13039
▁ለእያንዳንዱ	-13040
▁ክልመ	-13041
▁ውቀበ	-13042
▁ፍሀሾማ	-13043
ደተየ	-13044
▁ሁኔታና	-13045
▁ውቀበደተየ	-13046
ፅያ	-13047
▁ስንያ	-13048
▁ንባብ	-13049
▁ኡጋንዳ	-13050
▁የበሽታ	-13051
ቀረበላቸው	-13052
▁ልጆቻችን	-13053
▁የህዝባዊ	-13054
ናቴ	-13055
▁ድቅ	-13056
▁የግፍ	-13057
▁ሲነገር	-13058
▁የአፈር	-13059
▁እውነታው	-13060
▁ግልፅነት	-13061
ረምጀ	-13062
ብረው	-13063
▁አስቤ	-13064
▁በሪፖር	-13065
▁ለማስረዳት	-13066
▁ክርስቶስን	-13067
▁ንልና	-13068
▁ንቱሳእ	-13069
▁ንልናረምጀ	-13070
ጋገብ	-13071
ግጅጋ	-13072
▁ከመሰ	-13073
▁ይቆጠ	-13074
▁ሁላችን	-13075
▁መውደድ	-13076
▁ማርክ	-13077
▁ምድን	-13078
▁ቅልት	-13079
▁የኮሌ	-13080
▁ጥልቀት	-13081
▁ህዝቦችን	-13082
▁ተቆርቋሪ	-13083
ዜና	-13084
ፍሉ	-13085
ስራእ	-13086
▁ላአ	-13087
▁ሙሌት	-13088
▁በገባ	-13089
▁ሰጪዎች	-13090
▁ሲጠናቀቅ	-13091
▁ለማስፋፋት	-13092
▁እንደሚመጣ	-13093
▁ስምን	-13094
▁ሸክም	-13095
▁በድረ	-13096
▁አርሲ	-13097
▁የተደበቀው	-13098
ኪሀ	-13099
ጥሬ	-13100
▁ከኢን	-13101
▁ቅንጅት	-13102
▁በአደጋ	-13103
ላጆች	-13104
▁ከጤና	-13105
▁ትሆናለች	-13106
ሊኮፕ	-13107
▁መሲ	-13108
▁መፋ	-13109
▁ጠሚ	-13110
▁ትዎነ	-13111
▁የወለ	-13112
▁አዘጋጅቶ	-13113
ደኝ	-13114
▁ካፌ	-13115
▁የፕሪ	-13116
▁የፃፈው	-13117
▁አናውቅም	-13118
▁መልእክተኛ	-13119
▁ተወያይተዋል	-13120
ፈውን	-13121
▁ቀደምት	-13122
▁እያገለ	-13123
▁ይሄዳሉ	-13124
▁ፓውንድ	-13125
ብረን	-13126
▁አልገባኝም	-13127
▁የባህርዳር	-13128
▁ተጥ	-13129
ንደዚህ	-13130
▁ንሉሁ	-13131
▁ንጋቱ	-13132
▁ውረድ	-13133
▁ያምናል	-13134
▁ክርስትያን	-13135
▁ጋዜጠኞችን	-13136
▁እንደሚያሳየው	-13137
ሄም	-13138
ጠርጣሪ	-13139
▁መተው	-13140
▁የዝግ	-13141
▁ለምግብ	-13142
▁ሲያልፍ	-13143
▁ምርጫዎች	-13144
▁ተሳትፈዋል	-13145
▁ክርስቲያናዊ	-13146
▁ሊታይ	-13147
▁ሲኦል	-13148
▁ኦዲት	-13149
▁የመሸ	-13150
▁ስልጣንና	-13151
▁ባቢ	-13152
ከራከሩ	-13153
▁መሰን	-13154
▁የፕላ	-13155
▁አስወግ	-13156
▁እውነተኛው	-13157
▁የሳይንስና	-13158
▁ያስፈልጋቸዋል	-13159
ዩበት	-13160
ደውል	-13161
▁በጥበብ	-13162
ሚስ	-13163
ከሻ	-13164
▁አጉ	-13165
▁ሀዲስ	-13166
▁ምኪሀ	-13167
▁የተመለ	-13168
▁ጋጋረተ	-13169
▁ሰብስክራይብ	-13170
ሰቃቂ	-13171
▁ለዳ	-13172
▁ምሩ	-13173
▁ሩጥ	-13174
▁ታጅ	-13175
▁አሟ	-13176
ድቅእየ	-13177
▁ልካአ	-13178
▁ሲሞት	-13179
▁ይቁም	-13180
▁ሞተዋል	-13181
▁አሳማኝ	-13182
▁ህድቅእየ	-13183
▁ምክንያትም	-13184
▁ሉላችይ	-13185
▁ርገናመ	-13186
▁ስንያቢ	-13187
▁ምድንወ	-13188
▁በሀዘን	-13189
▁ታይምስ	-13190
▁የናንተ	-13191
▁ያዘጋጀ	-13192
▁ርብቃመበ	-13193
▁የዩኒቨርስቲ	-13194
ስብም	-13195
▁የምህ	-13196
▁በመግዛት	-13197
▁ከንቲባው	-13198
ሳያስ	-13199
▁ዘሮች	-13200
▁ስለሌለ	-13201
▁ከጀመሩ	-13202
▁የተረገ	-13203
▁የተፈፀመውን	-13204
ዶን	-13205
▁ኦፌኮ	-13206
▁ዎስራእ	-13207
▁ምስሎችን	-13208
ፎርድ	-13209
▁ጎብ	-13210
▁ቀለል	-13211
▁አቅኚ	-13212
▁የግንባ	-13213
▁ህይወትና	-13214
▁እንደተለመደው	-13215
መረምር	-13216
▁ተዋና	-13217
▁አስገዳጅ	-13218
▁አያይዘውም	-13219
▁በመቆ	-13220
▁ናይሮቢ	-13221
ላይን	-13222
ከለው	-13223
ህይወት	-13224
▁ሊቃነ	-13225
▁የሚፈታ	-13226
▁ገዢዎች	-13227
▁ጥገኝነት	-13228
ሩበት	-13229
▁አጃ	-13230
▁ይደግ	-13231
▁መልእክቶች	-13232
▁የሚፈልጉት	-13233
ጥርም	-13234
▁ሊገባ	-13235
▁ማለፉ	-13236
▁ፅሁፉ	-13237
▁ለማገዝ	-13238
▁የሚመለከቱ	-13239
መስለው	-13240
▁ስለእ	-13241
▁ባንተ	-13242
▁ከቀረ	-13243
▁በትጋት	-13244
▁በሶስተኛ	-13245
▁የድርጅት	-13246
▁ምስክሮችን	-13247
▁እንደማይቻል	-13248
ሩገን	-13249
▁ኔባ	-13250
ኪስታን	-13251
▁ለነገ	-13252
▁በቀይ	-13253
▁ኝሩገን	-13254
▁እናላችሁ	-13255
ህነግ	-13256
ሳፍየ	-13257
ከፈሉ	-13258
▁ለእሱ	-13259
▁ጅምር	-13260
▁ፅምድ	-13261
▁ሽሳፍየ	-13262
▁አሰልጣኙ	-13263
▁ዘመናቸው	-13264
▁ስሞች	-13265
▁የፍት	-13266
▁ሊፈጠር	-13267
▁እንዲሰፍን	-13268
ዊድን	-13269
▁ሹማ	-13270
▁ሊቨር	-13271
▁አሏቸው	-13272
▁የሚገዛ	-13273
ብሎ	-13274
▁የአጥ	-13275
▁ሞባይል	-13276
▁ዳኝነት	-13277
▁የአንተ	-13278
▁እንደሚገባው	-13279
ቃጨ	-13280
ኒስቴሩ	-13281
▁ተብዬ	-13282
▁የወባ	-13283
▁አሳሰበ	-13284
▁ከመሆናቸው	-13285
▁በባዶ	-13286
▁በተነሳ	-13287
▁አስተካ	-13288
▁አውራጃ	-13289
▁እለታዊ	-13290
▁አልባሳት	-13291
▁እንደማይችሉ	-13292
ንግላ	-13293
▁የጠራ	-13294
▁ይስሀ	-13295
▁ተመለስ	-13296
▁አንገብ	-13297
▁ጠፍቷል	-13298
▁ኢንቨስትመን	-13299
▁እየተንቀሳቀሰ	-13300
ሌይ	-13301
ዋልታ	-13302
ኢህዴን	-13303
▁ከእን	-13304
▁ካለፈ	-13305
▁ለኮሮና	-13306
▁ማንዴላ	-13307
▁ወገኖቼ	-13308
ጠዉ	-13309
ሯችን	-13310
ጢአት	-13311
ነጋገረ	-13312
▁የሚሳ	-13313
▁ራእ	-13314
▁ሼክ	-13315
ደርሰው	-13316
▁ሰንበት	-13317
▁ቃለምልልስ	-13318
▁የሁላችንም	-13319
ጭቶ	-13320
▁ቂም	-13321
▁እናምና	-13322
▁የጨለማ	-13323
▁ስንመለከት	-13324
▁ፈቅ	-13325
▁ከጋዜ	-13326
▁ሊኖራቸው	-13327
▁የአንደኛ	-13328
▁አሽከርካሪዎች	-13329
ተሽ	-13330
ማልያ	-13331
▁ቤቱም	-13332
▁አቀና	-13333
▁የአዲ	-13334
▁ጉጉት	-13335
▁አግባብነት	-13336
ፎን	-13337
ጠበቅም	-13338
▁ቃለመ	-13339
▁በዘረ	-13340
▁እኚህ	-13341
▁አስቴር	-13342
▁የሙከራ	-13343
▁ለመዋጋት	-13344
▁የተቀመጠው	-13345
ላታል	-13346
▁የሀዋ	-13347
▁ለእስር	-13348
▁ስመኘው	-13349
▁እንዲታይ	-13350
ልቭ	-13351
መለካ	-13352
▁እወ	-13353
▁አሁኑ	-13354
▁ያጠና	-13355
▁ደመና	-13356
▁የበታች	-13357
▁የማይባል	-13358
▁ሀይማኖትን	-13359
▁ለዴሞክራሲ	-13360
▁ወረርሽኝን	-13361
ኛቸው	-13362
▁ፈልጌ	-13363
▁መስጠቱን	-13364
▁ተቀምጧል	-13365
ርፖ	-13366
▁የሚከተለው	-13367
ሀና	-13368
ተሩ	-13369
ቸሻይ	-13370
▁አይልም	-13371
▁ሁላችሁም	-13372
▁ልዋቸሻይ	-13373
▁ስቶ	-13374
▁በቻ	-13375
▁ባለፀ	-13376
▁አገሬ	-13377
▁እጅጉን	-13378
▁ሰብሳቢነት	-13379
ሰመ	-13380
▁ሚራ	-13381
▁ካጋ	-13382
▁ከማእ	-13383
▁ያውቁ	-13384
▁ፍስሀ	-13385
▁ፀድ	-13386
▁ስለምት	-13387
▁ጋምቤላ	-13388
▁ህፃናትና	-13389
▁የፈፀሙት	-13390
ትረፍ	-13391
ግብር	-13392
▁እጆ	-13393
▁በጎሳ	-13394
▁የዞረ	-13395
▁መሬቱን	-13396
▁እንደወ	-13397
ሳባ	-13398
ርክል	-13399
▁ቅጂ	-13400
▁መሀሪ	-13401
▁የተመራ	-13402
▁ድርድሩ	-13403
▁አመላካች	-13404
▁እሷም	-13405
▁አድማሱ	-13406
▁የተሰማራ	-13407
▁እንዳይገቡ	-13408
▁ጊዜያቸውን	-13409
▁የሚጣ	-13410
▁ስምሪት	-13411
▁ስማቸውን	-13412
▁እየወሰደ	-13413
▁ነዋሪዎችን	-13414
▁አይኖረውም	-13415
▁በጊ	-13416
▁ይዞት	-13417
▁አክለው	-13418
▁የመያዝ	-13419
▁የድንጋይ	-13420
▁ወገና	-13421
▁የትጥቅ	-13422
▁የጦ	-13423
▁ደጅ	-13424
▁ጊላ	-13425
▁ፀጥ	-13426
▁በጥቁር	-13427
▁ተጓዳኝ	-13428
▁ምግባርና	-13429
▁የተደገፈ	-13430
▁ፖርቲ	-13431
ህራ	-13432
▁ወንበዴ	-13433
መጣጠነ	-13434
▁ዳኛው	-13435
▁ለመክፈት	-13436
▁በመዋ	-13437
▁ተፈፅሞ	-13438
▁የሰሩት	-13439
▁የቴሌኮም	-13440
▁ድንጋጌዎች	-13441
ፍቲ	-13442
ደይአ	-13443
▁ሰፈ	-13444
▁ሚሊሻ	-13445
▁የሚዋ	-13446
▁አስመዝግ	-13447
▁ከሁለታችን	-13448
ደች	-13449
▁በአላት	-13450
▁በነበሩበት	-13451
ኬን	-13452
ጠሪያ	-13453
▁ኦፕ	-13454
▁አጣሪ	-13455
▁ተጨዋች	-13456
▁ማስተናገድ	-13457
ሙዲ	-13458
ጎለ	-13459
ወርዱ	-13460
▁ቦይንግ	-13461
▁የቆየውን	-13462
ኮቹ	-13463
ፆም	-13464
▁የማር	-13465
▁ችግርን	-13466
▁አድናቆ	-13467
ጨነቅ	-13468
▁ምቾ	-13469
▁ፖል	-13470
▁ሱእየ	-13471
▁ኛደጓ	-13472
▁ፍንጭ	-13473
▁መሰናዶ	-13474
▁ጥቁ	-13475
▁ላሊበላ	-13476
▁ቼኞደጓ	-13477
▁የሚከፍ	-13478
▁ምሉደይአ	-13479
▁የሚችሉበት	-13480
▁የሚደርሰው	-13481
ሸፍ	-13482
ከሩት	-13483
▁ሰኢድ	-13484
▁በመለ	-13485
▁አለባበ	-13486
▁ተደርገዋል	-13487
▁የምናውቀው	-13488
ጡንቻ	-13489
▁ብሉ	-13490
▁ማጣራት	-13491
▁አይታይም	-13492
ተርፍ	-13493
▁ማቅ	-13494
▁ራሴ	-13495
▁በመግደል	-13496
ቻኖ	-13497
ሳትን	-13498
ግራሙ	-13499
▁መርጃ	-13500
▁ከፕሬ	-13501
▁ጨረታው	-13502
▁ተነስቷል	-13503
▁እንደገባ	-13504
ወያይ	-13505
▁በስብ	-13506
▁ከግንቦት	-13507
ብረታ	-13508
▁ውለው	-13509
ያስፖራው	-13510
▁መካሄድ	-13511
▁የዘመኑ	-13512
▁ማንነትን	-13513
▁የሚያሳስ	-13514
ነቁ	-13515
ሁራን	-13516
ልገረ	-13517
ደያእ	-13518
ነኝነት	-13519
▁ኝልገረ	-13520
▁ሰራተኞቹ	-13521
▁በመካሄድ	-13522
▁ኢየሱስም	-13523
▁የመድረክ	-13524
▁የስድስት	-13525
▁ኝልገረደያእ	-13526
▁አልነበረውም	-13527
ገሩኝ	-13528
▁እንደየ	-13529
▁አህመድን	-13530
▁የዘረኝነት	-13531
▁ወኔ	-13532
▁አቋቁ	-13533
▁ደረስ	-13534
ቻብ	-13535
▁ምኤ	-13536
▁ሱዳ	-13537
▁ታዝ	-13538
▁መርምሮ	-13539
▁ንውቻብ	-13540
▁ይጠናቀቃል	-13541
ረበየ	-13542
ራሰይ	-13543
ደሰቱ	-13544
▁የቴዲ	-13545
▁ተንኮል	-13546
▁በሀይማኖ	-13547
▁ታራሚዎች	-13548
▁የሴቶችን	-13549
▁እናምናለን	-13550
ካሉ	-13551
ዢገ	-13552
▁እጠይ	-13553
▁ውዢገ	-13554
▁ለፍክለ	-13555
▁ሉራሰይ	-13556
▁በመተው	-13557
▁የወረደ	-13558
▁ጀግንነት	-13559
▁ይግ	-13560
በርከት	-13561
ጋሪዎች	-13562
▁ከምና	-13563
▁የነበረዉ	-13564
▁ለመከታተል	-13565
▁ማሰባሰቢያ	-13566
▁የራቀ	-13567
▁ድቅእ	-13568
▁ራረበየ	-13569
▁ፍጥረት	-13570
▁ስላልሆነ	-13571
ሙድ	-13572
▁የጤ	-13573
▁መናፍ	-13574
▁ከውጪ	-13575
▁ድክመ	-13576
▁ሙስናን	-13577
▁እነዚሁ	-13578
▁ማናቸውም	-13579
▁ይጠበቅበታል	-13580
ፋሽ	-13581
ድረጉ	-13582
▁ትነ	-13583
ጠንቀቅ	-13584
▁ስራም	-13585
▁ጓደኞቹ	-13586
▁ስህተቶች	-13587
▁አማልክት	-13588
▁የክርስቲያን	-13589
ጠቢያ	-13590
ይተርስ	-13591
▁ተከናው	-13592
▁ተወስኗል	-13593
▁የሚያምን	-13594
▁መሆናቸውንም	-13595
▁ሻም	-13596
▁ሙጋቤ	-13597
▁አዜብ	-13598
▁ከኢትዮ	-13599
▁የሚጠይቁ	-13600
▁የተከበረ	-13601
▁ያቀርባሉ	-13602
ቅተኛ	-13603
▁ያማ	-13604
▁መጠነ	-13605
ላሂ	-13606
▁ሊሰሩ	-13607
▁ተአም	-13608
▁አባዜ	-13609
▁ጥያቄን	-13610
▁አርሰናል	-13611
▁ተመለሰ	-13612
▁እንደተገለፀው	-13613
ጋግ	-13614
▁መተማ	-13615
▁ትንን	-13616
▁የኤች	-13617
▁ያሳተ	-13618
▁አቅማቸው	-13619
ጣልያ	-13620
▁ራቅ	-13621
▁አቁም	-13622
▁ወያነ	-13623
▁እየተባባሰ	-13624
አር	-13625
ፈስአ	-13626
ቻኖላፕ	-13627
▁ለምር	-13628
▁በህጉ	-13629
▁አምድ	-13630
▁የታጠቁ	-13631
▁ዳያስፖራ	-13632
▁ጊላፈስአ	-13633
▁ንችቻኖላፕ	-13634
ሙሉ	-13635
ያድ	-13636
▁አሀዝ	-13637
▁ይገደ	-13638
▁በችግር	-13639
▁በመነጋገር	-13640
▁በመከላከል	-13641
▁ወታደሮችን	-13642
ረሽ	-13643
▁የቻሉት	-13644
▁አላምንም	-13645
▁አዘጋጆች	-13646
ጠለጠ	-13647
▁ትጥ	-13648
▁ጀብ	-13649
▁አበርክ	-13650
▁አጥብቆ	-13651
▁ውርደት	-13652
▁እንዲቆዩ	-13653
▁እንደሚታወቀው	-13654
ብኝም	-13655
▁ታስሮ	-13656
▁ኢያሱ	-13657
▁ወህኒ	-13658
▁አድናቂ	-13659
▁የጅምላ	-13660
▁አይሰራም	-13661
▁ምመህ	-13662
▁ከሰዎች	-13663
▁ሳይንስና	-13664
▁ፈቃደኞች	-13665
▁ያቀረበውን	-13666
▁ይፈር	-13667
▁ድባከ	-13668
▁ፋውንዴ	-13669
▁የተቋቋመ	-13670
ሊፎር	-13671
▁በተሳካ	-13672
▁የሚቀርበው	-13673
ሚና	-13674
ገቢያ	-13675
▁ትሀ	-13676
▁የጁ	-13677
ላላችሁ	-13678
▁የሙሉ	-13679
▁ይሄኔ	-13680
▁ይርጋ	-13681
▁መቃወም	-13682
▁በአመራ	-13683
▁ኤኮኖሚ	-13684
▁ከአንዱ	-13685
▁ዉይይት	-13686
▁የኪራይ	-13687
▁የወጡት	-13688
ህረ	-13689
ሰህ	-13690
▁ኦቦ	-13691
▁ፈፀ	-13692
▁ሁለታ	-13693
▁ምትኩ	-13694
▁እንዲፈታ	-13695
▁የማይገባ	-13696
▁ማስፈራሪያ	-13697
▁ክንፈ	-13698
▁ጎርጎ	-13699
▁አስተዳ	-13700
▁መፈፀሙን	-13701
▁ፌዴራላዊ	-13702
▁ከመጀመሪያው	-13703
ሰተ	-13704
ሳር	-13705
▁ደጉ	-13706
▁የነፍ	-13707
▁የምታስ	-13708
▁አንስተው	-13709
ሳእና	-13710
ጠቀመ	-13711
ከብረው	-13712
ያውቁት	-13713
▁ለማስተናገድ	-13714
ጨበጥ	-13715
▁አጋዥ	-13716
▁የሚጠብ	-13717
▁ባለስልጣናትን	-13718
ጠራቸው	-13719
▁ልማትን	-13720
▁ስፍራው	-13721
▁ውለዋል	-13722
▁ገልጠዋል	-13723
ካፈ	-13724
▁ቻብ	-13725
ቢያችን	-13726
ተውታል	-13727
▁በግሌ	-13728
▁ንኳን	-13729
▁ዝግጅቱን	-13730
ዋጭ	-13731
ነበበ	-13732
▁ግቡ	-13733
ንድስና	-13734
▁ሳተላይት	-13735
▁የሚሰማው	-13736
▁የማህበሩ	-13737
▁የተገኘባቸው	-13738
▁ወረቀ	-13739
▁ማጥናት	-13740
▁እያለን	-13741
▁ደስተኞች	-13742
▁የሚያመላክ	-13743
ረከቡ	-13744
▁ነሆ	-13745
▁ከፈለ	-13746
▁እንደሚቀ	-13747
▁የፋብሪካ	-13748
▁ማሳደ	-13749
▁የእናት	-13750
▁ድረገፅ	-13751
▁ፈለግ	-13752
▁በድንበር	-13753
ቅሮ	-13754
▁ሰናይ	-13755
▁ንገወ	-13756
▁መፅሀፉን	-13757
▁ተንናእከ	-13758
ሰልጠን	-13759
▁በማስቀ	-13760
▁ተካሂዶ	-13761
▁ቴአትር	-13762
ርቅያ	-13763
ጤም	-13764
▁ጊዜን	-13765
▁ለስድስት	-13766
▁አትክልት	-13767
▁አክቲቪስቶች	-13768
ገፉ	-13769
ትርያ	-13770
▁ሊኖሩ	-13771
▁የቀጥታ	-13772
▁የኩባንያው	-13773
ሎታል	-13774
▁ማህፀን	-13775
ዉና	-13776
ድሪ	-13777
▁ፅፎ	-13778
▁ሁነኛ	-13779
▁አምል	-13780
▁አቡበ	-13781
▁አንግ	-13782
▁ጌታዬ	-13783
▁ዘብ	-13784
▁ሲበዛ	-13785
▁ኛእየ	-13786
▁አክሎ	-13787
▁ኪዳነ	-13788
▁ለሚሆኑ	-13789
▁በተረፈ	-13790
▁ተመልክቶ	-13791
▁ያሉበትን	-13792
▁የሚያገለግል	-13793
ልፌ	-13794
ራዊው	-13795
▁ህአ	-13796
▁ንሱ	-13797
▁ማለቱን	-13798
▁ፍልሚያ	-13799
ጠቡ	-13800
ጣምማ	-13801
ፈነው	-13802
▁ቅጣ	-13803
▁የፅዳት	-13804
▁ያልፋል	-13805
▁ዋሺንግተን	-13806
ካልመ	-13807
▁ታምሩ	-13808
▁ትረምፕ	-13809
▁የሰማይ	-13810
ብርት	-13811
ሴምበር	-13812
▁ምካልመ	-13813
▁ሳይቀሩ	-13814
▁ትዎለአ	-13815
▁ንኳንእ	-13816
▁ይመለከታል	-13817
▁ሜቴክ	-13818
▁ዲባባ	-13819
ዎቻችንን	-13820
▁ለማምረት	-13821
▁በኦሮምያ	-13822
▁በፈቃደኝነት	-13823
▁የባለቤትነት	-13824
ቀበሌ	-13825
▁ማርያ	-13826
▁ከሞላ	-13827
▁የብሄረ	-13828
▁ፈላስፋ	-13829
▁የሚገልፀው	-13830
የውም	-13831
▁ቢሉ	-13832
ደግፈው	-13833
▁እየለ	-13834
▁ያካፍ	-13835
ሮድካስት	-13836
▁ተሻጋሪ	-13837
▁ሁልጊዜም	-13838
▁እንዲችል	-13839
▁እንደምንችል	-13840
ምፃ	-13841
ለጠኑ	-13842
▁ታቦ	-13843
▁ቀጥለዋል	-13844
ችትአ	-13845
ገራቱ	-13846
▁ከዲ	-13847
ካሄደውን	-13848
▁ትጣምማ	-13849
▁የስሜቱ	-13850
▁ለመሙላት	-13851
▁ምልችትአ	-13852
▁ንችኞደጓ	-13853
▁የሙስሊም	-13854
▁ጉዳያቸው	-13855
ተታ	-13856
ናዊው	-13857
▁በቀኝ	-13858
▁ያንብ	-13859
▁የተለዩ	-13860
▁በሳይንስ	-13861
ውውር	-13862
▁ሄዷል	-13863
▁የራያ	-13864
▁ገበታ	-13865
▁ብራዚል	-13866
ውደእ	-13867
በልውደእ	-13868
▁ቡርቅያ	-13869
▁ንሱነእ	-13870
▁ለሀገሪቱ	-13871
▁በተፈፀመ	-13872
▁በየትኛው	-13873
▁ባዘጋጀው	-13874
▁ያዘጋጀው	-13875
▁አይገለፅም	-13876
▁ሁለታበልውደእ	-13877
የመ	-13878
መደይ	-13879
▁ልሳሰ	-13880
▁በመክ	-13881
▁አዛውን	-13882
▁ውዶረበ	-13883
▁ለአገሪቱ	-13884
▁ክፍሎችን	-13885
▁ልሳሰመደይ	-13886
▁አምላካችን	-13887
ተኑ	-13888
ግራል	-13889
▁ዉጭ	-13890
▁ሳስብ	-13891
▁ችሎቱ	-13892
▁ክልልን	-13893
▁በቄ	-13894
▁በሚሉ	-13895
ሄድም	-13896
▁ሰወች	-13897
▁የኢህአ	-13898
▁በመድረኩ	-13899
▁የተነገረው	-13900
▁ይወር	-13901
▁ሲያጋጥ	-13902
▁ፃድቃን	-13903
▁የአሰልጣ	-13904
ባስ	-13905
▁ወሳ	-13906
▁ተንታኝ	-13907
▁ይለዋል	-13908
▁በመመልከት	-13909
▁አብራሪ	-13910
▁የአክሱም	-13911
▁መንገደኞች	-13912
▁ከስምምነት	-13913
▁ኢትዮጵያዊት	-13914
ረቀ	-13915
ለውጡ	-13916
መታየ	-13917
▁በፖሊ	-13918
▁ራሳችን	-13919
▁ግሽበት	-13920
▁ሰራተኛው	-13921
▁አውጥቷል	-13922
ሚካል	-13923
ሰላም	-13924
ክረን	-13925
ያለው	-13926
▁ዶረበ	-13927
▁ከስምንት	-13928
▁እንገኛለን	-13929
▁መናገራቸውን	-13930
▁ተጠርጣሪዎቹ	-13931
ረገው	-13932
▁ዙብ	-13933
ቆጣጠረው	-13934
▁ሁኔታም	-13935
▁እንደሚኖረው	-13936
ገመበ	-13937
▁ጎጆ	-13938
▁መወሰኑ	-13939
▁የሞቱት	-13940
▁የአንድን	-13941
▁መሆናችንን	-13942
ቸውና	-13943
▁ነጠለ	-13944
▁ንህይ	-13945
▁ወርቃ	-13946
▁ጥበል	-13947
▁እንዲቻል	-13948
▁ንላፕሮውአ	-13949
▁ጥበልገመበ	-13950
▁የሚያስችለውን	-13951
ሳቸዉ	-13952
▁ጨፍ	-13953
▁በገለ	-13954
▁ትንዴ	-13955
▁ፍቅሩ	-13956
▁በባህል	-13957
▁ነመታየ	-13958
▁ይቬርሀበ	-13959
ራረ	-13960
ልቀው	-13961
▁ወሲ	-13962
▁ርቀተ	-13963
▁ትቤለ	-13964
▁ጠይቀው	-13965
▁ጭራቆተ	-13966
▁በህይወቴ	-13967
▁ትነኝማታ	-13968
▁አንቀፆች	-13969
በህ	-13970
ወረደ	-13971
▁በኬ	-13972
▁ከፊል	-13973
▁ውዳሴ	-13974
▁ድንአከ	-13975
▁ርቀተስበ	-13976
▁ነጠለሰየ	-13977
▁እንዲሰጠው	-13978
▁የምትገኘው	-13979
ታሞት	-13980
▁የሉ	-13981
▁በቁም	-13982
▁አሳቢ	-13983
▁ይከበ	-13984
▁ከሀላፊ	-13985
ውሀ	-13986
ፃህ	-13987
ልምድ	-13988
ፋጠሊ	-13989
▁ሁችላ	-13990
▁መዳን	-13991
▁ተክል	-13992
▁ነሆከ	-13993
▁የሚስ	-13994
▁ንትሞመ	-13995
▁ትዎፋጠሊ	-13996
▁ሁችላታሞት	-13997
▁እያከናወነ	-13998
▁ቅራኔ	-13999
▁አንቶ	-14000
▁ሙስሊሙ	-14001
▁ጉባኤዎች	-14002
▁የሚጀምረው	-14003
በልፀ	-14004
▁ደፋ	-14005
▁ለማር	-14006
▁መዋል	-14007
▁የተጨ	-14008
▁በሽታን	-14009
▁የሌላውን	-14010
▁ግብአቶች	-14011
▁የምትችለው	-14012
▁ልናሳ	-14013
▁ካውን	-14014
ስክንድር	-14015
ክቸሪንግ	-14016
▁ማድሪድ	-14017
▁እንዳደረገው	-14018
ሳተፉት	-14019
▁ምሰሶ	-14020
▁ስረድ	-14021
▁በርሄ	-14022
▁ግፍና	-14023
▁ሴቶችና	-14024
▁ሀይማኖቶች	-14025
▁እንደነበርም	-14026
በላው	-14027
▁ትርጉሙ	-14028
▁ኮሚሽነሩ	-14029
▁ኮሚቴዎች	-14030
▁የደረሰን	-14031
ነዝ	-14032
ውር	-14033
▁አጨ	-14034
▁ብርሀኔ	-14035
▁የጥንት	-14036
▁በማምጣት	-14037
▁ይጠቀሳሉ	-14038
▁የትኛውን	-14039
▁ተሰብስበው	-14040
ቪዬ	-14041
ባሪነት	-14042
▁ሰይፍ	-14043
ረጋገጠው	-14044
▁የሰሞኑ	-14045
▁በማድረጉ	-14046
▁አንገብጋቢ	-14047
ቤቴ	-14048
ኪስእ	-14049
▁ያዚ	-14050
ደያኪስእ	-14051
▁ልብምጭ	-14052
▁ጉርደያኪስእ	-14053
ዋሎ	-14054
መላለስ	-14055
▁መገባ	-14056
▁ማስክ	-14057
▁ከሌሎቹ	-14058
▁ማስተባበሪያ	-14059
▁ቤተክርስቲያ	-14060
▁የጎደ	-14061
▁የምትል	-14062
▁ጀመረች	-14063
▁ጀምረው	-14064
▁የተግባር	-14065
▁አምባሳደሮች	-14066
ሳፅ	-14067
▁ሰዶ	-14068
▁ተቀዳሚ	-14069
▁ትግበራ	-14070
▁ማጭበርበር	-14071
▁አሽከርካሪ	-14072
ራውን	-14073
▁አእ	-14074
▁የቶ	-14075
▁ጂቡቲ	-14076
▁እባክዎን	-14077
▁የተገደሉ	-14078
▁የተከለከለ	-14079
▁ወገኔ	-14080
▁ጎልማ	-14081
▁ተጭነው	-14082
▁የተጠቃ	-14083
▁በተሰኘው	-14084
ድላ	-14085
ታዊው	-14086
ንምለ	-14087
ህንም	-14088
▁ካባ	-14089
ወሰነው	-14090
▁ብርድ	-14091
▁ከልጅ	-14092
▁የሚሊ	-14093
▁የአበባ	-14094
▁ለመሸፈን	-14095
▁የማቅረብ	-14096
▁ከየትኛውም	-14097
መስልም	-14098
ነጥበብ	-14099
ፈለገውን	-14100
▁በጥናቱ	-14101
▁የነበራቸውን	-14102
▁መቋ	-14103
▁ከጫ	-14104
▁ማፍረስ	-14105
ችራ	-14106
▁ክፍሌ	-14107
▁ለአገልግሎት	-14108
▁እንዲያቀርብ	-14109
ቻት	-14110
ንጀሮ	-14111
▁ከላ	-14112
▁ነገርን	-14113
▁ለውይይት	-14114
▁ነግረውናል	-14115
መከሸ	-14116
ብምጭ	-14117
▁ቪዛ	-14118
ቢያቸው	-14119
▁ሌቦች	-14120
▁በሰኔ	-14121
▁እረኛ	-14122
መከሸሚየ	-14123
▁ፍቅረኛ	-14124
▁ንሉብምጭ	-14125
▁ንድንምለ	-14126
▁እንዳላት	-14127
▁ውመከሸሚየ	-14128
ሜይል	-14129
ደገም	-14130
▁ውሀው	-14131
ቀርባለን	-14132
▁ከተማና	-14133
▁ወርሀዊ	-14134
▁መንደሮች	-14135
▁እርግማን	-14136
▁የመንግስትና	-14137
ኋን	-14138
▁መሳፍ	-14139
ደርስበት	-14140
▁ውድነት	-14141
▁ስላላቸው	-14142
▁አልተገኘ	-14143
▁አይገኝም	-14144
▁የበኩላቸውን	-14145
▁አይጥ	-14146
▁የጌታ	-14147
▁ድጎማ	-14148
▁በዝምታ	-14149
▁የትራምፕ	-14150
ቢኤስ	-14151
▁እራስን	-14152
▁ያለፉት	-14153
▁ባይኖርም	-14154
▁እህቶቻችን	-14155
▁እንጠብቃለን	-14156
ቶቿ	-14157
ሰኞች	-14158
ብቅና	-14159
ታይን	-14160
▁ሞገድ	-14161
▁ታሰሩ	-14162
▁እርሷ	-14163
▁በመሆኗ	-14164
▁የተጠና	-14165
ሲሲ	-14166
▁ገዝቶ	-14167
▁ኮማንደር	-14168
▁እንዲሳተፉ	-14169
በረከ	-14170
▁ሽንት	-14171
▁ቁሳዊ	-14172
▁ለነፃነት	-14173
▁ይመስላሉ	-14174
▁የሚገርመኝ	-14175
▁ጠጋ	-14176
ስፒታል	-14177
ገባችን	-14178
▁በፍርሀት	-14179
▁በተጠናቀቀው	-14180
ዎሰ	-14181
▁ቤል	-14182
▁ወቅቱ	-14183
▁አክሊሉ	-14184
▁በእጃቸው	-14185
ማለች	-14186
ፓርታይ	-14187
▁ታመሚ	-14188
▁ኖሯል	-14189
▁የሳይ	-14190
▁የህትመት	-14191
ርፍየ	-14192
▁ንኋ	-14193
▁እሄ	-14194
▁ለአም	-14195
▁ትሀርፍየ	-14196
▁ነበረባቸው	-14197
ኬድ	-14198
ፅሄ	-14199
▁ዲና	-14200
ሰበሰበ	-14201
▁ኢብሳ	-14202
▁ብርታት	-14203
▁አላየሁ	-14204
▁ያሳየው	-14205
▁አመታቸው	-14206
▁ወጥተዋል	-14207
▁ታመሚደንእ	-14208
▁እንደሚያመለክተው	-14209
ሻን	-14210
▁ርከ	-14211
▁ካለመ	-14212
▁ይፈጠ	-14213
▁የምስሉ	-14214
▁በመምራት	-14215
▁ጨዋታዎችን	-14216
ቂው	-14217
▁አቀር	-14218
▁ምስራች	-14219
▁እንዲመ	-14220
▁ኬሚካል	-14221
▁አዋቂዎች	-14222
▁የሰይጣን	-14223
ብሯል	-14224
▁ለያ	-14225
▁ፅንስ	-14226
▁ታሪኩን	-14227
▁በአነስተኛ	-14228
▁እንዲፈፀም	-14229
▁የሚያውቁት	-14230
ጅረ	-14231
▁የገለ	-14232
▁ይላኩ	-14233
▁ጉዳቱ	-14234
▁ምስሎች	-14235
▁ሰርቷል	-14236
▁አድርሶ	-14237
▁ለህወሀት	-14238
▁ይከበራል	-14239
▁አቅራቢዎች	-14240
▁እንደራሴዎች	-14241
ጠቀሱ	-14242
▁በቀዳሚ	-14243
▁ታሪክና	-14244
▁የመዝናኛ	-14245
ገልፈ	-14246
▁ሊል	-14247
▁ያስተላልፋል	-14248
▁የዩኒቨርሲቲው	-14249
ሰንት	-14250
▁ዘፍ	-14251
ምንታት	-14252
▁ተመዝ	-14253
▁ንዱን	-14254
▁አቤቤ	-14255
▁ጥገኛ	-14256
▁ለማቆም	-14257
▁ተጋሩ	-14258
▁ዝርዘ	-14259
▁ተገልፆ	-14260
ጫለሁ	-14261
▁ከመው	-14262
▁አብደላ	-14263
▁ሎጥቀ	-14264
▁ከጎን	-14265
መለካከት	-14266
ገልፈሚየ	-14267
▁መስጠቱ	-14268
▁ማዳበር	-14269
▁ርከሞመ	-14270
▁ትንበያ	-14271
▁የተፈጠሩ	-14272
▁አንፈልግም	-14273
▁ውገልፈሚየ	-14274
▁የሚታወቁት	-14275
▁እንዲያቀርቡ	-14276
ራጃ	-14277
ቀዘ	-14278
ካትት	-14279
▁ሀብተ	-14280
▁መፅና	-14281
▁ተወልዶ	-14282
▁ወክለው	-14283
▁የአዉሮጳ	-14284
ቫፒ	-14285
ኖቹን	-14286
ችራገነ	-14287
▁ቅወማ	-14288
▁ሁችራገነ	-14289
▁ንብረበነ	-14290
▁አለመኖሩ	-14291
▁ሁችራገነደንእ	-14292
ለሌ	-14293
▁ጆር	-14294
▁ለፕሮ	-14295
▁ፅናት	-14296
▁ሱዳንን	-14297
▁አሁንስ	-14298
▁እየቀረበ	-14299
▁ቱን	-14300
▁ምጅረ	-14301
▁ያዚከ	-14302
▁ልናሆይ	-14303
▁እርከን	-14304
▁የግጭት	-14305
▁የልጅነት	-14306
▁መብታቸውን	-14307
ሆንኩ	-14308
ለምን	-14309
▁ዘጋ	-14310
ችለውን	-14311
▁በቁር	-14312
▁ተፈራር	-14313
▁የሰፈነ	-14314
▁ተግዳሮቶች	-14315
▁እስከአሁን	-14316
ዋጣ	-14317
▁ልቫፒ	-14318
▁ምንማ	-14319
▁ችዎሰ	-14320
▁ኔእየ	-14321
▁በመጫን	-14322
▁በወጣት	-14323
▁ዝርዘእ	-14324
▁የቱሪስት	-14325
ፈታት	-14326
▁በጨ	-14327
▁ኢድ	-14328
ደርስባቸው	-14329
▁ከጓደ	-14330
▁ማተሚያ	-14331
▁የሚገልፁት	-14332
ቲም	-14333
▁ዲን	-14334
ሳውያን	-14335
▁አዋሽ	-14336
▁ዳሰሳ	-14337
▁መጠቀሚያ	-14338
▁በመጨረሻው	-14339
▁አውስትራሊያ	-14340
▁አጠፋ	-14341
▁የቀይ	-14342
▁ይስተዋ	-14343
▁ለወደፊቱ	-14344
ሚት	-14345
ብጠይ	-14346
▁ለዉጥ	-14347
▁መሀላ	-14348
▁ምንጩ	-14349
▁ያጋጥ	-14350
▁የጣና	-14351
▁ገጥሞ	-14352
ጋኒስታን	-14353
▁የብሪታንያ	-14354
▁ያስከትላል	-14355
ሸግ	-14356
ኖራ	-14357
በላሽ	-14358
ገስአ	-14359
ታለሁከ	-14360
▁መስኖ	-14361
▁ሶሻል	-14362
▁ንዱንአ	-14363
▁የብረት	-14364
▁ግድብን	-14365
▁ሉቃብጠይ	-14366
▁ንችታለሁከ	-14367
▁ሪት	-14368
▁እንታ	-14369
▁ለምክር	-14370
▁እያላችሁ	-14371
ኒቲ	-14372
▁ንሆሊ	-14373
▁ድህረ	-14374
▁በጠላት	-14375
▁አጭበር	-14376
▁ሚራገስአ	-14377
▁ትባልናም	-14378
▁በእኩልነት	-14379
▁የፖለቲካና	-14380
ባልነት	-14381
▁እሰራ	-14382
▁እየመ	-14383
▁የቀሩት	-14384
▁በድምቀት	-14385
▁በጠቅላላው	-14386
ለቀቀ	-14387
ጠየቀ	-14388
▁ይፍ	-14389
▁ድግ	-14390
▁ይሁዳ	-14391
▁መዋእለ	-14392
▁ገቢዎች	-14393
▁የክረምት	-14394
▁መፃህፍትን	-14395
▁ሌት	-14396
▁ሬስቶ	-14397
▁አድም	-14398
▁በስሜት	-14399
▁ትራፊክ	-14400
▁እንደነዚህ	-14401
ይዘ	-14402
ሴሎና	-14403
ብሮት	-14404
▁ተፈጠረ	-14405
▁ለማስተዋወቅ	-14406
ክሪ	-14407
ያፊ	-14408
ገፈ	-14409
ንቅልፍ	-14410
▁ቦንድ	-14411
▁አህጉር	-14412
▁ህወሀቶች	-14413
▁በጣሊያን	-14414
▁ዲያብሎስ	-14415
▁አመፀ	-14416
▁አምቦ	-14417
▁ጉድለ	-14418
▁የመሰረ	-14419
ቢይ	-14420
ርቲን	-14421
▁ይዳ	-14422
▁ፈቃዱ	-14423
▁ቁርጠኛ	-14424
▁የእኛን	-14425
▁በቅንጅት	-14426
▁እየተሰጠ	-14427
▁ተቀይ	-14428
▁ምንገል	-14429
▁ያገኙትን	-14430
▁ለመተግበር	-14431
ጅራ	-14432
ህደት	-14433
ራሎች	-14434
▁መረዳ	-14435
▁ማውጫ	-14436
▁እንደሚገባም	-14437
ቶም	-14438
▁ለብሶ	-14439
▁ልጋል	-14440
▁በአካ	-14441
▁ንረት	-14442
▁በውጪ	-14443
▁ድንበ	-14444
ክሲዮኖች	-14445
▁ከክልል	-14446
▁ትምህርትና	-14447
▁ንሆመ	-14448
▁ሰምቻለሁ	-14449
▁ምንገልፈስያአ	-14450
▁የሀገራችንን	-14451
▁የአትሌቲክስ	-14452
ካድራ	-14453
▁ሳውዲ	-14454
▁ብከር	-14455
▁ቁሳቁሶችን	-14456
▁የመጀመሪያዋ	-14457
ፅፉ	-14458
▁በሪ	-14459
▁እመር	-14460
▁ዘራፊ	-14461
▁በትህትና	-14462
ራብ	-14463
ቡነ	-14464
ረምቱ	-14465
በተን	-14466
▁በኮሚ	-14467
▁ወደመ	-14468
▁በቀጣዮቹ	-14469
▁በተወሰኑ	-14470
▁የመስመር	-14471
▁የድርጅቱን	-14472
▁መቸም	-14473
ወርወመከ	-14474
▁በሚኖሩ	-14475
▁በመወከል	-14476
▁ብከርመከ	-14477
▁አቋርጠው	-14478
▁ይቀንሳል	-14479
▁ዎርወርወመከ	-14480
ራዚል	-14481
ደርስም	-14482
▁የሚቀር	-14483
▁ግብፅና	-14484
▁መፈጠር	-14485
▁ቆሮንቶስ	-14486
▁በመናገር	-14487
▁አገሮችን	-14488
ኝህ	-14489
▁ስብስ	-14490
▁ከፍሎ	-14491
▁ጀኔራል	-14492
▁ፅፈዋል	-14493
▁በመሰብሰብ	-14494
ማርክ	-14495
ቢሽን	-14496
▁አለሁ	-14497
▁ሁንዴሳ	-14498
▁የዳን	-14499
▁ጭንቀ	-14500
▁የሀበሻ	-14501
▁በአሰቃቂ	-14502
▁ለመነጋገር	-14503
▁አስታውሰው	-14504
ሜዳ	-14505
ቡላ	-14506
ገሳ	-14507
ንዳች	-14508
▁በርቱ	-14509
▁በግር	-14510
ቀረብ	-14511
▁የክለ	-14512
▁አቋራጭ	-14513
▁የሚንቀሳቀ	-14514
ሚር	-14515
▁ሲሰማ	-14516
▁እአአ	-14517
▁የተማሩ	-14518
▁የተዛባ	-14519
▁እየተከታተ	-14520
ሳሰር	-14521
▁ሊቅ	-14522
ተርጎም	-14523
▁ዳውድ	-14524
▁ለችግሩ	-14525
▁ማቴዎስ	-14526
▁አስተም	-14527
▁ዝግጅቱ	-14528
▁አፈወርቅ	-14529
▁እስከመቼ	-14530
▁የአማራና	-14531
ቴሪያ	-14532
▁ለዝ	-14533
ደረገም	-14534
▁ቅለጥ	-14535
▁ድጋሚ	-14536
▁ርእሶች	-14537
▁ደራሲው	-14538
▁የሚያምኑ	-14539
▁አንዱአለም	-14540
▁የተገኘውን	-14541
▁ማባ	-14542
▁ልህያ	-14543
▁ሲያን	-14544
▁ተፃፈ	-14545
▁ኝሳወ	-14546
▁የተቻ	-14547
▁መጠጣት	-14548
▁ሰንሰለት	-14549
▁ቅለጥመለ	-14550
▁ልጋልፈስያ	-14551
▁እንደተጠበቀ	-14552
▁እንደቆ	-14553
ገሱ	-14554
ከብድ	-14555
▁ለደን	-14556
▁የነሱ	-14557
▁ውሳኔዎችን	-14558
▁ለዩ	-14559
▁ሽሮ	-14560
▁መገኛ	-14561
▁ቀብር	-14562
▁እስከማ	-14563
▁በመቀጠልም	-14564
▁በነበራቸው	-14565
▁ከተመሰረተ	-14566
▁የፈለገውን	-14567
ልኮል	-14568
ፅዳት	-14569
▁ዊል	-14570
▁ከዳር	-14571
▁እንደሚታ	-14572
ለፉት	-14573
ናነቅ	-14574
ካቸውን	-14575
▁ልሚየ	-14576
▁ሻቢያ	-14577
▁ኢህአፓ	-14578
▁እያለሁ	-14579
▁የነፍስ	-14580
▁በሆነበት	-14581
▁ተሟጋቾች	-14582
▁ያቀረቡትን	-14583
ትሮው	-14584
▁ተሻሽ	-14585
▁ንግስ	-14586
▁አሟል	-14587
▁ዜግ	-14588
ገሪቷን	-14589
▁እግሩ	-14590
▁ፈረንጅ	-14591
ቀተ	-14592
ዲሾ	-14593
ጓዘ	-14594
ልተን	-14595
▁ገንቢ	-14596
▁ጥቅል	-14597
▁አዳጋች	-14598
▁ሙከራዎች	-14599
▁ምኒስትር	-14600
▁የህልውና	-14601
▁የማስተዳደር	-14602
ዘንጋት	-14603
▁አስጠነ	-14604
▁ያደረሰ	-14605
▁በማምረት	-14606
▁ይቆጠራል	-14607
▁አጅ	-14608
▁ሪከርድ	-14609
▁በላከው	-14610
▁በማመን	-14611
▁በተያዘ	-14612
▁እንከን	-14613
▁የወጣት	-14614
▁ተሰጥቶት	-14615
▁መስተዳድሩ	-14616
▁ማንነታቸው	-14617
ጓደኛ	-14618
▁ህዝቤ	-14619
▁መሬቱ	-14620
▁በለስ	-14621
▁ያደረግነው	-14622
▁ዲፕሎማቶች	-14623
ሚያን	-14624
ግራፊ	-14625
▁ከመታ	-14626
▁ከቤተሰብ	-14627
▁ይሰማቸዋል	-14628
▁በጫ	-14629
▁ያመነ	-14630
▁አይኖር	-14631
▁ያነሱት	-14632
▁የሚቀጥል	-14633
ላሎች	-14634
▁በዴ	-14635
ነሳሳት	-14636
▁መስቀ	-14637
▁ከገቡ	-14638
▁እያገኘ	-14639
▁ኦዲተር	-14640
▁ከጎንደር	-14641
▁ከጨለማው	-14642
▁ሳይንቲስቶች	-14643
▁ያጋሩ	-14644
▁ይጠራ	-14645
▁ሲጠበቅ	-14646
▁ለፓርላማ	-14647
▁መወዳደር	-14648
▁አስጠንቅ	-14649
▁የሚወስደው	-14650
ሊቱ	-14651
ጥቶ	-14652
▁ተነሱ	-14653
▁ጣልያን	-14654
▁እንዳለን	-14655
▁የተናገሩ	-14656
ከሞ	-14657
የዉ	-14658
▁የአገ	-14659
▁በመስኖ	-14660
▁አጥነት	-14661
▁ከአደጋ	-14662
▁ዲጂታል	-14663
▁ሲንቀሳቀሱ	-14664
ታላችሁ	-14665
▁መዘግ	-14666
▁አልፋ	-14667
▁የማው	-14668
▁በመቀነስ	-14669
▁የተፈቀደ	-14670
▁ያለፈውን	-14671
▁የተመለከተው	-14672
ርሱን	-14673
ፈራል	-14674
▁መክፈ	-14675
▁በውሸት	-14676
▁ተረጋጋ	-14677
▁አሉባል	-14678
▁አውቀው	-14679
▁ከተነሳ	-14680
ሸሹ	-14681
▁ሽኩ	-14682
ጉምሩክ	-14683
▁ሲመለሱ	-14684
▁ባልንጀ	-14685
▁የእህል	-14686
ኑፋክቸሪንግ	-14687
ሲካ	-14688
መጣቸው	-14689
▁የሚሸጥ	-14690
▁ልዩነቶች	-14691
▁መደራጀት	-14692
▁የባህልና	-14693
▁አስቀድመው	-14694
▁በተመለከተም	-14695
▁እሷን	-14696
▁የተሰጡ	-14697
▁የያዘውን	-14698
▁ፀሀፊዎች	-14699
▁አሳይተዋል	-14700
እን	-14701
ዘጉ	-14702
ልቭፔ	-14703
ጡሰየ	-14704
ርስቲያ	-14705
▁በንቃት	-14706
▁ንልቭፔ	-14707
▁ይሁንታ	-14708
▁ይጠፋል	-14709
▁ስትጡሰየ	-14710
ሬስ	-14711
▁ግሎ	-14712
▁በጥልቅ	-14713
▁ኢትዬጵያ	-14714
▁ያካትታል	-14715
▁የጋዜጠኞች	-14716
ኮብ	-14717
▁በደሴ	-14718
▁የኢሳት	-14719
▁ባልደራስ	-14720
▁አጋርነት	-14721
ቷት	-14722
▁ሸም	-14723
ረርሽኙ	-14724
▁በሀያ	-14725
▁ፍጥጫ	-14726
▁ለጉዳዩ	-14727
▁ነዋሪዎቹ	-14728
▁ቀልጣ	-14729
▁ምርትና	-14730
▁መጠንቀቅ	-14731
▁የምትገኝ	-14732
▁የተጠናከረ	-14733
▁ለማስተላለፍ	-14734
▁አገልግለዋል	-14735
▁ኢራ	-14736
▁አጣብ	-14737
▁በፍትህ	-14738
▁ተስማሙ	-14739
▁የጃፓን	-14740
▁ለስልጣን	-14741
▁ይኖራቸዋል	-14742
▁ስረ	-14743
▁ከና	-14744
▁የቂ	-14745
▁ረዘም	-14746
▁እንጃ	-14747
ሰበሰብ	-14748
▁ማስቆም	-14749
▁የእንግሊዝኛ	-14750
ሄድኩ	-14751
መሳሰ	-14752
▁ትዳ	-14753
▁ከጃ	-14754
ምምነቱ	-14755
▁ካፒታ	-14756
▁የእም	-14757
▁የካቢኔ	-14758
▁የሰጡትን	-14759
▁በመገንዘብ	-14760
ደህ	-14761
ኤልን	-14762
ሬያለሁ	-14763
▁እየዞ	-14764
▁አምነው	-14765
▁የግእዝ	-14766
ባታ	-14767
▁ሞራ	-14768
▁ፀብ	-14769
▁ምህረ	-14770
▁ነፃና	-14771
▁ተጠያቂው	-14772
ዬር	-14773
▁አቧ	-14774
▁ደዌ	-14775
ቀመጡት	-14776
ኝነትን	-14777
▁በስሙ	-14778
▁በሀረር	-14779
▁በቀረበ	-14780
▁ኦሮምያ	-14781
▁ከመርከብ	-14782
መርጡ	-14783
▁ማርች	-14784
▁ነቢይ	-14785
▁የሚያዙ	-14786
▁ተመልካቾች	-14787
▁መብቶችን	-14788
▁ያስታወሱት	-14789
▁ፓትርያርኩ	-14790
ዮብ	-14791
▁ባጋ	-14792
▁ቼክ	-14793
▁ያገገሙ	-14794
▁የተካተቱ	-14795
▁የተደነገ	-14796
▁ከህገ	-14797
▁ዉጤት	-14798
▁ባርነት	-14799
▁የላትም	-14800
▁ቻለ	-14801
▁የጄ	-14802
▁በጠራ	-14803
▁ተያዘ	-14804
▁አብነት	-14805
▁ፓስተር	-14806
▁ብሄርተኛ	-14807
▁የህውሀት	-14808
▁የነበረች	-14809
▁የምናደርገው	-14810
መሪያ	-14811
በላሹ	-14812
ቅያኖስ	-14813
▁ሊንክ	-14814
▁ክፍተቶች	-14815
▁ከነበረበት	-14816
▁ሚዲያው	-14817
▁ማስጨበ	-14818
▁የጋብቻ	-14819
▁በትላንት	-14820
▁የተሰኘውን	-14821
▁የሚያመለክት	-14822
▁ልባ	-14823
▁ርስ	-14824
▁ሄዋን	-14825
▁ወደቀ	-14826
▁አራተኛው	-14827
ጥታለች	-14828
▁ያወጣውን	-14829
▁ንብረታቸው	-14830
▁የሰራተኞች	-14831
ረጅ	-14832
ጂን	-14833
ሜትር	-14834
ደበቅ	-14835
ገናኘው	-14836
▁ሶማሊ	-14837
▁ስርጭቱ	-14838
▁የደንብ	-14839
ኔስኮ	-14840
ዘዘው	-14841
▁ሼህ	-14842
▁መክፈት	-14843
▁የሬዲዮ	-14844
▁በቀረበው	-14845
▁አሸናፊነት	-14846
▁ጋና	-14847
▁ጤን	-14848
▁ለጥያቄ	-14849
▁መፀዳጃ	-14850
▁አምላኬ	-14851
▁የተረዳ	-14852
ፈሱ	-14853
አታት	-14854
ክትሬት	-14855
▁እያጋ	-14856
▁የሄዱ	-14857
▁ይኑር	-14858
▁ሳስበው	-14859
▁በተባሉ	-14860
▁በስተጀርባ	-14861
▁የአፈፃፀም	-14862
▁ኢኮኖሚያዊና	-14863
▁ልባዊ	-14864
▁ስርአትና	-14865
ባህ	-14866
እክ	-14867
ልሀል	-14868
መደው	-14869
ቅጣጫ	-14870
▁ከግል	-14871
▁የሚጎ	-14872
▁ከታሪክ	-14873
▁ጥላቻን	-14874
▁በመስመር	-14875
▁ተጠይቀው	-14876
▁የህዝብና	-14877
▁የተፈፀሙ	-14878
▁አምስቱ	-14879
▁በአጋጣሚ	-14880
ጦጦ	-14881
ሶማሊ	-14882
▁ለወዳ	-14883
▁ሀያላን	-14884
▁በመስከረም	-14885
ረሰ	-14886
▁መጉ	-14887
▁ንሁ	-14888
▁ማነህ	-14889
▁ሰልጣ	-14890
▁ቅነሳ	-14891
▁አለብ	-14892
▁አራማ	-14893
▁የቦታ	-14894
ጢአ	-14895
ቀቀው	-14896
ፕሊን	-14897
▁ዉሀ	-14898
ቤታችን	-14899
ገልፀው	-14900
▁ውሀና	-14901
▁ሀገሩን	-14902
▁የስእል	-14903
▁ይጀምራሉ	-14904
▁የኤርትራው	-14905
▁ያለአግባብ	-14906
መጡት	-14907
ማልሽ	-14908
▁አስተባብ	-14909
▁ለማስታወስ	-14910
▁መጠናቀቁን	-14911
▁የከተማዋን	-14912
ደናል	-14913
▁ከቱ	-14914
▁ያሸነ	-14915
▁መካከለኛው	-14916
▁የንፁህ	-14917
▁የእንግሊ	-14918
ፋሮ	-14919
▁ሟች	-14920
▁አቆ	-14921
▁የትግ	-14922
▁ራይትስ	-14923
▁በኩልም	-14924
ቅሎ	-14925
▁ዳሩ	-14926
በታተን	-14927
▁ታቦር	-14928
▁ማጥቃት	-14929
▁ምርጫን	-14930
▁በተከሰተ	-14931
▁አሳልፈው	-14932
▁አማራጮችን	-14933
▁ጊኒ	-14934
ሱርነእ	-14935
ችማልሽ	-14936
ከሞየእ	-14937
▁ይሰጡ	-14938
▁ለንግድ	-14939
▁የዘለቀ	-14940
▁ምሱርነእ	-14941
▁ሩከሞየእ	-14942
▁በመቀየር	-14943
▁እንደሚል	-14944
▁ንሁችማልሽ	-14945
ጠራቀ	-14946
▁ሜጀር	-14947
▁በትር	-14948
▁ተለው	-14949
▁ተሀዋሲ	-14950
▁ቀርተዋል	-14951
ኳል	-14952
ዳሽ	-14953
መረቅ	-14954
▁ቢኒ	-14955
▁አካሄዱ	-14956
▁እንደምትችል	-14957
ቹም	-14958
▁ቀሪው	-14959
▁ቀጣና	-14960
▁ለሚያስ	-14961
▁በግንባር	-14962
▁አስታውሷል	-14963
▁የተወሰኑት	-14964
በኩር	-14965
▁ሉቃስ	-14966
▁ሀገራትን	-14967
▁የሚፈልገውን	-14968
ሾሙ	-14969
በቃም	-14970
▁ለቡ	-14971
▁እጥረ	-14972
▁በጥቂቱ	-14973
▁ይጠብቃል	-14974
▁አዲስአበባ	-14975
ዋንጫ	-14976
▁በጄ	-14977
▁ዲቪ	-14978
▁ጭስ	-14979
▁መሸጫ	-14980
▁ያሳዩ	-14981
▁በመጠቆም	-14982
ዝሬት	-14983
▁መጫ	-14984
▁ንፋስ	-14985
▁ለወንድ	-14986
▁ማሾሀፍ	-14987
ነናል	-14988
▁ልበ	-14989
▁ያት	-14990
▁በተዋ	-14991
▁አይዞህ	-14992
▁የቪዲዮ	-14993
▁የፕሬዚ	-14994
▁ገልፃለች	-14995
▁ትሩ	-14996
▁ስሜትን	-14997
▁ይባላሉ	-14998
▁ደንቦች	-14999
▁ለሰብአዊ	-15000
▁መብረ	-15001
▁ማይክ	-15002
▁በማሰ	-15003
▁አመድ	-15004
▁የፃፍ	-15005
▁ልማቶች	-15006
▁እሳቱን	-15007
▁የተበላሸ	-15008
▁ለመወያየት	-15009
▁እንዲቀጥሉ	-15010
ሚነት	-15011
ቀርብም	-15012
▁ውንጀ	-15013
▁ፍርሀ	-15014
▁ተካፋይ	-15015
▁አካውን	-15016
▁የተማር	-15017
▁አሰላለፍ	-15018
▁ኮንቴ	-15019
▁ጉምዝ	-15020
▁ፓስፖርት	-15021
▁ታውቃላችሁ	-15022
ዝናና	-15023
▁ፍሪ	-15024
▁እልል	-15025
▁ወልዴ	-15026
▁ድርድ	-15027
▁ፓሪስ	-15028
▁ሲስተም	-15029
▁ስሜታዊ	-15030
▁ከፓርቲ	-15031
▁እየፈጠረ	-15032
▁የገንዘብና	-15033
▁የደረሰበትን	-15034
▁ህይ	-15035
▁መጤ	-15036
▁ይከ	-15037
ገኛቸው	-15038
▁በእድ	-15039
▁ዲዛይ	-15040
▁ርእዮት	-15041
▁ቀነኒሳ	-15042
▁የተሻሉ	-15043
▁የወሰደ	-15044
▁እንግሊዛ	-15045
የቆ	-15046
ክብት	-15047
▁በመሸ	-15048
▁አዘውት	-15049
▁ያመጣው	-15050
▁እንደሚጀምር	-15051
በኘ	-15052
ኪም	-15053
ተረጎ	-15054
▁ወደሌ	-15055
▁ስለነበሩ	-15056
▁በአማራው	-15057
▁ተፈጥሯል	-15058
▁ከተከሰተ	-15059
▁መዋላቸውን	-15060
▁የታወ	-15061
▁ጭፍን	-15062
▁ጥያቄና	-15063
▁በቋሚነት	-15064
▁ፖለቲካን	-15065
▁የኤሌክትሮኒክስ	-15066
ተስ	-15067
ዚራ	-15068
ዞን	-15069
▁ቃላ	-15070
ጠንካራ	-15071
▁የአዳማ	-15072
▁ዜናዎችን	-15073
▁በኦሮሚያና	-15074
▁የሚያገለግ	-15075
ያውቀው	-15076
▁መአት	-15077
▁ከሳሽ	-15078
▁ሙዚየም	-15079
▁ሳይነሱ	-15080
▁ሀዋርያት	-15081
▁ለእርስዎ	-15082
ትናገር	-15083
▁የአሁ	-15084
▁መሆንን	-15085
▁ደረጃም	-15086
▁ምእራባዊ	-15087
▁በሽታውን	-15088
▁ተመዝግቦ	-15089
▁እንቆቅል	-15090
ሬትስ	-15091
ዳረጉ	-15092
▁በቸ	-15093
ችላቸው	-15094
▁ስለታ	-15095
▁በአርባ	-15096
ጊት	-15097
ህዛብ	-15098
ንጀራ	-15099
▁ለሱ	-15100
ደናቀፍ	-15101
▁ምርቱን	-15102
▁በቪዲዮ	-15103
▁የሚሰጣቸው	-15104
▁የመጨረሻውን	-15105
▁በክሱ	-15106
▁በዛው	-15107
▁እየደ	-15108
▁ጣሪያ	-15109
▁ለሚገኘው	-15110
▁አማራዎች	-15111
ዛኙ	-15112
▁ስሙኝ	-15113
▁አዘል	-15114
▁እንደዚ	-15115
▁አድርጋችሁ	-15116
▁እስካሁንም	-15117
▁የአደባባይ	-15118
ኪው	-15119
መኛል	-15120
▁ቢቀ	-15121
ቬምበር	-15122
▁ታዛቢ	-15123
▁ተመልሰዋል	-15124
ላድ	-15125
ልጋ	-15126
▁ለሸ	-15127
▁ጎማ	-15128
▁በጅማ	-15129
▁አይመ	-15130
▁አደረግ	-15131
ለውና	-15132
▁ትብ	-15133
ራዊነት	-15134
ጠይቅም	-15135
▁አለቀ	-15136
▁አይኑ	-15137
ሊፎርኒያ	-15138
▁መፈታት	-15139
▁አድርጋለች	-15140
ጌል	-15141
▁ላከ	-15142
▁ልጆቼ	-15143
▁ቁስል	-15144
▁በፍቃ	-15145
▁ጥያእ	-15146
▁በአንቀፅ	-15147
▁አሜሪካና	-15148
▁ወረርሽኙ	-15149
▁የመግዛት	-15150
▁ጀርመናዊ	-15151
▁መተዳደሪያ	-15152
▁የሚያስገድ	-15153
▁ተፈት	-15154
▁ድባብ	-15155
▁ማመላለ	-15156
▁ማቋረጥ	-15157
▁አስተው	-15158
ይባ	-15159
ብኝት	-15160
▁ፊቱን	-15161
▁ለክልሉ	-15162
▁ሱፐር	-15163
▁ተጎጂ	-15164
▁ጥበቡ	-15165
▁ለቀጣይ	-15166
▁ያስገኛል	-15167
▁ይቀላቀሉ	-15168
▁ዲሴምበር	-15169
▁ሲኒማ	-15170
▁ቁርስ	-15171
▁ለመላክ	-15172
▁ለፖሊስ	-15173
▁ይበቃል	-15174
▁ያደረገችው	-15175
ነሳም	-15176
ጊያው	-15177
▁ቡር	-15178
▁መታወ	-15179
▁አካሉ	-15180
▁አያት	-15181
▁ከአይ	-15182
▁ገንዳ	-15183
▁ድሪ	-15184
ወሰዱት	-15185
▁መንደ	-15186
▁አሰማ	-15187
▁በዋነኝነት	-15188
▁በሚያደርገው	-15189
▁የምንፈልገው	-15190
ጠኛው	-15191
▁ጉቦ	-15192
▁በፎቶ	-15193
▁የማንም	-15194
▁ለማንሳት	-15195
▁ለአካባቢው	-15196
ደጃ	-15197
▁መሪው	-15198
▁ብዝሀ	-15199
▁እያሰ	-15200
▁እግረ	-15201
▁መምህሩ	-15202
▁ሻሸመኔ	-15203
▁በግብር	-15204
▁መርሀግብር	-15205
መሳስ	-15206
ንግዶ	-15207
▁መዉ	-15208
▁ስቱ	-15209
ፋሪዎች	-15210
▁የአካ	-15211
▁የወንዶች	-15212
▁ሰራተ	-15213
▁ለሚኖሩ	-15214
▁በማስተማር	-15215
▁የሚያገኘው	-15216
ኛእ	-15217
▁ዋይ	-15218
▁ስናይ	-15219
▁እየገቡ	-15220
▁ፍላጎትና	-15221
▁ኑር	-15222
ቋቋሙት	-15223
▁ሰንብ	-15224
▁ውሀን	-15225
▁ተገቢው	-15226
▁አይኖች	-15227
▁እዚያም	-15228
▁ፓርቲን	-15229
▁አውታሮች	-15230
▁ያስተላለፉት	-15231
ነሪ	-15232
ክንዮ	-15233
▁ምዘና	-15234
▁ከተራ	-15235
▁ዘመቻው	-15236
▁ለመልቀቅ	-15237
▁የተወለደ	-15238
▁ፓርቲዎቹ	-15239
ልሲ	-15240
▁ሰማያት	-15241
▁ግጥሞች	-15242
▁የመጠበቅ	-15243
መደቡ	-15244
▁አስነብ	-15245
▁ማስጨበጫ	-15246
▁ማግኘቱን	-15247
▁ኮንትራት	-15248
▁እንቅስቃሴዎችን	-15249
▁ማሊ	-15250
▁ቅል	-15251
▁ከሴ	-15252
▁በሚያሳ	-15253
▁በተዘጋጀ	-15254
▁ሁለተኛውን	-15255
▁መንግስታቸው	-15256
▁መኩሪያ	-15257
▁እስካልተ	-15258
ታደስ	-15259
ድዋን	-15260
▁ክሪ	-15261
▁ከአቅ	-15262
ልተኝነት	-15263
▁በብድር	-15264
▁ያልከው	-15265
▁ስንታየሁ	-15266
▁የቅማንት	-15267
▁ተፈናቅለው	-15268
▁ያሏቸው	-15269
▁ያገኘውን	-15270
ጋስ	-15271
▁ተሹ	-15272
▁ታክ	-15273
▁ሲኖሩ	-15274
▁አውሎ	-15275
▁ከድን	-15276
▁ከብቶች	-15277
▁ታይተዋል	-15278
▁የምስጋና	-15279
መቅ	-15280
▁ሂሳ	-15281
▁ልምም	-15282
▁ድንኳ	-15283
▁ብሄራት	-15284
▁ከስልጣ	-15285
▁ከፋዮች	-15286
▁መገልገያ	-15287
▁አያይዘው	-15288
▁አይቻለሁ	-15289
▁ያሏቸውን	-15290
▁አስቀምጧል	-15291
▁መተን	-15292
▁በሙዚቃ	-15293
▁ተስተው	-15294
ቅጭ	-15295
▁ባገኘ	-15296
▁እህቴ	-15297
▁ለእርሱ	-15298
▁የተሀድሶ	-15299
▁ሾው	-15300
ባቢሎን	-15301
▁መጫወቻ	-15302
▁በጥራት	-15303
▁የሚወስድ	-15304
ፉና	-15305
ገንመ	-15306
▁ንኛእ	-15307
▁ደጀኔ	-15308
በሳሳነያ	-15309
▁ለመፃፍ	-15310
▁ልጃገረ	-15311
▁አስገኝ	-15312
▁ድገንመ	-15313
▁ገዥዎች	-15314
▁ጠመንጃ	-15315
▁ልናሳሳነያ	-15316
▁ንትበሳሳነያ	-15317
ኒልክ	-15318
▁ይፈፀ	-15319
▁ግእዝ	-15320
▁በሌሊት	-15321
▁የሰብል	-15322
▁ሳምንታዊ	-15323
ባቹ	-15324
▁አስሮ	-15325
▁የሰሩ	-15326
▁መክፈቻ	-15327
▁በግድቡ	-15328
▁አስከሬ	-15329
▁ኤርፖርት	-15330
▁የግለሰብ	-15331
▁ይድ	-15332
▁የእግ	-15333
▁ከሆንክ	-15334
▁ያነጋገር	-15335
ቅት	-15336
ፈፃሚ	-15337
ላችሁን	-15338
▁አዳራ	-15339
▁ይቺን	-15340
▁ትግራዋይ	-15341
▁ፐ	-15342
ተኛት	-15343
ማማቾች	-15344
▁አጥቶ	-15345
▁እራሳቸው	-15346
▁እንዳይገባ	-15347
▁ፓርቲዎችን	-15348
▁ሆነና	-15349
▁ከራሳቸው	-15350
▁በደረሰበት	-15351
ራተን	-15352
▁መፈክ	-15353
▁ነበል	-15354
▁ብክለት	-15355
▁የጎርፍ	-15356
▁በተገናኘ	-15357
▁ለመከላከያ	-15358
▁የፃ	-15359
▁ተከፍሎ	-15360
▁አገሩን	-15361
▁መቆራረጥ	-15362
▁መዘጋጀቱን	-15363
▁በማገልገል	-15364
አየ	-15365
ጓድ	-15366
ገረኝ	-15367
▁ኢቲቪ	-15368
▁ለሚፈልጉ	-15369
▁የኢፌዲሪ	-15370
▁አስተዳደሮች	-15371
ሬቱ	-15372
በቅ	-15373
▁መሆ	-15374
ገነቡት	-15375
▁ቁመና	-15376
▁ለማሰብ	-15377
▁በዘመነ	-15378
▁ከጥንት	-15379
▁አንጋፋው	-15380
▁ከመወርወር	-15381
መጀመ	-15382
ቸውንና	-15383
▁በምድ	-15384
▁አውድ	-15385
▁ሀብቶች	-15386
▁አቅምን	-15387
▁በመጠየቅ	-15388
ፖች	-15389
ቃውሞ	-15390
ዲንግ	-15391
▁ታገኛ	-15392
▁የማጣ	-15393
▁ቀዝቃዛ	-15394
▁በእቅድ	-15395
▁በዋነኛ	-15396
▁ባለፈም	-15397
▁በግንባታ	-15398
▁የኦሮምያ	-15399
▁የብሮድካስት	-15400
ነሮች	-15401
▁ለምታ	-15402
▁ከምታ	-15403
▁እየታወቀ	-15404
ፊያው	-15405
▁መፍቻ	-15406
▁አሰራሮች	-15407
▁የሚኖረውን	-15408
ዊያ	-15409
ዳግ	-15410
▁መሰጠት	-15411
▁ለመምረጥ	-15412
▁ያገኘሁት	-15413
▁በማሰባሰብ	-15414
ቪዬሽን	-15415
▁በሩን	-15416
▁የዉጭ	-15417
▁በኩራት	-15418
▁ተከራይ	-15419
▁ድምፆች	-15420
▁አሸንፏል	-15421
▁በመጀመርያ	-15422
▁የሚያቀርብ	-15423
▁ለፊ	-15424
▁መስህ	-15425
▁ተማም	-15426
▁ፖስቱ	-15427
▁መፍረስ	-15428
▁ባህርያ	-15429
▁ወቅዱስ	-15430
▁እርስዎም	-15431
▁እየጠበቀ	-15432
▁ከነዚህም	-15433
▁በማስታወስ	-15434
▁ምታ	-15435
▁ስንቅ	-15436
▁የፕሬዚዳንት	-15437
ዳለሁ	-15438
▁የሚሹ	-15439
▁ለብሰው	-15440
▁የተጎዱ	-15441
▁መንገድና	-15442
▁በማግስቱ	-15443
▁ባዩ	-15444
ችስተር	-15445
▁አሰል	-15446
▁እያጣ	-15447
▁ጥምር	-15448
▁መታወቅ	-15449
▁የዝናብ	-15450
▁ማጠቃለያ	-15451
▁አጠባበቅ	-15452
▁እንደሚቻለው	-15453
▁ይረ	-15454
መስለኝ	-15455
ሞላበት	-15456
▁በገፍ	-15457
▁ከሻ	-15458
▁ፍሎ	-15459
▁በሮች	-15460
▁ነግሮ	-15461
▁መሪዎቹ	-15462
▁ከቀናት	-15463
▁በቤንሻንጉል	-15464
ቪያ	-15465
ፈህ	-15466
ቅርቡ	-15467
▁መያዣ	-15468
▁ቅደም	-15469
▁እየተሸ	-15470
▁ያልታወቀ	-15471
▁ፍጥረታት	-15472
▁ኪስ	-15473
▁ነብስ	-15474
ከፈላቸው	-15475
▁ሲመለስ	-15476
▁የክለቡ	-15477
▁የጠላት	-15478
ዳኑ	-15479
▁ህዝቅ	-15480
▁መልሱን	-15481
▁በድህነት	-15482
ኒሊክ	-15483
▁ዋቢ	-15484
▁ጠቅል	-15485
▁ማፍራት	-15486
▁እቅዶች	-15487
▁መከራከሪያ	-15488
ረውን	-15489
ገናዘበ	-15490
▁የዋህ	-15491
▁መቆየቱ	-15492
▁ምኒሊክ	-15493
▁ክልሉን	-15494
▁የሞተው	-15495
▁ግብፅን	-15496
▁አስተላልፏል	-15497
ወዱ	-15498
ጅምሩ	-15499
▁ጣት	-15500
▁መድፈር	-15501
▁ተቀይሮ	-15502
▁ስግብግብ	-15503
ውቁ	-15504
ውያሪ	-15505
ፈረን	-15506
መጀመየ	-15507
የቆመለ	-15508
▁ሰላማ	-15509
▁ብልት	-15510
▁ነገም	-15511
▁ንውያሪ	-15512
▁እግዜር	-15513
▁የማየት	-15514
▁ያድምጡ	-15515
▁ርገናመለ	-15516
▁ትየቆመለ	-15517
▁የሚያሰኝ	-15518
▁ኑላፕሮውአ	-15519
▁ንውያሪመጀመየ	-15520
▁እንደማንኛውም	-15521
ለዋወጥ	-15522
ደተኞች	-15523
ግባቢያ	-15524
▁ለብቻ	-15525
▁ወረደ	-15526
▁የምታወ	-15527
▁ዳኛቸው	-15528
▁የታየበት	-15529
▁አዱ	-15530
▁እዩ	-15531
▁እንደሰ	-15532
▁እንደሌለበት	-15533
ቆጥር	-15534
▁የስልጣኔ	-15535
ጀክቱ	-15536
ፅያን	-15537
▁በትዳር	-15538
▁አላማና	-15539
▁የቢቢሲ	-15540
▁በመመለስ	-15541
▁የእንኳን	-15542
አልና	-15543
▁መሰራ	-15544
▁ጥቅማ	-15545
▁መቋረጥ	-15546
▁ጥቃቱን	-15547
▁ጠባቂዎች	-15548
▁ሸን	-15549
▁ከህዝ	-15550
▁ይባስ	-15551
▁ስፖንሰር	-15552
ሰሩበት	-15553
▁ከጥር	-15554
▁ፀባይ	-15555
▁ቀሪዎቹ	-15556
▁ብስራት	-15557
▁መወያየት	-15558
▁ባለመቻላቸው	-15559
ሎጅ	-15560
ገቡም	-15561
ፈላለ	-15562
ከርካሪ	-15563
▁አትን	-15564
▁ዘማሪ	-15565
▁ዘውዱ	-15566
▁መሪያችን	-15567
▁በሆነችው	-15568
▁አጣብቂኝ	-15569
▁እንዲሄድ	-15570
▁አስታወቀች	-15571
▁እንደሚፈልጉ	-15572
ርፉ	-15573
ፃል	-15574
▁ልጅን	-15575
▁ባለት	-15576
▁እልህ	-15577
▁ከአም	-15578
▁የውል	-15579
▁የተገባ	-15580
▁ምስራቹን	-15581
▁የተመረጡት	-15582
ማያ	-15583
ክመ	-15584
ተማመን	-15585
▁ተብላ	-15586
▁ኮርፖሬሽኑ	-15587
ረቃ	-15588
ቁጠር	-15589
ፋትን	-15590
▁ሰምቼ	-15591
▁በጥንት	-15592
▁ተወስዶ	-15593
▁አቋርጦ	-15594
▁መሳፍንት	-15595
▁ስድስተኛ	-15596
▁በመካከላ	-15597
▁ትግሬዎች	-15598
▁አውሮፓውያን	-15599
▁ልኮ	-15600
ናፊዎች	-15601
▁ብሶት	-15602
▁ኦማር	-15603
▁እንረግ	-15604
ፕቴ	-15605
▁ከትን	-15606
▁ከሀምሌ	-15607
▁ማመላለሻ	-15608
ዊቷ	-15609
▁ከተወ	-15610
ስተካከለ	-15611
▁ከቀጠለ	-15612
▁በማረሚያ	-15613
▁አይፈ	-15614
▁አከናው	-15615
▁ወጣቱን	-15616
▁በመመስረት	-15617
ያዊው	-15618
▁ሰፍ	-15619
▁ፀል	-15620
▁እስቴ	-15621
▁መገኘቱ	-15622
▁ሲያስተ	-15623
▁ዘመዶች	-15624
▁የልጆች	-15625
▁የጥበቃ	-15626
▁ምክርቤት	-15627
▁የሚያምር	-15628
▁የቁጥጥር	-15629
▁መዝገ	-15630
▁በማከናወን	-15631
ሽያ	-15632
ኛዉ	-15633
አስ	-15634
ብራራ	-15635
▁ሊገኝ	-15636
▁ከፋይ	-15637
▁ያሰራ	-15638
▁እውነታውን	-15639
ቅማ	-15640
ተገ	-15641
የነው	-15642
▁ሲዋ	-15643
▁ምላስ	-15644
▁በእም	-15645
▁አሰጣ	-15646
▁ፈጥኖ	-15647
▁ሊያገኝ	-15648
▁እየወጡ	-15649
▁እንዳያስ	-15650
▁ይጠቀሳል	-15651
▁አስቆጥሯል	-15652
ፌን	-15653
▁መነፅር	-15654
▁የሙቀት	-15655
▁ለወደፊት	-15656
▁አስመላሽ	-15657
▁ሚኒስትሩን	-15658
በጠ	-15659
ንያም	-15660
▁ለቁ	-15661
ዳሪዎች	-15662
▁ሰንጠረዥ	-15663
▁ፋውንዴሽን	-15664
▁ሯ	-15665
ልድያ	-15666
ሰበት	-15667
▁ስምና	-15668
▁አባይን	-15669
▁ለበለጠ	-15670
▁የእነሱ	-15671
▁መሪዎችና	-15672
▁ከተቃዋሚ	-15673
▁ጦርነቱን	-15674
▁እንደተናገረው	-15675
ትረ	-15676
▁ኢሌ	-15677
▁ያብ	-15678
▁ምእተ	-15679
▁ከማል	-15680
▁ይሆኑ	-15681
▁ፍሳሽ	-15682
▁ተዘግቶ	-15683
▁ትንኮሳ	-15684
▁አላለም	-15685
▁በሪፖርቱ	-15686
▁የሚያስተላል	-15687
▁ሲፒ	-15688
ረጋግጡ	-15689
▁ትንንሽ	-15690
▁የምድብ	-15691
▁አስመሳይ	-15692
▁የሚጠቁም	-15693
▁የካፒታል	-15694
▁የተደረገበት	-15695
ላዩ	-15696
ረስት	-15697
▁እቁ	-15698
▁ዱር	-15699
▁አሸዋ	-15700
▁ፍየል	-15701
▁ስዊፍት	-15702
▁ነፃነትና	-15703
▁እመኛለሁ	-15704
▁የተወለደው	-15705
ኒት	-15706
ዜም	-15707
ፕሎማት	-15708
▁ብሎክ	-15709
▁ዝነኛ	-15710
▁ለማምለጥ	-15711
▁ከመኖሪያ	-15712
▁የዋል	-15713
▁ሊያመጣ	-15714
▁አማራውን	-15715
ዝድ	-15716
▁ኋ	-15717
▁ርቆ	-15718
▁ኮድ	-15719
▁አምባቸው	-15720
▁የሁለቱም	-15721
ንዱ	-15722
▁ያራ	-15723
▁ቁምነገር	-15724
▁የተገደሉት	-15725
▁የህብረተሰቡን	-15726
ነድ	-15727
ታውስ	-15728
▁አሰና	-15729
▁አከፋ	-15730
▁ክሱን	-15731
▁ይከሰ	-15732
▁ስራችን	-15733
▁የኢራን	-15734
▁ሙሳ	-15735
▁የመጠ	-15736
▁መከላከ	-15737
▁የኢዜማ	-15738
▁በህዝቦች	-15739
ዥያ	-15740
▁ተሳፋሪ	-15741
▁ፈልገው	-15742
▁አላግባብ	-15743
▁አይጠፋም	-15744
▁የዶክተር	-15745
▁መግለጫዎች	-15746
▁ከመወርወርዎ	-15747
▁የፀዳ	-15748
▁ሲቋቋም	-15749
▁ወሲባዊ	-15750
ፈልጋቸውን	-15751
▁ምሳሌዎች	-15752
▁የሰላማዊ	-15753
▁ቀንና	-15754
▁ተወሰ	-15755
▁ወልድያ	-15756
▁የተናገረውን	-15757
ለይቶ	-15758
ካሂዱ	-15759
▁ብሮ	-15760
▁ከጐ	-15761
▁ክትባ	-15762
▁ጭፈራ	-15763
▁ቢያደርጉ	-15764
▁ድርጅትን	-15765
▁እንደዚሁም	-15766
ሽሽ	-15767
ዋለው	-15768
▁የሾ	-15769
▁ጌቱ	-15770
ኩልነት	-15771
▁ከቦታ	-15772
▁ጥሩነህ	-15773
▁ተያይዘው	-15774
▁ይቀርባሉ	-15775
ቸኝ	-15776
▁ነፋ	-15777
▁መቅሰ	-15778
▁በማወ	-15779
▁አለፍ	-15780
▁እቅዱን	-15781
▁ይባርክ	-15782
▁በንፁሀን	-15783
▁እንኳንስ	-15784
▁ለጌ	-15785
▁ቢጤ	-15786
▁ሲቀር	-15787
▁ንድፍ	-15788
▁የትና	-15789
▁ተነግሮ	-15790
ቪዥ	-15791
ባባቂ	-15792
▁ዘጠ	-15793
▁አኗኗር	-15794
▁እየመሰ	-15795
▁ክብርት	-15796
▁በተደራጀ	-15797
▁ከተፈለገ	-15798
ደራጅ	-15799
ፅናና	-15800
መድህን	-15801
▁የአጋ	-15802
▁የፃፈ	-15803
▁በጋዜጣ	-15804
▁አስተምህሮ	-15805
▁የሁለትዮሽ	-15806
ጪዎቹ	-15807
ያቂነት	-15808
▁ቋንቋን	-15809
▁የአጭር	-15810
▁አደረገው	-15811
▁ከጀርመን	-15812
▁ቅሬታቸውን	-15813
ቅሱ	-15814
መሩት	-15815
ገሉት	-15816
▁መልክት	-15817
▁በመንግስ	-15818
▁አድርጓቸዋል	-15819
▁እንዳልነበረ	-15820
ልሙ	-15821
▁ወደር	-15822
▁የቁም	-15823
▁ይልማ	-15824
ዳብር	-15825
▁ማቲ	-15826
▁ከአር	-15827
▁አግኝቼ	-15828
▁ይጮ	-15829
▁የሰዉ	-15830
▁ልባቸው	-15831
▁በግምት	-15832
▁ተወስኖ	-15833
▁መዘጋጀት	-15834
▁ለፌ	-15835
▁ተፈርዶ	-15836
ግዛ	-15837
▁ማፅዳት	-15838
▁ከመላው	-15839
ሮቻቸውን	-15840
▁የብቃት	-15841
▁የዘለለ	-15842
ጠቀምባቸው	-15843
▁ከበሽታው	-15844
▁ከእውነት	-15845
▁ፌደራሊዝም	-15846
▁እንረግማለን	-15847
ኖችና	-15848
▁ቦንብ	-15849
▁አታስ	-15850
▁ከፕሮ	-15851
▁የካሳ	-15852
የታቸውን	-15853
▁ባህላችን	-15854
ረሩ	-15855
▁ይጣ	-15856
▁እየቆ	-15857
▁ሰነዱን	-15858
▁የታቀደ	-15859
▁የአስር	-15860
▁ታዳጊዎች	-15861
▁ከመጀመሩ	-15862
▁ከተሞችን	-15863
▁ደጋግመው	-15864
▁ሚን	-15865
▁ሚስዮ	-15866
▁ረብሻ	-15867
▁ሰፋፊ	-15868
▁ጣእም	-15869
▁ሜክሲኮ	-15870
▁እንደሚፈልግ	-15871
ዌት	-15872
ገሮች	-15873
▁ኑሩ	-15874
ቶቻችሁ	-15875
▁አወቀ	-15876
▁ካለን	-15877
▁የኛን	-15878
▁የዚሁ	-15879
▁በጥሞና	-15880
▁የሶሪያ	-15881
▁በብዙዎች	-15882
▁የማምረት	-15883
▁የጀመረውን	-15884
▁በራሴ	-15885
▁እኒህ	-15886
▁ማሪያም	-15887
▁እስክት	-15888
▁ጋዜጠኛው	-15889
▁የሚቀጥለው	-15890
▁አንቺን	-15891
ማንድ	-15892
ጀንቲ	-15893
ብዛኛው	-15894
▁መፈጠ	-15895
▁ቢቻል	-15896
▁ምስክሮ	-15897
▁ቅንጣት	-15898
▁አዳራሹ	-15899
▁በላይነህ	-15900
▁የሚያውቁ	-15901
ቺው	-15902
ማሩት	-15903
ገስት	-15904
▁ለፋ	-15905
▁ጀነ	-15906
▁ካደረ	-15907
▁የሰላ	-15908
▁በመጓዝ	-15909
▁በመጨመር	-15910
▁ባልደረቦ	-15911
▁ክትትልና	-15912
ገህ	-15913
▁ተቀር	-15914
▁ትሁት	-15915
▁ወንድማማች	-15916
በይ	-15917
ዉስ	-15918
ባበሩ	-15919
▁ያሳድ	-15920
▁በየአካባቢው	-15921
ጣለ	-15922
ጥፎ	-15923
▁ካፕ	-15924
▁የቅኝ	-15925
▁ከመግባ	-15926
▁ደርሰናል	-15927
▁በርሱ	-15928
▁በከፋ	-15929
▁ይጎብ	-15930
▁መስለው	-15931
▁ወልዲያ	-15932
▁እንዲቋቋም	-15933
▁የሚያከናው	-15934
ራሱ	-15935
ቀይ	-15936
ደታ	-15937
ፌል	-15938
▁መማ	-15939
▁በሚታ	-15940
▁አዳሪ	-15941
ፖል	-15942
▁ቅመ	-15943
▁ባቡ	-15944
▁ቢባልም	-15945
▁እንሁን	-15946
▁ከፌዴራል	-15947
▁የገቢዎች	-15948
▁ፁ	-15949
▁ጭቃ	-15950
▁አርት	-15951
▁ሲቀጥል	-15952
▁ደቡባዊ	-15953
▁የማያውቁ	-15954
▁አይፈልግም	-15955
መንድ	-15956
ሳሳት	-15957
ሞቻችን	-15958
▁ተገደ	-15959
▁አጠር	-15960
▁ለእይታ	-15961
▁ሸቀጦች	-15962
▁በህዝባዊ	-15963
▁የሚፈጠር	-15964
▁እናቀርባለን	-15965
ያዣ	-15966
ንተው	-15967
▁ካህን	-15968
▁ጣይቱ	-15969
▁ቁልቁል	-15970
▁እንዲቆይ	-15971
▁የቫይረሱ	-15972
▁ያገለገሉ	-15973
▁ከመደ	-15974
▁ኬሚካ	-15975
▁ጊዮርጊ	-15976
ደረግባቸው	-15977
▁አለመሆን	-15978
▁ኢትዮጵያውያ	-15979
▁ለማሀ	-15980
▁እየጎ	-15981
ከታተሉት	-15982
▁የተፃፉ	-15983
▁ማንቸስተር	-15984
▁አስተዳደርን	-15985
▁አወል	-15986
▁ከሀይ	-15987
▁አጥፍቶ	-15988
▁ቴሌቭዥን	-15989
▁ግንባታና	-15990
▁ተመላ	-15991
▁አግብ	-15992
▁በሌለው	-15993
▁አንጀት	-15994
▁የሚገድ	-15995
▁የአዲሱ	-15996
▁ከሀይማኖት	-15997
▁ማካ	-15998
▁ያሸን	-15999
▁ጠብቅ	-16000
▁ለውስጥ	-16001
▁ማሳካት	-16002
▁ምህዳር	-16003
▁ባይኖር	-16004
▁ተርፎም	-16005
▁ናቸውና	-16006
ኳታር	-16007
ደደው	-16008
▁ሜዳልያ	-16009
▁በአዋጁ	-16010
▁እንሆና	-16011
▁ከሆነም	-16012
▁አፅንኦት	-16013
▁ኢኮኖሚው	-16014
▁በሚፈለገው	-16015
▁የሚያስፈልግ	-16016
ቂቁ	-16017
▁ገመዳ	-16018
▁ከመሰረ	-16019
▁ያነጣጠረ	-16020
ሚኒ	-16021
ክታ	-16022
▁ደህ	-16023
ፈራራት	-16024
ሀይማኖት	-16025
▁ልዩነቱ	-16026
▁ከቀድሞ	-16027
▁አላገኘም	-16028
▁እንደወጣ	-16029
▁መሳሪያዎችና	-16030
▁ባጭሩ	-16031
▁መስኖና	-16032
▁ሜርክል	-16033
▁ተግባሩ	-16034
▁የማራቶን	-16035
▁በዋነኛነት	-16036
▁እያደረግን	-16037
▁ከመነ	-16038
▁መመልከ	-16039
▁እየመጡ	-16040
ከብራ	-16041
▁ተጠቆመ	-16042
▁ነበረኝ	-16043
▁እስትን	-16044
▁የአረንጓዴ	-16045
ዴግ	-16046
▁ተፈረደ	-16047
▁ደስታን	-16048
▁መለያየት	-16049
▁ማስጠበቅ	-16050
▁ተፈጥሮአዊ	-16051
▁ጓድ	-16052
▁ጳጉሜ	-16053
▁በጅቡቲ	-16054
▁በመሳተፍ	-16055
ሺፕ	-16056
ፅምና	-16057
▁መሸጋ	-16058
ግራቸውን	-16059
▁ዶክመን	-16060
▁ጥሰቶች	-16061
▁ሰነዶችን	-16062
▁ድርጅቱን	-16063
ቸዉም	-16064
▁ቀም	-16065
▁በአረብ	-16066
▁አንቶኒ	-16067
▁የበረሀ	-16068
▁ወጣቶችና	-16069
▁የፕሮጀክቱ	-16070
▁በኤሌክትሪክ	-16071
▁የተሰጣቸውን	-16072
ቀርም	-16073
▁ባየር	-16074
▁ሲጀምሩ	-16075
▁የተላከ	-16076
ተማ	-16077
ቀትን	-16078
ቻቻል	-16079
▁የፒ	-16080
ሻሻለው	-16081
▁ብሆን	-16082
▁እየወ	-16083
▁እንወዳ	-16084
▁የሟቾች	-16085
▁የቆሻሻ	-16086
▁የእርቅ	-16087
▁ያለዎት	-16088
ታወት	-16089
በረክት	-16090
▁ማይክሮ	-16091
▁ይስሀቅ	-16092
▁ዲያቆን	-16093
▁በሌሉበት	-16094
▁በስፖርት	-16095
▁በተጠቀሰው	-16096
ቴም	-16097
▁ካራ	-16098
ሎቻችን	-16099
ጠረጠሩ	-16100
▁በአህጉ	-16101
▁አንፃራዊ	-16102
▁የሁሉንም	-16103
▁ያብራራል	-16104
▁የደረሰባቸውን	-16105
ረች	-16106
▁ከእለት	-16107
▁ወጥመድ	-16108
▁ደንቆሮ	-16109
ሰቃየት	-16110
▁አለና	-16111
▁አረጋውያን	-16112
▁የተደረገላቸው	-16113
ራንት	-16114
ስተጓ	-16115
ኪዳን	-16116
ዲያስ	-16117
▁ባህሩ	-16118
▁ተቀን	-16119
▁የአራ	-16120
▁ሀሳብና	-16121
▁ከመከላከያ	-16122
ጠበቁት	-16123
▁ሰማሁ	-16124
▁ከሰኔ	-16125
▁ከክፉ	-16126
▁የሜዳ	-16127
▁በመቆም	-16128
ሁሩ	-16129
ሽኝ	-16130
ግራት	-16131
▁ስሰማ	-16132
▁በተከ	-16133
▁በኢት	-16134
▁ኢራቅ	-16135
▁ከወር	-16136
▁የወሎ	-16137
▁ጉን	-16138
▁መነኮ	-16139
▁አዋጭ	-16140
▁ምግብና	-16141
▁እድለኛ	-16142
▁የጅቡቲ	-16143
▁በማቋቋም	-16144
መልካች	-16145
▁በምስራ	-16146
▁ያሳለፈ	-16147
▁ንግግራቸው	-16148
▁ምጥ	-16149
▁ፌደ	-16150
ጊዜውም	-16151
▁ሀቀኛ	-16152
▁ቦርሳ	-16153
▁ለመጨመር	-16154
▁አመራርና	-16155
ጠች	-16156
▁ከብር	-16157
ስራኤላውያን	-16158
▁አይገባውም	-16159
▁እንሆናለን	-16160
▁ድርጊቶችን	-16161
ሪቲ	-16162
ርክና	-16163
▁እያደረሰ	-16164
▁መከላከልና	-16165
▁እንዲኖረን	-16166
ሰሪ	-16167
በርከ	-16168
ኒስቴር	-16169
ፀባርቅ	-16170
▁ራስህ	-16171
▁ድፍን	-16172
▁ሊንኩን	-16173
▁የአስራ	-16174
▁ጌታነህ	-16175
▁ከተባለው	-16176
▁የመፍጠር	-16177
▁ግጭቶችን	-16178
ፍፍ	-16179
ፋለሁ	-16180
ጠየቀው	-16181
▁ሲሞቱ	-16182
▁ተሳስ	-16183
▁አምሳ	-16184
▁ዘገበ	-16185
▁የአዋ	-16186
▁አልፈዋል	-16187
▁ህይወታችን	-16188
▁ብሄርተኞች	-16189
▁እኛው	-16190
▁መስራችና	-16191
▁በህብረት	-16192
▁ይፈጠራል	-16193
▁ረፋ	-16194
▁ርካሽ	-16195
▁ተንኮ	-16196
▁አልሞ	-16197
▁አትር	-16198
▁ሂደቶች	-16199
▁እዚህም	-16200
▁ወገኖችን	-16201
▁የሚከናወን	-16202
ብጦ	-16203
ማርያ	-16204
▁እዘ	-16205
ገርምም	-16206
▁መባል	-16207
▁በፊቱ	-16208
▁ህጎችን	-16209
▁ያስታወቀው	-16210
ጨባ	-16211
ስቀስ	-16212
▁ሳራ	-16213
ሽቆ	-16214
ገበያ	-16215
▁ፆታዊ	-16216
▁ንገሩኝ	-16217
▁ከትላንት	-16218
▁የተከሰተ	-16219
ሮብ	-16220
ህራሄ	-16221
ረዱን	-16222
▁አሰብ	-16223
▁ጥቅሙ	-16224
▁በእርሻ	-16225
▁የእሱን	-16226
▁በትምህር	-16227
▁የገባውን	-16228
▁ይሰጠናል	-16229
▁ኢንተርፕራይዞች	-16230
ልቦ	-16231
ደፈ	-16232
ጣለን	-16233
ቆጣጠረ	-16234
▁መቀበ	-16235
▁አይሁ	-16236
▁ካርኒ	-16237
▁በዙሪያ	-16238
▁ተሳክቶ	-16239
▁ለማጣራት	-16240
▁ለወጣቶች	-16241
ረዘ	-16242
ጥኝ	-16243
ጭቆ	-16244
ዞችን	-16245
▁ካቴ	-16246
▁ምታት	-16247
▁ቅቧን	-16248
▁በስር	-16249
▁ይገድ	-16250
ፓርታይድ	-16251
▁በፃፈው	-16252
▁መክረዋል	-16253
ዳግም	-16254
ገዛዙ	-16255
ጠነቅ	-16256
▁መፈረ	-16257
▁የከሰ	-16258
▁መጥተዋል	-16259
▁በአማራና	-16260
▁ከሚባሉት	-16261
▁የሀላፊነት	-16262
▁የተመሰረቱ	-16263
መካ	-16264
ሪኮ	-16265
▁ሳጥ	-16266
▁ቄንደሚ	-16267
▁እየተጋ	-16268
▁ተቋራጮች	-16269
ላላት	-16270
▁እነደ	-16271
▁ይሰሩ	-16272
▁ደሀን	-16273
▁ስታድየም	-16274
▁በጥቅምት	-16275
▁ሲያገለግሉ	-16276
▁ዩኒቨርስቲዎች	-16277
ቆጠብ	-16278
ዝግብ	-16279
▁ካለህ	-16280
▁ያለፉ	-16281
▁በክረምት	-16282
▁ቡድኖችን	-16283
▁ክርስቲያንን	-16284
ቶና	-16285
ግቦ	-16286
መረው	-16287
▁ቃላትን	-16288
▁በጎርፍ	-16289
▁የመክፈቻ	-16290
▁ለማሰባሰብ	-16291
▁እንደማይሆን	-16292
ጨመሩ	-16293
▁ይብ	-16294
▁ይይዛል	-16295
▁በክልሎች	-16296
▁አንተነህ	-16297
▁ቀይሮ	-16298
▁ፍሬው	-16299
▁ዘመኑን	-16300
▁የተጠመ	-16301
▁ያየሁት	-16302
▁እምነቶች	-16303
▁ኤክስፖርት	-16304
▁ኮንዶሚኒየም	-16305
▁የሚንቀሳቀስ	-16306
▁ንቃ	-16307
▁በኦነግ	-16308
▁ብለናል	-16309
▁ችግኞች	-16310
▁አረፍተ	-16311
▁ሰልፈኞች	-16312
▁እጠይቃለሁ	-16313
▁ያለማቋረጥ	-16314
▁በቀጠ	-16315
▁አልአ	-16316
▁አይሰጥም	-16317
▁ሱሪ	-16318
▁ታር	-16319
▁ስላላ	-16320
▁እጆች	-16321
▁እግዚ	-16322
▁ለወራት	-16323
▁መሞትን	-16324
▁መሰለህ	-16325
▁በስራው	-16326
▁ከዚያን	-16327
▁የመሰሉ	-16328
▁የሻቢያ	-16329
▁ፎቶግራፍ	-16330
▁ሚር	-16331
▁ክምር	-16332
▁ተጠብቆ	-16333
▁ከንግድ	-16334
▁ጦርነቶች	-16335
ሬሳ	-16336
ጓት	-16337
▁ቆየ	-16338
▁ልሳን	-16339
▁ታናሽ	-16340
▁ንተን	-16341
▁የበግ	-16342
▁ድምር	-16343
▁ስለሚሆን	-16344
▁አቡበከር	-16345
▁ከፅ	-16346
▁የሸዋ	-16347
▁ይገጥ	-16348
▁ጎሎች	-16349
▁ይናገር	-16350
ጠሩን	-16351
▁ሽኩቻ	-16352
▁አስነ	-16353
▁አመስጋ	-16354
▁በመሆኑና	-16355
▁እንዲቋረጥ	-16356
▁የተወሰደው	-16357
▁የወዳጅነት	-16358
ካድ	-16359
ያያዝ	-16360
▁ምኙ	-16361
▁በቲ	-16362
▁ቻይ	-16363
ናፊነት	-16364
▁ምእመና	-16365
▁የረዥም	-16366
▁ለማስቻል	-16367
▁በቅንነት	-16368
▁አስተናግ	-16369
▁የሚጠብቅ	-16370
▁እርግጠኞች	-16371
ራንክ	-16372
ገላአ	-16373
ረጋቸው	-16374
ይባቀተ	-16375
ገደመበ	-16376
▁ተቃወ	-16377
▁ታጦስ	-16378
▁የችግኝ	-16379
▁ምኙገላአ	-16380
▁ንተንአየ	-16381
▁ፍገደመበ	-16382
▁ትነይባቀተ	-16383
▁ለሚመለከተው	-16384
ቃዲሾ	-16385
▁ሙግት	-16386
▁በአጋ	-16387
▁ብሬን	-16388
▁ፍጅት	-16389
▁ግጭትና	-16390
▁በማሻሻል	-16391
▁የሚከሰት	-16392
▁ያስፈልግ	-16393
በረክ	-16394
▁ለኩ	-16395
▁ማስወ	-16396
▁ቆንስ	-16397
▁የሚበላ	-16398
▁ጠንቅቆ	-16399
ወና	-16400
▁ተረፈ	-16401
▁ከወን	-16402
▁ከኬንያ	-16403
▁የስርአ	-16404
▁ከእንግሊዝ	-16405
▁ግንኙነትና	-16406
አተ	-16407
▁ሊፈ	-16408
ነርሱም	-16409
▁አርቆ	-16410
▁እንዳገኘ	-16411
▁የኦሎምፒክ	-16412
ቢና	-16413
ደነገ	-16414
▁ሄደን	-16415
▁ይለያል	-16416
ሀኔ	-16417
ሽግ	-16418
ዳሩ	-16419
▁ሰብስ	-16420
▁ባሁኑ	-16421
▁ነብዩ	-16422
▁ፎቶዎች	-16423
▁ሲያቀርቡ	-16424
▁አካባቢዋ	-16425
ርቆስ	-16426
በጀት	-16427
▁ምቾት	-16428
ፕቴምበር	-16429
▁በሚችል	-16430
▁እድሳት	-16431
▁እፎይታ	-16432
▁ከደረሰ	-16433
▁የማሰብ	-16434
▁ጥቅምና	-16435
▁የመደመር	-16436
▁በአጋንንት	-16437
ሸጉ	-16438
ዝሩ	-16439
ምናው	-16440
▁ሽፋ	-16441
በረታቱ	-16442
▁የታመ	-16443
▁ተከብሮ	-16444
▁በመዲናዋ	-16445
▁ጎዳናዎች	-16446
ሬቶች	-16447
ነግር	-16448
ገለጥ	-16449
▁ምሽግ	-16450
▁እንስራ	-16451
▁የታጠቀ	-16452
▁ሆስፒታሉ	-16453
▁በተደረጉ	-16454
የዋ	-16455
ፋችን	-16456
▁ለቦ	-16457
▁ከቻ	-16458
ዚያብሄር	-16459
▁ግቦችን	-16460
▁በመከታተል	-16461
▁እንዲወስድ	-16462
▁ሊወስድ	-16463
▁አይከብ	-16464
▁አገዛዙ	-16465
▁ዘግይቶ	-16466
▁ስፖርታዊ	-16467
▁የሚያስከትለው	-16468
▁ባየ	-16469
▁ትሬ	-16470
▁ያካ	-16471
ጨረሻው	-16472
▁እሸቴ	-16473
▁ማቆሚያ	-16474
▁ተገዷል	-16475
▁አውታር	-16476
▁አይርሱ	-16477
▁በመረዳት	-16478
▁አጥብቀው	-16479
▁የሚካሄዱ	-16480
▁የሽልማት	-16481
▁የዘመናዊ	-16482
▁አካባቢያዊ	-16483
▁ክርስቲያኑ	-16484
▁በልብ	-16485
▁ያንብቡ	-16486
▁ጥበቃና	-16487
▁ማድረግን	-16488
▁በመፅሀፉ	-16489
▁የተነሱት	-16490
▁ያለንበት	-16491
▁ህገመንግስታዊ	-16492
▁እንደተገኘባቸው	-16493
▁አህመ	-16494
▁ጨቋኝ	-16495
▁ፊልሙ	-16496
▁ቲያትር	-16497
▁አጥተው	-16498
▁መጠናቀቅ	-16499
▁ጋዜጠኝነት	-16500
▁እንደማይቀር	-16501
▁የተመዘገበው	-16502
ፌስቶ	-16503
▁በስጋ	-16504
▁አግል	-16505
▁ጭነት	-16506
▁በሂሳብ	-16507
▁እየተቃ	-16508
▁ኦሊምፒክ	-16509
▁ድርጅቶቹ	-16510
▁ስለነበረው	-16511
ሚዝ	-16512
ኛለች	-16513
▁ከከ	-16514
▁ተናገር	-16515
▁ከጥፋት	-16516
▁የሀረር	-16517
▁በመክፈት	-16518
▁እንደማያስ	-16519
ሰጠን	-16520
▁ተለያዩ	-16521
▁የመስሪያ	-16522
▁ፖለቲካው	-16523
▁ወደሚገኘው	-16524
▁የኢየሱስን	-16525
▁ውግ	-16526
ጣታቸው	-16527
▁ሀተታ	-16528
▁ሸንጎ	-16529
▁በሰይ	-16530
▁በዋስ	-16531
▁በአምቦ	-16532
▁መዋቅራዊ	-16533
▁እየተነሳ	-16534
▁የመማሪያ	-16535
ባክ	-16536
ዶሎ	-16537
▁ላሳ	-16538
▁ሲም	-16539
▁ማልማት	-16540
▁በሩሲያ	-16541
▁ለድርድር	-16542
▁በድርድር	-16543
▁በጨዋታው	-16544
▁የሚሆንበት	-16545
▁ይመስልሀል	-16546
ብታ	-16547
ኪዮ	-16548
▁ሲነግ	-16549
▁መጥራት	-16550
▁የቦምብ	-16551
▁ጥያቄም	-16552
▁ኖቬምበር	-16553
▁የትዊተር	-16554
▁ግንባታውን	-16555
ከራቸው	-16556
▁ሁመራ	-16557
▁መሳተ	-16558
▁በበኩሌ	-16559
▁በመሳሰሉት	-16560
ላጫ	-16561
ሞላው	-16562
▁ስሟ	-16563
▁ይህቺ	-16564
▁መውረድ	-16565
▁ባህልን	-16566
▁ባይነት	-16567
ቀኞች	-16568
▁ፌስ	-16569
ኖቻቸው	-16570
ዘዋወሩ	-16571
▁ለሱዳን	-16572
▁ሜትሪክ	-16573
▁በሰባት	-16574
▁እየተና	-16575
▁ካላችሁ	-16576
▁ጌታችን	-16577
▁ለነበረው	-16578
▁ለፌዴራል	-16579
ልህም	-16580
ሰጠኝ	-16581
▁መዘር	-16582
▁የትር	-16583
▁ጡረታ	-16584
▁ለዜጎች	-16585
▁መቅደሱ	-16586
▁ማዘጋጀ	-16587
▁የሚገጥ	-16588
▁ያህዌን	-16589
▁ከአገሪቱ	-16590
▁ወዳድነት	-16591
▁ያልተገባ	-16592
ቬሽን	-16593
ፍራል	-16594
ቻልበት	-16595
▁ስላስ	-16596
▁ለማስፋት	-16597
▁የራሳችን	-16598
ነፃ	-16599
ኙነት	-16600
▁ኒውስ	-16601
▁ሻእቢያ	-16602
ሳሳ	-16603
ኔጋል	-16604
▁ዘም	-16605
▁ሱማሌ	-16606
▁ፒያሳ	-16607
▁ተግሳፅ	-16608
▁ጉዳይም	-16609
▁ባለሙያዎቹ	-16610
▁ማስተላለፊያ	-16611
▁ከጀ	-16612
▁ኩባ	-16613
ቴንሽን	-16614
▁ላንድ	-16615
▁መባሉን	-16616
▁ይለያያል	-16617
▁የኢትዮጵያዊነት	-16618
እት	-16619
▁ኦብ	-16620
ከታተለው	-16621
▁ሀይላት	-16622
▁ሱዳንና	-16623
▁ቅዳሜና	-16624
▁ከሰሀራ	-16625
▁ከአርባ	-16626
▁የዳኝነት	-16627
▁አልተገኘም	-16628
▁ትመስ	-16629
▁አደን	-16630
▁ደራሽ	-16631
▁ሲገደሉ	-16632
▁በርሊን	-16633
▁ቸርነት	-16634
▁ልጃቸውን	-16635
▁በዘንድሮ	-16636
▁ተቀናቃኝ	-16637
▁ያስቆጠረ	-16638
▁በቀዳሚነት	-16639
▁መግባታቸውን	-16640
ነዳ	-16641
ወረው	-16642
መጣበት	-16643
▁አረና	-16644
▁እስያ	-16645
▁ዘርዝ	-16646
ሆናቸውን	-16647
ለቲከኞች	-16648
▁አስታወ	-16649
▁የእኔን	-16650
▁የይሁዳ	-16651
▁ማንነቱን	-16652
▁ራሳችሁን	-16653
ተካ	-16654
▁የድሀ	-16655
▁ከአሁኑ	-16656
▁እየገለፁ	-16657
▁ስነምግባር	-16658
ዛወር	-16659
▁የፎ	-16660
▁ሲከበር	-16661
▁የስሜት	-16662
▁መዘንጋት	-16663
▁አሸባሪዎች	-16664
ተወ	-16665
▁ተገዢ	-16666
▁ትርኢ	-16667
▁ችግርና	-16668
▁ተመልሷል	-16669
▁ተዘግቷል	-16670
▁ነጥቦችን	-16671
▁አቀማመጥ	-16672
▁ያስቆጠረው	-16673
▁በትላንትናው	-16674
ለቅስ	-16675
▁ስጡ	-16676
▁በነሱ	-16677
▁አፋፍ	-16678
▁በያህዌ	-16679
▁የበለፀገ	-16680
▁ዶክተሮች	-16681
▁ግንኙነቶች	-16682
ቆርጥ	-16683
▁ይቸ	-16684
▁ጅል	-16685
▁እስኬ	-16686
▁በምድረ	-16687
▁ተመራቂ	-16688
▁እየወጣ	-16689
▁የሚጥል	-16690
▁የግብረ	-16691
▁በንብረት	-16692
▁የጉልበት	-16693
ደዉ	-16694
በኝነት	-16695
▁መነቃ	-16696
▁ካልሆኑ	-16697
▁ፐርሰንት	-16698
ሀዱ	-16699
ኩህ	-16700
ኸር	-16701
ቆምም	-16702
▁ኦን	-16703
▁ህትመት	-16704
▁በተቃውሞ	-16705
▁ያረጋግጣል	-16706
ሰረዝ	-16707
▁ሲገባው	-16708
▁ተቀናቃ	-16709
▁ኦርቶዶ	-16710
▁እንዲወስዱ	-16711
▁እንዲጨምር	-16712
▁የሚፈፀመው	-16713
▁የተሽከርካሪ	-16714
ክርክር	-16715
▁ወከፍ	-16716
▁ያሲን	-16717
▁አይፈልጉም	-16718
በዉ	-16719
ተተ	-16720
▁ቀሚስ	-16721
▁በቃሉ	-16722
▁ከንጉ	-16723
▁ያሰብ	-16724
▁የምናገኘው	-16725
▁ስፔሻ	-16726
▁እየገ	-16727
▁የሚያግዝ	-16728
▁ትሞታላችሁ	-16729
▁በመንግስትና	-16730
ከሉት	-16731
▁እቺ	-16732
▁ሲጠፋ	-16733
▁በብሄ	-16734
▁የሀያ	-16735
▁ለአዲሱ	-16736
▁አጥጋቢ	-16737
▁በባለሙያ	-16738
ሜኑ	-16739
ኋት	-16740
ምገማ	-16741
ደባቸው	-16742
▁በገፅ	-16743
▁ቦጋለ	-16744
▁አልቀ	-16745
▁የሚከበር	-16746
▁የተባሉትን	-16747
▁ያስታውሳሉ	-16748
▁ፕሬዚዳንታዊ	-16749
ፍሽ	-16750
▁ተዉ	-16751
▁በዚች	-16752
▁እንቢ	-16753
ከባሪዎች	-16754
▁እየሄዱ	-16755
▁ለሚቀጥሉት	-16756
ገንን	-16757
▁በአፅ	-16758
▁አጥፍ	-16759
▁ለመጓዝ	-16760
▁ለክፍለ	-16761
▁የለውጡ	-16762
▁አስፍሯል	-16763
▁የካቶሊክ	-16764
▁ትዉ	-16765
▁ከኩ	-16766
▁ሊረዳ	-16767
▁ባንክና	-16768
▁የሽያጭ	-16769
▁የነዚህ	-16770
▁ፖሊሲዎች	-16771
▁አጠናክረው	-16772
መንም	-16773
ዲፈቻ	-16774
▁ሳኒ	-16775
▁ታሽ	-16776
▁ምደባ	-16777
▁እኛስ	-16778
ፈልገውም	-16779
▁ሲሞክሩ	-16780
▁የሚከሰቱ	-16781
▁ከህብረተሰቡ	-16782
ፊነት	-16783
▁ባእድ	-16784
▁በፈጣሪ	-16785
▁ባልሆኑ	-16786
▁ማድረግና	-16787
▁በባህላዊ	-16788
ቻርድ	-16789
▁ፅዋ	-16790
▁ቦታና	-16791
▁ግርም	-16792
▁ለስላሳ	-16793
▁ማሳለፍ	-16794
▁በነዳጅ	-16795
▁በአይን	-16796
▁የቀለም	-16797
▁ያካፍሉ	-16798
▁ጉጂ	-16799
▁በሳቅ	-16800
ባባሪዎች	-16801
▁ልባችን	-16802
▁የመሀል	-16803
▁በማረጋገጥ	-16804
▁የሚደርሰውን	-16805
ላተ	-16806
ዞት	-16807
▁ለከፋ	-16808
▁በትና	-16809
▁ኢንደ	-16810
▁እምዬ	-16811
▁መልካሙ	-16812
▁ቀንበር	-16813
▁አማኞች	-16814
▁በውስጣቸው	-16815
▁እንደሚኖሩ	-16816
▁እንድንሆን	-16817
▁የባለስልጣኑ	-16818
ቤሪያ	-16819
▁ድርብ	-16820
▁የማወቅ	-16821
▁አልተሳካም	-16822
ጃጅ	-16823
ፈፍ	-16824
ጠትና	-16825
▁ሎሚ	-16826
▁ቢቂ	-16827
▁ያክ	-16828
ዳድረው	-16829
▁መልከ	-16830
▁ምንጮ	-16831
▁አህዛብ	-16832
▁ጥቅሶች	-16833
▁ሞክረዋል	-16834
▁ትሆናለህ	-16835
▁ዘንድሮም	-16836
▁የሚሰማቸው	-16837
▁የተዘጋጀውን	-16838
ባቂ	-16839
ዛዥ	-16840
መቻች	-16841
ሰብበት	-16842
▁ማከማ	-16843
▁አውር	-16844
▁ተህዋሲ	-16845
▁መገንጠል	-16846
▁በወጣቶች	-16847
▁ከምስራቅ	-16848
▁የምታደርገው	-16849
▁ከመካ	-16850
▁ደንግ	-16851
▁ችያለሁ	-16852
▁የነበረን	-16853
▁ታካ	-16854
▁ወጋ	-16855
▁በሀር	-16856
▁በአለማ	-16857
▁ይጎብኙ	-16858
▁ናትናኤል	-16859
▁አጥተዋል	-16860
▁የሚያስከትለውን	-16861
▁ደረሱ	-16862
▁ለተጠቃ	-16863
▁የተረከ	-16864
▁በዝቅተኛ	-16865
▁የሚመጥን	-16866
▁መጀመራቸውን	-16867
▁እቴጌ	-16868
▁ስእሎች	-16869
▁ማቋቋሚያ	-16870
▁የጉባኤው	-16871
▁እየተከበረ	-16872
▁በድርጊቶችዎ	-16873
▁ውጥ	-16874
መሰግን	-16875
ግሬሽን	-16876
▁ምንድ	-16877
▁ኮርያ	-16878
▁በበአሉ	-16879
▁በትንሽ	-16880
▁ተከፈተ	-16881
▁ትኩሳት	-16882
▁የየመን	-16883
▁እነርሱን	-16884
▁ፌደራላዊ	-16885
ጉባኤ	-16886
ግለል	-16887
▁ስአት	-16888
▁የዘመ	-16889
▁አንዱና	-16890
▁ፈፅመው	-16891
▁ለትውልድ	-16892
▁የከተሞች	-16893
ሳቹ	-16894
ፋም	-16895
ረጠው	-16896
▁ሰይድ	-16897
▁ስለት	-16898
▁ተርጓ	-16899
▁ተላላፊ	-16900
▁ማስፋፋት	-16901
▁ሰማእታት	-16902
▁ባለቤታቸው	-16903
ሬና	-16904
▁ቃና	-16905
▁ታያ	-16906
▁ትዊት	-16907
▁ቀጣዩን	-16908
▁በመኖሩ	-16909
▁የተገለ	-16910
▁ተወስዷል	-16911
▁የመካከለኛው	-16912
በች	-16913
ነጣ	-16914
▁መንታ	-16915
▁በህል	-16916
▁መፈናቀ	-16917
▁ሰሜናዊ	-16918
▁ጥበብን	-16919
▁በሶስተኛው	-16920
▁ይመልከቱት	-16921
ሰች	-16922
ጢፋ	-16923
▁ለጐ	-16924
▁ስፔን	-16925
ናገራቸው	-16926
▁ማዳመጥ	-16927
▁በጃፓን	-16928
▁የሚጎዳ	-16929
▁አይነተኛ	-16930
▁እውቀትን	-16931
▁የልማትና	-16932
ገታ	-16933
ተላለፍ	-16934
▁ወስጥ	-16935
▁ላይሆን	-16936
▁መገደል	-16937
▁ታስረዋል	-16938
▁ለእስራኤል	-16939
ቀምጥ	-16940
▁አጫው	-16941
▁የስደት	-16942
▁የክፍለ	-16943
▁የዋለው	-16944
▁ገጠመኝ	-16945
▁በማለትም	-16946
▁በማድረስ	-16947
▁እንድንችል	-16948
ሻም	-16949
ቆችን	-16950
ኒዚያ	-16951
ያዎቹ	-16952
▁ማኒ	-16953
▁ሲቃ	-16954
▁መስጂድ	-16955
▁ማስፈን	-16956
▁አስታዉ	-16957
▁ጥቂቶቹ	-16958
▁ተደራጅቶ	-16959
▁አልታወቀ	-16960
▁ከመጋቢት	-16961
▁የመሳሪያ	-16962
▁እንቅስቃሴው	-16963
▁ሁለገብ	-16964
▁ሳትሆን	-16965
▁ካርቱም	-16966
▁አላማቸው	-16967
▁እርግዝና	-16968
▁የይቅርታ	-16969
▁ድንቁርና	-16970
▁የሌላቸውን	-16971
ዜን	-16972
▁ኦሞ	-16973
ፃህፍት	-16974
▁በሲዳማ	-16975
▁ኮት	-16976
▁ኮከ	-16977
▁ምስኪ	-16978
▁ከያዘ	-16979
▁ዙፋን	-16980
▁ፍልሰ	-16981
▁በተቀና	-16982
▁በቅርቡም	-16983
▁የድህነት	-16984
▁መንግስታችን	-16985
ቦል	-16986
▁ወዶ	-16987
መስቀል	-16988
ዶቻቸው	-16989
▁መራሹ	-16990
▁ተገዥ	-16991
▁ሙሉቀን	-16992
▁የኋሊት	-16993
▁ቱሪስቶች	-16994
▁የካንሰር	-16995
▁ይሰጠዋል	-16996
ለና	-16997
▁ጁን	-16998
ቸኝነት	-16999
▁አቅመ	-17000
▁ክሊኒክ	-17001
▁የይዞታ	-17002
▁ሀላፊነቶች	-17003
▁ተሰጥቷቸዋል	-17004
▁አስከባሪዎች	-17005
ለዱ	-17006
ቃድ	-17007
ወጫ	-17008
ማይቱ	-17009
ክሳይ	-17010
▁ጠራ	-17011
▁የቻል	-17012
▁ያማረ	-17013
▁ጠብቁ	-17014
▁ሳምሶን	-17015
▁አስቀምጦ	-17016
▁መፅሀፋቸው	-17017
▁ፕሮፖጋንዳ	-17018
▁የመንግስቱን	-17019
ቋን	-17020
ከራል	-17021
▁ጁላይ	-17022
▁ስራዎቹ	-17023
▁ኢትዮጲያዊ	-17024
▁ያልተለመደ	-17025
▁በፌስ	-17026
▁ከቆየ	-17027
▁የዋና	-17028
▁ገሰሰ	-17029
▁እፅዋት	-17030
▁ስልጠናው	-17031
▁ሀላፊዎችና	-17032
▁ያስከተለው	-17033
▁የሚገባቸውን	-17034
ላውን	-17035
ፐብሊ	-17036
▁ለሲ	-17037
▁መዝጋት	-17038
▁ኬንያታ	-17039
▁እየተሰሩ	-17040
▁ማሀበረሰቡ	-17041
▁ተደራሽነት	-17042
መልጥ	-17043
ወለደ	-17044
ፃፃፍ	-17045
▁ጎላ	-17046
▁ለነፃ	-17047
▁ማክስ	-17048
▁ቢልም	-17049
▁ሆሳእና	-17050
▁አቀባዩ	-17051
▁ሪፖርቶች	-17052
▁ቤታቸውን	-17053
▁እንዲመጡ	-17054
▁በኢትዮጵያዊ	-17055
▁ናፋ	-17056
▁መሰጠ	-17057
▁ከመለ	-17058
▁ዘነበ	-17059
▁ተባብሮ	-17060
▁አደረገች	-17061
▁እንዲጠቀሙ	-17062
▁ጃፓ	-17063
▁ያማል	-17064
▁አኳኋን	-17065
▁ፅሁፋዊ	-17066
▁በመሰረተ	-17067
▁የሀይማኖ	-17068
▁የራሳችንን	-17069
ኤት	-17070
▁በሎ	-17071
▁ለብር	-17072
▁ማስከ	-17073
▁ቆራጥ	-17074
▁በሳይ	-17075
▁አንባ	-17076
▁የተጎ	-17077
▁የታች	-17078
▁የአምልኮ	-17079
▁ተስማምተው	-17080
ቫን	-17081
ነቱና	-17082
ጋዴር	-17083
▁ወዮ	-17084
▁እየታዩ	-17085
▁ያቅርቡ	-17086
▁መሆናችን	-17087
▁ተዋጊዎች	-17088
▁የእቅድህ	-17089
▁ህዝባችንን	-17090
ከፈተው	-17091
ወዳቸው	-17092
▁ብትል	-17093
▁ተጋብ	-17094
▁የእቃ	-17095
▁ማህደር	-17096
▁ስንቱን	-17097
▁በሲኦል	-17098
▁የአትክልት	-17099
▁ይስተዋላል	-17100
▁የሚካሄደውን	-17101
ፅደቅ	-17102
▁ቀረቡ	-17103
▁በርእ	-17104
▁ትሰራ	-17105
▁ከሩቅ	-17106
▁ይሻለ	-17107
▁ስሙኝማ	-17108
▁መፍራት	-17109
▁ጀመርን	-17110
▁ጥሪውን	-17111
ጠናቸው	-17112
▁ከውሀ	-17113
▁የሚው	-17114
▁አስታውሳለሁ	-17115
ምታ	-17116
▁ህግጋት	-17117
▁መግባቱ	-17118
▁ነፍሳት	-17119
▁ገፅታዎች	-17120
ዶር	-17121
▁ማሩ	-17122
▁ፈራ	-17123
▁ያልቻ	-17124
▁ይፈቱ	-17125
▁መኮነን	-17126
▁ለማራዘም	-17127
▁በስርአት	-17128
▁አላማዎች	-17129
▁በአውሮፕላን	-17130
▁ሶዶ	-17131
▁ባሏ	-17132
▁ያሸ	-17133
▁ሳልቫ	-17134
▁መታሰራ	-17135
▁አባወራ	-17136
▁ለመጫወት	-17137
▁ተይዘዋል	-17138
▁እንዳልሆኑ	-17139
▁ሙላት	-17140
▁ወደው	-17141
▁የጡት	-17142
▁የፀና	-17143
▁ጠቋሚ	-17144
▁ጠይቅ	-17145
▁ለአርሶ	-17146
▁በውይይ	-17147
▁አገሪቷ	-17148
▁በይበልጥ	-17149
▁ኢሰብአዊ	-17150
ጫዊ	-17151
▁ሞገ	-17152
▁ዉጪ	-17153
▁ጃክ	-17154
ነበበው	-17155
▁ቴክኖ	-17156
▁ዜናው	-17157
▁አቅምና	-17158
▁ናይጀሪያ	-17159
▁የጉምሩክ	-17160
▁ብዙዎቻችን	-17161
▁የቀድሞውን	-17162
▁የሚያበረታታ	-17163
▁ለዚ	-17164
▁ሴትዮ	-17165
▁የቆሙ	-17166
▁ይታደ	-17167
ደርግበት	-17168
▁አይመጣም	-17169
▁አደሮችን	-17170
▁እንዲነሱ	-17171
ከሰስ	-17172
▁ነገን	-17173
▁ነቢያት	-17174
▁አደሩን	-17175
▁ከሚኖሩ	-17176
▁የሊቢያ	-17177
▁የቁጠባ	-17178
▁ይልሀል	-17179
▁ማሸነ	-17180
▁ሩስያ	-17181
▁ንቀት	-17182
▁የፈጣሪ	-17183
▁የሚያስችለው	-17184
▁ኢንተርፕራይዝ	-17185
ዲኦ	-17186
▁ሲሲ	-17187
ራሪዎች	-17188
▁ለግብፅ	-17189
▁ስልኮች	-17190
ሌክትሮኒክ	-17191
▁ስመለከት	-17192
ገለው	-17193
▁ዋስ	-17194
ብረዋል	-17195
ገደሉት	-17196
▁በቆሎ	-17197
▁አበል	-17198
▁ፍራቻ	-17199
▁የሚያራም	-17200
▁የአልኮል	-17201
▁የተካሄደውን	-17202
ዳማዊት	-17203
▁መግደ	-17204
▁ከቀን	-17205
▁በተሰኘ	-17206
▁የእርሱ	-17207
▁የወሰን	-17208
▁ይሉናል	-17209
▁ተሰብስቦ	-17210
▁ተመልክተናል	-17211
ተመ	-17212
▁ባለፀጋ	-17213
▁አሸነፈ	-17214
▁ከሀላፊነታቸው	-17215
ባማ	-17216
ካፋ	-17217
ዊን	-17218
ጌላ	-17219
ዉያኑ	-17220
▁ሲሸ	-17221
▁ጉዟ	-17222
▁ተሻለ	-17223
▁ሰምተው	-17224
▁መልእክቱ	-17225
▁የሚነሳው	-17226
▁ለሚደረገው	-17227
▁ለመከላከልና	-17228
▁በሽብርተኝነት	-17229
ስጥር	-17230
ጋልጥ	-17231
ፈቅድም	-17232
▁ተወግ	-17233
ቀጥላለን	-17234
▁የዋሉት	-17235
▁መግባቱን	-17236
▁ታንዛኒያ	-17237
▁አላየሁም	-17238
▁የመወሰን	-17239
▁የስርአቱ	-17240
ፏን	-17241
▁መስኮ	-17242
▁የቢራ	-17243
▁ዮርዳ	-17244
▁ሲፈጠር	-17245
ታቹ	-17246
▁አዞ	-17247
▁የሹ	-17248
ክቶበር	-17249
▁ማነቆ	-17250
▁ማትያስ	-17251
▁ስብከቱ	-17252
▁አመኔታ	-17253
▁ተናጋሪዎች	-17254
ጥሉ	-17255
ንዴና	-17256
▁ኘሮ	-17257
▁ዘፋኝ	-17258
▁አንገቱን	-17259
▁የሚመስሉ	-17260
▁የብርሀን	-17261
▁ማስታወቂያው	-17262
ናቱን	-17263
▁ዳም	-17264
▁በመኖሪያ	-17265
▁እንዲመራ	-17266
▁የድርድር	-17267
▁ሰራዊታችን	-17268
▁የሚመጣውን	-17269
ዲቅ	-17270
ልሄም	-17271
መሩን	-17272
ረጋል	-17273
▁ሉሲ	-17274
▁እከሌ	-17275
▁ማህበራ	-17276
▁ምርቃት	-17277
▁ገበሬው	-17278
▁እርምጃው	-17279
▁ክርስትያ	-17280
▁በዩኒቨርሲቲው	-17281
▁የኢትዮጵያዊያን	-17282
▁ዥ	-17283
ጠፉም	-17284
ፃረር	-17285
▁ደው	-17286
ሻቸውን	-17287
▁ለማብ	-17288
▁አቃቢ	-17289
▁የርእ	-17290
▁የካር	-17291
▁የጀግ	-17292
ሳተላይት	-17293
▁መነሻው	-17294
▁ተግዳሮት	-17295
▁ከበርካታ	-17296
▁የፕሮጀክት	-17297
ዛምቢ	-17298
▁እሰጥ	-17299
▁ካይሮ	-17300
▁መመዝገብ	-17301
▁ቅሬታዎች	-17302
▁አሰራርን	-17303
▁እሳቸውም	-17304
▁ተሰጥቷቸው	-17305
▁ምዝ	-17306
▁የታዩ	-17307
▁ፓሊስ	-17308
▁አባሎች	-17309
▁ከረጅም	-17310
▁የጉራጌ	-17311
▁በአንደኛው	-17312
[...]
